<unk>	0
<s>	0
</s>	0
.	-2.35022
▁	-4.06357
요	-4.36003
?	-4.38543
을	-4.40529
가	-4.47014
도	-4.63262
이	-4.85044
는	-4.86034
게	-4.92412
▁거예요	-4.93929
은	-4.97674
고	-5.07992
를	-5.09168
지	-5.19514
▁수	-5.31565
세요	-5.35161
보세요	-5.36785
의	-5.36866
네요	-5.38605
▁너무	-5.41416
▁좋아하는	-5.52769
▁더	-5.53759
▁거	-5.58195
▁사람	-5.58708
▁잘	-5.59076
▁안	-5.66582
서	-5.68406
▁것	-5.68851
▁나	-5.7279
한	-5.79416
에	-5.81297
면	-5.85012
▁많이	-5.88088
▁사랑	-5.89012
▁좋은	-5.90293
죠	-5.91605
봐요	-5.98322
▁그	-5.99668
히	-6.00726
해보세요	-6.02499
▁좀	-6.03381
▁같아요	-6.0575
만	-6.05766
▁사람이	-6.07755
랑	-6.10286
▁있어요	-6.10892
▁있을	-6.10932
▁싶어	-6.1171
▁이별	-6.13161
▁게	-6.13659
으로	-6.14855
▁생각	-6.16685
▁없어	-6.17232
로	-6.18448
▁마음	-6.18478
▁때	-6.18841
▁썸	-6.20446
나	-6.22989
▁같아	-6.2355
!	-6.23904
▁내	-6.24324
▁다	-6.33652
▁말	-6.36803
하고	-6.37221
▁마세요	-6.37532
▁건	-6.39007
길	-6.3989
▁이제	-6.43105
▁오늘	-6.4416
▁마음이	-6.47857
▁내가	-6.4887
할	-6.49068
▁있는	-6.50664
▁왜	-6.52446
다	-6.53888
에서	-6.54723
네	-6.56327
▁해보세요	-6.5634
▁있	-6.5737
▁다른	-6.58496
▁어떻게	-6.59324
이에요	-6.61307
▁남자친구	-6.61989
▁연락	-6.64487
▁싶다	-6.64514
▁시간이	-6.6625
▁다시	-6.67267
▁여자친구	-6.69969
▁가	-6.7081
▁뭐	-6.71216
▁정말	-6.7218
▁있어	-6.72701
▁또	-6.72881
▁저	-6.73249
▁연애	-6.73388
일	-6.73948
▁한	-6.7434
▁일	-6.74483
▁좋을	-6.75456
▁않아	-6.76706
▁걸	-6.7757
▁수도	-6.77689
▁하는	-6.78045
하는	-6.78786
▁친구	-6.79126
▁좋아	-6.79841
겠어요	-6.80658
니다	-6.80699
▁못	-6.8132
▁해	-6.82282
야	-6.82673
어	-6.82686
▁조금	-6.84944
▁여자	-6.85055
▁같이	-6.85225
▁하고	-6.8573
▁자신	-6.864
▁지금	-6.86506
▁될	-6.87643
▁혼자	-6.88135
는데	-6.88662
에요	-6.88739
▁할	-6.89771
▁것도	-6.90355
으면	-6.91361
▁바	-6.92344
▁자꾸	-6.92854
▁그런	-6.92908
어요	-6.93734
▁당신	-6.94778
▁시간	-6.95547
가봐요	-6.9611
▁이	-6.98072
하세요	-6.98239
▁힘들	-6.99345
인데	-6.99607
년	-7.00688
▁일이	-7.01254
기	-7.02044
▁아니	-7.02866
▁바랄게요	-7.03152
▁진짜	-7.03186
든	-7.03616
해	-7.03745
▁먼저	-7.04484
▁돼요	-7.06193
▁제가	-7.0659
▁헤어진지	-7.07502
▁하나	-7.07744
▁살	-7.07865
과	-7.07977
하지	-7.08186
▁저도	-7.08714
▁만나	-7.0982
하게	-7.11067
▁있을까	-7.11171
▁아무	-7.11542
▁없는	-7.11607
한테	-7.12723
▁선물	-7.14424
▁계속	-7.1457
거예요	-7.14846
거	-7.15548
는게	-7.15788
▁힘든	-7.1587
▁좋아요	-7.16586
▁그럴	-7.17253
▁될까	-7.17505
인	-7.18447
▁남자	-7.19679
라	-7.2045
▁먹고	-7.20543
랍	-7.20641
▁짝녀	-7.217
▁서로	-7.22376
▁전	-7.23228
▁사랑이	-7.23764
▁드세요	-7.24152
▁방법	-7.24996
▁없	-7.25008
▁사	-7.25448
▁좋죠	-7.25692
보다	-7.25931
니까	-7.25988
라고	-7.2603
▁참	-7.26439
데	-7.27295
하면	-7.2742
▁술	-7.27674
운	-7.28352
▁이야기	-7.29581
▁하세요	-7.30024
주세요	-7.30261
▁아직	-7.30639
▁짝사랑	-7.30787
씩	-7.31331
던	-7.32284
▁눈	-7.3362
▁날	-7.33775
▁애	-7.34101
상	-7.34437
▁하지	-7.3568
▁몰라	-7.35718
▁준비	-7.35807
▁중	-7.37285
다고	-7.37454
▁힘들어	-7.37532
▁많은	-7.37668
,	-7.37682
▁결혼	-7.37928
니	-7.38804
▁말해보세요	-7.39803
▁생각해요	-7.40271
나봐	-7.40751
▁데이트	-7.40973
▁보고	-7.41993
▁충분	-7.42312
▁좋겠어요	-7.43306
▁무슨	-7.43567
해도	-7.44432
▁해요	-7.44542
▁줄	-7.45154
▁그냥	-7.45811
▁짝남이	-7.46331
▁있나	-7.46517
▁들어	-7.46855
▁이렇게	-7.4732
까지	-7.47385
▁돈	-7.47449
▁어떤	-7.47779
▁할까	-7.48057
까	-7.49026
지도	-7.49216
▁생각해	-7.49679
봅니다	-7.49873
▁친구가	-7.50004
에게	-7.50141
▁나만	-7.50755
▁대화	-7.51127
▁사람은	-7.51468
▁힘드네	-7.52036
▁그렇	-7.52184
▁1	-7.53273
▁하	-7.53726
▁2	-7.53735
래	-7.53839
▁싫어	-7.5384
▁보세요	-7.53916
대로	-7.54197
▁함께	-7.54299
▁공부	-7.54377
▁머리	-7.54526
▁아	-7.54623
▁하루	-7.5463
▁오래	-7.55278
입니다	-7.5555
▁고민	-7.55956
▁관심	-7.56377
▁짝남	-7.5642
▁좋겠	-7.56532
지만	-7.56558
▁너	-7.57043
▁새로운	-7.57091
▁내일	-7.57195
예요	-7.5721
와	-7.57483
▁카톡	-7.57649
▁남	-7.57795
▁알	-7.58467
▁어떨까요	-7.5856
해요	-7.58644
나를	-7.60135
▁있는데	-7.60514
▁사랑하는	-7.60777
▁헤어진	-7.60791
▁하면	-7.60896
▁후	-7.61231
▁듯	-7.61308
▁그래	-7.61819
▁감정	-7.62062
했어	-7.624
▁3	-7.6277
▁타는	-7.6455
겠죠	-7.6457
▁돼	-7.64768
▁연락이	-7.65211
▁안돼	-7.65524
▁여행	-7.6621
▁생각이	-7.66386
합니다	-7.67714
▁시작	-7.6829
▁말고	-7.68333
심	-7.68754
▁이유	-7.68794
해주세요	-7.69048
▁주세요	-7.69228
항	-7.69595
▁싶은	-7.71628
▁고백	-7.7209
▁많아	-7.7236
▁해도	-7.72794
▁이젠	-7.72805
▁올	-7.73145
진	-7.73189
▁마음에	-7.73576
▁후회	-7.7384
▁열	-7.73889
른	-7.73909
▁따라	-7.74084
▁끝	-7.74085
▁않는	-7.74143
▁만큼	-7.74241
▁스트레스	-7.74399
▁같은데	-7.7463
▁나한테	-7.74691
▁누구	-7.74691
▁도움	-7.74745
▁보	-7.74968
부터	-7.74997
▁곳	-7.75058
▁만날	-7.75095
▁쉽지	-7.75577
▁우리	-7.75583
▁운동	-7.75701
▁가고	-7.75881
▁기억	-7.75998
▁좋겠다	-7.7664
▁않	-7.7695
대	-7.7703
▁쉬	-7.77171
자	-7.77233
▁그녀	-7.77447
▁맘	-7.77574
▁모르겠어	-7.78134
할까	-7.78453
▁해야	-7.79193
▁바라요	-7.79514
해서	-7.79576
▁꿈	-7.80346
▁제	-7.8044
수	-7.80488
▁기분	-7.80993
▁찾아	-7.81002
인지	-7.81505
▁이별을	-7.81602
▁정리	-7.81624
질	-7.81788
▁않을	-7.82246
려	-7.82304
자고	-7.82912
▁같은	-7.8296
▁반	-7.83668
▁집	-7.84562
거라	-7.84575
▁직접	-7.85232
▁얼	-7.8534
건	-7.85534
▁언제	-7.8573
▁전화	-7.85777
▁꼭	-7.86073
▁문제	-7.88641
리	-7.89206
▁볼	-7.89338
거나	-7.89418
▁자	-7.901
▁괜찮아요	-7.90222
▁좋겠어	-7.90511
▁만들어	-7.90608
▁점	-7.91335
▁요즘	-7.91495
▁변화	-7.91556
습니다	-7.92102
▁결국	-7.92661
면서	-7.93164
▁어디	-7.93271
이죠	-7.93673
걸	-7.93864
▁되는	-7.94159
▁와	-7.94673
▁없네	-7.94853
▁기대	-7.94993
▁나는	-7.95776
▁비	-7.96358
▁좋을까	-7.9645
▁않은	-7.96636
▁있죠	-7.96681
▁알아	-7.96826
점	-7.9693
▁피	-7.96947
▁필요해	-7.9752
▁가는	-7.9758
긴	-7.97933
것도	-7.98635
▁한달	-7.9886
다면	-7.98879
▁아직도	-7.99087
▁집에	-7.99413
▁싶은데	-7.99764
▁마음의	-7.99945
▁중요한	-7.99959
만큼	-8.00222
▁늦	-8.00811
▁어제	-8.01439
▁노래	-8.01518
▁연락을	-8.01525
적인	-8.01602
▁때문에	-8.01653
려고	-8.01844
▁인생	-8.01898
▁모르는	-8.02225
대한	-8.03107
▁마	-8.03158
▁아니라	-8.03223
▁회사	-8.03437
▁거라	-8.0345
기도	-8.03569
▁큰	-8.03701
▁아파	-8.03728
수록	-8.03771
▁매일	-8.04071
▁되	-8.04141
▁상처	-8.04588
▁시간을	-8.04636
간	-8.04856
처럼	-8.05019
▁마지막	-8.05204
▁오	-8.05302
▁완전	-8.0551
▁오늘도	-8.05511
▁가장	-8.05695
이라	-8.06345
▁어때	-8.06488
▁중요해	-8.06806
군요	-8.06994
▁믿어	-8.07047
자기	-8.07098
▁잠	-8.07303
함	-8.07638
장	-8.08618
겠네	-8.08688
▁현실	-8.08828
제일	-8.09234
▁해볼까	-8.09401
▁관계	-8.09476
▁남자애	-8.09598
▁가지	-8.09768
▁나쁜	-8.09972
▁딱	-8.10062
▁여친	-8.10117
▁갑	-8.10316
▁이런	-8.1046
▁기	-8.10497
주	-8.10505
▁헤어짐	-8.10728
까요	-8.1086
아	-8.1125
이야	-8.11446
▁오세요	-8.11679
▁살고	-8.1184
천	-8.11965
▁나이	-8.12061
▁물어보	-8.12109
▁핸드폰	-8.12199
▁같애	-8.12204
들	-8.12485
▁좋아해	-8.1249
▁용기	-8.12493
▁모든	-8.1262
▁타	-8.12847
▁남자가	-8.13104
▁헤어지고	-8.13118
▁몸	-8.13144
▁밥	-8.13145
▁얼마	-8.13307
▁맛있	-8.13359
▁미련	-8.13514
야지	-8.14354
개월	-8.14403
▁어느	-8.14498
▁난	-8.14549
▁뭘	-8.14571
▁조심하세요	-8.15013
▁잘할	-8.15159
▁차	-8.15517
▁연락해	-8.16426
▁결정	-8.16442
▁정	-8.16668
▁보내	-8.16805
▁기다려	-8.16869
▁알았는데	-8.17059
▁필요	-8.17071
▁천	-8.17139
▁뭘까	-8.17167
때	-8.17249
▁확신	-8.17261
▁사진	-8.17344
러	-8.17611
▁왔어	-8.18357
에는	-8.18594
▁놀	-8.186
▁잘하는	-8.18686
▁사람들이	-8.18735
겠지	-8.18799
▁길	-8.18827
▁자기	-8.19061
하는데	-8.19093
▁되나	-8.19209
▁가끔	-8.19327
▁스스로	-8.19341
▁예의	-8.19459
▁아침	-8.19464
이랑	-8.19491
▁했는데	-8.19666
▁덜	-8.19855
▁상대방	-8.19935
▁번	-8.19936
▁썸남	-8.19963
방	-8.20242
▁사랑에	-8.20471
▁물	-8.21151
▁남친	-8.21241
차	-8.21293
▁당신이	-8.21404
▁보는	-8.21406
▁재회	-8.21425
아요	-8.21491
▁엄청	-8.21531
▁자주	-8.21887
▁어떡해	-8.21903
▁커피	-8.21935
▁날씨	-8.21943
▁모두	-8.22062
▁짝남한테	-8.22122
음	-8.22299
▁인연이	-8.22731
▁만나는	-8.23208
▁정리가	-8.23279
▁없다	-8.23434
져	-8.23473
▁아닌	-8.23573
▁사는	-8.23604
▁걱정	-8.24213
▁엄마	-8.2438
▁합니다	-8.24648
▁처음	-8.24654
▁된	-8.24686
▁받아	-8.24785
▁5	-8.24835
▁새	-8.24974
▁한번	-8.25132
▁선택	-8.25341
▁화	-8.25551
▁사람한테	-8.2565
시	-8.25664
▁소개팅	-8.25735
했던	-8.25773
▁대	-8.25779
▁쉬운	-8.25827
▁맞는	-8.25923
▁필요한	-8.2652
▁기분이	-8.26666
하기	-8.2692
▁의미	-8.26988
▁진심	-8.26999
여	-8.27074
▁많았	-8.27095
하면서	-8.27251
▁없을	-8.27275
하네	-8.2729
▁있다면	-8.27351
▁들	-8.27804
▁좋아할	-8.28495
▁말이	-8.28775
▁모르겠어요	-8.29164
임	-8.29189
▁말아	-8.2925
정	-8.29265
▁연습	-8.29351
▁영화	-8.2959
▁기다리	-8.2991
적	-8.29975
▁후폭풍	-8.30047
마다	-8.30256
▁상대	-8.30368
이나	-8.30507
▁그만	-8.30514
▁손	-8.30819
하죠	-8.30823
▁몇	-8.31105
마세요	-8.31124
▁정도	-8.31516
▁앞에	-8.31645
된	-8.32101
▁나와	-8.32338
▁행복	-8.32504
▁신경	-8.32532
▁빨리	-8.32623
▁부	-8.3267
▁가져	-8.32755
▁잔	-8.32957
▁날이	-8.33121
▁모습	-8.33157
▁사이	-8.33206
▁갈	-8.34181
▁추억	-8.34236
▁만나고	-8.34576
▁잘하고	-8.35137
▁입	-8.35198
▁벌써	-8.35345
▁않았	-8.35397
▁꽃	-8.35466
▁귀	-8.3556
▁6	-8.35561
▁걸까	-8.35645
치	-8.35679
▁두	-8.3573
드	-8.36263
▁4	-8.36291
▁부모님	-8.36411
▁적	-8.36524
게요	-8.36664
▁아픈	-8.36702
▁언젠	-8.36723
▁얼굴	-8.36998
금	-8.37022
줄	-8.37049
더니	-8.37086
▁괜찮은	-8.37259
▁싶어요	-8.37934
▁말씀	-8.384
▁이별이	-8.3866
▁감기	-8.38687
~	-8.38731
▁이상	-8.38783
▁추천	-8.38789
▁사람들	-8.39287
찍	-8.39764
구	-8.39844
날	-8.399
▁갖	-8.39981
▁만난	-8.40212
▁지	-8.4042
▁자신이	-8.40452
▁있었나	-8.40644
제	-8.40736
▁생각나	-8.40807
달	-8.41069
▁사세요	-8.41228
▁느낌	-8.41308
▁잠시	-8.41356
▁만들	-8.41461
▁힘내세요	-8.41632
▁신경쓰지	-8.41704
▁바람	-8.41713
▁예뻐	-8.41906
▁약	-8.42081
▁줘	-8.42197
▁무	-8.424
▁먹	-8.42478
하	-8.42478
▁예쁘	-8.42575
!!	-8.42779
달라고	-8.43961
▁재미	-8.4398
▁주	-8.44158
▁아픔	-8.44269
▁하는데	-8.44532
▁아닌데	-8.44555
▁되지	-8.44609
▁같	-8.44831
▁금	-8.45061
▁하죠	-8.45247
▁끝나	-8.45268
▁소리	-8.45275
▁되길	-8.45372
▁다가가	-8.45373
▁만남	-8.45516
인가	-8.45556
▁사귀고	-8.45896
만에	-8.46206
▁힘들다	-8.46354
▁넘	-8.46497
▁안해	-8.46625
릴	-8.46841
실	-8.46991
▁바쁘	-8.47062
▁티	-8.4715
졌어	-8.4744
트	-8.47542
▁슬픈	-8.4767
▁직장	-8.47673
▁어려워	-8.47696
었어	-8.4785
▁여친이	-8.47963
▁고민이	-8.48121
일째	-8.48148
▁남편이	-8.4823
▁않죠	-8.48511
▁힘이	-8.48538
▁물어	-8.4855
▁궁금해	-8.48818
일까	-8.49815
▁좋	-8.50091
신	-8.50211
▁나서	-8.50706
▁것이	-8.50982
▁주무	-8.51002
▁받고	-8.51065
▁알바	-8.51256
▁원하는	-8.51474
▁전에	-8.51566
▁연락하고	-8.51634
▁이해	-8.52349
▁학교	-8.529
▁보면	-8.529
▁만	-8.52957
릴게요	-8.5316
▁호감	-8.53464
▁동	-8.53505
▁여자애	-8.53519
▁건강	-8.53943
▁됐어	-8.53968
▁게임	-8.53982
▁아는	-8.54007
▁힘들게	-8.54148
▁위해	-8.54384
▁삶	-8.54395
▁곧	-8.5455
▁자체	-8.54621
것	-8.54724
▁막	-8.54745
▁화장	-8.54772
▁못하겠어	-8.54804
▁일어나	-8.54942
▁긴	-8.54998
▁뭐야	-8.55055
번	-8.553
없이	-8.55328
▁썸남이	-8.55777
▁가슴	-8.56034
▁여유	-8.56035
▁사귀는	-8.56065
▁헤어지	-8.56346
발	-8.56365
▁많	-8.56445
▁맞	-8.56697
지는	-8.5671
통	-8.56762
듯	-8.56919
▁법	-8.56933
▁쉽	-8.57217
▁거죠	-8.57223
▁선	-8.57406
▁감	-8.57527
▁옷	-8.57827
볼까	-8.57871
▁나중에	-8.58066
▁귀찮아	-8.58119
▁즐거	-8.58127
▁먹어야지	-8.58146
▁괜찮을까	-8.58193
▁해주세요	-8.58351
▁표현	-8.58568
▁사랑했던	-8.58621
▁꿈에	-8.58647
▁힘들지	-8.5909
▁따뜻	-8.59256
▁먹으면	-8.59503
▁다음에	-8.59779
▁싫다	-8.59956
했나봐	-8.60217
▁챙겨	-8.6046
▁그분	-8.60641
▁확인해	-8.61183
▁같네	-8.61191
▁좋아하	-8.61248
보	-8.61381
▁좋아하면	-8.61515
▁보통	-8.61769
해야	-8.6182
▁만났어	-8.61859
▁당	-8.61886
▁자신감	-8.61897
▁확실한	-8.6196
▁가기	-8.62191
용	-8.62256
▁가능	-8.62269
▁코	-8.62377
▁소중	-8.62429
▁차이	-8.6262
▁세상	-8.62879
인가봐	-8.62922
▁그녀를	-8.63026
▁말해	-8.63115
▁물어보는	-8.63185
▁행복해	-8.63196
▁좋아하게	-8.63527
봐	-8.63533
있는	-8.63632
▁중에	-8.63671
▁생각할	-8.63788
▁위로	-8.63961
▁못하는	-8.63976
▁많아요	-8.64763
답	-8.65059
냐	-8.65258
▁비싸	-8.65329
▁우산	-8.65557
▁작은	-8.65727
했어요	-8.658
▁중요하지	-8.65874
▁짝녀한테	-8.65887
▁맨날	-8.65919
▁미리	-8.65936
▁잘못	-8.66023
▁맛	-8.66109
▁목	-8.66279
디	-8.66384
▁친구한테	-8.66403
▁잠이	-8.66835
▁맛있는	-8.66935
▁설레	-8.67083
▁연인	-8.67165
▁힘	-8.67495
▁받을	-8.67527
▁첫사랑	-8.67631
▁실수	-8.67764
▁없이	-8.67766
내	-8.67812
▁했어	-8.67963
▁네	-8.6817
▁간다	-8.68193
▁차단	-8.68211
▁다를	-8.68272
▁고생	-8.68659
▁배	-8.68708
▁주는	-8.68764
▁힘들겠지	-8.68795
▁이별후	-8.68914
▁편이	-8.69039
▁종교	-8.69551
▁위	-8.69652
▁생길	-8.6969
▁기회	-8.69697
▁시험	-8.69736
▁잠깐	-8.69736
▁드는	-8.69797
▁헤어졌습니다	-8.69804
▁고민이야	-8.69809
▁떠나	-8.69923
▁책	-8.69936
▁카페	-8.69945
▁바쁜	-8.70215
▁하늘	-8.70353
▁봐	-8.70688
▁곳이	-8.70778
▁이별의	-8.70881
▁대해	-8.70899
▁글	-8.71426
▁드	-8.71525
▁알게	-8.71604
▁정신	-8.71727
▁끝이	-8.72037
다가	-8.72331
▁진정	-8.72446
▁약속	-8.72478
▁건지	-8.72519
▁찾아보	-8.72676
▁좋아하는데	-8.7278
▁노력	-8.72795
▁되네	-8.73184
▁전여친	-8.73233
▁해봐요	-8.73251
▁만나지	-8.7337
▁알고	-8.73491
▁구	-8.73611
▁멋진	-8.73727
▁분위기	-8.73737
▁알려줘	-8.73741
▁같습니다	-8.73832
▁있지	-8.73887
란	-8.73901
▁믿	-8.74133
▁절대	-8.74221
▁받는	-8.74341
들이	-8.74415
▁놀아	-8.7445
▁복	-8.74468
▁뿐이	-8.74514
며	-8.74536
▁돈이	-8.74616
겠지만	-8.74625
▁일을	-8.74633
▁아닌지	-8.74641
보면	-8.74759
▁사랑할	-8.74774
했는데	-8.74947
▁생겼	-8.74963
▁타고	-8.75074
▁거짓말	-8.75186
▁아프	-8.75189
▁모	-8.75835
▁상관	-8.75972
▁좋지	-8.76269
▁않고	-8.76423
▁데	-8.76481
린	-8.76734
이라면	-8.76739
▁되어	-8.76745
▁보지	-8.76842
▁뿐	-8.76988
▁지켜	-8.7704
▁좋다	-8.77347
집	-8.77446
▁괜찮	-8.77614
▁그래요	-8.77614
텐데	-8.77655
▁봄	-8.7774
▁답	-8.77829
소	-8.7786
림	-8.779
▁괜	-8.7802
덧	-8.7806
▁자존감	-8.78081
▁드디어	-8.78081
▁파	-8.78244
▁둘	-8.78246
▁뭔지	-8.78275
사	-8.7833
울	-8.78428
▁가세요	-8.78435
▁받아들이는	-8.7875
▁안녕	-8.78785
▁죽을	-8.78888
싶네요	-8.78889
▁좋겠죠	-8.7907
▁싶	-8.79222
▁환승	-8.79267
▁순간	-8.79349
▁남친이	-8.79362
▁별	-8.794
▁좋은데	-8.79498
▁여자애가	-8.79534
▁사귀	-8.79578
▁편	-8.7985
▁첫	-8.79913
▁서로에	-8.79956
▁연락해도	-8.80053
가서	-8.80204
▁폰	-8.80298
▁먹을	-8.80369
▁장	-8.80399
갈	-8.80511
거야	-8.80706
줘	-8.80931
▁밤	-8.80965
▁살아	-8.81065
▁안되는	-8.81538
▁세	-8.81698
▁미련이	-8.81773
▁남자들	-8.8187
사람을	-8.82248
▁월급	-8.82455
엔	-8.82502
겠어	-8.82614
▁자책하지	-8.82647
▁떨려	-8.82663
▁않는다면	-8.82769
▁인기	-8.8288
▁뭔가	-8.8288
▁아닐까요	-8.83047
▁힘들었	-8.83051
▁행동	-8.83101
▁문자	-8.83105
▁시기	-8.83194
▁그러면	-8.83455
나요	-8.83606
▁하기	-8.83618
▁매	-8.83628
▁뭐라고	-8.83714
▁개	-8.83746
▁사랑하고	-8.83942
▁있습니다	-8.83945
▁주변	-8.85381
▁사랑하면	-8.85401
▁이제는	-8.85649
▁친구들이	-8.85651
중	-8.85656
▁어	-8.85927
▁괜찮아	-8.85972
▁자연스러	-8.86299
▁벌	-8.86306
▁가야	-8.86449
▁능력이	-8.86451
선	-8.86609
▁못해	-8.87065
▁눈물	-8.87083
▁방법이	-8.8726
▁오는	-8.87286
▁관리	-8.87347
▁비밀	-8.87354
▁무서워	-8.87397
더라	-8.87417
▁탈	-8.87642
▁축하해요	-8.87678
▁이상형	-8.87829
▁인	-8.87901
▁써	-8.87917
▁두려워	-8.87995
▁도전	-8.88067
▁분	-8.88119
▁그리고	-8.88359
▁잊는	-8.88402
▁내려	-8.88658
▁사람에	-8.88946
▁쓰	-8.88973
▁별로	-8.8917
▁인정	-8.89213
▁괜찮을	-8.89577
▁되겠	-8.89724
을까	-8.89772
▁편지	-8.89842
▁척	-8.89861
리는	-8.90007
▁기다리는	-8.90016
▁세상에	-8.90131
▁사랑해	-8.90248
▁습관	-8.90272
▁발	-8.90292
▁성격이	-8.90427
▁욕	-8.90433
럽	-8.9079
▁두달	-8.91016
▁잊지	-8.9125
▁프사	-8.91438
▁꾸준	-8.91723
▁보러	-8.91895
▁말하는	-8.92119
▁말씀해	-8.9218
▁편하	-8.92241
▁나랑	-8.92328
▁되고	-8.9237
▁적당히	-8.92396
▁어려운	-8.92399
▁화장실	-8.9241
▁싸	-8.92434
▁있잖아	-8.92435
▁헤어졌어	-8.92451
▁경우	-8.92489
▁물어봐	-8.92494
▁최선	-8.92547
▁않았으면	-8.92576
단	-8.92624
더라고요	-8.9268
▁쇼핑	-8.92826
▁후회하지	-8.92978
▁상담	-8.9311
▁상황이	-8.93138
▁조언	-8.93183
▁생기	-8.93331
▁전남친	-8.93407
▁조	-8.93575
▁잊을	-8.93616
▁로맨틱	-8.93702
▁시켜	-8.93711
▁신	-8.93914
▁정리하는	-8.93949
▁것보다	-8.94037
▁앞	-8.94166
▁성공	-8.94198
▁아프네	-8.94317
▁썸녀	-8.94516
▁인연	-8.94689
라면	-8.94724
▁필요하겠	-8.94855
비	-8.94899
▁먹는	-8.95277
난	-8.95292
▁볼까	-8.9532
걸까	-8.9569
까봐	-8.95866
▁봅니다	-8.96068
▁잊혀지	-8.96407
▁주면	-8.96431
했으면	-8.96795
▁없나	-8.96825
살	-8.96906
▁해보는	-8.96907
▁친구들	-8.97155
▁잊고	-8.9717
감	-8.97178
▁지났네	-8.97276
해야지	-8.97509
▁예쁜	-8.97526
땐	-8.97527
▁헷갈리	-8.97546
▁병원	-8.97619
▁오빠	-8.97619
▁원래	-8.97664
▁느낌이	-8.97725
▁단	-8.97748
▁이번	-8.9781
▁제대로	-8.97814
▁만나자	-8.98061
돼	-8.98143
▁누가	-8.98156
▁여러	-8.98193
▁저에게	-8.98203
셔	-8.98232
▁않을까요	-8.98349
증	-8.9835
▁뭐라	-8.98351
▁행복한	-8.98475
▁모르	-8.98483
▁자신에게	-8.98522
▁그대로	-8.98704
동안	-8.98772
마	-8.9881
▁생각만	-8.9888
▁받았어	-8.99022
▁확실	-8.99055
▁있으니까	-8.99237
가슴이	-8.99382
▁사랑한	-8.99456
애가	-8.99546
▁싶지	-8.99556
가면	-8.99896
같은	-9.00051
▁여	-9.00329
론	-9.00364
▁사람과	-9.00385
▁감정이	-9.00397
▁고	-9.00544
▁종	-9.00636
▁군대	-9.00651
짝	-9.00834
▁옆에	-9.01021
▁사람에게	-9.0109
▁해서	-9.01095
▁온	-9.01232
▁속이	-9.01304
▁마시	-9.01511
▁끝을	-9.01947
▁후회할	-9.02032
▁숨	-9.02199
▁시	-9.02251
째	-9.02344
▁웃	-9.0242
▁보고싶어	-9.02436
▁짧	-9.02471
▁따	-9.02526
두	-9.02569
▁노력하	-9.02587
▁강	-9.02765
▁눈에	-9.02958
▁속	-9.03033
▁있나요	-9.03064
▁버텨	-9.03169
▁발표	-9.03171
▁담배	-9.03172
▁어플	-9.03185
▁연예인	-9.03189
▁이야기해	-9.0322
▁나을	-9.0338
▁눈치	-9.03413
▁현상	-9.03424
▁유	-9.03509
▁10	-9.03571
하다	-9.03671
▁용기내	-9.03719
년째	-9.03899
다니	-9.04084
▁상황을	-9.04226
고생	-9.04306
▁질투	-9.04346
는건	-9.04381
▁힘내	-9.04692
▁스킨십	-9.04778
▁끝내	-9.05023
▁그러	-9.05047
야겠다	-9.05048
▁그녀가	-9.05113
다는	-9.05119
▁좋아하나	-9.05183
▁좋아할까	-9.05215
▁받지	-9.05247
▁식	-9.05445
▁쉬어	-9.0546
▁살펴	-9.05664
스	-9.05709
▁깨	-9.05733
▁놓아주	-9.05743
▁받	-9.05753
▁이사	-9.05782
▁주말	-9.05794
▁가족	-9.05854
▁상	-9.06542
▁보이	-9.0666
▁달라지는	-9.07021
▁마련	-9.07263
▁그렇지	-9.07288
▁있으	-9.08089
▁달	-9.08141
▁버리	-9.08167
▁극복	-9.08213
▁만남이	-9.08217
▁짝사랑하는	-9.08468
보고	-9.08477
▁안하고	-9.08554
▁안들어	-9.08672
칠	-9.08687
▁연락하는	-9.08701
▁하다보	-9.08905
▁아닐	-9.08943
▁생일	-9.08956
▁기다릴	-9.09036
▁새벽	-9.09049
▁바빠	-9.09055
▁축하드려요	-9.09089
▁졸	-9.09094
▁부담스럽	-9.09169
▁행복하	-9.09178
▁한동안	-9.09217
▁영	-9.09233
▁의사	-9.09254
▁등	-9.0929
▁최고	-9.09419
▁커플	-9.09524
▁무엇이	-9.09554
전	-9.09575
▁헤아리	-9.09633
▁알아보	-9.09824
크	-9.09989
▁보여	-9.10001
▁눈물이	-9.10023
▁답장	-9.10133
▁감사	-9.10246
▁이상한	-9.1035
▁힘들겠	-9.10421
▁호감이	-9.10779
▁혼자만	-9.11045
낼	-9.11081
시군요	-9.1111
▁심해	-9.1124
▁톡	-9.11357
▁못하고	-9.11483
▁드시	-9.11521
▁모르겠네	-9.11532
▁준비하	-9.11533
▁정리하	-9.11684
같아	-9.11711
▁시작이	-9.11791
▁되기	-9.12004
▁확인	-9.12022
▁부담	-9.12038
후	-9.12204
야죠	-9.12306
▁언젠가	-9.12312
▁선물이	-9.12346
▁살펴보	-9.12576
▁주고	-9.12628
▁생겼어	-9.12773
▁스타일	-9.12782
▁우울	-9.12786
▁안나	-9.12799
ᅮ	-9.12935
▁연락하면	-9.13281
▁원	-9.13387
▁것을	-9.13478
▁청소	-9.13571
해볼까	-9.13604
▁아이	-9.13616
어도	-9.14108
▁적극적	-9.14252
▁얘기	-9.14317
▁죽	-9.14416
▁초	-9.14755
▁생각하는	-9.14761
▁상처받	-9.1477
▁풀	-9.14894
▁장난	-9.14906
시길	-9.14926
▁발전	-9.1495
▁본인	-9.15088
우	-9.15185
▁7	-9.15215
▁어쩔	-9.15218
▁준	-9.15238
▁학	-9.15279
▁소	-9.15282
▁저녁	-9.15292
▁면접	-9.15293
▁버스	-9.15298
▁SNS	-9.15312
▁목소리	-9.15316
▁다이어트	-9.15324
▁안경	-9.15325
▁떠난	-9.1533
▁바보	-9.15341
▁음식	-9.15358
▁오랜만에	-9.15372
▁집안일	-9.15379
▁짜증나	-9.15396
▁휴식	-9.15399
▁상사	-9.155
▁좋을텐데	-9.15518
▁취미	-9.15572
건가	-9.15666
▁한잔	-9.15687
▁지나갈	-9.15771
▁차분	-9.15793
▁여자친구와	-9.1588
▁갈까	-9.16154
▁썸타는	-9.16171
▁이상해	-9.16388
▁따로	-9.1644
▁이해해	-9.16442
▁잊어버리	-9.16457
▁키	-9.16491
보는	-9.16492
▁사랑하는데	-9.1654
어보세요	-9.16552
이별한	-9.16716
▁중인	-9.16757
▁휴가	-9.16857
식	-9.16942
ᅲᅲ	-9.17041
놓고	-9.17049
▁낫	-9.17085
▁해줘	-9.17167
분	-9.17169
▁다르	-9.17211
▁먹어	-9.17235
▁생각해보세	-9.1735
▁괜찮아질	-9.17547
▁소식이	-9.17567
▁시원	-9.17601
케	-9.17635
▁해결	-9.17664
▁되는데	-9.17989
▁되었	-9.18275
▁선택일	-9.18303
▁신경쓰	-9.18341
▁만나면	-9.18386
▁이별에	-9.18487
▁쉬는	-9.1856
▁꿈이	-9.18641
▁커	-9.18687
▁부분	-9.18828
▁추억이	-9.18902
워	-9.18906
ᅲ	-9.19164
▁후련하	-9.19199
▁상황	-9.19326
▁마셔	-9.1941
▁떠	-9.19618
▁썸이	-9.19687
▁주지	-9.1997
겠다	-9.20007
▁칭찬	-9.20099
▁다행이	-9.20262
▁존재	-9.20364
기는	-9.20764
▁살까	-9.20818
▁싫은	-9.21119
을지도	-9.21187
▁돌	-9.21469
▁뒤	-9.21545
▁인사	-9.21661
료	-9.21662
▁양	-9.21719
▁쓰레기	-9.21721
션	-9.21814
락	-9.21846
▁졸업	-9.21943
▁고민하	-9.21944
▁바뀔	-9.21954
▁미래	-9.22009
이면	-9.22012
▁밖에	-9.22021
▁만났는데	-9.22107
▁재밌	-9.22136
▁지쳤나	-9.22143
▁좋겠지	-9.22145
▁소화	-9.2217
▁생각나는	-9.22176
▁어쩌지	-9.2218
▁번호	-9.22188
▁쓰는	-9.22236
▁앞으로	-9.22294
▁없애	-9.22313
▁공	-9.22397
▁장거리	-9.22416
▁있고	-9.22495
▁하셨	-9.22511
▁빌려	-9.22549
▁빼	-9.22566
▁가능성	-9.22688
▁일상	-9.22719
▁많죠	-9.22725
밖에	-9.22858
▁그리워	-9.22979
▁말도	-9.23063
말	-9.23187
▁않으면	-9.23312
▁뭐하지	-9.2333
▁붙잡고	-9.23337
했	-9.23416
▁안와	-9.23625
▁위로해	-9.23633
예	-9.2369
돈	-9.23797
▁다르겠지	-9.23812
▁상처를	-9.23878
▁없는데	-9.23884
▁이거	-9.24156
▁운명	-9.24463
▁괜찮아졌	-9.24703
▁여기	-9.24731
▁학원	-9.24893
▁무시하	-9.24905
▁연락처	-9.24909
▁필요할	-9.24966
▁울어	-9.25078
▁뜻	-9.25104
▁집중	-9.2512
▁싶네	-9.25174
▁잡	-9.25232
성	-9.25381
▁간	-9.25517
▁다음	-9.25535
▁되면	-9.25567
▁피해	-9.25568
▁없으면	-9.25612
가요	-9.25686
▁기운	-9.2574
▁만났	-9.25755
▁찍	-9.25784
▁곳에	-9.26142
주가	-9.26157
▁만드	-9.26285
으세요	-9.26515
▁키우	-9.26694
겨	-9.268
▁배우	-9.26862
르	-9.26919
▁과정	-9.27182
▁나가	-9.27289
었던	-9.27442
됐어	-9.27534
▁생각하	-9.27665
으니까	-9.27763
▁중요	-9.27799
들을	-9.27955
▁최	-9.27963
▁했으면	-9.28065
▁했던	-9.28096
▁보기	-9.28144
▁연락하지	-9.28394
원	-9.28456
▁않네	-9.28681
▁외로워	-9.28734
▁당당하	-9.28753
▁사랑한다	-9.29014
▁우	-9.29014
▁살아야	-9.29074
▁사귈	-9.29091
▁느려	-9.29095
▁대학	-9.29104
▁미친	-9.29109
▁마스크	-9.2911
▁기념일	-9.2911
▁치과	-9.29143
▁추워	-9.29145
▁걱정돼	-9.29155
▁누군가	-9.29156
▁결과	-9.29206
▁어떡하지	-9.29211
▁친구들과	-9.29251
▁벗어나	-9.29253
▁생각나네	-9.29279
▁지내	-9.29354
▁8	-9.29364
▁쐬	-9.29364
▁필요하죠	-9.29414
▁꿨어	-9.29415
▁걱정하지	-9.29466
▁실감	-9.2948
▁솔직하	-9.29564
▁자격	-9.29729
렇게	-9.29734
▁크게	-9.2974
▁있겠지	-9.30012
▁타는데	-9.30033
▁됨	-9.30052
▁했습니다	-9.30154
▁어디서	-9.30236
▁나오	-9.30314
▁동거	-9.30408
▁거울	-9.30424
▁꿈에서	-9.30461
▁상관없	-9.30525
쳐	-9.30545
박	-9.30859
이란	-9.30901
▁사랑해서	-9.3091
▁휴	-9.30969
▁그랬	-9.30982
▁미워	-9.30996
▁다행	-9.3105
▁편한	-9.31129
▁도서관	-9.31317
▁마련이	-9.31335
▁못할	-9.31362
▁명	-9.31483
▁왔는데	-9.31506
피	-9.31625
는거	-9.31672
▁듣고	-9.31843
▁독	-9.31852
종	-9.31977
▁않으니	-9.32045
▁될까요	-9.32048
말고	-9.32115
▁결혼식	-9.32178
▁집에서	-9.32179
▁존중	-9.32181
▁재	-9.32259
▁달라	-9.3228
▁피곤해	-9.32354
▁맞춰	-9.32413
었길	-9.3264
잡고	-9.32654
하거나	-9.32761
▁거야	-9.32786
▁중요하	-9.32823
할때	-9.32825
었는데	-9.32893
왔어	-9.32911
록	-9.32932
▁짐	-9.33117
▁여자들	-9.33143
▁거절	-9.33171
▁어때요	-9.33353
▁질	-9.33387
▁궁금하네	-9.33412
었나봐	-9.33525
느라	-9.33686
▁흘렀네	-9.33852
▁인생이	-9.34173
▁용	-9.34209
친구가	-9.34261
어서	-9.34333
▁반대	-9.34336
▁챙겨드	-9.34393
런	-9.34479
이라고	-9.34507
▁취업	-9.34632
▁건가	-9.34708
되	-9.34796
▁공부하	-9.34968
라는	-9.35286
▁안하는	-9.35476
▁취	-9.35635
별	-9.35685
▁자연스	-9.36106
▁생각하지	-9.36114
▁미	-9.36201
▁포기	-9.36275
▁거니	-9.36406
년이	-9.36513
팅	-9.36663
좀	-9.36708
▁푹	-9.36717
▁계획	-9.36774
▁혹시	-9.36778
▁시계	-9.36781
▁분명	-9.36785
▁은근	-9.36787
▁평소	-9.36788
▁인형	-9.36792
▁안타깝	-9.36796
▁권태기	-9.36796
▁심호흡	-9.36796
▁온전	-9.368
▁언제쯤	-9.36817
▁피부	-9.36819
▁샀어	-9.36843
▁헤어졌는데	-9.36888
▁떨어졌어	-9.36951
저	-9.36968
▁조심	-9.36977
▁관심사	-9.37065
▁통보	-9.37071
▁희망	-9.37132
▁미세먼지	-9.3717
▁그동안	-9.37212
▁즐기세요	-9.37215
▁친한	-9.3722
▁적응	-9.37297
▁먹을까	-9.37318
▁싫	-9.3732
▁증거	-9.37346
▁적어	-9.37386
▁어울리	-9.37506
▁이건	-9.37596
▁회사에서	-9.37645
▁행복하게	-9.37842
냐고	-9.37859
▁문득	-9.3789
▁찾아올	-9.37924
▁순	-9.37971
▁저한테	-9.38012
될	-9.38021
동	-9.3806
하니까	-9.38072
▁보고싶다	-9.3809
▁말할	-9.38101
▁할텐데	-9.38171
▁있지만	-9.38327
▁행복할	-9.38536
한데	-9.38573
약	-9.38584
▁방	-9.3877
▁선톡	-9.38785
▁왔다	-9.38869
한다면	-9.38943
▁놀고	-9.3902
주는	-9.39202
▁방학이	-9.39209
▁자신만	-9.39331
▁사귀기	-9.39433
▁떨	-9.39588
한다	-9.39788
준	-9.39876
▁꾸	-9.39959
▁들어가	-9.39977
▁감정에	-9.40007
새	-9.4021
▁잊	-9.40221
▁자고	-9.40239
▁본	-9.40292
매	-9.40348
▁집착	-9.40633
▁저도요	-9.40662
▁멍	-9.41247
▁자세	-9.41286
▁달라고	-9.41336
▁한달이	-9.41527
창	-9.41617
▁차별	-9.41662
▁고통	-9.41746
▁아는데	-9.42053
▁부모님이	-9.42069
렸어	-9.42112
▁것들	-9.42142
▁소개	-9.42211
▁듣	-9.42295
병	-9.42316
▁않게	-9.4241
▁걷	-9.42714
▁문	-9.42863
▁스	-9.42886
▁편할	-9.42915
▁크리스마스	-9.43011
▁썸인	-9.43071
▁함	-9.43159
▁처음에	-9.4332
께	-9.43357
지지	-9.43371
▁피하	-9.43385
▁지쳐	-9.43412
▁기본	-9.43507
▁변하	-9.43596
▁부러워	-9.43871
▁몰랐	-9.43896
기만	-9.43901
▁없지	-9.43947
▁바라	-9.43987
▁시작해	-9.44151
▁있네	-9.44379
▁친구로	-9.44441
▁사이에	-9.44625
메	-9.44631
하려고	-9.44664
▁완벽	-9.44911
▁걔	-9.4505
▁현재	-9.4505
곰	-9.4505
링	-9.4505
▁멈추	-9.45052
▁스키	-9.45053
▁축구	-9.45055
▁무서운	-9.45083
▁드라마	-9.45122
이라는	-9.45123
▁이겨낼	-9.45125
▁귀여워	-9.45131
▁걱정이	-9.45133
▁응원합니다	-9.45158
▁불러	-9.45159
▁지난	-9.45179
▁분이	-9.45187
차근	-9.45192
▁놓	-9.45251
▁연	-9.45257
▁이성으로	-9.4526
▁끝난	-9.45264
▁깊	-9.45287
▁사소	-9.45302
▁막말	-9.45351
▁충전	-9.45372
▁오해	-9.45379
▁똑같은	-9.45396
▁최고죠	-9.45491
▁안됐는데	-9.45517
▁말투	-9.45523
▁시어머니	-9.45526
▁습관이	-9.45538
▁알면서도	-9.45545
▁지금처럼	-9.45555
▁나왔어	-9.45597
▁절	-9.45608
▁헤어지자고	-9.45648
부	-9.45702
▁깊은	-9.45769
▁많은데	-9.45772
▁사랑한다면	-9.45838
▁좋지만	-9.4588
▁됐으면	-9.4592
▁채워	-9.45934
▁텐데	-9.45937
▁조절	-9.45942
▁망	-9.45961
▁인상	-9.45977
잠을	-9.46034
▁짧은	-9.46152
▁내는	-9.46168
▁라면	-9.46275
됐는데	-9.46332
인듯	-9.46366
▁부러워요	-9.46405
▁크	-9.46424
▁순간이	-9.46429
▁됩니다	-9.46497
▁어서	-9.46515
▁평생	-9.4671
▁해야지	-9.46805
▁과	-9.46824
▁내리	-9.46918
▁모아	-9.47097
하다가	-9.47241
▁안전	-9.47347
▁있겠죠	-9.47396
▁진급	-9.4741
▁과정이	-9.47514
▁힘들어서	-9.4752
당	-9.47734
▁데려다	-9.47768
▁건강에	-9.4778
▁자신에	-9.48008
는지	-9.48109
▁드네	-9.48223
▁통해	-9.48261
▁성격	-9.48448
끼	-9.48528
▁있을거예요	-9.48538
▁그러게	-9.48678
▁지나가	-9.48697
구나	-9.48715
▁주변에	-9.4875
▁슬퍼	-9.48824
움	-9.48837
▁했나	-9.48898
▁진	-9.4917
▁생겼네	-9.49173
▁직접적	-9.49179
▁출근	-9.49231
▁부족한	-9.49233
양	-9.49352
초	-9.49472
▁재미있	-9.49517
▁거겠죠	-9.49627
▁잊어	-9.49647
싶어	-9.49665
▁비가	-9.49728
콩	-9.49752
▁타이밍이	-9.49775
▁어렵	-9.49794
▁놀러	-9.49847
▁다녀	-9.50008
꺼	-9.50057
▁고백하는	-9.5024
▁표현해	-9.50245
▁배려	-9.50321
줬어	-9.50427
▁마주치	-9.50626
▁방학	-9.50686
▁남기	-9.50707
▁헤어져야	-9.50716
▁심	-9.50737
지내고	-9.5078
▁이혼	-9.50806
▁봐도	-9.50861
▁바뀌	-9.51099
▁해주는	-9.5119
▁참아	-9.51208
▁일주일	-9.51212
▁풀어	-9.51346
글	-9.51348
▁두고	-9.51415
▁떨리	-9.51574
▁짝사랑이	-9.51618
▁그것	-9.51699
▁올려	-9.51727
▁비교하	-9.51732
▁않나	-9.51793
▁그사람	-9.51843
▁사귀어	-9.51929
▁접	-9.52023
▁걸어	-9.52228
▁지나갔	-9.52297
▁놓고	-9.52325
??	-9.52368
▁없어서	-9.52581
▁추천해	-9.52588
▁틀	-9.52835
작	-9.52893
▁결정이었을	-9.52938
▁안돼요	-9.52963
▁사실	-9.53054
▁싸우면	-9.53064
▁전부	-9.53154
▁돌아가	-9.5316
▁개인	-9.53194
▁계	-9.53223
▁변	-9.53236
리기	-9.5341
혀	-9.53447
▁회사에	-9.53624
▁가능할	-9.53647
▁동안	-9.53682
플	-9.53894
▁역시	-9.53894
▁괴롭	-9.53927
▁가벼	-9.54125
▁맞았	-9.54138
토	-9.54141
▁설렘	-9.54141
▁페북	-9.54141
▁맥주	-9.54141
▁아름다	-9.54142
▁멋져	-9.54157
▁골라	-9.54164
▁각자	-9.54166
▁진실	-9.5418
▁그리움	-9.5418
▁달달	-9.54187
▁여전	-9.54194
▁냉장고	-9.54206
▁기분전환	-9.54218
▁이별통보	-9.54227
▁하루하루	-9.54231
▁남겨	-9.54232
▁아빠	-9.54248
▁떨어져	-9.54249
▁집들이	-9.54251
▁제발	-9.54258
▁부럽네요	-9.54315
▁잠수	-9.54343
▁상상	-9.54352
▁잘해줘	-9.54359
▁전환	-9.5436
▁과거	-9.54391
▁걸릴	-9.54487
전에	-9.54492
▁넌	-9.54542
▁근처	-9.54597
▁예민한	-9.54627
▁전공	-9.54628
▁두번	-9.54671
▁없겠지	-9.54685
▁바꾸	-9.54692
와서	-9.54779
▁환승이별	-9.54806
▁새로	-9.54835
▁잡아	-9.54864
조차	-9.54914
▁철	-9.55038
달째	-9.55054
▁어린	-9.55115
▁봄이	-9.55156
▁과일	-9.55207
▁멋있	-9.55232
▁야근	-9.55266
▁습관이에요	-9.55301
▁아니야	-9.554
▁맘에	-9.55447
▁믿음이	-9.55588
▁불	-9.55601
▁살기	-9.55617
▁쓰고	-9.5565
▁알려주	-9.55662
▁말까	-9.5578
▁몰	-9.56009
▁둘이	-9.56019
▁주말이	-9.56126
법	-9.56204
▁알면	-9.56228
▁배워	-9.56357
▁안되	-9.56547
▁사고	-9.56885
혼자	-9.56911
▁빠지	-9.56944
▁청	-9.56955
▁중간	-9.57085
▁무엇	-9.57089
▁담	-9.57097
▁쓴	-9.57106
듯이	-9.57127
▁됐네	-9.57237
▁했	-9.57449
▁쉬어가	-9.57714
▁찾아가	-9.57715
▁놀이	-9.57951
▁사야	-9.58079
형	-9.58208
▁돌려	-9.58272
안	-9.5836
2	-9.58481
▁이어	-9.58525
▁짓	-9.58533
▁갔다	-9.58555
두고	-9.58595
▁자리	-9.58673
▁부분이	-9.58717
▁반지	-9.58768
▁오면	-9.58775
냈어	-9.58818
▁생각이에요	-9.58826
ᄏ	-9.58881
▁찾기	-9.58902
▁사랑하	-9.58919
이네	-9.5925
▁이해해주	-9.59257
리고	-9.59408
김	-9.59465
▁인간	-9.59502
▁배우는	-9.59778
▁남을	-9.59881
▁성공하	-9.59938
▁끊	-9.60004
▁읽	-9.60158
▁늘어	-9.60163
▁마음으로	-9.60417
▁ᅲ	-9.60632
▁더워	-9.60645
다가도	-9.6074
만으로	-9.60779
▁당연	-9.60833
▁생	-9.61052
▁많을	-9.61108
▁다리	-9.61119
지고	-9.61121
▁가져보	-9.61339
▁하네	-9.61519
▁동물	-9.61574
▁선생님	-9.6161
먹기	-9.61653
▁있으니	-9.61761
▁표현이	-9.6185
▁클럽	-9.61926
속에서	-9.61986
▁아니니	-9.62036
▁마무리	-9.62037
▁힘들었을	-9.62061
▁했나봐	-9.62093
▁생각에	-9.62119
스러운	-9.6237
▁궁금	-9.62514
▁답답한	-9.62529
▁긍정적	-9.62559
▁이럴	-9.62745
▁사과	-9.62775
▁터	-9.62849
▁없겠네	-9.62871
▁이름이	-9.62924
▁타다	-9.62965
지면	-9.6299
▁기다리면	-9.63101
▁음악	-9.63185
▁사귄	-9.63221
▁마다	-9.63238
▁심하	-9.63319
줄까	-9.63427
▁춥	-9.63443
▁뿌	-9.63663
▁무섭	-9.63761
▁결심	-9.63784
▁생활	-9.6404
량	-9.64067
곤	-9.641
염	-9.64141
▁공무원	-9.64141
▁벚꽃	-9.64141
▁오랫	-9.64141
▁청첩장	-9.64141
▁컨	-9.64141
▁휴대폰	-9.64141
껏	-9.64141
닉	-9.64141
▁맡	-9.64141
▁보험	-9.64141
▁아까워	-9.64141
▁억지로	-9.64142
▁달콤	-9.64142
▁외롭	-9.64144
▁목표	-9.64146
▁배고파	-9.64146
▁30	-9.6415
▁딸기	-9.6415
▁고마워	-9.64153
▁앞머리	-9.64153
▁빠르	-9.64156
▁향수	-9.64199
▁맞는걸까	-9.64203
▁헤어질	-9.64232
▁지칠	-9.64254
▁행운	-9.64266
▁필요하다면	-9.64287
▁힘든가봅니다	-9.64304
▁다녀오세요	-9.64304
▁이겨내	-9.64306
▁고백했는데	-9.64333
오세요	-9.64366
건지	-9.64369
▁싶습니다	-9.64414
▁않겠지만	-9.64443
▁솔직한	-9.64447
▁태어난	-9.64486
▁좋아해주는	-9.64509
▁조급해	-9.64518
▁맘이	-9.64521
▁9	-9.64572
▁아프다	-9.64573
▁곁에	-9.64591
▁sns	-9.64657
▁답답해	-9.64673
▁많지	-9.64684
▁허리	-9.64724
▁극복할	-9.64761
▁주말에	-9.64778
▁소비	-9.64781
▁만나기로	-9.64855
▁지나	-9.64886
▁놔	-9.64902
▁먼지	-9.65015
▁느끼는	-9.65033
▁아무렇지	-9.65033
▁글로	-9.65045
바	-9.65081
▁귀엽	-9.65088
▁외로	-9.65099
년간	-9.65265
▁노래방	-9.65311
▁높	-9.65341
▁슬	-9.65416
▁맛난	-9.65441
▁혼	-9.65457
시간	-9.65462
▁유지하	-9.65475
▁전해	-9.65513
▁인정받	-9.65555
▁있다는	-9.65702
셨나봐	-9.65711
▁꿀	-9.65773
▁챙겨주	-9.65889
▁않는데	-9.65943
▁들었어	-9.66034
▁연애에	-9.66057
▁잊으	-9.66093
▁노력하는	-9.66302
▁애들	-9.66401
▁허	-9.66415
▁후회하	-9.66544
▁바다	-9.66552
▁능력	-9.66639
▁선생님이	-9.66738
▁생각하면	-9.66788
연	-9.67196
▁나을까	-9.67207
▁잊기	-9.67209
▁부자	-9.67233
▁나에게	-9.67239
반	-9.6725
▁모르겠	-9.67252
으	-9.67407
▁생각했나봐	-9.67426
▁매력	-9.67449
▁산책	-9.67472
▁남자랑	-9.67476
▁자연	-9.67561
▁남사친이	-9.67645
레	-9.67869
▁회식	-9.68018
먹고	-9.68025
들에게	-9.68075
치고	-9.68198
▁간절	-9.6827
▁맞아	-9.68323
짐	-9.68509
▁나온	-9.68518
▁입어	-9.6862
▁헤어지면	-9.68921
재	-9.68987
▁들어와	-9.69018
▁다니	-9.69204
폰	-9.69309
따라	-9.69372
학	-9.69399
▁당황	-9.69466
▁스트레칭	-9.69636
▁있겠	-9.69682
고싶어	-9.6977
▁생긴	-9.69815
▁말하	-9.69892
가는	-9.69917
▁남았	-9.70018
숙	-9.70076
조	-9.70224
▁싸우	-9.70263
하길	-9.70296
배	-9.70382
산	-9.7048
▁남들	-9.70556
▁불행	-9.70632
▁후에	-9.70634
터	-9.70858
▁신나	-9.70865
▁삼	-9.71008
▁즐기	-9.71063
결	-9.71511
르고	-9.71555
못한	-9.71731
하니	-9.71874
▁선택이	-9.71941
▁향	-9.72071
드릴	-9.72089
하셨	-9.72121
도시	-9.72254
▁착	-9.72345
였어	-9.72356
▁의지	-9.72523
▁가사	-9.72565
▁나타	-9.72619
▁계절이	-9.72694
▁썼	-9.72812
▁최악	-9.72944
거리	-9.72983
▁남편	-9.73353
▁몸에	-9.73369
▁신고하	-9.73474
▁속에	-9.73537
▁냄새	-9.73574
▁시작하	-9.73578
거죠	-9.73658
녀	-9.7366
▁받으면	-9.73707
남자	-9.73775
▁자유	-9.738
거같아	-9.73865
▁끄	-9.73907
나면	-9.73972
스럽	-9.74303
▁보니	-9.745
했네	-9.74532
▁같다	-9.74561
▁소원	-9.7464
급	-9.74839
▁관리하	-9.74918
▁흐	-9.74966
▁공감	-9.74983
▁싫어하는	-9.75064
▁피곤한	-9.75118
▁꼬	-9.75169
▁보다	-9.7519
▁딴	-9.75245
릿	-9.75249
▁공통	-9.7525
▁넓	-9.75252
▁띄	-9.75252
▁땀	-9.75252
▁빼빼로	-9.75252
▁콩깍지	-9.75252
▁핑계	-9.75252
▁염색	-9.75253
▁위로봇	-9.75254
▁밝혀	-9.75254
▁외모	-9.75254
▁깨끗	-9.75255
▁심경	-9.75255
▁에휴	-9.75256
▁명절	-9.75257
▁업무	-9.75257
▁회원	-9.75258
▁차라리	-9.75259
▁노후	-9.75264
▁대출	-9.75272
▁붙여	-9.75273
▁버릴	-9.75274
▁생겨	-9.75278
▁간접적	-9.7528
▁사업	-9.7529
▁싸워	-9.75296
▁언니	-9.75299
▁맛집	-9.75306
▁이미	-9.75311
▁달라진	-9.75325
▁다음부터	-9.7534
▁외로움	-9.75345
▁되었습니다	-9.75349
▁인내	-9.75353
▁경쟁	-9.75375
▁좋으면	-9.7538
▁일어났	-9.75422
▁별거	-9.7545
▁거기까지인	-9.75453
었으면	-9.75503
▁여름	-9.75565
▁있었으면	-9.7558
▁혼자서	-9.75584
▁고백하	-9.75603
▁허전하	-9.75613
▁재밌는	-9.75641
▁고맙다	-9.75646
▁나쁘지	-9.75655
▁오네	-9.75663
▁빠를	-9.75685
▁말해볼까	-9.75704
▁멋지	-9.75713
▁이러지	-9.75731
▁그녀에게	-9.75765
▁프로포즈	-9.75825
▁고쳐	-9.75834
▁힘듭니다	-9.75835
▁흔적	-9.75861
이었으면	-9.75906
▁도와줘	-9.75944
▁헤어졌네	-9.75956
테니	-9.75965
막혀	-9.76049
▁팔	-9.76053
▁사랑했나봐	-9.76176
▁좋았	-9.76245
▁보이지	-9.76282
▁결혼하면	-9.76298
은연	-9.7632
▁고백해도	-9.76409
사람	-9.76448
▁가능하	-9.7646
▁가능해요	-9.76473
▁죄	-9.76474
▁왔으면	-9.76486
▁여자친구에게	-9.76518
▁끝났어	-9.76542
▁줄여	-9.76567
하시	-9.76616
▁놓아	-9.76642
▁바라는	-9.76717
▁없나봐	-9.76827
▁나가기	-9.76848
▁심리	-9.7689
▁돌아	-9.76922
▁걱정되겠	-9.76923
▁이용	-9.76938
▁너에게	-9.76949
▁밀당	-9.76953
하나	-9.77099
▁가능할까	-9.7711
▁미안해	-9.77166
▁산	-9.77176
▁상대에	-9.77411
▁어찌	-9.7744
▁흔들리지	-9.77471
봐도	-9.77479
▁일하는	-9.77498
▁기본이	-9.77498
▁선배	-9.77528
▁표현하는	-9.77562
▁노력해	-9.77574
▁경험이	-9.77625
▁그대	-9.77704
▁되었나	-9.77743
▁지울	-9.77843
▁잘못인	-9.77883
▁찍어	-9.77922
▁나올	-9.77963
▁편해	-9.77985
▁해야할까	-9.77992
▁사람이니까	-9.78018
▁재미있어	-9.78186
줬으면	-9.78192
▁사람만	-9.78194
리를	-9.78312
해질	-9.78377
▁거의	-9.785
▁무시	-9.78686
하러	-9.78713
야돼	-9.78758
▁흘렀	-9.78834
▁받은	-9.78861
겠습니다	-9.78885
▁이해가	-9.78925
▁교회	-9.78936
▁긴장	-9.79099
▁있었을	-9.7921
▁나보다	-9.79219
▁왔네	-9.79355
▁말하지	-9.79504
▁헤어지는	-9.79545
▁못해요	-9.7961
▁내보세요	-9.79637
기를	-9.79686
▁우울해	-9.79874
▁나아질	-9.79953
▁늦은	-9.79984
을텐데	-9.80044
▁입을	-9.80127
▁필요하	-9.80174
남	-9.80197
▁헤어지자	-9.80239
▁가족이	-9.80251
겠	-9.80275
또	-9.803
▁지워	-9.80404
▁올라	-9.80503
▁궁금하	-9.80523
▁가는데	-9.80549
▁원망	-9.80692
▁울	-9.80712
▁지치	-9.80722
▁도와주	-9.80753
▁괜찮아지	-9.80815
▁마셔야	-9.80908
▁여사친이	-9.80927
▁준비하는	-9.81017
▁이유는	-9.81137
짓	-9.81234
었	-9.8132
고싶은데	-9.81473
▁달라지	-9.81565
하겠죠	-9.81627
체	-9.8167
로부터	-9.81685
문	-9.81697
▁가자	-9.81875
년의	-9.82047
콜	-9.82325
▁슬프	-9.82333
번호	-9.82367
코	-9.82427
▁어머	-9.82498
더	-9.82566
티	-9.82613
위	-9.827
▁상태	-9.82776
▁서	-9.82804
▁썸타	-9.82806
▁말해주	-9.82859
맛	-9.83029
▁먹었	-9.83259
우면	-9.83415
봤는데	-9.83457
▁디	-9.83501
▁않을까	-9.83537
▁어렵네	-9.83543
▁한다	-9.83736
▁같지	-9.83828
▁ᅲᅲ	-9.84115
▁있기	-9.84125
▁과식	-9.8419
▁바꿔	-9.84243
리가	-9.84368
▁기다리지	-9.8449
▁생각한	-9.84532
▁지켜보	-9.84566
▁결혼할	-9.84611
▁돌아오	-9.84709
▁없을까	-9.84749
▁상대방에	-9.84771
▁있었	-9.84774
▁복잡하	-9.84905
▁온다	-9.84947
▁넣	-9.85052
▁답이	-9.85053
▁끝일	-9.85161
▁태도	-9.85218
▁보여주	-9.85368
▁길어	-9.85478
▁흔들리	-9.85563
▁의심	-9.85568
름	-9.8563
▁기억이	-9.85829
▁운명이	-9.85881
▁믿음	-9.85935
▁씻	-9.8614
▁실망	-9.86148
▁그럼	-9.8647
▁어떨까	-9.86505
▁이상형이	-9.8659
▁평	-9.86594
▁견뎌	-9.86722
기로	-9.87273
이별	-9.87327
▁우선	-9.87392
▁오랜	-9.8742
▁판단	-9.87458
▁여기까지	-9.87525
▁퇴근	-9.87565
▁다가	-9.87615
님	-9.87624
▁파혼	-9.87699
▁갚	-9.87703
▁단단	-9.87708
▁차리	-9.87728
▁느낄	-9.87752
▁삼겹살	-9.87752
▁신뢰	-9.87752
▁웬수	-9.87752
▁의미부여	-9.87752
▁자괴감	-9.87752
봅시다	-9.87752
왤	-9.87752
킁	-9.87752
푼	-9.87752
▁택배	-9.87752
뻑	-9.87752
▁에너지	-9.87753
▁A	-9.87753
▁잇몸	-9.87753
▁메모	-9.87753
▁우선순위	-9.87753
▁인턴	-9.87754
▁통화	-9.87761
▁애교	-9.87762
▁매너	-9.87768
▁의욕	-9.87769
▁영화관	-9.8777
▁멀리	-9.87772
▁느껴져	-9.87775
▁까먹었다	-9.87783
▁대단하	-9.87785
▁천재	-9.87791
▁실내	-9.87792
▁보일러	-9.87802
▁여우	-9.87805
▁지갑	-9.87812
▁성향	-9.87812
▁신중	-9.87812
▁기준	-9.87828
▁정신차리	-9.87829
교통	-9.8783
▁불편해	-9.8784
▁특별	-9.8784
▁받아들이기	-9.87842
네여	-9.87856
▁성별	-9.87865
꼬박	-9.87865
▁비난	-9.87867
▁좋았는데	-9.87928
▁우연	-9.87952
▁길러	-9.87957
더라구	-9.87969
▁중국어	-9.87972
▁우연히	-9.87993
▁알아차	-9.88033
▁생겼으면	-9.88034
▁주식	-9.88036
개월째	-9.88068
▁실	-9.88102
▁안되네	-9.88102
▁흐르고	-9.88113
▁속상해	-9.88153
▁움직이	-9.88154
▁느낌이야	-9.88157
▁성공할	-9.88179
▁시선	-9.88206
▁힘들겠어	-9.88222
▁들여	-9.88262
▁누구에게	-9.88271
▁지진	-9.8832
▁센스	-9.88333
▁배우자	-9.88341
▁새해	-9.88348
▁있다	-9.88354
▁베터리	-9.88358
▁잤어	-9.88415
▁이불	-9.88443
▁맞을까	-9.88449
거려	-9.88467
▁버려	-9.8848
▁경	-9.88503
▁생각했는데	-9.88526
▁놓치	-9.88727
▁신혼	-9.8873
▁착한	-9.88754
▁운전	-9.88772
▁먹어보세요	-9.88773
▁뭐할까	-9.88827
▁차가워	-9.88831
▁참견	-9.88832
▁아니지만	-9.88892
▁잘해	-9.88911
▁찌	-9.89005
▁알기	-9.89005
▁쓸	-9.89011
▁자격증	-9.89033
▁그럼요	-9.89052
▁잊는다는	-9.89079
▁위해서	-9.89101
▁마시면	-9.89115
친	-9.89148
▁좋아하시	-9.89265
▁보낼	-9.89293
▁시키	-9.89304
▁가족들	-9.89401
▁느껴지	-9.89468
▁잘못된	-9.89479
만해도	-9.89483
▁여자친구한테	-9.89491
▁지내는	-9.89518
▁널	-9.8954
▁고장	-9.89608
▁치료	-9.89646
▁왔습니다	-9.89765
오	-9.89803
▁썸인가	-9.89832
▁당했어	-9.89888
▁모르게	-9.89915
▁사랑해주	-9.89986
▁속도	-9.90005
▁봤어	-9.9003
▁놀러가고	-9.90126
▁해야겠다	-9.90151
▁해야할지	-9.90251
▁많아서	-9.90421
▁파도	-9.90468
▁바라지	-9.90513
▁귀찮	-9.90547
▁설	-9.90557
▁외	-9.90565
▁하는건	-9.90574
▁푸	-9.90831
▁어장	-9.90866
▁깨요	-9.90875
웠	-9.90986
▁알았어	-9.90993
▁중입니다	-9.91017
▁위기	-9.9105
▁결	-9.91051
▁이기적인	-9.91051
▁애매하	-9.91098
하지만	-9.91115
았어	-9.91126
▁연락하	-9.91126
▁노는	-9.91167
할거야	-9.91226
해줄	-9.91279
▁술이	-9.91281
▁물리적	-9.91356
▁카드	-9.9141
▁옴	-9.91485
▁친해지는	-9.91584
▁싸웠	-9.9172
나게	-9.91801
▁소문	-9.91903
함이	-9.91954
▁있음	-9.92046
일이	-9.92133
▁아니죠	-9.9221
▁타이밍	-9.92306
▁있을지	-9.92443
제가	-9.92464
아지	-9.9265
▁슬프네	-9.92813
▁찾는	-9.92854
▁성장	-9.92908
▁무시하는	-9.93011
▁먹으	-9.9309
▁아침이	-9.93152
▁답답할	-9.93158
았는데	-9.93293
화	-9.93445
▁시원하	-9.93483
▁문신	-9.93577
▁꺼	-9.93606
▁참는	-9.93625
▁신경쓰이	-9.93691
지네	-9.93764
복	-9.93787
▁심한	-9.93809
졌으면	-9.93815
▁악몽	-9.93908
▁잘못이	-9.93948
▁끝났	-9.94006
▁아기	-9.94033
력	-9.94097
▁도전해	-9.94118
▁아프지	-9.94353
본	-9.94398
▁착각	-9.94474
▁거면	-9.9452
▁이직	-9.94667
려나	-9.94695
▁올해	-9.94696
▁좋아하는거	-9.94742
▁끝에	-9.94803
▁하던	-9.94882
▁다르겠	-9.94972
타기	-9.95034
▁고치	-9.95082
▁있을까요	-9.95148
▁야경	-9.95267
▁복잡하겠	-9.95345
▁죽고	-9.95367
▁싱숭생숭	-9.95407
꾸	-9.95495
래요	-9.95599
▁행복해지	-9.95624
▁생긴다	-9.95667
세	-9.95727
▁다양하	-9.95763
개	-9.95811
▁신청	-9.95863
해줘	-9.95924
탈	-9.96001
애	-9.96065
▁피곤	-9.96074
▁싸움	-9.96347
밥	-9.96432
놈	-9.9652
▁드려	-9.96571
추	-9.96654
▁가만	-9.9669
▁동생	-9.96782
4	-9.96838
▁재미없	-9.96858
▁장소	-9.96879
▁따뜻하	-9.96933
▁나눠	-9.96964
▁빌어	-9.96991
▁오늘이	-9.97001
극	-9.9722
▁수다	-9.97229
허	-9.97449
▁깔끔	-9.97465
되면	-9.97503
방법	-9.97633
일까요	-9.97813
수도	-9.97817
▁충전하	-9.97834
▁시작해보	-9.97843
드려	-9.97905
▁맞을	-9.98012
▁누	-9.98034
▁취향	-9.98205
▁헤어	-9.98276
각	-9.98313
▁복잡한	-9.9842
▁후회해	-9.98589
▁결혼하	-9.98666
잖아	-9.98868
▁전남친이	-9.9905
▁뻔	-9.99174
했나	-9.99204
였	-9.99298
드려요	-9.99305
▁미치겠	-9.99419
나서	-9.99531
었습니다	-9.99542
진다	-9.99634
되는	-9.99696
되겠	-9.99889
▁받아들	-9.99996
▁의외	-10.0004
▁같아서	-10.0011
인가봅니다	-10.0026
했지만	-10.0031
▁살면	-10.0034
개월이	-10.0043
만한	-10.0044
▁취해	-10.005
▁기간	-10.0062
▁그런가	-10.0074
▁큰일	-10.0077
▁아닐까	-10.0095
이길	-10.0121
척	-10.0122
▁가능해	-10.0126
▁나눠보	-10.0128
니가	-10.0138
▁취직	-10.0141
▁필	-10.018
쯤	-10.0193
▁안되겠지	-10.0196
▁받았	-10.0197
▁찔	-10.02
▁인정하	-10.0201
▁택시	-10.0202
즈	-10.0204
▁결혼적령기	-10.0204
▁새출발	-10.0204
▁아름답	-10.0204
흥	-10.0204
▁노트북	-10.0204
▁동호회	-10.0204
▁마침표	-10.0204
▁봉사활동	-10.0204
▁비싼	-10.0204
▁셀카	-10.0204
▁유효기간	-10.0204
▁자존심	-10.0204
▁출퇴근	-10.0204
▁트라우마	-10.0204
▁후유증이	-10.0204
꽤	-10.0204
쩍	-10.0204
▁앉	-10.0204
▁여드름	-10.0204
▁흥미	-10.0204
▁강렬	-10.0204
▁단둘이	-10.0204
▁즐겁	-10.0204
▁사회생활	-10.0204
▁두려움	-10.0204
▁고쳐쓰는	-10.0204
▁제주도	-10.0204
▁괴로워	-10.0204
▁어필해	-10.0204
▁신혼여행	-10.0204
▁표정	-10.0204
▁최근	-10.0204
▁증오	-10.0204
▁버티	-10.0205
▁축복	-10.0205
▁취미생활	-10.0205
▁발목	-10.0205
▁제자리	-10.0206
▁축하합니다	-10.0206
▁잡으세요	-10.0206
▁맞추	-10.0207
▁흘려	-10.0208
▁15	-10.0208
▁깨닫	-10.0209
▁데려가	-10.021
▁답답하네	-10.0211
줬는데	-10.0212
▁기울여	-10.0214
▁아름다워	-10.0214
▁정리될	-10.0214
▁깨달음	-10.0215
▁부드	-10.0219
▁가능합니다	-10.0226
▁세워	-10.0229
▁건조	-10.0231
▁욕심	-10.0236
▁포장	-10.0236
▁나아졌	-10.0237
▁좋으시	-10.024
▁그럴까	-10.0242
▁점심	-10.0244
▁삭제	-10.0244
▁공허함이	-10.0245
시나	-10.0248
하는거	-10.0253
▁호의	-10.0254
뿐	-10.0259
▁좋아했는데	-10.026
▁뒤에서	-10.026
▁나왔	-10.0262
▁일들이	-10.0262
▁베	-10.0263
▁불안해	-10.0265
▁성적	-10.027
▁빠져	-10.027
▁충격	-10.0271
▁정류장	-10.0271
▁지나간	-10.0272
▁어려	-10.0274
▁영원한	-10.0276
일차	-10.0283
▁예감	-10.0283
▁언제든	-10.0284
받고	-10.0286
▁가치	-10.0289
▁안되는데	-10.0291
▁하루에도	-10.0293
▁결정할	-10.0296
▁그저	-10.0297
▁거기까지였	-10.0303
▁집착해	-10.0308
▁행복해질	-10.0312
▁코스	-10.0318
▁포	-10.032
하고싶어	-10.0323
▁잊혀질	-10.0324
▁생각날	-10.0326
그	-10.0327
시다	-10.033
▁짠	-10.0335
▁땅	-10.0335
▁호	-10.0339
▁중요한데	-10.0342
되는데	-10.0343
▁패턴	-10.0343
▁변한	-10.0346
▁많다	-10.0348
왔는데	-10.0358
▁지금보다	-10.0366
▁걸려	-10.0367
▁애기	-10.0367
▁떨어지	-10.0378
▁먹었어	-10.0379
▁봐서	-10.0381
▁싶다고	-10.0391
▁비슷	-10.0399
▁여자와	-10.0401
▁사정	-10.0417
▁군	-10.0421
▁심장	-10.0425
▁나한테만	-10.0428
이라니	-10.0429
▁포기하는	-10.0429
▁세상이	-10.043
오면	-10.0435
▁남자한테	-10.0446
▁생각할까	-10.0448
▁쓰지	-10.0449
▁사람인	-10.0458
라니	-10.0459
▁될거예요	-10.0484
▁약이	-10.0495
▁절약	-10.05
▁놈	-10.0502
▁짧지	-10.0502
▁입지	-10.0511
▁조건	-10.0514
▁말라고	-10.0516
야할까	-10.0519
뿐이	-10.0524
▁상의	-10.0525
가세요	-10.0526
▁다가가는	-10.0528
▁부담스러워하	-10.053
시면	-10.0531
▁기간이	-10.0532
▁되겠지	-10.0553
갔어	-10.0557
▁그러는	-10.0564
▁밤에	-10.0564
▁이어나가는	-10.0565
▁읽어	-10.0567
▁거지	-10.0595
▁까먹	-10.0602
▁그럴만	-10.0602
하겠습니다	-10.0617
▁변명	-10.062
▁일에	-10.0624
값	-10.0633
▁이성	-10.0633
▁됐	-10.0641
▁당연하	-10.0646
하던	-10.0653
▁웃으면	-10.0668
▁정의	-10.0683
▁여행가	-10.0703
▁말해줘	-10.071
▁당황했	-10.0716
▁전화가	-10.0719
▁두근거리겠	-10.0721
야하나	-10.074
▁별로라	-10.0751
▁샤워	-10.0763
▁불편	-10.0769
▁걸음	-10.077
▁잊어야	-10.0772
번호를	-10.0798
▁나가야	-10.08
시간이	-10.0801
▁찾아오	-10.0813
▁연락해보	-10.0814
▁가까	-10.0815
▁내요	-10.0816
간다	-10.0827
▁붙잡	-10.0831
▁변하는	-10.0833
▁잡았	-10.0844
▁못하	-10.0846
▁있었나요	-10.0848
국	-10.0851
▁고르	-10.0852
▁당신만	-10.0857
▁사과하	-10.0859
▁보여요	-10.0863
▁연애하고	-10.0879
▁부담스러워	-10.0882
▁사람인데	-10.0892
▁얼굴이	-10.0894
▁맞나	-10.0904
▁받아야	-10.091
▁좋아한다	-10.0914
▁알아가	-10.0925
▁갔	-10.0991
▁줄까	-10.1004
▁전화하는	-10.1015
려주세요	-10.1019
능	-10.1028
▁한거	-10.1045
▁이별하고	-10.1054
▁참지	-10.1068
▁헬스장에	-10.1073
분이	-10.1077
형이	-10.1081
▁살아가	-10.11
야할	-10.1125
▁하려고	-10.1135
했다	-10.1139
▁때로	-10.1143
~~	-10.1146
씨	-10.1147
매일	-10.1151
▁덜할	-10.1161
▁늦어	-10.1177
▁보게	-10.1196
▁알려	-10.1199
▁느껴	-10.1221
▁화가	-10.1226
불	-10.1227
▁그만하고	-10.1232
명	-10.1233
▁솔직	-10.1241
학기	-10.1246
강	-10.1247
▁미련없	-10.1259
▁잘해주는	-10.126
오네	-10.1265
▁잠수이별	-10.1267
▁운동하	-10.1281
▁소식	-10.1282
▁스타일이	-10.1291
▁쓰이	-10.1296
▁성	-10.1301
▁끝인	-10.1302
몸	-10.1304
▁마음만	-10.1319
▁나온다	-10.1329
청	-10.1335
▁늘	-10.1335
▁뭐하는	-10.1338
합	-10.1342
▁좋을까요	-10.1345
둘	-10.1352
▁살지	-10.1353
▁진심이	-10.1355
▁친	-10.1363
역	-10.1368
버려	-10.1369
▁하지마	-10.1372
궁	-10.1378
▁못했	-10.1381
▁받아보	-10.1381
옴	-10.1384
▁안부	-10.1385
정이	-10.1388
판	-10.1392
행	-10.1393
죄	-10.1397
▁하고싶	-10.1399
생활	-10.14
있어	-10.1405
▁있어야	-10.1409
▁단계	-10.1428
▁겨	-10.1434
▁째	-10.1443
▁애매	-10.1444
▁삭제하는	-10.1445
▁보고싶	-10.1458
드리	-10.1458
언	-10.1463
▁아니고	-10.1466
건데	-10.1467
▁있었어	-10.1476
하겠네	-10.1481
▁좋아하지	-10.1483
외	-10.1502
▁버	-10.1517
카드	-10.1518
데요	-10.1519
▁보내주	-10.1524
▁가치관	-10.1528
아서	-10.1532
양해	-10.155
▁초대	-10.155
▁결정이었	-10.1556
▁축하해주	-10.1556
▁노	-10.1572
▁힘드시겠	-10.1589
▁집착하	-10.1601
▁공시	-10.1605
▁나네	-10.1614
▁몇일	-10.163
▁못하면	-10.1634
▁이뤄	-10.1642
▁멋	-10.1664
워질	-10.1665
▁뭔	-10.1676
▁헤어졌	-10.1691
▁챙	-10.1693
때도	-10.1694
▁헤어져	-10.1702
▁돌리	-10.1714
▁일년	-10.1716
침이	-10.1735
▁차분하	-10.1741
▁짱	-10.1742
하긴	-10.1753
바이	-10.1754
▁부탁	-10.1755
▁흘러	-10.1757
▁사람인가	-10.176
▁어쩌	-10.1784
인걸까	-10.1807
▁짜증	-10.1819
▁젖	-10.1821
찰	-10.1833
▁만족	-10.1844
들고	-10.1846
▁영원	-10.1846
▁용서	-10.1847
▁떠오르	-10.1852
▁탔	-10.1855
▁샀	-10.1856
정규직	-10.1866
▁메뉴	-10.187
▁득템	-10.187
▁스타트업	-10.187
▁스터디	-10.187
▁슬픔	-10.187
▁가늠	-10.187
▁기프트콘	-10.187
▁낚시	-10.187
▁눈썹	-10.187
▁도대체	-10.187
▁뒷	-10.187
▁무릎	-10.187
▁보이스피싱	-10.187
▁부딪혔	-10.187
▁셀프웨딩	-10.187
▁쉴	-10.187
▁아이스크림	-10.187
▁애틋	-10.187
▁어둠	-10.187
▁어젯밤	-10.187
▁이벤트	-10.187
▁잠재력	-10.187
▁지겨워	-10.187
▁찜질방	-10.187
▁체육대회	-10.187
▁헛	-10.187
▁현금영수증	-10.187
▁화이트데이	-10.187
바퀴	-10.187
벅	-10.187
욱	-10.187
팸	-10.187
▁짜장면	-10.187
▁합격	-10.187
▁관련	-10.187
▁낭비	-10.187
▁쌩얼	-10.187
▁베풀	-10.187
▁형편	-10.1871
▁애정표현	-10.1871
▁월요일	-10.1871
센터	-10.1871
▁첫인상	-10.1871
▁생리통	-10.1871
▁추석	-10.1871
▁누굴	-10.1871
▁평온	-10.1871
▁치유	-10.1871
▁실례	-10.1871
▁소개시켜	-10.1871
▁혼술	-10.1871
▁교양	-10.1871
▁분노	-10.1871
▁단호	-10.1871
▁스테	-10.1871
▁마주쳐	-10.1871
▁안경테	-10.1871
▁의견	-10.1871
강습	-10.1872
▁소유	-10.1872
▁외국인	-10.1872
▁조카	-10.1872
▁분담	-10.1872
▁익숙해질	-10.1872
▁인공	-10.1872
▁택시비	-10.1872
▁잃어버	-10.1872
▁커피향	-10.1873
칼로리	-10.1873
▁걱정된다	-10.1874
테리	-10.1874
▁드라이브	-10.1874
▁소심해	-10.1875
▁시간표	-10.1875
▁모자라	-10.1875
▁우린	-10.1875
▁빠른	-10.1876
▁추운	-10.1876
▁놀아줘	-10.1876
▁대체	-10.1876
▁노려	-10.1876
▁달라져	-10.1876
▁나누	-10.1877
▁화내	-10.1877
▁추천해줘	-10.1878
▁조용	-10.1878
▁일부	-10.1878
▁부부	-10.1878
▁무거워	-10.1878
▁더러워	-10.1879
▁동감	-10.1879
▁전역	-10.1879
▁필름	-10.188
▁아님	-10.1881
▁넘었네	-10.1881
▁어색해	-10.1882
지긋	-10.1882
▁대우	-10.1882
▁이러	-10.1884
▁이별했습니다	-10.1885
▁일어날	-10.1885
▁끝났으면	-10.1886
▁장점	-10.1886
▁소주	-10.1887
▁한강	-10.1889
▁로봇	-10.1889
▁자취	-10.1889
▁책임	-10.189
나는	-10.189
▁주제	-10.1892
▁어려울	-10.1892
▁줄어들	-10.1893
맥이	-10.1894
▁낫겠지	-10.1894
▁받아들이	-10.1896
▁먹었는데	-10.1898
▁동성	-10.1898
▁불공평해	-10.1898
▁보답	-10.1899
▁꺼내	-10.19
아주	-10.1902
▁수영	-10.1902
▁같음	-10.1903
▁끝날	-10.1903
▁금연	-10.1904
▁일요일	-10.1906
▁성공적	-10.191
▁행복해보여	-10.191
▁전세	-10.1911
▁별로야	-10.1911
▁괜찮다면	-10.1915
하려는	-10.1915
▁웃어보세요	-10.1918
▁행복할까	-10.1919
▁안녕하세요	-10.1923
▁연휴	-10.1923
▁응원해요	-10.1924
▁사귀면	-10.1924
▁익숙해지지	-10.1926
짐에	-10.193
셨네요	-10.1931
▁힘드신가	-10.1935
▁낳	-10.1937
▁찼	-10.1937
▁챙기	-10.1941
▁쓸데없	-10.1945
▁성형	-10.1945
▁궁금할	-10.1947
▁차례	-10.1947
▁방식	-10.1949
▁태어나	-10.1949
▁기울이	-10.1952
▁참았어	-10.1958
▁마음인	-10.1959
위치	-10.1963
▁구멍이	-10.1971
▁듣기	-10.1972
▁부탁해	-10.1973
▁갔는데	-10.1973
▁아닌거	-10.1974
▁교	-10.1981
▁멀어지	-10.1982
▁무기력	-10.1982
▁돌아가고	-10.1986
▁안되나	-10.1989
▁좋을거	-10.199
려구	-10.199
는구나	-10.1999
▁뭐하냐	-10.2001
▁언제까지	-10.2011
리지	-10.2013
▁대답	-10.2015
질러	-10.2021
▁정답	-10.2025
▁육아	-10.203
▁당신에게	-10.2032
▁나갈	-10.2035
▁아플	-10.2036
▁순간이었	-10.2037
▁힘든데	-10.2042
▁고기	-10.2044
▁벽	-10.2049
▁티내	-10.2055
▁끝났네	-10.2062
▁공부해야	-10.2067
▁썸일	-10.2068
취	-10.2071
▁사랑받고	-10.2085
▁며	-10.2086
▁마음이라	-10.2086
▁맛있어요	-10.2087
▁크기	-10.2087
▁자신과	-10.2091
▁망가	-10.2091
▁위험해	-10.2099
▁치	-10.2102
▁사수	-10.2103
▁있대	-10.2103
▁기다렸	-10.211
망했어	-10.211
▁전기	-10.2113
▁이름	-10.2117
▁왔나	-10.2122
▁빠졌	-10.2124
▁옷이	-10.2128
▁밀어	-10.2129
▁사랑하기	-10.2129
▁이해할	-10.2136
▁해주고	-10.2136
▁시간이겠	-10.2137
▁이해하	-10.2139
▁높아	-10.2142
▁없지만	-10.2148
▁업	-10.215
▁이쁜	-10.2173
▁다가오	-10.2176
너무	-10.2178
▁만나보	-10.2181
하며	-10.2182
▁하루에	-10.2188
▁보이는	-10.2188
▁그만두	-10.2188
▁클	-10.219
▁계기	-10.2201
▁당연한	-10.2204
야겠지	-10.2205
▁예민해	-10.2208
봐야지	-10.2217
▁받기	-10.2225
▁가치관이	-10.2248
▁지하철에	-10.2249
▁맞지	-10.2252
리면	-10.2255
▁올까	-10.2259
▁속은	-10.2262
▁무시해	-10.2262
▁삭제하	-10.2264
될까	-10.2265
▁분들	-10.2273
▁남았나봐	-10.2276
▁간사하	-10.2289
▁해보	-10.229
▁달리	-10.2294
▁들으면	-10.2297
▁바꿀까	-10.2309
▁않겠	-10.231
▁있는거	-10.2323
▁위험	-10.2335
▁반장	-10.234
▁준비중	-10.234
▁건가요	-10.2355
▁인스타	-10.2362
▁바꿔야	-10.2366
▁먹지	-10.2369
▁기술이	-10.2374
▁재밌다	-10.2378
보며	-10.2385
▁이뻐	-10.239
▁이루어	-10.2393
▁점이	-10.2406
▁때문이	-10.2406
▁봐주	-10.2407
▁그립	-10.2411
가지	-10.2426
▁반응	-10.2427
버리	-10.243
▁사랑한다는	-10.2434
▁좋아한다는	-10.2439
음이	-10.244
▁물어보면	-10.2445
▁물어보고	-10.2445
▁칭찬해주	-10.2448
독	-10.2456
▁첫사랑이	-10.2476
▁연애하는	-10.248
▁존중해	-10.2484
▁알았	-10.2496
▁견디	-10.2498
카	-10.2503
▁즐기면	-10.2512
월	-10.2514
▁급	-10.2523
▁사내	-10.2531
▁충전기	-10.2539
▁나아	-10.2552
받았어	-10.2556
▁기원	-10.256
인가요	-10.2567
▁말아야	-10.2583
▁바지	-10.2587
정리를	-10.2596
▁했다	-10.2603
스러워	-10.2611
줘야	-10.2615
▁애정	-10.2619
지기	-10.2619
▁했어요	-10.2619
▁남아	-10.2627
이니	-10.2631
▁요리	-10.2636
났어	-10.2637
▁얻	-10.2638
▁떠보	-10.2651
▁해드	-10.2674
▁음	-10.2678
▁여행이	-10.2685
드세요	-10.2705
▁들리	-10.2706
줄게	-10.2708
▁울적	-10.2708
▁표현해보	-10.2732
▁야경이	-10.2734
무	-10.274
우니까	-10.2747
곳	-10.2751
셨나	-10.2756
해보고	-10.2759
느냐	-10.2772
없어	-10.2773
보내는	-10.2778
해져	-10.278
타	-10.2786
버렸어	-10.2811
▁아껴	-10.282
▁미치	-10.282
▁정신없	-10.283
▁아닌가봐	-10.2843
▁놀까	-10.2845
올	-10.2855
▁고고	-10.2867
으려면	-10.2876
▁투자	-10.2898
▁걸까요	-10.2906
▁놀랐	-10.2907
▁집중하	-10.2945
해주는	-10.2958
▁바디	-10.2962
▁함께할	-10.2971
▁통	-10.299
▁중고	-10.3007
으니	-10.3011
있어요	-10.3012
▁돌려보	-10.3018
▁표시	-10.302
백	-10.3031
▁이기적이	-10.3039
이래	-10.3046
▁높겠	-10.305
▁간단하	-10.3051
▁서운하	-10.3096
▁확실하	-10.3125
▁동생이	-10.3125
▁술마시	-10.3127
▁간절하	-10.3134
▁그리운	-10.314
▁노력해보	-10.3143
▁견디고	-10.3143
▁마셨	-10.315
▁풀렸	-10.3153
▁힘드	-10.3154
▁손해	-10.3168
▁그때	-10.3168
▁끝인가	-10.3173
갑	-10.3179
▁사람일	-10.3191
▁꿈같	-10.32
▁비슷한	-10.3201
▁때문	-10.3202
▁살다	-10.3207
▁드릴	-10.3218
3	-10.3221
▁이루	-10.3229
관계	-10.323
▁행동이	-10.3232
▁나아지	-10.3236
▁사랑하는지	-10.3238
난다	-10.324
▁해주면	-10.3242
▁몰랐어	-10.3242
였을	-10.3252
물	-10.3253
모습	-10.3266
▁하다	-10.329
찬	-10.3302
둔	-10.3304
채	-10.3313
▁하니까	-10.3314
였나	-10.3317
출	-10.3317
▁좋고	-10.332
푸	-10.3336
▁결혼해야	-10.3342
목	-10.3342
왕	-10.3352
▁보이네	-10.3359
'	-10.3362
▁깎	-10.3367
▁바꿀	-10.3369
있음	-10.3376
▁웃는	-10.3379
깨	-10.3381
▁한다는	-10.3381
▁괜찮다	-10.3388
는걸	-10.3389
▁마음에서	-10.3391
려면	-10.3402
설	-10.3406
한번	-10.3413
▁나지	-10.342
▁어장인	-10.3421
▁바르	-10.3432
▁찾	-10.3445
▁거기까지	-10.3451
▁가려	-10.3461
▁웃어	-10.3468
▁답답	-10.3487
▁공부할	-10.3489
머	-10.3492
없는	-10.35
놓지	-10.3501
▁무너	-10.3505
밖	-10.3506
하나봐	-10.3507
있지	-10.3512
▁혼자인	-10.3516
▁된다	-10.3526
해봐요	-10.353
관	-10.355
▁침대	-10.3551
▁경험	-10.3553
▁낼	-10.3555
▁복잡	-10.3561
▁받아들여야	-10.3567
▁있으신가	-10.3567
달이	-10.3568
지마	-10.36
▁연애하면	-10.3603
▁자는	-10.3617
▁연락해보는	-10.3625
▁처음이	-10.3653
▁유학	-10.3658
▁선택할	-10.3659
▁이용해	-10.3664
▁참다	-10.3664
▁힘들고	-10.3664
▁헤아	-10.3669
▁닮	-10.3669
▁때문일	-10.3674
거겠죠	-10.3677
▁잘해야	-10.3678
게임	-10.3688
▁만나러	-10.3694
려도	-10.3703
여자	-10.371
치기	-10.3713
▁정확	-10.3714
▁정확하	-10.3717
▁왔나봐	-10.372
주지	-10.3727
▁보일	-10.3731
▁벗	-10.3737
▁먹기	-10.374
▁사람들에	-10.3745
▁흔	-10.3751
같네	-10.3757
▁심심	-10.3762
▁맘같	-10.3769
▁때려	-10.3773
▁쓸데	-10.3793
▁지는	-10.3801
라서	-10.3803
력이	-10.3803
같이	-10.3806
▁하시	-10.3807
▁20	-10.3817
▁낮	-10.3819
▁맛있을	-10.382
▁면도	-10.382
▁점심시간	-10.3829
▁개강	-10.3829
▁보냈	-10.3836
▁똑같	-10.3842
랬	-10.3842
▁고백할	-10.3845
례	-10.3858
탕	-10.3859
▁발렌타인데이	-10.386
▁아니라는	-10.3861
▁어떨	-10.3861
▁다닐	-10.3863
▁사라질	-10.3864
▁부담스러운	-10.3865
쟁이	-10.3866
▁드라이	-10.3867
▁녹	-10.3867
념	-10.3868
▁맨	-10.3868
▁다가왔	-10.3869
▁땡	-10.387
릅	-10.387
▁설렜	-10.387
▁가볍	-10.387
▁긁었어	-10.387
▁금수저	-10.387
▁놀이동산	-10.387
▁당분간	-10.387
▁뒷담화	-10.387
▁랜선	-10.387
▁머리카락	-10.387
▁모쏠	-10.387
▁빚	-10.387
▁서툴러	-10.387
▁섬유유연제	-10.387
▁셀프	-10.387
▁아팠	-10.387
▁염탐하	-10.387
▁왠	-10.387
▁유부남	-10.387
▁좋으련만	-10.387
▁지저분해	-10.387
▁층간소음	-10.387
▁컴퓨터	-10.387
▁특징	-10.387
▁팀	-10.387
▁프라이버시	-10.387
▁한켠	-10.387
▁흑역사	-10.387
댈	-10.387
딩	-10.387
쫌	-10.387
찐	-10.387
츠	-10.387
툰	-10.387
▁리폼	-10.387
▁축의금	-10.387
힐	-10.387
▁배터리	-10.387
▁비하하지	-10.3871
▁호칭	-10.3871
▁컴터	-10.3871
▁몸무게	-10.3871
▁농담	-10.3871
▁갑작스럽	-10.3871
▁격려	-10.3871
▁편의점	-10.3871
▁와닿	-10.3871
▁명품	-10.3871
▁맞춤법	-10.3871
▁무의식	-10.3871
▁시골	-10.3871
▁끓여	-10.3872
▁구속	-10.3872
▁신경써	-10.3872
▁감싸	-10.3872
▁그리울	-10.3872
▁화장품	-10.3872
▁개념	-10.3872
▁무관심	-10.3872
▁늦잠	-10.3872
▁연락두절	-10.3872
▁유행	-10.3872
▁서류에서	-10.3872
▁망했다	-10.3872
▁등산	-10.3873
▁방문	-10.3873
▁배울	-10.3873
▁무너져	-10.3873
▁기다림	-10.3873
▁지루	-10.3873
▁짜증날	-10.3874
▁찾아온	-10.3874
▁변덕스럽	-10.3874
▁졸업식	-10.3875
▁웃겨	-10.3875
▁은행	-10.3875
▁크시겠	-10.3875
▁먹어야겠다	-10.3875
▁간식	-10.3875
▁허전한	-10.3875
▁원인이	-10.3875
▁고마운	-10.3876
▁빨래	-10.3876
▁똑같아	-10.3877
▁마실까	-10.3877
▁반갑	-10.3877
▁미치겠습니다	-10.3877
▁회복	-10.3877
▁믿으세요	-10.3878
▁이틀	-10.3879
▁갚아	-10.3879
▁차갑게	-10.3879
▁어리게	-10.3879
▁나가볼까	-10.3881
▁신경쓰여	-10.3881
▁서운해	-10.3882
▁걱정되	-10.3882
▁사탕	-10.3882
▁군인	-10.3882
▁후배	-10.3883
▁한숨만	-10.3883
▁통장	-10.3884
▁귀여	-10.3884
활용	-10.3884
▁정신적	-10.3885
▁질질	-10.3885
▁탈퇴	-10.3886
주째	-10.3886
▁좋아해줬으면	-10.3886
▁못참고	-10.3887
▁먼	-10.3887
▁사생활	-10.3887
▁태	-10.3888
▁끝낼	-10.3889
▁한국	-10.389
플라	-10.3891
▁효	-10.3892
▁친해질	-10.3892
년만	-10.3893
▁좋더라	-10.3893
▁마음정리	-10.3893
▁치워	-10.3893
▁두셨네요	-10.3894
▁미치겠어	-10.3894
년연애	-10.3895
▁다정한	-10.3895
▁지낼	-10.3895
▁마실	-10.3896
▁좋았으면	-10.3896
▁양말	-10.3896
냐구	-10.3897
▁쌓인	-10.3899
▁망상	-10.3899
▁수업	-10.3905
드립니다	-10.3906
▁미워하지	-10.3908
담	-10.3908
▁없으니까	-10.3909
▁잊으려고	-10.391
▁첫눈	-10.3912
▁나갔어	-10.3913
▁포근	-10.3913
▁어른	-10.3914
▁지우	-10.3914
▁점심시간에	-10.3915
▁다짐	-10.3917
▁필요했을	-10.392
▁아마	-10.3921
▁재밌어	-10.3923
▁배고프	-10.3924
▁사겨도	-10.3926
▁가야겠죠	-10.3929
▁해야돼	-10.3931
▁걸린	-10.3932
▁들까	-10.3934
▁사냐	-10.3936
▁목적	-10.3938
▁지우고	-10.3939
▁많은걸	-10.3946
▁마주쳤	-10.3948
▁밟	-10.395
▁미안	-10.3952
▁어색한	-10.3953
▁연락했는데	-10.3954
▁가스	-10.3955
▁잤	-10.3957
▁주택	-10.3957
▁설명	-10.3957
▁다툼	-10.3957
▁시작하기	-10.3957
▁축제	-10.3958
▁지나면	-10.3959
▁프로필	-10.3959
지가	-10.396
▁가능한	-10.3961
▁좋대	-10.3962
▁보냈어	-10.3966
▁가능하면	-10.3969
▁한계	-10.3969
▁보고싶네	-10.397
신이	-10.3971
▁바늘	-10.3971
▁뭐임	-10.3973
▁작아	-10.3973
▁흘리	-10.3974
▁편하겠죠	-10.3974
▁보자고	-10.3975
▁이별이란	-10.398
▁똑똑해	-10.3982
▁아파트	-10.3985
▁슬프게	-10.3985
▁아닌가요	-10.3991
▁얘	-10.3991
▁극복하	-10.3998
▁연애하는데	-10.3999
▁짜	-10.4
▁놀러가	-10.4004
▁심심해	-10.4007
▁다르지	-10.4011
▁찌질한	-10.4011
▁덕	-10.4013
▁팔아	-10.4013
▁치매	-10.4013
▁있었는데	-10.4017
▁오려나	-10.4021
▁키울	-10.4028
들은	-10.4031
▁놓으	-10.4039
▁흘러가	-10.404
▁견뎌내	-10.4044
▁좋을지	-10.4049
뽑기	-10.405
▁할줄	-10.4052
▁준비할	-10.4058
복이	-10.406
▁읽씹	-10.407
▁소모	-10.4071
▁케이스	-10.4075
▁갑작스러	-10.4078
▁아픔이	-10.408
▁활	-10.4081
해졌	-10.4087
▁현실적	-10.4089
▁헤어지기	-10.4093
▁무덤덤해지	-10.4095
▁아무말	-10.4105
▁당한	-10.4113
▁떠났	-10.4113
▁머릿속	-10.4117
▁부담스러워할까	-10.4118
▁창업	-10.4118
00	-10.4124
▁끄는	-10.4129
▁많았나	-10.413
▁달려있	-10.4136
▁말했어	-10.4137
▁여자에게	-10.4141
▁빨	-10.4147
▁구분	-10.415
▁되었네	-10.4152
▁퍼	-10.4154
▁매력이	-10.4156
▁났나봐	-10.4161
▁빵	-10.4171
았습니다	-10.4171
친구와	-10.4173
▁적어보	-10.4175
▁쓰면	-10.4188
▁기억해	-10.4191
▁뒤에	-10.4207
▁그걸	-10.4216
▁읽어보	-10.4218
▁봤네	-10.4221
▁편하고	-10.4226
▁멀었	-10.4228
▁먹어야	-10.4232
▁나타나	-10.4235
▁답답하다	-10.4251
▁켜	-10.4261
각이	-10.4267
▁향기	-10.4271
했네요	-10.4273
▁확인하는	-10.4275
▁사랑하나	-10.4275
▁못자	-10.4299
▁만들었어	-10.4306
▁모를	-10.4319
코인	-10.4323
▁질리	-10.4331
▁들어왔	-10.4332
▁자다가	-10.4336
부를	-10.4338
▁흐르는	-10.4346
▁ᄒᄒ	-10.4348
갈수록	-10.4348
▁하셨나	-10.4358
▁떡	-10.4362
▁들으	-10.4363
▁고백할까	-10.4364
주고	-10.4365
▁들을	-10.4372
▁사귀자	-10.4373
▁했을	-10.4392
▁빌	-10.4402
봤	-10.4405
들어	-10.441
▁행	-10.4411
▁카	-10.4418
▁어떻게해	-10.4419
왔다	-10.4423
▁정리해	-10.4436
버는	-10.4442
▁연속	-10.4448
▁말해보는	-10.4448
▁안좋은	-10.4455
▁복잡한가	-10.4462
▁의지해	-10.4462
▁찬	-10.4463
▁겨울	-10.4473
▁짝사랑만	-10.4478
▁것만	-10.4485
▁낭만적	-10.4485
▁결혼한	-10.4488
▁덜어	-10.4494
▁이어주	-10.4495
셨	-10.4526
▁남길	-10.4526
▁합	-10.4527
▁연락할	-10.4533
한거	-10.4533
▁잘해주	-10.4542
▁남은	-10.4548
▁괜찮지	-10.4553
연애	-10.4555
▁고백해	-10.4575
▁늦는	-10.4576
▁붙	-10.4583
▁바보같	-10.4591
▁그분에	-10.4596
기적	-10.4602
▁우리집	-10.4604
▁불면증	-10.4615
▁바뀌어	-10.4616
▁일인	-10.4618
▁내일이	-10.4633
내고	-10.4636
▁접어두	-10.4638
▁주말이네	-10.4639
납니다	-10.4641
▁만들기	-10.4647
▁울적해	-10.465
▁하게	-10.4655
석	-10.4656
▁필요한가봐	-10.4673
▁오지	-10.4674
▁귀찮은	-10.4675
▁심어	-10.4677
▁얘기해	-10.4694
▁정상	-10.4699
▁키우는	-10.4703
았으면	-10.4704
▁안에	-10.4706
가봅니다	-10.4706
▁뻔했	-10.4722
▁변해	-10.4727
▁적응해야	-10.4728
▁들어올	-10.473
▁아이돌이	-10.4747
▁중독	-10.4747
▁위험하	-10.4748
▁옆	-10.4748
▁맞춰가	-10.4755
▁내기	-10.4762
▁나나	-10.4764
셨어	-10.477
▁일정	-10.4772
▁안주	-10.4788
▁될지	-10.4799
▁술먹	-10.4802
▁어울	-10.481
이렇게	-10.4822
▁연습해	-10.4832
▁공부하면	-10.4845
▁고치고	-10.4847
인거	-10.4847
▁너무나	-10.4858
▁가능하다	-10.486
▁검색	-10.4862
▁실수한	-10.4875
렸나봐	-10.4882
라는게	-10.4894
▁학교에	-10.4903
▁많은가	-10.4905
여자들이	-10.4906
▁아니네	-10.4913
▁김	-10.4921
▁알지	-10.4944
어보고	-10.4951
우는	-10.4962
▁갖자	-10.4968
였나봐	-10.4975
▁잡는	-10.4975
▁운명인가	-10.4984
하는건	-10.4987
▁기억에	-10.4998
▁닫	-10.5013
파	-10.502
▁커지	-10.5028
▁안하지	-10.5035
먹	-10.5042
다른	-10.5046
되지	-10.5047
▁아껴주	-10.5048
워서	-10.506
▁후회없	-10.5078
▁포기해야	-10.5081
▁어떻	-10.5088
ᄒᄒ	-10.5114
▁여사친	-10.5119
▁적이	-10.5122
아는데도	-10.5128
▁빠	-10.5137
▁축하해	-10.5144
▁말로	-10.5149
▁먹은	-10.5161
▁착각이	-10.5162
보여요	-10.5172
▁없는거	-10.5183
▁결혼해	-10.5188
되어	-10.5192
▁버리는	-10.5204
데이트	-10.5211
▁모으	-10.5215
▁평가	-10.5228
▁편안하	-10.5245
▁당당	-10.5254
▁이러는	-10.5263
▁트	-10.5282
▁끼	-10.5284
▁끊는	-10.5285
▁응원	-10.5289
▁부족한가	-10.5295
▁사랑해요	-10.5296
선이	-10.53
해주지	-10.5314
▁지났	-10.5331
남한테	-10.5359
▁설레는	-10.5359
▁성장하	-10.536
근	-10.5362
▁지났어	-10.5374
참	-10.5385
▁결정이	-10.5388
나가는	-10.5403
▁학기	-10.5407
▁대화하는	-10.5415
▁무리	-10.542
▁도와	-10.5429
▁헛헛	-10.5431
할지도	-10.5436
▁사나	-10.5441
▁아니지	-10.5441
버	-10.5442
발이	-10.5444
▁재미있는	-10.5446
▁거짓말이	-10.5455
해야겠죠	-10.5455
▁이별하는	-10.5462
을거예요	-10.5466
▁못하겠	-10.5472
좋아하는	-10.5472
▁힘들까	-10.5473
▁아파하	-10.5488
망	-10.5491
▁따듯	-10.5492
▁되는거	-10.5502
치는	-10.5543
▁소문이	-10.5545
오래	-10.5549
을때	-10.5549
▁욕해	-10.5554
▁재밌을	-10.5565
랑이	-10.5574
▁서운	-10.5596
그래	-10.5598
▁반복	-10.5608
▁후회할까	-10.561
▁속상	-10.5614
▁은퇴	-10.5618
하는지	-10.5623
잔	-10.5632
▁기술	-10.5635
넘	-10.5637
▁그렇다	-10.5645
있습니다	-10.5646
▁못난	-10.565
사람은	-10.567
▁뭐하면	-10.5671
색	-10.5676
▁피곤하	-10.569
해줘서	-10.5695
들면	-10.5698
▁받아들여	-10.5706
▁말한	-10.5715
봤어	-10.5734
▁타나	-10.5737
향	-10.5739
▁기다	-10.5742
5	-10.5742
어머	-10.5746
인건가	-10.5758
공원	-10.5763
갑니다	-10.5774
순	-10.5775
구경	-10.5777
▁주기	-10.5781
▁생일이	-10.5784
되길	-10.5786
안녕	-10.58
기세요	-10.5803
▁결혼하고	-10.5804
욕	-10.5808
▁아니었나	-10.581
받으세요	-10.5816
옷	-10.5818
영상	-10.5819
S	-10.5822
햇	-10.5824
▁해줄	-10.583
건강에	-10.5831
▁차가	-10.5832
▁맞춰주	-10.5837
처리	-10.5838
뒀	-10.5839
쪄	-10.5839
▁배워보	-10.5839
싶다	-10.5843
선배	-10.585
▁학생	-10.5851
▁건데	-10.5854
조건	-10.5858
▁깊었	-10.5859
▁남자분들	-10.5859
놔	-10.5867
높이	-10.587
▁모아야	-10.5871
분들	-10.5872
▁제안	-10.5882
뜨	-10.5888
▁보내지	-10.5888
클	-10.5888
▁도	-10.5893
조심하세요	-10.5894
공	-10.5898
▁생각하기	-10.5905
비가	-10.5907
▁뭐하	-10.5909
이가	-10.591
▁마주	-10.5919
특	-10.592
▁반에	-10.5924
▁단순	-10.5925
▁이것	-10.5926
▁친구라	-10.5949
운을	-10.596
▁흐르	-10.5967
▁남는	-10.5971
▁왕따	-10.5988
▁인연이었	-10.5992
회	-10.5997
▁않지	-10.601
▁많아지	-10.6018
▁예뻐지	-10.6039
▁아니었	-10.6071
다니는	-10.6074
▁불편하겠	-10.6083
이예요	-10.6088
▁듣는	-10.6101
▁키워	-10.6105
▁참을	-10.6142
▁뜨	-10.6147
가봐	-10.6154
▁않았을	-10.6161
▁태어	-10.6174
중입니다	-10.62
못했던	-10.6202
해야겠지	-10.6207
▁카페에	-10.623
▁기다려야	-10.6237
▁공개	-10.6247
해야할까	-10.6251
▁막히	-10.6256
▁나빠	-10.6257
롭	-10.6275
▁아깝	-10.6279
▁지쳤	-10.6286
▁잘지내	-10.6308
▁솔로	-10.6316
룩	-10.6316
립니다	-10.6327
▁중국	-10.6336
닝	-10.6339
냥	-10.6343
▁아물	-10.6347
▁두근거	-10.6348
▁진행	-10.635
▁쳐다	-10.6359
텐	-10.6362
압	-10.6363
▁변덕	-10.6365
▁미칠	-10.6366
류	-10.6366
▁쪼	-10.6367
▁확실해	-10.637
▁멈	-10.637
▁휘	-10.637
▁광	-10.637
힌	-10.637
눅	-10.637
듭니다	-10.637
▁슈퍼	-10.637
쭤	-10.637
▁객관적	-10.637
▁설득	-10.637
맷	-10.637
줌	-10.637
짚	-10.637
▁뒹굴	-10.637
▁뚫	-10.637
▁맴	-10.637
▁비정상이	-10.637
▁사춘기	-10.637
▁원동력이	-10.637
째깍	-10.637
B	-10.637
a	-10.637
s	-10.637
▁각질제거	-10.637
▁곱	-10.637
▁굳	-10.637
▁그린라이트	-10.637
▁글쎄요	-10.637
▁꼰대	-10.637
▁꼼	-10.637
▁꽉	-10.637
▁꾹꾹	-10.637
▁대기업	-10.637
▁뒷감당	-10.637
▁멘	-10.637
▁몫	-10.637
▁무한리필	-10.637
▁버릇	-10.637
▁베트남	-10.637
▁선풍기	-10.637
▁소액결제	-10.637
▁수면양말	-10.637
▁아울렛	-10.637
▁웹툰	-10.637
▁유부녀	-10.637
▁이모티콘	-10.637
▁인터넷	-10.637
▁입냄새	-10.637
▁좌절	-10.637
▁팍팍	-10.637
▁하우스웨딩	-10.637
▁핫	-10.637
▁훔쳐보	-10.637
껄	-10.637
놨	-10.637
니깐	-10.637
덥	-10.637
렵니다	-10.637
샌	-10.637
앨	-10.637
엠	-10.637
율	-10.637
팁	-10.637
팬	-10.637
펑	-10.637
풋	-10.637
▁겪	-10.637
▁교양수업	-10.637
▁레시피	-10.637
▁맺	-10.637
▁애프터	-10.637
▁침묵	-10.637
▁케익	-10.637
▁현타	-10.637
▁브랜드	-10.637
▁무언가	-10.6371
▁어리석	-10.6371
▁뱃살	-10.6371
▁확률	-10.6371
▁떨어뜨려	-10.6371
▁상종하지	-10.6371
▁비행기표	-10.6371
▁손가락	-10.6371
▁증명	-10.6371
▁뉴스	-10.6371
▁엄마아빠	-10.6371
▁골프	-10.6371
▁블록	-10.6371
▁외출하	-10.6371
▁넘어가네	-10.6371
▁뜨겁	-10.6371
▁메뉴얼	-10.6371
▁찢어지	-10.6371
▁뛰어넘	-10.6371
▁알뜰폰	-10.6371
▁피부관리	-10.6371
▁미용실	-10.6371
▁실패	-10.6371
▁희생양	-10.6371
▁베프	-10.6371
▁월세	-10.6371
▁고시원	-10.6371
▁패션	-10.6371
▁똥차	-10.6371
▁감정기복	-10.6371
▁승진	-10.6371
▁부탁드립니다	-10.6371
▁인지시켜	-10.6371
▁어렸을때	-10.6371
▁예능	-10.6371
▁주름살	-10.6371
▁자장가	-10.6371
▁으아	-10.6371
▁발견	-10.6371
▁열흘	-10.6371
▁떨린다	-10.6371
▁롱디	-10.6371
▁탈모	-10.6371
▁당첨	-10.6372
▁제정신	-10.6372
▁작동	-10.6372
▁친척	-10.6372
▁학벌	-10.6372
▁바꿨어	-10.6372
▁잡념	-10.6372
▁똑같애	-10.6372
▁실행	-10.6372
▁종지부	-10.6372
▁무모	-10.6372
▁공유	-10.6372
▁출발	-10.6372
▁대청소	-10.6372
▁바쁠	-10.6372
▁빈자리	-10.6372
▁어떡함	-10.6372
▁음료	-10.6372
▁리드	-10.6373
▁청결	-10.6373
▁이제서야	-10.6373
▁알바생	-10.6373
▁직전	-10.6373
▁참석하는	-10.6373
▁들이대	-10.6373
▁예비	-10.6373
폭력	-10.6373
▁손편지	-10.6373
▁허전할	-10.6373
▁무뎌지	-10.6373
▁허전함	-10.6374
▁감출	-10.6374
▁쌓여	-10.6374
▁다녀왔어	-10.6374
▁외부	-10.6374
▁장갑	-10.6374
콜록	-10.6374
▁시도해	-10.6374
▁나이테	-10.6374
▁녹여	-10.6375
▁환기	-10.6375
▁변화시켜	-10.6375
▁선택이었을	-10.6375
▁어느정도	-10.6375
▁초기화	-10.6376
▁비밀연애	-10.6376
▁속박	-10.6376
▁다듬	-10.6376
▁보냈습니다	-10.6376
▁한심해	-10.6376
▁차였는데	-10.6376
▁미안하다	-10.6376
잔하네	-10.6377
▁비정규직	-10.6377
▁아쉬운	-10.6377
▁최저	-10.6377
▁부담스러울	-10.6377
▁예전	-10.6377
▁연애세포	-10.6377
▁정해져	-10.6377
▁접어야	-10.6377
디오	-10.6377
▁지압	-10.6377
▁입학	-10.6378
▁한번쯤	-10.6378
▁졸린	-10.6379
▁주량	-10.6379
▁알아볼	-10.6379
▁구두	-10.6379
▁사표	-10.6379
▁끝났습니다	-10.638
▁겁나	-10.638
▁배울까	-10.638
▁감동	-10.6381
▁망함	-10.6381
▁구워	-10.6382
▁지웠어	-10.6382
스트	-10.6382
▁잊혀질까	-10.6383
▁변신	-10.6383
▁역할	-10.6383
▁지낸	-10.6384
▁좋아한대	-10.6384
▁떠날	-10.6384
▁난방	-10.6385
▁따져	-10.6385
▁부족해	-10.6385
▁강제	-10.6385
▁화가나	-10.6386
▁심해지는	-10.6386
▁무뎌질	-10.6386
▁방금	-10.6386
▁끊겼어	-10.6386
▁면도기	-10.6387
▁돌아와	-10.6387
▁오셨	-10.6388
▁어떡하죠	-10.6388
▁봤나	-10.6388
▁두근거려	-10.6388
▁프로	-10.6389
▁실천	-10.6389
▁지각	-10.639
▁습관처럼	-10.639
▁12	-10.6392
▁오바	-10.6392
▁보냈네	-10.6392
▁떠나간	-10.6393
▁진리	-10.6394
▁전여자친구	-10.6394
▁기다릴게요	-10.6394
▁티나나	-10.6395
▁미화되기	-10.6395
재인가	-10.6395
▁괜찮겠지	-10.6395
▁중요하니까	-10.6396
▁어떠세요	-10.6396
▁숙제	-10.6397
▁일방적	-10.64
▁표현하기	-10.64
▁필기	-10.6401
▁착잡하	-10.6401
▁풀리	-10.6401
▁냉면	-10.6401
▁되려면	-10.6401
▁고마	-10.6402
차곡	-10.6402
▁익숙해져	-10.6402
▁태연	-10.6403
▁아부	-10.6405
▁실수했나	-10.6407
▁단수	-10.6407
▁성덕이	-10.6408
▁위로해줄	-10.6408
개월차	-10.6408
▁안됐	-10.6408
▁싸운	-10.6409
둬야	-10.641
▁보란	-10.641
▁잘못입니다	-10.6412
▁상대적	-10.6412
추적	-10.6413
▁아쉬움이	-10.6413
렸	-10.6416
▁이별준비	-10.6417
▁일시적	-10.6418
▁물질	-10.6419
▁탁	-10.642
여행	-10.642
▁감성적이	-10.6423
▁개강이	-10.6426
초록	-10.6427
▁어렵다	-10.6429
▁연락왔어	-10.6431
▁반가워요	-10.6431
▁냉	-10.6431
▁끈을	-10.6432
▁친절한	-10.6434
▁나왔네	-10.6434
▁무리하지	-10.6437
▁낮잠	-10.6437
▁없는걸까	-10.6438
▁죽을거	-10.644
종료	-10.644
▁짜증나네	-10.6441
▁지친	-10.6443
식하는	-10.6443
▁필수	-10.6443
▁시작할	-10.6443
▁맛있어	-10.6444
▁칼	-10.6444
▁여러명	-10.6445
▁들어줄	-10.6448
▁늙어가	-10.6449
▁걸리	-10.6449
▁좋긴	-10.645
▁놀러가세요	-10.6452
▁도망가	-10.6453
▁달력	-10.6454
▁영어	-10.6455
▁사줘	-10.6455
▁하다니	-10.6455
▁결혼하기	-10.6456
▁헷갈리네	-10.6456
▁월급날	-10.6461
체인	-10.6461
▁막힌다	-10.6462
▁실력	-10.6462
▁받으시	-10.6463
▁한약	-10.6463
▁농	-10.6464
▁다칠	-10.6466
근데	-10.6468
▁수능	-10.647
▁쫄	-10.6472
▁윗	-10.6472
▁응	-10.6472
▁연상	-10.6473
▁메리	-10.6474
한건가	-10.6477
▁손톱이	-10.6478
▁있는걸까	-10.6479
▁예약	-10.648
▁돌아서	-10.6482
▁터질	-10.6483
▁아니겠지	-10.6486
▁웃음	-10.6486
▁술한잔	-10.6487
▁아는거	-10.6488
▁독서	-10.6492
▁일하	-10.6495
▁싶으면	-10.6495
▁해봤는데	-10.6496
▁차인	-10.6496
▁좋아지고	-10.6498
사드리	-10.65
▁견디기	-10.6501
▁외국어	-10.6505
▁다녀와	-10.6506
▁표현하지	-10.6508
▁넘었는데	-10.6511
탔어	-10.6514
▁나쁘	-10.6515
▁가능한가	-10.6517
▁안받아	-10.6517
▁없는걸	-10.6523
▁대수	-10.6524
▁싸울	-10.6524
들었겠	-10.6527
▁현금이	-10.6531
주물	-10.6532
▁누나	-10.654
렸으면	-10.6543
▁공간	-10.6543
▁알아내	-10.6546
주일	-10.6546
▁깨달았	-10.6551
▁입장	-10.6552
▁세우	-10.6557
▁싸우고	-10.656
▁다양	-10.6561
▁용서하	-10.6561
▁반복되	-10.6564
▁오니까	-10.6566
▁누구야	-10.6569
▁해준	-10.657
들었나봐	-10.6575
▁사이로	-10.6576
▁뛰어	-10.6578
▁나오네	-10.6579
▁낭만이	-10.658
▁결심이	-10.6581
▁병	-10.6584
▁해줄까	-10.6585
▁좋으니	-10.6588
▁알겠어	-10.6588
▁운이	-10.6588
▁어이없	-10.659
▁울고	-10.6591
▁운동화	-10.6592
있	-10.6594
▁옷이요	-10.6594
▁남자입니다	-10.6601
▁좋아졌어	-10.6604
▁없대	-10.6611
▁의자	-10.6616
▁맛있다	-10.6619
▁반년	-10.6619
▁액	-10.6622
▁배정	-10.6623
두통	-10.6623
▁붙이	-10.6628
▁센	-10.6629
▁미팅	-10.6632
▁옳은	-10.6632
▁닮아	-10.6635
▁견	-10.6639
▁남자에게	-10.6642
▁간대	-10.6642
준비	-10.6643
▁연락할까	-10.6646
▁기침	-10.6651
▁마시지	-10.6663
▁동생한테	-10.6664
▁걷다	-10.6667
해야할지	-10.667
하셔야죠	-10.667
▁단점	-10.6679
려는	-10.6683
▁쌓였	-10.6685
▁필요하지	-10.6685
▁하아	-10.6685
▁부려	-10.6691
▁세달	-10.6691
▁예상	-10.6695
▁식습관	-10.6695
▁돌아오지	-10.6696
▁취직할	-10.6704
▁피로	-10.6704
셔야	-10.6715
▁쓰일	-10.6726
장이	-10.6726
▁잘생겼어	-10.6731
이는	-10.6731
▁꾸준한	-10.6732
▁이뤄지	-10.674
▁굴	-10.6741
▁상태인	-10.6745
▁애석하	-10.6747
▁힘들겠죠	-10.6749
해줬으면	-10.6751
▁따지	-10.6753
▁가려고	-10.6755
사람에게	-10.6758
▁끊으	-10.6761
▁잊지못	-10.6764
▁특	-10.6769
이크	-10.6773
▁해야할	-10.6773
이럴까	-10.6778
▁냄새나	-10.678
자마	-10.6783
▁정성	-10.6788
▁결정하는	-10.6789
보여	-10.6794
▁허무하네	-10.6801
에도	-10.6804
▁이어가	-10.6807
▁좋은점	-10.6808
▁힘들지만	-10.6813
너	-10.6815
하려	-10.6823
▁고백해야	-10.6824
▁배신	-10.683
▁끊기	-10.6836
▁사전	-10.6837
▁아프게	-10.6846
▁직	-10.6848
▁겨울에	-10.6855
▁해봐	-10.6857
되시길	-10.6858
▁대하는	-10.6862
한대	-10.6873
연이	-10.6875
있을까	-10.6877
이었나봐	-10.6879
▁품	-10.688
▁친구인데	-10.6886
개시	-10.6892
▁비오	-10.6896
▁죽어	-10.6898
▁전과	-10.69
▁방심	-10.6906
▁말보다	-10.6908
돌	-10.691
▁쓰게	-10.6917
친구	-10.6922
고치기	-10.693
▁처리	-10.6937
▁진도	-10.6939
▁끊겼	-10.6945
▁페	-10.6948
져서	-10.6949
▁마지막이	-10.6953
▁느껴보	-10.6953
길게	-10.6955
▁없었	-10.6959
▁넣어	-10.6971
▁건강습관이	-10.698
었네	-10.698
▁글자	-10.6986
▁짝	-10.6987
▁하러	-10.6996
▁지식	-10.6998
▁붙잡아	-10.7001
▁수준	-10.7002
▁받으세요	-10.7004
▁기다려보	-10.7008
했던거	-10.701
▁우울하	-10.7015
▁해야겠지	-10.7018
온다	-10.7032
▁뭐해	-10.7033
▁영상	-10.7035
리세요	-10.7039
▁의심해	-10.7059
▁고백한	-10.706
▁잊어가는	-10.706
▁'	-10.7063
▁모른척	-10.7069
▁일기	-10.7097
▁뜨는	-10.7097
▁괜찮다가	-10.7098
▁깔끔하	-10.7099
▁색	-10.7112
▁도와줄	-10.7129
직	-10.713
▁약간	-10.7132
▁이기	-10.7136
▁했네	-10.7144
▁부족	-10.7145
▁말해봐	-10.715
▁안될	-10.7154
▁지적	-10.7157
▁준비해	-10.716
▁익숙해지	-10.716
할게	-10.7164
▁싶다는	-10.7165
▁판	-10.7167
▁결혼에	-10.7177
▁갑니다	-10.7188
▁순수하	-10.7196
▁사귀다	-10.7201
▁거겠지	-10.7206
▁이상하	-10.7209
시다니	-10.7212
▁고독	-10.7226
▁여지	-10.7227
▁가리	-10.7228
이었을	-10.7229
▁크리스마스에	-10.7238
▁잘하	-10.7239
▁일주일이	-10.7239
안보여	-10.7239
정기	-10.7247
▁화해	-10.7263
▁기적	-10.7274
▁부르	-10.7279
▁많으시	-10.7285
▁학생이	-10.7305
▁지르	-10.7316
했을까	-10.7321
거지	-10.7341
겼는데	-10.7344
이란게	-10.7346
이겠죠	-10.7355
▁열어	-10.7355
식물	-10.7373
이지	-10.7373
▁좋은거	-10.7374
▁놓아줄	-10.7382
▁인연인	-10.7383
▁질린	-10.7385
▁별로인	-10.7392
마음	-10.74
▁귀찮다	-10.7406
▁헛헛하	-10.7407
볼때	-10.7421
▁아니었을	-10.7424
▁꿨	-10.7429
되가네	-10.7468
▁하는지	-10.7492
▁화나	-10.7499
▁사람이었나	-10.7515
해도될까	-10.7515
▁나약	-10.752
▁거였	-10.7521
쳤어	-10.7535
▁나눠보는	-10.7537
▁나니	-10.7543
▁다치	-10.7547
▁사랑했	-10.7549
난다면	-10.7555
▁찾아오네	-10.7569
▁마주치면	-10.7573
이고	-10.7574
▁생각하나	-10.7577
▁모르겠다	-10.7584
▁의	-10.7585
▁든든하	-10.7586
해야겠다	-10.759
▁진지	-10.7591
▁어이	-10.7609
해주	-10.7613
▁되어요	-10.763
되니까	-10.7633
▁떨어	-10.7645
▁감당	-10.7662
▁메	-10.7675
사는	-10.7693
▁생각하게	-10.7704
▁안정적	-10.7705
야겠어	-10.7711
▁이래	-10.7717
오겠죠	-10.7727
▁조급하	-10.7728
▁가져가	-10.7753
오늘	-10.7764
▁초대하	-10.7772
▁혼내	-10.7773
▁수건	-10.7777
왔네	-10.7789
▁아쉽	-10.7793
싶은데	-10.7798
되었는데	-10.7815
▁지냈	-10.7825
으신가	-10.7826
린다	-10.7837
▁우정	-10.7864
▁이겨야	-10.7866
▁깎아야	-10.7866
▁자르	-10.7876
▁부담되	-10.7879
▁상황에	-10.7879
▁친해	-10.7893
▁치맥이	-10.7893
▁붙잡는	-10.7895
▁차단하는	-10.7899
▁쌓	-10.7905
▁그사람이	-10.7919
런지	-10.7946
줘서	-10.7951
▁몰려	-10.7974
▁해보려	-10.7974
▁풀려	-10.7977
겠대	-10.7979
문이	-10.7993
올까	-10.8024
족	-10.8029
▁살았	-10.8029
▁민	-10.8033
▁힘든가	-10.806
볼	-10.8099
▁상황인	-10.8116
하자	-10.812
▁만나요	-10.8139
망이	-10.8142
▁할게	-10.8148
▁불만	-10.8152
페	-10.8152
▁복잡해	-10.8164
▁버려야	-10.8164
하기로	-10.8167
▁나겠	-10.818
막히는	-10.8193
▁어떡하	-10.8214
확	-10.822
▁물이	-10.8229
▁예쁘다	-10.8232
▁식었	-10.8232
▁든든	-10.8249
▁출근하	-10.8253
▁당당해	-10.8261
▁감성	-10.8263
▁찾아가는	-10.8265
▁버려야겠	-10.8265
▁싫은가봐	-10.8271
▁사실이	-10.8276
▁사라	-10.828
되었길	-10.8281
▁무엇인	-10.8285
▁되려	-10.8286
심이	-10.8305
▁아이돌	-10.8309
간을	-10.8322
▁나야	-10.8324
됩니다	-10.8326
▁척하는	-10.8344
올려	-10.835
▁멀	-10.8354
▁기도	-10.8369
▁따라가	-10.8369
실에	-10.838
말걸	-10.8387
▁해결해	-10.8389
▁취직하	-10.8391
▁불안하	-10.8392
▁달에	-10.8393
▁오락가락	-10.8399
▁사랑이라는	-10.8409
▁사랑이에요	-10.8414
▁남자의	-10.8422
해줬어	-10.8423
▁원해	-10.8425
▁걸리겠	-10.8426
▁끝인가봐	-10.844
▁터지	-10.8453
선물	-10.8455
▁알아봐	-10.8465
안한다	-10.8465
받으면서	-10.8478
▁남사친	-10.8487
▁무덤덤해	-10.8488
▁많겠지	-10.8489
▁후련하네	-10.8492
▁돌아보	-10.85
▁매력있	-10.8525
▁포기하	-10.8529
톡	-10.8538
이상	-10.8543
▁선물해	-10.8554
▁헤어짐에	-10.8557
▁마주하	-10.8573
보이네	-10.8573
▁하는거	-10.8576
다리	-10.8607
▁자야	-10.861
▁년	-10.8624
▁헤어졌다	-10.8647
있나	-10.8655
머리	-10.8656
▁않기	-10.8661
▁건들	-10.8674
▁되어가	-10.8681
▁만나기	-10.871
유	-10.8714
▁이성이	-10.8722
절	-10.8727
▁올려달	-10.8731
▁공부해	-10.8735
용해	-10.8741
▁연인이	-10.8744
었다	-10.8745
▁연속이	-10.8751
▁시간이었	-10.8758
름이	-10.8759
▁일이라	-10.8759
▁짝사랑인	-10.8778
▁쿨	-10.8783
맘	-10.8784
군	-10.8788
▁그런지	-10.8793
시려	-10.8801
▁나는데	-10.8802
▁모른척하	-10.8806
▁끝내는	-10.8811
▁예민	-10.8815
▁물가	-10.8822
▁로	-10.8827
1	-10.8836
▁사람이다	-10.8839
참고	-10.8848
좋아	-10.8853
▁해야하나	-10.8857
▁요구	-10.8865
때문에	-10.8871
▁상처주	-10.8882
간의	-10.8884
▁기대하	-10.8885
절한	-10.8905
노래	-10.8908
이야기	-10.8913
생각이	-10.8916
▁살아가는	-10.8918
▁풀어야	-10.8925
▁만한	-10.8928
꿈	-10.8931
▁짧아	-10.8938
침	-10.8952
▁야	-10.8958
시켜	-10.8964
책	-10.8967
▁절약해	-10.8984
스타일	-10.899
▁내면	-10.8995
품	-10.9017
겁	-10.9024
▁밥이	-10.9025
육	-10.9034
일이네	-10.9048
그만	-10.9049
테	-10.9056
폭	-10.9058
보니	-10.9062
사진	-10.9065
상담	-10.9071
빛	-10.9073
호	-10.9079
그리고	-10.908
완	-10.908
영	-10.9084
속에	-10.9085
만남	-10.9095
꿀	-10.9099
▁잘못한	-10.9101
투	-10.9103
▁치열	-10.9108
▁입으	-10.9115
쌈	-10.9122
잼	-10.913
볶	-10.9142
▁미안해하	-10.9143
문득	-10.9143
동물	-10.9144
따로	-10.9148
▁채	-10.915
벌	-10.9153
롱	-10.9153
팩	-10.9164
싸움	-10.9166
맞나	-10.9166
들지	-10.9172
커플	-10.9173
됨	-10.9173
당했어	-10.9176
뒤	-10.9176
평가	-10.9177
치료	-10.9181
빈	-10.9184
빵	-10.9189
널	-10.9191
▁떨쳐	-10.9194
팔	-10.9195
커	-10.9197
웠어	-10.9208
였던	-10.9209
빨	-10.921
포	-10.921
▁배려해	-10.9211
슬	-10.9212
편지	-10.9248
얘	-10.9249
▁야근이	-10.9251
▁해외여행	-10.9252
▁관계에	-10.9255
렀어	-10.9263
이니까	-10.9264
필	-10.9272
▁좋네	-10.9279
▁대단	-10.9282
계절	-10.9283
▁맞나봐	-10.9283
노	-10.9283
오게	-10.9291
라더니	-10.9293
주실	-10.9296
어져	-10.9306
프	-10.9313
▁중독인	-10.932
수건	-10.9333
▁머릿속에	-10.9339
▁너무너무	-10.9352
▁말자	-10.9363
탈이	-10.9369
이냐	-10.9371
▁사람하고	-10.9381
▁뽑	-10.9381
▁안좋	-10.9384
▁아닌가	-10.9387
▁사먹	-10.9392
거니	-10.9397
안할	-10.9418
▁도와드릴	-10.9432
▁준비하느	-10.9434
▁유지	-10.9439
▁이길	-10.9444
러운	-10.9448
▁차단하	-10.9451
왔습니다	-10.9473
와야	-10.9475
▁즐	-10.9476
▁카톡할	-10.9483
▁뭐지	-10.9501
▁올리	-10.9502
끄러워	-10.9508
▁해야겠	-10.9515
▁가득	-10.9522
▁접는	-10.9528
▁멀어진	-10.9532
▁심하네	-10.9541
싹	-10.9553
▁이야기하고	-10.9562
성적이	-10.9567
▁뛰	-10.9568
▁잘하니	-10.957
▁되돌	-10.9571
▁이별중	-10.9574
▁의미일까	-10.9578
▁100	-10.9581
감이	-10.9583
▁움직	-10.9586
▁때인	-10.9615
까운	-10.9617
▁똑	-10.9618
▁멈춰	-10.9619
두세	-10.9622
▁무색하	-10.9624
▁써보	-10.9628
처	-10.963
▁상메	-10.9636
▁행복이	-10.9642
▁똑똑	-10.9644
▁헷갈	-10.9645
▁멍청	-10.9651
지우	-10.9655
▁운명적	-10.9656
▁벗어	-10.9656
▁헤	-10.9658
일만	-10.9658
▁흔들	-10.966
곡	-10.966
▁지켜보는	-10.9665
하는걸	-10.9668
꾼	-10.9669
▁털	-10.9673
▁사겨	-10.9677
시키는	-10.968
▁줄일	-10.9683
납	-10.9687
▁돌아올	-10.9687
▁한숨	-10.9689
▁죽겠	-10.969
닥	-10.9691
즘	-10.9698
▁탓	-10.9699
촉	-10.97
▁바랄	-10.97
▁삐	-10.9701
춰	-10.9701
궈	-10.9701
▁씁쓸	-10.9701
범	-10.9703
둥	-10.9703
봉	-10.9704
▁씁	-10.9704
낌	-10.9704
뱃	-10.9704
▁꿰	-10.9704
▁헹	-10.9704
▁간질간질	-10.9704
▁뇌	-10.9704
▁두렵	-10.9704
▁뻐근	-10.9704
▁심쿵	-10.9704
▁혼란스럽	-10.9704
-	-10.9704
▁간섭	-10.9704
▁견과류	-10.9704
▁공휴일에	-10.9704
▁기쁨	-10.9704
▁깍	-10.9704
▁깰	-10.9704
▁눈꺼풀	-10.9704
▁눕	-10.9704
▁드레스	-10.9704
▁떴	-10.9704
▁로맨스	-10.9704
▁매몰	-10.9704
▁묘	-10.9704
▁북	-10.9704
▁비혼주의	-10.9704
▁설렐	-10.9704
▁숫자	-10.9704
▁시간낭비인	-10.9704
▁아날로그	-10.9704
▁앱	-10.9704
▁얼떨떨	-10.9704
▁얽	-10.9704
▁예측	-10.9704
▁오지랖	-10.9704
▁잘생겨	-10.9704
▁캬	-10.9704
▁턱	-10.9704
▁토닥토닥	-10.9704
▁하객	-10.9704
▁헥헥	-10.9704
▁현관문	-10.9704
▁현명	-10.9704
▁호르몬	-10.9704
▁혼란스러워	-10.9704
▁홈	-10.9704
▁홧	-10.9704
▁휴유증	-10.9704
▁흐지부지	-10.9704
▁히스테리	-10.9704
겐	-10.9704
넋	-10.9704
닷	-10.9704
돕	-10.9704
됬네	-10.9704
땜	-10.9704
띠	-10.9704
렴	-10.9704
륵	-10.9704
벤	-10.9704
샜	-10.9704
송	-10.9704
엉엉	-10.9704
옵	-10.9704
젤	-10.9704
짼데	-10.9704
쿠	-10.9704
▁대리효도	-10.9704
▁쇼핑몰	-10.9704
▁어딘가	-10.9704
▁의존	-10.9704
▁헐	-10.9704
▁혼인신고	-10.9704
왓	-10.9704
▁밑바닥	-10.9704
▁주인공	-10.9704
▁창피해	-10.9704
▁텀	-10.9704
▁표출	-10.9704
▁느꼈	-10.9704
▁버렸다	-10.9704
▁소름돋	-10.9704
▁피시방	-10.9704
오른다	-10.9704
▁근교	-10.9704
▁식단조절	-10.9704
▁예쁠	-10.9704
▁우습	-10.9704
▁주워담	-10.9704
▁투잡	-10.9704
▁도저히	-10.9704
▁씨씨	-10.9704
▁세탁	-10.9704
▁자극이	-10.9704
▁배불러	-10.9704
▁베란다	-10.9704
▁으으	-10.9704
▁격식	-10.9704
▁욜로	-10.9704
▁정리했	-10.9704
▁땡긴다	-10.9704
▁창문	-10.9704
▁공황	-10.9704
▁체력	-10.9704
그램	-10.9704
▁바람둥이	-10.9704
▁관찰	-10.9704
▁뒤돌아	-10.9704
▁뜨끈	-10.9704
▁탄다	-10.9704
▁난감하	-10.9704
▁스릴있	-10.9704
▁깜빡거려	-10.9704
블루	-10.9704
▁충실하	-10.9704
▁낮술	-10.9704
▁자유여행이	-10.9704
▁평범	-10.9704
▁노잼	-10.9704
▁카공	-10.9704
▁흐려지	-10.9704
▁빼앗	-10.9705
▁서핑	-10.9705
▁억울	-10.9705
▁투성이	-10.9705
▁구썸남	-10.9705
▁병행	-10.9705
▁빌릴까	-10.9705
▁사로잡	-10.9705
▁환경	-10.9705
▁재설계	-10.9705
▁스노	-10.9705
▁힘드셨	-10.9705
▁색다른	-10.9705
▁친군	-10.9705
▁안타까워	-10.9705
▁찬물	-10.9705
▁태어났을까	-10.9705
▁비오는날	-10.9705
▁갈등	-10.9705
▁위축	-10.9705
베리	-10.9705
▁구박하	-10.9705
▁떨어짐	-10.9705
▁정열적	-10.9705
▁예랑이	-10.9705
▁미안하대	-10.9705
울컥	-10.9706
▁불순	-10.9706
▁도와준	-10.9706
▁엮여	-10.9706
▁계획적이	-10.9706
▁길거리에	-10.9706
▁벗겨	-10.9706
▁나빴네	-10.9706
▁자책	-10.9706
▁찬성	-10.9706
▁힘이드네	-10.9706
▁보여드리	-10.9706
▁짜증남	-10.9706
▁환심	-10.9706
▁증상이	-10.9706
▁봤습니다	-10.9706
▁딴짓	-10.9706
▁구남친	-10.9706
▁직후	-10.9706
▁오랜연애	-10.9707
▁갈궈	-10.9707
▁제습기	-10.9707
▁뒤숭숭하네	-10.9707
▁체질	-10.9707
▁좋았을텐데	-10.9707
▁백수	-10.9707
▁가벼워질	-10.9707
▁태그	-10.9707
용품	-10.9707
▁혼밥	-10.9707
았더니	-10.9707
▁갑작스러웠	-10.9707
▁유명	-10.9707
▁공복이	-10.9707
더군	-10.9708
▁영화보러	-10.9708
▁곤두	-10.9708
▁미끄러질	-10.9708
▁쉬었다	-10.9708
▁옥상	-10.9708
▁되돌아보	-10.9708
▁쪼금	-10.9708
▁어울릴까	-10.9708
▁내딛	-10.9709
▁누워	-10.9709
▁스쳐	-10.9709
▁숨막히	-10.9709
▁계약	-10.9709
▁헷갈려	-10.9709
잔치	-10.971
▁반영	-10.971
▁깨짐	-10.971
▁스케	-10.971
▁이끌어	-10.971
▁사회	-10.971
▁감수성	-10.971
▁벌레	-10.971
▁속아주	-10.971
▁올랐어	-10.971
▁잊혀진	-10.971
▁식혀	-10.971
▁설마	-10.971
키기	-10.9711
▁분양	-10.9711
▁치마	-10.9711
▁유료	-10.9712
▁보인다	-10.9712
▁구매	-10.9712
▁경제	-10.9712
▁천국	-10.9712
주인	-10.9712
▁골	-10.9712
▁정신병	-10.9712
▁돌아올까	-10.9712
▁저편	-10.9712
▁아까운	-10.9713
▁느낀다면	-10.9713
▁한순간	-10.9713
▁배워가는	-10.9713
▁문제인가요	-10.9714
▁나쁜놈	-10.9714
▁집안	-10.9714
▁바나나	-10.9714
▁배워볼까	-10.9714
▁바꿔볼까	-10.9714
▁정리했습니다	-10.9714
▁신기하	-10.9715
▁대학원	-10.9715
▁환장	-10.9715
▁취소	-10.9715
▁무너졌어	-10.9715
▁정리되길	-10.9715
▁탈출구	-10.9716
▁까먹었어	-10.9716
▁숙취	-10.9716
▁술자리	-10.9717
▁11	-10.9717
▁바닥	-10.9717
▁생일선물	-10.9717
▁귀여운	-10.9717
▁다닐까	-10.9717
겁니다	-10.9717
▁공통점	-10.9717
▁달라질	-10.9718
설계	-10.9718
▁편안해질	-10.9718
님들	-10.9718
▁바람피	-10.9718
▁부팅	-10.9719
▁고백했다	-10.9719
▁심난	-10.972
▁사회에서	-10.972
▁꿈꾸	-10.972
▁요청	-10.9721
▁양치	-10.9721
▁복잡했나	-10.9722
▁퇴근길	-10.9723
▁무리일까	-10.9723
지나갑니다	-10.9724
▁연락했습니다	-10.9725
▁찍었네	-10.9725
▁편린	-10.9726
▁거둬	-10.9726
▁되어가네	-10.9726
▁자장면이	-10.9726
▁그쪽	-10.9726
하시겠	-10.9726
탈까	-10.9726
▁있었는지	-10.9726
▁보고파	-10.9727
▁식사	-10.9727
방비	-10.9727
▁기다렸나봐	-10.9728
▁단단해지	-10.9728
▁서울	-10.9729
▁들텐데	-10.973
▁배려해야	-10.973
▁한달반	-10.973
빛으로	-10.9731
▁남녀	-10.9732
▁매정	-10.9733
▁일주일이네	-10.9733
▁식었어	-10.9733
▁한눈	-10.9734
▁해외	-10.9735
식을	-10.9735
▁의심하지	-10.9735
▁편하대	-10.9736
▁미끄러	-10.9737
▁퇴근길에	-10.9737
▁주차장	-10.9737
▁전학가	-10.9737
▁지쳤어	-10.9737
▁재회했는데	-10.9737
허허	-10.974
▁속상할거	-10.974
▁권리	-10.974
▁장난인지	-10.9742
▁매달려	-10.9742
▁보약	-10.9743
정도	-10.9744
▁여기까지였	-10.9744
▁나온대	-10.9746
▁끌지	-10.9747
▁호구	-10.9747
▁미운	-10.9749
▁씹어	-10.9749
▁꿔	-10.975
▁다갔어	-10.975
▁모처럼	-10.975
▁밀려오	-10.975
▁쓰리	-10.9751
▁잊자	-10.9752
▁누구냐	-10.9752
▁난방비	-10.9752
▁사랑했으니	-10.9752
▁타인	-10.9753
▁안오지	-10.9753
▁떠나보내	-10.9754
▁연락오네	-10.9754
▁가고싶다	-10.9754
버리네	-10.9755
▁쟁취하는	-10.9756
▁세월이	-10.9757
▁향이	-10.9758
▁약점	-10.9758
▁살았는데	-10.9759
게되네	-10.9759
▁엇갈리	-10.976
▁질문이	-10.976
▁판단력	-10.976
▁계신	-10.9764
▁사람이네	-10.9764
▁심남	-10.9765
▁어쩔수없	-10.9765
▁생생한	-10.9765
▁졸라	-10.9765
▁한달만에	-10.9765
▁않았다면	-10.9766
원합니다	-10.9766
▁허기	-10.9766
간당	-10.9766
▁신경쓰인	-10.9766
▁물건들	-10.9768
▁잘살고	-10.9769
▁무섭네	-10.977
▁예쁜데	-10.977
▁오랜만	-10.9771
▁취직이나	-10.9772
▁고집	-10.9773
▁없어졌으면	-10.9773
▁이번달	-10.9774
▁특히	-10.9774
▁만져	-10.9775
▁커플여행	-10.9777
▁모르겠지만	-10.9779
▁무섭다	-10.9781
▁출근길	-10.9782
▁안되겠죠	-10.9785
▁즐거워	-10.9785
▁싫어져	-10.9785
▁얘기하지	-10.9786
▁뿌려	-10.9786
▁받으셨	-10.9787
▁발라	-10.9787
▁사과해야	-10.9789
▁잘자요	-10.9789
▁괴롭다	-10.9789
▁정리하려고	-10.979
▁정신과	-10.979
▁모여	-10.979
▁내려놓고	-10.9791
▁어디가지	-10.9792
▁불가능	-10.9793
▁한달째	-10.9793
▁공기	-10.9794
▁마시기	-10.9795
▁끊어야	-10.9795
▁작아지	-10.9797
▁보임	-10.9799
오르네	-10.9801
▁사무	-10.9802
이브	-10.9805
▁추스리	-10.9805
▁보셨나	-10.9806
▁데려다주려	-10.9808
▁어색해졌어	-10.9809
▁역시나	-10.9811
▁알려면	-10.9812
▁힘들어져	-10.9813
▁귀엽죠	-10.9814
▁성숙해지	-10.9814
▁지날	-10.9814
▁무뎌지는	-10.9817
▁비와	-10.9818
▁누락됐	-10.9819
▁문화	-10.9819
▁다되어가네	-10.9819
▁수학여행가	-10.9821
▁연하	-10.9823
▁하셔	-10.9824
▁느껴질	-10.9825
감기	-10.9825
▁걸었어	-10.9827
▁필요한가요	-10.9827
▁하트	-10.9827
▁아니었어	-10.983
▁남아있	-10.9833
▁무거	-10.9833
▁채우	-10.9834
▁속시원해	-10.9834
▁아깝다	-10.9835
▁아프지만	-10.9836
▁비참한	-10.9838
▁말하면	-10.984
▁관심있	-10.9843
▁이러고	-10.9844
▁지냈나	-10.9845
▁떼	-10.9845
▁쭉	-10.9845
▁흠	-10.9845
▁궁금해하지	-10.9847
▁일상으로	-10.9847
▁깜빡	-10.985
▁꾸미	-10.9855
▁총회	-10.9855
▁놀랐겠	-10.9856
▁불쑥	-10.9856
▁김치	-10.9857
▁날짜	-10.9859
▁기억해주	-10.986
▁좋겠습니다	-10.9861
▁사랑이야기	-10.9864
▁친구로서	-10.9868
▁결혼준비	-10.987
지겠네	-10.987
▁열까지	-10.9871
▁집착하지	-10.9876
▁효도	-10.9876
▁예고	-10.988
▁가을이	-10.9883
▁동거하다	-10.9885
▁보듬어주	-10.9886
▁죽겠다	-10.9888
▁지났는데	-10.9891
▁둘다	-10.9892
▁악	-10.9893
▁날려	-10.9893
올려봐	-10.9895
마시며	-10.9896
▁받네	-10.9898
▁비용	-10.9898
▁복전	-10.9898
▁둔한	-10.99
▁됐나	-10.9907
▁약해지	-10.9915
▁입을까	-10.9915
▁없다는	-10.9919
▁먹자	-10.9922
▁분에게	-10.9922
▁깨진	-10.9924
▁감으	-10.9925
▁지옥같	-10.9931
▁깔끔한	-10.9933
▁따르	-10.9935
▁아려	-10.9936
나의	-10.9938
▁공부방법	-10.9939
▁나갈까	-10.9947
침해	-10.9947
▁실수하	-10.9948
▁채워보세요	-10.9948
잡는	-10.9949
겼어	-10.995
▁돌아오는	-10.9956
▁생각일까	-10.9957
▁사귀는데	-10.9957
지는것	-10.9959
▁됐습니다	-10.9961
▁벌려	-10.9961
로그	-10.9966
기한	-10.9966
▁충	-10.997
▁잃을	-10.997
▁춥고	-10.997
▁골랐	-10.9974
▁회	-10.9979
▁앞이	-10.9981
▁마라	-10.9982
▁비참해	-10.9982
가지만	-10.9983
▁직구	-10.9984
▁친구사이	-10.9985
▁생겼나봐	-10.9986
▁적당해	-10.9986
▁묻어두는	-10.9987
▁꼼꼼한	-10.9988
▁소개받	-10.999
▁귀찮게	-10.9991
▁소원이	-10.9997
▁않으셨	-10.9998
▁예정	-10.9998
▁저주	-10.9999
▁없습니다	-10.9999
▁날들	-11
▁답답해서	-11.0003
하냐	-11.0008
▁부러	-11.0009
▁솔	-11.0012
▁남자와	-11.0014
연애였는데	-11.0014
▁도와드	-11.0019
▁지나고	-11.0021
▁거부	-11.0026
감한	-11.0027
▁탈출	-11.0029
▁너와	-11.0032
▁공개해	-11.0032
해본	-11.0039
▁아련하	-11.0044
▁변하니	-11.0044
▁포기하지	-11.0056
▁틈	-11.0056
화가나네	-11.0057
▁버림	-11.0061
▁아련	-11.0063
▁사주	-11.0063
▁못할까	-11.0064
▁쏟아	-11.0066
▁안갈	-11.0067
▁농구하	-11.0071
▁낫지	-11.0074
▁안나나	-11.0075
▁언제가	-11.0077
▁연애인	-11.0079
▁쪽	-11.008
▁추가	-11.008
▁오해하	-11.0083
▁찾은	-11.0085
▁가입	-11.0089
▁빌리	-11.0098
일지	-11.0102
▁받아들여지	-11.0103
했었는데	-11.0105
▁안가	-11.0105
▁흘렸	-11.0105
▁치우	-11.0107
기사	-11.0109
▁딸까	-11.0113
일뿐	-11.0119
▁나들이	-11.0119
▁것일까	-11.0121
▁남았어	-11.0121
▁무서	-11.0122
▁침	-11.0122
▁펴	-11.0123
▁썸타다	-11.0125
되겠죠	-11.0126
▁처음이라	-11.0136
▁만들죠	-11.014
▁내려놓기	-11.0146
▁전까지	-11.0146
▁될수	-11.0155
▁믿는	-11.0155
순수한	-11.0157
▁청춘이	-11.0165
▁싫어할까	-11.0171
▁혼나	-11.0175
▁소식에	-11.0176
▁잘라	-11.0176
▁그러지	-11.0177
▁이야기할	-11.0179
▁깨질	-11.018
▁버려야지	-11.0185
▁찾아야	-11.0193
▁비우	-11.0194
▁백업해	-11.0195
▁개인적	-11.0196
▁하려면	-11.0201
▁나타났	-11.0202
▁처럼	-11.0202
▁지워지	-11.0204
▁썸인가요	-11.021
▁생각하면서	-11.021
▁넘어	-11.0214
▁짰	-11.0214
▁놓는	-11.0217
픈	-11.0217
▁먹나	-11.0229
▁소심	-11.0237
▁알게되면	-11.0238
상일	-11.024
▁상처받는	-11.0241
▁가시	-11.0241
▁무너지	-11.0248
▁빈	-11.0249
▁대단해	-11.0255
▁0	-11.0255
▁돌아오기	-11.0255
▁나이들	-11.0256
▁내려놓	-11.0265
▁사람이었어	-11.0266
길래	-11.0268
▁갠톡	-11.027
▁떨면	-11.0273
▁팩	-11.0274
▁정확한	-11.028
▁그럴까요	-11.0283
▁착하	-11.0283
▁없고	-11.0283
▁철벽이	-11.0287
▁이대로	-11.0294
▁마음가는	-11.0295
▁할인	-11.0295
▁머	-11.0295
▁척하	-11.0297
차이	-11.0297
▁볶	-11.0299
▁웃기	-11.0308
하려면	-11.031
▁잼	-11.0312
고싶다	-11.0312
▁휴학	-11.0319
▁긍정적이	-11.0321
▁연락하기	-11.0331
▁빛	-11.0338
▁치열해	-11.0338
았나봐	-11.0348
잘	-11.035
▁짝사랑에서	-11.0351
▁헤어져야하는	-11.0357
▁불금이	-11.0363
▁변해가는	-11.0368
▁오나봐	-11.0368
▁아파서	-11.0371
▁보는데	-11.0378
▁자다	-11.0379
▁일과	-11.0382
보려구	-11.0397
있나봐	-11.0398
▁뜻밖	-11.04
▁나가지	-11.0401
▁적극적이	-11.0402
▁애인이	-11.0404
▁표현에	-11.0406
▁저음이	-11.0407
▁너무하네	-11.0409
▁맞는거	-11.041
▁욕하는	-11.041
▁비만	-11.0411
▁지내요	-11.0417
▁머리로	-11.0424
▁사귄지	-11.0447
▁데서	-11.0451
인줄	-11.0461
▁이상한가	-11.0463
▁다른데	-11.0471
▁받아줄	-11.0473
주려고	-11.0482
▁뒀	-11.0493
▁쪄	-11.0493
▁허락하	-11.0498
▁에이	-11.0502
▁왔	-11.0512
▁줘야	-11.0515
▁썼다	-11.0516
▁자라	-11.0519
▁할말	-11.052
▁넘었	-11.0522
▁타면	-11.0524
오지마	-11.0524
▁막막하	-11.0532
▁날이네	-11.0535
▁마무리하	-11.0544
▁다되가	-11.055
어야	-11.0555
라네	-11.0561
안됩니다	-11.0562
할까요	-11.0564
▁가슴은	-11.0568
되어있는	-11.0574
▁표현하	-11.0574
이다	-11.0576
~~~	-11.0579
▁사랑합니다	-11.0583
▁사랑했어	-11.0589
▁덤덤해	-11.059
▁만족해	-11.0599
▁몰아	-11.0601
다니기	-11.0603
▁너랑	-11.0624
▁후련해	-11.0627
페이	-11.064
고파	-11.064
▁미루	-11.0642
▁껴	-11.0645
한걸까	-11.0645
▁보내세요	-11.0646
▁병신	-11.0649
년하고	-11.0653
▁출	-11.0654
▁생각난다	-11.0663
▁동기	-11.0673
었지만	-11.0682
▁솔직해	-11.0688
▁기네	-11.0689
▁익숙함이	-11.0689
▁저기	-11.0692
▁작	-11.0692
해버렸네	-11.0705
▁숨기	-11.0708
▁태도에	-11.0709
소음	-11.0722
▁위험할	-11.0726
▁취향이	-11.0733
▁해줬으면	-11.0736
▁산다	-11.0742
▁잘되고	-11.0752
▁바람이	-11.0752
▁대리	-11.0758
▁욕을	-11.0759
▁무지	-11.0763
▁경험해	-11.0771
▁찾으	-11.0772
▁부여하	-11.0787
했다면	-11.0787
▁놀러갈	-11.0791
▁지금이	-11.0792
▁넘은	-11.0805
▁다르니	-11.0808
▁힘든거	-11.0815
▁소개해	-11.0818
▁집앞	-11.082
▁신고	-11.0834
▁죽었	-11.0837
▁역	-11.0844
▁기다리게	-11.0845
▁말만	-11.0848
쳐버리	-11.0849
▁할까요	-11.0858
▁틀어	-11.0861
▁흐르면	-11.0869
▁챙겨줘	-11.0872
▁자리에	-11.0882
었나요	-11.0887
▁웃어주	-11.0891
▁가보	-11.0892
▁그에게	-11.0893
▁시급	-11.0893
▁상관이	-11.0901
▁반복하	-11.0911
▁연락오	-11.0926
▁되는건	-11.0935
▁지속해	-11.095
▁나오겠	-11.0953
▁나름	-11.0956
시간에	-11.0965
▁거지같	-11.0982
졌는데	-11.0998
▁크겠	-11.1011
▁붙는	-11.1021
었나	-11.1024
▁불안한	-11.1048
▁풀어보	-11.1049
▁극	-11.1054
▁일인가봐	-11.106
랐나봐	-11.1064
▁급해	-11.1074
▁잊지말	-11.1075
▁자신다	-11.1076
▁쓸쓸하	-11.1082
▁없어졌	-11.1089
▁계절	-11.1098
▁이혼이	-11.1103
나보네	-11.1118
이에	-11.112
▁제자리걸음	-11.1133
▁낙이	-11.1142
▁바람난	-11.1146
▁의지하	-11.1152
▁청소하	-11.1157
다는데	-11.1164
▁그리운가	-11.1166
▁일반	-11.1175
네ᅮ	-11.1176
▁찾아왔	-11.1179
할텐데	-11.1184
▁멍청한	-11.1185
▁보기만	-11.119
▁갔는	-11.1191
기에	-11.1195
▁좋았겠	-11.1199
▁오락가락하	-11.1202
준비하는방법	-11.1214
▁맞이	-11.1219
▁접은	-11.1221
린대	-11.1223
받았다	-11.1228
신청	-11.1229
못	-11.1232
인데요	-11.1247
하시는	-11.1254
▁받는다는	-11.1256
▁원하	-11.1262
시도	-11.1265
들어서	-11.1269
▁서점에	-11.1272
뻔	-11.1282
시는	-11.1294
▁티나	-11.1295
학원	-11.1301
▁실망하	-11.131
▁장기	-11.131
▁결국은	-11.1321
▁질려하	-11.1321
민	-11.1331
▁병이	-11.1339
던데	-11.1348
▁달라졌	-11.1357
▁모임에	-11.1379
▁간단	-11.1386
때리는	-11.1389
▁하나봐	-11.1446
마트	-11.1452
▁탈이	-11.1453
▁잊으려	-11.1461
▁걸어보	-11.1464
▁만들까	-11.1465
▁끝이났	-11.147
▁해야하는	-11.1473
▁저만	-11.1486
▁기다리다	-11.1486
해줬	-11.1492
▁보였	-11.1501
▁극복해	-11.1504
▁보았	-11.1522
▁알았다	-11.1531
던게	-11.1551
▁찍었	-11.1565
▁현실이	-11.1571
타는	-11.1572
▁싶을	-11.1573
▁도전하	-11.1576
▁많나	-11.1584
▁요구하	-11.1596
물이	-11.1598
▁숙	-11.1604
해야할듯	-11.1611
인과	-11.1638
▁연애중	-11.1647
어볼까	-11.1652
▁게임하	-11.1662
▁돼지	-11.1664
▁어떻해	-11.1667
▁뜻하	-11.1669
▁아프겠	-11.1672
적이	-11.1674
▁안할	-11.169
▁헬스장	-11.1697
▁동물이	-11.17
▁즐겨	-11.1708
▁추억들	-11.1719
받아	-11.174
어진다	-11.1748
▁생각하세	-11.1752
▁감정들	-11.1755
스러울	-11.1755
▁안하면	-11.1775
▁겠지	-11.1777
난거	-11.1777
▁이별이에요	-11.1778
▁하니	-11.1788
야해	-11.1791
▁내년	-11.1798
▁이별할	-11.1806
장소에	-11.1843
돼야	-11.1858
▁속이는	-11.1861
▁오늘로	-11.1862
▁고민이네	-11.1865
▁어디가	-11.1873
▁할지	-11.1874
▁확인하	-11.1887
▁줬으면	-11.1889
달만에	-11.189
▁이겨	-11.1894
▁애인	-11.1901
여친이	-11.1903
▁길에	-11.1909
▁치맥	-11.1913
▁연애할	-11.1918
끈	-11.1919
▁사랑만	-11.192
하다고	-11.193
▁났	-11.1931
집에	-11.1942
직하	-11.1944
한가봅니다	-11.1945
당하기	-11.1986
▁우정이	-11.1989
주면	-11.1996
었지	-11.2005
▁그러다	-11.2013
▁시간이었을	-11.2018
생인데	-11.2021
▁수면	-11.2028
▁본받	-11.2029
▁본다	-11.204
어지고	-11.204
▁싸우기	-11.2047
지못한	-11.2052
거든	-11.2062
끔하	-11.2062
줬	-11.2085
버렸네	-11.2087
▁든다	-11.2093
▁입어보	-11.2093
화가	-11.2096
▁즐겨보	-11.2098
어이가	-11.2103
▁그럴수	-11.2125
▁첫이별	-11.2127
▁피곤하겠	-11.2132
온	-11.2154
되가는데	-11.2164
끝이네	-11.217
하고싶다	-11.217
▁울면	-11.218
달라는	-11.221
▁뭐였	-11.2218
해가	-11.2219
여자친구	-11.222
한게	-11.2224
▁두려운	-11.2235
▁안좋아	-11.2244
▁적을	-11.2246
▁검색해	-11.2267
▁했는	-11.2268
....	-11.2273
하지마	-11.2284
▁알바하면	-11.2291
▁살려	-11.2323
▁것일	-11.2327
버렸습니다	-11.2337
이라서	-11.2348
▁얻는	-11.2363
워야	-11.2378
올랐다	-11.2381
▁나라	-11.2381
▁응원해	-11.2385
▁축하	-11.2406
▁헤어지자네	-11.2409
▁잔소리해	-11.242
▁보름달	-11.2426
▁사랑하세요	-11.2431
▁고백이	-11.2437
▁괜찮은거	-11.2458
▁슬퍼하	-11.2463
▁힘들어하	-11.2484
다시	-11.2488
▁순수	-11.2488
▁말라	-11.2496
▁날까	-11.2505
▁일이었	-11.2524
해야하나	-11.2527
사람친구	-11.2529
▁아픈가	-11.2544
였는	-11.2546
오길	-11.2552
▁봐야	-11.2558
겟	-11.2568
▁절친	-11.2605
▁하루였	-11.2622
▁서운하겠	-11.2642
하겠어	-11.2659
▁임	-11.2693
▁그리	-11.2712
▁낙	-11.2719
▁벌어	-11.2721
그런	-11.2725
▁잔인	-11.2732
보낼	-11.274
▁바쁘네	-11.2743
▁접어두는	-11.275
▁도와주세	-11.275
▁되도	-11.276
났네	-11.276
▁났어	-11.2764
▁데이트하기	-11.2766
▁들어오	-11.2778
▁두근거리	-11.2788
늘	-11.279
▁쓸쓸	-11.2791
▁사랑이었으	-11.2797
▁할때	-11.2801
▁해보면	-11.2819
▁입는	-11.2833
▁안된	-11.2842
▁꿨는	-11.2844
보이	-11.2853
▁교회에	-11.289
진짜	-11.289
해하지	-11.2906
▁힘드시	-11.2906
▁잊어볼	-11.2912
▁안풀	-11.2913
▁가게	-11.2916
▁부족했	-11.2939
▁반응해	-11.2941
지금	-11.2946
어질	-11.295
다녀야	-11.2959
자리	-11.2964
▁봐달라	-11.2966
▁연애였	-11.2975
서도	-11.2984
▁이어지	-11.2993
진지	-11.2997
착	-11.3018
을까요	-11.304
▁인정해야	-11.3042
▁사랑해줘	-11.3048
▁알아줄	-11.3056
▁나날	-11.3057
붙	-11.3064
▁중독인가	-11.3065
것만	-11.3069
값이	-11.3071
▁붙잡으	-11.3071
▁지키	-11.3076
▁서점	-11.3087
입	-11.3091
▁부리	-11.3095
편이	-11.3099
▁공시생	-11.3111
그런건가	-11.3114
▁궁금하다	-11.3114
▁얼어	-11.3119
▁이야기는	-11.3126
▁비가오	-11.3139
▁익숙해	-11.3158
▁괴	-11.3161
▁박	-11.3165
▁로맨틱해	-11.3169
이였어	-11.3169
▁깎아	-11.317
방에	-11.3171
나가고	-11.3178
▁힘들어도	-11.3224
▁부여	-11.3224
▁물리	-11.3227
▁익숙해지는	-11.3241
▁성숙	-11.3258
많은	-11.3279
▁들려	-11.3295
▁많겠	-11.3295
▁가까워	-11.3304
▁이어나가	-11.3317
무슨	-11.3319
껴	-11.3323
▁날인	-11.3326
▁집앞에	-11.3329
달렸나봐	-11.3333
▁공허	-11.3343
눈	-11.3353
았	-11.3356
▁친해지	-11.3357
▁그랬을	-11.3358
▁왜이	-11.3372
다니고	-11.338
▁화냈	-11.3383
▁과에	-11.3383
것은	-11.3388
끝	-11.3388
떡	-11.3391
▁헤어지고나	-11.3392
▁미워해	-11.3405
▁걸렸	-11.3432
▁날이었	-11.3439
▁차이일	-11.3443
움이	-11.3443
요일	-11.345
▁전하	-11.3451
▁연락올	-11.3469
전이	-11.3474
▁남나	-11.3477
감정	-11.3488
안돼	-11.3507
▁브	-11.3509
기지	-11.3518
고민	-11.3523
▁각	-11.3528
▁준비하면	-11.3534
▁않다	-11.354
열	-11.3543
▁알아주	-11.3548
없네	-11.3553
▁보자	-11.3594
체가	-11.3596
▁재회하고	-11.3601
▁안정	-11.3607
있겠죠	-11.3612
▁대상	-11.3616
좋을까	-11.3628
키	-11.363
▁잊어버리는	-11.3635
▁내릴	-11.3635
따	-11.3639
업	-11.3652
▁만족하	-11.3655
▁괜찮아졌다	-11.3679
▁여행가고	-11.3682
같지	-11.3694
속	-11.3702
쉬	-11.3705
▁아무는	-11.3707
▁건강하	-11.3708
아파	-11.371
문제	-11.3723
▁어렵겠지	-11.3726
▁불금	-11.3735
했습니다	-11.3741
사정	-11.3747
인다	-11.3751
▁되었는	-11.3753
▁있었지	-11.3761
▁조심해야	-11.3762
▁사이라	-11.3764
워보	-11.3779
▁허무하	-11.3789
다보니	-11.3794
거겠지	-11.3796
▁힘내라	-11.38
이었을까	-11.3809
모두	-11.3809
냈	-11.3812
가고	-11.3816
▁말해야	-11.3819
▁덜하	-11.3819
표	-11.3819
▁선물해주	-11.3836
웃	-11.3836
된다	-11.3843
늦	-11.3858
백한다	-11.3858
▁믿었	-11.3868
큰	-11.387
▁반가	-11.3872
▁답인	-11.3873
▁보내보	-11.3885
딱	-11.3887
할까봐	-11.3911
나긴	-11.3913
한다는	-11.3914
▁그만둬	-11.3919
퍼	-11.392
미	-11.3925
▁애석	-11.3938
받은	-11.3939
혔어	-11.3941
▁귀엽다	-11.3942
간대	-11.3943
맨날	-11.3956
손잡	-11.3959
미리	-11.3962
6	-11.3967
세포	-11.3969
하우스	-11.3971
차단	-11.3974
▁없다가	-11.3976
소식을	-11.3977
갖	-11.3979
싸	-11.3996
문자	-11.4004
사랑	-11.4007
블	-11.4014
계	-11.4014
▁모르니	-11.4015
▁달려	-11.4017
견	-11.4018
경우	-11.402
▁추	-11.4021
쇼핑	-11.4022
후폭풍	-11.4022
▁싫지	-11.4026
여의	-11.4028
휴	-11.4031
기름	-11.4032
눈물	-11.4056
증이	-11.4057
쪽	-11.4065
생각나네	-11.4066
조절	-11.407
시키	-11.4075
있네	-11.4079
찌	-11.408
▁잊지마	-11.408
빼	-11.4084
촬영	-11.4084
▁오겠	-11.4085
키스	-11.4085
▁밤이	-11.4093
액	-11.4093
방향	-11.4095
▁끌	-11.4096
끌	-11.4102
노래방	-11.4104
안됐네	-11.4105
▁생겼을	-11.4107
빙	-11.4111
▁좋아졌	-11.4113
자격증	-11.4114
동생한테	-11.4115
철	-11.4115
됐	-11.4116
버려야지	-11.4123
▁씻어	-11.4125
패	-11.4125
▁면	-11.4126
쓸	-11.4126
빌려	-11.4127
끝났네	-11.4128
사귄	-11.4131
케이스	-11.4131
소리	-11.4131
▁옳	-11.4132
센	-11.4135
패턴	-11.4138
쏟아	-11.4138
미팅	-11.4143
읽씹	-11.4144
소모	-11.4146
학생	-11.415
틈	-11.4153
버림	-11.4161
자리에	-11.4162
▁구별해	-11.4163
뿌	-11.4163
향이	-11.4163
▁만들어보	-11.4165
육아	-11.4166
부려	-11.4166
▁비워보	-11.4167
▁그만하	-11.4168
▁돌보	-11.4168
땅	-11.417
짠	-11.417
은거	-11.4172
나쁘	-11.4179
탈출	-11.4181
축	-11.4183
솔	-11.4184
아플	-11.4186
단점	-11.4187
내세요	-11.4187
온대	-11.4188
▁변해가	-11.4189
▁예뻐해	-11.4191
잘라	-11.4192
초대	-11.4199
태	-11.4205
인사	-11.4207
어지지	-11.4208
낫네	-11.4209
▁싶어서	-11.421
▁매달	-11.4213
있다	-11.4214
▁정리해야	-11.4218
▁전화하고	-11.4226
나올	-11.4226
골	-11.4227
꿨	-11.4228
▁시간인가	-11.4235
충	-11.4236
주차	-11.4242
▁지우는	-11.4246
▁싫어하	-11.4246
반복	-11.4248
들었어	-11.4253
▁꼼꼼	-11.4256
코스	-11.4268
가운	-11.4269
▁결혼하는	-11.4272
먼	-11.4274
▁생각할수	-11.4275
▁잃	-11.4277
전과	-11.428
스타일이	-11.4282
▁행복했	-11.4284
▁보시	-11.4285
▁깨달	-11.4286
어린	-11.4288
▁느낀	-11.4293
만나자는	-11.4295
심리	-11.4297
▁착각하	-11.4302
▁화장하	-11.4302
하더라고요	-11.4305
집에서	-11.4307
▁싫어해	-11.4308
시켜야	-11.4312
너에게	-11.4314
▁재밌겠	-11.4323
어야죠	-11.4327
▁싫어하나	-11.433
가왔습니다	-11.4333
못하겠어	-11.4333
▁직업	-11.4344
▁현금	-11.4348
▁구멍	-11.4355
▁기억나	-11.4357
▁안맞	-11.4366
시작이	-11.4372
▁약해	-11.4373
▁말아보	-11.4374
적으	-11.4383
▁현실에	-11.4389
밀어	-11.4398
빠질	-11.4401
▁피나	-11.4411
▁약인	-11.4429
놓으	-11.4433
▁예	-11.4437
▁죽는	-11.4439
망이지	-11.444
약이	-11.4441
마셔	-11.4441
▁잊혀져	-11.4444
▁행복하지	-11.4451
폭풍	-11.4457
▁칭찬해	-11.4458
사람이다	-11.4465
을거	-11.4472
▁힘드신	-11.4484
해졌나봐	-11.4489
그치	-11.449
▁부족하	-11.4494
젠	-11.4503
▁표현할	-11.4503
▁복전하	-11.4504
자랑	-11.4506
루	-11.4512
▁기억하	-11.4512
▁밉	-11.4514
▁수학여행	-11.4516
라진	-11.4516
▁익숙	-11.4517
▁알아버렸	-11.4523
웃으	-11.4536
▁도망	-11.4538
람을	-11.454
▁추스	-11.4544
▁날에	-11.4547
▁늙어	-11.4548
▁싫은가	-11.4564
가입	-11.4567
▁받으	-11.4568
▁40	-11.4569
▁반가워	-11.457
▁전하면	-11.4578
신가요	-11.4587
보네	-11.4588
쓰는	-11.4588
이런	-11.4593
불가	-11.4593
났으면	-11.4596
따르	-11.4602
▁머릿	-11.4603
▁아쉬움	-11.4608
▁부질없	-11.4612
갔네	-11.4614
갔네요	-11.4616
십	-11.4617
맥	-11.4618
▁쟁취하	-11.462
▁성덕	-11.462
▁세월	-11.4622
▁질문	-11.4623
▁심심하다	-11.4632
쁜	-11.4635
통이	-11.4639
▁되시	-11.464
▁권	-11.4644
▁써야	-11.4648
▁어떠	-11.4649
▁한데	-11.4654
▁안오	-11.4659
▁스타	-11.466
▁흔적이	-11.4661
▁하셔야	-11.4666
환	-11.4666
▁두셨	-11.4668
근한	-11.4671
▁불효	-11.4671
▁하고싶은	-11.4674
로우니	-11.4677
▁겁이	-11.4678
▁어쩔수	-11.4679
우니	-11.4681
는것	-11.4683
▁늙	-11.4684
귄	-11.469
▁컸	-11.4691
▁살만	-11.4695
▁옥	-11.4696
킨	-11.4699
현	-11.47
▁태어났	-11.47
▁씌	-11.47
▁엮	-11.4701
▁자유로워	-11.4701
▁끓	-11.4701
쩌	-11.4701
습기	-11.4701
험해	-11.4701
첨	-11.4701
▁존	-11.4701
쑥	-11.4702
끗	-11.4703
앗	-11.4703
▁밝	-11.4703
탄	-11.4703
뚝	-11.4703
찢	-11.4703
▁컴	-11.4703
▁희생	-11.4703
텔	-11.4703
▁렌	-11.4703
▁깔	-11.4704
;	-11.4704
▁비행기	-11.4704
▁훌	-11.4704
웽	-11.4704
댓	-11.4704
P	-11.4704
▁롤	-11.4704
▁뺏	-11.4704
권이	-11.4704
균	-11.4704
칩	-11.4704
go	-11.4704
▁곱씹	-11.4704
▁관절염	-11.4704
▁금사빠	-11.4704
▁기획사	-11.4704
▁나쁨	-11.4704
▁동문서답	-11.4704
▁두근두근	-11.4704
▁마찬가지	-11.4704
▁서툴어	-11.4704
▁섣부르	-11.4704
▁소풍	-11.4704
▁스몰웨딩	-11.4704
▁얇	-11.4704
▁탄탄	-11.4704
▁피어싱	-11.4704
▁황당하	-11.4704
녔	-11.4704
뻤	-11.4704
웁	-11.4704
챘	-11.4704
템	-11.4704
%	-11.4704
D	-11.4704
O	-11.4704
X	-11.4704
c	-11.4704
▁CC	-11.4704
▁감정컨트롤	-11.4704
▁개당황	-11.4704
▁거리두기	-11.4704
▁괘씸하	-11.4704
▁교직이수	-11.4704
▁그리웠나	-11.4704
▁김치볶음밥	-11.4704
▁깐깐	-11.4704
▁깬	-11.4704
▁깼	-11.4704
▁꼴	-11.4704
▁낙엽	-11.4704
▁날카로워	-11.4704
▁논문	-11.4704
▁덮	-11.4704
▁돌싱	-11.4704
▁돌아섰	-11.4704
▁들이댔	-11.4704
▁들켰	-11.4704
▁띵	-11.4704
▁모태솔로	-11.4704
▁무뚝뚝해	-11.4704
▁묻	-11.4704
▁버텼	-11.4704
▁부딪혀	-11.4704
▁부딪히	-11.4704
▁블랙박스	-11.4704
▁빡빡	-11.4704
▁뽀뽀	-11.4704
▁상견례	-11.4704
▁샐러드	-11.4704
▁섞	-11.4704
▁숏컷	-11.4704
▁실험실	-11.4704
▁썰	-11.4704
▁안돌아오나	-11.4704
▁애매모호	-11.4704
▁예식장	-11.4704
▁옮	-11.4704
▁웨딩	-11.4704
▁웨딩드레스	-11.4704
▁의사표시	-11.4704
▁이불킥	-11.4704
▁익숨함	-11.4704
▁재택근무	-11.4704
▁전기장판	-11.4704
▁젊	-11.4704
▁조명빨	-11.4704
▁주저리주저리	-11.4704
▁중소기업	-11.4704
▁지겹	-11.4704
▁짬뽕	-11.4704
▁찾아갔습니다	-11.4704
▁춘곤증인가	-11.4704
▁취뽀	-11.4704
▁컨트롤	-11.4704
▁켠	-11.4704
▁클스마스	-11.4704
▁텁텁	-11.4704
▁튀	-11.4704
▁포근포근	-11.4704
▁폰겜	-11.4704
▁풍부	-11.4704
▁햇볕	-11.4704
▁헉	-11.4704
▁험담	-11.4704
▁헤헤	-11.4704
▁호박씨	-11.4704
▁황당해	-11.4704
▁훅	-11.4704
▁훈	-11.4704
걍	-11.4704
귤	-11.4704
깃	-11.4704
깅	-11.4704
꽂	-11.4704
꿩	-11.4704
넛	-11.4704
넥	-11.4704
넹	-11.4704
뇨	-11.4704
눴	-11.4704
닦	-11.4704
닭	-11.4704
덩	-11.4704
뒹	-11.4704
뚱	-11.4704
띰	-11.4704
랭	-11.4704
렉	-11.4704
룰	-11.4704
룸	-11.4704
룽	-11.4704
맹	-11.4704
뮤	-11.4704
밭	-11.4704
버렸나	-11.4704
벨	-11.4704
붓	-11.4704
뷔	-11.4704
빽	-11.4704
뽀송	-11.4704
뿅	-11.4704
삔	-11.4704
샘	-11.4704
섹	-11.4704
쇠	-11.4704
쑤	-11.4704
씰룩	-11.4704
왼	-11.4704
윙	-11.4704
젝	-11.4704
줍	-11.4704
쥬	-11.4704
즙	-11.4704
징글	-11.4704
짤	-11.4704
쨌	-11.4704
찡	-11.4704
찹	-11.4704
쳇	-11.4704
층	-11.4704
캄	-11.4704
캐	-11.4704
캔	-11.4704
컷	-11.4704
켓	-11.4704
콧	-11.4704
쿼	-11.4704
킹	-11.4704
탐	-11.4704
톤	-11.4704
퉁	-11.4704
튜	-11.4704
펭	-11.4704
픽	-11.4704
핀	-11.4704
혈	-11.4704
혐	-11.4704
휙	-11.4704
▁식욕폭발	-11.4704
▁정동진	-11.4704
▁건강검진	-11.4704
▁규	-11.4704
▁노처녀	-11.4704
▁반배정	-11.4704
▁북받쳐	-11.4704
▁불륜	-11.4704
▁사투리	-11.4704
▁쌍커풀	-11.4704
▁옛	-11.4704
▁죄송해	-11.4704
▁쥐꼬리	-11.4704
▁쪘	-11.4704
▁탄생	-11.4704
▁헌팅	-11.4704
▁화풀이	-11.4704
메이크업	-11.4704
▁가르쳐	-11.4704
▁댄디	-11.4704
▁으악	-11.4704
▁중간중간	-11.4704
▁행동일수도	-11.4704
릭	-11.4704
솜	-11.4704
흡	-11.4704
흰	-11.4704
▁거슬려	-11.4704
▁고구마	-11.4704
▁깜깜	-11.4704
▁어울릴	-11.4704
▁괴로웠을	-11.4704
▁댓글	-11.4704
▁스킨쉽	-11.4704
▁씨앗	-11.4704
▁황사	-11.4704
섯	-11.4704
▁조교하면	-11.4704
▁진부한	-11.4704
▁콕콕	-11.4704
▁근황	-11.4704
▁술주정	-11.4704
▁입소문	-11.4704
▁식도염	-11.4704
▁메시지	-11.4704
▁카풀	-11.4704
▁견딜	-11.4704
▁처량하	-11.4704
;;	-11.4704
▁섬유	-11.4704
▁존경	-11.4704
▁해결방안	-11.4704
▁넘어질뻔	-11.4704
▁태몽	-11.4704
▁감미로	-11.4704
▁겉모습	-11.4704
▁왔다갔다	-11.4704
▁허무해	-11.4704
하소연	-11.4704
▁쳐다봄	-11.4704
▁양면과	-11.4704
▁체육	-11.4704
▁헤어졋	-11.4704
▁가라앉혀	-11.4704
걸레질	-11.4704
▁드러내	-11.4704
▁유세부	-11.4704
▁서먹해	-11.4704
▁쪽팔	-11.4704
▁핸드	-11.4704
▁답변	-11.4704
▁렌즈	-11.4704
▁폭식	-11.4704
▁어장관리	-11.4704
▁동아리에	-11.4704
▁건물주	-11.4704
▁문콕	-11.4704
▁호텔	-11.4704
▁멀미	-11.4704
▁엊그	-11.4704
▁못믿겠	-11.4704
▁뻔뻔	-11.4704
▁문화센터	-11.4704
▁텅비	-11.4704
▁팔뚝	-11.4705
▁담담하	-11.4705
▁대부분	-11.4705
▁초조해	-11.4705
▁대리님	-11.4705
▁슈퍼문이	-11.4705
▁출국	-11.4705
▁쓸모	-11.4705
▁경제력	-11.4705
▁애써봐	-11.4705
▁스킨	-11.4705
▁수십번	-11.4705
▁영화보재	-11.4705
▁갱신	-11.4705
▁독학하	-11.4705
▁소홀	-11.4705
▁팔찌	-11.4705
▁주눅들	-11.4705
▁국경	-11.4705
▁부작용	-11.4705
▁선연하	-11.4705
▁애키우	-11.4705
▁퇴사	-11.4705
잊기싫은	-11.4705
▁대충	-11.4705
▁타입인	-11.4705
▁눌러	-11.4705
▁뜬금	-11.4705
▁복합적	-11.4705
▁폭식증	-11.4705
▁일반적이	-11.4705
▁놀이터에	-11.4705
▁광탈	-11.4705
순위	-11.4705
▁발등	-11.4705
▁언제부터인지	-11.4705
▁짜증난다	-11.4705
▁가운데	-11.4705
▁주저리	-11.4706
▁알뜰	-11.4706
▁기뻐해	-11.4706
▁시누	-11.4706
▁마음가짐	-11.4706
▁그만할래	-11.4706
▁헤어졌을때	-11.4706
▁머물	-11.4706
▁구분짓	-11.4706
▁처방	-11.4706
합시다	-11.4706
▁떠나갔네	-11.4706
▁무뎌져	-11.4706
▁한심하네	-11.4706
▁변덕스러운	-11.4706
▁감추는	-11.4706
▁지워버리	-11.4706
▁살려줘	-11.4706
▁야구장	-11.4706
▁후덜덜	-11.4706
투덜	-11.4706
▁매순간	-11.4706
▁잠식시키	-11.4706
▁변명거리	-11.4706
▁소액	-11.4706
▁꽃바구니	-11.4706
▁지옥이네	-11.4707
▁고시생	-11.4707
▁맞출까	-11.4707
▁단톡에	-11.4707
▁앞서서	-11.4707
▁다가온	-11.4707
▁인형뽑기	-11.4707
▁강해지	-11.4707
▁돌아온	-11.4707
▁후련해졌	-11.4707
▁대학교	-11.4707
▁친추	-11.4707
▁잊어버려	-11.4707
▁무색해지네	-11.4707
▁대충했	-11.4707
▁숨쉬	-11.4707
▁먹먹함	-11.4708
빌어먹을	-11.4708
▁끝냈습니다	-11.4708
▁데려달라고	-11.4708
▁비교돼	-11.4708
▁수상한데	-11.4708
▁명언	-11.4708
▁어째서	-11.4708
▁이별하신	-11.4708
국물	-11.4708
▁허전해	-11.4708
▁양다리	-11.4708
▁내려놔	-11.4708
▁짝사랑이었네	-11.4708
▁성급	-11.4708
잡히네	-11.4708
▁동성애	-11.4708
▁원망스럽	-11.4708
▁사치인	-11.4709
▁기름값	-11.4709
▁씁쓸하네	-11.4709
▁구걸하	-11.4709
▁삐져	-11.4709
▁잡담	-11.4709
▁되어갑니다	-11.4709
년동거	-11.4709
▁무뎌진	-11.4709
▁일어난	-11.4709
▁필요했을텐데	-11.4709
▁떠올라	-11.4709
▁끝인거겠죠	-11.4709
▁씌었나봐	-11.4709
▁직감	-11.4709
▁청강	-11.4709
▁이용당	-11.4709
▁영역	-11.4709
▁영원했으면	-11.471
쳐올	-11.471
▁신입	-11.471
달반	-11.471
▁비왔으면	-11.471
▁퇴근시간	-11.471
▁괴로운	-11.471
▁말았네	-11.471
▁자야하는데	-11.471
▁난처	-11.4711
▁괴롭혀	-11.4711
▁덤덤하게	-11.4711
▁시절	-11.4711
▁떠나갔어	-11.4711
▁촉이	-11.4711
▁탓인지	-11.4711
▁부담된다	-11.4711
▁잔인하네	-11.4711
▁바보짓	-11.4711
▁불러준	-11.4712
▁공허하네	-11.4712
▁외박	-11.4712
▁걸어다니	-11.4712
▁장난친	-11.4712
▁자제하는	-11.4712
▁못받	-11.4712
▁꼬셔	-11.4712
▁진담	-11.4712
▁취급	-11.4712
▁답답하신가	-11.4712
▁회복되	-11.4712
▁조심스	-11.4712
▁해낸	-11.4712
▁바래다	-11.4712
▁끊었으면	-11.4712
▁데려다줬는데	-11.4713
▁잊어야한다는	-11.4713
▁가혹	-11.4713
▁받아드리	-11.4713
▁예전처럼	-11.4713
▁내키는	-11.4713
▁산이네	-11.4713
▁봄방학	-11.4713
▁따위	-11.4714
▁불타오르	-11.4714
▁기계	-11.4714
▁여행지에서	-11.4714
▁학교생활	-11.4714
냈는데	-11.4714
▁긴장돼	-11.4714
▁예민해져	-11.4714
▁새롭	-11.4714
▁초초	-11.4715
될것같	-11.4715
▁무덤덤한데	-11.4715
▁신기해	-11.4715
▁잠들기	-11.4715
▁먹먹	-11.4715
▁작별	-11.4716
▁당사자만	-11.4716
▁남은걸까	-11.4716
▁컸으면	-11.4717
▁태어났으면	-11.4717
▁떠났습니다	-11.4717
▁서운한거	-11.4717
▁아휴	-11.4717
▁해결해줄	-11.4717
▁고백해도될까	-11.4717
▁솔직했으면	-11.4717
▁착각일까	-11.4717
▁휴우	-11.4717
▁비례	-11.4717
▁뽑아	-11.4717
주정도	-11.4718
▁달라질까	-11.4718
▁싫었는데	-11.4718
▁버려달라고	-11.4719
▁질거	-11.4719
▁절망적	-11.4719
기네	-11.4719
▁찔러	-11.4719
▁눈빛	-11.472
▁돌아다니	-11.472
킬	-11.472
▁주름	-11.472
▁끝냈는데	-11.4721
키니	-11.4721
▁쌓아	-11.4721
▁냉정할	-11.4721
▁지침	-11.4721
▁원두	-11.4722
▁정리되었길	-11.4722
▁냄새날	-11.4722
▁맞추려고	-11.4722
▁사랑이었	-11.4722
▁인간적	-11.4722
▁열받아서	-11.4723
▁한쪽	-11.4723
▁환상	-11.4723
▁오늘밤	-11.4723
▁맞는거겠죠	-11.4724
바구니	-11.4724
▁두분이	-11.4724
▁골인	-11.4724
▁봐야겠다	-11.4724
▁하품	-11.4724
▁돌아올거	-11.4724
▁놓쳤다	-11.4724
크림	-11.4725
▁비추	-11.4725
▁식단	-11.4725
▁괜찮았는데	-11.4725
▁아른거	-11.4726
▁잊고싶다	-11.4726
▁서글	-11.4726
▁그립지만	-11.4726
찬하	-11.4726
▁부담돼	-11.4727
미칠꺼	-11.4727
▁꼬시지	-11.4727
▁나날이었	-11.4727
▁가족같은	-11.4728
▁깨졌는데	-11.4728
▁사라질까	-11.4728
뜨문	-11.4728
▁않았을텐데	-11.4728
▁시켜줘	-11.4729
▁간지러	-11.4729
▁어디있을까	-11.4729
▁사갈까	-11.4729
▁차리래	-11.4729
▁임신	-11.4729
▁받았습니다	-11.4729
▁정량	-11.473
▁파혼했어	-11.4731
꾸룩	-11.4731
▁심란	-11.4731
▁울었어	-11.4731
▁싶었는데	-11.4732
릴까	-11.4732
▁부담스러운데	-11.4733
▁아플까	-11.4733
▁발렌타인데이인데	-11.4733
▁다음날	-11.4734
▁몸매	-11.4734
▁솔로야	-11.4734
▁결재	-11.4734
▁힘든거네	-11.4734
▁주체할	-11.4734
▁만나고왔어	-11.4734
▁지키기	-11.4734
▁돌아간	-11.4735
▁아이구	-11.4735
▁떨어진	-11.4735
▁회의감	-11.4735
▁영화보	-11.4735
▁또라이	-11.4735
개월간의	-11.4736
▁파마	-11.4736
▁사랑했다는	-11.4737
근무	-11.4737
▁불효자	-11.4737
▁보름	-11.4738
▁결혼생활	-11.4738
▁귀엽대	-11.4739
▁면세	-11.4739
▁안되는건가	-11.4739
▁밤인	-11.4739
▁털어버	-11.4739
▁쳐다보	-11.474
▁답일까	-11.474
던곳	-11.4741
▁소용	-11.4741
▁물건	-11.4741
▁쓰디	-11.4741
▁순간들이	-11.4741
▁잘해준	-11.4741
▁삼주	-11.4742
▁담아	-11.4742
▁시린	-11.4742
▁느끼나	-11.4742
출할	-11.4742
▁돌봐	-11.4742
▁레고	-11.4743
▁무서운건	-11.4744
▁설레발	-11.4744
▁결혼해야할까	-11.4746
▁방구	-11.4746
▁무난	-11.4748
▁과제	-11.4748
개월동안	-11.4749
▁먹여주나	-11.4749
▁온천	-11.4749
섭섭하	-11.475
▁해주기	-11.475
▁은퇴후	-11.475
▁올려봅니다	-11.475
▁만나지말	-11.475
▁취향인데	-11.4751
▁경과	-11.4751
▁화살	-11.4751
▁위안	-11.4752
▁순진	-11.4753
관에	-11.4753
겟죠	-11.4754
▁보조	-11.4754
▁낫겠	-11.4755
진행중	-11.4756
▁이번주	-11.4757
▁떨어졌	-11.4757
▁판단하지	-11.4758
▁죽음	-11.4758
▁사겼는데	-11.4759
▁될거	-11.4759
▁졸리	-11.4759
▁후련하다	-11.476
▁피해자	-11.476
웠으면	-11.476
▁사랑꾼	-11.4761
▁배부르	-11.4762
▁전남자친구	-11.4762
들어도	-11.4763
▁기부	-11.4764
▁노답이	-11.4765
▁생일이야	-11.4765
▁사이트	-11.4766
▁잘생긴	-11.4766
▁느끼게	-11.4766
액션	-11.4766
▁한순간에	-11.4767
▁오후	-11.4767
▁몇번	-11.4767
▁거래	-11.4767
▁쓰여	-11.4768
▁해봤어요	-11.4769
▁화났	-11.477
느껴진다	-11.4771
▁겁이나	-11.4771
▁힘드네ᅮ	-11.4772
리스	-11.4773
비꼬는	-11.4773
▁떠오르네	-11.4773
▁마음이란게	-11.4773
▁깨지고	-11.4773
▁헤어지신	-11.4774
▁들었는데	-11.4774
▁오르고	-11.4774
모닝	-11.4775
▁원하던	-11.4776
리마	-11.4776
▁같았나	-11.4778
올릴까	-11.4778
▁적응해	-11.478
▁생겼대	-11.478
▁남아있나	-11.4781
▁엿같	-11.4781
▁심심하다고	-11.4781
▁붙어	-11.4782
▁이것만	-11.4783
▁찾아오길	-11.4784
▁말로만	-11.4785
▁썼는데	-11.4786
▁이겨내기	-11.4787
▁쓰이네	-11.4788
▁자식	-11.4788
▁갈구	-11.4789
▁들어줄래	-11.4789
▁다녀오	-11.4789
▁후회돼	-11.4789
▁긴여	-11.4789
▁자유로워질까	-11.479
▁지지	-11.4792
▁심정	-11.4792
▁사줄까	-11.4793
생에	-11.4795
▁여기까지였나	-11.4795
▁헤어졌으니까	-11.4796
생긴	-11.4796
▁괜찮아지길	-11.4797
▁부질없는	-11.4797
▁가출	-11.4798
▁같을까	-11.4799
▁서운한	-11.4799
▁확	-11.48
▁메일	-11.48
▁무뎌졌	-11.4801
주룩	-11.4801
▁모질	-11.4801
▁찾아볼까	-11.4802
▁정치	-11.4802
쓰담	-11.4802
▁전화하기	-11.4804
▁먹었나봐	-11.4804
▁차임	-11.4804
▁먹방	-11.4804
▁나오지	-11.4805
▁무사	-11.4805
▁억	-11.4805
▁다했다	-11.4806
▁완벽해지	-11.4808
▁털어	-11.4808
▁사실일	-11.4809
▁마디	-11.481
▁꾸는데	-11.4811
▁약이라는	-11.4812
놓은	-11.4812
▁위대한	-11.4814
▁아물어	-11.4815
▁휘둘리	-11.4816
▁사랑이였	-11.4817
보내버렸네	-11.4817
▁구상	-11.4818
▁모자	-11.4818
▁모른	-11.4818
▁안열	-11.482
▁그런거지	-11.482
▁질린다	-11.482
▁멋있어	-11.482
할꺼야	-11.482
직한	-11.4821
▁장수	-11.4821
▁어쩌죠	-11.4823
세우	-11.4825
▁아프니까	-11.4825
▁불만만	-11.4825
▁신청해	-11.4826
▁상메에	-11.4831
개월이네	-11.4831
▁나올까	-11.4832
▁털어내	-11.4835
▁속지말	-11.4835
▁못잊을	-11.4836
▁솔로인	-11.4836
▁해주	-11.4836
▁무색하게	-11.4836
▁해야겠어	-11.4838
▁정상인가	-11.4838
▁그런건지	-11.4839
▁이별이야기	-11.484
▁상처들	-11.484
▁미안함	-11.484
▁흘렀는데	-11.4841
▁초기	-11.4842
▁답장해	-11.4844
▁오늘부	-11.4846
▁버리기	-11.4847
▁짝사랑중	-11.4847
▁흐음	-11.4849
▁정리해야지	-11.4849
▁말들	-11.4849
야할지	-11.4851
▁회의	-11.4852
▁다시만나	-11.4852
▁나오는데	-11.4854
▁안되겠지만	-11.4855
▁없었나봐	-11.4858
▁그렇겠지	-11.4858
스럽다	-11.4859
▁지내는데	-11.4859
잊혀지려	-11.4861
▁기차	-11.4861
▁화나고	-11.4861
▁내려놓으면	-11.4862
▁그대로인	-11.4862
▁바본	-11.4863
▁생활비	-11.4864
▁그놈	-11.4864
착이	-11.4865
▁오긴	-11.4866
▁나이먹	-11.4866
참아왔	-11.4867
▁놀려	-11.4868
▁일주일째	-11.4869
▁그분과	-11.4869
▁못하나봐	-11.4874
▁노래들	-11.4877
▁설레게하	-11.4878
▁확실해졌	-11.4878
▁보이는데	-11.488
▁감당이	-11.4881
▁수순	-11.4882
▁젖어	-11.4882
▁제사	-11.4883
▁끝이보	-11.4883
▁매달리	-11.4884
실수했다	-11.4887
▁꺼질	-11.4887
▁다니면	-11.4887
▁동거중	-11.4893
▁있다는데	-11.4896
않으려고	-11.4896
▁밉다	-11.4897
데이인데	-11.4898
▁도자기	-11.49
▁수수한	-11.4903
▁이별할때	-11.4906
▁무너졌	-11.4907
▁초라해	-11.4907
▁티비	-11.4912
일째인데	-11.4912
▁질리게	-11.4915
▁시켰	-11.4921
▁잘지내고있	-11.4921
▁자금	-11.4923
싶어요	-11.4924
하던가요	-11.4924
▁집사	-11.4925
▁살릴	-11.4929
▁찰랑	-11.493
아리	-11.4931
▁연애하다	-11.4931
지망	-11.4933
▁지웠	-11.4935
▁힘드나	-11.4938
▁밑	-11.494
▁소통	-11.4941
▁냉정해	-11.4942
▁온다면	-11.4943
▁떨어지지	-11.4947
▁부모	-11.4948
▁툭	-11.4949
▁썩	-11.4949
쓰레기통	-11.4954
바싹	-11.4954
▁찾아갔네	-11.4955
추세	-11.4957
▁잊어가	-11.4958
▁없었어	-11.4958
▁끝이라고	-11.4958
▁뭘해도	-11.4958
▁필요할까	-11.4958
▁못잊는	-11.4961
▁푸석	-11.4963
된다는	-11.4963
▁꼈어	-11.4963
▁사랑스럽	-11.4964
▁불쌍	-11.4964
▁치킨	-11.4965
▁잘지내고	-11.4965
▁한마디	-11.4967
▁감수	-11.4967
보내주려	-11.4968
▁대쉬해	-11.4969
▁부끄러	-11.4969
▁모양	-11.4969
▁입맛없	-11.497
▁구해야	-11.497
▁근질	-11.4971
▁주절	-11.4971
▁맘대로	-11.4971
▁안내는	-11.4972
▁콕	-11.4972
▁단어	-11.4972
▁잊혀져가	-11.4973
▁말했으면	-11.4973
나온	-11.4975
▁받았나	-11.4975
▁갖는	-11.4976
고쳤	-11.4976
라구	-11.4978
▁홀	-11.498
▁것이겠죠	-11.4981
▁운명인	-11.4981
▁의미일까요	-11.4983
▁예를	-11.4984
▁봤으면	-11.4984
▁감기약	-11.4985
▁잊었다	-11.4986
▁취직이	-11.4987
▁장난치	-11.4987
▁당했습니다	-11.4987
▁끈	-11.4993
▁기운내	-11.4994
▁다가가기	-11.4995
▁멀어진다는	-11.4996
▁연기	-11.5003
▁필요없어	-11.5004
▁외로울	-11.5005
법이	-11.5005
▁여친과	-11.5005
▁너덜너덜해	-11.5007
는건가	-11.5009
▁이루어질	-11.501
기면	-11.5012
▁이후	-11.5014
▁술기운	-11.5015
어보	-11.5016
▁답답하	-11.5017
▁힘들줄	-11.5018
▁놀라	-11.5018
▁차라	-11.5022
잊어보려고	-11.5023
▁한달인데	-11.5026
▁전화할	-11.503
▁잘못이지	-11.5032
▁쟁	-11.5035
▁양심	-11.504
▁낀	-11.5043
▁외로워서	-11.5045
▁술이야	-11.5046
▁공감되	-11.5047
▁화내는	-11.5052
▁본인만	-11.5055
▁사줄	-11.5069
려야	-11.507
▁끝나네	-11.5072
▁구질	-11.5075
▁직업이	-11.5077
▁듬	-11.5078
▁오니	-11.5083
▁비싸다	-11.5086
▁잘해줘서	-11.5087
기능	-11.509
▁끈이었	-11.509
▁훈훈하	-11.5093
▁책보	-11.5094
챙겼	-11.5094
▁누구니	-11.5095
자가	-11.5096
▁가까워지	-11.5098
유발	-11.5098
▁되돌리	-11.5098
▁감정적	-11.5099
▁남이죠	-11.51
▁이상하지	-11.5101
▁프	-11.5104
▁엉망	-11.5106
를까	-11.5108
환해	-11.5115
▁사람이었	-11.5117
▁높이	-11.5128
▁보드	-11.513
▁생각지	-11.513
마시러	-11.5133
▁불안	-11.5133
을거야	-11.5138
민가	-11.5142
▁한사람	-11.5143
▁오나	-11.5151
▁않겠지	-11.5152
▁기억할	-11.5152
▁사랑받	-11.5154
내줄게	-11.5156
▁사랑이란	-11.5157
▁카톡하는	-11.5159
▁받아들여요	-11.5161
▁상처받았	-11.5163
▁경우에	-11.5166
▁알지만	-11.5169
학번	-11.517
▁짱나	-11.5176
긴이별	-11.5177
▁좋으면서	-11.5177
타이	-11.5182
▁그후	-11.5187
▁아프죠	-11.5189
▁기분이야	-11.5192
▁다정	-11.5193
▁없음	-11.52
▁덜해	-11.5201
▁손이	-11.5203
▁잊혀지네	-11.5206
▁달래	-11.5212
▁지쳐가네	-11.5219
▁축	-11.5222
나만	-11.5238
▁소극적	-11.5239
▁붙잡으려	-11.524
▁사라지	-11.5242
됐으면	-11.5247
▁관리해	-11.5248
걸리겠어	-11.5249
▁강요하는	-11.5257
정말끝이	-11.5258
▁둬	-11.5264
▁날이야	-11.5264
나쁜건지	-11.5269
▁잘생겼	-11.527
▁아파할	-11.5276
▁가볼까	-11.5282
▁카톡하지	-11.5283
▁힘들대	-11.5289
▁구별	-11.5294
▁영화보자	-11.5299
▁친절하	-11.5303
▁대신	-11.5305
▁헌신하	-11.5306
▁가는거	-11.5306
▁존중하	-11.5309
▁이별인가봐	-11.5309
▁음악이	-11.5311
▁다음주	-11.5314
▁패	-11.5315
해본적	-11.5316
▁자유시간	-11.5319
▁좋아하는건가	-11.5322
수라	-11.5327
▁빙	-11.5333
것에	-11.5333
▁주차	-11.5342
잡으려고	-11.5347
혼전	-11.5353
▁번복	-11.5353
▁처음만	-11.5355
▁유학간	-11.5359
▁후련할거	-11.5359
▁속지	-11.5361
▁인정해	-11.5361
▁사랑했는데	-11.5362
▁촬영	-11.5364
▁방향	-11.5364
▁쓰다	-11.5368
▁줬다	-11.537
말이라	-11.5374
▁모르겠지	-11.5376
하려나	-11.538
▁키스	-11.538
▁궁금한게있	-11.5384
한거니	-11.5385
▁어떤거	-11.5387
샤워해	-11.5388
▁커지기	-11.5397
▁이해못	-11.5398
▁잘라야	-11.54
곳에	-11.5401
▁지금까지	-11.5409
▁노력한	-11.5409
있는데	-11.541
▁붙잡을	-11.541
긴했는데	-11.5412
▁아쉽겠	-11.5416
▁모르나봐	-11.5419
▁낸다	-11.5421
▁못자고	-11.5432
▁놔주	-11.5433
▁못잊는거	-11.5437
▁뿌리	-11.5445
▁그사람은	-11.5446
▁못하네	-11.546
▁엄청나	-11.5462
만이라	-11.5464
▁연애끝	-11.547
▁불렀	-11.5474
▁미쳤	-11.5474
▁애야	-11.5481
반짝	-11.5484
▁세포	-11.5485
▁해외여행가	-11.5488
▁깊이	-11.5488
▁내장	-11.5489
▁아끼는	-11.5495
▁응원해주면	-11.5496
▁때문일까	-11.5497
▁만나러가	-11.55
▁사귀면서	-11.5505
▁죽고싶	-11.5517
▁정리해야할	-11.5518
▁못내는	-11.5518
▁하는건가	-11.5521
이었는데	-11.5521
▁정리하려	-11.5522
트인	-11.5525
▁전여친이	-11.5532
되기	-11.5533
▁풀어주	-11.5534
▁막혔	-11.5536
▁짜증나게	-11.5537
친구에게	-11.5539
▁생각했	-11.5542
▁타로	-11.5543
했을	-11.5544
▁제길	-11.5548
어진	-11.5551
▁기억들	-11.556
▁그만둬야	-11.5564
▁후련	-11.5566
▁없었겠	-11.5568
상해	-11.5583
내야하나	-11.5589
▁선물할	-11.5592
▁반복될까	-11.5602
▁근	-11.5621
표인	-11.5624
▁같기도	-11.5628
▁투자하는	-11.5629
▁왕따인	-11.563
▁공부한	-11.5632
아온	-11.5635
▁롱	-11.567
▁비참하	-11.567
▁타이밍인	-11.567
▁싫어할	-11.5679
▁비워	-11.5679
▁못잊겠	-11.5681
겼다	-11.5698
▁일이네	-11.5703
▁짝사랑일	-11.5706
▁침대에	-11.5707
▁여부	-11.5715
느리	-11.5715
▁투	-11.5717
▁키워보	-11.572
만두	-11.5724
▁놈이	-11.5727
▁쌈	-11.5732
▁추우니	-11.5736
▁생각나서	-11.5748
구만	-11.5751
▁말려	-11.5758
조언부탁	-11.5759
▁내맘같	-11.5766
▁할래	-11.5779
▁듣고싶	-11.5786
▁올라오	-11.5797
▁단순하	-11.58
▁챙겨줄	-11.5801
▁잘된	-11.5806
여친	-11.5815
었을까	-11.5815
▁죄인	-11.5819
▁새장	-11.5829
▁폭	-11.5838
▁어색할까	-11.5844
▁줄이고	-11.5851
▁걷는	-11.5857
▁존중하는	-11.5858
▁지쳐가	-11.5859
▁첫사랑인	-11.5861
고프다	-11.5875
사고	-11.5879
▁가라	-11.588
▁다녀온	-11.588
▁이별했어	-11.5885
▁만큼만	-11.5901
나네	-11.5929
▁심각	-11.5938
▁바보라	-11.5941
▁연애상담	-11.5943
동을	-11.5944
제로	-11.5944
▁까먹지	-11.5945
▁진지한	-11.5964
▁적절	-11.5965
다는것	-11.5967
▁이별하려	-11.5993
할수	-11.6
▁라는	-11.6004
▁지우려	-11.6004
▁잡기	-11.6014
▁멀어	-11.6017
돋을	-11.6028
적을	-11.6035
사이	-11.6036
▁안돼나	-11.6045
분들께	-11.6047
▁나빠졌	-11.605
▁보수적이	-11.6058
학원에	-11.6058
▁꽝이	-11.6064
▁햇	-11.6065
▁모르지	-11.6066
했잖아	-11.6072
▁S	-11.6073
▁최악이	-11.6073
▁이별후에	-11.6079
▁이별했	-11.6081
지우는게	-11.6091
▁모의	-11.6104
보내	-11.6115
▁하는걸	-11.6115
채나	-11.6122
▁직장인이	-11.6124
▁복잡하네	-11.6136
▁척도	-11.6148
▁놓쳤	-11.6151
▁안한	-11.6151
▁아니였	-11.6183
▁클럽가	-11.6183
▁성숙해	-11.6184
▁씻기	-11.6189
싫어	-11.6195
▁구경	-11.6201
로라	-11.6207
▁프사가	-11.622
상화	-11.622
▁있으신	-11.6222
▁대상이	-11.6226
▁익숙해졌	-11.6234
▁울적하	-11.6237
▁했더	-11.6238
같은데	-11.6241
앞이	-11.6242
▁언	-11.6247
르는	-11.6251
▁공원	-11.6252
▁전부였	-11.6253
하셨나	-11.6276
▁그런거	-11.6279
▁잊어야해	-11.6282
▁착해	-11.629
▁포기하려	-11.6298
▁생겼는	-11.6302
많이	-11.6309
▁존재하	-11.6324
▁정으로	-11.6326
▁잘되	-11.6343
별의	-11.6343
▁신기	-11.6351
갈래	-11.6353
▁할일	-11.6359
▁떠나보	-11.6361
▁여자야	-11.6371
▁기복	-11.6376
▁먼저하는	-11.6381
▁왕	-11.6383
▁어떤건	-11.6388
▁구하는	-11.6398
▁만들어주	-11.6402
점이	-11.6408
▁못했는	-11.6409
▁헤어진다	-11.6411
▁쿨하	-11.6411
▁차렸을	-11.6413
▁리액션	-11.6414
▁그나	-11.6416
▁잠들	-11.6418
았다	-11.6418
감각	-11.6419
건너	-11.6423
▁받아들여야할	-11.6437
▁이별이었	-11.6438
▁찍은	-11.6446
▁안해야	-11.6449
▁기억안	-11.6454
▁놓아줬	-11.6455
▁단계라	-11.6457
▁냉정하	-11.6466
는거같아	-11.6467
▁거는	-11.6478
▁노력해야	-11.648
▁했었	-11.6482
▁높이는	-11.6488
▁위로받	-11.6489
▁것에	-11.6489
이너	-11.6496
▁비교	-11.6502
▁괴로	-11.651
▁식상	-11.6531
▁지독	-11.6548
▁이쁘	-11.655
▁살았다	-11.6574
▁가수	-11.6582
▁은퇴해야	-11.6597
▁취업하	-11.6622
▁지키는	-11.6639
▁단톡방에	-11.664
▁깨졌	-11.6647
▁과식했	-11.6648
▁운명같	-11.6655
▁간에	-11.6656
▁행동을	-11.6669
▁궁	-11.6671
녀와	-11.6671
▁보고싶어요	-11.6684
물이라	-11.6685
▁했을까	-11.6685
▁부담스러워해	-11.67
서점에	-11.6725
있는건지	-11.6726
▁매달렸	-11.6726
갈까	-11.6739
▁다가갈	-11.6756
월해	-11.6767
▁잘했다	-11.6768
가도	-11.6772
▁놓으려	-11.6774
아무일	-11.6777
▁다른반	-11.6779
▁생각났	-11.6782
▁들었	-11.6793
올거	-11.6796
▁중이	-11.6807
생각	-11.6816
▁내릴까	-11.6832
▁참아야겠	-11.6836
들겠지	-11.6837
▁잊어야겠	-11.6842
꺼야	-11.6844
우선이	-11.6859
▁나을가	-11.6873
▁저장할	-11.6888
하자는	-11.6888
▁좋아보여	-11.6952
ᄒ	-11.6962
뭐냐	-11.6963
나가	-11.6972
▁사랑인	-11.6979
겨울	-11.6989
▁짝사랑하	-11.6991
▁망설여지	-11.7
▁조심해야겠	-11.7001
▁니	-11.701
▁울었	-11.7022
려달라고	-11.7028
생각입니다	-11.703
▁투자라	-11.7048
인이	-11.705
돌이	-11.706
▁습관이라	-11.7065
▁잘자	-11.7067
▁따듯해	-11.7072
▁나오는	-11.7076
비해	-11.7125
하기로했	-11.7126
▁불타	-11.7128
▁답답한가	-11.7134
▁그리워지	-11.7134
▁풀렸다	-11.7141
져야	-11.7159
▁마셨어	-11.7186
▁부르는	-11.7197
▁밤이네	-11.7201
긴다	-11.7211
▁살인	-11.7213
▁떠나요	-11.7214
▁떨리네	-11.722
▁생각해봐	-11.7223
안나	-11.7224
▁못하니	-11.7237
▁잠수이별인	-11.7237
기간	-11.7238
▁봐봐	-11.7241
▁지나갔네	-11.7248
는걸까	-11.7253
▁진정하	-11.7255
왔으면	-11.7266
다네	-11.7277
▁실망했	-11.7296
틀	-11.73
▁반이라	-11.7304
거였네	-11.7329
▁놓았	-11.7333
▁절친이	-11.7349
해드리	-11.7354
▁안해서	-11.7356
▁삼가	-11.7359
로워	-11.7364
▁체	-11.7397
▁붙였	-11.7402
▁하고싶어	-11.7409
▁맞춰보	-11.741
▁다쳤	-11.7415
▁아니었나봐	-11.7434
▁별이	-11.7437
▁쌓이	-11.744
▁살랑	-11.7453
▁많을까	-11.7465
▁감성적	-11.7488
▁편식	-11.7492
▁남이	-11.7493
▁필요해보	-11.7495
고있었는데	-11.7496
가네	-11.7504
▁철벽치	-11.7511
려지	-11.752
먹었다	-11.7521
다는걸	-11.7527
달래	-11.7532
쓰기	-11.7535
▁전해지	-11.7569
▁백	-11.7571
같아요	-11.7577
▁그런건	-11.7583
▁편안	-11.7586
해주면	-11.7609
▁거리	-11.7609
▁바라보	-11.7617
▁보름달이	-11.7636
것인가	-11.7639
와주	-11.7646
▁잔소리	-11.7651
▁타나봐	-11.7659
▁오래걸	-11.7682
▁불행해	-11.7697
▁상처받아	-11.7708
▁밥도	-11.7742
으시는	-11.7785
▁반이	-11.7815
가기	-11.7822
▁못나	-11.7831
▁고백해보	-11.785
▁공시생이	-11.7853
▁꿈이었	-11.7855
▁차별받	-11.7868
라이	-11.7876
▁욕먹	-11.7887
▁생겼다는	-11.7917
▁아쉽지	-11.792
▁마주보	-11.7924
사람과	-11.7959
▁술마시면	-11.7961
▁두려운가	-11.7967
▁표현해주	-11.7986
답이야	-11.7988
무리	-11.8034
▁힘들만	-11.8048
▁반하	-11.805
▁꿈이라	-11.805
아볼	-11.8069
▁지내자	-11.8075
정적	-11.8076
▁싱숭생숭하	-11.8078
▁군대가	-11.8104
뻔했	-11.8109
▁건네	-11.811
▁쉽지않	-11.8113
한건지	-11.8121
올라	-11.8121
▁가망	-11.8134
▁잠겼	-11.8136
▁잘못했다	-11.8143
▁몰랐네	-11.8172
▁돌아왔	-11.8177
하겠	-11.8189
▁보자는	-11.8199
▁관심있는	-11.8202
이러니	-11.8221
▁터졌	-11.8228
▁없을거	-11.8228
끔	-11.8232
잘못으로	-11.8241
시간만큼	-11.8255
▁끝내려	-11.8258
▁추억을	-11.826
▁변할까	-11.8302
고의	-11.8303
▁남긴	-11.8336
▁거절인	-11.8338
▁한편	-11.8356
거지같이	-11.8376
인가보다	-11.838
▁오래타	-11.8382
졌나봐	-11.84
려오네	-11.8406
▁준다	-11.8414
▁지켜야	-11.8417
▁살거	-11.842
▁해가	-11.8423
▁남을까	-11.8426
▁모임이	-11.8442
오려나	-11.8474
지려고	-11.8486
부지	-11.849
보이는	-11.8518
▁기한	-11.8539
초반	-11.8541
▁가득한가	-11.8558
▁운동하자	-11.8567
▁차단한	-11.8578
▁헤어지겠	-11.8579
틀어	-11.8583
▁여자에	-11.8593
할지	-11.8603
▁만들었	-11.8619
▁것인가	-11.8623
닫고	-11.8647
기니	-11.8692
▁ᄏ	-11.8694
▁끝났다	-11.87
▁터지겠	-11.8707
이었나	-11.8713
아지길	-11.8725
일이야	-11.874
로운	-11.8758
식이	-11.8773
▁얼마전	-11.8774
드시	-11.8777
▁싸움이	-11.8791
하겠지	-11.8806
남자친구	-11.8813
▁비슷한가	-11.8825
선의	-11.8833
랑하는	-11.8845
▁차였	-11.8862
했더	-11.8863
▁신청했	-11.8863
싶어지네	-11.8872
▁준비해야	-11.8878
야하나봐	-11.8894
▁함께하	-11.8932
해줄까	-11.8952
▁되버렸	-11.896
▁헤어진건	-11.896
자사람친구	-11.897
성이	-11.8976
▁샤워하	-11.8979
▁배려하	-11.898
관계인가	-11.8985
▁가네	-11.9006
만난	-11.9015
▁만날수	-11.9064
▁아침이에	-11.9066
▁좋아하면서	-11.9091
▁좋아했	-11.9096
▁못하는거	-11.9116
그여자	-11.9117
별이에요	-11.9123
맘이	-11.9134
▁결정했	-11.9156
당했	-11.9158
거래	-11.9161
▁끝나가	-11.9171
▁생각했을	-11.9174
들지만	-11.9177
들이지	-11.9191
▁전화해	-11.9199
▁두려	-11.9212
▁아닌것	-11.9284
만하는	-11.9303
됐습니다	-11.9307
받아서	-11.9317
거같은데	-11.9319
▁이사가	-11.9343
히는	-11.9348
▁운	-11.9359
▁이마	-11.9362
정말	-11.9363
여행이	-11.9366
▁가득한	-11.9372
▁순간에	-11.9372
▁몇시간	-11.9381
▁무덤덤	-11.9391
사람들	-11.9398
같죠	-11.9398
▁뒤숭숭	-11.9398
▁일일	-11.941
보고싶어	-11.9423
왔을	-11.9428
▁힘들일이	-11.9431
어버리	-11.9441
▁갔다왔	-11.9445
▁의외인	-11.9449
▁들리네	-11.9458
▁같았	-11.9478
안된다	-11.949
▁연애중인	-11.9496
▁원망하	-11.9499
▁내편	-11.9521
것이	-11.9527
▁까먹었	-11.9548
▁잘못했다는	-11.9568
▁알겠	-11.9571
▁중요하겠지	-11.9576
었다는	-11.9578
▁결혼식이	-11.9587
어주지	-11.9616
▁힘겨	-11.9617
데도	-11.9618
▁비가오니	-11.9629
중한	-11.9687
▁답답했	-11.9696
▁이해해줄	-11.9712
▁풀었	-11.9718
▁철벽치는	-11.9753
▁선택했	-11.9785
▁내길	-11.9789
▁혼자라는	-11.9791
▁왜이러	-11.9791
▁움	-11.9795
▁케	-11.9833
▁질려	-11.985
▁흐르네	-11.9874
어졌어	-11.9875
드는	-11.9894
▁생각한다	-11.9895
줄래	-11.9902
▁덤덤	-11.9912
▁결혼이	-11.9925
▁사랑하는건	-11.9961
▁그러려	-11.9975
앞	-11.9988
는건지	-12.0007
담하	-12.0019
였네	-12.0056
▁평가해	-12.0057
▁들어주	-12.0058
▁극복한	-12.0061
▁문제네	-12.0066
▁돌리고	-12.0076
▁힘든건	-12.0094
▁겨울이	-12.0094
▁한달됐	-12.0098
중에	-12.0103
드는데	-12.0104
은것같	-12.0108
▁다른일	-12.0141
녀한테	-12.0142
한듯	-12.016
▁않음	-12.0168
째인데	-12.0169
▁중요한가	-12.0178
▁응원해주	-12.0188
▁휴지	-12.0193
졌다	-12.0196
▁제자리걸음이	-12.0206
▁미치네	-12.021
않아	-12.0217
▁멍청하	-12.0234
었음	-12.0235
▁밥먹	-12.0238
▁나약하	-12.0244
▁바람난거	-12.0246
▁불타올	-12.0247
▁정상이	-12.0247
▁환승이	-12.0259
▁떠나야겠	-12.0272
▁만납	-12.0279
르겠지만	-12.0279
▁여행가는	-12.0291
자신	-12.0301
▁못하겠네	-12.0302
답이	-12.0303
▁생각나기	-12.0319
▁집착인	-12.0334
하라	-12.0338
▁올거	-12.0342
▁불면증인가	-12.0351
▁답답하겠	-12.0409
나와	-12.0409
왜	-12.0418
▁돌아가면	-12.0419
▁차단했	-12.0424
▁피곤할	-12.0437
먹으면	-12.045
▁취직하고	-12.0451
끌리	-12.0455
네ᄒ	-12.046
▁낫네	-12.0462
▁인정해야할	-12.0463
▁망설여지는	-12.0463
▁잊어주	-12.0471
▁보내왔	-12.0477
▁못잊	-12.0492
자는	-12.0495
▁산책하	-12.0496
▁오래가	-12.0498
▁경험해보	-12.0506
가져	-12.0521
▁깨지	-12.0571
▁끝내야	-12.0591
오는	-12.0615
▁사내에	-12.0641
간에	-12.0658
▁든	-12.0664
▁도서관에	-12.0677
잡	-12.0679
▁지속	-12.0692
▁싶으	-12.07
▁긴장하	-12.0711
▁내려놓는	-12.0725
▁냉정	-12.0751
오는데	-12.0754
▁맞은	-12.0761
연락	-12.0768
셨을	-12.0779
▁하자	-12.0795
▁되었다	-12.08
인거죠	-12.0801
▁연습하	-12.0816
못된	-12.0826
▁힘들기	-12.0843
▁걸지	-12.085
▁내꺼	-12.0853
낸	-12.0857
▁동거해도	-12.0862
▁스킨십하고	-12.089
▁연락하고싶	-12.0893
▁단톡방	-12.0926
▁시간이었겠	-12.093
했겠	-12.0951
상대로	-12.0953
▁예뻐졌	-12.0957
▁싫어졌	-12.0969
▁보내려	-12.0973
주의	-12.0982
중인	-12.1007
▁자만	-12.1007
▁맞는건	-12.1009
▁일년같	-12.1016
다를	-12.1021
▁쓴다	-12.103
▁변명이	-12.1031
받는	-12.1032
▁인스타에	-12.1033
▁도네	-12.1037
했다는	-12.1046
▁우는	-12.1054
▁온거	-12.1055
다더니	-12.1061
▁받으려	-12.1064
돼요	-12.1082
▁다가가야	-12.1092
▁되셨	-12.1094
▁놀리	-12.1128
맞는다면	-12.113
히나	-12.1141
해보는	-12.1148
▁맞았네	-12.1151
사랑이	-12.1159
되겠지	-12.1171
전할	-12.1174
▁올랐	-12.118
있죠	-12.1205
말은	-12.121
해지는	-12.1212
주신	-12.1213
▁필요하다	-12.1226
▁있을게	-12.1234
▁무시했	-12.1249
▁아들	-12.1272
▁리액션해	-12.1274
▁되었어	-12.1284
못해	-12.1305
▁운동하면	-12.1339
시간동안	-12.1345
해야하는	-12.1348
조언	-12.1354
의해	-12.1362
▁익숙함	-12.1364
▁지우지	-12.1389
이거	-12.1396
▁대하	-12.1397
힘든	-12.1405
떠나려	-12.1421
내는	-12.1426
▁반장이	-12.145
▁데이트하	-12.1467
▁생각했나	-12.1476
연애인데	-12.1484
▁병신인	-12.1484
▁미루는	-12.1489
이였	-12.1549
▁단거	-12.1552
해봐	-12.1578
▁보내야	-12.1602
▁저장	-12.1603
보려고	-12.1617
내려	-12.1637
힘들어	-12.1643
렸을까	-12.1652
▁연락해봐	-12.1654
해주고	-12.167
▁붙잡아보	-12.1674
느	-12.1678
▁불편하	-12.1694
▁변했	-12.1702
질까	-12.1704
아들	-12.1706
다면서	-12.1711
▁간사	-12.1719
▁뭘해야	-12.1741
▁질투하	-12.1756
▁날도	-12.1759
갔	-12.1763
▁지하철	-12.1763
▁잡는다	-12.1775
▁막막	-12.1809
나고	-12.1823
같았	-12.1825
청소	-12.1827
▁꽝	-12.1853
▁자게	-12.1856
▁찾아가보	-12.1857
▁보수적	-12.1864
였다	-12.187
해야겠네	-12.1876
▁날이에	-12.1885
랐	-12.1912
▁돋	-12.1914
▁허락	-12.1924
으면서	-12.1946
힘드네	-12.1959
▁남았나	-12.1972
▁초대해	-12.1973
술	-12.1973
▁쓰이겠	-12.1978
▁사람일까	-12.1987
듯해	-12.2002
▁차단이	-12.2004
▁조금이	-12.2008
▁잊었는	-12.2025
▁감사해	-12.2025
▁그러니	-12.2029
한가봐	-12.2039
▁참아야	-12.2091
해진	-12.2109
▁연락하고싶어	-12.2119
▁알아요	-12.212
켜	-12.2131
▁연애상담해	-12.2143
헤어진	-12.2152
▁들어보	-12.2197
려서	-12.2197
▁길다	-12.2199
이게	-12.2202
해보시는	-12.2227
▁상처에	-12.2229
타면	-12.2231
적하지	-12.2243
을수	-12.2251
못하고	-12.2255
천하	-12.2265
▁타야	-12.2266
▁싫으	-12.2281
▁밖	-12.2288
카톡	-12.2297
▁선에	-12.2297
▁갔을	-12.2301
해가는	-12.2308
▁직장인	-12.2329
모르겠어	-12.2342
▁혼자있	-12.2346
▁더럽	-12.2353
▁하라	-12.2433
좋겠다	-12.2439
▁싸웠는	-12.2445
내일	-12.2453
▁휴학하	-12.2474
좋은건	-12.2491
▁어찌보	-12.2493
부탁드려	-12.2501
▁흘	-12.2502
▁수준이	-12.2521
▁어색	-12.2544
▁철벽	-12.2546
은걸까	-12.2553
▁밀당해	-12.2565
놓	-12.2577
여기	-12.2585
거울	-12.2616
▁갠톡하	-12.2618
▁끝인거	-12.2619
이유	-12.263
▁미쳐	-12.263
▁끊기는	-12.2672
고픈	-12.2705
▁알바해보	-12.272
▁반복될	-12.272
언제	-12.2724
휴가	-12.2731
귀	-12.2732
▁어색할	-12.2745
나갔으면	-12.2756
▁줄어	-12.2762
굴	-12.2763
는대로	-12.2778
▁데이	-12.2784
내보세요	-12.2786
▁나나봐	-12.2796
만나고	-12.2799
짰다	-12.2802
알	-12.281
생	-12.2816
▁두려워지	-12.284
났	-12.2843
마지막	-12.2848
▁여자사람	-12.2859
▁백업	-12.2867
▁너그	-12.2868
▁알게되	-12.2878
덜	-12.2911
▁매력적	-12.2912
알았는데	-12.2913
헤어짐	-12.292
아직도	-12.2937
▁가을	-12.294
▁당황스러	-12.2941
상하지	-12.2949
왔	-12.295
▁청춘	-12.297
인생	-12.2981
▁이시간	-12.2986
짝남한테	-12.299
순간	-12.3002
어야지	-12.3011
▁창업해	-12.3018
된걸까	-12.3019
▁친구같	-12.302
▁잊혀	-12.3025
생일	-12.3047
어디	-12.3051
얼	-12.3053
▁아끼	-12.3064
경	-12.3066
써	-12.3078
았나	-12.3089
펴	-12.3093
둬	-12.3094
▁가져봐	-12.3096
으신	-12.3105
미련	-12.3111
추억	-12.3122
결정	-12.3126
꼭	-12.313
▁딸	-12.3136
움에	-12.3148
활	-12.315
▁궁금한게	-12.3152
만해	-12.3154
났나봐	-12.3171
▁저음	-12.318
주라	-12.3186
벽	-12.3191
커피	-12.3193
날씨	-12.3196
본지	-12.3204
앞에	-12.3212
당히	-12.3216
빠	-12.3218
▁먹으니	-12.3219
놀	-12.3224
아닌	-12.3225
▁가야겠	-12.3226
잠	-12.3228
▁갈거	-12.3232
▁있는건	-12.3234
말아	-12.3246
▁갑작스	-12.3263
란게	-12.3263
▁걱정해	-12.3269
영화	-12.3275
이었어	-12.3276
해주세	-12.3279
▁만났네	-12.3283
빨리	-12.3298
밤	-12.33
▁기대하면	-12.3302
▁헌신	-12.3303
▁안난다	-12.3306
위기	-12.3315
▁소중하	-12.3316
▁농구	-12.3316
신경	-12.3318
의미	-12.3328
사니	-12.334
▁전화하면	-12.3346
▁말조심	-12.3359
▁결혼할까	-12.3367
꽃	-12.3369
일어나	-12.3374
헤어졌습니다	-12.3374
▁먹어보	-12.338
느낌	-12.3381
▁안고	-12.3389
봐야	-12.3393
르지	-12.3394
다는건	-12.3395
▁말해본	-12.3404
어리	-12.341
뜻	-12.3415
▁출근이	-12.3422
과일	-12.3422
헤어지	-12.343
직장	-12.3434
창이	-12.3436
▁시간들	-12.3443
드나	-12.3457
하자는데	-12.3458
이별을	-12.3459
부러	-12.3462
▁마음속에	-12.3464
▁말해줄	-12.3475
모	-12.348
여유	-12.3489
▁난다	-12.3496
으셨	-12.3501
싫다	-12.3501
나갈까	-12.3504
손	-12.3505
▁얘기하	-12.3509
서로	-12.3516
있니	-12.3531
놀아	-12.3545
위해	-12.3554
▁동거하는	-12.3564
카페	-12.3565
설레	-12.3567
않았	-12.3573
잠깐	-12.3578
시험	-12.3579
노력	-12.3585
좋	-12.3589
브	-12.359
▁묻어두	-12.3596
하늘	-12.3601
▁적당	-12.3602
꿈에	-12.3618
교	-12.3632
▁선택하	-12.3648
▁웃으	-12.3651
견해	-12.3675
곧	-12.368
찾기	-12.368
▁느끼	-12.3681
밀	-12.3682
위로	-12.3682
▁집착인가	-12.3688
▁방법이겠	-12.3689
맞	-12.3694
덕	-12.3695
시겠	-12.3695
▁놓아보	-12.3695
▁받을까	-12.3695
차리	-12.3699
숨	-12.3701
안되는	-12.3711
자신이	-12.3719
하게하	-12.3727
러가	-12.3728
▁잡혀	-12.3728
끝나	-12.3734
짜	-12.3735
▁않을거	-12.3736
듣	-12.3739
▁엉	-12.3739
▁무기력하	-12.374
미쳤	-12.3742
야하는	-12.3744
▁미안하	-12.3747
들음	-12.3753
꼬	-12.3759
▁다되가는	-12.3766
▁훈훈	-12.3769
▁찌질	-12.3772
현상	-12.3772
겼나봐	-12.3773
듬	-12.3775
짜증나	-12.3775
▁못내	-12.3775
쟁	-12.3776
됐네	-12.3776
봄	-12.3778
춘	-12.3778
핑	-12.3783
했었	-12.3785
마시	-12.3789
우울	-12.3796
가능성	-12.3803
▁일어나보	-12.3803
극복	-12.3804
떨	-12.3804
장거리	-12.3806
▁않으	-12.381
미세먼지	-12.3811
말해	-12.3812
않으니	-12.3812
▁변할	-12.3812
한잔	-12.3815
나가나	-12.3816
크리스마스	-12.382
취미	-12.3825
등	-12.3829
아졌어	-12.3832
큼	-12.3834
예의	-12.384
얘기	-12.3841
알면서도	-12.3842
시어머니	-12.3844
쳤나	-12.3844
흘렀네	-12.3845
조심	-12.3853
▁썸에	-12.3854
▁개같	-12.386
▁연애하	-12.386
효	-12.3863
물어	-12.3865
살아야	-12.3866
만나지	-12.3876
낀	-12.3883
정이야	-12.389
갔는데	-12.3891
희망	-12.3892
▁무뎌	-12.3897
직구	-12.39
▁무리하	-12.3902
편할	-12.3913
끊었	-12.3914
만나기로	-12.3918
꾹	-12.392
쳤	-12.3921
▁잡으려	-12.3923
말투	-12.3925
같다가도	-12.3926
▁물어볼	-12.3927
sns	-12.3927
프로포즈	-12.3932
힘듭니다	-12.3932
▁죽었나	-12.3933
졸	-12.3933
헤어졌네	-12.3934
▁잊은	-12.3936
지났네	-12.3938
집착	-12.3941
▁멀었나	-12.3943
▁회사가	-12.3943
근처	-12.3945
악	-12.3948
▁잊어보려	-12.395
바꾸	-12.3951
좋은	-12.3951
전공	-12.3951
추억이	-12.3952
듣고	-12.3953
않네	-12.3955
깜	-12.3958
별로	-12.3964
해준	-12.3964
쥐	-12.3965
▁너덜너덜	-12.3967
있으신가	-12.3967
▁못생	-12.3971
마시면	-12.3971
떠	-12.3972
8	-12.3976
쐬	-12.3976
▁보듬어	-12.3976
고가	-12.3977
원망	-12.3978
우울해	-12.3979
▁잤나	-12.398
잇	-12.398
똥	-12.398
베터리	-12.3981
좋았	-12.3982
▁걱정하	-12.3984
노력해	-12.3994
두번	-12.4002
정류장	-12.4007
더워	-12.4009
무시하	-12.4009
▁괜찮았	-12.4012
보고싶	-12.4013
소비	-12.4015
▁얘기할	-12.4016
공간	-12.4017
잤어	-12.4017
센스	-12.402
아야	-12.402
▁곁	-12.4023
▁잡아보	-12.4024
없을까	-12.4025
능력	-12.4025
상태	-12.4026
홀	-12.4027
충격	-12.4028
이런건	-12.4028
사실	-12.4029
워질거	-12.403
쓴	-12.4031
탔	-12.4032
넌	-12.4033
시급	-12.4036
▁났나	-12.4037
깊	-12.4037
척이	-12.4038
기울이	-12.4038
당했습니다	-12.4042
빠져	-12.4045
콕	-12.4046
언제까지	-12.4046
취직	-12.4046
9	-12.4051
외국어	-12.4051
밤에	-12.4053
곳이	-12.4054
되셨	-12.4054
응	-12.4056
넘었는데	-12.4059
기다리지	-12.4061
한마디	-12.4062
예감	-12.4062
불쌍	-12.4066
프로필	-12.4069
답답해서	-12.4069
아파트	-12.4069
술한잔	-12.407
견디기	-12.407
잊혀지네	-12.407
불공평	-12.4071
치킨	-12.4074
성형	-12.4078
다툼	-12.4079
듣기	-12.4081
주택	-12.4081
베	-12.4081
차례	-12.4083
칼	-12.4084
있더라	-12.4086
왔나봐	-12.4086
▁대쉬	-12.4086
축제	-12.4087
꼈어	-12.4088
설명	-12.409
바늘	-12.409
나는데	-12.409
달차	-12.4091
그럴까	-12.4091
죽겠다	-12.4092
총회	-12.4094
불쑥	-12.4095
입을까	-12.4095
뛰어	-12.4097
누	-12.4099
▁구하	-12.41
근질	-12.41
▁입맛	-12.41
날짜	-12.4101
키울	-12.4102
썩	-12.4102
툭	-12.4102
꾸미	-12.4102
잊고싶	-12.4103
▁있었겠	-12.4103
▁손톱	-12.4104
주절	-12.4105
돌아	-12.4105
▁많았겠	-12.4106
모양	-12.4109
셔야죠	-12.4109
여자와	-12.411
깜빡	-12.4113
집앞	-12.4114
낳	-12.4117
찼	-12.4117
공개	-12.4117
못하네	-12.4118
부모	-12.4119
해지기	-12.4119
밑	-12.4123
예약	-12.4128
밟	-12.4128
착한	-12.413
떼	-12.4133
쭉	-12.4133
흠	-12.4133
걸리	-12.4135
생각나	-12.4135
봤으면	-12.4135
▁결혼준비하	-12.4135
가득	-12.4135
윗	-12.4136
쫄	-12.4136
시기	-12.4137
그만하고	-12.4139
▁네달	-12.4144
똑똑	-12.4145
100	-12.4145
쓰다	-12.4148
되었나	-12.4148
구가	-12.4149
남은	-12.415
죽는	-12.4152
농	-12.4154
▁사랑이었을	-12.4156
김치	-12.4158
지났는데	-12.4161
냉	-12.4161
털	-12.4161
보러가	-12.4164
년이라	-12.4164
도와주	-12.4166
시켰	-12.417
웃음	-12.417
바라	-12.4171
▁밀	-12.4171
너와	-12.4172
▁고맙	-12.4173
오르	-12.4173
남자한테	-12.4174
비용	-12.4179
▁속시원	-12.4179
괜찮은	-12.4185
픈데	-12.4193
있다는	-12.4195
놀이	-12.421
멋	-12.4214
아픔이	-12.4217
▁멋있는	-12.4217
막힌다	-12.4218
▁독한	-12.4224
남기	-12.4224
잊	-12.4226
봤네	-12.4232
운전	-12.4233
▁시켜야	-12.4239
내릴	-12.4241
▁때리	-12.4246
▁다되어가	-12.4249
▁끈이	-12.4252
보냈어	-12.4259
▁그렇다는	-12.4262
▁번이	-12.4264
▁술마	-12.4265
▁누락	-12.4266
▁부담스러워할	-12.4267
모임	-12.4274
넘어	-12.4275
▁인사해	-12.4276
▁공허함	-12.4287
동거중인	-12.4287
즐	-12.4291
비만이	-12.4296
듣는	-12.4301
▁마시니	-12.4301
는다	-12.4313
안주	-12.4315
▁없애야	-12.4319
▁덧	-12.4328
빠지	-12.4329
관리	-12.4331
축하	-12.4331
애인	-12.4338
▁나에	-12.4341
▁얼었나	-12.4344
놀러가	-12.4346
구질	-12.4346
친구인데	-12.4347
말하지	-12.4348
두는	-12.435
날까	-12.4351
▁나아졌다	-12.4357
행복한가봐	-12.4359
▁후폭풍인가	-12.436
끝인가	-12.4361
타일러	-12.4363
타오를	-12.4366
밤이	-12.4367
전까지	-12.4367
안하면	-12.4372
접는	-12.4374
날이	-12.4375
▁이사하	-12.4378
였는데	-12.4378
나타났	-12.4379
▁마세	-12.438
찾	-12.4381
들어가	-12.4384
푸석	-12.4392
심장	-12.4395
봐봐	-12.4396
▁계속해	-12.44
잊지못	-12.4416
후에	-12.4416
▁요가	-12.4417
차렸을	-12.4417
▁장거리연애	-12.4418
▁휘둘	-12.4428
되었네	-12.4453
그랬어	-12.4461
지나가네	-12.4462
람	-12.4463
기다려야	-12.4466
해졌어	-12.4469
흘	-12.447
▁엇갈	-12.4472
보드	-12.4473
▁초라	-12.4474
찰랑	-12.4475
▁생생	-12.4476
▁못가	-12.4488
가나쁜건지	-12.4494
▁헤어졌으니	-12.4494
녀야	-12.4497
▁자유로워질	-12.4501
▁엿	-12.451
러워	-12.4515
▁낸	-12.4517
▁씹	-12.4518
내려고	-12.452
내리겠	-12.452
▁사귀지	-12.4529
▁욕하	-12.4529
순간에	-12.4533
▁착잡	-12.4534
▁아픈거	-12.4561
됐군	-12.4562
▁필요한가	-12.4563
▁미화되	-12.4565
쓸까	-12.457
▁안녕하세	-12.4579
▁섭섭	-12.4588
안되	-12.4588
▁탈퇴했	-12.4592
▁정상인	-12.4593
지옥	-12.4594
▁먹여주	-12.4597
▁밀려	-12.4597
▁외국	-12.46
긋	-12.4602
▁부럽네	-12.4603
출근해	-12.4604
말에	-12.4605
▁누군	-12.4609
▁달째	-12.4611
▁힘내세	-12.4611
▁봤	-12.4614
▁자장면	-12.4615
치워야	-12.4615
▁망설여	-12.4622
서서	-12.4622
자제	-12.463
받으니	-12.4637
▁안타	-12.4643
▁사랑하니	-12.4643
지않은	-12.4647
석해야	-12.4655
▁부담스러	-12.4661
립	-12.4662
쁘	-12.4662
시킬	-12.4662
▁간접	-12.4668
졌다는	-12.467
내지	-12.4672
▁당사자	-12.4672
▁절망	-12.4675
련	-12.4676
이루	-12.4677
자인	-12.4677
막힌	-12.4679
혹	-12.468
딛	-12.4683
꼈	-12.4684
혔	-12.4685
벼	-12.4686
렀	-12.4686
여주고	-12.4687
▁발렌타	-12.4691
▁정리되었	-12.4692
듭	-12.4692
쁠	-12.4692
꿔볼까	-12.4693
습니	-12.4693
▁희	-12.4694
빴	-12.4695
▁같은거	-12.4695
련하네	-12.4696
깝	-12.4696
컥	-12.4696
▁무색해	-12.4697
받아봤	-12.4697
뜰	-12.4697
맙	-12.4698
황	-12.4698
▁씌었	-12.4699
한건	-12.4699
춤	-12.47
▁격	-12.47
톱	-12.47
닿	-12.47
▁눌	-12.47
▁어렸을	-12.47
▁뜬	-12.47
▁퇴	-12.47
봇	-12.4701
▁승	-12.4701
▁핸	-12.4701
쩔	-12.4701
▁갱	-12.4701
턴	-12.4701
▁엄	-12.4702
▁헬	-12.4702
▁텅	-12.4702
▁엊	-12.4702
램	-12.4702
콤	-12.4702
▁맞춤	-12.4703
▁뉴	-12.4703
욜	-12.4703
▁헬스	-12.4703
▁가라앉	-12.4703
렬하	-12.4703
졋	-12.4703
몽	-12.4703
▁겉	-12.4703
칭	-12.4703
낭	-12.4703
▁섬	-12.4703
률	-12.4703
딜	-12.4704
묵	-12.4704
익	-12.4704
▁쌩	-12.4704
랜드	-12.4704
댄	-12.4704
_	-12.4704
갯	-12.4704
꽁	-12.4704
잌	-12.4704
쭈	-12.4704
큐	-12.4704
▁쌍	-12.4704
긍	-12.4704
냄	-12.4704
냅	-12.4704
놉	-12.4704
닙	-12.4704
뎠	-12.4704
딘	-12.4704
쎌	-12.4704
픕	-12.4704
핏	-12.4704
힙	-12.4704
쎄	-12.4704
L	-12.4704
j	-12.4704
k	-12.4704
ᄎ	-12.4704
▁덤	-12.4704
▁블랙	-12.4704
▁흑	-12.4704
갇	-12.4704
곗	-12.4704
굶	-12.4704
굽	-12.4704
궜	-12.4704
귐	-12.4704
깠	-12.4704
깡	-12.4704
꺽	-12.4704
껀	-12.4704
꼿	-12.4704
꽈	-12.4704
꿎	-12.4704
꿧	-12.4704
뀐	-12.4704
뇽	-12.4704
닳	-12.4704
댜	-12.4704
덴	-12.4704
델	-12.4704
둑	-12.4704
듀	-12.4704
듦	-12.4704
딧	-12.4704
딨	-12.4704
땠	-12.4704
떄	-12.4704
뗄	-12.4704
뛴	-12.4704
뜁	-12.4704
뜩	-12.4704
뜸	-12.4704
랠	-12.4704
랩	-12.4704
럿	-12.4704
렁	-12.4704
렛이	-12.4704
렷	-12.4704
령	-12.4704
멤	-12.4704
몹	-12.4704
뭇	-12.4704
뭣	-12.4704
밸	-12.4704
뱄	-12.4704
뱉	-12.4704
벋	-12.4704
벴	-12.4704
뵈	-12.4704
붕	-12.4704
빔	-12.4704
빗	-12.4704
뺄	-12.4704
뺴	-12.4704
뻘	-12.4704
뻣	-12.4704
뻥	-12.4704
뿍	-12.4704
삽	-12.4704
삿	-12.4704
셥	-12.4704
숍	-12.4704
쌀	-12.4704
쌤	-12.4704
쎈	-12.4704
쏘	-12.4704
쏜	-12.4704
씬	-12.4704
씽	-12.4704
앙	-12.4704
얄	-12.4704
엘	-12.4704
엣	-12.4704
옇	-12.4704
욌	-12.4704
윤	-12.4704
잦	-12.4704
잿	-12.4704
젹	-12.4704
좁	-12.4704
즉	-12.4704
쩐	-12.4704
쩝	-12.4704
쩡	-12.4704
쫙	-12.4704
찝	-12.4704
챔	-12.4704
챗	-12.4704
첩	-12.4704
촌	-12.4704
췄	-12.4704
츄	-12.4704
츤	-12.4704
칙	-12.4704
칫	-12.4704
컹	-12.4704
쾌	-12.4704
킴	-12.4704
탑	-12.4704
탱	-12.4704
텍	-12.4704
텻	-12.4704
퉜	-12.4704
팍	-12.4704
펜	-12.4704
펨	-12.4704
펼	-12.4704
평해	-12.4704
폐	-12.4704
퐈	-12.4704
퓨	-12.4704
핍	-12.4704
햐	-12.4704
협	-12.4704
혜	-12.4704
훨	-12.4704
휨	-12.4704
▁싱	-12.4704
굿	-12.4704
늪	-12.4704
젔	-12.4704
콘	-12.4704
텄	-12.4704
롯	-12.4704
뭉	-12.4704
쉼	-12.4704
▁토닥	-12.4704
▁봉사	-12.4705
▁차갑	-12.4705
▁열받	-12.4707
▁끝나버	-12.4708
리나요	-12.4708
활동	-12.4708
리스마	-12.471
▁가봐	-12.4711
썸이	-12.4711
명인데	-12.4713
▁서류	-12.4714
▁생각들	-12.4715
▁발렌타인	-12.4716
보내세	-12.4716
렸는데	-12.4717
겼으면	-12.4717
못하나	-12.4717
폭발	-12.4719
▁식욕	-12.472
▁봐버	-12.4723
▁열받아	-12.4723
프겠지	-12.4726
번쯤	-12.4729
▁맞출	-12.4729
커풀	-12.4731
▁가벼워	-12.4736
이시군요	-12.4737
리모	-12.4738
하나요	-12.474
▁비비	-12.4741
찍어	-12.4741
▁채워보	-12.4742
▁소름	-12.4743
각인가	-12.4744
▁여친하	-12.4745
▁넘어질	-12.4746
뜨려	-12.4748
된거	-12.4749
질테	-12.4753
▁모르나	-12.4753
▁잠식시	-12.4753
스피	-12.4754
백조	-12.4756
화하기	-12.4758
명이라	-12.4759
▁전학	-12.4761
겨줘	-12.4765
▁정신차	-12.4767
해주고싶	-12.4768
거려보	-12.4768
있나요	-12.4771
▁부럽	-12.4773
▁미용	-12.478
▁안되지	-12.4783
▁야구	-12.4784
▁무덤덤한	-12.4789
무신	-12.479
다녀와	-12.479
저그	-12.4793
에나와	-12.4799
갈림	-12.4799
스릴	-12.4805
아올	-12.4805
▁수상한	-12.4806
안하	-12.4814
신부	-12.4815
먹는	-12.4815
동적	-12.4819
넘은	-12.4822
관문	-12.4833
▁주워	-12.4838
줄거	-12.4846
▁안받	-12.4848
정리했	-12.4849
이불	-12.4851
지쳐	-12.4855
쳐오	-12.4859
▁알았나	-12.4864
▁참석	-12.4868
▁주저	-12.4871
▁생각처	-12.4882
마스	-12.4884
▁알바하는	-12.4884
▁그것만	-12.4888
▁문제일	-12.4889
▁칼로	-12.4892
트레	-12.49
▁착각인	-12.4906
직할	-12.4906
▁수십	-12.4924
연휴	-12.493
▁카톡해	-12.4931
▁생겼나	-12.4931
▁오르	-12.4939
▁착각일	-12.4943
▁천일	-12.4943
▁크리	-12.4944
먹은	-12.4952
▁행동에	-12.4959
상종	-12.4963
어볼	-12.4968
경이	-12.497
키지	-12.497
이트라	-12.4979
이었겠	-12.4981
하더라고	-12.4981
▁생리	-12.4983
주일째	-12.499
물해	-12.4997
▁장난인	-12.4999
상했	-12.502
감수	-12.5022
▁몇시	-12.5028
▁불타오	-12.5039
▁아프니	-12.5045
개월간	-12.5046
정해진	-12.5048
유유	-12.506
▁멈춰버	-12.5064
소에서	-12.5075
없는거	-12.5076
죽어	-12.5077
이인데	-12.5078
덜덜	-12.5095
▁주라	-12.5108
▁보고싶은	-12.511
▁불공평	-12.5113
▁마시는	-12.5118
려질	-12.512
남보다	-12.5128
리치	-12.5128
갈수	-12.5133
▁솔직했	-12.5133
호를	-12.5137
졌을	-12.5138
안했을	-12.5145
▁형	-12.5152
할줄	-12.5164
작용	-12.5169
젠가	-12.5188
▁커플이	-12.5195
▁없겠어	-12.5197
▁그지	-12.5201
▁어째	-12.5202
▁연락오는	-12.5202
어진지	-12.5208
비에	-12.5214
다주	-12.522
데이트도	-12.5222
▁이주	-12.5223
▁해봤어	-12.5236
롭지	-12.524
던가요	-12.5254
▁챙겨주는	-12.5256
긴건	-12.5271
년연	-12.5285
▁자유로	-12.529
▁해봐야	-12.5292
진것	-12.5297
다는거	-12.5301
지로	-12.5311
살랑	-12.5319
▁해봤	-12.5321
대하면	-12.5325
름에	-12.5329
녀를	-12.5357
두절	-12.5359
▁어색해졌	-12.5361
▁느	-12.5367
▁꿈에나	-12.5373
▁잘참	-12.5381
▁언제부터	-12.5391
일이라	-12.5407
▁꼬시	-12.5435
▁괜찮았는	-12.5435
나갔다	-12.5435
▁안타까	-12.544
▁소개팅이	-12.5446
맞는데	-12.5462
▁똥	-12.5474
▁잇	-12.5476
▁살자	-12.5491
스럽지	-12.5492
▁쥐	-12.5494
아오	-12.5495
전거	-12.5498
▁깜	-12.5503
▁안올	-12.5528
만나다	-12.5528
▁되겠어	-12.5529
▁꾹	-12.5546
지말	-12.5554
▁거짓	-12.5586
지워	-12.5587
혀지질	-12.5592
르다	-12.5594
▁벗으	-12.5604
갈리	-12.5606
럽다	-12.5618
▁편안해	-12.5618
먹었	-12.5636
웠을	-12.5643
맞는걸	-12.5652
하셔야	-12.5655
로우	-12.5656
만나	-12.5658
▁들겠	-12.5672
▁핑	-12.5704
▁춘	-12.5712
번에	-12.5715
안일	-12.5718
▁해야되	-12.5739
추가	-12.5746
싶지	-12.5754
있을	-12.5755
정적이	-12.5773
날거	-12.5776
▁느낀다	-12.5786
들어와	-12.5812
갔는	-12.5813
봐서	-12.5814
▁이별이네	-12.5823
▁관	-12.5831
▁어리	-12.5856
시니	-12.5866
리여	-12.5869
월이	-12.5874
고쳐	-12.5876
▁잘되는	-12.588
▁문제인	-12.5889
▁잘살	-12.5896
만나고싶	-12.5914
쉬운가봐	-12.5926
으신가요	-12.5926
으려고	-12.593
▁많으	-12.5942
바지	-12.5948
▁끊어	-12.5965
▁있더라	-12.5972
▁해주세	-12.5975
▁알았는	-12.5978
▁의미일	-12.5979
쓰지마	-12.5983
▁못났	-12.5985
았을	-12.5989
질거	-12.5996
분에	-12.6056
▁끝이라	-12.6091
▁싶어진	-12.6105
방학했	-12.6116
▁수학	-12.6117
▁않는다	-12.6124
▁시간인	-12.6128
할래	-12.6137
거리는	-12.6142
▁안되었	-12.6174
고통	-12.6183
스에	-12.6184
▁자제	-12.6194
반이	-12.6208
아하게	-12.625
▁없겠	-12.6253
추는	-12.6254
▁해야되는	-12.6255
적인데	-12.629
▁강요하	-12.6297
사니까	-12.6299
제하는	-12.6302
▁기억하고	-12.631
▁재미있을	-12.632
우스	-12.6383
그러	-12.6397
▁길거	-12.641
착해	-12.6429
▁흘렀는	-12.643
맞아	-12.6457
▁치는	-12.6468
▁짝사랑한	-12.6473
러기	-12.6503
났다	-12.6505
▁선물하	-12.651
재가	-12.6534
▁발전하	-12.654
▁필요없	-12.6547
끌어	-12.6588
울증	-12.6589
들만	-12.6602
▁결혼해야할	-12.6604
▁재회했	-12.6612
▁인생에	-12.6617
사귀다	-12.6637
물가	-12.6659
▁일해	-12.6667
▁블	-12.6684
이요	-12.6703
먹을까	-12.6712
상으로	-12.672
▁놀기	-12.6744
보내기	-12.6763
기까지였나	-12.6763
청소해	-12.6791
고있어	-12.6822
▁잘한	-12.6828
▁하우스	-12.6844
려해	-12.6871
좋겠지	-12.6884
나지	-12.6888
▁좋아한	-12.6911
▁기름	-12.6934
▁우선이	-12.6957
▁잘했	-12.6964
줄만	-12.6982
일거	-12.7016
▁보인	-12.7018
▁가지자	-12.7068
가나봐	-12.707
전화	-12.7082
보고싶네	-12.7083
일시	-12.7093
애버	-12.7123
들다	-12.7136
아직이	-12.7138
은듯	-12.7148
▁바래	-12.7155
일을	-12.7193
째네	-12.7197
▁미워하	-12.7205
일이나	-12.7209
▁라	-12.7214
주나	-12.7218
▁깨졌는	-12.7222
대기	-12.7232
자리인	-12.725
▁있는걸	-12.729
랐는	-12.7309
지니까	-12.7326
시간들	-12.7331
▁좋았을	-12.7351
나갔네	-12.7404
장에	-12.7449
사갈	-12.7461
사한	-12.7504
▁친구인	-12.754
사해	-12.7548
전부	-12.7553
프사	-12.7607
▁운동해	-12.7611
▁이기적	-12.7616
▁내봐	-12.7628
▁모임	-12.7639
는연애	-12.7643
는다는건	-12.7659
보이나	-12.7666
▁동거하	-12.7674
시할	-12.768
▁충전해야	-12.7683
▁무한	-12.7714
지길	-12.7722
나니까	-12.7723
오는날	-12.7734
럽네	-12.7739
근이	-12.775
▁완	-12.7755
▁겁	-12.7796
라는건	-12.7852
▁데려다주	-12.7904
워요	-12.7907
▁까	-12.794
리며	-12.795
데이	-12.7956
▁육	-12.7993
은데	-12.7995
붙였	-12.7996
났는데	-12.8031
들더라	-12.8041
▁애한	-12.8041
▁이사람	-12.8071
스럽네	-12.8076
낸다	-12.808
▁좋아하는건	-12.8173
▁카톡에	-12.8301
▁믿어보	-12.8317
▁막고	-12.8325
▁힘들어하는	-12.8365
기전	-12.8373
▁이별이지	-12.8376
▁주체	-12.8387
▁정적	-12.8387
대에	-12.8405
▁기다리겠	-12.8445
야겠죠	-12.8513
걸까요	-12.855
동선	-12.8629
▁인사하	-12.8629
▁후회되	-12.863
중하	-12.8633
▁잘됐	-12.865
사람이	-12.866
▁싶어지	-12.8676
▁강요	-12.872
혼날	-12.8785
반에	-12.8812
▁떠올	-12.8909
▁둔	-12.8914
들게	-12.8922
나기	-12.8987
▁남겠	-12.9033
보러간	-12.9083
지질	-12.9091
어찌보	-12.9109
▁생각해야	-12.9132
혼해야할까	-12.914
히지	-12.9158
▁공허하	-12.9162
러가네	-12.9172
▁그녀에	-12.9215
▁이유에	-12.9219
▁면도하	-12.9278
아픈	-12.9328
▁깨어	-12.9389
죽겠	-12.9392
슬퍼하	-12.9409
기까지	-12.9412
기예	-12.9452
든다	-12.9509
▁안하	-12.9531
브라	-12.954
분인	-12.9606
▁잊혀지는	-12.97
못하는	-12.9706
▁고민한	-12.9719
되가	-12.972
긴가	-12.9732
리게	-12.9762
▁이야기하	-12.9781
▁시작되	-12.9807
▁있을거	-12.9817
▁나으	-12.9826
▁중요하겠	-12.993
너무너무	-12.9947
다보	-13.0062
할거	-13.007
네ᄒᄒ	-13.0071
▁내맘	-13.0075
하러가	-13.0181
덤덤해졌	-13.0242
▁다이	-13.0281
아가는	-13.0397
좋아요	-13.0441
한가요	-13.0446
들였	-13.0456
아야할	-13.0466
달에	-13.0477
▁않은거	-13.0482
▁안했	-13.0504
하는거죠	-13.0514
원해	-13.0529
▁예뻐보	-13.0534
풀려	-13.0574
시비	-13.0649
이러	-13.0653
해봤어	-13.0659
내요	-13.0667
▁사랑이야	-13.0717
의점	-13.0725
톡하면	-13.0731
▁불가	-13.0772
▁일까	-13.0845
다던	-13.0849
▁나보	-13.0866
거에	-13.0921
▁약속잡	-13.0962
나오	-13.0977
▁월	-13.1049
▁상태인가	-13.1063
▁당황하	-13.1078
났는	-13.1095
하고있어	-13.1099
나나	-13.1155
▁후련할	-13.1187
▁진심인	-13.1281
▁생활하	-13.1385
느끼는	-13.1392
▁하긴	-13.1438
려워	-13.144
▁잊고싶	-13.1556
▁하려	-13.1633
방안	-13.1655
▁뭐할	-13.1667
기도해	-13.1761
▁헤어져야하	-13.1833
오려고	-13.1839
▁행동하	-13.1871
하지않	-13.1897
임이	-13.1945
은것만	-13.1967
려니	-13.2077
▁속상하	-13.2135
로우니까	-13.2136
급하	-13.2169
있으	-13.2183
확하	-13.2327
이와	-13.2433
▁짝사랑에	-13.246
들어야	-13.2491
때요	-13.2491
리카	-13.2564
▁힘들어지	-13.2568
▁잘가	-13.2685
해봤는데	-13.2686
란다	-13.2708
▁좋아하다	-13.274
▁사람이라	-13.2759
장마	-13.2777
받아들여야할	-13.2797
▁끝냈	-13.2824
독하	-13.2841
나오네	-13.2878
끝이보	-13.2955
하겟	-13.2975
달라	-13.2989
▁어떡	-13.3036
면서도	-13.3036
하고싶	-13.3077
라해	-13.3281
▁잔인하	-13.3355
해야할	-13.3428
되겠지만	-13.3499
▁능	-13.3613
▁피는	-13.3676
외로	-13.3709
독한	-13.379
▁향하	-13.3829
구는	-13.3924
날들	-13.3985
▁이끌	-13.3991
었을	-13.4033
▁거라는	-13.4037
이별후	-13.4098
▁실망스러	-13.4199
▁끊었	-13.4219
고있는데	-13.4248
끈하	-13.4308
훌	-13.8196
훅	-13.8197
헉	-13.8198
튀	-13.8199
텼	-13.82
킥	-13.8201
쪘	-13.8202
짬	-13.8203
젊	-13.8204
옮	-13.8205
옛	-13.8206
얇	-13.8207
씸	-13.8208
씰	-13.8209
썰	-13.821
숏	-13.8211
섰	-13.8212
섣	-13.8213
섞	-13.8214
샐	-13.8215
뽕	-13.8216
뺏	-13.8217
볕	-13.8218
륜	-13.8219
띵	-13.822
덮	-13.8221
댔	-13.8222
논	-13.8223
꼴	-13.8224
깼	-13.8225
깬	-13.8226
괘	-13.8227
겜	-13.8228
o	-13.8229
g	-13.823
홧	-13.8231
홈	-13.8232
헹	-13.8233
헐	-13.8234
텅	-13.8235
텀	-13.8236
턱	-13.8237
쿵	-13.8238
캬	-13.8239
측	-13.824
짼	-13.8241
엿	-13.8242
엊	-13.8243
얽	-13.8244
앱	-13.8245
숫	-13.8246
묘	-13.8247
몬	-13.8248
렐	-13.8249
랙	-13.825
랖	-13.8251
뜬	-13.8252
떴	-13.8253
됬	-13.8254
눕	-13.8255
눌	-13.8256
뇌	-13.8257
꿰	-13.8258
꽝	-13.8259
깰	-13.826
겉	-13.8261
갱	-13.8262
훔	-13.8263
핫	-13.8264
텁	-13.8265
컸	-13.8266
촬	-13.8267
총	-13.8268
짰	-13.8269
좌	-13.827
웹	-13.8271
밉	-13.8272
몫	-13.8273
멘	-13.8274
맺	-13.8275
맴	-13.8276
릇	-13.8277
뚫	-13.8278
넷	-13.8279
꽉	-13.828
꼰	-13.8281
굳	-13.8282
겪	-13.8283
갠	-13.8284
C	-13.8285
헌	-13.8286
폼	-13.8287
팠	-13.8288
팀	-13.8289
탓	-13.829
쿨	-13.8291
켰	-13.8292
왠	-13.8293
엮	-13.8294
씌	-13.8295
쏠	-13.8296
쏟	-13.8297
삐	-13.8298
쁨	-13.8299
빚	-13.83
볍	-13.8301
렜	-13.8302
렛	-13.8303
긁	-13.8304
흑	-13.8305
헥	-13.8306
틋	-13.8307
툼	-13.8308
퀴	-13.8309
찜	-13.831
젯	-13.8311
옳	-13.8312
썹	-13.8313
쌍	-13.8314
슈	-13.8315
쉴	-13.8316
묻	-13.8317
릎	-13.8318
롤	-13.8319
둠	-13.832
돋	-13.8321
늠	-13.8322
낚	-13.8323
광	-13.8324
곱	-13.8325
휘	-13.8326
툴	-13.8327
켠	-13.8328
쪼	-13.8329
징	-13.833
쌩	-13.8331
싼	-13.8332
낙	-13.8333
끓	-13.8334
객	-13.8335
훈	-13.8336
짱	-13.8337
젖	-13.8338
웬	-13.8339
얻	-13.834
씁	-13.8341
섬	-13.8342
뽀	-13.8343
뢰	-13.8344
렬	-13.8345
땡	-13.8346
늙	-13.8347
낄	-13.8348
A	-13.8349
찔	-13.835
엉	-13.8351
띄	-13.8352
땀	-13.8353
닮	-13.8354
녹	-13.8355
넓	-13.8356
검	-13.8357
앉	-13.8358
샤	-13.8359
벚	-13.836
맡	-13.8361
뤄	-13.8362
랫	-13.8363
딪	-13.8364
겹	-13.8365
헬	-13.8366
잃	-13.8367
옥	-13.8368
빡	-13.8369
밝	-13.837
렘	-13.8371
깎	-13.8372
곁	-13.8373
n	-13.8374
컴	-13.8375
씻	-13.8376
뽑	-13.8377
뛰	-13.8378
딴	-13.8379
넣	-13.838
낮	-13.8381
규	-13.8382
걔	-13.8383
푹	-13.8384
춥	-13.8385
씹	-13.8386
렌	-13.8387
닫	-13.8388
갚	-13.8389
컨	-13.839
썼	-13.8391
슷	-13.8392
딸	-13.8393
꼼	-13.8394
귈	-13.8395
잤	-13.8396
뒷	-13.8397
뉴	-13.8398
뀔	-13.8399
웨	-13.84
녁	-13.8401
뀌	-13.8402
깔	-13.8403
깍	-13.8404
N	-13.8405
7	-13.8406
획	-13.8407
텨	-13.8408
셀	-13.8409
됩	-13.841
눠	-13.8411
걷	-13.8412
엽	-13.8413
샀	-13.8414
삭	-13.8415
쌓	-13.8416
싱	-13.8417
멈	-13.8418
권	-13.8419
희	-13.842
삼	-13.8421
밍	-13.8422
꿔	-13.8423
헛	-13.8424
틱	-13.8425
옆	-13.8426
북	-13.8427
쇼	-13.8428
섭	-13.8429
끄	-13.843
탁	-13.8431
벗	-13.8432
숭	-13.8433
멍	-13.8434
헷	-13.8435
잖	-13.8436
읽	-13.8437
삶	-13.8438
높	-13.8439
낫	-13.844
뎌	-13.8441
멀	-13.8442
렵	-13.8443
득	-13.8444
녕	-13.8445
깐	-13.8446
엇	-13.8447
흔	-13.8448
빌	-13.8449
흐	-13.845
끊	-13.8451
괴	-13.8452
퇴	-13.8453
짧	-13.8454
승	-13.8455
랜	-13.8456
밌	-13.8457
덤	-13.8458
픔	-13.8459
핸	-13.846
몇	-13.8461
똑	-13.8462
풍	-13.8463
슴	-13.8464
뭔	-13.8465
뻐	-13.8466
씀	-13.8467
닐	-13.8468
0	-13.8469
맨	-13.847
평	-13.8471
첫	-13.8472
풀	-13.8473
챙	-13.8474
죽	-13.8475
존	-13.8476
험	-13.8477
격	-13.8478
최	-13.8479
엄	-13.848
럼	-13.8481
떤	-13.8482
뭘	-13.8483
슨	-13.8484
걱	-13.8485
쉽	-13.8486
믿	-13.8487
겼	-13.8488
택	-13.8489
닌	-13.849
접	-13.8491
막	-13.8492
랄	-13.8493
봅	-13.8494
몰	-13.8495
럴	-13.8496
억	-13.8497
변	-13.8498
싫	-13.8499
쓰	-13.85
떻	-13.8501
렇	-13.8502
졌	-13.8503
편	-13.8504
괜	-13.8505
찮	-13.8506
뭐	-13.8507
받	-13.8508
습	-13.8509
혼	-13.851
썸	-13.8511
헤	-13.8512
않	-13.8513
많	-13.8514
힘	-13.8515
싶	-13.8516
없	-13.8517
같	-13.8518
