#version: 0.2 - Trained by `huggingface/tokenizers`
Ġ ì
Ġ ë
ì Ŀ
í ķ
ì ļ
ìļ Ķ
Ġ ê
ìĿ ´
ĺ ë
ì ķ
ê °
ì §
ë ĭ
ĸ ´
Ĭ Ķ
ì Ħ
ì ĸ´
ê ²
ì Ĺ
ë Ĥ
ê ³
ì§ Ģ
¬ ë
íķ ´
ì ŀ
Ġì ŀ
ìķ Ħ
ê° Ģ
ìĦ ¸
ë ĬĶ
ê³ ł
ìĿ Ħ
ì ł
ìĦ¸ ìļĶ
Ġ í
ë ³
Ġë §
ëĭ ¤
Ġì ķ
íķ ĺë
ê ¸
ı Ħ
ì ĭ
ë §
íķ ĺ
± °
Ĥ ¬ë
¢ ĭ
ìĹ Ĳ
Ĥ¬ë ŀ
Ġê °
ê² Į
ì ĺ
¸ ë
ìĿ Ģ
ë ıĦ
Ġì Ĺ
ë³ ´
Ġìŀ Ī
ê ¹
© ´
íķ ľ
Ħ ¤
Ī ë
Ġì ¢ĭ
ê¹ Į
ìŀ Ĳ
Ġë Ĥ
ì £
Ġê ±°
Ġì ĭ
Ġì Ŀ
ê¸ °
íķĺë ĬĶ
į °
Ġì Ĥ¬ëŀ
ë Ŀ
ëĭ Ī
ê² ł
¼ ë
Ġê ²
¡ ľ
ìĦ ľ
ë³´ ìĦ¸ìļĶ
ê µ
ĥ Ŀ
ì ľ
ë Ħ¤
ì ¹
ë ¥
ìĺ Ī
ĵ ¤
ë ¦
ëĤ ĺ
Ġë °
¬ ´
ìĺĪ ìļĶ
ë į°
ì Ĭ
ìķ ¼
ê ·
ìĸ´ ìļĶ
íķ ł
ĠìĤ¬ëŀ Į
Ġë ĭ
ë ł
Ġê±° ìĺĪìļĶ
´ Ĳ
Ġì Ī
Ġì §
ì£ ł
ĠìĿ ´
Ģ ë
Ġê° Ļ
ì Ľ
Ġë ³
Ġì ł
ìĿ Į
ë§ Į
Ġ íķ´
ëĤ ĺë
ì¹ ľ
¤ ë
Ġë ª
ìĿ ¸
ŀ ĺë
ê° ģ
Ġì ĥĿ
ìĭ ľ
Ġë Ĳ
ìĿ ĺ
ë °
ìľ ¼ë
Ġìķ Ħ
ĠìĹ Ĩ
ëĿ ¼
Ġê ·
ëĭĪ ëĭ¤
ê ±°
ĥ ģ
Ġì¢ĭ ìķĦ
Ġë§ Ī
í ĸ
ì Ĥ¬ëŀ
ìĿ ¼
í ĺ
Ĥ ¬
Ġìĭ ¶
êµ ¬
´Ĳ ìļĶ
ëĦ¤ ìļĶ
ìł ķ
ë¦ ¬
ìĭ ł
ëĤ ¨
Ġê ³
ì °
Ġê² ĥ
Ġì ĸ´
ìł ľ
ì£ ¼
Ġì ĺ
į Ķ
ë¥ ¼
ĠìĥĿ ê°ģ
ë ŀ
íķĺ ê³ł
Ħ Īë
ë ¶
Ġìķ Ĭ
ĠìĪ ĺ
í Ļ
Ġê ±
ê° Ħ
ĦĪë ¬´
Ġë§ Į
ìķĦ ìļĶ
Ġë³ ´
ë³ Ħ
Ġë§ Ĳ
Ġê° Ģ
ë ©´
Ġëĭ ¤
ë§ Ī
ĠìĹ °
ì ²
ìĤ¬ëŀ ĳ
Ġí ŀĺë
ëĤ ´
Į Ģ
Ġì ¤
Ġìķ Ī
ĵ ľ
ì ¢ĭ
ì ¤
ì Ī
ĠëĤ ĺ
Ġë§ İ
Ġê ¸
íķ´ ë³´ìĦ¸ìļĶ
ëł ¤
ë ¡ľ
ëĿ ½
ì ĥģ
ëĬĶ ëį°
ìĹ ¬
¤ ìĸ´
ķ Į
ì ¡
ì Ļ
Ġì °
íķĺ ì§Ģ
Ġë° Ķ
ë ĵ¤
ì§ Ħ
ê· ¸ë
í ħ
Ġìĭ ľ
ì¹ľ êµ¬
Ġìĸ´ ë
ìĹ Ī
Ġê· ¸ë
Ġë ĦĪë¬´
Ĺ ¤ìĸ´
Ġìŀ Ĳ
ì Ĩ
ê¸ Ī
í Ķ
ìķ ł
ĠìĤ¬ëŀ ĳ
ë ²
ĠìŀĪ ìĿĦ
Ġë įĶ
Ġì Ħ
ìĹ °
¹ Ħ
ìļ ´
ìľ¼ë ©´
ë ħ
ìĽ Į
Ġìŀ ĺ
Ġê¸ °
í ŀ
Ġ íķ
Ġë ¨
Ġë ¶
į ¸
ê ±
Ġë ı
ì ĸ
ĠìĹ ¬
ìĭ ¬
Ĥ ´
ë§ Ĳ
ë ı
¬ ¼
ìł Ģ
Ġì§ Ģ
íĸ Ī
íĻ Ķ
ê¸ ¸
ìŀ ¥
ĠìĹ° ëĿ½
ì ĥĿ
Ġê ´
ìł Ħ
íħ Į
íŀ Ī
íķĺë ©´
Ġì Ļ
ĠëĤ ¨
íķĺ ìĦ¸ìļĶ
ìŀĲ ì¹ľêµ¬
ì Ĥ¬
¥ ¼
Ġì Ĥ¬
ë ª
ìĹĲ ìļĶ
ĠìĤ¬ëŀĮ ìĿ´
Ġíŀĺë ĵ¤
ìĬ µ
Ġë ķĮ
ìľ¼ë ¡ľ
Ġê² Į
ìĿ´ ë³Ħ
Ġìķ Į
ë¥ ´
íĺ ¼
Ġë§Ī ìĿĮ
Ł ¬
ì§ Ŀ
¢ Ģ
ĠìĿ ¼
Ľ Ħ
Ġí ĸ
íķľ íħĮ
Ġìĸ´ë ĸ
Ġì ¹
ĠëĤ ´
í ļ
ìĹĲ ìĦľ
ìĬ ¤
ëĤĺë ´ĲìļĶ
ë ¯
ìł ģ
íķ´ ìļĶ
Ġê°Ļ ìķĦìļĶ
ì¢ĭ ìķĦ
ê¹Į ìļĶ
ìĺ ¤ë
Ġìł ķ
ĵ ł
Ġì¢ĭìķĦ íķĺëĬĶ
Ġëª ¨
ĥ Ģ
ì§ ģ
Ġë Ń
ë ĮĢ
ê²ł ìĸ´ìļĶ
Ġëª »
ĠìŀĪ ìĸ´ìļĶ
Ġê³ ł
Ġìĭ¶ ìĸ´
Ġì £
ë§Ī ìĿĮ
íļ Į
Ġë¨ ¹
ì ¶
ê°Ģ ë
ìļ °
Ġê± ´
ì į¸
¦ ¬
ĺë ıĦ
Ġì¤ ĳ
Ġì ¢Ģ
ì° ®
í Ĭ
Ġë ģ
Ġìĭľ ê°Ħ
ĠëĲ ł
Ġê°Ļ ìķĦ
Ŀ ¼
íķĺ ê²Į
Ġë° Ľ
í Ĺ¤ìĸ´
Ġì Ĩ
ë ¬´
ìĿ´ ìĹĲìļĶ
ë ¨
ì¢ĭìķĦ íķĺëĬĶ
ê ´
ĺë ĬĶ
ë¶ Ħ
Ġ íķĺë
ìŀ ĺ
ë¶ Ģ
Ĭ ĺ
Ġë ²
¸ë ł
ê²ł ëĦ¤ìļĶ
ì£¼ ìĦ¸ìļĶ
Ġì Ĥ´
Ġë§İ ìĿ´
ê° Ĳ
Ġ íķľ
Ġì ¡
ëĭ ¹
ìĹĲ ê²Į
ĳ Ĳ
ìķ Ī
ê³ ¼
í Ĩ
ĠëĲ ĺ
Ġë°Ķ ëŀ
Ġ íķł
êµ ¬ë
ê± ´
ìĬµ ëĭĪëĭ¤
ľ ì°®
Ġì ļ
ë³ µ
Ġì¢ĭ ìĿĦ
Ġë§Ī ìĦ¸ìļĶ
Ġë ĵ¤
ìŀ Ī
ê²ł ì§Ģ
ê· ¸
Ġë Ĩ
ĠìķĦ ëĭ
ĠìĦ ł
ŀ ĺ
Ġë ¬´
ëı Ļ
íĸ ī
ìĭ ¤
ë¥ ¸
Ġì ¶
ìĻ Ģ
ëŀ ĳ
ĠëŃ Ĳ
Ġì ĥģ
¬ ¸
ì§ Ī
ĠìŀĪ ëĬĶ
Ġ íķĺëĬĶ
ë¦ ¬ë
ħ ëĭĪëĭ¤
Ł °
ì Ķ
í Į
Ġë Ĭ
ì¡ Į
ìĨ Į
Ħ ìļĶ
İ ¸
Ġìķ Īë
ê²Į ìļĶ
í ı
į ĺ
Ġíķ´ ë³´ìĦ¸ìļĶ
ìŀĲì¹ľêµ¬ ê°Ģ
ìĸ´ ë
Ġì¢ĭ ìĿĢ
ĠìĿ´ ë³Ħ
ìĪ ĺ
ìĽ Ĳ
Ġìł Ħ
Ġëģ Ŀ
Ġë ¯
Ġë ĵľ
ìľ ¼
ì¢ĭ ìĿĢ
ëĤ ł
Ġì ĸ
Ġí Ĺ¤ìĸ´
Ġê± ¸
ê° Ļ
ê°Ģë ´ĲìļĶ
ì ¦
ì ĥ
Ġì£ ¼
ì ģ
ìĿ ¸ë
ĠëĤ ĺë
» ê²Į
ĠìĹ¬ ìŀĲ
ìĬ ¤ë
Ġí Ļ
Ġíķ ĦìļĶ
ëĤ ľ
Ġê· ¸
í ģ
Į Ģë
Ġìĭ¶ ëĭ¤
ì¤ ĳ
ìĨ į
ĠëĤ¨ ìŀĲ
ë ¬¼
Ġê´ ľì°®
Ġëı ¼
ê³ µ
ì ħ
ìł ¸
Ġê² °
ĠìĹĨ ìĸ´
Ġì¹ ľ
Ġë ĮĢ
ìĿ´ ìłľ
Ġë ĸ
ê² °
íķ´ ëıĦ
Ĥ ĺ
ê²ł ìĸ´
ìĺ ¤
ëħ Ħ
Ġì¡ °
Ġëª¨ ë¥´
ê´ Ģ
ê ¾
ìķ ĺ
Ġí ĺ
ê²ł ì£ł
Ġì ī
Ġì Ĭ
ëĭ¤ ë©´
ĺ Ĳ
ê² ½
Ġìŀ Ĭ
ìľ ł
Ġë Ī
Ġí ĽĦ
ìĭ Ŀ
ë§ İ
ìĺ¤ë Ĭĺ
í ĽĦ
ĵ °
Ġì ľ
ìĿ¸ë į°
Ķ °
ëĭ ¬
ë° Ķ
ħ Ģ
Ķ Ķ
ê° ľ
ëĬĶ ê²Į
ĠìŀĪ ìĸ´
íķĺë ĭ
Ġê° Ģë
ł ¤
Ġí ĥĢ
ŀ ĳ
ì° ¨
ĠìĪ ĺëıĦ
ë Ĳ
ë ĦĪë¬´
ìŀ ĳ
ëĭ¤ ê³ł
Ġì° ¾
Ġìĸ´ëĸ »ê²Į
ê¾ ¸
ìĿ´ ëĦ¤ìļĶ
ì¡ °
ë įĶ
ìļ ¸
ìĤ¬ëŀ Į
© ëĭĪëĭ¤
í Ħ
Ġë§ ŀ
ĠìĿ ¸
ìĸ µ
íĬ ¸
ë Ī
ê² ¨
Ġë§Į ëĤĺ
í Ĺ
ĠëĤ ł
ìķ¼ ì§Ģ
ë ĵł
ĳ ľ
Ġê° Ĳ
íķł ê¹Į
ê »
Ġë ¬¼
ì§ ľ
Ġíĸ Ī
ĠìĨ Į
Ġ íķĺê³ł
ìĸ´ ë³´ìĦ¸ìļĶ
ê³ Ħ
Ġìĭ «
íĶ Ħ
ì¹ ĺ
Ģë ¹Ħ
ĠìĹ° ìķł
Ġê´ Ģ
ĩ ê²Į
Ġë° ©
Ġê²ĥ ëıĦ
íĹ¤ìĸ´ ì§Ħ
Ġì ²
ĠìķĦ ëĭĪ
Ġìĺ ¤
Ġíĸ ī
ë¯ ¼
ìĿ´ ëĿ¼
ëĤ´ ê°Ģ
ë² ķ
ìĿĢ ëį°
Ġì¤ĳ ìļĶ
ìĦ ±
Ħ¤ ìļĶ
ëĭ µ
Ł ´
íķ Ļ
í ĥĢ
Ġì§ Ħ
ìĭľ ê°Ħ
Ġì° ¨
ë§İ ìĿ´
ë ĵľ
Ġ íķĺ
Ĭ ¥
Ġê ¹
ĠìĻ ľ
Ġìĭľê°Ħ ìĿ´
í ŀĺë
Ġëĭ ¹
ëĿ¼ ìļĶ
íĺ Ħ
£ ¨
ëĭ ´
íĦ °
ë ¹Ħ
Ħ ê²ĮìļĶ
Ġì§ Ŀ
ë° ±
Ġë ¹
ìŀĲ ìĭł
ëĵ¤ ìĿ´
¼ ê¹Į
Ġë ıĦ
ì§Ģ ëıĦ
ì§Ģ ë§Į
ì§Ŀ ëĤ¨
Ġë ¹Ħ
ëĭ ¨
ëħ Ģ
Ġì°¾ ìķĦ
Ġìķ ł
ê· Ģ
Ġìĺ ¤ë
ìĥĿ ê°ģ
ìĿ´ ì£ł
ê· ¼
íĺ¼ ìŀĲ
ĵ ¯
ìĿ´ ìķ¼
¬ë Ŀ¼
ìłľ ê°Ģ
ê± ¸
ĠëĬ Ĳ
ìĦ ł
ì§Ģ ê¸Ī
ĠìĹĨ ìĸ´ìļĶ
Ġë¶ Ģ
ê¹Į ì§Ģ
ê±° ìĺĪìļĶ
¿ Ī
ë ĮĢë
ì§ ĳ
Ġë į°
ëĤĺë ĬĶ
ã ħ
ë ģ
Ġì Ľ
Ġì¤ Ģë¹Ħ
ìĿĦ ê¹Į
ê²ł ëĭ¤
ì¹ľ êµ¬ë
Ġë°Ķëŀ Ħê²ĮìļĶ
¼ ìłĢ
íķ´ ìĦľ
ìĭ ¶
ì² ľ
ìĹ° ëĿ½
³ ´
´ ħëĭĪëĭ¤
ë ¬¸
Ġë ħ
Ġí Ŀ
Ġí İ¸
ë³´ ëĭ¤
ĠìĹĨ ëĬĶ
ĠìŀĲ ìĭł
ìłĢ ëıĦ
Ġëı¼ ìļĶ
Ġìłķ ë¦¬
íķ´ ìķ¼
Ġìł ľ
ì² ĺë
ì¤ ĺ
ë§ĪìĿĮ ìĿ´
Ġë°© ë²ķ
ĠìĦł ë¬¼
ë ĳĲ
Ġì į¸
Ġì§ ĳ
ìĽ Ģ
Ġëª °
ëĭ¹ ìĭł
ë¦ ´
§ Į
· ¨
Ġë Ķ°
Ġëĭ¤ ìĭľ
Ġê¸° ëĭ¤
ëª ¨
íĨ µ
Ħ Ī
¼ë ©´
íķ´ ì£¼ìĦ¸ìļĶ
ìł Ĳ
ìł ł
ê¸ ´
ĠìŀĪìĿĦ ê¹Į
ì ³
ìļ ©
ìĹĲ ëĬĶ
ëĭĪ ê¹ĮìļĶ
ëĿ¼ ê³ł
íģ ¼
Ġìľ Ħ
Ġí Ķ
êµ Ĳ
ê² ĥ
ìķ¼ ê¸°
ĠìĿ´ ìķ¼ê¸°
Ġë ©
ì§Ģ ëĬĶ
Ġí Ĺ
Ġê³ Ħ
Ġì° ¸
Ġì¶ Ķ
Ġíĸī ë³µ
Ġí ĥ
ì ¼
Ġ íķĺì§Ģ
¸ë ¦¬
Ġì¤ Ħ
ìĸ ¸
ë Ń
Ġë ĺĲ
Ġì¢ĭìķĦ ìļĶ
ìłķ ë§Ĳ
Ġë³´ ìĦ¸ìļĶ
ìĪ ł
íĶ ¼
ë² Ī
ĠëĲł ê¹Į
¯ ¸
Ĥ ĺë
ë³ ¼ê¹Į
ëĭ¤ ë¥¸
íĨ ¡
ë ¹
ı ¼
ê¸° ê°Ģ
Ġíķ´ ìķ¼
ìł Ī
Īë įĺ
ĠìĻ Ķ
ì§Ŀ ìĤ¬ëŀĳ
ĠìĿ¼ ìĿ´
į ëĭĪëĭ¤
êµ °
ìĽ Ķ
Ġë³´ ê³ł
Ġìĭľ ìŀĳ
Ġë°Ľ ìķĦ
ĠìķĦëĭ Į
ĠíĻ ķ
¬ ìĸ´
° ©
ìĹ Ĩ
ìŀ ł
Ġëı Į
Ġ íķĺìĦ¸ìļĶ
Ġë ĳĲ
íķ ¨
ìŀĲ ê³ł
ĠëĲ ĺë
ĠìķĬ ìķĦìļĶ
Ġë§Į ëĵ¤
íĸĪ ìĸ´
ìģ ľ
ĠìĬ ¤
ìŀ ¡
ë³´ ëĬĶ
Ġìĺ Ī
ì¦ Ŀ
íķĺëĭ ¤
Ġì¢ĭ ì£ł
Ġê³ µ
ì¤ Ħ
Ġê³ł ë¯¼
Ġëĵľ ìĦ¸ìļĶ
¶ ģ
Ġê³ ³
ì² Ń
ĺëĬĶ ëį°
íĮ Į
í Ĥ
í İ¸
ìĿ´ ëŀĳ
íķĺ ê¸°
Ġìĭ ł
ì² ĺ
ë² Ħ
Ġê³ł ë°±
Ġëĵ¤ ìĸ´
± ìłķ
ìŀ Ħ
Ġë§ĪìĿĮ ìĿ´
ê° ķ
ì§ ¸
Ġí ģ
Ġëĭ¤ ë¥¸
ë ĥ
í ĥ
Ġê µ
ì§Ģ ê³ł
ë° °
ĠìŀĲ ê¾¸
Ġë°Ķëŀ įëĭĪëĭ¤
ìĸ´ë ĸ
Ġëĸ ¨
íĹ¤ìĸ´ì§Ħ ì§Ģ
» ¤
¬ë ĬĶ
ëĤ¨ ìŀĲì¹ľêµ¬ê°Ģ
Ġíŀĺë ĵľ
ìĹ° ìķł
Ġê°Ģë Ĭ¥
íķ ©ëĭĪëĭ¤
ëĭ¤ ëĬĶ
íķĺëĬĶ ê²Į
êµ Ń
Ġíŀĺë ĵł
ìĹ¬ ìŀĲì¹ľêµ¬ê°Ģ
ìĶ ©
í ĥĿ
ìŀ ħëĭĪëĭ¤
ìķĦ ì§ģ
ìł ĳ
ê·¸ë Ł°
ìħ ¨
ì ½
Ł ½
Ġì ±
ìĦľ ë¡ľ
ĠìķĮ ìķĦ
Ġë¨¹ ê³ł
ĠìķĪë Ĳ
ë¦¬ë ĬĶ
ê²° íĺ¼
ì Ĥ´
Ġë ¬¸
ìĹ ħ
ë§ Ľ
Ġíķ´ ìļĶ
ë° ľ
ìĻ Ķ
ë¨ ¹
Ġì¡° ê¸Ī
ìĿ´ ìĹĪ
ìķĦ ë¬´
íĻ ©
ìłģ ìĿ¸
Ġìĭ« ìĸ´
ì ĵ°
ìķ ĺë
Ġë° °
ëł ¥
ëł ĩê²Į
Ġê· Ģ
ĠìĥĿê°ģ íķ´ìļĶ
Ġë¶ Ģë
ê» ĺ
ľ ´
ìĿ´ íĬ¸
ëĤĺ ìļĶ
Ġë³ Ģ
íĻĶ ë¥¼
ĠëĨ Ģ
ĠìķĦëĭ Īë
ë ©
í Ĵ
Ġì ĵ°
ë§ ¤
ë³´ ê³ł
Īë ¡ľ
ìĬ ¨
ìĿ¸ ê°Ģ
ìĬ¤ë Ł¬
© ë¶Ħ
ì ī
ĥ ¥
Ġì Ĥ¬ë
ë¯ ¸
Ġì¹ľ êµ¬
Ġëĸ ł
Ġ íķĺë©´
Ł ¼
íķĺ ì£ł
ìľ Ħ
ëª ħ
Ġíŀĺëĵ¤ ìĸ´
Ġë² Ħ
ĳľ íĺĦ
´ íĨ¡
í İ
Ġê°Ļ ìĿ´
ìĪ ĺë
µ ľ
Ĳ ëį°
ê² ¼
Ġì¢ĭ ê²łìĸ´ìļĶ
Ġìł ģ
Ġê± ±ìłķ
ì§Ŀ ëħĢ
Ġìĸ´ëĸ ¨
Ġíķł ê¹Į
³´ ìĦ¸ìļĶ
ìĿ´ ë
¸ë ¦
ìĿ¸ ì§Ģ
ĠìķĬ ëĬĶ
ĠìĤ¬ ê·Ģ
Ġìļ °
íı °
ë ´ĲìļĶ
ì Ĥ¬ë
ĺ ìĿ´
Ġìŀ ĺë
¸ë ¡ľ
ĠìŀĪ ìĹĪ
ê°Ļ ìĿ´
Ġê²° íĺ¼
Ġê°Ĳ ìłķ
ë Ĩ
Ġë Ħ
ì§ Ĳ
ìĺ Ģ
ĠìŀĪ ìľ¼ë©´
ĠìĿ´ ìĥģ
íĺ Ģ
ĠìķĪë ı¼
¶ Ħ
ë ¡
íķĺë Ħ¤
ë§ ī
ĠìķĬ ìĿĦ
Ġë§Ĳ íķ´ë³´ìĦ¸ìļĶ
Ġëª° ëĿ¼ìļĶ
ĠíĶ ¼
ì ±
ì Ĥ
ì¹ ¨
ë¦ Ħ
ë° ©
ëĤ¨ ìŀĲ
ëı Ī
Ġì§Ħ ì§ľ
Ġìŀ ł
ê°Ģ ëĬĶ
íĺ ¸
ì¡ ±
Ġê·¸ë Ł´
ĠìĦ ľ
Ġë§ĪìĿĮ ìĿĦ
Ġë¯ ¸
Ġê´Ģ ìĭ¬
ì¼ ľ
ìŀ ¬
ĠëĪ Ī
ë ĦĪ
ìŀ Ĭ
Ġëĭ µ
Ġë§İ ìķĦ
Ġë¨ ¼ìłĢ
¸ëł Ī
ĠëĨ ĵ
¶ģ ê¸Ī
Ĭ Ĳ
ëĭ¤ ê°Ģ
ê¸° ëıĦ
íķĺëĬĶ ëį°
ĠëĲ Ĳ
ëŀ ĺ
ĠìĦ ±
ì¡Į ìĸ´
ëĪ Ħ
Ġê³Ħ ìĨį
Īë¡ľ ìļ´
¶ Ģ
Ġ 1
Ġë ĵ¯
Ġê ¿Ī
ìķ ½
ìĹ ¬ë
Ġê° Ħ
ìĻ ľ
Ġíķ ¨
ê²łì§Ģ ë§Į
Ġë¯ ¿
Ġìĸ´ëĸ¨ ê¹ĮìļĶ
ë ĺĲ
ê¸ ī
ĠìŀĪ ëĬĶëį°
ŀĺë ıĦ
ĠìĥĿê°ģ íķ´ë³´ìĦ¸ìļĶ
ĠëĤ´ ê°Ģ
íĬ ¸ëłĪ
ĠìĨ į
Ġíĺ ¼
Ġìī ¬
ãħ ł
ì³ Ĳ
Ġíŀĺëĵľ ëĦ¤
ê² ©
Ġìł Ģ
ë° Ľ
Ġë¶ Ħ
ì¶ Ķ
¸ëł ¨
Ġìĸ ¸
Ġì£¼ ìĦ¸ìļĶ
Ġì¹ľ êµ¬ë
ë Ł¬
Ġìŀ ¬ë
íĸ Īëįĺ
ë¶ Ģë
íħ Ĳëį°
íĶ Ī
ìĸ ĳ
ìĺ¤ë Ĭ
¸ëł ¥
ĠëĬĲ ëĤ
ë ķĮ
ì į
į ľ
ëĭĪ ê¹Į
Ġíķ´ ëıĦ
íĺ ķ
ĠíĥĢ ëĬĶ
Ġëĭ¹ ìĭł
ëĮĢë ¡ľ
ëŃ Ĳ
¢ ħ
ª ¨
½ ì§Ģ
í ľ´
Ġì ¦
Ġí ĳľíĺĦ
Ġë§Ĳ ê³ł
Ġë§İ ìĿĢ
ìĹĪ ìĸ´
Ġê·¸ë Ł°
Ġê¸° ìĸµ
ĠíĻ Ķ
ë ´
í Ī
ëĭ¤ ìĭľ
ê¸° ë¥¼
ìĥ Ī
ĠëĤĺë ¥¼
ê°ľ ìĽĶ
ë ´Ĳ
Ġì Ĥ
ëĭ ¬ëĿ¼
Ġí ı
Ġë° ĺ
ĠìĤ¬ëŀĮ ìĿĦ
ĠìĿ´ ìłľ
ì¹ľ ìĿ´
ê±° ëĤĺ
ì° ¸
Ġë§Į íģ¼
Ġë¶ Ī
Ġìłķ ë§Ĳ
ĠìĦł íĥĿ
ĠëĶ° ëĿ¼
í Ŀ
ìķ ĺëĬĶëį°
ĠìĤ¬ëŀĮ ìĿĢ
ĠìĿ´ íķ´
Ġìĺ ¬
ĠìķĬ ìķĦ
íĶ Į
Ġê¸° ë¶Ħ
Ġëı Ļ
ĠëķĮ ë¬¸
ì¶ ľ
Ġíķĺë Ĥĺ
ìŀĪ ëĬĶ
íĽĦ íļĮ
ëĪ Ī
í ĭ
Ł ¬ë
ê° Ī
ìĺ ģ
ìŀĲ ê¸°
ëł Ī
ĠìĿ´ ìľł
Ġìĭ¶ ìĿĢ
Ġê°Ģ ê³ł
Ġê·¸ë ł
ĠëĪ Ħ
íĹ ĺ
Ġëį° ìĿ´íĬ¸
ì²ĺë Ł¼
ĠëıĮ ìķĦ
ª »
ê° ĳ
ìĸ´ ëıĦ
Ġí Į
Ġì¢ĭ ê²łëĦ¤ìļĶ
íĻ ķ
ĠëĬ ¦
¿ Ĳ
Ń ìĥģ
Ġìŀ ¡
ê°Ģ ìļĶ
Ġìķ ŀ
ìĺ ¨
Ġìĭ ¬
Ġê°Ļ ìĿĢëį°
Ġë³´ ëĤ´
ì² ´
ĠëŃ ĺ
íĮ ħ
ìľ¼ ìĦ¸ìļĶ
Ġìĸ ¼
ê²½ ìĵ°
ĠíĽĦ íļĮ
ìĽĢ ìĿ´
Ĥĺë ´ĲìļĶ
íķ´ ì£¼
ĠìĿ´ ëłĩê²Į
ĠìĹ¬ íĸī
ìį¸ ëĤ¨
Ġíķĺë £¨
ìģ ĺ
ì¡° ê¸Ī
íŀĺë ĵ¤
êµ° ìļĶ
Ġì± Ļ
íĬ¸ëłĪ ìĬ¤
íķĺë Ĥĺ
ìĭ ¸
ìĺ ¬
ĠëĲ ĺëĬĶ
Ġëĭ¤ ê°Ģ
ìĤ¬ëŀĳ ìĿ´
ëĤ´ ìĿ¼
Ġìĸ´ë ĶĶ
Ġìĸ´ëĸ ¡
ìłģ ìľ¼ë¡ľ
Ġë² Ī
ìħ Ķ
ł¤ ê³ł
ĠìķĦëĭĪ ìĹĲìļĶ
Ġì§Ŀ ëĤ¨
ë ĶĶ
ì ·¨
ì »¤
ĭ ¤
Ġì¢ĭ ê²łëĭ¤
Ġìĭ ¤
ìĿ¸ ê°Ģë´ĲìļĶ
Ġìĺ Īë
ìĤ¬ëŀĳ ìĿĢ
Ġë°Ķ ëĿ¼ìļĶ
íĸĪ ëĬĶëį°
ĮĢë ¡ľ
Ġê²° ìłķ
Ġê³µ ë¶Ģ
ì± ħ
Ġì ĥ
Ġì ·¨
Ġê ¼
ë³ Ģ
íķĺë Ħ¤ìļĶ
ĠìĿ´ ë
ĠìķĦ íĶĦ
Ġìĸ´ ëł¤
Ġë§Į ëĤ
Ġë§Į ëĤł
ê·¸ë ħĢ
Ġìĸ´ë ķĮ
ë¶Ģ íĦ°
Ġëª¨ë¥´ ê²łìĸ´
ëģ Ŀ
ë Ķ
ì ¢Ģ
Ġìŀ ħ
ëł ¸
ê±° ëĿ¼
ë©´ ìĦľ
ĠëķĮ ê°Ģ
Ġì¹ ´íĨ¡
Ġë¬¼ ìĸ´
Ġê¹ ¨
Ġìĸ¸ ìłľ
´ ìĭ¬
ê ¿Ī
Ĵ Ģ
Ġë ´Ĳ
ì§Ģ ì§Ģ
ì¹ ´
ëĿ¼ ëıĦ
ì¤ Ģ
ìĹ¬ ìŀĲ
ìłĢ ëĬĶ
ìĭľê°Ħ ìĿ´
Ġì°¾ìķĦ ë³´ìĦ¸ìļĶ
íĤ ¤
Ġíĺ¼ ìŀĲ
ĠëĬĲëĤ Į
¡ Ŀ
ë ľ
í ĳľ
Ġì Ħ¤
ĠìĿ ĺ
ì° ©
Ġìĺ ģ
íĻ ľ
ìĪ Ļ
ĠìĹ°ëĿ½ ìĿ´
ì¶ ķ
ìĬ¤ë Ł½
¥ ¸
ë į
Ġë ĵ
ìŀ ¬ë
Ġí Ĩ
ë§ Ŀ
Ģë ŀĳ
ëĤĺë ´Ĳ
Ġê°Ģ ë³´ìĦ¸ìļĶ
Ġê·¸ë ħĢ
ê´ ľì°®
Ġìľ ł
ìĿ´ëĿ¼ ëıĦ
Ġì µľ
ìĿ´ ëĤĺ
ìĿ´ ìłł
¸ë ŀĺ
ê¸° ëĭ¤
ĠìĥĿ ê²¼
ĠìķĦ ì§ģ
ëĤ¨ ìŀĲì¹ľêµ¬
ĠìĥĿê°ģ íķ´
Ġë§Į ëĤĺë
ìĶ ¨
ì¦ ĺ
ìĥ Īë¡ľìļ´
ĠìĽ Ĳ
ìĤ °
ì ©
Ġê ¶ģê¸Ī
Ġí ĭ
Ġì¢ĭ ê²łìĸ´
Ġìĭ ¸
ĠìĪ ľ
ë¦¬ ê°Ģ
íĻ ĺ
ê·¸ë Ł´
ĠìĤ¬ ìĿ´
ì§ģ ìłĳ
ì¶ ©ë¶Ħ
ë¨ ¸ë¦¬
ê°Ļ ìĿĢ
ëĲ ĺ
Ġíķ¨ ê»ĺ
ê ¼
Ġ 3
ìķ Į
ì§Ģ ìļĶ
ëĿ ¼ë©´
ë¦¬ ìĦ¸ìļĶ
Ġê°Ģ ëĬĶ
ìĹ¬ íĸī
ì¹ľêµ¬ ê°Ģ
Ġê·¸ ë§Į
Ġíĺ Ħ
» Ĳ
ì§Ģ ë§ī
Ġìķ ½
íķĺë £¨
ĠìŀĪ ì£ł
êµ ´
ĠìķĦ íĮĮ
ì§Ħ ì§ľ
íĻĶ ê°Ģ
ë¨ ¼ìłĢ
ê°Ĳ ìĿ´
ĠìĹ¬ìŀĲ ìķł
ìķĺ ìĸ´ìļĶ
Ġë¬¼ ìĸ´ë³´ìĦ¸ìļĶ
´ìĭ¬ íŀĪ
Ġ 2
ìļĶ ì¦ĺ
ìĿ´ ëĦ¤
Ġí ĴĢ
Ġë§ Ľ
Īë Ħ¤
Ġëĭ ¬ëĿ¼
¤ë ©´
ĠìķĬ ìĿĢ
ê·¸ë ł
ĠìĻ Ģ
Ġìļ ´
Ġì¢ĭìĿĦ ê¹Į
íı Ń
ìĥ ī
ìķĺ ìĸ´
íķĺëĭ Ī
ê±¸ ê¹Į
ìĭ¶ ìĸ´
ĠíĿ ĺë
ìĸ´ëĸ ¤
Ġìŀĺë ª»
Ġì±Ļ ê²¨
ê³ ¤
íķ´ ì§Ģ
ë³´ ë©´
¼ë ¥¸
ìĬ ´
Ġë³ Ħ
Ġìĭ¶ ìĿĢëį°
Ġë§Ĳ ìķĦìļĶ
ìĹ¬ ìŀĲì¹ľêµ¬
ìĶ Ģ
Ġê´ľì°® ìķĦ
ĠëıĦ ìĽĢìĿ´
Ġë¶Ģ ëĭ´
ê²ĥ ëıĦ
Ġì¶Ķ ì²ľ
Ġì į
ëĤ ¬
Ġë§ Īë
íķľ ê°Ģë´ĲìļĶ
Ġë³ µ
ëĤĺë ´ħëĭĪëĭ¤
ĠìĥĿê°ģ ìĿ´
Ġê·¸ë ¦¬
Ġì§Ģ ëĤĺ
ê³µ ë¶Ģ
Ġë§ŀ ëĬĶ
Ġë¹ ł
ëĮĢë °©
Ġëħ ¸ëł¥
Ġì¦ Ĳ
ĠëķĮë¬¸ ìĹĲ
½ ĥ
Ġë įľ
Ġë ¿Ĳ
ìĹ Ħ
ë³ ¸
Ġë§ ī
Ġë§ ĺ
ë¦ °
ĠìķĦ ë¬´
ìĿ¼ ê¹Į
ìĭł ìĿ´
ìĪ ľ
ëł¤ ë³´ìĦ¸ìļĶ
ĠìĤ¬ëŀĳ ìĿ´
ìĹ° ìĿ´
ìĽĮ ìļĶ
Ġë¬´ ìĬ¨
ìľ¼ ëĭĪê¹ĮìļĶ
ĠíĹ¤ìĸ´ ì§Ħ
íĴ į
ìĺ¤ëĬ ĺëıĦ
ë ĳ
Ħ ìłĦ
ĳ ìĽĲ
ĺ ĳ
ëĤ ¼
Ġê° Ī
¸ë ĵľ
ĠìŀĪ ëĤĺë´ĲìļĶ
Ġê² ½
Ġë° ľ
Ġëĭ ¤ë
Ġê°Ļ ìĿĢ
ëĤĺë ¥¼
ëĤĺë §Į
ë¦¬ ê³ł
Ġë§Ĳ íķ´
Ġê°Ģ ìł¸
Ġëĭ¤ ë¥´
ëł¤ ê³ł
ìļ´ ëıĻ
ìĭ¬ íķĺìĦ¸ìļĶ
íĸĪ ëĤĺë´ĲìļĶ
íķĺë©´ ìĦľ
ëª »
Ġì£ ½
Ġë¨¹ ìĸ´
Ŀ¼ ê³ł
ĠëĤ¨ìŀĲ ìķł
ª¨ ëĭ
ìĿ´ ëĬĶ
ê³ł ë¯¼
ëĭ¤ ìĿĮ
íķľ ì§Ģ
Ġë³ ¼
ìĤ¬ëŀĳ íķĺëĬĶ
ìĹ¬ ì¹ľ
ĠìĦ ¸
Ġë¶ Ļ
ëª ¸
Ġê´ľì°® ìķĦìļĶ
ë¦´ ê²ĮìļĶ
ìĸ¸ ìłł
Ġë ´
Ġìŀ Ķ
ìŀĲ ê¾¸
ìĬ ¬
Ġìł Ĳ
Ġíķ´ ë³¼ê¹Į
ĠëĲ ľ
ëĤ¨ ì¹ľ
Ġê³ ¼
ëŀ Ģ
Ġë§Į ëĤĺëĬĶ
Ġë§Ĳ ìĿĦ
ê·¸ë ĥ¥
íļĮ ìĤ¬
ê°Ĳ ìĿĦ
Ġíķľ ëĭ¬
ĠíĹ¤ìĸ´ ì¡Į
ĠëĮĢ íķľ
Ġìī ½ì§Ģ
Ġìĺ¤ ìĦ¸ìļĶ
ì§ĿëĤ¨ ìĿ´
Ġìłľ ìĿ¼
ĠëĦ ĺ
Ġìŀ¬ë ¯¸
ê ¿
ì§ ĵ
Ġê±° ëĿ¼
ê¸° ë¶Ħ
Ġëĭ ¨
ëł ¨
ĠìĪ ł
Ġê°Ļ ìķł
ë§Į ìĹĲ
ĠìĥĿê°ģ ìĿĦ
ì² «
ĠëĤĺ ê°Ģ
Ġê¸ ¸
íĶ Ķ
ìĸ ¼
ĠìĹ°ëĿ½ íķ´ë³´ìĦ¸ìļĶ
ĠìĿ¼ ìĸ´
ĠìĤ´ ê³ł
ê±´ ê°ķ
ìŀĪ ê²Į
íĸī ë³µ
íŀĺë ĵł
ĠíĻķ ìĿ¸
¸ëĵľ íı°
ë ¬
ë Ķ°
ìķ Īë
Ġìŀ ¥
ì£ ¼ë
íĸ ¥
ĠìĤ¬ëŀĮìĿ´ ëŀĳ
ĠìķĦëĭ Ĳ
ìĬ¤ë ¡ľ
ê» ´
Ġì¤ĳìļĶ íķ´ìļĶ
Ġìĺ¤ë ŀĺ
Ġê·Ģ ì°®
ìĬ¤ëŁ¬ ìļ´
ìį ¨
ëľ »
¨ ë¦¬
ë ĵ¯
ìĿ´ ê°Ģ
ëĭ ¬ë
íķĺ ê²łìĸ´ìļĶ
ĠìĹĨ ìĿĦ
êµ¬ ëĤĺ
Ġíķ ©ëĭĪëĭ¤
ĠìĹ¬ ìŀĲì¹ľêµ¬
ìĿ´ë³Ħ ìĿĦ
ĠìķĮ ëł¤
ĠìķĮ ìķĺëĬĶëį°
ê·¸ ê²Į
Ġìĥģ íĻ©
íı ī
ĠíĸĪ ëĬĶëį°
Ġì¤ĳìļĶ íķľ
ì²ĺ ìĿĮ
íĥ ľ
° Į
ê ½ĥ
ģ Ķ
ê° Ķ
ìŀ ħ
Īë ¬¼
ĠìĹĨ ëĦ¤
ìĤ¬ëŀĳ ìĿĺ
ìĹĪ ëĬĶëį°
Ġíķ Ńìĥģ
íĻĶ ìŀ¥
ìłģ ìĿ´
íĬ ¸ë
ë¬´ ìĬ¨
Ġë² Į
Ġìļ ©
ĠìĬ ¬
ĠìŀĬ ìĸ´
ëĲ ľ
ê³Ħ ìĨį
ìŀĲìĭł ìĿĦ
ì¹ľêµ¬ë ŀĳ
Ġíĥ ľ
ĠìĻĶ ìĸ´
Ġíģ °
Ġëĸ¨ ìĸ´
ë§¤ ìĿ¼
ĠìĤ¬ë ĬĶ
ìĪĺë ¡Ŀ
ì¶©ë¶Ħ íŀĪ
íıŃ íĴį
ì ¢ħ
ĩ ´
ìĦ¸ ìĥģ
Īë ĮĢ
ë§Į íģ¼
ë° ĺ
ìĥģ ëĮĢë°©
Ġê·¸ë ĥ¥
ĠìĤ¬ëŀĳ ìĿĦ
ĠìĤ¬ëŀĳ íķĺëĬĶ
Ġëı Ī
Ġì§Ģ ëĤ´
ĠìĹ°ëĿ½ ìĿĦ
ëª ©
ë¥´ ëĬĶ
ĠëĮĢ íĻĶë¥¼
ê°ľ íĮħ
Ġìĺ¤ë Ĭĺ
ë¹ ł
° Ľ
ê°Ģ ê³ł
Ġë§ ¤
ĠìĤ¬ëŀĮ ëĵ¤
ĠìĤ¬ëŀĮ íķľíħĮ
ë¶ Ī
Ġë§Ĳ ìĶĢ
ë§Ī ìĦ¸ìļĶ
ĠìĹ° ìĬµ
Ġì§Ģ ê¸Ī
ë¯ ¸ëł¨
Ġì£ ¼ë
Ġì¡ ´
Ġì¶ ķ
ê²° êµŃ
Ġíĺ ¸
Ġê´Ģ ê³Ħ
ĠìĽ ĥ
ì¹ľêµ¬ë ĵ¤
ĠëĲĺë Ĥĺ
Ġìĭł ê²½ìĵ°
Ġêµ ¬
ìĸ´ëĸ »ê²Į
Ġë¬¸ ìłľ
ìĻĶ ìĸ´
ëł¥ ìĿ´
ìī ¬
ëĭ¬ëĿ¼ ê³ł
ĠëŃĺ ê¹Į
Ġíĭ °
Ġì ´
Ġë Ķ
ĺë ©´
ĺë ¯¸
ê° Īë
ëĤ ¬ë
Ġí ŀĺ
ë§ ¨
Ġê° ĸ
ĠìĹ Ħ
ĠìŀĪ ëĭ¤ë©´
ê¸° ë¡ľ
ëĤĺ ê³ł
Ģë Ł¬
Ġì¢ĭìķĦ íķł
Ġìĭ¶ ìĸ´ìļĶ
įĶ ëĭĪ
Ġë§Į ëĤ¨
ĠëĤĺ íķľíħĮ
Ġëª» íķĺ
Ġëģ Ĭ
ĠëĲĺ ìĹĪ
Ġëª¨ë¥´ ê²łìĸ´ìļĶ
ĠìŀĲìĭł ìĿĦ
ìĹĨ ìĿ´
ì½ Ķ
ì§ĿëħĢ ê°Ģ
Ġê·¸ëł ĩ
ì»¤ íĶ¼
Ġê¼ Ń
ĠíĨ µ
ĠìĪľ ê°Ħ
£ Į
¹ ë³µ
ì ´
Ķ ì§ģ
Ġê ¾
ĠìĿ ¼ë
ì¹ ł
Ġë§Ī ìĭľ
Ġê²ĥ ìĿ´
Ġë³´ ëĬĶ
ê·¸ë ŀĺëıĦ
ìĨ Ĳ
íĹ¤ìĸ´ ì§Ģê³ł
ê±´ ê°Ģ
Ġìĥģ ê´Ģ
ë¦¬ë ¥¼
íı ¬
ĠëĤĺë §Į
ìĺ¤ëĬĺ ìĿĢ
Ġë§ĮëĤĺ ê³ł
ĠìľĦ ë¡ľ
ìģĺ ê²Į
Ġìĸ´ëĸ¡ íķ´
! !
µ ê´Ģ
í ĩ´
ł ¨
Ġì »¤
ìĸ´ ìłľ
¬ë ¦¬
Ġí ļ
Ġë§ Ŀ
ìĹĲ ëıĦ
ìĬ ¹
Ġì§ ģ
ìĽ ł
ë¦¬ ì§Ģ
ë§Ī ëĭ¤
Ġìĸ´ëĸ ¤
Ġì¹ ĺ
Ġìłķ ëıĦ
Ġëª¨ ìĬµ
Ġê±¸ ê¹Į
ĠìĹ¬ìŀĲ ê°Ģ
íģ ¬
ĠìĬ µê´Ģ
íĹ Ī
Ġì§Ŀ ëħĢ
ì²ľ íŀĪ
ĠìĬ¤ íĬ¸ëłĪìĬ¤
ëĥ Ĳ
ĠìĦľ ë¡ľ
Ġëĭµ ëĭµ
Ġëĵ £
ê·¸ëł ĩê²Į
Ġë³Ħ ë¡ľ
ìĹĦ ë§Ī
ĥ Ĳ
Ĳ ĺ
Ġê ¿
ì§Ģ ê°Ģ
íķ´ ì§Ī
Ġê° ĳ
Ġê° Ķ
ê¸° ëĬĶ
ê¸° ê¹Įì§Ģ
ê±° ìķ¼
ì° ¬
ĠëĤĺ ìĻĢ
ëł¤ ìļĶ
ìĿ´ë³Ħ ìĿĢ
ë§ĪìĿĮ ìĿĦ
ëıĻ ìķĪ
ĠíĹ¤ìĸ´ ì§Ģ
ê°Ļ ìķĦ
ĠëĤ¨ìŀĲ ê°Ģ
ĠìĿ¸ ìłķ
Ġíĥ Ī
¬ëĬĶ ëį°
Ġì¹ľêµ¬ ê°Ģ
íİ ´
Ġíı ¬
ĠìĺĪë »Ĳ
ĠìĹĦ ì²Ń
Ĥ ¤
ħ ķ
ê³ł ë°±
Ġí Ĥ¤
Ġìĭ Ŀ
ĠìĤ¬ëŀĮ ëıĦ
ĠìĿ´ ìĸ´
ĠìķĦ ëĬĶ
ìĿ¼ ì§¸
ìłķ ìĿ´
ëĤ¨ íİ¸
ì£¼ ëĬĶ
Ġê·¸ë ŀĺ
Ġì§Ģ ì¼ľ
ĠìĤ¬ ìĦ¸ìļĶ
Ġìĭľê°Ħ ìĿĦ
ĠìĤ´ ìķĦ
ĠìĤ´ íİ´
Ġì¶ ©ë¶Ħ
ĠëŃĲ ê°Ģ
ĠíķĺëĬĶ ëį°
ĠìłĦ íĻĶ
Ġë¯ ¸ëł¨
ìķĺ ìľ¼ë©´
Ġíķĺ ì£ł
ì§Ģê¸Ī ëıĦ
ĠíĿ Ĳ
Ġê¸°ëĭ¤ ëł¤
Ġë© ĭ
Ġì¶Ķ ìĸµ
ĠíĻķ ìĭ¤
ìķĦì§ģ ëıĦ
Ġëĭ¤ê°Ģ ê°Ģ
ë Ħ
ĵ Ŀ
Ġë ´ĲìļĶ
ìĿ´ ë©´
ìĹ ĩ
ìŀ Ķ
ë§ ĺ
íķĺ ìĭľ
íķĺ ê²łëĦ¤ìļĶ
Īë °©
ëĤĺ íķľíħĮ
ĠìĤ¬ëŀĮ ëĵ¤ìĿ´
ìĿ¸ ìĥĿ
ë° ¥
ê±° ë¦¬
ìĿ¼ ìĿ´
ì° į
Ġíŀĺë Ĥ´
Ġë°Ķ ë
Ġê¸° ëĮĢ
Ġíķ Ļ
ĠìĹ¬ ì¹ľ
ë§ĪìĿĮ ìĿĺ
ìļ° ë¦¬
¸ëł ¤
Ġë°ĽìķĦ ëĵ¤ìĿ´
ĠìĺĪ ìĿĺ
ë¶Ģë ª¨ëĭ
íĪ ¬
µ ìĪĻ
İ Į
Ĵ ¤
Ġë ĦĪ
ìĿ ĳ
íķ ĳ
ìĿ´ ì§Ģ
ìķ ŀ
ìĸ´ ìĦľ
íķ´ ì¤ĺ
ìł Ģëŀĳ
¸ë ŀĺë
ê¹ Ĳ
ĠëĤ ľ
¼ë ¡ľ
Ġë° ĺë
Ġê· ¹ë³µ
ĠëĤĺ ìĦľ
Ġë§İ ìķĺìĸ´ìļĶ
ì¡ ´
Ġì° į
Ġë°Ķ ê¿
ìĥĿ íĻľ
ìĺ¤ë ŀĺ
ĠëĲĺ ìĸ´
ĠëĲĺ ê¸¸
ê²łì§Ģ ìļĶ
ĠìŀĬ íĺĢ
ë§İ ìĿĢ
Ġì§ĳ ìĹĲ
ì³ ¤
ĠìķĦëĭĮ ëį°
Ġíģ ¬
ĠìķĦëĭĪë Ŀ¼
ìĬ¤ëŁ¬ ìĽĮ
Ġë¯¿ ìĸ´ìļĶ
Ġë¿Ĳ ìĿ´ìĹĲìļĶ
ì »
ĭ Ī
ìĦ ¤
¬ë ł¤
ëĬĶ ì§Ģ
ê¸ Ģ
ĠìŀĪ ëĤĺ
ê· ¹
ëł µ
Ģë ¡ľ
ëĤĺë ıĦ
Ġë§Ī ì£¼
Ġìĸ´ ì©
ĠìķĬ ì£ł
Ġê°Ģ ìŀ¥
ë§Ī ì§Ģë§ī
ĠëĤĺ ìĿĦ
ìŀ¥ ìĿ´
Ġíŀĺëĵ¤ ëĭ¤
Ġíŀĺëĵ¤ ìĹĪ
ìĺ¤ë ŀ
ĠëŃ Ķ
ë§ĪìĿĮ ìĹĲ
ì¶ °
Ġë°Ľ ê³ł
ë¨ ¸
Ġë¬´ ìĭľ
ĠìĿ¸ ìĥĿ
ìŀĲìĭł ìĿĺ
ì§ĿëĤ¨ íķľíħĮ
ëĥ Ī
Ġì¡°ê¸Ī ìĶ©
ì¡°ê¸Ī ë§Į
Ġë§Īë ł¨
Ġë³µ ìŀ¡
Ġë°Ķë Ģ
º ¼
ì µľ
ł Ģ
Ġì ¢ħ
Ġë ĳ
íķ ¸ëĵľíı°
ëĭ¤ ëĭĪ
íķĺ ê¸¸
ĠìĹ ´ìĭ¬íŀĪ
Ġê±° ì£ł
Ġì§ ľ
ëĤĺë ©´
ìĿ¸ ìĹ°ìĿ´
ĠìķĦ íĶĪ
Ġê°Ģ ìĦľ
ê·¸ë ¶Ħ
ĠìŀĲ ì£¼
ë² Į
ëı ¼
ĠìĹ°ëĿ½ íķ´
ìĤ¬ ê·Ģ
Ġë§ĪìĿĮ ìĹĲ
Ġëª¨ ëĳĲ
ê°Ģë ´ħëĭĪëĭ¤
ĠëĤł ìĿ´
ĠëĬĲ ê»´
Ġìłķë¦¬ ê°Ģ
ĠíĶ Ħ
ë§Ľ ìŀĪê²Į
ë¨¹ ê³ł
ìĿ´ìĹĪ ìĿĦ
ë© ĭ
ìĤ¬ë ¥¼
ĠìŀĪìĹĪ ëĤĺë´ĲìļĶ
ĠëĨĵ ìķĦ
ìĹ¬ë ³´ìĦ¸ìļĶ
ê²© ìĿ´
Ġìļ´ ëıĻ
Ġì£¼ë ¬´
Ġíļ Į
· ê°Īë
ë ŀĺëıĦ
Ġì ĵ
Ġë ķ
ìĦ Ŀ
ìŀ ĸ
ìķĦ ì¹¨
Ġí Ħ
ëĤĺ ìģľ
ĠìĪ ĺë
Ġëª ©
Ġëª ĩ
Ġì¢ĭìķĦ íķ´
Ġìĺ ¨
Ġê°Ģ ìĬ´
ë§Ī ìĬ¤
ĠìŀĲ ì²´
ĠìĤ¬ëŀĳ íķľ
ìĸ ¼ë¥¸
Ġíŀĺëĵ¤ ê²Į
ĠìķĮ ê²Į
ê°Ģë ´Ĳ
ìļ° ëĬĶ
íĹ¤ìĸ´ ì§Ģ
ìĨĮ ê°ľíĮħ
ĠíķĦìļĶ íķľ
Ġì¡° ìĭ¬íķĺìĦ¸ìļĶ
Ġíĸī ëıĻ
íĺĦ ìĭ¤
ëĭ¹ìĭł ìĿ´
ĠìľĦ íķ´
Ġë§Įëĵ¤ ìĸ´
Ġëĭ¤ë ħĢ
ìĸ¸ìłł ê°Ħ
Ġëª»íķĺ ê²łìĸ´
¹ ł
ë įĺ
Ġë ľ
íķ Ħ
ìļ ķ
ìĿ´ ê³ł
ìķ ħ
ìĹ Ń
ìķĦ ìĦľ
ê°Ģ ì¡±
ë§ Īë
Ġê° ľ
ĠëĤ «
ìķ¼ ì£ł
ìķ¼ ê²łëĭ¤
ĠìĿ´ ê²¨
Ġìł ĳ
ë° ¤
ĠìĹĨ ìĿ´
ê±° ìļ´
ëŀ Į
ìĪ Ń
ĠëĤĺ ìĺ¤
íĸĪ ìĸ´ìļĶ
ìĿ´ë³Ħ íĽĦ
ë¥´ ê³ł
ë¨ ¸ë¦
ê°Ĳ ê¸°
ĠëĲĺ ì§Ģ
ĠëŃĲ ìķ¼
ĠìłĦ ìĹĲ
ì¤ĳ ìĹĲ
ĠíĸĪ ìĸ´
Ġì§Ŀ ìĤ¬ëŀĳ
Ġë¹ ¨ë¦¬
ëĭ¹ìĭł ìĿĺ
ìĸ¸ ìłľ
ìŀł ìĭľ
ĠëĳĲ ëł¤
Ġê³³ ìľ¼ë¡ľ
íĤ ¨
íİ ĺ
ìĿ´ë Ł°
Ġìĸ¼ ë§Ī
Ġë¨¹ìĸ´ ìķ¼ì§Ģ
ì§ĵ ë§Ĳ
Ġì£¼ë¬´ ìĦ¸ìļĶ
ë ĸ
Ġì Į
ìĿ´ ìĥģ
ìķ ¼ë
Ġìŀ ¬
íķľ ê²Į
íķľ ëį°
¼ë ¦¬
Ġê² ¬ë
ì¹ ´íĨ¡
Ġíķ´ ì£¼ìĦ¸ìļĶ
ĠìĹĨ ì£ł
Ġìĭ¶ ëĦ¤ìļĶ
ìłķ ìĭł
ĠìĥĿê°ģ ëĤĺ
Ġë³´ ë©´
Ġë³´ ìĹ¬
Ġê°Ģ ì§Ģ
Ġëĭ¤ ë¥¼
ĠëĤĺ ìķĦ
Ġë§İ ìķĦìļĶ
ëĵ¤ ìĿĢ
ëı ħ
ĠìĹ°ëĿ½ íķĺê³ł
Ġê´ ´
ìłĦ íĻĶ
ĠìĤ¬ ê·
ĠìĤ¬ ì§Ħ
ìĬ¤ íĬ¸ëłĪìĬ¤
ë¯ ¿
ì§ģ ìŀ¥
ê°Ĳ ìłķ
Ġìļ ķ
ëĤł ìĶ¨
Ġìĸ ĺ
ĠëĤĺë Ī
ĠíķĦìļĶ íķ´
ĠíķĦìļĶ íķ´ìļĶ
Ġê´ľì°® ìĿĦê¹Į
ìł¸ ìļĶ
Ġìī ¬ìĸ´
Ġì² ľ
ìĿ´ëĿ¼ ê³ł
Ġë¹ Į
ìķĺë Ĥĺë´ĲìļĶ
ĠìķĬìķĦ ëıĦ
Ġê·¸ëł ĩê²Į
Ġë§ĮëĤ ¬ìĸ´
Ġìĺģ íĻĶ
Ġìµľ ê³ł
íĻĺ ìĬ¹
Ġê°Ģìł¸ ë³´ìĦ¸ìļĶ
Ġíŀĺ ìĿ´
© ìłĦ
¬ ìľ¼ë©´
Ġë ĥ
Ġë ĮĢë¡ľ
Ġìŀ ĳ
ê°Ģ ìĦ¸ìļĶ
Ġí Ĭ
ë§ ŀ
ê²ł ìĬµëĭĪëĭ¤
ì¹ Ń
ë¦ ¼
ëĤĺë Ħ¤
ìĭľ ìĽĲ
ĠìĹĨ ëĦ¤ìļĶ
Ġì¢ĭìķĦ íķĺê²Į
ìĿ¼ ìĿĦ
Ġìĺ ·
Ġì° ©
ìĭ¬ ìľ¼ë¡ľ
íĸĪ ìľ¼ë©´
ĠëķĮ ê¹Įì§Ģ
ĠìķĮ ë°Ķ
Ġê±´ ì§Ģ
Ġì¤ĳ ìĹĲ
Ġë¬´ ìĦľ
ĠíĹ¤ìĸ´ ì§Ĳ
ì¦ Ĳ
Ġì£¼ ëĬĶ
Ġì¤ĳìļĶ íķĺì§Ģ
íķĻ êµĲ
ĠëıĦ ìĻĢ
Ġìķł ê°Ģ
ì²ľ ì²ľíŀĪ
ìĽĢ ìĿĦ
Ġë© Ģ
ĠíĹ ·ê°Īë
ìķĦë¬´ ëŀĺëıĦ
Ġë¶Ģë ¶Ħ
ìŀ¬ íļĮ
Ġìŀ¬ë °Į
íĭ °
íķ´ì£¼ ëĬĶ
ì¶ķ íķĺ
ìĬ¤ëŁ½ ê²Į
ĠíĺĦ ìĭ¤
Ġìį ¨
ĠíĻķìĿ¸ íķ´ë³´ìĦ¸ìļĶ
Ġê·Ģì°® ìķĦ
ĠìĤ´íİ´ ë³´ìĦ¸ìļĶ
ĠìĺĪìĿĺ ê°Ģ
? ?
¯ ¤
¼ íķĳ
í į
í ĥģ
ĩ ¼íķĳ
ĸ ìĹĲ
ìĿ ¼ë
ìĿ´ ëłĩê²Į
ìĸ´ ë¨¸
íķ´ ìķ¼ì§Ģ
íķĺ ê²łì£ł
Īë Ħ¤ìļĶ
ì£ ½
ĠìĿ ½
ĠìĿ ĺë¯¸
ì¹ ĺë
Ġë° ¥
ĠìĥĿ ê¸¸
ë° Ģ
ìĭł ê²½ìĵ°
ĠìķĪ íķ´
Ġë°Ķ ëĿ¼
ĠìĤ¬ëŀĳ íķ´ì£¼ìĦ¸ìļĶ
ëħ Ĳ
ĠìĻ ĦìłĦ
Ġíŀĺëĵ¤ ì£ł
ìĿ´ë³Ħ ìĿ´
ìĿ´ë³Ħ íķľì§Ģ
Ġë¨¹ ìľ¼ë©´
Ġë°Ľ ìĿĦ
Ġë² ķ
ê±´ ì§Ģ
Ġìĥģ ëĮĢ
Ġìĥģ ì²ĺë
ìĸ´ë ĬĲ
Ġëĵľ ëĬĶ
ìľ¼ ëĭĪ
ë°Ķ ëŀĮ
Ġì² «
Ġì² Ļ
Ġì² Ń
Ġìłľ ê°Ģ
ëª¨ ëĵł
ĠíĹ Ī
Ġê³łë¯¼ ìĿ´ìķ¼
ĠìķĪëĲ ĺëĬĶ
ë© Ķ
ĠìĤ¬ê·Ģ ëĬĶ
ãħł ãħł
Ł¬ë ©´
ĠíĮ Į
ĠëĬ¦ ì§Ģ
Ġìķŀ ìĹĲ
ĠíĿĺë łĢ
ĠëĤ¨ìŀĲìķł ê°Ģ
ëĤ¨íİ¸ ìĿ´
ìĺ¤ëŀ ľ
Ġì§ľ ì¦Ŀ
© °
¯ ¼
½ ê²Į
ë ĺĳ
ë £Į
ì ¯¤
Ġ .
ìĦ Ń
¬ë §
ìĭ Ń
ì£ ¼ë©´
ê¸° ë§Į
ê¸° ìĸµ
ê²ł ëĦ¤
ëł ¤ë
Ġì§ Īë
Ġê°Ļ ìĬµëĭĪëĭ¤
ĠìķĦ íĶĶ
ĠìĹĨ ëĭ¤ë©´
Ġë§Ī ìħĶ
ĠìķĬ ê³ł
ìĤ¬ëŀĳ ìĹĲ
ìĤ¬ëŀĳ íķľ
ì¤ Ģë¹Ħ
ìĥģ ì²ĺ
ìĻ ¸ë¡ľ
ìĹĪ ëĤĺë´ĲìļĶ
íĶ ¼ë
ìļ´ ëªħ
Ġìŀĺ íķĺëĬĶ
ëı Į
Ġíŀĺëĵ¤ ìĸ´ìļĶ
ë¶Ģ ëĭ´
Ġìļ Ķ
ĠëĨ ĢëŁ¬
ë¦¬ë ©´
Ġì£¼ ë§Ĳ
ìħ ĺ
ĠëĪ Īë¬¼
ĠíĥĢ ê³ł
Ġê´Ģ ë¦¬
ìĿ´ëĿ¼ ëĬĶ
ìĦ± ê³µ
Ġë¹Ħ ìĭ¸
Ġë¶Ģ ì¡±
Ġíİ¸ ìĿ´
ĠìŀĲìĭł ìĿ´
ëĭ¹ìĭł ìĿĢ
Ġíĸīë³µ íķ´
ĠìķĦëĭĮ ì§Ģ
Ġê³³ ìĿ´
ĠìķĪëĲ ĺ
ìĤ¬ë ĬĶ
Ġê°Ĳìłķ ìĿĦ
ĠíĶ¼ ê³¤
ìĺ¤ëĬ ĺë
ë´ Ħ
Ġìĸ¸ìłľ ëĤĺ
ĠìĦ¤ ëłĪ
Ġë¶Ļ ìŀ¡
ìĬ¬ íĶĪ
ìķĪë ħķ
Ġíĥľ ìĸ´
ĠëĶ ±
ëĤ¬ë Ħ¤
Ġê·¸ëŀĺ ìļĶ
ê ¶ģê¸Ī
ë Ł½
ì ĵ
Ĳ ìĸ´
ĵ ê³ł
Ġì Ķ
Ġë ´ħëĭĪëĭ¤
íķ Ńìĥģ
ê² ¬
ìĹ ĪëĦ¤
ê°Ģ ëĦ¤
ê³ł ìĥĿ
Ġì¢ĭ ê²łì£ł
ĠëĤ ĺëĬĶ
ĠìĿ Į
ëĤĺ ì¤ĳìĹĲ
Ġëĭ ¬
Ġëĭ ´
Ġì§ Ī
ìĽ ĥ
Ġíķ´ ë´ĲìļĶ
ĠìĥĿ ìĿ¼
Ġìĸ´ ëłµ
Ġê°Ģ ìĦ¸ìļĶ
ì² Ļ
ëĤ´ ê³ł
ìĻ ¸
Ġìĭľ ì¼ľ
ëħ ¸
ëħ ¸ëł¥
Ġìŀĺ íķł
Ġìŀĺ íķĺê³ł
ìĭ¬ ìĿĦ
ëĮĢ ìļĶ
ìļ° ë©´
Ġì¤ĳ ìĿ¸ëį°
íĹ¤ìĸ´ ì§Ĳ
ĠìĨ Ĳ
ĠìĨ Ķì§ģ
ë¨ ¼
ëĭ¹ íŀĪ
ĠëĨ Ĵ
ĠìŀĪëĬĶ ì§Ģ
Ġì¢ĭìĿĢ ëį°
ìľł ê°Ģ
ëĲ ł
ìĤ¬ëŀĮ ìĿĢ
Ġê¹ Ĭ
ãħ İ
ëģ ¼
ìĭ¶ ëĭ¤
ĠíĿ Ķ
ĠíĹ ¤
íķ¨ ê»ĺ
ĠëĲĺë Ħ¤
ĠëĲĲ ìĸ´
¶Ģ íĦ°
ì¶Ķ ìĸµ
Ġê¸°ë¶Ħ ìĿ´
ĠìĿ´ìľł ê°Ģ
íĻķ ìĭ¤
Ġìĸ¼ êµ´
ëĶ ±
ĠìĹ¬ìŀĲìķł ê°Ģ
ĠíĹ¤ìĸ´ì¡Į ìĬµëĭĪëĭ¤
ëĶ° ëľ»
ĠìķĮëł¤ ì¤ĺ
Ġì¡´ ì¤ĳ
Ġê°ĳ ìŀĲê¸°
ìŀĸ ìķĦìļĶ
íį ¼
» Ķ
Ģ ìĿ´
Ĳ ľ
Ł ģ
Ġë ĺĳ
ìĿ´ ë²Ī
ìĸ´ ìķ¼
ìĹ Ķ
ìĹ ´ìĭ¬íŀĪ
íķ´ ì§ĢëĬĶ
ê°Ģ ë¥¼
íķĺë įĺ
ê¸ Īë°©
¸ë ¥¼
ë³´ ëĬĶê²Į
íķľ ë²Ī
ìŀĲ ëĬĶ
ìŀĲ ìĹ°
ĠìĿ ĳìĽĲ
ĠìĿ µìĪĻ
ê¸° ìĦ¸ìļĶ
ìĿĮ ìĿ´
Ġíķ´ ìĦľ
Ġë§Ī ìļĶ
ìĭł ê°Ģë´ĲìļĶ
ĠìķĬ ê¸¸
Ġë§Ĳ ìĿ´
ĵľ ë¦´ê²ĮìļĶ
ĠëĤĺ ìģľ
Ġê¸ ´
ë¡ľ ë§¨
ìĥģ ëĮĢ
ìĥģ ìĿ´ìĹĲìļĶ
ìĻ ĦìłĦ
Ġìĸ´ë ĬĲ
ĠìŀĲ ìĹ°
ë² ½
ë² ł
ìĭ¬ ìĿ´
ĠëĤ¨ ì¹ľ
ĠëķĮ ëıĦ
Ġì¹ ´
ê°Ģë ģĶ
Ġíķĺë ĭ¤
Ġíķľ ë²Ī
Ġìļ ¸
ĠìĿ´ë³Ħ ìĿĦ
ĠìĿ´ë³Ħ ìĿĢ
Ġê·¸ ê²Į
ìĭĿ ìĿĦ
Ġë¬¼ ìĸ´ë
Ġìĭ« ëĭ¤
Ġíķĺ ìħ¨
Ġê¹ Į
ìĥĿê°ģ ìĿĦ
ì§Ģê¸Ī ìĿĢ
Ġëį° ëł¤
ëª¨ ë¥´ëĬĶ
ëĿ¼ê³ł ìļĶ
ì¤Ħ ê¹Į
Ġìĭł ê²½
Ġë³Ģ íĻĶê°Ģ
ìľĦ ë¡ľ
ĠìķĬëĬĶ ëĭ¤ë©´
Ġìļ° ìļ¸
Ġê´Ģìĭ¬ ìĿ´
ĠëĪĪ ìĿĦ
Ġê°Ħ ëĭ¤
Ġìī¬ ìļ´
ĠìĤ ¶
íĭ ±
ìĺģ íĻĶ
ĠëĪĦ êµ¬
ëĶĶ ìĸ´
ì±ħ íķĺì§Ģ
Ġìĸ´ëł¤ ìĽĮ
ëį §
ĠíĹ¤ìĸ´ì§Ħ ì§Ģ
ĠìķĦëĭĲ ê¹ĮìļĶ
Ġìĭłê²½ìĵ° ì§Ģ
ìī¬ ìļ´
ë ĵ
Ġ 5
Ŀ ¼ë©´
Ġì ½
ìĿ ĺë
íķ ĦìļĶ
ìĿ´ ë°
ì§ §
ì§ Īë
ê² ģ
íķ´ ì¡Į
íķ´ ìł¸
ìķĦ ë³´ìĦ¸ìļĶ
ê°Ģ ìĬ´
Ġí İ
ë³ ¼
íķĺë ł¤
íķĺë Ĥĺë
ĠìĹ ´
ĠìŀĪ ìĬµëĭĪëĭ¤
ê¹ Ŀ
íķľ ê±°
ìŀĲ ë¦¬
Ġê±° ê¸°ê¹Įì§Ģ
ĵ¤ ìĸ´
ìķ¼ íķł
Ġë³ ¼ê¹Į
ĠìķĦ ì¹¨
ì° ½
Ġê²ĥ ìĿĦ
Ġìĸ´ ìļ
Ġëĭ¤ íĸī
ê·¸ë ¦¬
ìĽĮ ì§Ī
ìłĦ íŀĪ
ìĬµ ê´Ģ
ìĿ´ë³Ħ ìĿĺ
ĠìķĮ ê³ł
ĠìĿ¼ ì°į
Ġíĸ ¥
ìĬ¤ íĥĢ
Ġëª» íķĺëĬĶ
Ġë°Ľ ëĬĶ
ìŀĺ íķł
Ġë°Ķëŀ Į
Ġìĸ ¼ë¥¸
ĠíĽĦ íıŃíĴį
Ġë§ŀ ì¶°
Ġë§ĮëĤĺ ì§Ģ
ĠìĨĮ ì¤ĳ
ëĭµ ëĭµ
íŀĺë Ĥ´
ë¹Ħ ê°Ģ
ìĥĿê°ģ ìĿ´
ìĥĿê°ģ ë³´ëĭ¤
ì§ĳ ìĹĲ
ãħ ľ
Ġëħ ¸ëŀĺ
ìŀł ê¹Ĳ
ĠìĬ¤ ìĬ¤ë¡ľ
Ġë¬¸ ìłľê°Ģ
ë§Ľ ìŀĪëĬĶ
Ġë²Ħ íħ
ĠìĤ¬ê·Ģ ê³ł
ë¡ Ŀ
Ġìī¬ ê³ł
Ġëĭ¹ìĭł ìĿĦ
Ġìĥ Īë¡ľìļ´
Ġë¬¼ìĸ´ ë³´ëĬĶ
ĠìłĲ ìłĲ
Ġë°ĽìķĦëĵ¤ìĿ´ ëĬĶ
ĠëŃĶ ì§Ģ
Ġìŀ¬ íļĮ
ë¡ľë§¨ íĭ±
ìĿ´ë° į
¶ Į
¸ ìĹħ
í ĳ
Ġ 6
į ¤
ı Ļ
ìĿ´ ìĸ´
ìĿ´ ëĭ¤
ìĹ ¼
íķ´ ì¤
íķ´ ë´ĲìļĶ
Ġí ľ´
Ġë§ ¨
ê²Į ìŀĦ
ë³´ ìĹ¬
ëĤĺ ìĿ´
ëĤĺ ìĦľ
Ġê°Ļ ëĦ¤ìļĶ
Ġíķ´ ê²°
¤ë į¤
Ġë§Ī ì§Ģë§ī
ìĭł ê²½
Ġê²ĥ ë³´ëĭ¤
ĠìķĬ ìķĺìľ¼ë©´
Ġë§Ĳ íķĺìĦ¸ìļĶ
Ġê°Ģ ê¸°
Ġê°Ģ ì§Ģê³ł
ìĤ¬ëŀĳ ìĿĦ
ĠìķĪ ëĤĺ
ëĵ¤ ìĿĦ
ì§Ħ ìłķ
ê·¸ë ŀĺ
ĠìĤ¬ëŀĳ ìĿĢ
ĠìĤ¬ëŀĳ íķĺê³ł
Ġê¸° íļĮ
íĸĪ ëĭ¤
ĠìĹ°ëĿ½ íķ´ëıĦ
ìĥĿ ëĭ
ĠìĻ ¸ë¡ľ
ĠëĤ¨ ìŀĲì¹ľêµ¬
ĠìĤ¬ëŀĮìĿ´ ëĦ¤ìļĶ
ĠìĿ¼ ìĿĢ
ìĬ¤ ìĬ¤ë¡ľ
Ġìłķ ìĭł
Ġì¢ĭìķĦíķĺëĬĶ ê²Į
Ġëª» íķ´
Ġê³ł ìĥĿ
Ġë¨¹ ìĿĦ
ìļ° ê³ł
Ġë² Ĺ
ĠëĬ ¥
ìĺ¤ ìĦ¸ìļĶ
Ġëª¨ë¥´ ëĬĶ
ĠìŀĬ ì§Ģ
ĠìŀĬ ëĬĶ
Ġê°Ģë ©´
ĠìĨĮ ìĭĿ
ìĦ± ìĿ´
Ġë°©ë²ķ ìĿ´
ì¼ Ģ
ëŃ Ķ
ëŃ ĺ
ìĹĨ ëĬĶ
ë²Ħ ë¦¬ìĦ¸ìļĶ
Ġëĸ¨ ëł¤
ë¡ Ń
ĠìĦ± ê³µ
ìį ¸ë
ê°ĳ ìŀĲê¸°
Ġìĭ¤ ìĪĺ
ĠìĺĪë ¯¼
ĠìĿ´ë Ł°
ëĶ ©
ì¤Ģ íŀĪ
ê´ľì°® ìĿĢ
ê¼ Ń
Ġìķ½ ìĨį
Ġê²½ ìļ°
ëĭ¤ìĿĮ ìĹĲëĬĶ
Ġë´ ¤
ì´ Ī
Ġê¾ ¸
íĩ´ ê·¼
Ġê¿ ¨
ĠíŀĺëĤ´ ìĦ¸ìļĶ
ĠìĮ ĵ
ĠíĹ¤ ìķĦ
¦ Ħ
ê º¼
ë Ĭ¥
Ġ 4
Ħ ìĥĪ
Ń ìłľ
Ġì ĥĢ
ìĿ´ ê¸¸
ìĿ´ ëĵł
ìĿ´ íĬ¸ë
ìĹ ´
ìŀ ĺë
ê°Ģ ì§Ģ
Ġí ħ
íķĺë ł¤ê³ł
ĠìĹ ¬ë
ĠìŀĪ ëĦ¤ìļĶ
ĠìŀĪ ê²łìĸ´ìļĶ
ĠìŀĪ ëĤĺìļĶ
ĠìŀĪ ìŀĸìķĦìļĶ
íķľ ëĭ¤
íķľ ëĭ¬
Īë ²
ëĭĪ ê°Ģ
ëį° ìĿ´íĬ¸
ĠìĤ¬ëŀĮ ìĹĲ
Ġì§ §
Ģë ħ
Ġëª ¸
ĠìĥĿ ê¸°
ìĭľ ì¼ľ
ìĭľ íĹĺ
ì£¼ ê³ł
ì£¼ ìĿ¼
ì£¼ ë§Ĳ
ì£¼ ë³Ģ
ëŀ Ĳ
Ġê± ¸ë¦
Ġë§Į ëĤľ
Ġë³´ ì§Ģ
Ġë³´ ëŁ¬
Ġê°Ģ ìķ¼ì§Ģ
ì² ł
ìĪ ¨
ĠëĤĺ ìĺ¨
ê·¸ë Ł¬
ìľ¼ë©´ ìĦľ
Ġë¨ ¸ë¦¬
ìĭ¬ íķ´
ìŀ¥ ìĿĦ
ìĤ¬ ê°Ģ
ìĬ¤ ë§ĪìĬ¤
Ġëª¨ ëĵł
Ġì£ ¼ë©´
ìļ° ìĤ°
Ġë°Ľ ìķĺìĸ´
íĹ¤ìĸ´ ì¡Į
ìķĪ íķ´
ĠëĲĺ ê³ł
ê·¸ ê±´
ĠíķĺëĬĶ ê²Į
ìĺ¤ ëĦ¤
ìľł ë¥¼
Ġê°Ģë ģĶ
ì°¨ ëĭ¨
ĠìĿ¸ ìĹ°
ĠìĨĮ ê°ľ
ì¹ĺ ê°Ģ
Ġì² ĺ
Ġìĺ¤ ëĬĶ
ëĭµ ëĭĪëĭ¤
Ġì°¨ ëĭ¨
ĠëıĦ ìłĦ
ì§ĿëĤ¨ ìĿ´ëŀĳ
Ġì¤Ģë¹Ħ ê°Ģ
Ġëħ ¸ëŀĺë
Ġì§ĳ ì°©
Ġë© Ī
Ġë°ĽìķĦ ëĵ¤
íķ¨ ìĿ´
ĠìĬ¤ íĥĢ
ì²Ń ìĨĮ
Ġêµ ¬ë
Ġì± Ħ
Ġë°° ìĽĮ
ìī ½ì§Ģ
ìľĦ ê¸°
ì§ĿëħĢ íķľíħĮ
ĠìĿ´ìĥģ íĺķ
ĠìķĬìĿĦ ê¹ĮìļĶ
Ġì¹ľêµ¬ë ¥¼
Ġëĭ¹ìĭł ìĿĺ
Ġì¦ Ŀ
ĠìĤ Ńìłľ
Ġìĸ´ëł¤ ìļ´
ëł¸ ìĸ´
Ġê·¸ëħĢ ë¥¼
Ġë§ĮëĤĺë ³´ìĦ¸ìļĶ
Ġë§Ľ ìŀĪ
Ġê·¸ë¦¬ ê³ł
Ġì£½ ìĿĦ
íĻĶìŀ¥ ìĭ¤
Ġê°ĸ ê³ł
Ġíı¬ ê¸°
ë¶Ģëª¨ëĭ ĺ
Ġìĸ´ì© Į
ĠíĦ °
íĤ¨ ìĭŃ
¨ ëĶ©
° ķ
ë İĮ
ì ª
Ĥ ĺëıĦ
Ł ī
ł ¤ë©´
ëĤ ¬ìĸ´
ê³ §
ëĬĶ ê±°
íķĺë Ĥĺë´ĲìļĶ
ìĭ «
ê¹ ¨
Ġì¢ĭ ëĭ¤
ê¸° ëĤ´
ê¸° ëĮĢ
ĠìĤ¬ëŀĮ ìĹĲê²Į
ĠìĤ¬ëŀĮ ê³¼
ĠìĪ ¨
Ģë įĺ
Ġë³ ¸
ìĿ¸ ê±°
ìĿ¸ ê°Ģë´Ĳ
ìĭľ ë©´
ìĭľ ê¸¸
Ġì¢ĭìķĦ íķľ
ìłķ ë¦¬
ĠìĥĿê°ģ íķł
ĠìķĪ íķĺê³ł
ìĥģ íĻ©
ìĹĪ ëĭ¤
ëħ ¸ëŀĺ
Ġë¶ Īë
ìĤ¬ ì§Ħ
ëª ĩ
Ġë§ĪìĿĮ ìĿĺ
ĠìĿ¼ ìĿĦ
ĠìĿ¼ ìĿ´ìĹĲìļĶ
íļ į
ê°Ģë Ĭ¥
Ġíķĺë ĤĺëıĦ
ìķĪ ê²½
íĨ ł
ĠëĲĺ ê²łëĦ¤ìļĶ
Ġë¬´ ìĹĩ
ĠìķĪë ĵ¤ìĸ´
ìĸ´ë ĵľë¦´ê²ĮìļĶ
ĠëģĿ ìĿ´
ĠëģĿ ëĤ¬
ìľ¼ ìĭľ
ĠíĹ¤ìĸ´ ì¡Įìĸ´
ìģ ĺë
ĠíĻ ĺ
Ġê´ľì°® ìĿĦ
ìĿ´ìłľ ëĬĶ
ìĺ¤ ëĬĶ
ĠìŀĬ ê³ł
íĽĦ íıŃíĴį
ìŀĳ ìĿĢ
ì¡° ìĭ¬íķĺìĦ¸ìļĶ
ìĤ¬ëŀĮ ë§Īëĭ¤
íĦ ´
ĠìĨĮ ë¦¬
ëĵľ ëĶĶìĸ´
Ġíķĺ ê¸°
Ġìķł ëŀĳ
ì¹ľêµ¬ë ¥¼
Ġì§ĳ ì¤ĳ
ìĽĶ ê¸ī
íķĺëĭ¤ ê³ł
Ġë¬¸ ìŀĲ
ìķĦë¬´ ê²ĥëıĦ
Ġë¶Ģë Ł¬
íĴ Ī
Ġìłģ ìĿĳ
ë¦Ħ ëĭ¤
ë°© íķĻ
ĠìĦľ ìļ´
Ġê¿Ī ìĹĲ
ë°Ľ ê³ł
Ġì¹ľêµ¬ë ŀĳ
Ġê·¸ëŁ° ê°Ģë´ĲìļĶ
Ġíı ī
ĠíķĺëĤĺ ìĶ©
íĽĦíļĮ íķĺì§Ģ
íĻķ ìĭłìĿ´
Ġì§ĿëĤ¨ ìĿ´
ëį ¤ëį¤
ìŀ¬ë ¯¸
ĠíĨ ¡
ĠìķĦì§ģ ëıĦ
Ġê¶ģê¸Ī íķ´
íķĺëĭĪ ê¹Į
ìĸ¼ êµ´
ë²Į ìį¨
Ġìĸĺ ê¸°
ĠëĤĺëĪ ł
Ġë¬´ìĦľ ìĽĮ
ì¦Ĳ ê±°ìļ´
Ġë²Ħíħ ¨
Ġë§¨ ëĤł
. .
¦ ¬ë
¸ Į
¿ Į
ì Łģ
í ĳľíĺĦ
ŀ Ģ
íķ ©
ìĿ´ ìļĶ
ê² ¼ë
ìĹ Īëįĺ
ì§Ģ ëĦ¤
Ġí ĳ
íķĺë ĵľ
ë§ ¥
Ġê° ķ
ĠìŀĪ ê³ł
íķľ ëıĻìķĪ
Ġì¢ĭ ì§Ģ
ĠìĤ¬ëŀĮ ìĿĺ
Ġê°Ļ ëĦ¤
ë§Į ëĤľ
Ġíķ´ ë³´ëĬĶ
ìĿ¸ ìĿ´
ĠìĥĿ ê¸´
ĠìĥĿ ê²¼ë
ìĭľ ëĭ¤
ë° ķ
Ġì¢ĭìķĦ íķĺë©´
Ġìĭ¶ ì§Ģ
ëĤ¨ ì¹ľìĿ´
Ġê³ ¨
ì° Į
ĠìĥĿê°ģ íķĺìĦ¸ìļĶ
ĠìĥĿê°ģ ë³´ëĭ¤
ë¶ Ļ
Ġê°Ģ ìķ¼
Ġì¤ Ģ
ĠëĤĺ íĥĢ
Ġê¸ Ģ
ìĥģ ìĿĦ
ìĹ¬ ì¹ľìĿ´
ì¹ľêµ¬ íķľíħĮ
ĠìĹ¬ ìŀĲì¹ľêµ¬ê°Ģ
íĸĪ ìĬµëĭĪëĭ¤
ìĤ¬ ê·
Ġê²Į ìŀĦ
Ġì¹ ĺë
íļ ¨
Ġì¢ĭìķĦíķĺëĬĶ ì§Ģ
Ġëª» íķĺê³ł
ìį¸ íĥĢ
¦¬ ê²Į
ĠëģĿ ëĤ´
Ġê²° êµŃ
ĠëĮĢ íĻĶ
ê²° ìłķ
ëħĦ ì§¸
ëįĶ ëĿ¼ê³łìļĶ
Ġë§ĮëĤĺ ìĦ¸ìļĶ
Ġë§ĮëĤĺ ìŀĲê³ł
ìĦł ìĥĿëĭ
Ġë¶Ģ íĥģ
ëģ Ķ
³´ ëĭ¤
Ġíİ¸ ì§Ģ
ĠìľĦ íķľ
Ġë© Ķ
Ġìĭľìŀĳ íķ´ë³´ìĦ¸ìļĶ
ĠíĻķ ìĭłìĿ´
ĠìĺĪ ìģĺê²Į
ìĦľë¡ľ ìĹĲê²Į
Ġë³Ģ íĻĶ
ĠëĨĢ ìķĦìļĶ
ë© °
ë¡ ł
ëĪĦ êµ¬ëĤĺ
Ġë¶Ī íİ¸
ìį¸ëĤ¨ ìĿ´
ì»¤ íĶĮ
Ġëĵ ±
Ġë¶Ģëĭ´ ìĬ¤ëŁ¬ìĽĮ
Ġê³¼ ìłķ
Ġë²Į ìį¨
ĠìĹ°ìĬµ ìĿĦ
Ġì´ Ī
¬ë¦¬ ìĬ¤ë§ĪìĬ¤
Ġë°Ķê¿ Ķ
ë©ĭ ì§Ħ
ĠëĳĲëł¤ ìĽĮ
ìķ¼ë ı¼
Ġê¹Į ë¨¹
Īë² ½
Ġì²ĺ ìĿĮ
íķĺëĵľ ëł¤ìļĶ
N S
S NS
ª ħ
° ĺ
² Ī
³ µ
ħ Ħ
ľ íŀĪ
ŀ ¬
ŀ Ĳ
Ġì ¼
Ġë Ĵ
Ġë Ĭĺ
Ġë Ĵ¤
íķ´ ì¤Ħ
ê°Ģ ìŀ¥
ìĿĦ ì§ĢëıĦ
ìĺ ·
ìĺ Īë
¸ë Ħ¤
¸ë ĵĿ
íķľ ê°Ģ
ê¹Į ë´Ĳ
Ġê±° ì§ĵë§Ĳ
ìľ ¡
ë¥ ĺ
ĵ¤ ìĿ´
íķł ëķĮ
ĠìĿ´ ê¸°
ìĿ¸ ìĿĺ
ĠëĲ ĺëĬĶëį°
ĠìĹĨ ëĭ¤
Ġìĸ´ íĶĮ
Ġìĸ´ ìĥī
įĶ ëĿ¼
ĠìĥĿê°ģ íķĺëĬĶ
Ġê± ¸ë¡ľ
Ġë³´ íĨµ
Ġê°Ģ ìŀĲê³ł
ìĤ¬ëŀĳ íķĺë©´
Ġì¤ ĺ
ì¤ ¬ìľ¼ë©´
ìĥģ ì²ĺë
ìĻ ¸ë
íķĺì§Ģ ë§ĪìĦ¸ìļĶ
Ġë°Ķ ë³´
Ġê·¸ë ĮĢë¡ľ
ìĹ° ìĺĪ
ê± ±ìłķ
ë§Ĳ ê³ł
Ġì§Ģ ì³¤
Ġíŀĺëĵ¤ ì§Ģ
Ġíŀĺëĵ¤ ê²łìĸ´ìļĶ
Ġíĸ Īëįĺ
Ġì¢ĭìķĦíķĺëĬĶ ëį°
Ġëª» íķľ
Ġë¨¹ ëĬĶ
Ġì¢ĭìĿĦ íħĲëį°
Ġë¬´ ëĦĪ
Ġì¶ ľ
Ġìĥģ ëĭ´
ìĽĲ íķĺëĬĶ
Ġë¯ ¸ë¦¬
Ġì£¼ ê³ł
íģ °
ĠëĤ¨ìŀĲ ë¥¼
Ġê´ľì°® ìĿĢ
ëħĦ ìĿ´
Ġëª¨ë¥´ ê²łëĦ¤ìļĶ
ê´Ģ ê³Ħ
íķĺëĭ ¤ë©´
Ġìĭ« ìĿĢ
ì¹ĺ ê³ł
íķĻ ìĽĲ
Ġì°¨ ìĿ´
ëĵľ ìĦ¸ìļĶ
ìŀĲìĭł ìĹĲê²Į
Ġìĺ¤ë ¹ł
ĠìĿ´ìķ¼ê¸° íķ´ë³´ìĦ¸ìļĶ
êµ° ëĮĢ
ĠìĺĪ ìģľ
ëĥ ī
íĥ Ī
ì½ ©
Ġì¡°ê¸Ī ë§Į
ìķĺë įĺ
ìĿ¸ê°Ģ ìļĶ
ĠìĿ´ìĥģ íķ´
Ġë¯¸ ìĽĮ
Ġê¿Ī ìĿĦ
ë´ ĩ
ëĪĪ ìĿ´
Ġìĥ Ī
ĠìĦ¤ ëł
ĠíĺĦ ìĥģìĿ´ìĹĲìļĶ
Ġìŀ¥ ëĤľ
ĠìĥģíĻ© ìĿĦ
ì¢ħ êµĲ
Ġì¶ķ íķĺ
Ġê°ĢìĬ´ ìĿ´
ë¨¸ë¦ ¬ë
Ġì¹´ íİĺ
Ġìĸ´ìļ ¸ë¦
Ġëĭ¤íĸī ìĿ´ìĹĲìļĶ
ıĻ ìķĪ
Ģëħ ģ
¦ °
ë Ĵ¤
ì ¸
ī ´
ı Į
ĺ ìĿĦ
Ġê ½
ì§Ģ ë©´
ìķĦ íĶĦ
ìĿĦ ê±°ìĺĪìļĶ
ìĿĦ íħĲëį°
ìĿĦ ê±°ëĿ¼
ìĭ ±
¸ë į°
ĠìŀĪ ì§Ģ
Īë įĶëĭĪ
Ġê±° ìķ¼
ëĿ ¼ë
ìĦľ ê´Ģ
ì¹ ĺëĬĶ
ëĤĺ ê²Į
Ġë° ¤
Ġë° Ģ
Ġì§ Ģë
ìĽ ¨ëĶ©
Ġìł Ī
ìĿĮ ìĿĦ
ë§Į ìĿ´
ë§Į ìĿĺ
Ġíķ´ ì¤ĺ
ëĤĺë ŀĳ
ìĭľ ìŀĳ
ĠìķĦ ëĬĶëį°
ĠìĹĨ ëĬĶëį°
ĠìĹĨ ìķł
ê±° ìļ¸
Ġì¢ĭìķĦ íķłê¹Į
ìĿ¼ ì§ĢëıĦ
ìĭł íĺ¼
ì£¼ ì§Ģ
ì£¼ ê°Ģ
Ġìĺ Ĩ
ĠìĥĿê°ģ íķĺê³ł
ĠìĥĿê°ģ ëĤĺëĬĶ
ë¶ Īë
ĠìķĬ ìķĺìĸ´ìļĶ
Ġê± ·
ĠìķĪ ìĻĢ
ìĻ Ħ
ĠìŀĲ ê¸°
ĠìĤ¬ëŀĳ íķł
ìĹ° íŀĪ
ìĽĮ ìĦľ
Ġê¸° ë³¸
ìłĦ ìĹ¬ì¹ľ
ĠìĻ ¸
ìĤ¬ ì¹ľ
ĠìĤ¬ëŀĮìĿ´ ìĹĲìļĶ
ĠìĿ¼ ëıĦ
ĠëĤ´ ëł¤
Ġìłķ ë¦¬ë
Ġê³ł ì³Ĳ
Ġê±´ ê°Ģ
ĠëĲł ê¹ĮìļĶ
Ŀ¼ ëıĦ
Ġë² ł
ĠìĤ´ ê¹Į
Ġíķľ ìŀĶ
Ġë¬´ ìĦŃ
Ġë¬´ ëİĮ
Ġì¶ ©ìłĦ
ĠëŃĲ íķĺì§Ģ
Ġìĥģ ì²ĺ
ìĨĮ íķľ
ì¦ Ī
Ġì£¼ ì§Ģ
ĠíķĦìļĶ íķł
ìĨį ìĿ´
ìł¸ ìķ¼
ĠëĮĢ íķ´
Ġì¡° ìĸ¸
ĠíĽĦ ëł¨
íĽĦ ëł¨
ë°Ķ ìģľ
ĠìŀĪìĸ´ ëıĦ
ëĪ Īë¬¼
íĹ Ľ
ĠíĸĪ ìľ¼ë©´
ìĭľê°Ħ ìĿĦ
ìĥĿê°ģ ë§Į
íĺ¼ìŀĲ ê°Ģ
ĠëĬĲ ëģ¼
Ġëħ ¸
ëĳĲ ê³ł
ĠëĲĺë ©´
Ġê·Ģ ìĹ¬
ĠìĤ¬ë Ŀ¼
Ġëĸł ëĤľ
ìĪĺë ¥¼
ìĺĢ ìĸ´
ĬĲ ëĿ¼
ëĭ¤ê°Ģ ëıĦ
ëĪĦ ê°Ģ
ëĪĦ êµ¬ë
Ġìī¬ ìĦ¸ìļĶ
ĠìĤ °
ĠìĦłíĥĿ ìĿ¼
íĿ ¡
ëłĪ ê¸°
Ġìķŀ ìĹĲìĦľ
Ġìĭ¬ íķ´
ì¡°ê¸Ī ìĶ©
íķĺëĤĺ ìĶ©
ëĤ´ìĿ¼ ìĿĢ
Ġë§ĮëĤ ¬ëĬĶëį°
ìŀ¬ë °Į
ê·¸ëł ĩ
íķ´ì§Ģ ë©´
Ġì§ĢëĤĺ ê°Ī
ìĪľ ê°Ħ
ê¸°ë¶Ħ ìĿ´
Ġì§ģ ìłĳ
ĠìĦľë¡ľ ìĹĲê²Į
Ġëĵ£ ê³ł
Ġì§Ģì¼ľ ë³´ìĦ¸ìļĶ
Ġë°ĶëĢ Į
Ġë°ĶëĢ Ķ
ĠëĨĵìķĦ ì£¼ìĦ¸ìļĶ
Ġê´´ ë¡Ń
ĠíĹĪ ìłĦ
ìŀĲìĹ° ìĬ¤ëŁ¬ìļ´
Ġë¬¼ìĸ´ë ´Ĳ
ëŃĶ ê°Ģ
Ġìĸ´ì©Į ì§Ģ
¦ ¼
¹ ìĭľ
½ ëĭĪëĭ¤
ë ķ
ë įľ
ë ī´
Ĳ ł
Ĳ ëĬĶëį°
Ķ ëģĶ
Ń ëĭĪëĭ¤
Ġì Ĳ
Ġë ¬
ìļĶ ìĿ¼
ëĭ ¥
ëĭ Īë
ìĸ´ ì©
íķ´ ë³¼ê¹Į
ìķĦ ìĿ´
ìķĦ íĶĶ
ê°Ģ ë©´
ìĦ¸ ë¨¼
Ġí ĳľ
ë³ ĳ
ë³ ĳìĽĲ
íķĺë Ĭĺ
íķĺ ìħ¨
ĠìŀĪ ìľ¼ëĭĪê¹ĮìļĶ
ê¹ Ģ
Ġê² ł
ëĤĺ ê°Ģ
ìĬ ·
íķł ì§Ģ
ĠìĿ´ ìļ©
Ģë ©´
ë§Į ëĤ¨
Ġëª ħ
ĠëĲ ¨
ìľ¼ë ł¤ê³ł
ĠìĹĨ ëĤĺ
ê±° ëł¤
ĠìķĬ ëĦ¤
ĠìķĬ ìľ¼ë©´
Ġë§Ĳ ëıĦ
Ġê°Ģ ì¹ĺ
ë©´ ìłĳ
ìĤ¬ëŀĳ íĸĪëįĺ
Ġë§İ ì£ł
Ġë°Ķ ë¡ľ
ê·¸ë Ł¼
Ġê·¸ë Ł¬
ĠìĤ¬ëŀĳ íĸĪëįĺ
ëħ Ģëŀĳ
Ġê¸° ê°Ħ
Ġíķ ¸ëĵľíı°
ĠìĤ¬ ìĭ¤
ĠëķĮ ëĬĶ
ĠëķĮ ëĦ¤ìļĶ
ĠëĤ´ ëĬĶ
Ġëª» íķł
Ġë°Ľ ì§Ģ
ìŀĺ íķĺëĬĶ
ëĭ¹ íķĺê²Į
ĠëĲĺ ì£ł
ìŀĪ ìĸ´
ĠëŃĲ ëĿ¼ê³ł
íĮ ¨
ìĸ´ë ĶĶ
ĠìĿ´ë³Ħ ìĿ´
ĠìłĦ íķ´ë³´ìĦ¸ìļĶ
Ġì£¼ ë³Ģ
ìĿ¸ë ĵ¯
ĠíķĦìļĶ íķĺì£ł
ì¤ĳ ìļĶ
ĠíĥĢ ëĬĶëį°
ĠëĤł ìĶ¨
ì§ľ ì¦Ŀ
ĠíĸĪ ìĬµëĭĪëĭ¤
ì¹ĺ ì§Ģ
Ġë¹Ħ ìĬ·
ĠëĬĲ ëł¤
ìĦł ìĿĦ
ìłĢëıĦ ìļĶ
Ġìį¸ ëĤ¨
Ġëª° ëŀĲ
Ġê¸°ëĭ¤ ë¦¬ê³ł
ìłĲ ìĭ¬
ìłĲ ìłĲ
ìļ© ê¸°ë¥¼
ĠìĿ´ìķ¼ê¸° ëĦ¤ìļĶ
ĠíĹ Īë
íĶ¼ ê³¤
ĠìĻĶ ëĬĶëį°
ë²Ħ ìĬ¤
ĠìķĮìķĦ ë³´ìĦ¸ìļĶ
ĠìķĪëĲ ĺë
ìķĦë¬´ ë¦¬
Ġë°° ëł¤
Ġë°° ìļ°
Ġë¶Ģë ª¨ëĭ
Ġëĸł ëĤĺ
Ġë²Ħ ëł¤
Ġê±±ìłķ ëı¼
ìĤ ¼
ĠìĿ´íķ´ íķ´ì£¼ìĦ¸ìļĶ
ĠíĮ Ķ
Ġìŀ¡ ê³ł
íķ´ì£¼ ê³ł
íŀĺëĵ¤ ê²łì§Ģë§Į
Ġìĸ´ëķĮ ìļĶ
ìŀ¬ë ¥¼
ê´ľì°® ìķĦ
ĠìĽĲ íķĺëĬĶ
Ġëĭ¬ëĿ¼ ê³ł
Ġê´ľì°®ìķĦ ì¡Į
Ġëħ¸ëł¥ íķ´ë³´ìĦ¸ìļĶ
Ġê°Ī ê¹Į
ê³łë¯¼ ìĿ´
ê³łë¯¼ íķĺê³ł
ëª¸ ìĿ´
Ġë´ Ħ
ê±´ê°ķ ìĹĲ
ìłģìĿ´ ëĵł
ĠìĬ¬ íĶĦ
Ġë§ĲìĶĢ íķ´ì£¼ìĦ¸ìļĶ
ë¯¸ëł¨ ìĿ´
ĠìľĦë¡ľ íķ´
ëĸ ł
ëĤłìĶ¨ ê°Ģ
ĠíĹ·ê°Īë ¦¬ê²Į
ìĸ´ëĬĲ ëį§
ĠíĿĺëłĢ ëĦ¤ìļĶ
¬ë§ Ŀ
ëł¤ë Ĩ
íĶ¼ë ¶Ģ
ìĵ ¸
ĠìĬ¤íĥĢ ìĿ¼
~ ~
¡ Ń
² Ħ
¸ Ķ
ì ĩ¼íķĳ
Ħ ëĬĶ
į ìłķ
Ĳ ëĭ¨
Ń ì°¬
ìĿ ĺë¯¸
ìĿ´ íķ´
ìĿ´ ê²Į
ìĦ ¼
ìĹ ½
ìĹ ĪëĦ¤ìļĶ
ëĤ Ń
ê³ ¨
ì§Ģ ë¡ľ
ìķĦ ëĭĪ
ìķĦ íĮĮ
ìĿĦ ëķĮ
ìł ĪëĮĢ
Ġìķ ¼
ë§ ¤ë
¸ë ıĦ
¸ë ¶Ģ
ëıĦ ìĦľê´Ģ
ĠìŀĪ ì§Ģë§Į
ê¹ į
íķľ ëĭ¤ë©´
ê¸° ê°Ħ
ĠìĤ¬ëŀĮ ìľ¼ë¡ľ
Ġë³ Ģë
Ġíķ´ ìķ¼ì§Ģ
ìĿ¸ íĺķ
ĠìķĦ ê¹Į
ĠìĹĨ ëĭ¤ê³ł
ê±° ë¥¼
Ġì¢ĭìķĦ íķ´ëıĦ
ĠìĥĿê°ģ ëĤĺëĦ¤
ĠìķĬ ê²Į
ĠìķĬ ìķĺ
ĠìķĬ ìľ¼ëĭĪê¹ĮìļĶ
Ġë§Į ëĵľ
Ġì¤ ĺëıĦ
ìĪ ĺëıĦ
ìĥģ ìĿ´
ì§Ħ ìĭ¬ìľ¼ë¡ľ
ìĹĪ ìĸ´ìļĶ
Ġê·¸ë ŀ¬
ĠìŀĲ ìľł
ìĨ Ķì§ģ
Ġê¸° ìļ´
Ġê¸° ìļ¸
Ġíķ Ħ
Ġëı ħ
ĠìĹ¬ ì¹ľìĿ´
Ġì§Ģ ì³Ĳ
ìŀ¥ ê±°ë¦¬
ĠìĤ¬ ê³ł
Ġë§ĪìĿĮ ëıĦ
ĠìĿ¼ ì£¼ìĿ¼
Ġì¹ Ńì°¬
ìĹĲìĦľ ëıĦ
ëĮĢ íĻĶë¥¼
ë¬´ ìĹĩ
ìŀĺ íķĺê³ł
Ġì¡ ¸ëł¤
Ġíķł íħĲëį°
Ġìĥģ íĥľ
ì§Ī ê¹Į
ĠìŀĪëĬĶ ê²Į
ìĸ´ë ĳĲ
ĠëģĿ ìĿĢ
ìľ¼ ëĭĪê¹Į
ĠíķĦìļĶ ëĬĶ
Ġê·¸ ìĤ¬ëŀĮ
ìħ Ģ
Ġê²° ê³¼
ĠëĮĢ ëĭ¨
ĠíĥĢ ìĿ´ë°į
ì¡° ìĭ¬
Ġë§ĮëĤĺ ìĦľ
íĶĦ ë¡ľ
Ġì² ĺë
ìĦ± ê²©ìĿ´
íĥĢ ê¹Ŀ
Ġì°¨ ë¶Ħ
ëĵľ ëĿ¼
Ġì°¾ìķĦ ìĺ¬
ìĦł ìĿĺ
ìĦł ë¬¼
ì§ĳ ìķĪ
ì§ĳ ì°©
ëĭ¹ìĭł ìĿĦ
ìļ© ê¸°ëĤ´
Ġë³´ê³ł ìĭ¶ìĸ´
ìŀł ìĿ´
Ġë§Įëĵ¤ ìĸ´ë³´ìĦ¸ìļĶ
Ġíģ ´
Ġêµ °
ë°° ê°Ģ
Ġê°ĢëĬ¥ íķł
ìĦľë¡ľ ìĿĺ
ìĤ´ ì§Ŀ
ĠìķĦëĭĪë Ŀ¼ê³ł
íĴ Ģ
Ġìĵ° ëĬĶ
ë³´ê³ł ìĭ¶
ìī ½
Ġë²Ħ ë¦¬ìĦ¸ìļĶ
Ġê°Ĳìłķ ìĿ´
Ġìŀł ìĿ´
íĺ¸ íĿ¡
Ġê´Ģìĭ¬ ìĿĦ
ĠëĪĪ ìĿ´
ĠëĪĪ ìĹĲ
Ġ1 0
ĠìĨį ìĥģ
ĠíĻĶ ê°Ģ
íĿ Ķ
ì¶ľ ê·¼
ĠìĿ´ìľł ë¥¼
ìį¸ëĤ¨ íķľíħĮ
Ġìĸ´ëĸ¡ íķĺì§Ģ
ì·¨ ì§ģ
Ġê²°ìłķ ìĿ´ìĹĪìĿĦ
ë©´ìĦľ ëıĦ
ìĬ¤ëŁ½ ì§Ģ
Ġìľł ì§Ģ
ê¸°ëĭ¤ ë¦¬ëĬĶ
ĠìĥĿê²¼ ìĸ´
ëĤ¨ìŀĲì¹ľêµ¬ ìĿĺ
Ġê¶ģê¸Ī íķĺëĦ¤ìļĶ
Ġíĭ Ģ
ì¶©ë¶Ħ íķľ
ìķĮ ë°Ķ
Ġì§ĢëĤĺ ê°Ķ
Ġì¦Ĳ ê¸°ìĦ¸ìļĶ
Ġë°ľ ìłĦ
ë¬ ¸ëĵĿ
Ġì§ĢëĤ´ ê³ł
Ġíĺ¸ ê°Ĳ
ì¹ľêµ¬ëĵ¤ ê³¼
ìĹĦë§Ī ê°Ģ
Ġì¶©ë¶Ħ íŀĪ
ĭĪ ê¹Į
ê·¹ ìłģìľ¼ë¡ľ
Ġëĳ ĺ
Ġëľ »
Ġê²¬ë İĮ
Ġê°Ģì§Ģ ìĦ¸ìļĶ
ĠíĬ ¹
ìĺ¤ëŀľ ë§ĮìĹĲ
íĻķìĭ¤ íķľ
Ġëį°ëł¤ ëĭ¤
íŀĺëĤ´ ìĦ¸ìļĶ
¶Į íĥľ
ìĿ´ìĸ´ íĬ¸
ìį¸ë ħĢ
Ġê¿¨ ìĸ´
ĠìĥĢ ìĸ´
ìŀĺë ª»
Ġíħ Ĳëį°
ĠìĲ ¬
ì¤ĳìļĶ íķľ
§ Ī
¬ ìĬ¤
½ ĳ
ë Ł°
ì Į
Ġ íķĺê²Į
į ķ
Ľ °
Ł ¬ëĬĶ
Ġì ĩ¼íķĳ
Ġë »Ķ
ìĿ´ ê±°
ĺë ³´ìĦ¸ìļĶ
ìķ ¡
ìĸ´ ëĤĺ
íķ´ ë¥¼
ìķĦ ëĭ
ìķĦ ì§Ģ
ìķĦ ë¹ł
ê³ł ë§Ī
Ġí Ī
ëĭ¤ ë³´ë©´
íķĺë Ł¬
íķĺë ĥĲ
ë§ ģ
Ġê° Īë
¸ë Ŀ¼
ëıĦ ìłĦ
ĠìĹ Ń
ĠìŀĪ ê¸¸
ĠìŀĪ ê²łì§Ģ
ĠìŀĪ ê²łì£ł
ìŀĲ ì¡´
ĠëĤ ĺëıĦ
Ġê±° ëĭĪ
Ġê±° ê²łì£ł
¼ë į°
ìĦľ ìļ´
Ġë³ ĳ
ë§Į ëĤĺ
ëĤĺë ³´
ìĭľ ê³ł
ĠëĲ ©ëĭĪëĭ¤
ë° ĺë
ĠìĹĨ ìľ¼ë©´
ê±° ì§ĵë§Ĳ
íĸ ĪëĦ¤
ìĿ¼ ê¹ĮìļĶ
Ġê³ §
Ġìĺ ¬ë
Ġìĺ ¬ëł¤
ĠìĥĿê°ģ íķĺì§Ģ
íķĺê³ł ìĭ¶
ĠìĪĺ ê°Ģ
ê°Ħ ìĿĺ
Ġë§Ĳ íķĺëĬĶ
Ġë§Ĳ ìĿ´ìĹĲìļĶ
Ġê°Ģ ìļĶ
Ġëĭ¤ ëĭĪ
ĠìĹ° ìĿ¸
ìĤ¬ëŀĳ íķĺëĬĶëį°
ì¤ ¬ìĸ´
ĠëĤĺ ìĿ´
ĠëĤĺ ìĿĢ
ĠëĤĺ ìĻĶ
ĠëĤĺ ìĺ¬
ĠëĤĺ ìĻĶìĸ´
Ġë§İ ìĿĢëį°
ì¡ ¸ìĹħ
Ġì° Į
ĠìŀĲ ì¡´
ĠìŀĲ ì±ħíķĺì§Ģ
ĠìŀĪìĿĦ ê±°ìĺĪìļĶ
íŀ Īë
ë§Ĳ ìĿĦ
Ġì§Ģ ìĽĮ
ĠìĤ¬ ê³¼
Ġë§ĪìĿĮ ìĿĢ
ĠëĤ´ ìĿ¼
ìĺ¤ë ©´
Ġê³ł íĨµ
Ġë¨¹ ìĿĦê¹Į
ìį¸ ìĿ´
Ġìĭľê°Ħ ìĿĢ
ê´ ´
ĠëĲĺ ê¸°ëıĦ
Ġëĵ¤ ìĸ´ëĵľë¦´ê²ĮìļĶ
ìŀĪ ìĸ´ìļĶ
ê·¸ ë§Į
ëıĻ ê±°
ìĨĮ ë¦¬ë¥¼
ìĥ Īë²½
íģ ¬ë
ĠìĹĨìĸ´ ìĦľ
Ġì¡° ìłĪ
Ġëª¨ë¥´ ê³ł
ĠìŀĬ ìĿĦ
ìĭĿ ìĿ´
ëĭ¬ ìĿ´
ì°¨ ê·¼
ëĲ ĺëĬĶ
Ġê°Ĳ ìĤ¬
ìĦ± ìľ¼ë¡ľ
ëĵľ ë¦´ê²ĮìļĶ
íŀĺë ĵľ
Ġë¹ ¼
Ġìķł íķľíħĮ
ì§Ģê¸Ī ì²ĺëŁ¼
ãħ ĭ
ĠìĽ Ģ
Ġíİ¸ íķł
ĠìŀĲìĭł ìĿĺ
Ġìłķë¦¬ íķĺëĬĶê²Į
Ġë°©ë²ķ ìĿ´ìĹĲìļĶ
ĠìĦłë¬¼ ìĿ´
Ġëª° ëĿ¼
ëĭ¹ìĭł ëıĦ
ĠëĶ° ë¡ľ
ĠëĶ° ëľ»
ìłĲ ìĿĦ
ĠìľĦ íĹĺ
ĠìĻĶ ëĭ¤
ìŀł ìĿĦ
Ġêµ Ĳ
ë°° ê³ł
Ġê°ĢëĬ¥ ìĦ±ìĿ´
êµŃ ìĸ´
ĠìķĪëĲ ĲëĬĶëį°
ìĿ´ìĹĪ ìľ¼ë©´
ìķĺë ĭ¤
ĠëĨĢ ê³ł
ĠìķĦëĭĪë ©´
ĠìķĦëĭĪë Ŀ¼ë©´
ëĨ ĵê³ł
ĠëĦ £
ĠìķĪëı¼ ìļĶ
ë¡ Ģ
Ġë¯¸ ì¹ĺ
ìŀĬ íĺĢ
ĠëĨĵ ê³ł
ĠëĲĲ ìľ¼ë©´
ë°Ľ ìķĦ
Ġì¹ľêµ¬ë ĵ¤
ëŃĲ ëĵł
ë´ ¤
ĠëıĻ ìķĪ
ê°Ī ê¹Į
ĠëĪĦ êµ¬ë
ĠëıĮìķĦ ìĺ¤
ĠíĽĦíļĮ íķł
Ġê²°ìłķ ìĿĦ
ê·¸ëħĢ ìĿĺ
ëģĿ ìĿ´
ê¿Ī ìĿ´
Ġë´Ĳ ëıĦ
ì¹´ ëĵľ
ĠìĥĿê²¼ ëĬĶëį°
Ġë§ĮëĤĺë ©´
ĠìĹ¬ìŀĲìķł íķľíħĮ
Ġê´ľì°®ìķĦ ì§Ī
Ġìį ¼
ĠìĦ¸ ìĥģ
ìĸ¸ìłł ê°Ģ
ì²« ìĤ¬ëŀĳ
íıī ìĨĮ
Ġëĸ¨ìĸ´ ì¡Įìĸ´
ĠëıĪ ìĿ´
Ġë§¤ ìĿ¼
ĠìĤ¬ëŀĮëĵ¤ ìĹĲê²Į
ĠíĨµ ë³´
ĠìĺĪë»Ĳ ìļĶ
Ġì¶©ë¶Ħ íķ´ìļĶ
ĠíĻķìĭ¤ íŀĪ
ĠíķĻ êµĲ
ĠìŀĬíĺĢ ì§Ģ
Ġíģ¬ ê²Į
Ġìĸ´ì© Ķ
ĠíĶĦ ìĤ¬
Ġìĵ ´
ĠìĪĺë ¡Ŀ
Ġëľ ¨
ìĸ¸ìłľ ì¯¤
Ġê²¬ë ĶĶ
Ġìµľê³ł ì£ł
Ġëĥ ĦìĥĪ
Ġì°© ê°ģ
Ġë©Ģ ìĸ´
ãħİ ãħİ
ĠìŀĲìĹ° ìĬ¤ëŁ½ê²Į
ê·¸ëŀĺ ìĦľ
ĠëĬ¥ ëł¥ìĿ´
Ġê¾¸ ì¤ĢíŀĪ
ĠìĹ¬ë Ł¬
Ġì±Ħ ìĽĮ
ìĥģíĻ© ìĿ´
Ġë¶Īë Ł¬
Ġë¶ĢëŁ¬ ìĽĮ
íķľëıĻìķĪ ìĿĢ
ë§ĮëĤľ ì§Ģ
ë¶Ļ ìŀ¡
ìĥģì²ĺë °Ľ
ìĹ°ìĺĪ ìĿ¸
ìĻĦ ë²½
ĠìĲ¬ ê³ł
n s
s ns
¶ Ī
ë Į
ë Ĵ
Ġ ãħł
Ħ ëŁ¬
Ĭ ¦
ĵ ŃëĭĪëĭ¤
Ķ ë¡ľ
Ġë Ŀ
Ġë ĦĪë
Ġë Ľ°
Ġê º¼
ìĿ´ ìĦ¸ìļĶ
ìĿ´ íĮħ
ìĿ´ ëĿ¼ë©´
ĺë ¶ģ
ì§Ģ ë¥¼
Ġìŀ ĥ
ìķĦ ìķ¼
ìķĦ ë¦Ħëĭ¤
ëĭ¤ ë¦¬
ëĭ¤ ëĵ¤
íķĺë ĮĢ
ìĭ ¤ë
íķĺ ê±°ëĤĺ
Ġê° ļ
¸ë ©´
ë³´ ëĤ´
ë³´ íĨµ
ĠìŀĪ ëĦ¤
ĠìŀĪ ëĭ¤ê³ł
Ġì¢ĭ ê²łì§Ģ
Ġì¢ĭ ì§Ģë§Į
Ġì¢ĭ ê²łì§Ģë§Į
Ġê±° ìłĪ
ĠìĿ Ģ
ë¦ ½ëĭĪëĭ¤
¬´ ë¦¬
ĠìĿ´ ë¦Ħ
ë§Į ìľ¼ë¡ľ
ì¹ľ íķľ
ê°ģ ìŀĲ
ë° ĸìĹĲ
ĠìĹĨ ëĤĺë´ĲìļĶ
ëĿ¼ ëĬĶ
Ġê· ¼
Ġì¢ĭìķĦ íķ´ìļĶ
Ġë§Ī ëĭ¤
ìĿ¼ ì°į
íĺ Ķ
íĺ ¹ìĭľ
Ġìĭ¶ ëĦ¤
ëĤ¨ ìĿĺ
Ġê³ ģ
ì° °
Ġê²ĥ ìĿĢ
Ġìĸ´ ìłľ
Ġìĺ ¬ëĿ¼
ĠìĥĿê°ģ ìĹĲ
ĠìĥĿê°ģ ìĿĢ
ĠìĥĿê°ģ ìĿ´ìĹĲìļĶ
Ġë§Į ëĵł
Ġë§Ĳ ê¹Į
Ġë§Ĳ íķł
Ġê°Ģ ê¹Į
ì² ©
ĠëĤĺ ìģĺ
ĠëĤĺ ìĿ´ê°Ģ
ëł¤ ëıĦ
ë¡ľ ìĽĮ
íķĺì§Ģ ë§Į
ê·¸ë Ł¬ë©´
ê·¸ë ıĻìķĪ
Ġìĭľ ê¸°
Ġê·¸ë Ł¬ë©´
ĠìŀĲ ê³ł
ìķł ë§¤
ĠìĤ¬ëŀĳ íķ´
Ġìŀĺ ìĥĿ
íŀ ĺ
ìĭ¬ íĺ¸íĿ¡
ë§Ĳ ìĶĢ
Ġì§Ģ ëĤ¬ëĦ¤
ìŀ¥ ê³ł
ìŀ¥ ìĹĲìĦľ
ĠìĹ°ëĿ½ íķĺëĬĶ
ĠìĹ°ëĿ½ íķĺë©´
ìłĦ ìĹĲ
ìłĦ ëĤ¨ì¹ľ
ĠëĤ¨ ìŀĲì¹ľêµ¬ê°Ģ
ĠëĤ¨ ê²¨
ìĤ¬ ì¹ľìĿ´
ĠìĤ¬ ìļ©
ëª ½
Ġíŀĺëĵ¤ ê²łì§Ģ
ĠìĿ¼ ìĥģ
ĠìĿ¼ ìĿ´ëĦ¤ìļĶ
ĠëĤ´ ìĦ¸ìļĶ
ìłģ ëĭ¹íŀĪ
ëĮĢ íķĻ
ì¶ ©ìłĦ
ìį¸ ìĿ¸ëį°
ìį¸ ìĿ¸ì§Ģ
íĬ ¹
Ġíķĺë Ħ¤
ìŀĪ ìĿĦ
ĠëĨ Ķ
ĠìĦł íĨ¡
Ġì¶ ¥
ìĽĲ ìĿĦ
ìĽĲ ëŀĺ
ĠëģĿ ëĤľ
Ġëĵľ ëĦ¤
ĠëĤĺë ©´
ĠìĹ¬ìŀĲ ë¥¼
ĠíķĦìļĶ íķĺê²łëĦ¤ìļĶ
íģ ´
Ġìī ¬ëĬĶ
Ġìī ½ê²Į
ëĲ ĺë©´
ìļ¸ ê¹Į
ìĤ¬ëŀĮ ìĿ´
ĠìĨĮ ê°ľíĮħ
ĠìķĦëĭĪ ìķ¼
Ġì¤ĳìļĶ íķĺì£ł
Ġê¹ İ
ìŀĲìĭł ìĿ´
Ġë¹Ħ êµĲ
ìĥĿê°ģ íķł
ëģ Ĺ
ĠìĽ Ķ
ìĹ°ëĿ½ ìĿĦ
Ġíİ¸ íķĺê²Į
ĠìŀĲìĭł ìĹĲ
Ġìłľ ëĮĢë¡ľ
Ġê¸°ëĭ¤ ëł¤ë³´ìĦ¸ìļĶ
ëª¨ ëĳĲ
íĨµ ë³´
Ġë© į
Ġê³Ħ ìłĪ
Ġíĸīë³µ íķĺê²Į
ìĪł ìĿ´
Ĥĺë ´ħëĭĪëĭ¤
ì§ĿìĤ¬ëŀĳ ìĿ´
ìĹĨ ìĸ´
ĠìĬ¤ íĤ¨ìĭŃ
íķĺëĭ¤ ê°Ģ
íķĺëĭ¤ ë³´ë©´
Ġê³³ ìĹĲ
Ġê³³ ìĹĲìĦľ
ë²Ħ ëł¤
ìħ¨ ëĤĺë´ĲìļĶ
ì½ ¤
ì½ ľ
Ł½ ëĦ¤ìļĶ
Ġì± ħ
ëł¥ ìĿĦ
ê²¼ ìĸ´
Ġìłģ ìĸ´ë³´ìĦ¸ìļĶ
Ġìļ° ë¦¬
ìĺĢ ëĤĺë´ĲìļĶ
ĠìĿ´ìĥģ íķľ
ĠíĶ¼ íķĺìĦ¸ìļĶ
ëĤ¨ìŀĲ ëĵ¤ìĿĢ
ëıĪ ìĿ´
íĺ¸ ê°ĲìĿ´
ëĪĦ êµ°
ĠìłĢ ë¥¼
Ġëĭ¹ìĭł ìĿ´
íľ´ ê°Ģ
ĠíĻĶ ìŀ¥
ë´Ĳ ëıĦ
íĿ ¥
ĠëıĻ ê±°
ĠíĮ Ĳëĭ¨
ì·¨ ìĹħ
ĠìķĦíĶĦ ëĦ¤
ĠìķĦíĶĦ ëĦ¤ìļĶ
ê·¸ëħĢ ëĬĶ
ëģĿ ìĿĦ
Ġë¬¼ìĸ´ ë³´
ê¿Ī ìĹĲ
ìĹ¬ìŀĲ ì¹ľêµ¬ëŀĳ
ëį ķ
ĠìĤ¬ìĿ´ ê°Ģ
ê¼ ¬ë
Ġê·¸ë¦¬ ìĽĮ
ĠìķĦë¬´ ê²ĥëıĦ
ëĳ ĺ
Ġë§ĮëĤĺëĬĶ ê²Į
Ġëĭ¨ ëĭ¨
ìĸ¼ ë§Ī
ĠìķĮëł¤ ì£¼ìĦ¸ìļĶ
Ġìļ© ê¸°ê°Ģ
Ġíĥľ ëıĦ
Ġê·¸ëłĩ ì§Ģë§Į
ìĽł ìĸ´
Ġëª¨ìĬµ ìĿ´
ĠìĬµê´Ģ ìĿ´ìĹĲìļĶ
Ġê°Ķ ëĭ¤
Ġì¶Ķìĸµ ìĿ´
ĠíĻķìĭ¤ íķľ
Ġë°ĺë ³µ
Ġë°Ķê¿ Ģ
ëĥĪ ìĸ´
ìĤ¬ê·Ģ ê³ł
Ġìĵ ¸
ìķĦì¹¨ ìĹĲ
ĠìĤ¬ê· Ī
Ġëĥ ī
ëħĲ ìĿ¼
Ġìĥģì²ĺë ¥¼
Ġìĥģì²ĺë °Ľ
Ġì§ľì¦Ŀ ëĤĺ
ìĥģì²ĺ ê°Ģ
ĠëĪĪë¬¼ ìĿ´
ëĲł ê¹Į
ĠíĿĶ ëĵ¤
Ġíķĺìħ¨ ëĦ¤ìļĶ
Ġì½ Ķ
Ġê±¸ë¦ ´
Ġë©Ī ì¶Ķ
Ġë°ĽìķĦëĵ¤ ìĹ¬
Ġê³¨ ëĿ¼
Ġì§Ģì³¤ ëĤĺë´ĲìļĶ
ëĥī ìŀ¥ê³ł
Ġì¶ķíķĺ íķ´ìļĶ
ìķĦë¦Ħëĭ¤ ìļ´
ĠìĤ¬ìļ© íķ´ë³´ìĦ¸ìļĶ
¡ Ģ
£ ©
¤ Ħ
¤ ìĽĮ
° Ķ
ë ĦĪë
ë Ł¬ë
ë ĵĿ
Ī ìĸ´
Ĳ Ĳ
Ķ ª
ļ ê½ĥ
ľ ì§ģ
ł ¥
Ġì ª
Ġì ³
Ġì »
Ġë į
Ġë ĵł
ìĿ µìĪĻ
ìĿ´ íĺ¼
ìĿ´ ìľłê°Ģ
ëĭ ī
ìĸ´ ìŀ¥
ê² ¹
ê³ ³
ì§Ģ ëĤĺ
ì§Ģ ë§Ī
ìķĦ ìĺĪ
ê°Ģ ëĿ½
Ġí Ľ
Ġë§ ¡
íķĺë ĬĲëĿ¼
ë§ Ļ
íķĺ ìŀĲê³ł
ëıĦ ìĭľ
ĠìŀĪ ê²Į
ĠìŀĪ ëĭ¤ëĬĶ
ĠìŀĪ ìľ¼ëĭĪ
ìŀĲ ì±ħíķĺì§Ģ
Ġê±° ì§Ģ
Ġê±° ìĿĺ
ĠìĿ ĺë
íķĺëĬĶ ì§Ģ
íķĺëĬĶ ê±°
Ġê² ¨
Ġë° Ŀ
ëį° ìļĶ
ê· ľì§ģ
íķł ê²ĮìļĶ
ëł ĩ
ëł Į
Ġì§ ĵ
ĠìĿ´ ìłł
ĠìĥĿ íĻľ
ìĭľ ëĬĶ
ìĭľ ê²łìĸ´ìļĶ
ìĭľ ìĸ´ë¨¸
ĠìķĦ ê»´
ĠìĹĨ ê²łëĦ¤ìļĶ
ê±° ì§Ģ
ê±° ê°ĻìķĦ
Ġì¢ĭìķĦ íķĺê³ł
Ġì¢ĭìķĦ íķĺëĤĺ
Ġìĭ¶ ìĬµëĭĪëĭ¤
ìłķ ëıĦ
ë¦¬ ê²Į
ë¦¬ ê¸°
ìłľ ë¥¼
ĠìĥĿê°ģ íķĺë©´
ëŀ ľ
ĠìķĬ ëĬĶëį°
ĠìķĬ ê²łì§Ģë§Į
Ġë³´ ê¸°
Ġë³´ ëĭĪ
Ġë³´ ìĿ´ê³ł
ë©´ ëıĦ
ëĤ´ ëĬĶ
ĠìķĪ íķĺëĬĶ
ìĥģ ëĭ´
Ġë°Ķ ìģľ
Ġë°Ķ ë¹ł
ì§Ħ ëĭ¤
ĠìŀĲ ê²©ìĿ´
ĠìĤ¬ëŀĳ íķĺì§Ģ
ë² ¼
ìĹ° ìĿ¸
Ġìŀĺ íķ´
íŀ Į
ë§Ĳ ìĿ´
ë§Ĳ íķ´ë³´ìĦ¸ìļĶ
íĸĪ ê²łìĸ´ìļĶ
ìŀ¥ ë©´
ĠìĹ°ëĿ½ íķĺì§Ģ
ĠëĤ¨ ìķĦ
ìĤ¬ íļĮ
ëª °
ì§Ŀ ëħĢëŀĳ
ĠëĤ´ ìļĶ
ĠëĤ´ ë³´ìĦ¸ìļĶ
ĠëĤ´ ëł¤ëĨ
ì¢ĭìķĦ íķĺë©´
Ġëª¨ ìķĦ
ëĮĢ íı°
ëĮĢ ì²´
ì¶ ©
Ġì¤ĳ ê°Ħ
Ġìĭľê°Ħ ëıĦ
ë¬´ ìĽĲ
Ġíķĺë Ĭĺ
Ġíķĺë Ĥĺë´ĲìļĶ
Ġíķľ ëĭ¤
ëĭ¹ íĻ©
ë³µ ìŀ¡
ê·¸ ê²ĥ
Ġë¬´ ë¦¬
Ġì¶ ©
Ġìĥģ ì²
íĮ Ĳ
ìĨĮ ë¦¬
ìĨĮ íĻĶ
ĠìķĪë ħķ
ìĪĺ ê°Ģ
ĠìłĦ ë¶Ģ
ĠìłĦ ìĹ¬ì¹ľ
ĠìłĦ ëĤ¨ì¹ľ
Ġëĵľ ëĿ¼
Ġìĸ ĳ
Ġê±¸ ìĸ´ë³´ìĦ¸ìļĶ
Ġì¡° ê¸ī
ê´Ģ ë¦¬
ìľł ì¦Ŀ
ëĭ¬ ëĭ¬
ëĭ¬ ì§¸
ë°Ķ ë¡ľ
ĠìŀĪìĸ´ ìĦľ
ëĲ ĺë
ëįĶ ëĿ¼
ìĤ¬ëŀĮ ìĿĦ
ĠìĿ¸ ìĤ¬
Ġë§ĮëĤĺ ê¸°ë¡ľ
íĹ Īë
ê» ı
ĠíĸĪ ëĤĺë´ĲìļĶ
ĠìĹ°ìķł ë¥¼
Ġì² ´
Ġìĺ¤ ëĦ¤
ìĿ´ëĿ¼ ëĭĪ
ëĭµ ìĿ´
íĥĢ ëĬĶ
ìĭľê°Ħ ìĿĢ
Ġëĭ¹ ìĹ°
Ġëĭ¹ íĻ©
íĺĦ ê¸Ī
Ġë¹Ħ ë°Ģ
Ġìĺ¤ë ©´
ì§ĳ ëĵ¤ìĿ´
Ġì¤Ģë¹Ħ ë¥¼
Ġì¤Ģë¹Ħ íķ´ë³´ìĦ¸ìļĶ
ìĹ°ëĿ½ ìĿ´
ĠìŀĲìĭł ê°ĲìĿĦ
Ġìłķë¦¬ íķł
íķ´ìķ¼ íķłê¹Į
Ġê¸°ëĭ¤ ë¦¬ëĬĶ
ì³ ¤ìĸ´
ë¹ ¡
ë¹ Į
ìĹĨ ìĸ´ìļĶ
ĠëıĮ ëł¤ë³´ìĦ¸ìļĶ
ĠëĳĲ ê·¼
Ġë§Įëĵ¤ ìĸ´ìļĶ
íķĺê¸° ëĬĶ
íķĺê¸° ëıĦ
Ġìĭł ì²Ń
Ġê³łë°± íķ´ë³´ìĦ¸ìļĶ
Ġê³łë°± íķ´ëıĦ
Ġëĵ¤ìĸ´ ìĻĢ
íĥ ķ
ìĿ´ìĹĪ ê¸¸
Ġë¶Ģë Ķª
Ġìĵ° ê³ł
ë¯¸ ìĦ¸ë¨¼
Ġíķĺë©´ ìĦľ
Ġíŀĺëĵ¤ìĸ´ ìĦľ
ìĿ´ë Ł¬
Ġìļ° ìĦ¸ìļĶ
Ġìļ° ìĦł
ëĨ Ģ
ëĨ ĢìĿ´
ì± Ħ
ëĤ¨ìŀĲ ê°Ģ
ëĤ¨ìŀĲ ì¹ľêµ¬ëŀĳ
ëıĪ ìĿĦ
Ġìŀł ìĿĦ
Ġë¯¸ ìķĪ
ìŀĬ ìĿĦ
ĠëĲĲ ëĦ¤
ĠëĲĲ ëĬĶëį°
ìĹ¬ë ĵľ
Ġë¯¿ ìĸ´ë³´ìĦ¸ìļĶ
íĬ¸ëłĪ ì¹Ń
ê²© ì¦Ŀ
ĠìłĢ ëıĦ
ĠìłĢ ìĹĲê²Į
ë°Ľ ëĬĶ
Ġë¶Ħ ìĿ´
Ġì¹ľêµ¬ë ¡ľ
ìĸĳ ìĿ´
ĠìĦłíĥĿ ìĿĦ
ĠëıĻ ìĥĿ
ëĪĪ ìĿĦ
ĠëĬ¦ ê²Į
Ġë³´ëĤ´ ê³ł
ĠìĹ¬íĸī ìĿĦ
ìį¸ëĤ¨ ìĿ´ëŀĳ
Ġë²Ī íĺ¸
ìħĶ ë³´ìĦ¸ìļĶ
Ġì§ĿëĤ¨ íķľíħĮ
Ġì·¨ ë¯¸
ĠìĿ´ë £¨
ì¹´ íİĺ
ĠìĿĺ ì§Ģ
ĠìĿĺ ìĤ¬ë¥¼
ì¶ķ íķĺëĵľëł¤ìļĶ
Ġê·¸ëħĢ ê°Ģ
ë¨¸ë¦¬ ê°Ģ
ëĲĺ ê²łëĦ¤ìļĶ
ĠíĴĢ ë¦´
Ġìļ´ ëªħ
ĠíĿĺë Ł¬
ìĹ¬ìŀĲì¹ľêµ¬ ìĿĺ
ìĹ¬ìŀĲì¹ľêµ¬ ìĻĢ
Ġë§ŀëĬĶ ê±¸ê¹Į
Ġë¹ł ë¥´
Ġë§ĺ ìĹĲ
Ġëĭ¤ë Ĳĺ
Ġëĭ¤ë¥´ ê²łì§Ģë§Į
ìļ´ëıĻ ìĿĦ
ĠëĤĺê°Ģ ìĦ¸ìļĶ
ë¬ ¼ë¦¬
ê°Ķ ìĸ´
ĠìĬ¬ íį¼
ĠìŀĬìĸ´ ë²Ħë¦¬ìĦ¸ìļĶ
Ġëĸ¨ìĸ´ ìł¸
ìĥģëĮĢë°© ìĿĦ
Ġì¡´ ìŀ¬
ë§¨ ëĤł
Ġê¾ ¸ë
íı¬ ê¸°
íı¬ ì¦Ī
Ġëª¨ìĬµ ìĿĦ
Ġì§ĿëħĢ ê°Ģ
ëĥĲ ìĹĲ
ëĦ ĺ
ë§ĺ ê³łìĥĿ
ìĿ¸ìĥĿ ìĿĢ
ë¶Ģëª¨ëĭ ĺìĿ´
íĪ¬ ê°Ģ
ìķŀ ìľ¼ë¡ľ
Ġê·¹ë³µ íķł
ì» ¨
ì» ´
Ġíŀĺëĵ¤ìĹĪ ê²łìĸ´ìļĶ
ĠíļĮ ìĤ¬
ë§ĪìĬ¤ íģ¬
ĠìĤ¬ëŀĳíķľ ëĭ¤ë©´
ĠëĤ« ì£ł
ĠìĿ´ê²¨ ëĤ¼
Ġìĸ¼ë§Ī ëĤĺ
ìĿ´ìĥģ íĺķ
Ġì²ľ ì²ľíŀĪ
Ġìŀĳ ìĿĢ
ì¹Ń ì°¬
Ġë¶Ģë¶Ħ ìĿ´
ì¶ķíķĺ íķ´ìļĶ
ìĭłê²½ìĵ° ì§Ģ
ĠíĶ¼ê³¤ íķ´
Ġëĭ´ ë°°
ìĻĦìłĦ íŀĪ
ĠìĻ¸ë¡ľ ìĽĮ
ëĬ¥ ëł¥ìĿ´
íĽĦíıŃíĴį ìĿ´
ĠëĤĺëĪł ë³´ìĦ¸ìļĶ
ìĦłìĥĿëĭ ĺìĿ´
ĠìĺĨ ìĹĲ
Ġê·ĢìĹ¬ ìĽĮ
Ġê°Ģì¹ĺ ê´Ģ
ĠíĪ ¬
ĠìĽĢ ì§ģ
1 0
¥ ´
« ëıĻìķĪ
² ķ
¸ ìĸ´
¹ ¼ë¡ľ
ê ¶Įíĥľ
ë ±
ë ¿Ĳ
ë Ĭ¦
ì ¿
Ġ ãħłãħł
Ĭ ìĿĢ
Ġë ¿Į
ìĿ´ ìĺĪìļĶ
ìĿ´ ëŀĺ
ê° Ĵ
ìĸ´ ë³´ê³ł
ì§Ģ ê²Į
ì§Ģ ê¸°
íķ´ ë³´ëĬĶ
ê°Ģ ìĦľ
ê°Ģ ëĬĶëį°
ê°Ģ ë²¼
Ġë§ ¤ë
ëĭ¤ ë°ľ
Ġìķ ħ
íķĺë Ŀ¼ê³ł
ê¸ įìłķ
íķĺ ê¸´
íķĺ ê²łìĬµëĭĪëĭ¤
ìĿĢ ìĹ°
ĠìĹ Ĳ
ĠìŀĪ ëįĶëĿ¼ê³łìļĶ
ìŀĲ ì£¼
ĠëĤ ¬
Ġê±° ë©´
ê¸° ëħĲìĿ¼
ëĿ ¼ë¦¬
¼ë ¹¼ë¡ľ
ì¹ ĺë©´
ëĤĺ ìĿĺ
Ġë° ĸìĹĲ
ìķ¼ íķłê¹Į
Ġì§ Ĳ
ĠìĿ´ ëŁ¬
Ģë ŀĲ
Ġìł ĪëĮĢ
Ġíķ´ ì£¼ëĬĶ
ëĤĺë Ĥĺ
ëĤĺë ³´ìĦ¸ìļĶ
ìĿ¸ ìĹ°
ìĿ¸ ê°Ģë´ħëĭĪëĭ¤
ĠìĥĿ ê²¨
ìĭľ êµ°ìļĶ
ĠìĹĨ ì§Ģ
ĠìĹĨ ìĿĦê¹Į
ê±° ì£ł
Ġì¢ĭìķĦ íķ´ì£¼ëĬĶ
Ġë§Ī ìĭ¤
íĺ ¸ë¥¼
ìłķ ë¦¬ê°Ģ
ìłķ ê·ľì§ģ
ìĭł ê³ł
ĠìĥĿê°ģ ë§Į
íķĺê³ł ìĭ¶ìĸ´
ĠìķĬ ëĤĺë´ĲìļĶ
ĠìķĬ ìĿĦê¹Į
Ġë³´ ëĭ¤
Ġë³´ ìĿ´ì§Ģ
Ġë§Ĳ ìĿĢ
Ġê°Ģ ëıĦ
Ġê°Ģ ëĬĶëį°
Ġëĭ¤ ëĭ
Ġëĭ¤ ìĿĮ
Ġëĭ¤ ìĿ´ìĸ´íĬ¸
ìĤ¬ëŀĳ íķł
ĠìķĪ íķ´ëıĦ
ì¤ Ħê²ĮìļĶ
ĠëĤĺ ìĿĦê¹Į
Ġë§İ ìĿĦ
ìĹ¬ ê¸°ê¹Įì§Ģ
íķĺì§Ģ ëĬĶ
ìĹĪ ìĿĦ
ìĹĪ ìľ¼ë©´
ĠìĤ¬ëŀĳ ìĹĲ
ĠìŀĪìĿĦ ê¹ĮìļĶ
ĠìŀĪìĿĦ ì§ĢëıĦ
ĠìĦ ¼
Ġê¸° ìĽĲ
ìłĢ ë¥¼
ìłĢ ìĹĲê²Į
Ġì§Ģ ìļ°
Ġì§Ģ ëĤ¬ë
íĸĪ ìĿĦ
ê¸¸ ìĿ´
ìŀ¥ ëĤľ
ìĥĿ ìĪŃ
ìłĦ ê³µ
ìłĦ íĻĺ
íħĮ ë¦¬
ĠìĻ ¸ë
ĠëĤ¨ ìĿĦ
ĠëĤ¨ ì¹ľìĿ´
ìĤ¬ ìĨĮíķľ
Ġíŀĺëĵ¤ ê²łì§Ģë§Į
ĠëķĮ ë¥¼
ë¥´ ìĦ¸ìļĶ
Ġì¹ ¨
ìĬ¤ íĤ¤
ë¯ ¸ë
ëĮĢ íĻĶ
Ġëª» íķ´ìļĶ
Ġì£ Ħ
ë§ĪìĿĮ ìĿĢ
ì¶ ĺ
ìļ° ìļ¸
ìļ° ìĦł
Ġê±´ ê°ķ
Ġì¤ĳ ìĿ¸
Ġëģ Ħ
ë¬´ ìĦľìļ´
ì¢ĭìķĦíķĺëĬĶ ëį°
Ġíķĺë Ĥĺë
ë¶Ģ ì§Ģ
ìĹĲê²Į ëıĦ
ìķĪ íĥĢê¹Ŀ
Ġëĵ¤ ìĸ´ë³´ìĦ¸ìļĶ
ĠëĨ Ī
ëıĻ ìĥĿ
ìĭ¤ ìĪĺ
Ġìĥģ ëĮĢë°©
ë¦¬ë Ħ¤
ìĶ ¹
ì¡Į ìľ¼ë©´
ìĸ´ë ´ĲìļĶ
ĠìĿ´ë³Ħ íĨµë³´
ĠìłĦ íĻĺ
ĠëģĿ ëĤĺ
Ġëĵľ ìħĶë³´ìĦ¸ìļĶ
ìľ¼ ìĭłê°Ģë´ĲìļĶ
ĠíĹ¤ìĸ´ ì§Ģê³ł
ĠìĹ¬ìŀĲ íķľíħĮ
ĠìĹ¬ìŀĲ ëŀĳ
ĠëĤ¨ìŀĲ ëŀĳ
ê³µ íĨµ
Ġê²° ìĭ¬
ìĺ¤ íķ´
ëħĦ ìĿĺ
ìķĺ ìĬµëĭĪëĭ¤
Ġíĺ ¸ë
ìĭĿ ìĹĲ
Ķ° ëĿ¼
ë°Ķ ìģĺ
ì°¨ ë¶Ħ
ëĲ Ĳìĸ´
ìĤ¬ëŀĮ ëĵ¤ìĿ´
Ġë§ŀ ìķĺëĤĺë´ĲìļĶ
ĠìĿ¸ ê¸°ê°Ģ
ĠìĿ¸ ìĹ°ìĿ´
ìĸµ ì§Ģë¡ľ
ê²¨ ë³´ìĦ¸ìļĶ
Ġê°Ĳ ê¸°
ì¹ĺ ê¸°
ĠìĹ°ìķł ê°Ģ
Ġë°© íķĻ
ĠìķĦëĭĪ ëĭĪê¹ĮìļĶ
ë²ķ ìĿĦ
Ġì§Ħ ìĭ¬ìĿĦ
Ġì°¨ ê°Ģ
íĺĦ ìŀ¬ë¥¼
Ġì°¾ìķĦ ê°Ģ
Ġìĺ¤ë ŀ
íĺ¼ìŀĲ ë§Į
Ġëį° ëĬĶ
Ġëį° ìĿ´íĬ¸ë
Ġì¤Ģë¹Ħ íķĺëĬĶ
Ġëħ Ħ
ĠíĿ ¬ë§Ŀ
íķ´ìķ¼ íķł
ĠìĦłë¬¼ ìĿĢ
ëĳĲ ìĦ¸ìļĶ
ìļ© ëıĪ
Ġíĸīë³µ ìĿĦ
Ġíĸīë³µ íķľ
ë¹ ¨
Ġíķ´ìķ¼ íķłê¹Į
ìłĪ íķľ
ĠìĻĶ ëĦ¤
ĠìĻĶ ìľ¼ë©´
ì§ĿìĤ¬ëŀĳ ìĿĢ
Ġë³´ê³ł ìĭ¶
ĠëĳĲ ê³ł
íķ¨ ìĿĦ
Ġê³łë¯¼ ìŀĦ
ë²Ħ ëł
ë²Ħ ëł¸ìĸ´
Ġê³łë°± íĸĪëĬĶëį°
Ġíģ ¬ë¦¬ìĬ¤ë§ĪìĬ¤
ìĹ°ìķł ëĬĶ
Ġíŀĺëĵł ê°Ģë´ħëĭĪëĭ¤
ìħ¨ ëĦ¤ìļĶ
ìĦľë¡ľ ë¥¼
ĠìķĮìķĦ ì°¨
ë°ľ íĳľ
ìĻĶ ëĬĶëį°
ë¨¹ ê¸°
ĠëĨĢ ìĿ´
ë© į
ë¯¸ ì¹ľ
Ġì¹ľêµ¬ íķľíħĮ
ìĿ´ë Ł´
ĠìŀĪìĹĪ ìľ¼ë©´
ëĨ ĵ
ë¡ ±
ĠíĶ¼ íķ´
ìŀĬ ì§Ģ
ìŀĬ ëĬĶ
Ġëĭµ ìŀ¥
ĠìĦ± ê²©
ìĹ¬ë ¦Ħ
Ġê°Ħ ìłĪ
íľ´ ëĮĢíı°
ĠíĳľíĺĦ ìĿ´
ĠíĳľíĺĦ ìĿĦ
ĠíĳľíĺĦ íķ´ë³´ìĦ¸ìļĶ
íĪ °
ëĭ¬ëĿ¼ ì§ĢëĬĶ
ì°¸ ê³ł
ĠìķĬìķĦ ìĦľ
ĠëıĻ ë¬¼
ĠìĿ´ìľł ëĬĶ
ê°ĳ ëĭĪëĭ¤
ê°ĳ ìŀĳ
ĠëĲĺëĬĶ ì§Ģ
ì·¨ ë¯¸
Ġìĭ¤ ë§Ŀ
ì±ħ ìĿĦ
Ġì·¨ ì§ģ
Ġì·¨ íĸ¥
ĠìķĦíĶĦ ëĭ¤
Ġìĸ´ëł¤ ìĽĮìļĶ
Ġë§ĮëĤ ¬ë
ê·¸ëħĢ ê°Ģ
ëģĿ ê¹Įì§Ģ
Ġê¹¨ ëĭ¬
ê¿Ī ìĹĲìĦľ
ìĹ¬ìŀĲ ëĵ¤ìĿĢ
ĠëĬĲëĤĮ ìĿ´
Ġìĺģ ìĽĲ
ê´ľì°® ìķĦìļĶ
ê¸°ëĭ¤ ë¦´
ĠìĽĲ ë§Ŀ
ê³µë¶Ģ ëĬĶ
Ġë¹ł ë¥¼
Ġì¦Ĳ ê¸°
ëĳ ¬
ëĳ ĺìĿ´
Ġë°ľ íĳľ
Ġëĭ¤ë¥´ ê²łì£ł
íļĮìĤ¬ ìĹĲìĦľ
Ġìŀ¬ë¯¸ ê°Ģ
Ġê¸¸ ìĸ´
ĠìĿ¼ìĸ´ ëĤĺ
íĸīë³µ íķľ
Ġìŀ¥ ìĨĮ
ì£¼ë ł¤
ë°ĺ ì§Ģ
Ġë§ĲìĶĢ íķ´ë³´ìĦ¸ìļĶ
ì¹ľêµ¬ëĵ¤ ìĿ´
Ġì´ ĪëĮĢ
ĠëĲĺìĹĪ ìĬµëĭĪëĭ¤
ĠíĨµ íķ´
Ġë§Īìĭľ ê³ł
íĹĪ ìłĦ
ĠìĦľë¡ľ ë¥¼
ĠíĿĲ ë¥´
Ġëĭ¤ê°Ģê°Ģ ë³´ìĦ¸ìļĶ
Ġê¸°ëĮĢ ìĦ¸ìļĶ
Ġë°ĺë ĮĢ
Ġë¬´ìĭľ íķĺìĦ¸ìļĶ
Ġë§Īëł¨ ìĿ´ìĹĲìļĶ
Ġë§Īëł¨ ìĿ´ì£ł
Ġë³µìŀ¡ íķĺê²łìĸ´ìļĶ
Ġì¢ħ êµĲ
Ġëĳ ĺìĿ´
ĠìĪĺë ĭ¤
ĠìŀĲì²´ ê°Ģ
ìĪŃ ìĥĿìĪŃ
ê°Ĳìłķ ìĹĲ
Ġìī¬ìĸ´ ëıĦ
ìĭľìĽĲ íķľ
Ġìį¨ ë³´ìĦ¸ìļĶ
ìĿ¼ë Ł¬
Ġì²« ìĤ¬ëŀĳ
ìĤ¬ëŀĳíķľ ëĭ¤ê³ł
ĠìĿĮ ìķħ
ĠìĤ¶ ìĿĦ
íķĺëĤĺë ´Ĳ
ĠíĽĦíıŃíĴį ìĿ´
ĠìĨĮì¤ĳ íķľ
ãħľ ãħľ
ë¡ľë§¨íĭ± íķľ
ë¡ľë§¨íĭ± íķĺëĦ¤ìļĶ
ì§Ħìłķ íķľ
Ġê¸°íļĮ ê°Ģ
ĠíĹ¤ìķĦ ë¦¬ëĬĶ
ë§¥ ì£¼
ĠìĥĿê²¼ë Ħ¤
Ġë¶Ģíĥģ íķ´ë³´ìĦ¸ìļĶ
ìĸ´ì© Ķ
ìłĲìĭ¬ ìĭľê°Ħ
Ġë³Ģë įķ
íĿĶ ëĵ¤
ìķĦëĭ Į
ĠìĹŃ ìĭľ
ìĻĦë²½ íķľ
Ġê³ģ ìĹĲ
ì½¤ íķľ
ëĪĦêµ° ê°Ģë¥¼
Ġê³¨ëĿ¼ ë³´ìĦ¸ìļĶ
Ġì³ Ĳ
ëıĦìĭľ ëĿ½
ĠìĿĺë ¯
Ġë°Ŀ íĺĢ
ëłĮ íĥĢ
Ġì§ĢëĤ¬ë Ħ¤ìļĶ
ë°Ķìģĺ ê±°ëĤĺ
¢ °
¤ ì¼Ģ
¦ ½
© į
© Ķ
³ Ħ
¸ ê¸°
» ĳ
ë ļ
ë ¿Į
ë ¸Ķ
ë ¢°
ì ı
ì Ń
ģ ĦëŁ¬
ħ ìĭľëĭ¤
ĭ íķľ
ĸ ìĿĢ
Ŀ ¼ë
Ġë ¡ľ
Ġë ¦¬
Ġë Ŀ¼ê³ł
ìĿ´ ìĹĲ
ìĿ´ ëĭĪ
ìĿ´ ìĬ¤
ĺë §Į
ìĸ´ ê°ĢëĦ¤
ê² ¬ë
ëĤ ¸
ê³ °
ê³ ¼ë
ì§Ģ ëĤľ
ìŀ ¼
Ġìŀ ¤ìĸ´
ê°Ģ ê¸°
ìł Ģëħģ
ìł ¸ëıĦ
Ġí ľ
Ġí ĥĿ
ë³ Ģë
ëĭ¤ íĸī
ëĭ¤ ëħĢ
ìĹĲ íľ´
ìĺ ¥
ìĺ Ĩ
ìĺ ¬ëł¤
¸ë Ł¬ë
ëıĦ ê°Ģ
ë³´ ëĭĪ
ë³´ íĹĺ
ë³´ ëł¤ê³ł
ĠìŀĪ ê¸°
ĠìŀĪ ì§ĢìļĶ
ĠìŀĪ ëĤĺë´ħëĭĪëĭ¤
Ġì¢ĭ ìķĺëĬĶëį°
ìŀĲ ë¥¼
ì£ Ħ
Ġìĭ ¤ë
ìĦľ ëıĦ
ìĺĪ ìģĺê²Į
Ġë° ±
ìķ¼ ê²½
ìķ¼ íķĺëĤĺ
ĠìĤ¬ëŀĮ ìĿ¸ê°Ģë´ĲìļĶ
Ġëĭ ®
Ġëĭ ¬ë
ëł ¬
ëł ¹
ĠìĪ ĺëĬĶ
Ġì§ ¸
ĠìĿ´ ìĤ¬
Ġê°Ļ ì§Ģ
Ġìł Ģëħģ
ë§Į ìĿĢ
ìĿ¸ ìłķ
ìĿ¸ ëĤ´
ìĿĺ ìļķ
ìľ¼ë ł¤
ìłķ ìĿĦ
ìłķ ë³´
ìłľ ë°ľ
ìłľ ëĮĢë¡ľ
Ġìĺ ´
ĠìĥĿê°ģ íĸĪëĬĶëį°
ĠìĥĿê°ģ íĸĪëĤĺë´ĲìļĶ
ê°Ħ ëĭ¨
Ġë§Ĳ ìĿ´ëĦ¤ìļĶ
Ġê°Ģ ì¡±
ìĤ¬ëŀĳ íķ´
Ġì¤ ĺë³´ìĦ¸ìļĶ
ĠëĤĺ ì§Ģ
ĠëĤĺ ìĿ´ëĬĶ
Ġë§İ ì§Ģ
ë¡ľ ëĺĲ
ìĹ¬ ìľłë¥¼
ìĻ ķ
Ġë°Ķ ê¾¸
íħ ľ
Ġìĭľ ê¸°ê°Ģ
ìĹĪ ìĬµëĭĪëĭ¤
ĠìŀĲ ë¦¬
ĠìĤ¬ëŀĳ ìĿĺ
ĠìĤ¬ëŀĳ íĸĪ
ĠìĤ¬ëŀĳ ìĿ´ëĦ¤ìļĶ
ìļ´ ìĿĦ
Ġìŀĺ íķ´ì¤ĺ
ê± Ķ
ê± ¸ë¡ľ
ĠìĹ¬ ìľłë¥¼
ìĭ¬ ìĭ¬
ìłĢ íķľíħĮ
Ġê´ ľíŀĪ
íŀĪ ëĬĶ
ĠëĤ¨ ê¸°
ĠëĤ¨ ìķĺë
ĠìĤ¬ ìķ¼ì§Ģ
ìĿ´ë³Ħ ìĹĲ
ĠìķĮ ë©´
Ġë§ĪìĿĮ ìľ¼ë¡ľ
ìĬ¤ íĤ¨ìĭŃ
ìĬ¤ íĬ¸ëłĪì¹Ń
ë¯ ¸ë¦¬
ìłģ ê¸Ī
Ġìłķ ë¦¬ë¥¼
ĵł ì§Ģ
ëĮĢ íķľ
ëĮĢ ì¶ľ
ë§ĪìĿĮ ëıĦ
íļĮ ìĽĲ
íļĮ ìĤ¬ëĬĶ
Ġë¨¹ ìĸ´ë³´ìĦ¸ìļĶ
ìį¸ ìĿĢ
Ġì¤ĳ ìŀħëĭĪëĭ¤
Ġì¤ĳ ëıħ
Ġê°ĻìķĦ ìĦľ
íĹ¤ìĸ´ ìł¸ìķ¼
ê´ ľíŀĪ
ë¶Ħ ìľĦê¸°
ìŀĺ íĸĪìĸ´ìļĶ
Ġì¡ ¸ìĹħ
ëĭ¹ ìŀ¥
ìĹĲê²Į ëĤĺ
ìķĪ ìłĦ
ê³¼ ìĭĿ
Ġëĵ¤ ê³ł
Ġëĵ¤ ìĹĪìĸ´
ê·¸ ëĬĶ
ĠìĦł ë¬
Ġë¬´ ìĥī
Ġë¬´ ëį¤ëį¤
ĠëŃĲ íķĺê³ł
ĠëŃĲ ëĵł
ĠíķĺëĬĶ ê±´
íĮ Ķ
ĠëĬ Ļ
ìĪĺ ìĿ´ë³Ħ
ĠëģĿ ìĿĦ
ĠëģĿ ëĤ¬ìĸ´
Ġëĵľ ë¦´ê²ĮìļĶ
Ġìĸ »
ìģ ł
ëĤľ ëĭ¤
íģ ¬ë¦¬ìĬ¤ë§ĪìĬ¤
Ġìĭ¶ëĭ¤ ê³ł
ê³µ ìĭľ
ê³µ íıī
ê³µ íĹĪ
ê³µ ë¬´ìĽĲ
ĠëĮĢ íķ´ìĦľ
Ġì¡° ìĭ¬
Ġëª¨ë¥´ ê²Į
ê´Ģ ìĭ¬
ĠìŀĬ ìľ¼ìĦ¸ìļĶ
ĠíĽĦ ê°Ģ
ĠíĽĦ ìĹĲ
ëĭ¬ ì½¤íķľ
ë°Ķ ìģĺê²Į
Ġì°¾ ëĬĶ
Ġì°¾ ê¸°ë¥¼
ê¾¸ ì¤ĢíŀĪ
ìļ¸ ìłģ
Ġë§ŀ ì¶Ķ
Ġê°Ĳ ê³ł
ĠìĨĮ ë¬¸
ê³Ħ íļį
Ġì² ł
ĠìķĦëĭĪ ì£ł
ĠìķĦëĭĪ ìĹĪ
ĠìķĦëĭĪ ì§Ģë§Į
ëĭµ ìĿĦ
íĥĢ ìĿ´ë°į
Ġì°¨ ë³Ħ
Ġíķĺ ìŀĲê³ł
Ġëĭ¹ íĸĪìĸ´
Ġëĭ¹ ëĭ¹íķĺê²Į
ëĭ´ ë°°
ìŀĲìĭł ê°ĲìĿĦ
ĠëıĦ ìĽĢìĿĦ
íĺ¼ìŀĲ ëıĦ
ìĿ´ìķ¼ ê¸°
ìĿ´ìķ¼ ê¸°ë¥¼
ĠìĽ ¬
ìĭ¶ ìĿĢëį°
íķ´ìķ¼ ê²łì§Ģ
ì¤ĺ ìķ¼
ĠìĦłë¬¼ ìĿĦ
Ġê¸°ëĭ¤ ë¦´
Ġê¸°ëĭ¤ ë¦¬ë©´
íĨµ ìĪĺ
ìłĲ ìĹĲìĦľ
ĠìľĦ íķ´ìĦľ
êµĲ íĨµ
êµĲ ìĸĳ
Ġê³Ħ íļį
Ġì¶Ķ ìĽĮ
Ġíĸīë³µ íķł
íĶ¼ íķł
Ġíķ´ìķ¼ ê²łëĭ¤
Ġíķ´ìķ¼ íķłì§Ģ
ĠìĻĶ ìĬµëĭĪëĭ¤
ì§ĿìĤ¬ëŀĳ íķĺëĬĶ
Ġìĭľìŀĳ ìĿ´
Ġë°ĽìķĦ ë³´ìĦ¸ìļĶ
ĠëĲĺë ıĮ
Ġë§Įëĵ¤ ê³ł
Ġê³łë¯¼ ìĿ´
ì²Ń ì²©
íĤ ģ
Ġê³łë°± íķĺë©´
ê°ķ ìķĦì§Ģ
ëĭ¤ëĬĶ ê±´
ì½ ĺ
ĠìķĮìķĦ ë³´ê³ł
ê²°íĺ¼ íķĺë©´
ìĹħ ë¬´
ë§Ľ ëĤĺê²Į
Ġì¡°ê¸Ī ìĿ´ëĿ¼ëıĦ
ìĿ´ìĹĪ ëĤĺë´ĲìļĶ
Ġë³Ģ íĻĶë¥¼
ĠëĨĢ ìķĦ
Ġìĵ° ëłĪê¸°
ê²¼ ëĬĶëį°
Ġìłģ ëĭ¹íŀĪ
Ġê±±ìłķ íķĺì§Ģ
Ġìĸ´ëĸ¨ ê¹Į
ëĨ į
ëĨ ĢëŁ¬
ë°© ë²ķ
íĺ¸ ê°ĲìĿĦ
Ġë¯¸ ìķĪíķ´
Ġê´Ģìĭ¬ ìĤ¬ë¥¼
ĠëĪĪ ì¹ĺ
ìŀĬ ìĸ´
Ġë§İìķĦ ìĦľ
ĠìĦ± ìŀ¥
Ġê°Ħ ìłĳ
Ġíķ¨ ê»
ĠìĨį ìĹĲ
ëŁ¬ ìĽĮ
ë¶Ģë Ł¬
ĠëĬĲëĤ Ħ
ëŃĲ ëĿ¼ê³ł
ë´ ī
ê°ľìĽĶ ìĿ´
Ġíı °
Ġë°ĺ ìĿĳ
ĠìĿ´íķ´ ê°Ģ
íĭ Ģ
ĠëĪĦ êµ¬ëĤĺ
ìĺ¨ ìłĦíŀĪ
Ġë³´ëĤ´ ëĬĶ
Ġë³´ëĤ´ ì£¼ìĦ¸ìļĶ
ĠíĽĦíļĮ ê°Ģ
ĠìĹ¬íĸī ëıĦ
ìħĶ ìļĶ
ëĶĶ ìħĺ
Ġê³µë¶Ģ íķ´ìĦľ
Ġì·¨ íķ´ë³´ìĦ¸ìļĶ
ê·¸ëħĢ ë¥¼
ë¶ĢíĦ° ëĬĶ
Ġë¬¼ìĸ´ ë³´ëĬĶê²Į
Ġê¹¨ ìļĶ
íĤ¤ ëĬĶ
ĠëĬĲëĤĮ ìĿ´ìķ¼
íĻľ ëıĻ
ìĪĻ ìĤ¬
ì¶ķ êµ¬
Ġìµľ ìķħ
Ġìµľ ìĦłìĿĺ
ĠìĥĿê²¼ ìľ¼ë©´
ëĤ¨ìŀĲì¹ľêµ¬ ìĻĢ
Ġê¶ģê¸Ī íķ´ìļĶ
Ġìĭ¸ ìĽĮ
ĠìĤ¬ìĿ´ ìĹĲ
ê¼ ¼
íķĺëĭĪ ê¹ĮìļĶ
Ġì±Ļê²¨ ëĵľìĦ¸ìļĶ
Ġì¶Ķì²ľ íķ´ìļĶ
Ġë§Īë ¬´ë¦¬
Ġê·¸ë¦¬ ìļ´
ĠìķĦë¬´ ëıĦ
ìĪľ ìľĦ
Ġê²½ íĹĺ
ëĤĺë§Į ìĿĺ
Ġë§Ĳíķ´ ë³¼ê¹Į
Ġëĭ¤ë¥´ ê²łì§ĢìļĶ
Ġë´ ¤ìĸ´
íļĮìĤ¬ ìĻĢ
Ġíķľëĭ¬ ìĿ´
ĠíĹ¤ìĸ´ì¡Į ëĦ¤
Ġëĭ¨ ê³Ħ
Ġê¸¸ ìĿ´
íĸīë³µ íķ´
ëĵ¯ ìĿ´
íıī ìĥĿ
ê½ĥ ëĭ¤ë°ľ
íĬ¸ë ¥¼
ĠìŀĬìĸ´ ìķ¼
ëĲľ ëĭ¤ê³ł
Ġê´Ģê³Ħ ê°Ģ
Ġê´Ģê³Ħ ë¥¼
ĠìĿ¼ë ħĦ
ĠìľĦë¡ľ ê°Ģ
Ġì¹ĺ ê³¼
Ġë¯¸ëł¨ ìĿ´
ĠíĿĲ ë¥´ê³ł
ëĦ Į
íķĺìĭľ êµ°ìļĶ
ìĤ¬ê·Ģ ê¸°
Ġëķ ¡
Ġëª© ìĨĮë¦¬ë¥¼
íĺĦìĭ¤ ìłģìĿ¸
ĠìĿ´ê²¨ ëĤ´
ë¨¸ë¦ ¿
ìķ¼ë Ĳ
ĠìĤ¬ê· Ħ
ë¯¿ ìĿĮìĿ´
ì§ģìŀ¥ ìĹĲìĦľ
ë§ŀ ëĬĶ
ì£½ ìĿĦ
ĠìĿ½ ìĸ´ë³´ìĦ¸ìļĶ
ĠìĻĦìłĦ íŀĪ
ëĺĳ ê°ĻìĿĢ
Ġë§ĪìħĶ ìķ¼ì§Ģ
ëıĮ ìķĦ
Ġê´Ģë¦¬ íķĺìĦ¸ìļĶ
ìĺ¤ëĬĺë Ķ°ëĿ¼
Ġíĥľìĸ´ ëĤľ
ĠìĨĶì§ģ íķĺê²Į
ëĶ°ëľ» íķľ
ëĶ°ëľ» íķĺê²Į
ìĿ´ë²Ī ìĹĲëĬĶ
ĠìĿµìĪĻ íķ´
Ġìĸ´ëĬĲ ëį§
ê°ĢëģĶ ìĿĢ
ìĺģíĻĶ ê´Ģ
ëĵ ±
Ġíİ ĺë¶ģ
Ġê±°ê¸°ê¹Įì§Ģ ìĿ¸ê°Ģë´ĲìļĶ
íĳ ¼
Ġë²Ĺ ìĸ´ëĤĺ
ĠìĨĮìĭĿ ìĿ´ëĦ¤ìļĶ
Ġëª¸ ìĿ´
ĠìĥĿê¸° ë©´
Ġë¨¸ë¦¬ ê°Ģ
íĹ¤ìĸ´ì¡Į ëĬĶëį°
ìĭ« ìĸ´
ĠíĻĺ ìĬ¹
ë°©íķĻ ìĿ´
Ġíĳ ¸
Ġíĳ ¹
ĠëĤĺíĥĢ ëĤł
Ġì¹ĺë £Į
Ġë¶Īíİ¸ íķ´
Ġê¹Įë¨¹ ìĹĪëĭ¤
ĠëĬĺ ìĸ´ìļĶ
ë¨¸ë¦¬ë ŀĳ
ĠëĬĲëģ¼ ëĬĶ
ê·¸ëłĩ ëĭ¤ë©´
ëķ Ĳ
ê·¸ëŁ¼ ìļĶ
Ġê·¸ëŁ¬ ê³ł
ĠíĹĪë ¬´
ĠìķĪëĲĺë Ħ¤
Ġë¶Ģëª¨ëĭ ĺ
ìĤ¼ ê²¹
Ġê´ľì°®ìķĦì¡Į ê¸¸
ìĦ¼ íĦ°
ĠìķĦê¹Į ìĽĮ
Ġë§Įëĵľ ëĬĶ
ìħĢ íĶĦ
íĶĦë¡ľ íı¬ì¦Ī
ìļ©ê¸°ëĤ´ ìĦľ
Ġìľłì§Ģ íķĺëĬĶ
íģ¬ë ¦¼
íŀĺëĵľ ëĦ¤
ë¶Ļìŀ¡ ê³ł
ëĴ ·
ĠëĤĺìģĺ ì§Ģ
ĠìĽĶ ê¸ī
ê¼¬ë °ķ
Ġëĭ¨ëĭ¨ íŀĪ
ëłĩ ì§ĢëıĦ
ìĭľìĸ´ë¨¸ ëĭĪê°Ģ
ìĨĮíĻĶ ìłľ
ì»¨ ëĶĶìħĺ
ĠìĿ´ëŁ¬ ì§Ģ
Ġëĭ¤ëĭ Ĳ
Ġëį°ìĿ´íĬ¸ë ¥¼
ë²Ħëł ¸ëĦ¤
Ġì³Ĳ ëĭ¤
íļĮìĽĲ ìłķë³´
íĥĢìĿ´ë°į ìĿ´
ìĤ¼ê²¹ ìĤ´
¦ ¬ëĬĶ
¬ ìľł
´ ë§Į
µ ëĭĪëĭ¤
í Ľ
Ġ 8
Ġ sns
Ģ ìĥī
ĩ ëª¸
ĭ ¤ë©´
ĳ ¥
Ĺ ìĸ´
ľ ë¹¡
Ŀ ½
Ġì «
Ġë ©´
Ġë ¸Į
Ġë ½ĳ
Ġê ½ĥ
ìĿ´ ì§ģ
ìĿ´ ëĭĪê¹ĮìļĶ
ìķ Ĭ
ì§ ķ
ëĭ «
ìĸ´ ì£¼ìĦ¸ìļĶ
ìĸ´ ì°Į
ëĤ ®
ëĤ ¬ëĬĶëį°
ì§Ģ ëĦ¤ìļĶ
íķ´ íķĺì§Ģ
ìķĦ ê¸°
ìķĦ íĶĪ
ê°Ģ ëıĦ
ê°Ģ ê¸¸
ìĦ¸ íŀĪ
ê³ł ê°Ģ
ìł Ģë
Ġë§ ĺìĿ´
Ġìķ ī
íķĺë ©°
íķĺ ê²łì§Ģ
íķĺ ì²ł
ëıĦ ë¥¼
ë³´ ì§Ģ
ë³´ ìķĦìļĶ
ë³´ ëł¤
ĠìŀĪ ëĭ¤
ĠìŀĪ ê²łëĦ¤ìļĶ
ê¹ ĶëģĶ
ê¹ ĬìĿĢ
©´ ìĦľ
íķľ ìŀĶ
Ġì¢ĭ ìķĺ
Ġì¢ĭ ìľ¼ìĭľ
ìŀĲ ê°Ģ
Ġê±° ìļĶ
Ġê±° ëŀĳ
Ġìĭ ¬ìĸ´
Ġìĭ ¬ë¦¬
ê¸° ëł¥
ê¸° ìłģìľ¼ë¡ľ
Ġê² Ģìĥī
ë¦ ¿
ëĤĺ ê°ĢëĬĶ
ìķ¼ ê²łì§Ģ
ìķ¼ ê·¼
íķł ê¹ĮìļĶ
íķł ê±°ëĿ¼
ĠìĤ¬ëŀĮ ìĿ¸ëį°
Ġëĭ ¬ëł¤
Ġì§ ł
ĠìĿ´ ê±´
Ģë ĵľ
Ġê°Ļ ëĭ¤ê³ł
Ġìł Ģëŀĳ
ë§Į íķľ
ë§Į íŀĪ
ìĿ¸ ëĭ¤
ìĿ¸ ê°Ħ
ìĿ¸ ìĿ¸ëį°
ìĿ¸ íĦ´
ŀĺë Ĳľ
ê°ģ ìĿ´
ìĭľ ê²łëĦ¤ìļĶ
ìĭľ ê³Ħ
ìľ¼ë ł¤ë©´
ĠìķĦ ê¹Ŀ
ĠìķĦ ë¦Ħëĭ¤
ëĿ¼ ìĿ´
ê±° ìĽĮ
ê±° ê²łì£ł
Ġì¢ĭìķĦ íĸĪëĬĶëį°
Ġì¢ĭìķĦ íķĺëįĺ
Ġë§Ī ìħ¨
íĸ ĪëįĶëĭĪ
ìĿ¼ ì°¨
ìłķ ìĭłìĿ´
ë¦¬ ê²łìĸ´ìļĶ
ìĭł ëĤĺëĬĶ
ëĤ¨ ëĵ¤ìĿ´
Ġê²ĥ ì²ĺëŁ¼
Ġìĸ´ ë¦°
Ġìĸ´ íķĦ
ìłľ ìŀĲë¦¬
ì£¼ ëıĦ
ì£¼ ìĭĿ
ì£¼ ì°¨
ĠìĥĿê°ģ íķ´ëıĦ
ĠìĥĿê°ģ íķłê¹Į
ĠìķĬ ìķĺë
ĠìķĬ ìķĺëĤĺë´ĲìļĶ
Ġê± ¸ë¦¬
Ġê± ¸ëł¤
ê°Ħ ëĭ¤
Ġë³´ ê²Į
Ġë³´ ëĬĶê²Į
Ġë§Ĳ ìķĦ
Ġë§Ĳ íķĺì§Ģ
Ġë§Ĳ íķ´ëıĦ
Ġë§Ĳ íķ´ì£¼ìĦ¸ìļĶ
Ġë§Ĳ ëĿ¼ê³ł
Ġëĭ¤ ìĸĳ
ìĤ¬ëŀĳ ê³¼
ìĤ¬ëŀĳ íķ´ìĦľ
ìĤ¬ëŀĳ ìĹĲëĬĶ
Ġíŀĺë ĵŃëĭĪëĭ¤
ì¤ ¬ëĬĶëį°
ìĥģ ìĿĢ
Ġì° Ķ
ëĵ¤ ìĹĲê²Į
Ġìĭľ íĹĺ
Ġìĭľ íĤ¤
ì¹ľêµ¬ ìĿĺ
Ġê·¸ë ĮĢ
Ġê·¸ë ŀĺëıĦ
Ġê·¸ë ¦½
ìĨ ¡
ìķł ìłķ
ĠìĤ¬ëŀĳ ìľ¼ë¡ľ
ĠìĤ¬ëŀĳ íķ´ìĦľ
ĠìĤ¬ëŀĳ íĸĪëĤĺë´ĲìļĶ
ë² ļê½ĥ
ĠìŀĪìĿĦ ì§Ģ
ìļ´ ìłĦ
ìĽĮ ë³´ìĦ¸ìļĶ
Ġê¸° ì¤Ģ
Ġíķ ĳ
Ġë¨ ¸ë¦
ĠìĹ¬ ìłĦíŀĪ
Ġì§Ģ ìļ¸
íĸĪ ì§Ģë§Į
ìŀ¥ ìĹĲ
ĠìĻ ¤ì¼Ģ
ĠëĤ¨ ì§Ģ
ìĤ¬ ëĤ´
ìĤ¬ íĻľëıĻ
ĠìĤ¬ ê²¨
ĠìĤ¬ëŀĮìĿ´ ëĿ¼ë©´
Ġíŀĺëĵ¤ ì§ĢìļĶ
ĠìķĮ ê¸°
ĠìķĮ ë©´ìĦľëıĦ
ĠìĿ¼ ìĿ´ì£ł
ìłģ ìĿ´ìķ¼
ìłģ ëł¹
Ġìłķ íķ´ë³´ìĦ¸ìļĶ
Ġìłķ ìĥģ
Ġìłķ íĻķ
Ġìłķ ë¥ĺ
Ġëª» íĸĪ
Ġê³ł ë§Ī
Ġê³ł ë§Ļ
Ġë¨¹ ìĹĪìĸ´
ìļ° ìĬ¤
ìļ° ìĹ°íŀĪ
ìį¸ ìĹĲìĦľ
Ġëģ Ī
Ġëģ Į
Ġëģ ĵ
ĠëĲł ì§ĢëıĦ
ĠëĲł ê±°ìĺĪìļĶ
ë¬´ ìĭľ
ë¶Ħ ëĵ¤
ë¶Ħ ëªħ
Ġíķĺë įĺ
Ġíķĺë Ħ¤ìļĶ
Ġíķĺë ł¤ê³ł
Ġíķĺë ĭĪ
ĠìĤ´ ì§Ģ
ĠìĤ´ ê¸°
ĠìĤ´ ìķĦìļĶ
ê°Ĳ ëĭ¹
Ġíķľ ëĭ¬ë
ëĭ¹ ìĹ°
ë³µ ìĿ´
Ġì¢ĭìĿĦ ê¹ĮìļĶ
ìŀĪ ì£ł
ê·¸ ë§Įíģ¼
ĠìĦł ìĿ´
ëıĻ ë¬¼
ëıĻ ìĦ±
ëıĻ íĺ¸
ë¥¸ ì²Ļ
ìĻĢ ìĿĺ
ĠëŃĲ ëĿ¼
ĠëŃĲ íķłê¹Į
ë¦¬ë Ł¬
ìĶ »
ìĨĮ ìĿĮ
ìĨĮ ì¤ĳ
ĠìłĦ íĻĶë¥¼
ĠìłĦ íĻĶê°Ģ
ĠëģĿ ìĹĲ
ĠëģĿ ëıĦ
ĠëģĿ ìĿ¸
ĠëģĿ ëĤĺê³ł
ê°Ļ ì§Ģ
ìģ ĺë©´
ĠëĤĺë Ħ¤
ĠíķĦìļĶ íķĺê²łìĸ´ìļĶ
ëĤľ ê±°
ìĨį ìĹĲ
ĠìĹĨìĸ´ ëıĦ
ëħĦ ìĿĦ
ëħĦ ê°Ħ
Ġëª¨ë¥´ ëĬĶê²Į
ê´Ģ ìĭ¬ìĿĦ
Ġìī ½
ê²½ ìĿĺ
ĠëĪ Īë
ìĺ¤ëĬĺ ìĿ´
ë°Ķ ë
ë°Ķ ë³´
ë°Ķ ë¹ł
ìļ¸ ìĸ´ëıĦ
Ġë§ŀ ìĿĦê¹Į
Ġë§ŀ ìĿĦê±°ìĺĪìļĶ
íĹ ĺìĿ´
ĠíĸĪ ìĸ´ìļĶ
ĠìĨĮ ë¦¬ê°Ģ
ĠìķĦëĭĪ ê³ł
Ġìĺ¤ ì§Ģ
ìĦ± íĺķ
íķĻ ìĥĿ
Ġì§Ħ ìĭ¬ìľ¼ë¡ľ
Ġê¹ ĶëģĶ
íĦ° ê°Ģ
íĦ° ë¦¬
ë¹Ħ ë°
ë¹Ħ ë°Ģ
Ġì§Ŀ ìĤ¬ëŀĳíķĺëĬĶ
Ġë¹ ¨
Ġë¹Ħ ëĤľ
ê·¼ ì²ĺ
ìĦł íĥĿ
ì§Ģê¸Ī ìĿ´ëĿ¼ëıĦ
ì§ĳ ìĿ´
ì¹ľêµ¬ë ¡ľ
íķ´ìķ¼ ì£ł
ì²ĺë ¥¼
ëĳĲ ê·¼
ëĳĲ ë²Ī
Ġìį¸ ìĿĺ
Ġìį¸ íĥĢëĬĶ
§Į ìĹĲ
ĠìĿ´ìķ¼ê¸° íķ´ëıĦ
ĠíĹ Ľ
Ġì°¸ ëĬĶ
Ġì°¸ ìķĦë³´ìĦ¸ìļĶ
Ġíĥ Ķ
Ġíķĺì§Ģ ë§Į
Ġíķĺì§Ģ ë§ĪìĦ¸ìļĶ
Ġì¤Ħ ê¹Į
ë¹ Ľ
ë¹ ¨ë¦¬
Ġíķ´ìķ¼ ì£ł
Ġë³´ê³ł ìĭ¶ëĭ¤
Ġìĭľìŀĳ íķ´
Ġìĭľìŀĳ íķĺìĦ¸ìļĶ
íķĺëĭ¤ ëĬĶ
íİ¸ íķľ
Ġê³łë°± íķĺëĬĶ
ëĥ ĦìĥĪ
Ġê°ĢëĬ¥ íķ´
Ġê°ĢëĬ¥ íķ´ìļĶ
íĥĿ ìĭľ
ì½ ķ
ĠìķĪëĲ ĺëĬĶëį°
ê²°íĺ¼ ìĿĢ
ê²°íĺ¼ ìĭĿ
ìĤ´ ìĿ´
ìĤ´ ìķĦ
Ġìĭ«ìĸ´ íķĺëĬĶ
ìĵ° ëĬĶ
ìĵ° ëłĪê¸°
Ġë°° ìļ°ëĬĶ
Ġê·Ģ ìĹ½
ĠëĨĢ ì£ł
ĠìķĦëĭĪë Ħ¤ìļĶ
ìī ½ê²Į
ë¯¸ ì¹ĺ
Ġëĸł ìĺ¤
Ġëĸł ëĤĺê³ł
Ġëĸł ëĤĺë³´ìĦ¸ìļĶ
ìľĦ íĹĺ
Ġíŀĺëĵ¤ìĸ´ íķĺì§Ģ
Ġë²Ħ íĭ°
Ġìłģ ê·¹ìłģìľ¼ë¡ľ
ìĿ´ë ¸Į
¸ë¦ °
Ġìļ° ìĤ°
ĠìŀĪìĹĪ ëĤĺìļĶ
Ġê²°íĺ¼ ìĭĿ
ëĨ Ī
ĠëĦ Ĳ
ìĺĢ ìĿĦ
ìĺĢ ëĬĶëį°
ë§ī ë§Ĳ
ì± Ļ
ìĤ ¶
ì¹¨ ìĿ´
ì¹¨ íĳľ
ë¦Ħ ëĭµ
ëĤ¨ìŀĲ ëĬĶ
Ġê·¸ëŁ´ ê¹Į
ëĦĪ ëıĦ
Ġëĭµ ìŀ¥ìĿ´
ĠëĲĲ ìĸ´ìļĶ
ëĪĦ êµ¬
Ġëĵ¯ íķ©ëĭĪëĭ¤
ĠìĨį ìĿ´
ĠìĨį ìĹĲìĦľ
Ġë¶Ħ ìľĦ
Ġë¶Ħ ìľĦê¸°
ìĸĳ ë§Ĳ
ëķĮ ëĬĶ
ëŃĲ ëĿ¼ëıĦ
íĪ ´
ìĥĪ íķ´
ê°ľìĽĶ ë§ĮìĹĲ
ëĭ¬ëĿ¼ ì§Ģ
Ġíı Ń
Ġë¶Ī ìķĪ
Ġë¶Ī íĸī
ĠìĿ´íķ´ íķ´
ì¶ľ ë°ľ
ê°Ī ê±°ìĺĪìļĶ
ĠëıĮìķĦ ìĺ¬
Ġìŀ¡ ìķĦ
Ġìŀ¡ ìľ¼ìĦ¸ìļĶ
Ġìķŀ ëĳĲê³ł
Ġíķĺë£¨ ëıĦ
ìĭ¸ ìļ°
ĠëĲĺëĬĶ ê²Į
ëĤ´ìĿ¼ ëıĦ
Ġìĸ´ëĶĶ ìĦľ
Ġìĸ´ëĶĶ ê¹Įì§Ģ
ìħĶ ìķ¼
Ġìĭ¤ ê°ĲìĿ´
Ġìĭ¤ ìĪĺë¥¼
ĠìĿ´ë ¤Ħ
Ġìŀħ ì§Ģ
Ġê¹¨ ëĭ«
ê¿Ī ìĿĢ
Ġë´Ĳ ìĦľ
ìĹ¬ìŀĲ ëĵ¤ìĿ´
Ġìľł íļ¨
ĠìĥĿê°ģíķ´ ë´ĲìļĶ
Ġë§ĮëĤĺë ıĦ
ĠìĽĲ ëŀĺ
ì© į
Ġìĭ¸ ìĽĢ
ĠìĤ¬ìĿ´ ìĹĲìĦľ
ì§ģìłĳ ìłģìĿ´ëĵł
ëĲĺ ì§Ģ
íķĺë£¨ ê°Ģ
ĠíĴĢ ìĸ´ë³´ìĦ¸ìļĶ
ĠíĴĢ ëł¸
ĠìĻĢ ìĦľ
ĠíĿĺë ł¤
Ġìŀĺëª» ìĿ¸
íķ´ì§Ģ ìĦ¸ìļĶ
Ġìį ¸ë
Ġë§ŀëĬĶ ì§Ģ
Ġë¹ł ìł¸
Ġëįľ íķł
ìĹĦ ì²Ń
Ġë§ī íĺĢ
Ġë§ĺ ê³łìĥĿ
Ġê²½ íĹĺìĿ´
ìĬ¬ íĶĦ
ëŀĢ ê²Į
ĠìĪł ë§Ī
ĠìķĦëĭĲ ê¹Į
íĬ¸ë ¶ģ
Ġìļ© ê¸°
Ġìļ© ìĦľ
ĠìĬ¬ íĶĪ
ì¢ħ ìĿ¼
ìĦ¸ìĥģ ìĹĲ
ìĦ¸ìĥģ ìĿĢ
ìĥģëĮĢë°© ìĿ´
Ġì§ĢëĤ´ ëĬĶ
Ġë§ĲìĶĢ íķĺìĦ¸ìļĶ
Ġì¶ķ íķĺëĵľëł¤ìļĶ
Ġíĺ¸ ê°ĲìĿĦ
ì¹ľêµ¬ëĵ¤ ìĿ´ëŀĳ
Ġë§ĮëĤ¨ ìĿ´ìĹĪê¸¸
Ġê·¸ëłĩ ì§Ģ
Ġê·¸ëłĩ ì£ł
ĠìĪľê°Ħ ìĿ´
ĠìĿ¼ë ¶ĢíĦ°
ĠìľĦë¡ľ ë´ĩ
Ġì»¤ íĶ¼
Ġì»¤ íĶĮ
ĠìłķëıĦ ëĬĶ
íģ¬ ëĭī
Ġì§ĿëħĢ íķľíħĮ
ëĥĲ ê³ł
Ġëĭµëĭµ íķ´
Ġë³Ħë¡ľ ëĿ¼ê³ł
ìĹĦë§Ī íķľíħĮ
Ġê¿ Ģ
ĠíĹ¤ìĸ´ì§Ģ ìŀĲê³ł
ĠíĤ¤ ìļ°ê³ł
ĠìĤ´ìķĦ ìķ¼
Ġì¶©ë¶Ħ íķľ
Ġê¸°ëĭ¤ëł¤ ì£¼ìĦ¸ìļĶ
Ġë©ĭ ì§Ħ
Ġë©ĭ ìł¸ìļĶ
íķĺìĭľ ëĦ¤ìļĶ
¸ëŀĺë °©
ìĦ¤ ëł
ìĦ¤ ëłĪ
Ġíŀĺëĵ¤ìĹĪ ìĿĦ
ĠëŃĶ ê°Ģ
Ġë¬´ìĭľ íķĺëĬĶ
Ġì¢ħ ìĿ¼
ê·¸ë¶Ħ ìĿ´
ĠëĬĲê»´ ìł¸
ĠíĶĦ ë¡ľ
Ġëķ Ģ
Ġëķ Ĳ
ĠìŀĲì²´ ë¡ľ
ĠìĤ¬ëŀĳíķľ ëĭ¤ê³ł
Ġìłĳ ìĸ´ëĳĲ
ëĸ ¨
Ġë³´ìĹ¬ ìļĶ
Ġë³´ìĹ¬ ì£¼ìĦ¸ìļĶ
ĠëĤĺìķĦ ì§Ī
ĠëĤĺìķĦ ì¡Į
Ġì²ľ ìŀ¬
ĠìĺģíĻĶ ë³´
íĻĺìĬ¹ ìĿĢ
ìĭľìĽĲ íķĺê²Į
ì¶ķíķĺ íķ©ëĭĪëĭ¤
Ġë°ĶëĿ¼ ì§Ģ
Ġë°ĶëĿ¼ ëĬĶ
ĠìĥģëĮĢ ë¥¼
ĠíĮĮ ìĿ´íĮħ
ë£Į ê°Ģ
ĠìķĪëĲĺ ê²łì§Ģ
Ġë¶Ļìŀ¡ ê³ł
Ġíĥľìĸ´ ëĤ¬
ëŁ½ ê²Į
Ġì§Ī íĪ¬
ĠìĿĳìĽĲ íķ©ëĭĪëĭ¤
Ġê¸´ ìŀ¥
Ġë¬¼ìĸ´ë ´ĲìļĶ
Ġìļ°ìļ¸ íķ´
ìĿĺë ¥¼
íķĦìļĶ íķľ
íķĦìļĶ íķĺëĭ¤ë©´
ì§§ ìĿĢ
Ġê±°ê¸°ê¹Įì§Ģ ìĺĢëĤĺë´ĲìļĶ
ëĭµëĭµ íķľ
ĠìĬ¤ìĬ¤ë¡ľ ìĹĲê²Į
ë³´ìĹ¬ ìļĶ
ĠíĹ¤ìķĦ ë¦¬ì§Ģ
ê·¸ëŁ¬ ê²ĮìļĶ
Ġëª¨ëĵł ê±¸
Ġêµ¬ë ©į
ìª ½
ê¹¨ ëģĹ
ìĤ¬ì§Ħ ìĿĦ
íĨł ëĭ¥
Ġë¬´ìĹĩ ìĿ´ëĵł
Ġë²Ħíħ¨ ë³´ìĦ¸ìļĶ
Ġê¸Ģ ìĿĦ
ìĤ¬ê· Ħ
ĠëĴ ·
ìĻ¸ë ª¨
Ġì¶ľ ê·¼
Ġìĥģëĭ´ ìĿĦ
Ġìĸ´ìļ¸ë¦ ¬ëĬĶ
Ġê½ ¤
Ġì§Ģë ĥ
ìĭľìŀĳ ìĿ´
ìĭłíĺ¼ ìĹ¬íĸī
ĠìĻ¸ êµŃ
Ġìłķë¦¬ë Ĳł
ìĥĿê°ģë§Į íķ´ëıĦ
ëĪĦêµ¬ë ĵł
ìĸ´ëĶĶ ìĦľ
ëĤŃ ë§Į
ìķĦëĭĪ ìĹĲìļĶ
Ġìķ¼ ê·¼
Ġê·¸ëŀ¬ ëĤĺë´ĲìļĶ
Ġê²°ìłķìĿ´ìĹĪìĿĦ íħĲëį°
ë´¤ ëĬĶëį°
ĠìĿĢ ê·¼
ë§ĲìĶĢ íķ´ë³´ìĦ¸ìļĶ
ì½ľ ë¦¿
Ġì½Ķ ìĬ¤
ĠëĵľëĿ¼ ë§Ī
ìľłì¦Ŀ ìĿ´
ëĭ¬ëĭ¬ íķľ
ĠëĳĲê·¼ ê±°
ë¯¸ìĦ¸ë¨¼ ì§Ģ
ë± ĥ
ê°Ģë²¼ ìļ´
ìłĦíĻĺ ìĿĦ
ìĸµì§Ģë¡ľ ëĿ¼ëıĦ
Ġë¹łë¥¼ ìĪĺë¡Ŀ
Ġë°ĿíĺĢ ë³´ìĦ¸ìļĶ
ëłĮíĥĢ ìĿ¸ëį°
ëļ Ŀ
ì²Ńì²© ìŀ¥
Ġê°Ħìłĳ ìłģìĿ´ëĵł
ë¶ĢëŁ¬ ìĽĮìļĶ
ëıĻíĺ¸ íļĮ
Ġìľłíļ¨ ê¸°ê°Ħ
ĠìľĦë¡ľë´ĩ ìŀħëĭĪëĭ¤
§ ¥
¨ ¹
© ìĸ¼
¬ ìĥĿ
¯ ë°¤
¯ ¸ë¶Ģ
² ¼
´ ¤
½ Ģ
ê ¶ģ
ê ¶Ī
ë ĺ
ë ´ħëĭĪëĭ¤
ë ĬĲ
ë »Ķ
ë Łī
ë £©
í Ģ
í ĵ
Ġ 7
Ġ 9
Ģ ëĭ¤ë©´
ģ ëĭĪëĭ¤
Ĥ ł
Ĭ ł
į ê²Į
Ĳ Ĳìĸ´
ĳ ł
ľ ¨
ľ ì§
ŀ įëĭĪëĭ¤
ł ¸
Ń ë¹Ħ
Ġë ļ
Ġë ł
ìĿ µ
ìĿ ĳìĽĲ
ìļ ±
ìĿ´ ìĤ¬
ìĿ´ ê±´
ìĿ´ íģ¬
ìĿ´ ìĦ±ìľ¼ë¡ľ
ìķ ķ
ìķ Ĺ
ëĭ ĺ
ëĭ Ŀ
ìĸ´ ìł
ìĸ´ ëĵ¤
ìĸ´ ë¦°
ìĹ ī
ìĹ ½ê²Į
ëĤ Į
ê³ ¡
ì§Ģ ìĦ¸ìļĶ
ì§Ģ ê¸
ì§Ģ ì£ł
ì§Ģ ê¸¸
ì§Ģ ê°ĳ
ì§Ģ ë§Ĳê³ł
ì§Ģ íķĺì²ł
¬ë Ħ¤
¬ë ¥¼
íķ´ ì§Ħ
íķ´ ìĻ¸
ê°Ģ ìļ´
ìĦ¸ íı¬
ê³ł ìŀĪ
Ġí Ĵ
íķĺë įĶëĭĪ
íķĺ ìŀĲ
ìĺ ´
ìĺ Ģëįĺ
¸ë ¬´
ìĿĢ ê·¼
ìĿĢ ê²ĥ
ìĿĢ ê±¸ê¹Į
ìĿĢ íĩ´
ëıĦ ìĻĢ
ĠìĹ ¼
ë³´ ìĿ¼ëŁ¬
©´ ì¦Ŀ
íķľ ê±´ê°Ģ
Īë įĶ
Ġì¢ĭ ê³ł
Ġì¢ĭ ìĬµëĭĪëĭ¤
ìŀĲ ëĿ¼
ìŀĲ ê¸°ëıĦ
ìŀĲ ê²©ì¦Ŀ
ĠëĤ ³
ĠëĤ Ńë¹Ħ
Ġê±° ëĳĺ
ê¸° íķľ
ê¸° íĶĦ
ê¸° ìĹħ
ê¸° ë³¸
ê¸° ìĪĻìĤ¬
ê²ł ìĿĮ
ê²ł ëĬĶëį°
¼ë ŀĢ
Ġê² ©
ì¹ ¼ë¡ľ
ìĺĪ ìģľ
ë¦ İ
ìĬ Ī
ìķ¼ íķĺëĬĶëį°
íķł ê±°ìĺĪìļĶ
íķł ê±°ìķ¼
ĠìĤ¬ëŀĮ ë§Į
Ġëĭ «
ëł ¤ë©´
ĠìĿ´ ìĦ±ìľ¼ë¡ľ
Ģë ²Ī
ë§Į ëĤĺëĬĶ
ë§Į ì¡±
ë§Į ëĤĺê³ł
Ġíķ´ ëĤ¼
Ġíķ´ ì£¼ë©´
ìĿ¸ ê±´ê°Ģ
ìĿĺ íķĺìĦ¸ìļĶ
ìĿĺ ìĭĿ
ë° ĸ
ĠìķĦ ìĿ´
ĠìķĦ íĶĮ
ĠìĹĨ ê²łì§Ģ
ĠìĹĨ ëĬĶê²Į
ĠìĹĨ ì§Ģë§Į
ëĿ¼ ìĦľ
ê±° ê°Ļ
Ġì¢ĭìķĦ íķĺìĭľ
ìłķ íķľ
ìłķ íĻķ
ë¦¬ íĨµ
ìĭł ë°ľ
ëĤ¨ ìĹĲê²Į
ì° ľì§
Ġê²ĥ ëĵ¤
Ġê²ĥ ëĵ¤ìĿ´
ìłľ ì£¼ëıĦ
ì£¼ ê¸°ìłģìľ¼ë¡ľ
įĶ ëĿ¼ëıĦ
ĠìĥĿê°ģ ëĤĺê³ł
ĠìķĬ ê²łìĸ´ìļĶ
ĠìķĬ ì§Ģë§Į
Ġë§Į ì¡±
Ġë³´ ìķĦìļĶ
Ġë³´ ë©´ìĦľ
ë³Ħ ìĿ´
ë³Ħ ìĿĦ
ë³Ħ íķľ
ë³Ħ ê±°
Ġê°Ģ ì§Ĳ
ëĤ´ ìĦľ
ĠìķĪ ê°Ģ
ĠìķĪ ìĹĲ
ĵľ ëŁ½ê²Į
ĠëĤĺ ìĿĺ
ĠëĤĺ íĺ¼ìŀĲ
Ġë§İ ëĭ¤
Ġë§İ ëĦ¤
Ġê¸ Ģë¡ľ
Ġê¸ ¸ëŁ¬ë
ëł¤ ìĽĮ
ëł¤ ì£¼ìĦ¸ìļĶ
ëĿ½ ê°ĢëĿ½
ìĹ¬ ìļ°
ìĹ¬ ìĤ¬ì¹ľ
ì¡ ´ìĭ¬
Ġë°Ķ ìģĺë
ì§Ħ ì§Ģ
ì§Ħ ê¸ī
Ġìĭľ ìĽĲ
Ġìĭľ ê³Ħ
ìĹĪ ê²łëĦ¤ìļĶ
ìĹĪ ëĤĺë´Ĳ
ë² ¤
ë² Ĺìĸ´
ĠëįĶ ëŁ¬ìĽĮ
Ġê¸° ëıĦ
íŀ ĺìĿ´
Ġë¨ ¼
ìĭ¬ ê²½ìĿĺ
ë§Ĳ ëıĦ
ë§Ĳ íķĺëĬĶ
ìłĢ ë¦¬
Ġì§Ģ ëıĦ
Ġì§Ģ ê²¨
Ġì§Ģ ëĤ¬
íĸĪ ê¸¸
íĸĪ ëĤĺë´Ĳ
íĸĪ ëĤĺë´ħëĭĪëĭ¤
ĠìĹ°ëĿ½ ìĿĢ
ĠìĹ°ëĿ½ íķ´ìĦľ
ĠìĹ°ëĿ½ ì²ĺë¥¼
ìłĦ ê³¼
ĠëĤ¨ ëĬĶ
ĠëĤ¨ íİ¸
ìĤ¬ ìĿ´
ìĤ¬ ê³¼
ìĤ¬ íĳľ
Ġíŀĺëĵ¤ ê²łëĦ¤ìļĶ
Ġíŀĺëĵ¤ ì§ĢëıĦ
Ġíŀĺëĵ¤ ê±°ìĺĪìļĶ
ĠëķĮ ë¡ł
ìĿ´ë³Ħ ìĹĲëĬĶ
ĠìķĮ ìķĺìĸ´
Ġë§ĪìĿĮ ëĮĢë¡ľ
ĠìĿ¼ ë§Į
Ġìĸ´ëĸ ł
ìĬ¤ ëĬĶ
ìĬ¤ íĦ°
ìĬ¤ ìŀĪëĬĶ
ë¯ ¸ëŀĺ
ë¯ ¸ë¥¼
ìłģ ìĿ´ì£ł
Ġì¢ĭìķĦíķĺëĬĶ ê±°
Ġëª¨ ìķĦìĦľ
ëĮĢ ë¦¬
ëĮĢ íļĮ
ëĮĢ ì¤ĳ
Ġëª» íķĺë©´
Ġëª» íĸĪëĤĺë´ĲìļĶ
Ġê³ł ê³ł
ë§ĪìĿĮ ìĿ´ëĿ¼ëıĦ
Ġë¨¹ ì§Ģ
Ġë¨¹ ìĹĪëĬĶëį°
ìļ° ë§Ī
ìļ° ë¦¬ëĬĶ
ìļ° ëĭĪê¹Į
ìļ° ë¦¬ê°Ģ
Ġê±´ ê°ĢìļĶ
¦¬ ìĦ¸ìļĶ
Ġìĭľê°Ħ ìĹĲ
Ŀ¼ ëĬĶ
Ġë°Ľ ìĿĢ
Ġë°Ľ ìľ¼ë©´
ĠìĨ Ķë¡ľ
Ġíķĺë ĵł
ë¶Ģ ë¥¼
Ġë² ½
ĠìĤ´ ë©´
ê°Ĳ ìĤ¬
ê°Ĳ ìłķìĿ´
Ġíķľ ê±°
ìķĪ íķ´ëıĦ
ê³¼ ê±°
íĨ ±
ĠëĲĺ ê²łì§Ģ
ê±´ ëį°
Ġëĵ¤ ìĿĦ
Ġëĵ¤ ìĹ¬ë³´ìĦ¸ìļĶ
ìŀĪ ìĬµëĭĪëĭ¤
ìŀĪ ìĿĦê¹Į
ëıĻ ê°Ĳ
íĸī ê¸°
ìĭ¤ ëĤ´
ìĭ¤ ê°ĲìĿ´
ìĻĢ ìļĶ
ìĻĢ ìĦľ
ĠìŀĪëĬĶ ê±°
íĮ ¸
ì¡Į ëĬĶëį°
ìĨĮ ë¬¸
ĠìķĪë °Ľ
ìĪĺ ì¦Ŀ
ìĪĺ ìĹħ
ìĪĺ ìĹ¼
ĠëģĿ ëĤ¬ëĦ¤
Ġë¯ ¸ë
Ġëĵľ ìĭľê³ł
ìľ¼ ìĭł
ìľ¼ ìħ¨
ĠíĹ¤ìĸ´ ì§Ī
ĠíĹ¤ìĸ´ ìł¸ìķ¼
Ġê±¸ ê¹ĮìļĶ
ìĥ Īë¡ľ
ìĥ ¤ìĽĮ
ĠëĤĺë ŀĳ
ĠëĤĺë ¹ł
ĠìĹ¬ìŀĲ ìĻĢ
ĠíķĦìļĶ íķľê°Ģë´ĲìļĶ
ì¤ĳ ê³ł
ì¤ĳ êµŃìĸ´
ĠëĤ¨ìŀĲ ëĵ¤
ĠëĤ¨ìŀĲ íķľíħĮ
Ġê´ľì°® ì§Ģë§Į
ìĿ´ìłľ ëĿ¼ëıĦ
ìĺ¤ íĨł
Ġì¡° ì°¨
ê¾ ¸ë
Ġíĺ ¼ëŀĢ
ĠíĽĦ ìľłì¦ĿìĿ´
ìĭĿ ëıĦ
ë°Ķ ìĿ´
ë°Ķ íĢ
ê°ľ ìĿ¸
ĠìŀĪìĸ´ ìķ¼
Ġê°Ģë ĵĿ
Ġê°Ģë ²¼
ĠíĥĢ ê¸°
ĠíĥĢ ëĭ¤ê°Ģ
ì°¨ ëĿ¼ë¦¬
ìŀĳ ìłķ
ì¡° ê±´
ì¡° ìļ©
ì¡° ìĸ¸
ì¡° ì¹´
ëįĶ ëĭĪ
ĠìĿ¸ ê¸°
íĬ¸ ê°Ģ
íĬ¸ ìĹħ
íĬ¸ ì½ĺ
ê²¨ ìļ¸
Ġë§ĮëĤĺ ê¸¸
íĹ ¤
íĹ ¬ìĬ¤
íķłê¹Į ë´Ĳ
ĠíĸĪ ëĭ¤
ĠíĸĪ ëĤĺ
ĠìĨĮ ìĭ¬íķ´
ì¹ĺ ê³¼
ĠìĹ°ìķł ë¡ľ
Ġê´Ģ ëł¨
Ġì¤ĳìļĶ íķł
íķĻ ê¸°
Ġì§Ħ ê¸ī
Ġì°¨ ê°ĳ
Ġì°¨ ë¦¬ìĦ¸ìļĶ
Ġì°¨ ìĿ´ê°Ģ
Ġì°¨ ë¡Ģ
ëĵľ ìĭľ
Ġíķĺ ê±°ëĤĺ
Ġìĭľê°ĦìĿ´ ê²łëĦ¤ìļĶ
ëĭ´ ìĿĦ
Ġë¹ Ī
ìŀĲìĭł ë§Į
ìŀĲìĭł ê°Ĳ
ìŀĲìĭł ê³¼
ĠëıĦ ëĦ¤ìļĶ
Ġì°¾ìķĦ ìĺ¤
Ġìķł ëĵ¤
ìĥĿê°ģ íķĺê³ł
ê·¼ ìĹĲ
ê·¼ íķľ
ì§ĳ ìĹĲìĦľ
ëģ Į
Ġì¤Ģë¹Ħ íķĺìĦ¸ìļĶ
ìĹ°ëĿ½ íķ´
ìĹ°ëĿ½ ìĿĢ
ìĹ°ëĿ½ íķĺê³ł
Ġëħ ¸ëł¤
Ġíİ¸ íķľ
Ġíİ¸ ìķĪ
ë³´ëĭ¤ ëĬĶ
Ġìłķë¦¬ íķĺëĬĶ
Ġë°©ë²ķ ìĿĦ
Ġìį¸ ìĿĦ
Ġì§ĳ ìĹĲìĦľ
Ġì§ĳ ìķĪ
Ġëª° ëŀĺ
ëª¨ ìĬµ
êµĲ íļĮ
ĠìĿ´ìķ¼ê¸° íķ´
ĠìĿ´ìķ¼ê¸° ë¥¼
Ġì°¸ ê³ł
Ġíĥ Ģëįĺ
Ġì¤Ħ ìĹ¬ë³´ìĦ¸ìļĶ
Ġì¤Ħ ìĸ´ëĵ¤
íĶ¼ ìŀĲ
íĶ¼ ìĭ±
Ġìĭľìŀĳ íķ´ëıĦ
Ġë°ĽìķĦ ë³´ëĬĶ
ĠìķĦëĭĮ ê±°
ĠìķĦëĭĮ ê°Ģë´ĲìļĶ
ĠíĻķ ìĭł
°© ë²ķìĿĦ
ìŀł ìĪĺìĿ´ë³Ħ
ĠëĳĲ ëĭ¬
Ġë§Įëĵ¤ ëł¤ê³ł
Ġê³µ ê°ľ
Ġê³łë¯¼ íķĺê²Į
Ġìĭł ê³ł
ë²Ħ ë¦´
Ġê³łë°± ìĿĦ
Ġëĵ¤ìĸ´ ê°Ģ
íĥ Ħ
Ġíŀĺëĵľ ìĭłê°Ģë´ĲìļĶ
Ġê°ĢëĬ¥ íķłê¹Į
ìķĦì§ģ ìĿĢ
ìħ¨ êµ°ìļĶ
ìĦľë¡ľ ê°Ģ
Ġë¬¸ ìĭł
ìĻĶ ëĭ¤
ìĻĶ ìĬµëĭĪëĭ¤
ë¨¹ ìĿĦ
ìķĦë¬´ ëıĦ
ìķĺë Ĥĺë´ħëĭĪëĭ¤
Ġê·Ģ ë¥¼
Ġë¶Ģë ĵľëŁ½ê²Į
ĠëĨĢ ëĭ¤
ĠìķĦëĭĪë ŀįëĭĪëĭ¤
ë§¤ ì£¼
ë³´ê³ł ìĭ¶ìĸ´
ìĬ¤ëŁ¬ ìļ¸
ĠìĤ¬ë ³´ìĦ¸ìļĶ
ëªħ ìłĪ
íİ ¸ë
Ġê±±ìłķ ìĿ´
Ġê±±ìłķ ìĿĢ
Ġê±±ìłķ ëĲĺê²łëĦ¤ìļĶ
ĠìĤ¬ê·Ģ ìĸ´ëıĦ
Ġê²°íĺ¼ íķł
Ġê°Ĳìłķ ìĿĺ
ĠëĦ ĵ
ìĺĢ ìľ¼ë©´
ĠìķĬìĿĦ ê±°ìĺĪìļĶ
Ġìŀł ìĪĺ
Ġìŀł ìŀ¬ë
Ġê·¸ëŁ´ ì§ĢëıĦ
ëĦĪ ìĹĲê²Į
ĠìĦ± íĸ¥
ìķ½ ìĿ´
ìĹ¬ë ıĦ
ìĹ¬ë Ł¬ë
Ġê°Ħ ìĤ¬
ì³Ĳ ìĦľ
ì³Ĳ ë³´ìĦ¸ìļĶ
ë°Ľ ìĿĢ
Ġë¶Ħ ëĵ¤
Ġë¶Ħ ëªħ
ë¶Ģë ¡ľ
ë¶Ģë Ł½ëĦ¤ìļĶ
ëķĮ ë¡ł
ìį ¹
íĺķ ìĿ´
Ġë§İìĿĢ ê°Ģë´ĲìļĶ
Ġê¸°ìĸµ ìĿ´
Ġê¸°ìĸµ ìĿĦ
ĠíĻĶ ëĤ´
íĪ ¼
ìĥĪ íķĻê¸°
ê°ľìĽĶ ì§¸
ĠìĤ ¼
Ġë¶Ī ê³µíıī
Ġìĺ¬ ê¹Į
Ġê¸°ë¶Ħ ìĿĢ
ĠëıĻ ë£Įê°Ģ
ì¶ľ íĩ´ê·¼
íĽĦíļĮ íķł
ëĪĪ ìį¹
ìĺģ ìĪĺì¦Ŀ
ĠëıĮìķĦ ê°Ģê³ł
íĻķ ìĿ¸
Ġìĭ¬ íķľê°Ģë´ĲìļĶ
Ġìĭ¬ íķĺê²łëĦ¤ìļĶ
Ġìĸ¼ ë§Īë
ĠìĹ¬íĸī ê°Ģ
Ġíķĺë£¨ ë¥¼
ìĭ¸ ìļ°ë©´
ìĺ¬ íķ´
Ġìĸ´ëĶĶ ë¡ľ
Ġë²Ī íĺ¸ë¥¼
Ġê¼ ¼
ĠìĿ´ë »Ĳ
Ġë§ĮëĤ ¬
ëĶ ´
Ġìŀħ ìĸ´
Ġìŀħ ê³ł
ìĹ¬ìŀĲ ê°Ģ
ëľ °
ê¸°ëĭ¤ ë¦¬ê³ł
ê¸°ëĭ¤ ë¦¬ì§Ģ
ëĤ¨ìŀĲì¹ľêµ¬ íķľíħĮ
Ġë§ĮëĤĺë Ł¬
Ġë§ĮëĤĺë ³´
ĠìĤ¬ìĿ´ ìĿ¸ëį°
ëĲĺ ê²łìĸ´ìļĶ
Ġ3 0
ìķĮ ë©´ìĦľëıĦ
ìķĮ ëľ°
Ġê·¸ë§Į íķĺê³ł
Ġ2 0
Ġë§Ľ ìĿ´
Ġìļ´ ìĿĦ
Ġë¶Ģëĭ´ ìĬ¤ëŁ½ì§Ģ
Ġì¶Ķì²ľ íķ©ëĭĪëĭ¤
Ġì¶Ķì²ľ íķ´ì¤ĺ
Ġëħ¸ëł¥ íķĺëĬĶ
Ġì¦Ĳ ê±°ìļ´
ë¦° ëĭ¤
Ġë§Ĳíķ´ ì¤ĺ
Ġë§Ĳíķ´ ë´ĲìļĶ
Ġë¶Ļ ìĹ¬ë³´ìĦ¸ìļĶ
ĠìłĲ ìĿ´
ĠìłĲ ìĿĢ
Ġê³¼ ìłķìĿ´
íļĮìĤ¬ ìĹĲëĬĶ
ĠëĦĺ ìĹĪëĦ¤
Ġìŀ¬ë¯¸ ìŀĪìĸ´ìļĶ
ê¸°ë¶Ħ ìłĦíĻĺìĿĦ
ĠëĤĺê°Ģ ê¸°
ĠìĿ¼ìĸ´ ëĤł
ëĵ¯ íķľ
ì²ĺìĿĮ ìĹĲëĬĶ
ì²ĺìĿĮ ë¶ĢíĦ°
ìłģìĿ´ ê³ł
Ġìļ© ê¸°ë¥¼
ë§¤ìĿ¼ ë§¤ìĿ¼
ìĦ¸ìĥģ ìĹĲëĬĶ
Ġë§¤ ëł¥
Ġë§¤ ëĭ¬ë
Ġì§Ģê¸Ī ìĿĢ
Ġì¶ķ ë³µ
Ġíĺ¸ ê°ĲìĿ´
ĠìĽĥ ìĸ´ë³´ìĦ¸ìļĶ
Ġë¬¸ìłľ ë¡ľ
Ġíĭ° ë¥¼
ĠëĶ ´
ĠëĲĺìĹĪ ëĤĺë´ĲìļĶ
ì½Ķ ê°Ģ
ì»¤íĶ¼ íĸ¥
ì´ Īë
ĠìĿ¼ë ĵ¤ìĿ´
Ġë§Īìĭľ ë©´
Ġíļ ¨
Ġë§Ŀ íĸĪìĸ´
Ġì¹ĺ ìľł
Ġì¹ĺ ìĹ´
ĠìĬµê´Ģ ìĿĦ
ĠìĬµê´Ģ ìĿ´ëĦ¤ìļĶ
ĠìĬ¤íĬ¸ëłĪìĬ¤ ê°Ģ
Ġëĵ£ ëĬĶëį°
Ġë³Ħë¡ľ ìķ¼
Ġê°Ķ ìĸ´
Ġê°Ķ ëĬĶëį°
ĠíĹ¤ìĸ´ì§Ģ ìŀĲ
ĠíĥĪ íĩ´
ĠíĤ¤ ìĽĮ
ĠìłĦíĻĶ íķĺëĬĶ
ëĤĺíķľíħĮ ë§Į
ê±°ë¦¬ ê²łìĸ´ìļĶ
ìķŀ ë¨¸ë¦¬
ìĥĿíĻľ ìĿ´
ĠìŀĬíĺĢ ì§Ī
ĠìķĦëĭĪëĿ¼ ëĬĶ
ĠëĤĺìĿĦ ì§ĢëıĦ
ëĥĪ ìĬµëĭĪëĭ¤
ë©ĭ ì§Ģê²Į
ìŀĸ ìķĦ
Ġìĺ¨ ëĭ¤
ĠíĸīëıĻ ìĿ´
ĠëĤ« ê²łì§Ģ
ìĿ´ìĥģ íķľ
ìłķìĭł ì°¨
Ġê´´ ë¡ľ
Ġìĸĺ ê¸°ë¥¼
ĠëĤĺëĪ Ħ
Ġë¹Į ëł¤ë³´ìĦ¸ìļĶ
ĠíĬ ¸
Ġë©Ģ ë¦¬
ĠìĿĺë¯¸ ê°Ģ
ë°Ģ ëĭ¹
Ġì²Ń íķ´ë³´ìĦ¸ìļĶ
Ġì²Ń ìĨĮ
ë©Ķ ëª¨
ĠíĮĮ íĺ¼
ĠíĮĮ ë¨¹ê¸°
©° ë³´ìĦ¸ìļĶ
ĠìķĦíĶĶ ìĿ´
ë¶Ģëĭ´ ìĬ¤ëŁ½ì§Ģ
ĠìļĶ ê¸Ī
ĠëĨĢëŁ¬ ê°Ģê³ł
ìĦ±ê³µ ìĿĦ
Ġë¶Ģì¡± íķľ
ìķĪëħķ íķĺìĦ¸ìļĶ
ìĵ ¸ëį°
ĠìĿĮ ìĭĿìĿĦ
Ġìĸ´ëłµ ëĦ¤
ëħ¸ íĬ¸ë¶ģ
Ġê¹Ĭ ê²Į
ĠíĿĶ ìłģ
ĢìĿ´ ìĬ¤
ĠìĿĳìĽĲ íķ´ìļĶ
ìĥģëĮĢ ê°Ģ
ĠìŀĲìĹ° ìĬ¤ëŁ¬ìļ´
ĠëĪĦêµ¬ ìĹĲê²ĮëĤĺ
ìĿĺë ¯¸ë¶Ģ
ê²ģ ê²Į
ê°ĢìĬ´ ìĿ´
íķĺëł¤ ëĬĶ
ìĬ¤íĥĢ íĬ¸ìĹħ
Ġíľ´ ìĭĿìĿĦ
ì§Ħìłķ ìľ¼ë¡ľ
Ġê¸°íļĮ ë¥¼
Ġê³łìĥĿ íĸĪìĸ´ìļĶ
ĠëĬ¥ ëł¥ìĿĦ
Ġê²½ìļ° ê°Ģ
Ġê²½ìļ° ëıĦ
ìĿ´íĬ¸ë į°
ì£¼ë§Ĳ ìĹĲ
ĠìĨĮê°ľ ìĭľì¼ľ
Ġì§ĳì°© íķ´
ì²ŃìĨĮ ë¥¼
Ġì¦Ŀ ê±°ë¥¼
Ġë§ĽìŀĪ ìĸ´ìļĶ
ĠíĦ° ëĨĵê³ł
Ġì¢ĭìķĦíķľ ëĭ¤ê³ł
ĠëģĿëĤ¬ ìľ¼ë©´
Ġì§ĳì¤ĳ íķĺìĦ¸ìļĶ
ìĽĶê¸ī ìĿ´
ìŁģ ìĿ´
ìĤ¬ê· Ģë©´
ìį¸íĥĢ ëĬĶ
ê²°ìłķ ìĿĢ
Ġë©Ķ ëī´
Ġì´Ī ê¸°
ìĺĪë »Ĳ
ìľ¡ ëĮĢíļĮ
ĠìĥĪ ì¶ľë°ľ
Ġì¹´íİĺ ìĹĲìĦľ
ì¸ µ
ĠìłĪ ìķ½
ĠìĹĨìķł ëĬĶ
Ġê³łì³Ĳ ìĵ°ëĬĶ
Ġì¶©ìłĦ íķĺìĦ¸ìļĶ
ëĪĪë¬¼ ìĿ´
ĠìĦłíĥĿìĿ¼ ê±°ëĿ¼
Ġê´´ë¡Ń ê²Į
Ġíĳľ ìĭľ
ë³ĳìĽĲ ìĹĲ
ĠìĿ´ìļ© íķ´ì£¼ìĦ¸ìļĶ
Ġê¸°ê°Ħ ìĿ´
Ġì£¼ë³Ģ ìĹĲ
Ġë´Ħ ìĿ´
íĶ¼ë¶Ģ ê°Ģ
Ġì°¨ë¶Ħ íŀĪ
Ġíģ´ ëŁ½
Ġêµ° ì¹¨ìĿ´
ĠìĨįìĥģ íķ´
Ġì§ĢëĤĺê°Ķ ê¸¸
ëŁ° íķĺìĭľëĦ¤ìļĶ
ìŀĲì¡´ ê°ĲìĿ´
ĠìŀĲì¡´ ê°ĲìĿ´
íŀĪë ł¤
ê´´ ê°Ĳ
ìĥĪë²½ ìĹĲ
ì°¨ê·¼ ì°¨ê·¼
Ġë¹¼ ê³ł
ë°°ê³ł íĮĮ
Ġìį¼ ìĸ´
ĠëĦĪë ¥¼
Ġìŀĥ ìĸ´
ê°ģìŀĲ ìĿĺ
íŀĺ ê»ı
íģ´ ëŁ½
Ġë¹ĦêµĲ íķĺì§Ģ
Ġëĥī ìłķ
ëĵĿ íħľ
Ġê²¨ ìļ°
Ġë°Ķìģľ ê°Ģë´ĲìļĶ
ë³µìŀ¡ íķľ
íĺĦê¸Ī ìĺģìĪĺì¦Ŀ
Ġê¸°ëĭ¤ë¦¬ëĬĶ ê²Į
ë¹Į ëł¤
Ġë¶ĢëĶª íĺĶ
Ġìļ°ìĦł ìĪľìľĦ
ĠìĿ´ë£¨ ìĸ´
Ġê¾¸ë ©°ë³´ìĦ¸ìļĶ
Ġìķħ ëª½
ĠìĹĲ ëĦĪ
ë¶Ģì§Ģ ëŁ°íķĺìĭľëĦ¤ìļĶ
Ġì°¨ê°Ģ ìĽĮ
íĿĶëĵ¤ ë¦¬ì§Ģ
ĠìĿĺë¯ ¸ë¥¼
ìĿ´ìĬ¤ íĶ¼ìĭ±
ê³° íŀĪ
ĠíĥĿ ìĭľ
ë³Ģë ªħ
ëĭ¤ëħĢ ìĺ¤ìĦ¸ìļĶ
Ġìĭ¤ë ¡Ģ
ìĿĺìļķ ìĿ´
ĠìĦłë¬ ¼ë¡ľ
ĠëĬĻ ìĸ´
êµĲíĨµ ìĿĦ
Ġë²Ĺìĸ´ëĤĺ ìĦ¸ìļĶ
ĠíĻĺìĬ¹ ìĿ´ë³Ħ
Ġíĳ¸ ëĬĶ
ìħĢíĶĦ ìĽ¨ëĶ©
Ġíķĳ ê³Ħ
Ġìłķë¥ĺ ìŀ¥ìĹĲìĦľ
ìĨĮì¤ĳ íķľ
ë¹Ħë° Ģë²Ī
ĠíĹĽ íĹĽ
ëĭ¬ëĿ¼ì§Ģ ëĬĶê²Į
ìĭ¸ìļ° ë©´ìĦľ
ìĬ¬íĶĦ ëĦ¤ìļĶ
Ġì§Ģëĥ Ī
ëłĮíĥĢìĿ¸ëį° ìĿ´
ëĺ ¥
íĵ ¨
ìĸ´ìł ¯ë°¤
ê¸°íĶĦ íĬ¸ì½ĺ
ì¹¼ë¡ľ ë¦¬
ì°ľì§ Īë°©
Ġê°Ģì§Ĳ ìĹĲ
Ġì§Ģê²¨ ìĽĮ
ëĮĢì¤ĳ êµĲíĨµìĿĦ
ìĺ¤íĨł ë°ĶìĿ´
Ġìŀłìŀ¬ë ł¥
Ġìĸ¼ë§Īë ĵłì§Ģ
ë¹Ħë°Ģë²Ī íĺ¸
. ?
§ ¤
ª °
° °
° ìĸ´
° ëĮĢ
° ĸìĹĲ
± ìĪŃìĥĿìĪŃ
´ ê¹Į
¶ Ģë¡ľ
º ¼ë
¼ ìĸ´
â Ģ
ë ½ĳ
ì ĳ¥
Ġ ãħİãħİ
ģ ìĹĪìĸ´
ģ ìĵ¸
į ĺë
ĳ ìĹŃ
ļ ìĭľ
ľ ìĸ´
ľ íķľ
Ł ìķĦ
ł ¤ë
Ġì ¥
Ġì º
Ġì ħĢ
Ġì Łģ
Ġë Ħ¤
Ġë ĶĶ
ìļ ¸ëł
Ġê ¶Į
ìĿ´ ê¸°
ìĿ´ ëĤĺë
ìĿ´ ê²łì£ł
ìĿ´ ë³´ëĭ¤
ìĿ´ ë¦Ħ
ĺë ĭ¤
ê° Ŀ
ëĭ ¿
ìĸ´ ëł¸
ìĸ´ ê¹¨
ê² Ł
ìĹ ĪëįĶëĭĪ
ì§Ģ ëĤ´
ì§Ģ ì§Ħ
ì§Ģ ê²łëĦ¤ìļĶ
ì§Ģ ì¹ł
¬ë įĶëĭĪ
íķ´ ê°Ģ
íķ´ ëĭ¬ëĿ¼ê³ł
ìŀ ĩëª¸
ìķĦ ë§Ī
ìķĦ ì£¼ìĦ¸ìļĶ
ê°Ģ ê°Ģ
ê°Ģ ìĿĦ
ê°Ģ ìĬ¤ë
ê³ł ì¹ł
ìł Īë
ëĭ¤ ìĸĳ
Ġìķ ¡
ìĭ ¼
ìĭ ¬ë
ë§ ĺìĿ´
íķĺ ì§Ħ
íķĺ ìĭ¤
íķĺ ìĭłê°Ģë´ĲìļĶ
íķĺ ìļ°ìĬ¤
ìĺ ¬ë
ìĺ ¬ëĿ¼
ìĿĢ ê±°
ëıĦ ë¡Ŀ
ĠìĹ ®
ĠìĹ ħ
ë³´ ìĿ´ìĬ¤íĶ¼ìĭ±
ĠìŀĪ ìĿĮ
ĠìŀĪ ìľ¼ëĭĪê¹Į
ĠìŀĪ ìľ¼ìĭłê°Ģë´ĲìļĶ
íķľ ëĭ¤ê³ł
íķľ ê°ķ
íķľ ê°ĢìļĶ
íķľ ì°½
íķľ ìĪ¨
Īë ¥¼
Ġì¢ĭ ìľ¼ë
Ġì¢ĭ ìľ¼ë©´
Ġì¢ĭ ì§ĢìļĶ
ìŀĲ ìĦ¸íŀĪ
ĠëĤ ®
ĠëĤ Ļ
Ġê±° ëĬĶ
Ġê±° ëĿ¼ê³ł
Ġê±° ë¥´ìĦ¸ìļĶ
Ġìĭ ±ìĪŃìĥĿìĪŃ
ê¸° ìĹĲ
ê¸° íļĮ
íķĺëĬĶ ê±¸
ê²ł ëĭ¤ê³ł
Ġê² ģ
ìĦľ ìķ¼
ìĦľ íĪ°
ë¥ ł
ë¦ ħëĭĪëĭ¤
Ġë° Ł
ëį° ëł¤
ê· ¼ë
ê· ¹ë³µ
Ġëĭ Ī
´Ĳ ìķ¼ì§Ģ
ĠìĪ ĺë©´
Ġì§ ±
ĠìĿ´ íĺ¼
ĠìĿ´ ìĦ±
ĠìĿ´ ë¯¸
Ģë ĮĢ
Ġë³ ĳìĽĲ
Ġìł ĸ
ë§Į ëĤł
ë§Į ëĤĺë©´
Ġíķ´ ì£¼
Ġíķ´ ì¤Ħ
Ġíķ´ ë³´ê³ł
Ġíķ´ ì£¼ê³ł
Ġíķ´ ìķ¼ëı¼
¤ë ²ķ
ìĿ¸ ê³µ
ìĿ¸ ì¤Ħ
ìĿ¸ ê±¸ê¹Į
ìĭľ ì§Ģ
ìĭľ ëıĦ
ìĿĺ ê¸Ī
ìľ¼ë ©°
ĠìķĦ ì£¼
ĠìķĦ íĮ
ĠìķĦ ìī¬
ĠìķĦ ë¦Ħëĭµ
ĠìĹĨ ê²łì§ĢìļĶ
ëĿ¼ ëĬĶê²Į
ê±° ë¦¬ë¥¼
Ġì¢ĭìķĦ íĸĪìľ¼ë©´
Ġì¢ĭìķĦ íķĺëĤĺë´ĲìļĶ
íĸ ĩ
íĸ ĪëĦ¤ìļĶ
ìĿ¼ ìĹĲ
ìĿ¼ ìĿĢ
ìĿ¼ íķĺëĬĶ
ìĿ¼ ìĿ´ëĦ¤ìļĶ
ìĿ¼ ëĭ¨
ìłķ ìłģìĿ¸
ìĭł íķĺê³ł
ìĭł ì¤ĳ
ìĭł ë¢°
ëĤ¨ ìĤ¬ì¹ľ
ëĤ¨ ìĤ¬ì¹ľìĿ´
ì° ¾
ì° Ĳ
Ġê²ĥ ë§Į
Ġê²ĥ ìŀħëĭĪëĭ¤
Ġê²ĥ ëĵ¤ìĿĦ
Ġìĸ´ ë¦¬ê²Į
ìłľ ê²Į
ì£¼ ì§¸
ì£¼ ìłĢë¦¬
Ġìĺ ³
įĶ ëĿ¼ê³łìļĶ
ĠìĥĿê°ģ ìľ¼ë¡ľ
ĠìĥĿê°ģ ëĤł
ĠìĥĿê°ģ íķ´ìĦľ
ĠìķĬ ëĬĶê²Į
ĠìĪĺ ì¤Ģ
Ġê± ¸ëł
ê°Ħ ìĨĮìĿĮ
Ġë§Į ìĹĲ
Ġë³´ ìĿ¼
Ġë³´ ìĿ´ëĦ¤ìļĶ
Ġë³´ ëĭ¨
Ġë³´ ìŀĲê³ł
Ġë³´ ëĥ
Ġë³´ ëĤ¼
Ġë³´ ë©°
Ġë³´ ëĥĪìĸ´
Ġë§Ĳ íķľ
Ġë§Ĳ íĸĪìĸ´
Ġë§Ĳ íķ´ì£¼
Ġê°Ģ ëĿ¼
Ġê°Ģ ë§ĮíŀĪ
ë©´ íĹĪ
Ġëĭ¤ ë¥
Ġëĭ¤ ì§Ĳ
Ġëĭ¤ íĪ¼
ĠìĹ° ìĨį
ì² ¨
ëĤ´ ëł¤
ĠìķĪ ì¢ĭ
ĠìķĪ íķĺì§Ģ
ĠëĤĺ ê°Ķìĸ´
Ġë§İ ìľ¼ë©´
Ġë§İ ìķĺ
Ġê¸ Ī
Ġê¸ Īë°©
Ġê¸ ģìĹĪìĸ´
ëł¤ ìĦľ
ë¡ľ ê·¸
ķĮ ëĬĶ
Ġì° ¬
Ġì° ½
Ġë°Ķ ëĶĶ
Ġë°Ķ ë¥´ê³ł
ëĵ¤ ì§Ģ
ì§Ħ ê²Į
ì§Ħ ìĭ¬ìĿ´
ì§Ħ ìĭ¤ë
ê·¸ë ĮĢë¡ľ
ì¹ľêµ¬ ìĻĢ
ìĹĪ ê¸¸
Ġê·¸ë ¥¼
Ġê·¸ë ¶Ħ
Ġê·¸ë Ł¬ë
ĠìŀĲ ëĬĶ
ĠìŀĲ ëıĦ
ĠìŀĲ ë©´
ê¸Ī ìĹ°
ĠìĤ¬ëŀĳ ëıĦ
ĠìĤ¬ëŀĳ íķĺë©´
ĠìŀĪìĿĦ ê²ĮìļĶ
ĠëįĶ ìļ±
ìĹ° ìłľ
ëħ ¹
ëħ ¸ëŀĺë°©
Ġìŀĺ íķ´ì£¼ìĦ¸ìļĶ
Ġìŀĺ íķ´ì£¼ëĬĶ
Ġìŀĺ íķ´ì¤
íŀ ĪëĦ¤
Ġë¶ ģ
ĠìĹ¬ ìľłê°Ģ
ë§Ĳ íķĺê³ł
Ġì§Ģ ê¸
Ġì§Ģ ëĤ¼
Ġì§Ģ ì¹ł
Ġì§Ģ ëĤĺë©´
Ġì§Ģ ë¥´ê³ł
Ġì§Ģ ìļ°ê³ł
ê¸¸ ìĿĢ
ê¸¸ ìĹĲìĦľ
ĠìĹ°ëĿ½ ìĺ¤
ìĥĿ ìĿ¸ëį°
ìłĦ ìĿ´
ìłĦ íķĺì§Ģ
ĠìĻ ķ
ĠëĤ¨ ê¸¸
ĠëĤ¨ ìķĺëĤĺë´ĲìļĶ
ìĤ¬ ìĹĲ
ìĤ¬ ìĹħ
ĠìĤ¬ ìķ¼
ĠìĤ¬ ìłķìĿ´
ĠìĤ¬ëŀĮìĿ´ ëĭĪê¹ĮìļĶ
ĠëķĮ ìĺĪìļĶ
ĠìķĮ ì§Ģ
ĠìķĮ ëĭ¤ê°ĢëıĦ
ë¥´ ëĦ¤
Ġë§ĪìĿĮ ë§Į
Ġë§ĪìĿĮ ìĿ¸ê°Ģë´ĲìļĶ
Ġìĸ´ëĸ »
ĠëĤ´ ëĤ´
ìĬ¤ íħĮ
ìĬ¤ íĮ¸
ìłģ ìĿ´ëĦ¤ìļĶ
ìłģ ê·¹ìłģìľ¼ë¡ľ
ì¢ĭìķĦ íĸĪëįĺ
ì¢ĭìķĦ íķĺëįĺ
Ġìłķ ìĿĺ
Ġëª¨ ë¥¼
Ġëª¨ ë¥¸ì²Ļ
Ġëª» íķ´ìĦľ
Ġëª» íĸĪëįĺ
ë§ĪìĿĮ ìłķë¦¬
íļĮ ìĭĿ
Ġë¨¹ ìŀĲê³ł
ì¶ ¤ë²ķ
ìļ° ì§Ģ
ìļ° ëĭĪ
Ġê±´ ì¡°
íĬ ¸ë¡ľ
Ġë°Ľ ê¸°
ë¬´ ëį¤ëį¤
ë¬´ ë¦İ
ë¶Ħ ìĿ´
ë¶Ħ ê°Ħ
Ġíķĺë Ł¬
ë¶Ģ ìŀĲ
ë¶Ģ ëĤ¨
ĠìĤ´ ìĿ´
ê°Ĳ ìĿĢ
ê°Ĳ ìĦ±
Ġíķľ ê³Ħ
Ġíķľ ëĭ¤ëĬĶ
ëĭ¹ íķ´
ëĭ¹ ëĭ¹íķĺê²Į
ê³¼ ìĿ¼
ĠëĲĺ ê¸°
ë³µ ìłĦ
Ġì¢ĭìĿĦ ì§Ģ
Ġëĵ¤ ìĿ´
Ġëĵ¤ ê¹Į
Ġëĵ¤ ë©´
Ġëĵ¤ ìľ¼ë©´
Ġëĵ¤ ë¦¬ë
ìŀĪ ì§Ģ
ìŀĪ ëĤĺ
ìŀĪ ìĿĮ
ìŀĪ ëĤĺë´ĲìļĶ
ìŀĪ ê²łì£ł
ĠëĨ į
ĠìķĦëĭ ĺ
ĠìĦł ìĹĲìĦľ
Ġë¬´ ê±°ìĽĮ
ëıĻ ìĤ°
íĸī ìļ´ìĿĦ
ìĭ¤ ìĿĦ
ĠëŃĲ ìŀĦ
Ġìĥģ ìĿĺ
Ġìĥģ ìĥģ
ì§Ī ìĿ´
ì§Ī íĪ¬
ĠíķĺëĬĶ ì§Ģ
íĮ ©
íĮ į
ì¡Į ëĦ¤
ìĨĮ ê°ľ
ìĨĮ ë¹Ħ
ìĨĮ ìĽĲìĿĦ
ĠìķĪë ¶Ģ
íı ¼
ìĸ´ë ĳł
ĠìĿ´ë³Ħ ëıĦ
ĠìĿ´ë³Ħ ìĿĺ
ĠìĿ´ë³Ħ íĸĪìĬµëĭĪëĭ¤
ìĪĺ ê±´
ìĪĺ ìĺģ
ĠìłĦ íķ´
ĠìłĦ íĺĢ
ĠëģĿ ìĿ¼
ĠëģĿ ëĤł
ĠëģĿ ëĤ´ê³ł
Ġëĵľ ë¦¬ê³ł
Ġëĵľ ìĭľë©´
ëĤł ìĿ´
ĠíĹ¤ìĸ´ ìł¸
ĠíĹ¤ìĸ´ ì§Ģì§Ģ
Ġê±¸ ìĸ´
ìģ ¨
ìĿ¸ë ıĦ
ĠëĤĺë Ĥĺ
ĠëĤĺë ³´ëĭ¤
ĠëĤĺë Ĥł
ëĤľ íŀĪ
Ġê·¸ ìłĢ
Ġìĭ¶ëĭ¤ ëĬĶ
ì¤ĳ ê°Ħ
ìĨį ìĹĲìĦľ
Ġê´ľì°® ëĭ¤ë©´
ê³µ ìĽĲ
Ġì¹ľ íķ´ì§Ī
ĠëĮĢ íķ´ë³´ìĦ¸ìļĶ
ìĿ´ìłľ ìķ¼
ìĺ¤ ë¥¼
ëħĦ ìĹ°ìķł
ëħĦ ë§ĮìĹĲ
Ġì¡° ê±´
Ġëª¨ë¥´ ê²łëĦ¤
ê´Ģ ìĭ¬ìĿ´
ê¾ ¹
Ġìī ¬ë
ê²½ ìłľ
ĠìŀĬ ìľ¼ëł¤ê³ł
ìľł ìĹ°ìłľ
ìĿ¸ëį° ìļĶ
ëĭ¬ ì½©
ë°Ķ ëĭ¤
Ġê°Ģë Ĭł
ĠíĥĢ ëĭ¤
ì¡° ì°¨
ì¡° ìłĪ
ëįĶ ìĽĮ
ëįĶ ëĿ¼ëıĦ
Ġë§ŀ ì§Ģ
Ġë§ŀ ëĤĺ
ĠìĿ¸ ê°Ħ
Ġë§ĮëĤĺ ìļĶ
Ġê°Ĳ ìĭ¸
ĠìĨĮ ì£¼
ĠìĨĮ ë¹Ħ
ĠìĨĮ ëª¨
ĠìĹ°ìķł ëĬĶ
ĠìĹ°ìķł íķĺë©´
Ġìĺ¤ ëł¤
Ġìĺ¤ íŀĪëł¤
Ġíĸī ìļ´
ìĿ´ëĿ¼ ìĦľ
ìĦ± ê²©
íķĻ ìĹ¬íĸī
Ġì§Ħ íĸī
ìĭľê°Ħ íĳľ
Ġì°¨ ìĿ´ëĬĶ
ëĵľ ê°Ģ
ëĵľ ëłĪ
ëĵľ ë¦¬ê³ł
ëĵľ ë¦½ëĭĪëĭ¤
ëĭ´ íķ´ë³´ìĦ¸ìļĶ
ëĭ´ íĻĶ
íĦ° ë¦¬ê°Ģ
Ġë¹ ¼ë¹¼ë¡ľ
ĠëıĦ ìĻ
Ġë¹Ħ íķĺ
Ġì°¾ìķĦ ìĺ¨
Ġìķł ë¥¼
Ġìķł êµĲ
ê·Ģ ìĹ¬
ìĥĿê°ģ íķľ
íĺ¼ìŀĲ ìĦľëıĦ
ê±¸ ìļĶ
ìĦł ìĿ´
Ġë¶Ģ ìĹ¬
ì§ĳ ëĭĪëĭ¤
ëģ Ī
Ġì¤Ģë¹Ħ íķĺê³ł
Ġì¤Ģë¹Ħ ì¤ĳ
ì¹ľêµ¬ë Ħ¤
ì¹ľêµ¬ë Ŀ¼ê³ł
ìĹ°ëĿ½ íķ´ë³´ìĦ¸ìļĶ
ìĹ°ëĿ½ íķĺì§Ģ
ìĹ°ëĿ½ íķĺë©´
ìĹ°ëĿ½ íķ´ëıĦ
ìĹ°ëĿ½ ì²ĺ
Ġíİ¸ íķĺê²łì£ł
ĠìĹĨëĬĶ ê±°
íķ´ìķ¼ ê²łëĭ¤
Ġìłľ ìķĪ
ëĳĲ ëł¤ìĽĮ
Ġìį¸ ìĿ¸ê°Ģ
ë¦´ ê¹Į
Ġê¸°ëĭ¤ ëł¸
ëª¨ ìı
ê²ĥ ê°ĻìķĦ
Ġì°¸ ì§Ģ
Ġì°¸ ìĦĿ
Ġì¶Ķ ìļ´
Ġì¶Ķ ìĬ¤
Ġíĸīë³µ íķłê¹Į
Ġíĸīë³µ íķ´ì§Ī
Ġíĥ Ħ
Ġíĥ ĵ
ì¼ ł
ìłķë§Ĳ ë¡ľ
ìĪł ìĿĦ
ìĪł ë§Į
ìĪł ë¨¹ê³ł
íĶ¼ íķ´
ë²Ī íĺ¸
ĠìĻĶ ëĤĺë´ĲìļĶ
Ġìĭľìŀĳ ìĿ´ì£ł
Ġë°ĽìķĦ ìķ¼
ĠìķĦëĭĮ ê°ĢìļĶ
ĠëĳĲ ë²Ī
ĠëĳĲ ìħ¨ëĦ¤ìļĶ
ĠìĺĪ ìģĺë
Ġê³µ ê°Ĳ
Ġê³µ íĹĪ
Ġê³³ ìĿĦ
íİ¸ ìĿĺ
ë²Ħ ìĭľ
ë²Ħ ë¦¬
ë²Ħ ë¦¬ëĬĶ
ë²Ħ ëł¸
Ġëĵ¤ìĸ´ ëıĦ
Ġëĵ¤ìĸ´ ìĦľ
Ġëĵ¤ìĸ´ ì£¼ìĦ¸ìļĶ
Ġëĵ¤ìĸ´ ì¤Ħ
Ġëĵ¤ìĸ´ ìĺ¬
Ġëĵ¤ìĸ´ ìĻĶìĸ´
ê°ķ ëł¬
íĥ Ĳ
íĥ Īë
íĥ Ģë
ë°° ëł¤
Ġëĸ¨ ì³Ĳ
ìĹ°ìķł ìĹĲ
Ġê°ĢëĬ¥ íķ©ëĭĪëĭ¤
Ġê°ĢëĬ¥ íķĺê²łì£ł
Ġíŀĺëĵł ëį°
Ġíŀĺëĵł ê±°
íĥĿ ë°°
ê²°íĺ¼ íķĺëĬĶëį°
ìĤ´ ê³ł
ë§Ľ ìĿ´
ë°ľ ìĿ´
ë°ľ ëª©
ìĻĶ ëĦ¤
ìĿ´ìĹĪ ìĸ´
ìĿ´ìĹĪ ëĤĺë´ħëĭĪëĭ¤
ìķĺë Ħ¤
Ġê·Ģ ê°Ģ
Ġë¶Ģë Ł½ëĦ¤ìļĶ
Ġë³Ģ íķ´
Ġë³Ģ íķľ
Ġë³Ģ íķĺì§Ģ
ìī ¬ëĬĶ
ĠìĤ¬ë ĥĲ
ë¯¸ ìĽĮ
ë¯¸ ìķĪ
ë¯¸ ìļ©
íİ ĺë
Ġìłģ ìĿ´
Ġìłģ ìĸ´
Ġìłģ ê·¹
Ġê±±ìłķ íķł
Ġê±±ìłķ ëĲľëĭ¤ê³ł
Ġìŀĺë Ĳ
Ġìŀĺë Ŀ¼
ĠìŀĪìĹĪ ìĿĦ
ĠìŀĪìĹĪ ëĬĶëį°
ëĨ Ķ
ëĨ ĢëŀĲ
ëıĪ ìĿĢ
Ġìŀł ìĭľ
Ġìŀł ê¹Ĳ
ĠìĦľ íĪ´
Ġë¯¸ ì¹ľ
Ġë¯¸ íĻĶ
ĠëĪĪ ì¹ĺê°Ģ
ëĦĪ ëĬĶ
ìŀĬ ìĸ´ìķ¼
ĬĲ ëĥĲìĹĲ
ëŀĺ ìļĶ
ĠìĦ± ê²©ìĿ´
Ġ1 5
ìķ½ ìĿĦ
ìķ½ ìĨį
Ġë¯¿ ìľ¼ìĦ¸ìļĶ
ĠìĨį ìĿĢ
ĠìĨį ëıĦë¥¼
ĠìłĢ ëĬĶ
ĠìłĢ íķľíħĮ
Ġìĸ¸ ìłł
íľ´ ê°Ģë¥¼
ĠíĳľíĺĦ íķĺëĬĶ
ë´ ħìĭľëĭ¤
ĠìĿ´ìłľ ëĬĶ
Ġë¶Ī ìķĪíķ´
ĠìĦłíĥĿ ìĿ´ê¸¸
íĿ ¬ë§Ŀ
ĠëķĮë¬¸ ìĿ¼
ìŀĪëĬĶ ê±°
íĽĦíļĮ ê°Ģ
íĽĦíļĮ ëĬĶ
íĽĦíļĮ íķ´ëıĦ
Ł¬ë ³´ìĦ¸ìļĶ
ìĺģ ìĽĲ
ĠëıĮìķĦ ê°Ģ
ĠíĮ ¨
ĠëĬ¦ ìĸ´
ĠëĬ¦ ëĬĶ
Ġìŀ¡ ëĬĶ
Ġìķŀ ìľ¼ë¡ľ
ĠíĽĦíļĮ ë¥¼
íŀĺëĵ¤ ìĸ´
íŀĺëĵ¤ ê²łëĦ¤ìļĶ
Ġëĭ¤ê°Ģ ìĺ¤
Ġë²Ī ìĶ©
ìħĶ ìķ¼ì£ł
Ġì§ĿëĤ¨ ìĿ´ëŀĳ
Ġê³µë¶Ģ íķł
Ġìĥ Īë¡ľ
Ġìĥ Īë²½
Ġê¼ ¬
ë³Ģ íĻĶë¥¼
ĠìĿ´ë Ł´
ê·¸ëħĢ ìĻĢ
Ġìŀħ ìĸ´ëıĦ
Ġì¹´íĨ¡ ìĿ´
Ġë¬¼ìĸ´ ë³´ë©´
ì¹´ ëĿ½
íĤ¤ ê¸°
ì°© íķľ
Ġìľł íĸī
Ġìľł íķĻ
Ġìľł ëĤľíŀĪ
ìĤ° ì±ħ
Ġìĭ¸ ìļ°
Ġìĭ¸ ìļ°ëĬĶ
ëĲĺ ê¸°
Ġíķ¨ê»ĺ íķł
ê¼ ¬
ìķĮ ìķĦ
íķĺë£¨ ìĹĲëıĦ
íķĺë£¨ ì¢ħìĿ¼
ìļĶì¦ĺ ìĿĢ
ĠíĴĢ ìĸ´
Ġë§Ľ ì§ĳ
Ġë§Ľ ìŀĪëĬĶ
Ġë§Ľ ìŀĪê²Į
Ġìŀĺëª» ìĿ´
Ġìŀĺëª» ëĲľ
íķ´ì§Ģ ëĬĶê²Į
ìĹ¬ìŀĲì¹ľêµ¬ íķľíħĮ
ìĹ¬ìŀĲì¹ľêµ¬ ìĹĲê²Į
Ġë¹ł ì¡Į
Ġë¹ł ì§ĢëĬĶ
ìĹĦ ë§Īë
ë³¸ ìĿ¸ìĿĺ
ĠìķĦë¬´ ëłĩì§ĢëıĦ
ìĪľ ìĪĺ
ëĳ ¥
Ġê²½ ìŁģ
Ġëĭ¤ë¥´ ì£ł
ìļ´ëıĻ ìľ¼ë¡ľ
Ġì£½ ê³ł
Ġë¨¹ìĸ´ ìķ¼ê²łëĭ¤
ĠëĤ¨ìŀĲìķł íķľíħĮ
ëĭ¤ìĿĮ ìĹĲ
ëĭ¤ìĿĮ ë¶ĢíĦ°ëĬĶ
Ġë³¼ ê²ĮìļĶ
ëª¸ ìĹĲ
ìĸ¸ìłł ê°ĢëĬĶ
ĠìŀĶ ìĿ¸
ìĬ¬ íį¼
íļĮìĤ¬ ìĹĲ
ĠíĹ¤ìĸ´ì¡Į ëĬĶëį°
Ġìŀ¬ë¯¸ ìĹĨìĸ´
ê¿ Ģ
Ġëĭ¨ íĺ¸
ĠìĪł ìĿĦ
ĠëĤĺê°Ģ ìķ¼
ĠëĤĺê°Ģ ë³¼ê¹Į
ĠìĿ¼ìĸ´ ëĤĺëĬĶ
ĠìĿ¼ìĸ´ ëĤĺìĦľ
íĸīë³µ ìĿĢ
ë¬ ¼ë
ëĶ° ë¡ľ
íĸ¥ ìĿ´
ëĭ¬ë §ĮìĹĲ
ĠìĹĨìĿĦ ê±°ìĺĪìļĶ
ĠìĹ¬ìŀĲì¹ľêµ¬ ìĻĢ
ĠìĥģíĻ© ìĿ´ëĦ¤ìļĶ
Ġì¤ĳìļĶíķľ ëį°
ê°Ķ ëĦ¤
ìŀħ ìĿ´
ìŀħ ìĿĦ
íĻĶìŀ¥ íķĺëĬĶ
Ġë²Į ê³ł
Ġìļ© ê¸°ëĤ´
ĠìĤ¬ëĬĶ ê²Į
ìĦ¸ìĥģ ìĿ´
ìĦ¸ìĥģ ìĹĲìĦľ
ìĥģëĮĢë°© ìĹĲ
ìĥģëĮĢë°© ëıĦ
ìĥģëĮĢë°© ìĹĲê²Į
ĠëıĪ ìĿĦ
Ġì§ĢëĤ´ ê¸¸
ëª© íĳľ
Ġë§¤ ëł¥ìĿ´
ĠìĤ¬ëŀĮëĵ¤ ìĿĢ
ĠìĹ°ìĬµ ìĿ´
Ġì¡´ ìŀ¬ë¥¼
Ġìĭłê²½ìĵ° ìĹ¬
Ġêµ¬ íķ´ë³´ìĦ¸ìļĶ
Ġíĭ° ê°Ģ
Ġì´ Īë
Ġê°ĸ ì§Ģ
Ġë§ĮëĤ¨ ìĿ´
ĠíĨµ íĻĶ
ĠìĪľê°Ħ ìĿ´ëĦ¤ìļĶ
ĠìĪľê°Ħ ìĿ´ìĹĪìĿĦ
Ġê¾ ¹
ìĨĲ íĨ±
Ġìĥģê´Ģ ìĹĨ
Ġìĥģê´Ģ ìĹĨìĸ´ìļĶ
ł¨ ë§Į
Ġë§Ŀ íĸĪëĭ¤
Ġì§ģ ìŀ¥
ìĽł ìĿĦ
Ġì¹ĺ ê³ł
ĠìłķëıĦ ë¡ľ
Ġì§ĿëħĢ ìĹĲê²Į
Ġëĭµëĭµ íķĺëĦ¤
Ġëĵ£ ê¸°
Ġê°ĳ ìŀĳ
ĠíĹ¤ìĸ´ì§Ģ ë©´
ĠìĿ¸ìłķ íķĺê³ł
ĠìĿ¸ìłķ ë°Ľê³ł
ĠíĥĪ ì¶ľ
Ġíı¬ ìŀ¥
ĠíĤ¤ ìļ°ëĬĶ
ĠìĿ´ìĸ´ ëĤĺê°Ģ
ĠìĤ´ìķĦ ê°Ģ
ìĿ¸ìĥĿ ìĿ´
íķ´ì¤ĺ ìĦľ
¸ëŀĺë ¥¼
Ġì°į ê³ł
Ġë§Īì£¼ ì¹ĺëĬĶ
Ġë§Īì£¼ ì³Ĳë³´ìĦ¸ìļĶ
Ġíŀĺëĵ¤ìĹĪ ì£ł
ìĺ¤ëŀ «ëıĻìķĪ
ĠìĿ¸ìĥĿ ìĿ´
ĠìĿ¸ìĥĿ ìĿĦ
ĠìĿ¸ìĥĿ ìĿ´ì£ł
ëĥĪ ìĸ´ìļĶ
ìµľ ìĦłìĿĦ
ìµľ ê·¼ìĹĲ
ê·¸ë¶Ħ ìĿĺ
ĠìĹ°ëĿ½íķ´ ë³¼ê¹Į
ĠíļĮ ìĭĿ
Ġìĵ ¸ëį°
Ġëķ ħ
Ġëª© íĳľ
Ġì¢ĭìķĦíķ´ ì¤¬ìľ¼ë©´
íĹ¤ìĸ´ì§Ģ ìŀĲê³ł
íĺĦìĭ¤ ìĿĺ
ìĹŃ ìĭľ
Ġê°ľ ê°ķ
ìĪŃ ìĪŃ
ĠëĳĲëł¤ ìĽĢìĿĦ
ëıħ íķľ
Ġê´´ ë¡ľìĽĮ
ĠìĤ¬ì§Ħ ìĿĦ
Ġë¹Į ìĸ´ìļĶ
ĠíĬ ¸ëĿ¼
Ġìĺ· ìĿ´
Ġìĺ· ìĿĦ
Ġë¬´ìĦľ ìļ´
íķĻêµĲ ìĹĲìĦľ
ĠëıĦìĻĢ ì£¼
ĠëıĦìĻĢ ì¤ĺ
ĠíĹ·ê°Īë ¦¬ë
ìŀ¬íļĮ ë¥¼
Ġìŀ¬ë°Į ìĸ´
ĠíĺĦìĭ¤ ìĿĦ
ì£½ ê³ł
ì¹ĺë Ħ¤
ê¸°ìĸµ ìĿĺ
Ġì§Īë ¬¸
Ġì§Īë ¦°
Ġë§ĪìħĶ ëıĦ
ìĤ¬ëŀĳíķľ ëĭ¤ëĬĶ
ìļ´ëªħ ìĿ´
ìļ´ëªħ ìłģìĿ¸
ë¶Ģëĭ´ ìĬ¤ëŁ¬ìļ´
ĠìļĶ êµ¬
Ġì£¼ë§Ĳ ìĿ´
ìĦ±ê³µ íķĺê¸¸
ìĺ¤ëĬĺë ¶ĢíĦ°
ë´Ħ ìĿĢ
ĠìĶ »
ĠìĶ Į
Ġëĭ´ ê¸´
ìĽĥ ìĿĦ
ĠìĥĿìĿ¼ ìĿ´ëĦ¤
ëħ¸ íĽĦ
ëħ¸ëł¥ íķĺë©´
ĠìĨĲ íķ´
ĠìĨĲ ìĹĲ
ĠëĨĴ ìķĦ
Ġê¹Ĭ ìĿĢ
ì¶Ķìĸµ ìĿ´
ì¶Ķìĸµ ìĿĢ
Ġëĺĳ ê°ĻìķĦ
ìĥģëĮĢ ë¥¼
ìĥģëĮĢ ìĹĲê²Į
Ġíķĺëĭ¤ ê°Ģ
Ġìĭłê²½ ìĿ´
Ġìĭłê²½ ìį¨
Ġì½ ©
íķĦìļĶ íķľê²Į
ì§§ ì§Ģ
íķĺëĤĺë ´ħëĭĪëĭ¤
ĠìķĦì¹¨ ìĿ´
ì°½ ìĹħ
ê·¸ë¦¬ ê³ł
ìĬµê´Ģ ìĿĦ
ìĬ¤íĥĢ ìĿ¼
Ġë§ŀì¶° ë³´ìĦ¸ìļĶ
íĳ ¹
ìĹ¼ ìĥī
Ġë§Īì§Ģë§ī ìľ¼ë¡ľ
ĠìĻ¸ë¡ľ ìļ´
ĠìŀĬëĬĶ ëĭ¤ëĬĶ
ĠìĨĮìĭĿ ìĿ´
Ġìĭ¤ìĪĺ íķł
ĠìĺĪë¯¼ íķľ
Ġë´¤ ëĬĶëį°
íĩ´ê·¼ ê¸¸
Ġì§§ ìĿĢ
Ġê±¸ë¦ °
ê·¸ëŁ¬ ê²Į
Ġì£¼ë©´ ìĦľ
ĠëıĦìłĦ íķĺëĬĶ
Ġëħ¸ëŀĺë ¥¼
Ġëħ¸ëŀĺë °©
Ġì§ĳì°© íķĺëĬĶ
ĠìĤŃìłľ íķĺìĦ¸ìļĶ
Ġíı¬ê¸° íķĺëĬĶ
ìª ¼
ê¸°ëĮĢ ê°Ģ
Ġì¢ĭìķĦíķľ ëĭ¤ëĬĶ
íĽĦíıŃíĴį ìĿĢ
Ġë¶ĢëŁ¬ ìĽĮìļĶ
ĠìłģìĿĳ íķ´ìķ¼
ĠìĦľìļ´ íķ´
Ġë²Ħíħ¨ ìļĶ
.. ..
íķ© ê²©
ĠìĥĿê²¼ë Ħ¤ìļĶ
Ġê°Ģìķ¼ ê²łì£ł
Ġê²ĮìŀĦ ìĿĦ
ìĦłìĥĿëĭ ĺ
Ġëĵ± ìĿĦ
Ġê³¼ìłķ ìĿ´ìĹĲìļĶ
Ġë°Ķê¿Ķ ë³´ìĦ¸ìļĶ
Ġì¼ ľ
ĠëĴ ¤ë
ìľ¡ ìķĦ
ë¥ĺ ìĹĲìĦľ
ĠìĿ´ê¸° ìłģìĿ¸
Ġìĸ´ìĥī íķ´
įĶëĿ¼ êµ¬
ìĻ¸ë ¡Ń
Ġê·¸ëĮĢë¡ľ ìĿĺ
Ġì¢ĭìĿĦíħĲëį° ìļĶ
ëħĦìĿ´ ëŀĢ
ì½© ê¹į
ì½© ëĭ¬ì½©
ëĴ¤ ìĹĲìĦľ
ì¸ ł
ıĮ ìķĦ
ĠìķĦëĬĶëį° ëıĦ
Ġìłķë¦¬ë Ĳĺ
ĠìĤ¬ëĿ¼ ì§Ī
ëĪĦêµ¬ë ŀĳ
ìŀ¬ë°Į ëĬĶ
Ġë°ĶëĢĮ ê²Į
Ġë¬ »
ìķĦíĶĶ ìĿĺ
ê¹Ģ ìĹĲ
íĮ¨ íĦ´
ì§ľì¦Ŀ ëĤł
ĠìĬ¬íĶĦ ê²Į
ìĿĦëķĮ ëĬĶ
Ġìķ¼ ê²½
ë§¤ë ²Ī
ìĨĶì§ģ íķľ
ë¬´ìĹĩ ìĿ´
ìħĢ ì¹´
Ġì²ĺë Ł¼
ëĵľëĿ¼ ë§Ī
ëĵľëĿ¼ ìĿ´ë¸Į
ì§ĳìķĪ ìĿ¼
ĠíĬ¹ ì§ķ
ìĮ į
Ġë»Ķ íĸĪìĸ´
ìķĦë¹ł ê°Ģ
ê³łë§Ī ìļ´
íķĺëĥĲ ê³ł
ë§ĮëĤĺ ì§Ģ
ë°ĺë ³µ
íķĺê³łìĭ¶ ìĹĪëįĺ
ĠìĹ°ìĿ¸ ìľ¼ë¡ľ
ĠìĤ¬ê³¼ íķĺìĦ¸ìļĶ
ãħĭ ãħĭ
ĠëĶ°ëľ» íķł
ĠêµĲ íļĮ
ë°°ê³ł íĶĦ
ë°ĽìķĦ ëĵ¤
íıīìĨĮ ìĹĲ
ĠìŀĬíĺĢì§Ģ ê¸°ëıĦ
Ġê²¬ëĶĶ ê³ł
ëĮ Ī
ĠëĿ Ħ
Ġêº¼ ëĤ´
Ġê°ļ ìķĦ
ìķłë§¤ íķĺëĦ¤ìļĶ
ìĭ¬íĺ¸íĿ¡ ìĿĦ
íĬ¹ ë³Ħíķľ
Ġë©į ì²Ń
Ġê³ĦìłĪ ìĿ´
íľ´ê°Ģ ê°Ģ
Ġë°Ķê¿Ģ ê¹Į
Ġë§¡ ê²¨ë³´ìĦ¸ìļĶ
ëŀľ ìĦł
ìĹ°ìĿ¸ ìĿĢ
íŀĮ ëĭ¤
ìĤ¬íļĮ ìĥĿíĻľ
ĠëĤ´ëł¤ëĨ ĵ
ĠíķĺëĬĺ ìĿĦ
Ġìĥģì² ĺëıĦ
Ġìĥģì² ĺëĬĶ
íĹĪë ¦¬
ëĨĢ ìķĦ
ìĹ¬ëĵľ ë¦Ħ
ë¬¼ë¦¬ ìłģ
ì»´ íĵ¨
ìĿ´ìĥģíĺķ ìĿĢ
ê¶Įíĥľ ê¸°
Ġì§Ĳ ìĿĦ
ìĿ¸ìĹ° ìĿĢ
Ġë§Īìĭ¤ ê¹Į
Ġê¸°ìĽĲ íķ©ëĭĪëĭ¤
íħĮë¦¬ ìĸ´
ĠìĻ¸ë ¡Ń
ëıĻìĥĿ íķľíħĮ
ĠìĥģëĮĢë°© ìĿ´
ì°¨ë¶Ħ íŀĪ
Ġìĺ¤ëŀ ľ
ë¯¸ì¹ľ ëĵ¯ìĿ´
Ġì¦Ĳê¸° ë©´ìĦľ
ëĭ¤íĸī ìĿ´ìĹĲìļĶ
ê³µíĹĪ íķ¨ìĿ´
Ġë§ŀì¶Ķ ìĦ¸ìļĶ
Ġì²ł ë²½
Ġì°¨ë³Ħ íķ´
ĠìĽ¬ ìĪĺ
Ġê³Ħíļį ìĿĦ
Ġìĵ°ëłĪê¸° ìķ¼
Ġë°ĺìĿĳ ìĿ´
ĠìĿ´ê²¨ëĤ´ ìĦ¸ìļĶ
ìķ¼ëĲ ĺëĬĶëį°
ĠìĿµìĪĻíķ´ ì§Ģì§Ģ
¬ìľł ìľłìĹ°ìłľ
Ġë½ĳ ê¸°
ìłĢë ¶Ħ
ĠìķĦë¦Ħëĭ¤ ìĽĮìļĶ
ëĿ¼ìĿ´ ë²Ħìĭľ
Ġìĸ´íķĦ íķ´ë³´ìĦ¸ìļĶ
ì£¼ìĭĿ ìľ¼ë¡ľ
Ġê±¸ë¦¬ ê²łì§Ģë§Į
ĠìĤ¬ê²¨ ëıĦ
Ġê³łë§Ī ìĽĮ
Ġê³łë§Ļ ëĭ¤
ë°Ķë Ĭĺ
Ġë¹ĦëĤľ íķĺì§Ģ
íĥĿìĭľ ë¹Ħ
ì±Ļ ê²¨
Ġìį¸ë ħĢ
ĠëĤĺìķĦì¡Į ê¸¸
íķĦìļĶíķĺëĭ¤ë©´ ìļĶ
ĠìĻ¸êµŃ ìĿ¸ìĿ¸ëį°
ìĿĳìĽĲ íķ©ëĭĪëĭ¤
¸ë¬´ ê²Į
ĠëĤŃë¹Ħ íķĺì§Ģ
Ġìĭľê³Ħ ëĬĶ
Ġë²½ ìĹĲ
ê°ĲìĤ¬ íķ©ëĭĪëĭ¤
Ġì°¨ê°ĳ ê²Į
Ġìŀĥìĸ´ ë²Ħëł¸ìĸ´
âĢ ¦
ĠìŁģ ì·¨
ëĭ¤ìĸĳ íķĺê²Į
Ġì¢ĭìľ¼ë ł¨ë§Į
ëį°ëł¤ ëĭ¤
ĠìķĦíĮ ł
ìĭłì¤ĳ íķĺê²Į
ëª¨ìı ł
ĠíĬ¸ëĿ¼ ìļ°ë§Ī
, ,
0 0
3 0
A S
B íĺķ
a s
¡ ¤
¢ Į
¢ ìĸ´
¤ ë³´ìĦ¸ìļĶ
¬ ìĺģ
° ¥
° ĸìĿĢ
° ê³°íŀĪ
³ ¼ê¹Į
· íķ´ë³´ìĦ¸ìļĶ
¸ ìľ¼ë©´
¹ ì§Ħ
¹ êµ´
¹ íĪ°
½ ìĶ¹
¿ ¨
ë £¨
ë ĴĢ
ë »Ĳ
ë ĬĲëĿ¼
ë »ĳ
ì «
ì º
ì İ
Ġ '
Ģ ìĸ´
ģ Ŀ
Ħ ĺ
Ħ ëıĦ
ħ ì°°
Ĩ Ĵ
Ĩ ĵ
Ī ìĬ¤
Į ëĵľ
į íĮį
Ĳ ëĮĢìļĶ
Ķ ì³Ĳ
ķ Ĳ
ĸ ¨
ļ ìĸ´ë³´ìĦ¸ìļĶ
ľ ¨ë¦¬
Ŀ íļĮ
ŀ ¨
ł ì§Ģ
ł íĨ¡
ł íĭ°
Ġì ı
Ġì ¿¨
Ġë º
Ġë Ĥ¬ë
Ġë ĮĢë
Ġë Ŀ¼ë©´
Ġë ¦¬ë
Ġë »ĳ
ìĿ ĺëĬĶ
ìĿ ½ìĶ¹
Ġê ¶Įíĥľ
ìĿ´ ëł¥
ìĿ´ ë¯¸
ìĿ´ ë¶Ī
ĺë ¡ľ
ìķ ¨
ê° ĸ
ì§ ¸ëĦ¤
ì§ ļìĸ´ë³´ìĦ¸ìļĶ
ìĸ´ ìĿ´
ìĸ´ ëł¤
ìĸ´ íĿ¥
ìĹ łíĭ°
ëĤ ļìĭľ
ì§Ģ ìļ°
ì§Ģ ë§ĪìĦ¸ìļĶ
ì§Ģ ëĤ´ê³ł
ì§Ģ ëĬ¥
ì§Ģ ìĭľì¼ľ
ì§Ģ ìłĢë¶Ħ
íķ´ ì§Ģê³ł
íķ´ ë´ĲëıĦ
Ġìŀ ¤
ìķĦ ë¦¬
ìķĦ ë¶Ģ
ìķĦ íĶĮ
ê°Ģ ë³
ê°Ģ ê²Į
ê°Ģ ê¹Į
ê°Ģ ëĦ¤ìļĶ
ê°Ģ ëł¤
ê°Ģ ìĽĮìļĶ
ëĬĶ ëĭ¤ê³ł
ëĬĶ êµ¬ëĤĺ
ê³ł íĮĮ
ê³ł ìĭľìĽĲ
ìĿĦ ê¹ĮìļĶ
ìĿĦ ë¿Ĳ
ìł Ģë¡ľ
Ġí ŀ
Ġí ĩ´
Ġë§ ´
Ġë§ º
ëĭ¤ ë¦¬ê°Ģ
ëĭ¤ ëĭĪë
ëĭ¤ ìĿ´ìĸ´íĬ¸
íķĺë ł¤ë©´
ê¸ Ģë¡ľ
ìĭ ¹
íķĺ ìķĦ
íķĺ ê¸°ê°Ģ
ìĹĲ ë§Į
Ġê° łíĨ¡
ê²Į ëĲĺë
¸ë °Ľ
ëıĦ ëĮĢì²´
ë³´ ìĿ´ëĦ¤ìļĶ
ë³´ ìĿ´ëĬĶ
ĠìŀĪ ëĮĢ
ĠìŀĪ ê²łëĭ¤
ĠìŀĪ ê±°ëĤĺ
ĠìŀĪ ìľ¼ìĦ¸ìļĶ
ĠìŀĪ êµ°ìļĶ
ĠìŀĪ ëĭµëĭĪëĭ¤
ĠìŀĪ ëĥĲê³ł
ê¹ ľ
íķľ ë¦¬
íķľ ë²
íķľ ê±´
íķľ êµŃ
íķľ ìķ½
íķľ ê°Ģë´ħëĭĪëĭ¤
íķľ íĳ¼
íķľ ë°ĶíĢ
Īë ¶ĢíĦ°
Ġì¢ĭ ìĿĮ
Ġì¢ĭ ëĦ¤ìļĶ
Ġì¢ĭ ëĮĢìļĶ
ìŀĲ ëŀĳ
ìŀĲ ì·¨
ìŀĲ ê´´ê°Ĳ
ĠëĤ ĺëĬĶëį°
Ġê±° ê²łì§Ģ
Ġê±° ìļ¸
Ġê±° ëĿ¼ë©´
Ġê±° ë¦¬ë¥¼
ê¸° ì§Ģ
íķĺëĬĶ ê±´
ê²ł ëĮĢ
¼ë ¬¸
Ġê² ª
ìĦľ ë¥¼
ìĦľ ìĻĢ
ìľ ¨
ìľ Ĺ
ì¹ ĺëıĦ
ë¦ ĩ
ëĤĺ ê°Ħ
ëĤĺ ìĿ´ê°Ģ
Ġë° ĳ
ìķ¼ íķ´
ìķ¼ íķ´ìļĶ
íķł ìĪĺ
ĠìĤ¬ëŀĮ ìĿ¸
ĠìĤ¬ëŀĮ íķĺê³ł
ĠìĿ´ ê±°
ĠìĿ´ ê²ĥ
ĠìĿ´ ìĤ¬ë¥¼
ĠìĿ´ ë²¤
ĠìĿ´ ëģĮ
Ģë ¬¸
Ġê°Ļ ëĭ¤
Ġê°Ļ ìĿĮ
Ġë³ ¼ë
Ġë³ ¸ë°Ľ
Ġìł Ģë
ë§Į íķ´
ë§Į íĻĶ
Ġíķ´ ë¡ľ
Ġíķ´ ë´Ĳ
Ġíķ´ ì¤Ģ
Ġíķ´ ì¤Ħê¹Į
Ġíķ´ ëĵľë¦´ê²ĮìļĶ
Ġíķ´ ë³´ëł¤ê³ł
Ġíķ´ ë´¤ëĬĶëį°
ëĤĺë ³´ëĭ¤
ì¹ľ ì²Ļ
Ġëª «
Ġëª ¸ë¬´ê²Į
ìĿ¸ ê¸°
ìĿ¸ ê³¼
ìĿ¸ íĦ°
ìĿ¸ ìĿ´ì£ł
ìĿ¸ ë§¥
ìĿ¸ íħĮë¦¬ìĸ´
ê°ģ ì§Ī
ìĭľ íķ´ë³´ìĦ¸ìļĶ
ìĭľ ëĭ¤ëĭĪ
ìĿĺ ì§Ģ
ìĿĺ ìĭ¬
ìľ¼ë Ł¬
ĠìķĦ ë¬¼
ĠìķĦ ëł¨
ĠìķĦ ìī½
ĠìĹĨ ê³ł
ĠìĹĨ ì§ĢìļĶ
ĠìĹĨ ìľ¼ëĭĪê¹ĮìļĶ
ĠìĹĨ ëĭµëĭĪëĭ¤
Ġê· Ģë¡ľ
ê±° ìłĪ
Ġì¢ĭìķĦ ìĦľ
Ġì¢ĭìķĦ ì§Ī
Ġì¢ĭìķĦ ì§ĢëĬĶ
Ġì¢ĭìķĦ ì§Ģê³ł
Ġì¢ĭìķĦ íĸĪëįĺ
Ġë§Ī ìĬ¤
Ġë§Ī ì¹¨íĳľ
ìĿ¼ ëıĦ
ìĿ¼ ê¸°
ìĿ¼ íķĺë©´ìĦľ
íĺ ¼ë
Ġìĭ¶ ìľ¼ë©´
êµ¬ ê²½
ìłķ ìłķ
ìłķ ìĥģ
ìłķ ëħĢ
ë¦¬ ì£ł
ë¦¬ ê¸¸
ë¦¬ ìłģìĿ¸
ë¦¬ ìĦĿ
ìĭł ì²Ń
ëĤ¨ ìĿĢ
ëĤ¨ ëĵ¤
ëĤ¨ ê³¼
ëĤ¨ ìĿ´ëĭĪ
Ġê³ °ê³°íŀĪ
Ġê²ĥ ìĿ´ì£ł
Ġìĸ´ ì°Į
ì£¼ íĥĿ
Ġìĺ Ģ
ĠìĥĿê°ģ ëıĦ
ĠìĥĿê°ģ ëĤĺë
ĠìĥĿê°ģ íķĺê²Į
ĠìĥĿê°ģ ìĿ´ëĦ¤ìļĶ
ëŀ Ĳìĸ´
ĠìķĬ ê²łëĦ¤ìļĶ
ĠìķĬ ì§ĢìļĶ
ĠìĪĺ ìĥģ
Ġê± Ķ
ê°Ħ ë§ĮìĹĲ
Ġë§Į ì§Ģì§Ģ
Ġë³´ ìĭł
Ġë³´ ìĿ´ëĬĶ
Ġë³´ ê¸°ë¡ľ
Ġë³´ ëĵ
Ġë³´ ëĭµìĿĦ
Ġë³´ ëĥĪìĬµëĭĪëĭ¤
Ġë§Ĳ ìĶ
Ġë§Ĳ ê±¸
Ġë§Ĳ íķ´ìĦľ
Ġë§Ĳ íĪ¬ê°Ģ
Ġê°Ģ ëĦ¤ìļĶ
Ġê°Ģ ëĬĶê²Į
Ġê°Ģ ë¦¬ìĦ¸ìļĶ
Ġê°Ģ ëł¤ê³ł
Ġê°Ģ ê¸°ë¡ľ
Ġê°Ģ ìķ¼ëı¼
Ġëĭ¤ íķĺìĦ¸ìļĶ
Ġëĭ¤ ì¹ł
Ġëĭ¤ ë¦ħëĭĪëĭ¤
ë§Ī ìļĶ
ë§Ī ìŀĲ
ë§Ī ì£¼
ë§Ī ìĭľë©´
ĠìĹ° ìĺĪ
ĠìĹ° íľ´
ìĤ¬ëŀĳ ëĭĪ
ìĤ¬ëŀĳ ìľ¼ë¡ľ
ëĤ´ ë©´
ëĤ´ ëł¤ëĨ
ĠìķĪ ê³ł
ĠìķĪ íķł
ĠìķĪ ì¢ĭìĿĢ
ĠìķĪ ê²½
ĠìķĪ íĥĢ
ĠìķĪ íĥĢê¹Ŀ
ì¢ĭ ìķĦìļĶ
ì¢ĭ ìľ¼ë©´
ì¤ Į
ìĪ ĺëĬĶ
ĠëĤĺ ìķ¼
ĠëĤĺ ê²łëĦ¤ìļĶ
ĠëĤĺ ìĹĲê²Į
ĠëĤĺ ì¤ĳìĹĲ
ĠëĤĺ ê°Īê±°ìĺĪìļĶ
Ġë§İ ìľ¼ìĭľ
Ġë§İ ìķĺëĤĺë´ħëĭĪëĭ¤
Ġê¸ ī
Ġê¸ įìłķ
Ġê¸ ¸ë©´
ë¡ľ ëĬĶ
ìĥģ íķĺì§Ģ
ìĥģ ìĤ¬
ìĥģ ìĤ¬ê°Ģ
ìĹ¬ ê¸°
ìĹ¬ ìĦľ
ìĹ¬ ìĤ¬ì¹ľìĿ´
ì¡ ¸ë¦°
Ġì° ¢ìĸ´
Ġë°Ķ ì§Ģ
ëĵ¤ ìĸ´
ì§Ħ ìĭľ
ê·¸ë Ł¬ëĬĶ
ê·¸ë ķĲ
íħ Ķ
íħ ĲëĮĢìļĶ
Ġìĭľ ëł¤
Ġìĭľ ìĦłìĿĦ
ì¹ľêµ¬ ìĿ¸ëį°
ìĹĪ ëĤĺìļĶ
ĠìŀĲ ìķ¼ì§Ģ
ĠìŀĲ ê²©
ĠìŀĲ ê²©ì¦Ŀ
ĠìŀĲ ì¡´ìĭ¬
ìĨ Ķë¡ľ
íĶ ¼ë¡ľ
ìķł íĭ
ìķł ìĦĿ
ĠìĤ¬ëŀĳ ìĿ´ìĹĲìļĶ
ĠìĤ¬ëŀĳ íķłê¹Į
ĠìĤ¬ëŀĳ ìĿ´ì£ł
ĠìĤ¬ëŀĳ íķĺëĬĶëį°
ĠìĤ¬ëŀĳ ë°Ľê³ł
ë² Ķ
ĠëįĶ ìĽĮ
ìĹ° ìĬµ
Ġìŀĺ íķĺë©´
Ġìŀĺ íķ´ìķ¼
Ġìŀĺ íķĺëĬĶê²Į
Ġê¸° ë¥´ê³ł
íŀ Ĳ
Ġíķ ©
ìĸ ĺ
ĠìĹ¬ ê¸°
ĠìĹ¬ ê¸°ê¹Įì§Ģ
ĠìĹ¬ ìŃ
ìĭ¬ íķľ
ë§Ĳ íķ´
ë§Ĳ ë¡ľ
Ġì§Ģ ëĬĶ
Ġì§Ģ ê°ģ
Ġì§Ģ ëĤľ
Ġì§Ģ ìĨį
Ġì§Ģ ìĽłìĸ´
Ġì§Ģ ëĤ¸
Ġì§Ģ ì§Ħìĭľ
íĸĪ ëĤĺ
íĸĪ ëĭ¤ë©´
íĸĪ ëĭ¤ê³ł
íĸĪ ìĿĦê¹Į
ê¸¸ ë§Į
ìŀ¥ íķĻ
ìŀ¥ ê°ĳ
ĠìĹ°ëĿ½ íķłê¹Į
ĠìĹ°ëĿ½ íķĺëĬĶê²Į
ĠìĹ°ëĿ½ ìĻĶìĸ´
ĠìĹ°ëĿ½ íķĺëĿ¼ê³ł
ìĥĿ ìĿ´
ìĥĿ ë¦¬íĨµ
ìłĦ ìĦ¸
ìłĦ ê¸°
ìłĦ ìĹŃ
íħĮ ëĭĪ
íħĮ ëĭĪê¹ĮìļĶ
ĠëĤ¨ ìĿ´ìĹĲìļĶ
ĠëĤ¨ ìķĺ
ìĤ¬ ì¶ĺ
ìĤ¬ ìłķìĿĦ
ĠìĤ¬ ì¤ĺ
ĠìĤ¬ ìĹħ
ĠìĤ¬ëŀĮìĿ´ ëĭ¤
ĠìĤ¬ëŀĮìĿ´ ìķ¼
Ġíŀĺëĵ¤ ê³ł
ĠëķĮ ìļĶ
ĠëķĮ ì£ł
ĠëķĮ ëł¤
ĠëķĮ ë§¤
ĠëķĮ ë¶ĢíĦ°
ìĿ´ë³Ħ ëıĦ
ìĿ´ë³Ħ ì¤Ģë¹Ħ
ĠìķĮ ê¹Į
ĠìķĮ ê²łìĸ´
ë¥´ ì§Ģ
ë¥´ ê¸°
íĺ¼ ìĪĺ
íĺ¼ ìĪł
ĠìĿ¼ ìĹĲ
ĠìĿ¼ íķĺëĬĶ
ĠìĿ¼ ìĭľ
ĠìĿ¼ ìĿ¸ì§Ģ
Ġíĸ ĪëĦ¤
ĠëĤ´ ê²Į
ĠëĤ´ ê¸°
ĠëĤ´ ìĦľ
ĠëĤ´ ìĿ¼ìĿĦ
ìĬ¤ ê°Ģ
ìĬ¤ íĬ¸
ìĬ¤ ë¦´
ìĬ¤ íģ¬ë¦¼
ë¯ ¸ëŀĺë¥¼
ìłģ ê²Į
ìłģ ìĿ´ìĹĲìļĶ
ì¢ĭìķĦ íķĺê³ł
ì¢ĭìķĦ íķĺì§Ģ
ìĺ¤ë ¡ľ
ìĺ¤ë ŀĺëĲľ
Ġëª¨ ìŀĲ
Ġëª¨ ìľ¼
ì§ģ íķĺìĦ¸ìļĶ
ĠëŃ ĺë¡ľ
ëĮĢ ëĬĶ
ëĮĢ ê¸°ìĹħ
Ġëª» íķĺëĬĶê²Į
Ġëª» ìŀĬ
Ġê³ł ê¸°
Ġìĭ¶ìĸ´ íķĺëĬĶ
ë§ĪìĿĮ ê³¼
Ġë¨¹ ìĿĢ
Ġë¨¹ ëĬĶëį°
Ġë¨¹ ê±°ëĤĺ
Ġë¨¹ ìĸ´ëıĦ
Ġë¨¹ ìĹĪëįĶëĭĪ
ê°Ģë ľ¨ë¦¬
ìļ° ìĹ°ìĿ´
ìļ° ìłķìĿ´
ìį¸ ìĿ¼
Ġëģ ¼
Ġëģ ĦëĬĶ
Ġìĭľê°Ħ ìĿ´ëĦ¤ìļĶ
Ġë°Ľ ìľ¼ìĦ¸ìļĶ
Ġë°Ľ ìľ¼ìĭľ
íĹ¤ìĸ´ ì§Ģì§Ģ
ë¬´ ëª¨
ë¬´ ê¸°ëł¥
ê´ ľíķľ
ë¶Ħ ëħ¸
Ġíķĺë ĬĲëĥĲìĹĲ
ìŀĺ ìŀĲ
ë¶Ģ ì¡±
Ġë² ħì°°
ĠìĤ´ ì§Ŀ
ĠìĤ´ ë©´ìĦľ
ĠìĤ´ ìª
ĠìĤ´ ì°Ĳ
Ġíķľ ìĭ¬íķ´
Ġíķľ ëĭµëĭĪëĭ¤
ëĭ¹ ë¶Ħê°Ħ
ìķĪ ëĤĺ
ĠëĲĺ ìĸ´ìļĶ
ĠëĲĺ ìĹĪëĦ¤
ĠëĲĺ ì§ļìĸ´ë³´ìĦ¸ìļĶ
Ġíķł ì§Ģ
Ġíķł ê¹ĮìļĶ
êµ¬ë ¥¼
Ġì¢ĭìĿĦ ê±°
Ġëĵ¤ ìĹĪê²łëĦ¤ìļĶ
ìŀĪ ìľ¼ë©´
ìŀĪ ê²łëĦ¤ìļĶ
ê·¸ ê±¸
ê·¸ ê²ĥëıĦ
ĠëĨ ĢëŀĲ
ŀĺ ìļĶ
Ġë¬´ ìŀĳìłķ
ëıĻ ëł¥ìĿ´
íĸī ìĹĲ
íĸī íķ´ë³´ìĦ¸ìļĶ
íĸī ëıĻ
ìĭ¤ ê±°ìĺĪìļĶ
ìĭ¤ ë§Ŀ
ìĻĢ ìĿ¸
ĠëŃĲ ì§Ģ
ĠëŃĲ íķĺëĬĶ
ĠëŃĲ ë¡ľ
ĠëŃĲ íķĺëĤĺ
Ġìĥģ ë©Ķ
ì§Ī íķľ
ì§Ī ì§Ī
ĠìŀĪëĬĶ ê±¸ê¹Į
ë¦¬ë įĺ
ë¦¬ë Ħ¤ìļĶ
ì¡Į ìĸ´ìļĶ
ìĨĮ ê°Ģ
ìĨĮ ìĨĮíķľ
íı ¬ë§
ìĸ´ë Ħ
ìĸ´ë ľ¨
Ġì¢ĭìĿĢ ê±°
ĠìĿ´ë³Ħ íķĺê³ł
ĠìĿ´ë³Ħ ìĹĲëĬĶ
ĠìĿ´ë³Ħ íķľì§Ģ
ìĪĺ ìłĢë¡ľ
ìĽĲ íķ´ë³´ìĦ¸ìļĶ
ìĽĲ ë§Ŀ
ĠëģĿ ëĤĺë
ĠëģĿ ìĿ¸ê°Ģ
Ġë¯ ¸ëŀĺ
Ġëĵľ ë¦´
Ġëĵľ ëł¤ë³´ìĦ¸ìļĶ
Ġëĵľ ëł¤ìļĶ
Ġëĵľ ëĶĶìĸ´
Ġëĵľ ë¦½ëĭĪëĭ¤
ìľ¼ ìķĦ
ìľ¼ ëĿ¼ê³ł
Ġìĸ µ
Ġê±¸ ìĿĮìĿĦ
ê°Ļ ëĭ¤
ê°Ļ ìķł
Ġì£¼ ìĿĺíķĺìĦ¸ìļĶ
ĠëĤĺë ĭĪ
ĠìĹ¬ìŀĲ ëĬĶ
ĠìĹ¬ìŀĲ ëıĦ
ĠìĹ¬ìŀĲ ì¹ľêµ¬ë¥¼
ĠíĻ ľ
ĠíķĦìļĶ íķĺì§Ģ
ĠíķĦìļĶ íĸĪ
ì¤ĳ ìŀħëĭĪëĭ¤
ĠëĤ¨ìŀĲ ëĬĶ
ĠëĤ¨ìŀĲ ìŀħëĭĪëĭ¤
ë¬¼ ìĿ´
Ġê´ľì°® ê²łì§Ģ
ê³µ ì§ĢëĬ¥
ìł¸ ìĦľ
ĠìĹĨìĸ´ ì¡Įìĸ´
Ġì¹ľ ìłĪ
Ġì¹ľ íķ´ì§ĢëĬĶ
Ġì¹ľ íķ´ì§ĢëĬĶê²Į
ĠëĮĢ íĶ¼ë
Ġì¡° ê°Ģ
ê¾ ¼
Ġíĺ ķ
Ġìī ´
ĠìĬ ¹ì§Ħ
ìľł íķĺëĬĶ
ìľł ë¶ĢëĤ¨
ìĭĿ ë¬¼
Ġìľ ¡
ĶĶ ìħĺ
ê°ľ ê°ķ
ê°ľ ëħĲ
Ġê°Ģë ´
Ġê°Ģë ´ĲìļĶ
ĠíĥĢ ëĤĺ
ŀĳ ìĿ´ë³´ëĭ¤
Ġìĸ´ëĸ»ê²Į íķ´
ê¾¸ ì¤Ģ
ì¡° ê¸ī
ìĤ¬ëŀĮ ëĵ¤
ìĤ¬ëŀĮ ì¹ľêµ¬
ìĤ¬ëŀĮ ìĹĲê²Į
Ġë§ŀ ìķĦ
Ġë§ŀ ìľ¼ë©´
ĠìĿ¸ ìĥģ
ĠìĿ¸ ìĤ¬ë
ĠìĿ¸ ìĬ¤íĥĢ
ĠìĿ¸ ì§Ģìĭľì¼ľ
ĠìĿ¸ ê³µì§ĢëĬ¥
íĬ¸ ëĤ¨
Ġë§ĮëĤĺ ìŀĲ
íĹ ¥
ĠëĤł ìĿ´ëĦ¤ìļĶ
ëĵł ëĵł
Ġê°Ĳ íŀĪ
Ġê°Ĳ ìĪĺ
Ġê°Ĳ ìĦ±
Ġê°Ĳ ì¶ľ
Ġê°Ĳ ìľ¼ìĦ¸ìļĶ
ê» Ħ
ĠìĨĮ ìĽĲ
ĠìĨĮ ë¦Ħ
ĠìĨĮ ìľłíķĺëĬĶ
ê³Ħ ìłĪ
Ġìĭ« ìĸ´ìļĶ
Ġìĭ« ëĭ¤ê³ł
íĶĦ íĦ°
ĠìĹ°ìķł ìĹĲ
ĠìĹ°ìķł íķĺê³ł
ĠìķĦëĭĪ ì§Ģ
Ġìĺ¤ íķ´
Ġìĺ¤ ê¸¸
Ġìĺ¤ ëĿ¼ê³ł
Ġìĺ¤ ìħ¨
Ġìĺ¤ ëĭĪê¹Į
Ġìĺ¤ ëĿ½ê°ĢëĿ½
ìĦ± ìĿ´ìĹĲìļĶ
ìĦ± ëįķ
ëĭµ ìłķëħĢ
íķĻ ìĭĿ
íķĻ ìłĲ
Ġì§Ħ ì§Ģ
Ġì§Ħ ìĭ¬
ìĭľê°Ħ ëĤ´ìĦľ
ëĵľ ë¦¬ëĬĶ
ëĵľ ëł¤ìļĶ
Ġíķĺ ê¸°ëıĦ
Ġê¹ Ģ
Ġê¹ ľë¹¡
ĠìĻľ ìĿ´ëłĩê²Į
Ġìĭľê°ĦìĿ´ ìĹĪ
Ġëĭ¹ íķľ
Ġëĭ¹ ì²¨
£¨ íķ´
ë¹Ħ êµĲ
ë¹Ħ ì°¸
ë¹Ħ ìĭ¸
ë¹Ħ ìłķê·ľì§ģ
ë¹Ħ íĸīê¸°
ë¹Ħ ìĭ¼
ëĵ¤ìĿ´ ëŀĳ
ĠëıĦ ë§Ŀ
Ġë¹Ħ ìĦ¸ìļĶ
Ġë¹Ħ ì°¸
ëĭ¨ ë§Ľ
ëĭ¨ ì²´
ëĭ¨ ìĪľ
Ġì°¾ìķĦ ë´ĲìļĶ
Ġì°¾ìķĦ ê°ĢëĬĶ
Ġì°¾ìķĦ ìĺ¤ëĬĶ
Ġìķł ìĿĺ
ê·Ģ ê°Ģ
ê·Ģ ì°®
ê·Ģ ìĹ½
ê·Ģ ìĹ½ê²Į
Ġìĺ¤ë Ĭ
Ġìĺ¤ë ŀĺë
Ġìĺ¤ë °Ķ
íĺ¼ìŀĲ ë¥¼
íĺ¼ìŀĲ íķ´ëıĦ
íĺ¼ìŀĲ ë§ĮìĿĺ
ê±¸ ìĿĮ
ìĦł íĴį
ìĦł ë°°ê°Ģ
ì§Ģê¸Ī ë³´ëĭ¤
ì§ĳ ìĹĲìĦľëıĦ
Ġëį° ê°Ģ
Ġì¤Ģë¹Ħ íķĺê¸°ëĬĶ
ì¹ľêµ¬ë ĬĶ
ì¹ľêµ¬ë ıĦ
ìĹ°ëĿ½ íķł
ìĹ°ëĿ½ ëĳĲ
ìĹ°ëĿ½ ìĿ´ëĿ¼ëıĦ
ë¬¸ ìŀĲ
ë¬¸ ìłľ
Ġëħ ¹
ĠíĿ ¬ìĥĿ
ë³´ëĭ¤ ë³´ë©´
ĠìĹĨëĬĶ ì§Ģ
ĠìĹĨëĬĶ ê±¸ê¹Į
ĠìŀĲìĭł ë§Į
ĠìŀĲìĭł ìľ¼ë¡ľ
Ġìłķë¦¬ íķ´
Ġìłķë¦¬ íķĺê³ł
Ġìłķë¦¬ íķ´ë³´ìĦ¸ìļĶ
Ġìłķë¦¬ íķĺìĦ¸ìļĶ
íķ´ìķ¼ íķłì§Ģ
Ġìłľ ìŀĲë¦¬
ì²ĺë ¡ľ
ì²ĺë ¦¬
ë§ĪìĿĮìĿ´ ëŀĳ
ĠìĦłë¬¼ íķĺë©´
ĠìĦłë¬¼ ìĿ´ëĦ¤ìļĶ
ëĳĲ ëĭ¬
ëĳĲ ëĭ¬ìĿ´
Ġì§ĳ ìĿ´
Ġëª° ëł¤
Ġê¸°ëĭ¤ ë¦¬
Ġê¸°ëĭ¤ ë¦¬ìĦ¸ìļĶ
Ġê¸°ëĭ¤ ë¦´ê²ĮìļĶ
ëª¨ ë¥´
ëª¨ íĭ°
ê¸´ ëĭ¤
ê¸´ ìŀ¥
ìļ© ê¸°
ĠìľĦ ê¸°
ĠìĿ´ìķ¼ê¸° íķĺëĬĶ
Ġë© °
ĠíĹ Į
ĠíĹ ¬ìĬ¤
Ġê³Ħ ê¸°ê°Ģ
Ġì°¸ ìķĦ
Ġì°¸ ìķĺìĸ´
Ġì°¸ ê²¬
Ġíĸīë³µ ìĿĢ
Ġíĸīë³µ íķĺê¸¸
Ġíĥ Ģë
Ġíĥ ĢëŁ¬
Ġíķĺì§Ģ ëıĦ
Ġíķĺì§Ģ ë§Ĳê³ł
ĠëĺĲ íķľ
ìĪł ìĿĢ
ìĪł íķľìŀĶ
íĶ¼ íģ¬ëĭī
Ĥĺë ´Ĳ
ë¹ µ
ë¹ Ļ
ë¹ ļ
ë¹ ¼ë¹¼ë¡ľ
ı¼ ìĦľ
Ġíķ´ìķ¼ íķł
Ġíķ´ìķ¼ ê²łì§Ģ
Ġíķ´ìķ¼ ê²łëĦ¤
ìłĪ ìķ½
ì§ĿìĤ¬ëŀĳ ìĿĦ
ìĽĶ ìĿ´
ìĽĶ ìĦ¸
ĠíĻķ ë¥ł
ìĹĨ ëĦ¤
ĠëıĮ ë©´
ĠëıĮ ë¦¬ëĬĶ
ĠëĳĲ ìĦ¸ìļĶ
ĠëĳĲ ëĭ¬ìĿ´
ĠëĳĲ íĳ¼
íķ¨ ìĹĲ
ĠëĲĺë ł¤ê³ł
ĠëĲĺë ł¤ë©´
Ġë§Įëĵ¤ ê¸°
Ġë§Įëĵ¤ ìĹĪìĸ´ìļĶ
ĠìĺĪ ìķ½
ĠìĺĪ ê°ĲìĿĢ
ì¦Ŀ ëªħ
Ġê³µ ê°Ħ
Ġê³łë¯¼ ìĿ´ì£ł
Ġê³łë¯¼ íķĺëĬĲëĿ¼
Ġê³³ ìĿ´ì£ł
Ġê³³ ê¹Įì§Ģ
íĮĮ ëıĦ
íĮĮ íĺ¼
íĮĮ ìĿ´íĮħ
íķĺê¸° ë¡ľ
ë²Ħ ë¦¼
Ġê³łë°± íķĺëĬĶê²Į
ìŀĦ ìĿ´
ìŀĦ ìļ©
ê°ķ ìĬµ
ì§¸ ê¹į
íĥ Ķ
Ġêµ ´
Ġêµ Ń
ë°° ìļ°
ìĸ´ëĸ ¡
Ġëĸ¨ ë¦°ëĭ¤
Ġíŀĺëĵľ ëĭĪê¹ĮìļĶ
Ġê°ĢëĬ¥ íķĺì£ł
Ġê°ĢëĬ¥ íķľê°Ģ
Ġíŀĺëĵł ê°Ģë´ĲìļĶ
ìķĦì§ģ ìĿ´ëĿ¼ë©´
ìħ¨ ëĤĺìļĶ
ĠìķĮìķĦ ë³´ëĬĶ
ĠìķĮìķĦ ë³¼
ĠìķĮìķĦ ëĳĲìĦ¸ìļĶ
ĠìķĪëĲ ł
ê²°íĺ¼ íķ´ëıĦ
ê²°íĺ¼ ì¤Ģë¹Ħ
ê²°íĺ¼ ìłģëł¹
ë§Ľ ëĤľ
ë§Ľ ì§ĳ
ë§Ľ ìŀĪìĿĦ
ë°ľ ìĿĦ
ë°ľ ëłĮíĥĢìĿ¸ëį°ìĿ´
ìĻĶ ìľ¼ë©´
ìĿ´ìĹĪ ìľ¼ëĭĪê¹ĮìļĶ
Ġìĭ«ìĸ´ ëıĦ
Ġìĭ«ìĸ´ íķĺì§Ģ
ìĵ° ì§Ģ
Ġë°° ìļ°ë©´
Ġë°° ìļ¸ê¹Į
Ġë°° ê³łíĮĮ
Ġë¶Ģë ¶Ģ
Ġë³Ģ íķ´ìļĶ
ĠëĨĢ ê¹Į
ĠìķĦëĭĪë Ħ¤
Ġìĵ° ìĿ¼
Ġìĵ° ëł¤ê³ł
Ġìĵ° ìĿ´ëĬĶ
ë§¤ ëł¥
ĠìĤ¬ë ıĦ
ĠìĤ¬ë ©´
ĠìĤ¬ë ¨¹
ë¯¸ ìķĪíķ´
Ġëĸł ëĤł
Ġëĸł ë³´ëĬĶ
Ġëĸł ëĤ¬
ìľĦ ì¹ĺ
ëªħ íķľ
ëªħ íĴĪ
Ġë²Ħ ëĬĶ
Ġë²Ħ ë¦¬ëĬĶ
Ġë²Ħ ë¦ĩ
ìĪĺë Ĭ¥
Ġê±±ìłķ ìĿ´ìķ¼
Ġê±±ìłķ íķĺì§Ģë§ĪìĦ¸ìļĶ
ìĿ´ë ĶĶ
ìĿ´ë £¨
ìĿ´ë ĦĪ
¸ë¦ ¬ëĬĶ
ĠìĤ¬ê·Ģ ìĸ´
Ġìļ° ë¦°
ìĤ¬ë ©´
ìĤ¬ë ¡ľ
ĠìŀĪìĹĪ ìĸ´
ĠìŀĪìĹĪ ìĿĦì§ĢëıĦ
Ġê²°íĺ¼ íķ´ëıĦ
Ġê²°íĺ¼ íķ´ìķ¼
Ġê°Ĳìłķ ìĿĢ
ĠëĦ Į
ìĺĢ ëĦ¤
ìĺĢ ëĤĺ
ìĺĢ ëĤĺìļĶ
¶Ħ ìĿ´
ë§ī ì°¨
ĠíĶ¼ íķĺëĬĶ
ĠíĶ¼ íķł
ì¹¨ ëĮĢ
ë¦Ħ ìĿ´
ë¦Ħ ëĭ¬
ë°© ë¹Ħ
ĠëĪĪ ìĿĢ
ìŀĬ ê³ł
ìŀĬ ê¸°
ĠëĨĵ ìľ¼ìĦ¸ìļĶ
ĠìĦ± ìĪĻ
ĠìĦ± ìłģìĿ´
ĠìĦ± ë³ĦìĿĦ
Ġê¿Ī ìĹĲìĦľ
Ġê°Ħ ëĮĢ
Ġê°Ħ ì§ģíķĺìĦ¸ìļĶ
Ġíķ¨ ë¶Ģë¡ľ
Ġë¯¿ ìĸ´
ĠìĨį ë°ķ
ĠìłĢ ë§Īëĭ¤
ë°Ľ ìľ¼ìĦ¸ìļĶ
ë°Ľ ìķĺìĸ´
Ġë¶Ħ ëĭ´íķ´ë³´ìĦ¸ìļĶ
ì¶Ķ ìĦĿ
Ġì¹ľêµ¬ë ĬĶ
Ġì¹ľêµ¬ë ĵ¤ìĿ´
íĸĪëįĺ ê±°
ë¶Ģë ħĢ
ë¶Ģë ĶĶ
ìĸĳ ìłľ
ìĸĳ íķ´ë¥¼
ëķĮ ë¡ľëĬĶ
íĺķ íİ¸ë
íľ´ íķĻ
íľ´ ìĭĿëıĦ
ĠíĳľíĺĦ íķ´
ĠíĳľíĺĦ íķ´ë³´ëĬĶ
Ġë§İìĿĢ ê°Ģ
Ġê·¸ëŁ° ì§Ģ
Ġê·¸ëŁ° ê°Ģ
Ġê¸°ìĸµ íķ´
íĪ ¬ë¥¼
ìĥĪ ìĭłë°ľ
ê°ľìĽĶ ì°¨
ĠìĤ Ĳ
ëĭ¬ëĿ¼ ì§Ģì§Ģ
Ġë°ĺ íķľ
ĠìĿ´ìłľ ìķ¼
ì°¸ ê²¬
ĠìĦłíĥĿ ìĿ´ìĹĪìĿĦ
ĠëĶ°ëĿ¼ ê°Ģ
íĿ Ĳ
íĿ ĺ
íĿ ł
ĠìĿ´íķ´ íķ´ë³´ìĦ¸ìļĶ
ĠìĿ´íķ´ ëª»
Ġìĺ¬ ê±°ìĺĪìļĶ
íĶĮ ëĿ¼
ĠëıĻ ìĺģ
ĠíķĺëĤĺ ì£ł
íĽĦíļĮ íķĺëĬĶ
ëĪĪ ìĹĲ
ê°Ī ìĪĺë¡Ŀ
ìĺģ ìĸ´
ĠìĿ´ìľł ë¡ľ
ĠëĪĦ ê°Ģ
ĠëĪĦ êµ°
ĠëĪĦ êµ´
Ġëį°ìĿ´íĬ¸ ê°Ģ
ĠíĮ įíĮį
ĠëĬ¦ ìĿĢ
ĠëĬ¦ ìŀł
ĠëĬ¦ ìĹĪìĸ´ìļĶ
Ġìŀ¡ ìķĦë³´ìĦ¸ìļĶ
ìĺ¨ ëĭ¤
Ġìĭ¬ íķ´ì§ĢëĬĶ
Ġë³´ëĤ´ ìĭľê¸¸
ì²´ ìłģìľ¼ë¡ľ
ĠíĽĦíļĮ íķ´
ĠíĽĦíļĮ íķłê¹Į
ĠíĽĦíļĮ íķĺê¸°
íķ´ì£¼ ì§Ģ
ĠìĹ¬íĸī ìĿ´ëĦ¤ìļĶ
Ġíķĺë£¨ íķĺë£¨
íŀĺëĵ¤ ê²łìĸ´ìļĶ
Ġì±Ļ ê¸°ìĦ¸ìļĶ
ĠëĲĺëĬĶ ê±°
Ġìĸ´ëĶĶ ëĵł
Ġìĸ´ëĸ¡ íķ¨
Ġìĸ´ëĸ¡ íķĺì£ł
Ġê²°ìłķ íĸĪëĤĺë´ĲìļĶ
Ġê³µë¶Ģ íķ´ìķ¼ì§Ģ
ì±ħ ìŀĦ
Ġìĥ ¤ìĽĮ
Ġì·¨ ìĹħ
Ġì·¨ ë¯¸ë
Ġê¼ °ëĮĢ
ë³Ģ íķĺëĬĶ
ĠìĿ´ë Ł¬ëĬĶ
ĠìķĦíĶĦ ê³ł
ĠìķĦíĶĦ ê²Į
Ġìĸ´ëł¤ ìļ¸
ëģĿ ìĿĢ
ëģĿ ëĤ¼
ëĶ ¸ê¸°
Ġìŀħ ìĿĦ
Ġìŀħ ìľ¼ìĦ¸ìļĶ
ëł¸ ëĤĺë´ĲìļĶ
Ġì¹´íĨ¡ ìĿĦ
Ġì¹´íĨ¡ ìľ¼ë¡ľ
Ġë¬¼ìĸ´ ë³´ê³ł
Ġìĸ¸ìłľ ëĵł
íĤ¤ ê°Ģ
Ġíĺ¼ìŀĲ ìĿ¸
ëľ ¨
ĠìĦ¤ ëªħ
ĠìĦ¤ ëĵĿ
ĠìĿĺ ìĤ¬
ĠìĿĺ ìĻ¸ë¡ľ
ĠìĿĺ ê²¬
ĠìĿĺ ìĭ¬íķ´
ì°© ê°ģ
ì¶ķ ìĿĺê¸Ī
Ġê·¸ëħĢ ìĹĲê²Į
ê´ľì°® ìĿĦ
ĠìĥĿê²¼ ìĸ´ìļĶ
ĠìĥĿê²¼ ìĿĦì§ĢëıĦ
ëĤ¨ìŀĲì¹ľêµ¬ ìĹĲê²Į
ĠìĽĲ ìĿ¸ìĿ´ì£ł
ĠìĽĲ ëıĻëł¥ìĿ´
Ġìĭ¸ ìĽłìĸ´
ĠìĪľ ìĪĺ
ê·¸ëŁ´ ë§Į
ĠìĤ¬ìĿ´ ë¡ľ
ë¨¸ë¦¬ ì¹´ëĿ½
ëĲĺ ê¸¸
ëĲĺ ìĸ´ìķ¼
Ġíķ¨ê»ĺ íķĺê³ł
ê¼ Ī
ìķĮ ê³ł
ìķĮ ëĭ¤ê°ĢëıĦ
ìĹ¬íĸī ìĿ´
ìĹ¬íĸī ìĿĢ
Ġê·¸ë§Į ëĳ¬
ĠíĺĦ íĥĢ
Ġìķ½ ìĿ´
íķĺë£¨ ìĹĲ
Ġëĭ¬ëĿ¼ ìļĶ
Ġëĭ¬ëĿ¼ ìł¸ìļĶ
ĠìĻĢ ëĭ¿
Ġìŀĺëª» ìĿĦ
Ġìŀĺëª» ìŀħëĭĪëĭ¤
Ġì±Ļê²¨ ì£¼ë©´
Ġì±Ļê²¨ ëĵľìĭľ
íķ´ì§Ģ ê¸°
íķ´ì§Ģ ëĦ¤
íķ´ì§Ģ ê¸¸
Ġì¶Ķì²ľ íķ´
ê³µë¶Ģ íķĺë©´
Ġë¹ł ì§Ģë©´
Ġëħ¸ëł¥ íķĺê²łìĬµëĭĪëĭ¤
Ġì¦Ĳ ê²¨
Ġì¦Ĳ ê¸°ëĬĶ
Ġëįľ ìĸ´ë³´ìĦ¸ìļĶ
Ġë§ī íŀĪëĬĶ
Ġë§ī íŀĮëĭ¤
ë¦° ëĮĢë¡ľ
ëĳ Ķ
Ġë°ľ ê²¬
Ġëĭ¤ë¥´ ì§Ģ
Ġëĭ¤ë¥´ ê²Į
ìļ´ëıĻ íķł
ëª» ì°¸ê³ł
Ġë¨¹ìĸ´ ìķ¼
ìĹ¬ì¹ľ ìĿ´ëŀĳ
ĠìĦ¸ ìĸ´
ĠìĦ¸ ìĽĮë³´ìĦ¸ìļĶ
ĠëĲľ ëĭ¤ê³ł
Ġê³¼ ê±°
Ġë§ĮëĤĺëĬĶ ëį°
Ġìī½ì§Ģ ê°Ģ
ĠëĦĺ ìĹĪëĬĶëį°
ĠëĦĺ ìĸ´ê°ĢëĦ¤
Ġìŀ¬ë¯¸ ìŀĪìĸ´
Ġëĭ¨ íĨ¡
Ġëĭ¨ ëĳĺìĿ´
ì²« ìĿ¸
ĠëĤĺê°Ģ ë©´
Ġê¸¸ ê²Į
ĠìĿ¼ìĸ´ ëĤ¬
ĠìĿ¼ìĸ´ ëĤĺë©´
ê±´ê°ķ ìĿ´
ê±´ê°ķ ìĿĦ
íĸīë³µ íķł
ĠíĻķìĿ¸ íķĺëĬĶ
ë¬ µ
ìķĪë ĲĲ
ì£¼ë ¬¼
ì£¼ë ¦Ħ
ì£¼ë Łī
íĸ¥ ìĿĦ
ëľ» ëĮĢë¡ľ
ĠìĹ¬ìŀĲì¹ľêµ¬ ìĿĺ
ĠìĹ¬ìŀĲì¹ľêµ¬ ìĹĲê²Į
íıī ê°Ģ
ì²ĺìĿĮ ìĹĲ
ê½ĥ ê¸¸ë§Į
ìŀħ ìĹĲ
íĻĶìŀ¥ íĴĪ
íĬ¸ë ¡¤
ĠìŀĬìĸ´ ê°ĢëĬĶ
Ġëĸ¨ìĸ´ ì§ĢëĬĶ
ë°ĺ ìŀ¥
ìĥģëĮĢë°© ìĿĺ
ĠìĤ¬ëŀĳíķĺëĬĶ ì§ĢëĬĶ
ëª© ìĿ´
Ġìĺ¤ëĬĺ ìĿ´ìĹĲìļĶ
ë¶Ī íĸī
ĠìĹ°ìĬµ íķ´ë³´ìĦ¸ìļĶ
Ġì§Ģê¸Ī ëıĦ
Ġíĺ¸ ì¹Ń
ĠìĽĥ ìĸ´
ĠìĽĥ ìĿĮ
Ġêµ¬ ìĽĮ
Ġë¬¸ìłľ ëĬĶ
Ġë¬¸ìłľ ì£ł
Ġë¬¸ìłľ ëĦ¤ìļĶ
ìī¬ ê³ł
ĠëĶ ¸
ĠëĶ ¸ê¸°
Ġê°ĸ ê²Į
Ġì¢ĭìķĦíķł ê±°ìĺĪìļĶ
Ġë§ĮëĤ¨ ê³¼
Ġë§ĮëĤ¨ ìĿ´ëĦ¤ìļĶ
ĠëģĬ ê²¼ìĸ´
ĠëĲĺìĹĪ ìĿĦ
ĠëĲĺìĹĪ ê¸¸
Ġê·¸ëłĩ ê²łì£ł
ì»¤íĶ¼ ê°Ģ
ì»¤íĶ¼ ëĬĶ
ì´ ĪëĮĢ
ĠìĿ¼ë °ĺ
Ġë§Īìĭľ ì§Ģ
Ġì»¤ ìĦľ
Ġë§Ŀ íķ¨
Ġë§Ŀ ìĦ¤
Ġë§Ŀ ê°Ģëľ¨ë¦¬
Ġì§ģ ìłĦ
Ġì§ģ ìĹħ
Ġì¹ĺ ìĽĮ
Ġëª¨ìĬµ ëıĦ
ĠìĬ¤íĬ¸ëłĪìĬ¤ ìķ¼
ĠìĬ¤íĬ¸ëłĪìĬ¤ ìĿĺ
ìĹĦë§Ī ìķĦë¹ł
ĥĲ ê³ł
Ĳĺ ê³ł
Ġê°ĳ ëĭĪëĭ¤
Ġíı¬ ê¸°ê°Ģ
ê³łë°± íķĺê³ł
ĠíĤ¤ ìļ¸
ĠìĿ´ìĸ´ ì§Ī
ĠìĿ´ìĸ´ ë³´ê³ł
ĠìĿ´ìĸ´ ì£¼ëĬĶ
ĠìĿ´ìĸ´ ëĤĺê°ĢëĬĶ
ĠìķĦëĬĶ ê±°
Ġë¯¸ëł¨ ìĿĢ
Ġë¯¸ëł¨ ëıĦ
ĠíĿĲ ë¥¸
ĠíĿĲ ë¥´ëĬĶ
Ġê¸°ëĭ¤ëł¤ ëıĦ
Ġëĭ¤ê°Ģê°Ģ ìĦ¸ìļĶ
ëĦ ·
ëĦ Ĳ
ìĿ¸ìĥĿ ìĿĦ
ĠíķĻ ìĽĲìĿĦ
Ġë°ĽìķĦëĵ¤ìĿ´ ê¸°
ĠìĺĪìĿĺ ìĿ¼
ìķŀ ë¨¸ë¦¬ë
ĠëĤľ ë°©
Ġê·¹ë³µ íķ´ë³´ìĦ¸ìļĶ
Ġì°į ìĸ´
Ġì°į ëĬĶ
Ġë°Ķê¿ ¨
ĠìŀĬíĺĢ ì§Ģì§Ģ
ë§İìĿĢ ê±¸
ì³¤ ëĤĺë´ĲìļĶ
ì» ¥
ì» ·
ê¸Ģ ìĿĦ
ê¸Ģ ìİ
ê·¹ íŀĪ
Ġë§Īì£¼ ì¹ĺë©´
ë§Īì§Ģë§ī ìľ¼ë¡ľ
Ġë¬´ìĭľ íķ´
ëĥĪ ëĬĶëį°
ìµľ ìĭł
ìµľ ìłĢ
Ġì¢ħ ì§Ģ
íķ¸ëĵľíı° ìĿ´
ĠìĹ°ëĿ½íķ´ ë³´ëĬĶ
Ġëª¨ëĳĲ ìĹĲê²Į
ĠíĶĦ ëĿ¼ìĿ´ë²Ħìĭľ
Ġìļ´ëıĻ íķ´ë³´ìĦ¸ìļĶ
Ġìļ´ëıĻ íķĺìĦ¸ìļĶ
ĠíļĮ ë³µ
ìķĦì¹¨ ë¶ĢíĦ°
ĠíĦ ¸
ĠíĦ ¸ìĸ´
ĠìŀĲì²´ ë§Įìľ¼ë¡ľ
íĹ¤ìĸ´ì§Ģ ê¸°
íĹ¤ìĸ´ì§Ģ ë©´
ìĨĮê°ľíĮħ íķĺê³ł
ìĨĮê°ľíĮħ ìľ¼ë¡ľ
ĠíĸīëıĻ ìĿĢ
íĺĦìĭ¤ ìĿĦ
Ġëĭ¤ëħĢ ëıĦ
Ġëĭ¤ëħĢ ìĻĶìĸ´
Ġëĭ¤ëħĢ ìĺ¤ìĦ¸ìļĶ
ìļķ ìĭ¬
ìĹŃ ìĿ´
ê°Ģì¡± ìĿ´
ê°Ģì¡± ëĵ¤
ê°Ģì¡± ëĵ¤ìĿ´ëŀĳ
Ġê°ľ ìĿ¸
Ġìłĳ ëĬĶê²Į
Ġìłĳ ìĸ´ìķ¼
ĠëĤĺìĺ¤ ëĦ¤
ë¨¸ë¦ ¬ëĬĶ
ìĸ¸ìłľ ê¹Įì§Ģ
ĠìĮ ©ìĸ¼
ìĿ´ìĥģ ìłģìĿ¸
Ġìļķ íķĺê³ł
ĠíķĦìļĶíķ´ ë³´ìĹ¬ìļĶ
Ġìī¬ìĸ´ ìķ¼
Ġìµľê³ł ìĿĺ
íĻĺìĬ¹ ìĿ´ë³Ħ
Ġìŀĳ ìķĦ
Ġìŀĳ ëıĻ
ë¦¼ ìĿĦ
ĠíĹ¤ìĸ´ì§Ĳ ìĿĦ
ĠëıĦìĻĢ ëĭ¬ëĿ¼ê³ł
Ġë¶Ģë¶Ħ ìĿĦ
Ġìŀ¬ë°Į ìĿĦ
Ġìŀ¬ë°Į ëĭ¤
ìĸ´ë¨¸ ìĸ´ë¨¸
ì¹ĺë §¤
Ġë°¥ ìĿĦ
ìĭłê²½ìĵ° ìĿ´
ìĭłê²½ìĵ° ëĬĶ
ĠìķĪíķ´ ë¨¹ê³ł
ìĿ´ë³ĦìĿ´ ëŀĢ
ĠìĥģëĮĢ ìĹĲê²Į
ë°ĶëŀĮ ìĿ´ëĿ¼ëıĦ
Ġì²« ìĤ¬ëŀĳìĿ´
ë©Ķ ëī´
ĠìķŀìĹĲ ìĦł
ëĺĳ ëĺĳ
ê¸°ë§Į íķ´ëıĦ
ê¸°ìĸµ ìĹĲìĦľ
Ġì§Īë ł¤
Ġì§Īë Ł¬ë³´ìĦ¸ìļĶ
ìĻ¸ë¡ľ ìļ´
ìĻ¸ë¡ľ ìĽĮ
ë¶Ģëĭ´ ìĬ¤ëŁ¬ìĽĮ
ìĦ±ê³µ ìłģìľ¼ë¡ľ
Ġë¶Ģì¡± íķ´
Ġíĸīë³µíķ´ ë³´ìĹ¬
ĠíĶ¼ê³¤ íķľê°Ģë´ĲìļĶ
Ġë¶Ļìŀ¡ ìķĦ
ìķĪëħķ íŀĪ
ê¶ģê¸Ī íķ´
ê¶ģê¸Ī íķł
ĠìĶ ¹
ĠìĿĮ ìĭĿ
Ġìĸ´ëłµ ëĭ¤
Ġìĸ´ëłµ ì£ł
Ġìĭľì¼ľ ëĭ¬ëĿ¼ê³ł
ëħ¸ëł¥ íķĺê³ł
ëħ¸ëł¥ íķĺê²łìĬµëĭĪëĭ¤
íĹ¤ìĸ´ì§Ĳ ìĿĢ
ĠìĨĶì§ģ íķľ
ë¨¼ ì§Ģ
ĠëĨĴ ê²łëĦ¤ìļĶ
íķ¨ê»ĺ íķľ
ì¶Ķìĸµ ìĹĲ
ì¶Ķìĸµ ìľ¼ë¡ľ
íĻķìĭ¤ íķ´ì§Ģë©´
ëĶ°ëľ» íķ´ì¡Į
Ġì¡´ì¤ĳ íķĺê³ł
Ġì¡´ì¤ĳ íķ´ì£¼ìĦ¸ìļĶ
Ġëĺĳ ê°ĻìĿĢ
Ġëĺĳ ëĺĳ
Ġëĺĳ ê°Ļìķł
íķľë²Ī ë§Į
ìŀĲìĹ° ìĬ¤ëŁ½ê²Į
ĠìĿĳìĽĲ íķ´
ĠìĿĳìĽĲ íķłê²ĮìļĶ
ĠìĿµìĪĻ íķ´ì§Ī
ĠëĤĺìģľ ê±°ìĺĪìļĶ
ë²ł íĦ°ë¦¬
ë²ł íĬ¸ëĤ¨
Ġíķĺëĭ¤ ëĭĪ
Ġíķĺëĭ¤ ë³´ë©´
Ġíķĺëĭ¤ ë³´ëĭĪ
Ġìļ¸ ìłģ
Ġíķĺìħ¨ êµ°ìļĶ
Ġëį°ëł¤ ê°ĢìĦ¸ìļĶ
ìľĦë¡ľ ê°Ģ
ëĵ £
ì§Īë ķĮ
ì§Īë »Ķ
íķ´ì¡Į ìĸ´ìļĶ
íķĺëĤĺë Ŀ¼ëıĦ
ĠìĹ´ ìĸ´
ê·¸ë¦¬ ìĽĮ
ê·¸ë¦¬ ìĽĢ
ìĬµê´Ģ ìĿ´ìĹĲìļĶ
ìĬµê´Ģ ì²ĺëŁ¼
Ġíĸ¥ ìĪĺ
ĠìĨĮì¤ĳ íķ©ëĭĪëĭ¤
íŀĺëĤ´ ì§Ģ
Ġìŀ¬íļĮ ëĬĶ
íķ´ì¤ ¬ìľ¼ë©´
Ġíķ´ê²° ëĲĺê¸¸
ìĭłê²½ ìĿĦ
Ġìłķìĭł ê±´ê°ķìĹĲ
ë¡Ń ê²Į
ĠìĦ±ê³µ íķľ
ĠìĦ±ê³µ íķł
ĠìĦ±ê³µ íķĺê³ł
Ġìĭ¤ìĪĺ íķĺì§Ģ
ĠìĺĪë¯¼ íķ´
ĠìĺĪë¯¼ íķľê°Ģë´ĲìļĶ
Ġìķ½ìĨį ìĿĦ
Ġë´¤ ëĦ¤
ì´Ī ì½ľë¦¿
ĠìĮĵ ìĹ¬
êº¼ ìķ¼
Ġì§§ ì£ł
Ġëª¸ ìĹĲëĬĶ
ì£¼ë§Ĳ ìĿ´
ì£¼ë³Ģ ìĹĲìĦľ
Ġë§ĮëĤľ ëĭ¤ë©´
Ġëª¨ëĵł ê²Į
Ġëħ¸ëŀĺë ĬĶ
Ġë©Ī ì¶°
ĠìĬ¤íĥĢ ìĿ¼ìĿ´
Ġêµ¬ë ³Ħ
ĠìĤŃìłľ íķ´ë³´ìĦ¸ìļĶ
ĠìĤŃìłľ íķĺëĬĶê²Į
Ġë§ĽìŀĪ ìĸ´
Ġë§ĽìŀĪ ëĭ¤
ĠíĦ° ì§Ģ
ĠíĦ° ì§Ī
ê¹¨ ëĭ¬
ê¸°ëĮĢ ë¥¼
Ġë³¸ ìĿ¸
Ġë³¸ ìĿ¸ìĿĺ
ĠìĥĿê°ģíķł ê²ĮìļĶ
ëªĩ ìĿ¼
ê°ĢëĬ¥ íķĺë©´
ìķĪê²½ íħĮ
ĠëģĿëĤ¬ ìĬµëĭĪëĭ¤
Ġê´ľì°®ìĿĦ ê±°
Ġì§ĳì¤ĳ ìĿ´
ìŀ¬ë¯¸ ìŀĪê²Į
ìŀ¬ë¯¸ ìŀĪëĤĺë´ĲìļĶ
ĠíĨ¡ ìĿ´
ìĸ¼êµ´ ìĿ´
ĠëĤĺëĪł ë³´ëĬĶê²Į
íĳľíĺĦ ìĿ¼
ĠìĥĿê¸´ ëĭ¤ëĬĶ
Ġì¤Ģ ëĭ¤ë©´
Ġì¹ĺë §¥
ìį¸íĥĢ ê³ł
ĠëĮĢíĻĶ íķĺëĬĶ
Ġë¶Ģíĥģ ëĵľë¦½ëĭĪëĭ¤
Ġë³ĢíĻĶ ëıĦ
Ġë³ĢíĻĶ ìĭľì¼ľ
Ġë¶Īíİ¸ íķĺê²łì£ł
Ġë¶Ģëĭ´ìĬ¤ëŁ¬ìĽĮ íķłê¹Į
Ġì¼ ĢìĿ´ìĬ¤
ĠëĴ ¹êµ´
íķľê°Ģ ì§Ģë§Į
ĠìĿ´ê¸° ëĭĪ
Ġìĸ´íĶĮ ìĿĦ
Ġë¬´ëĦĪ ìł¸ìļĶ
ê´Ģê³Ħ ìĿĺ
Ġìĺ¤ë¹ł ê°Ģ
Ġë¯¸ìĽĮ íķĺì§Ģ
ë´ĩ ìĿ´ìĹĲìļĶ
ĠìĦ¤ëł ĺ
ĠìĦ¤ëł Īë
ì¢ħêµĲ ê°Ģ
ì¢ħêµĲ ìĿĺ
¦° ëĿ¼
ëĴ¤ íĨµìĪĺ
Ġê½ ī
ìķĦíĶĦ ì§Ģ
ìĭ± ìĪŃìĥĿìĪŃ
ëĿ¼ë įĶëĭĪ
Ġë°¤ ìĹĲ
Ġë°Ģ ëł¤
Ġë°Ģ ìĸ´ë³´ìĦ¸ìļĶ
Ġì§Ģë £¨íķ´
ĠìĹĨìķł ì£¼ìĦ¸ìļĶ
ê±°ìļ¸ ìĿĦ
ë¶Īë Ł¬
ë¶Īë ©´ì¦Ŀ
ë¶Īë °ĸìĿĢ
Ġê±· ê³ł
Ġê±· ê¸¸
Ġê¸°ë³¸ ìĿ´ì£ł
ĠìĻ¸ ì¶ľ
Ġë²ł íĴĢ
Ġë¬´ìĦŃ ëĤĺìļĶ
íĽĦëł¨ íķĺëĭĪ
ë°Ķìģľ ê°Ģë´ĲìļĶ
ë°Ķìģľ ìĿ¼ìĿ´
Ġëħ¸ ëĬĶ
Ġëħ¸ íĽĦ
ìŀ¬ë°Į ê²łìĸ´ìļĶ
ê·¸ëłĩ ì§Ģ
Ġë¬¼ìĸ´ë´Ĳ ëıĦ
ëķ ħ
ëĭĪë ŀĳ
ìĸ´ì© Į
ìķĦìĿ´ ëıĮ
ìķĦìĿ´ ìĬ¤íģ¬ë¦¼
ìķĦíĶĶ ìĿĦ
Ġíĳľ ìłķ
ë³ĳìĽĲ ê°ĢìĦ¸ìļĶ
íķĺìħ¨ ìĸ´ìļĶ
íķĺìħ¨ ê²łìĸ´ìļĶ
Ġê²ł ì§Ģë§Į
ë§ĮëĤ¨ ìĹĲ
íĶ¼ê³¤ íĸĪëĤĺë´ĲìļĶ
ë²ĦìĬ¤ ê°Ģ
ĠìľĦë¡ľíķ´ ëĵľë¦¬ëĬĶ
íĶ¼ë¶Ģ ê´Ģë¦¬
ìĿĺë¯¸ ìŀĪëĬĶ
ìĿ´íķ´ íķł
ê³¨ íĶĦ
ê¹į ì§Ģê°Ģ
ê¸°ê°Ħ ìĿĦ
Ġë³Ģë ªħ
ĠìķĬìķĺ ê¸¸
ĠìŀĲìľł ë¡ľ
Ġëıħ ìĿ´
Ġì¹Ńì°¬ íķ´ì£¼ê³ł
ë¬´ìĹĩ ìĿ´ëĵł
Ġê²°ê³¼ ê°Ģ
ĠëĮĢëĭ¨ íķĺëĦ¤ìļĶ
ĠëĮĢëĭ¨ íķĺìĭľêµ°ìļĶ
ì¡°ìĭ¬ íŀĪ
Ġì²ĺë ¦¬
ìĦłë¬¼ ìĿĦ
Ġêµ° ëĮĢ
ì·¨ì§ģ íķĺë©´
Ġê²°ìłķìĿ´ìĹĪìĿĦ ê±°ëĿ¼
ĠíĭĢ ë¦¬ëĬĶ
ĠíĭĢ ë¦°
Ġê²¬ëİĮ ëĤ´ê³ł
ìį¸ëħĢ ê°Ģ
ìĮ Ī
ìķ¡ ê²°
ê³łë§Ī ìĽĢìĿĦ
Ġê°Īë ķĮ
ëıĦìłĦ íķ´
Ġë³ĳ ìĭł
ê±°ì§ĵë§Ĳ ìĿĢ
Ġìĺ¬ë ł¤ë
ĠëĤĺìĿ´ íħĮ
ĠëĤĺìĻĶ ëĦ¤
ĠëĤĺìĺ¬ ê±°
ì¡¸ìĹħ ìĭĿìĹĲ
Ġì¡°ìłĪ ìĿĦ
Ġê°ĲìĤ¬ íķĺëĬĶ
Ġê°ĲìĤ¬ íķ©ëĭĪëĭ¤
ĠìľĦíĹĺ íķ´
ìķĺëĭ¤ ê³ł
ĠëĦ£ ìĿĦ
Ġë¯¸ì¹ĺ ê²łìĸ´
ë°ĽìķĦ ëĵ¤ìĿ´
ĠëĪĦêµ¬ë ıĦ
Ġë©Ģìĸ´ ì§Ħ
Ġë©Ģìĸ´ ì§Ģë©´
ìĥģì²ĺë°Ľ ì§Ģ
ĠëĿ ĦëĬĶ
ĠëĽ° ìĸ´ëĦ
ĠìĿ´ë¦Ħ ìĿ´
ĠìĿ´ë¦Ħ ìĿ´ëŀĳ
Ġê·¼ ì²ĺë¡ľ
Ġìĸ´ìłľ ìĻĢ
Ġìĭľê¸° ëĦ¤ìļĶ
ĠìŀĺìĥĿ ê²¼
ìĭ¬íĺ¸íĿ¡ íķ´ë³´ìĦ¸ìļĶ
ĠëĤ¨ê²¨ ìĦľ
ĠëĨĶ ëĳ¬
Ġì¶¥ ëĦ¤
Ġê¹İ ìķĦ
íĿ¥ ë¯¸ë¥¼
ĠíĮĲëĭ¨ ëĲĺë©´
ìĸ¼ë§Ī ëĤĺ
Ġë©Īì¶Ķ ì§Ģ
Ġë©Īì¶Ķ ìĦ¸ìļĶ
Ġë°ĽìķĦëĵ¤ìĹ¬ ìķ¼
ëĦĪë įľ
Ġì» ¨
ì§ĢëĤĺ ê°Ħ
ĠíĽ Ī
Ġë§¡ ê¸°ìĦ¸ìļĶ
Ġê²¨ ìļ¸
ĠìķĦê»´ ëĴĢ
ë©´ëıĦ ê¸°
Ġëª¨ìķĦ ìķ¼íķł
Ġì¶© ê²©
Ġì¡°ê¸ī íķ´ì§Ģë©´
Ġëĭ¹íĻ© íĸĪê²łìĸ´ìļĶ
Ġë¹Ħë°Ģ ìĿĦ
ëĨĢìĿ´ ëıĻìĤ°
Ġë¯¸ìķĪ íķĺëĭ¤
Ġë¹łë¥´ ë©´
ĠìĬ¬íį¼ íķĺê³ł
ëĦĺ ìĸ´
ì¹Ńì°¬ ìĿ´ëĦ¤ìļĶ
ĠíĪ¬ ìŀĲ
ĠìĽĢì§ģ ìĿ´ìĦ¸ìļĶ
ëĬ¦ ìĿĢ
Ġë§¤ë ĦĪ
ê¸įìłķ ìłģìĿ¸
ĠìĥĿê²¨ ìĦľ
ìĭłê³ł íķĺìĦ¸ìļĶ
ìĤ¬ëŀĳíķł ìĪĺë¡Ŀ
ĠìĦ¼ ìĬ¤ìŀĪëĬĶ
ëĮĢíĻĶ ìĿĺ
Ġì£Ħ ê°Ģ
ìķĪíĥĢê¹Ŀ ê²Į
Ġíĺ¸ë ŀĳìĿ´ë³´ëĭ¤
Ġìĺ¤ëŀ «ëıĻìķĪ
ĠíĿ¬ë§Ŀ ìĿĢ
Ġë³´ê³łìĭ¶ ëĦ¤
ĠìķĮìķĦì°¨ ë¦¬ì§Ģ
ĠìķĮìķĦì°¨ ëł¤ëıĦ
ë¡± ëĶĶ
ĠíĶ¼íķ´ ë§Į
Ġê°ĦìłĪ íķĺê²łëĦ¤ìļĶ
ì·¨ë¯¸ ìĥĿíĻľ
Ġë§ĮëĤ¬ë ĵł
ĠìĿ¼ìĸ´ëĤĺ ìĦ¸ìļĶ
Ġì¢ħêµĲ ê°Ģ
ìłĲìĭ¬ìĭľê°Ħ ìĹĲ
ë¿Į ë¦°ëĮĢë¡ľ
Ġë¡ľ ë´ĩìĿ´ìĹĲìļĶ
Ġë¦¬ íı¼
ĺë§Į ìĿĺ
ê²¬ë ĶĶ
Ġíľ ĺë
ìĺĨ ìĹĲ
ìĺ¬ëł¤ ëĭ¬ëĿ¼ê³ł
ë³´íĹĺ ì²ĺë¦¬
Ġë°± ìĹħ
ìķ¼ê²½ ìĿ´
Ġëĭ® ìĿĢ
ĠìłĢëħģ ìĹĲ
ìĿ¸ëĤ´ íķł
Ġê°Ģì¡± ìĿ´
ìĻķ ìĿ´ë©´
ĠëĤ¨ìķĺë Ħ¤ìļĶ
ìĬ¤íĬ¸ëłĪì¹Ń ìĿĦ
Ġì¡¸ìĹħ íķĺëĬĶëį°
ĠìľĦíķ´ìĦľ ìĺĪìļĶ
êµĲìĸĳ ìĪĺìĹħ
íĤģ íĤģ
ĠëĨĢìķĦ ì¤ĺ
ëĨį êµ¬
ìŀĬìĸ´ ë²Ħë¦¬ìĦ¸ìļĶ
Ġíķ¨ê» ĺëıĦ
ë´ī ìĤ¬íĻľëıĻ
Ġì¹ĺê³¼ ìĹĲ
Ġì¹ĺë£Į íķĺìĦ¸ìļĶ
ìĦ¼íĦ° ìĹĲ
íĶĦë¡ľíı¬ì¦Ī íķ´ë³´ìĦ¸ìļĶ
ëĴ· ê°Ĳëĭ¹
ê¼¬ë°ķ ê¼¬ë°ķ
Ġì« Į
Ġë©´ ìĹŃìĿ´
Ġë¸Į ëŀľ
Ġì¢ĭìľ¼ìĭľ ëĦ¤ìļĶ
Ġìĭ¬ìĸ´ ë³¼ê¹Į
Ġì§ł íķĺê³ł
Ģëĵľ ëł¤ë³´ìĦ¸ìļĶ
Ġë§Īìħ¨ ëĬĶëį°
Ġê¸°ì¤Ģ ìĿ´
ë¬´ìĭľ íķĺìĦ¸ìļĶ
ĠíķĺëĭĪ ê¹ĮìļĶ
ëĭ¹ìĹ° íķĺì£ł
ìĶ» ê³ł
Ġìī½ ì§Ħ
ĠëĪĪë ĨĴ
ë°Ķë¹ł ëıĦ
Ġìĺ¤ì§Ģ ëŀ
ëĳĲê·¼ ê±°ë¦¬ê²łìĸ´ìļĶ
ìĤ´ìķĦ ìŀĪìĿĮ
ë¯¸ì¹ĺ ê²łìĬµëĭĪëĭ¤
Ġë²Ħíĭ° ê³ł
Ġìļ°ìĤ° ìĹĲ
ìĤ¶ ìĿĺ
Ġë¶ĦìľĦ ê¸°ë¥¼
Ġìŀ¡ìķĦ ëıĦ
Ġê¹¨ëĭ« ëĭ¤ëĭĪ
ĠíĿĺëł¤ ë³´ìĦ¸ìļĶ
Ġìļ©ìĦľ íķĺê³ł
ê¹¨ëģĹ íķĺê²Į
ĠëĴ· ëĭ´íĻĶ
ëĤŃë§Į ìłģìĿ¸
ĠëĳĲê·¼ê±° ë¦¼ìĿĦ
ł¸ ëĤĺë´ĲìļĶ
Ġëļ «
íķ´ìĻ¸ ìĹ¬íĸī
ĠìĹ¼ ìĥī
ë³´ìĿ¼ëŁ¬ ê°Ģ
ĠëĤ³ ìĿĦë¿Ĳ
ìĬĪ íį¼
ĠìķĦìĿ´ ëıĮ
Ġì¢ĭìķĦíķĺìĭľ ëĬĶêµ¬ëĤĺ
ë²Ĺìĸ´ ëĤĺëĬĶ
ìĤ¬ê³¼ íķł
Ġìĸ´ëĸł ìĦ¸ìļĶ
ìĬ¤íĦ° ëĶĶ
ë¯¸ëŀĺ ìĹĲ
ëıĻê°Ĳ ìŀħëĭĪëĭ¤
ĠìķĪë°Ľ ìķĦ
ĠëĦĵ ìľ¼ìĭłê°Ģë´ĲìļĶ
íĻķìĿ¸ íķ´ëĭ¬ëĿ¼ê³ł
Ġê¼¼ ìĪĺë¥¼
ìķĮëľ° íı°
ì´Īë ¡Ŀ
ë©Ķëª¨ íķĺëĬĶ
ìĿĺë¯¸ë¶Ģ ìĹ¬
ìĬ¤íĥĢíĬ¸ìĹħ ìĹĲ
Ġì´Īê¸° íĻĶ
ì¸µ ê°ĦìĨĮìĿĮ
ĠìłĪìķ½ ëĲĺê²łëĦ¤ìļĶ
Ġë¶ĢëĶªíĺĶ ëĤĺë´ĲìļĶ
ĠìĹĲëĦĪ ì§Ģë¥¼
ëĺ¥ ì°¨
Ġìŀłìŀ¬ëł¥ ìĿĦ
įĺë į°
ìļ¸ëł Ľ
ìŀĩëª¸ ìķ½
ìłĪë ı¼ìĦľ
Ġë³ĳìĽĲ ìĹĲ
ĠìķĦìī¬ ìĽĢìĿ´
ĠìķĦë¦Ħëĭµ ì£ł
Ġë³´ëĥ ĪëĦ¤
ĠìĻķ ëĶ°
ìĬ¤íħĮ ìĿ´íģ¬
Ġëĵ¤ìĿ´ ëĮĢ
Ġëĵ¤ë¦¬ë ł¤ê³ł
Ġë¹Ħíķĺ íķĺì§ĢëĬĶ
ìĥĿê°ģíķľ ëĮĢë¡ľ
íİ¸ìĿĺ ìłĲ
íĥĲ íķĺì§Ģ
ë¯¸ìļ© ìĭ¤
ëĨĢëŀĲ ëĤĺë´ĲìļĶ
íĿ¬ë§Ŀ ìĿ´
ìĺģìĽĲ íķľ
ĠíĮ¨ íĦ´
ĠìĥĪë²½ ìĹĲ
ìĹĦë§Īë ŀĳ
Ġìļ©ê¸°ëĤ´ ìĦľ
Ġê¾¹ ê¾¹
Ġìĥģê´ĢìĹĨ ì§Ģë§Į
Ġíı¬ìŀ¥ íķĺëĬĶê²Į
Ġëª©íĳľ ëĦ¤ìļĶ
ĠíĹ·ê°Īë¦¬ë Ħ¤
Ġì½© ê¹įì§Ģê°Ģ
ĠìłģìĿĳíķ´ìķ¼ ê²łëĦ¤ìļĶ
ì½©ê¹į ì§Ģ
ì»´íĵ¨ íĦ°ê°Ģ
ĠìķĦíĮł ìľ¼ë©´
AS ìĦ¼íĦ°ìĹĲ
¢Į ìłĪ
ë»ĳ íķ´
Įëĵľ ìľĦì¹ĺ
Ġë¦¬ë ĵľ
Ġë»ĳ ë»ĳíķ´
ìĿ´ëł¥ ìĦľ
ì§ĢìłĢë¶Ħ íķ´ìļĶ
ëĭ¤ëĭĪë ©´ìĦľ
íķľë¦¬ íķĦ
íķľë² ĪëįĶ
íķľêµŃ ëıĦ
íķľë°ĶíĢ ´ë§Į
ë§ĮíĻĶ ê°ĻìĿĢ
ìĿ¸íĦ° ëĦ·
ìĿ¸ë§¥ ìĿ´
ê°ģì§Ī ìłľ
Ġë§ĪìĬ¤ íģ¬
ìłķìłķ ê¸°ê°ĦìĿĦ
Ġë³´ëĵ ¬ìĸ´
Ġë§ĲìĶ Ģëĵľëł¤ë³´ìĦ¸ìļĶ
ëĤ´ëł¤ëĨ ĵ
Ġê¸įìłķ ìłģìĿ¸
ĠìĹ¬ìŃ ¤ë³´ìĦ¸ìļĶ
ìŀ¥íķĻ ê¸Ī
Ġë²ħì°° íħĲëĮĢìļĶ
ĠìĤ´ìª ĦëıĦ
íı¬ë§ ·íķ´ë³´ìĦ¸ìļĶ
ĠëĮĢíĶ¼ë °©ë²ķìĿĦ
ĠìĿ¸ê³µì§ĢëĬ¥ ìĹĲ
ëĭ¨ë§Ľ ëıĦ
ëĭ¨ì²´ ìĥĿíĻľ
ìĹ°ëĿ½ëĳĲ ìłĪëı¼ìĦľ
Ġíķ´ìķ¼ê²łëĦ¤ ìĹ¬
ĠìłĢë§Īëĭ¤ ìĿĺ
íĺķíİ¸ë ĮĢë¡ľ
ĠëıĻìĺģ ìĥģ
Ġì·¨ë¯¸ë Ħ¤ìļĶ
Ġì±Ļê²¨ëĵľìĭľ ê±°ëĤĺ
Ġë§ĿìĦ¤ ìĹ¬
Ġë§Ŀê°Ģëľ¨ë¦¬ ê¸°
ê¸Ģìİ ĦìļĶ
ë©Ķëī´ ìĸ¼
ëĶ°ëľ»íķ´ì¡Į ì£ł
Ġë²łíĴĢ ê³ł
ĠëĨĶëĳ¬ ìķ¼íķĺëĬĶëį°
ĠìķĦê»´ëĴĢ ëĤĺë´ĲìļĶ
ĠëĪĪëĨĴ ìĿ´ê°Ģ
ĠëĤ³ìĿĦë¿Ĳ ìĿ´ìĹĲìļĶ
; ;
¡ ë³
¤ ì¸ł
¥ ëĭ¤
« íķľ
« ìŀĲ
¬ ëĭ¤
° ±
± ìĿ´
³ ĳ
³ ìĿ´
¶ ìĿ´
¶ Ģë
¹ ´
¹ Ī
¹ Ľ
» ´
¿ ë¹Ľ
ê ½
ê º¼ë
ë ĩ
ë ½Ģ
ì ¢ĮìłĪ
í Ĥ¬
í ĮĢ
Ġ 0
Ġ SNS
ģ ¼ë¦¬
ħ ¸
ħ ìĹ¬
ħ Ģëŀĳ
Ĩ Ī
Ĩ ĵê³ł
ĩ ê°Īë
ī íķĺëĬĶ
ī ìĤ¬íĻľëıĻ
ĭ ëĳĲ
ĭ ì§Ģê¸
ı ħìĹ¬
ĳ ĺë
ĵ ±
Ķ ĺ
ķ ëĬĶ
ķ ëĭĪëĭ¤
ĺ íķ´
ĺ íĥĪ
ľ ìĹĲ
ľ ë¡ľ
ŀ Ĳìĸ´
Ġë ĸ´
Ġë ĴĢ
Ġë ¸Ķ
Ġë Ŀ¼ëĬĶ
ìĿ ¼ë¡ľ
íķ Ń
Ġê º
Ġê »´
ìĿ´ ë¦¬
ìĿ´ ìĭł
ìĿ´ ê²łëĦ¤ìļĶ
ìĿ´ ìĤ¬ëŀĮ
ìĿ´ ì§ĳ
ìĿ´ ìģľ
ìĿ´ ë©´ìĦľ
ìĿ´ ê²łì§ĢìļĶ
ìĿ´ ê¹ĢìĹĲ
ìĿ´ íĶĮëĿ¼
ìĿ´ ë¶Īë°ĸìĿĢ
ĺë ĵ¤
ĺë Ĥĺ
ĺë ĭĪê¹Į
ĺë ©Ķ
ĺë Ħĺ
ìķ ī
ìķ ĺëĬĶ
ì§ ±
ì§ ¼ëį°
ëĭ ·
ìĸ´ ëĤľ
ìĸ´ ì§¸
ìĸ´ ì§Ģê³ł
ìĸ´ ìĥī
ìĸ´ ìĿ´ê°Ģ
ìĸ´ ì£¼ëĬĶ
ìĸ´ ëłµ
ê² Ĳ
ìĹ ¬ëĬĶ
ëĤ ¼ê¹Į
ê³ ±
ì§Ģ ì§Ī
ì§Ģ ê²łì£ł
ì§Ģ ëĭĪê¹ĮìļĶ
ì§Ģ ëĤĺë´Ĳ
ì§Ģ ë¶Ģì§Ģ
ì§Ģ ìĺ¥
ì§Ģ ì³ĲìĦľ
ì§Ģ ì³¤ëĤĺë´ĲìļĶ
¬ë ©´
¬ë ¬¼
¬ë ¯¸
íķ´ ê²°
íķ´ ì¤Ģ
ìŀ ĪëĦ¤
ìŀ ĪëĦ¤ìļĶ
Ġìŀ ħëĭĪëĭ¤
ìķĦ ëĤ´
ìķĦ ëĤł
ìķĦ ìĿ´ê³ł
ìķĦ ìī¬ìļ´
ìķĦ ëĨĶ
ê°Ģ ìĹĲ
ê°Ģ íķľ
ê°Ģ ë³´ëĭ¤
ê°Ģ ê¸°ëıĦ
ê°Ģ ìĤ¬ê°Ģ
ìĦ¸ íĥģ
ëĬĶ ëĭ¤
ëĬĶ ê±´
ëĬĶ ì§ĢëıĦ
ëĬĶ ëĭ¤ëĬĶ
ê³ł ìĿĺ
ê³ł ë§Ļ
ê³ł ìĸĳìĿ´
ê³ł ì¹ĺê¸°
ìł ¸ë
Ġí į
ëĭ¤ ëĦ¤
ëĭ¤ ìłķ
ëĭ¤ ìļ´
ëĭ¤ ëĬĶê²Į
íķĺë įĶëĿ¼ê³łìļĶ
ê¸ ¸ëŀĺ
ìĭ ¬ë¦¬
íķĺ ìĭł
íķĺ ê²łìĸ´
íķĺ ê²łì§Ģë§Į
íķĺ íķĦ
ìĹĲ ìĿ´
Ġê° ģ
¸ë ķĮ
ëıĦ ëĬĶ
ëıĦ ëĿ¼
ëıĦ ìĽĢìĿ´
ĠìĹ ī
ĠìĹ Ĭ
ë³´ ëĵľ
ë³´ ëŁ¬
ë³´ ìĿ´ëĤĺ
ë³´ ëĤ¼
ë³´ ëĥĪ
ë³´ ìħĶìļĶ
ĠìŀĪ ëįĺ
ĠìŀĪ ìĿĮìĿĦ
ĠìŀĪ ëıĦë¡Ŀ
ê¹ Ģë
ê¹ ľë¹¡
íķľ ëĮĢ
íķľ ëĵ¯
íķľ ëĭ¬ë
íķľ ìĹĨìĿ´
Īë į°
Ġì¢ĭ ê²Į
Ġì¢ĭ ëĦ¤
Ġì¢ĭ ëĭ¤ê³ł
Ġì¢ĭ ê¸´
Ġì¢ĭ ìķĺìľ¼ë©´
Ġì¢ĭ ê²łìĬµëĭĪëĭ¤
Ġì¢ĭ ìľ¼ëĭĪ
Ġì¢ĭ ëįĶëĿ¼
ê¹Į ìķĦ
ìŀĲ ë§Į
ìŀĲ ëĬĶëį°
ìŀĲ ìŀ¥
ìŀĲ ëĿ¼ê³ł
ìŀĲ ëĭ¤ê°Ģ
ìŀĲ ë§ĪìŀĲ
ĠëĤ ¸
Ġê±° ìĹĲ
Ġê±° ëıĦ
Ġê±° ë¶Ģ
Ġê±° ëĭĪê¹ĮìļĶ
Ġê±° ìĺĢ
Ġê±° ëĿ¼ëıĦ
Ġê±° ëĳĲìĦ¸ìļĶ
ĠìĿ ĺëıĦ
ê¸° ëĦ¤
ê¸° ìĺĪìļĶ
ê¸° ìļ´
ê¸° ìĤ¬
ê¸° ë¦Ħ
ê¸° ë§Įíģ¼
ê¸° ìĿ¸ê°Ģë´ħëĭĪëĭ¤
ê¸° ìļ´ìĿĦ
ê¸° ëĮĪ
¼ë Ħ¤
¼ë ĵ¤
¼ë ¶Ģ
¼ë ĸ¨
Ġê² ¬
¡ľ ìŀ¡
ìĦľ ìļĶ
ìĦľ ëĬĶ
ìĦľ ìĦľ
ìĦľ ìļ¸
ìĦľ íķĳ
ë¥ µ
ìĺĪ ìĿĺ
ìĺĪ ìłĦ
ìĺĪ ìģĺë
ëĤĺ ì§Ģ
ëĤĺ ìĹĲê²Į
ëĤĺ íĺ¼ìŀĲ
ëĤĺ ìĿ´ëĬĶ
ëĤĺ ìĺ¤ìĦ¸ìļĶ
ëį° ìĿ´
ìķ¼ êµ¬
ìķ¼ ê²łìĸ´
ìķ¼ ê²łì£ł
ìķ¼ ìĭĿ
íķł ìĿ¸
íķł ì¤Ħ
íķł ëŀĺ
ĠìĤ¬ëŀĮ ìĿ¼
ĠìĤ¬ëŀĮ ë§ĮìĿĺ
ĠìĤ¬ëŀĮ ìĿ¼ì§ĢëıĦ
ëł ´
ĠìĪ «ìŀĲ
ĠìĿ´ ìģľ
ĠìĿ´ ë¶Ī
ĠìĿ´ íĭĢ
Ģë Ĳĺ
Ģë ĵľë¦´ê²ĮìļĶ
Ģë įĶëĿ¼
Ġê°Ļ ìľ¼ë©´
Ġê°Ļ ëĭ¤ë©´
Ġë³ ¶
Ġìł ¤
Ġìł ĸìĿĢ
ìĿĮ ìķħ
ë§Į ëĤĺìĦľ
Ġíķ´ ê°Ģ
Ġíķ´ ë³´
Ġíķ´ ëĭ¬ëĿ¼ê³ł
Ġíķ´ ëĤ´ê³ł
Ġíķ´ ì¤¬ìľ¼ë©´
ëĤĺë ł¤
ëĤĺë Ĥĺë´ĲìļĶ
ëĤĺë ĭ¤
ëĤĺë ĵ¤ìĿ´
¤ë ĳĲ
ìĿ¸ ìĥģìĿ´
ìĿ¸ ìĭłê³ł
ìĿ¸ íĬ¸ê°Ģ
ìĿ¸ ê³łìĿĺ
ĠìĥĿ ìĥĿ
ìĭľ ìĹĲ
ìĭľ ëĤĺìļĶ
ìĭľ ë°©
ìĭľ íĤ¤ëĬĶ
ìĿĺ ìĻ¸
ĠìķĦ ëĭĪëĭ¤
ĠìķĦ ëł¤
ĠìķĦ ëŀĺ
ĠìķĦ ë¹ł
ĠìķĦ ëĥĲ
ĠìķĦ ëģ¼
ĠìĹĨ ìĹĪ
ĠìĹĨ ìĬµëĭĪëĭ¤
ĠìĹĨ ëĭ¤ëĬĶ
ĠìĹĨ ëĮĢìļĶ
ĠìĹĨ ìľ¼ë©´ìĦľ
ĠìĹĨ ìķ¨
Ġê· ¹
ê±° ëĵł
ê±° ëŀĺ
ê±° ë¦¬ê°Ģ
Ġì¢ĭìķĦ ìł¸
Ġì¢ĭìķĦ ì¡Įìĸ´
Ġì¢ĭìķĦ íĸĪëĤĺë´ĲìļĶ
Ġë§Ī ì¤ĳ
ìĿ¼ ìĿ¼
ìĿ¼ ì£¼
ìĿ¼ ìĥģ
ìĿ¼ ê³¼
ìĿ¼ ê¸°ë¥¼
ìĿ¼ ì£¼ìĿ¼
ìĿ¼ ìļĶìĿ¼
ìĿ¼ ìĸ´ëĤĺ
íĺ ¹
Ġìĭ¶ ëĤĺë´ĲìļĶ
Ġìĭ¶ ì§Ģë§Į
êµ¬ ìļĶ
êµ¬ ìĨį
ìłķ ìŀ¥
ìłķ ìĹ´
ë¦¬ ìĬ¤
ë¦¬ ê²łìĸ´
ìĭł ê¸°
ëĤ¨ ìĿĦ
ëĤ¨ ëħĢ
Ġê³ ±
Ġê³ ¤ëĳĲ
ì° ¬ë¬¼
Ġê²ĥ ìĹĲ
Ġê²ĥ ìĿ¼ê¹Į
Ġê²ĥ ë§Įìľ¼ë¡ľ
Ġìĸ´ ìĿ´
Ġìĸ´ ìĦľ
Ġìĸ´ ìŀ¥
Ġìĸ´ ìĸ¸
Ġìĸ´ ë¦¬ìĦĿ
ìłľ ìĬµ
ì£¼ ìĹĲ
ì£¼ ìĿ¸
ì£¼ íĸī
Ġìĺ ¥
Ġìĺ ¬ë¦¬
ĠìĥĿê°ģ íķĺ
ĠìĥĿê°ģ íķľ
ĠìĥĿê°ģ íĸĪëįĺ
ĠìĥĿê°ģ ìĿ¼ê¹Į
ĠìĥĿê°ģ íķĺë©´ìĦľ
ĠìĥĿê°ģ íķĺëĤĺë´ĲìļĶ
ëŀ Ļ
ëŀ įëĭĪëĭ¤
ĠìķĬ ê¸°
ĠìķĬ ìĬµëĭĪëĭ¤
ĠìķĬ ìľ¼ìħ¨
ĠìĪĺ ìĹħ
íĻ Ģ
íĻ ĺìĿ´
ê°Ħ ëĮĢ
ê°Ħ ì§Ī
ê°Ħ ìłĪ
ê°Ħ ìłĪíķľ
Ġë§Į íķľ
Ġë³´ ìĿ´
Ġë³´ ëĬĶëį°
Ġë³´ ìŀĦ
Ġë³´ ìķ½
Ġë³´ ëĭĪê¹Į
Ġë³´ ìĿ´ëĦ¤
Ġë³´ ìĭľë©´
Ġë³´ ìĹ¬ëĵľ
Ġë³´ ìĿ¸ëĭ¤
Ġë§Ĳ ìŀĲ
Ġë§Ĳ ë§Į
Ġë§Ĳ ë¡ľ
Ġë§Ĳ íķĺë©´
Ġë§Ĳ ê³¼
Ġë§Ĳ íķłê¹Į
Ġë§Ĳ ìĿ´ì£ł
Ġë§Ĳ ìķĦìķ¼
Ġê°Ģ ìŀĲ
Ġê°Ģ ìĭľ
Ġê°Ģ ëĤĺë´ĲìļĶ
Ġê°Ģ ê±°ëĤĺ
Ġê°Ģ ë³¸
Ġê°Ģ ìŀħ
Ġê°Ģ ìĤ¬ê°Ģ
Ġê°Ģ ì¹ĺê°Ģ
Ġëĭ¤ ê°Ķìĸ´
ë§Ī íĬ¸
ë§Ī ì¹¨íĳľ
ĠìĹ° ìĿ¸ìĿ´
ĠìĹ° ìĨįìĿ´
ìĤ¬ëŀĳ ëıĦ
ìĤ¬ëŀĳ íķĺê³ł
ìĤ¬ëŀĳ íķĺì§Ģ
ìĤ¬ëŀĳ ë³´ëĭ¤
ìĤ¬ëŀĳ íķĺê¸°
ìĤ¬ëŀĳ ìĿ¸ì§Ģ
ìĤ¬ëŀĳ ìĬ¤ëŁ¬ìļ´
ìĤ¬ëŀĳ ìĹĲëıĦ
ìĤ¬ëŀĳ íķĺëĭĪê¹Į
ëĤ´ ë³´ìĦ¸ìļĶ
ëĤ´ ëħĦ
ëĤ´ ëĬĶê²Į
Ġì¤ ¬ìľ¼ë©´
ĠìķĪ íķľ
ĠìķĪ íķĺë©´
ĠìķĪ ì¢ĭìķĦíķĺëĬĶ
ĠìķĪ ìĺ¤
ĠìķĪ íķ´ì¤ĺ
ĠìķĪ ë³´ìĹ¬
ĠìķĪ íĴĢ
ĵľ ë¦¬ëŁ¬
ì¢ĭ ê²Į
ì¢ĭ ê²łìĸ´ìļĶ
ì¢ĭ ìķĺ
ì¢ĭ ìķĺëįĺ
ì¤ ĺëıĦ
ĠëĤĺ ê²Į
ĠëĤĺ ê²łìĸ´ìļĶ
ĠëĤĺ ê°ĢëĬĶ
ĠëĤĺ ìķ½
ĠëĤĺ ê°Īê¹Į
ĠëĤĺ ìĹĲê²ĮëıĦ
Ġë§İ ê²łì§Ģ
Ġë§İ ì§Ģë§Į
ëł¤ ëĤĺ
ëł¤ ì¤ĺ
ë¡ľ ìħĺ
ìĥģ ìĿ¼
ìĥģ ê´Ģ
ìĥģ ì¢ħ
ëĬĶëį° ëĬĶ
ìĹ¬ ì£¼
ìĹ¬ ìľł
ìĹ¬ ìľłê°Ģ
ìĹ¬ ìłĦíŀĪ
ìĹ¬ ì£¼ê³ł
ì¡ ĭ
Ġì° ¼ìĸ´
Ġë°Ķ ëĭ¤
Ġë°Ķ ê¾
Ġë°Ķ ëĿ¼ë
Ġë°Ķ ëĭ¥
Ġë°Ķ ìģĺë©´
ëĵ¤ ê³ł
ëĵ¤ ìĸ´ìĦľ
ëĵ¤ ìĸ´ëĵľë¦´ê²ĮìļĶ
ì§Ħ ìĭ¬
ì§Ħ íĨµ
ê·¸ë ħ
ê·¸ë ķĮ
ê·¸ë ¥¼
ê·¸ë ŀ¨
Ġìĭľ ëģ
Ġìĭľ ìĸ´ë¨¸
Ġìĭľ ê³¨
ìĹĪ ì§Ģ
ìĹĪ ëĬĶ
ìĹĪ ëĭĪ
ìĹĪ ëĤĺ
ìĹĪ ì§Ģë§Į
Ġê·¸ë Ł¬ëĬĶ
Ġê·¸ë ¦°ëĿ¼
ĠëĦĪë¬´ ëĤĺëıĦ
ĠìŀĲ ìļĶ
ĠìŀĲ ìĦ¸
ĠìŀĲ ëıĻ
ĠìŀĲ ë¦¬ë
ĠìŀĲ ë¦¬ê°Ģ
ĠìŀĲ ìľłë¥¼
íĶ Īëį°
ìķł ë¥¼
ìķł ëĵ¤
ìķł êµĲ
ìķł ìĻĦ
ĠìĤ¬ëŀĳ íķĺìĦ¸ìļĶ
ĠìĤ¬ëŀĳ íķ´ìļĶ
ĠìĤ¬ëŀĳ íĸĪìĸ´
ĠìĤ¬ëŀĳ íķĺê¸°
ĠìĤ¬ëŀĳ ìĿ´ëĿ¼ê³ł
ĠìĤ¬ëŀĳ íķ´ì¤Ħ
ĠìĤ¬ëŀĳ ìĿ´ìĹĪëĤĺë´ĲìļĶ
ĠëįĶ ìĿ´ìĥģ
ĠìĦ ¬ìľłìľłìĹ°ìłľ
ìļ´ ëį°
ìĽĮ ìķ¼
ìĽĮ ìĭľ
Ġìŀĺ íķĺê²Į
Ġìŀĺ íķłê¹Į
Ġìŀĺ íķĺëĭĪ
Ġê¸° ëĦ¤
Ġê¸° ìĪł
Ġê¸° ìģ¨
ê± ·
Ġëı ĭ
ĠìĹ¬ ìľł
ìĭ¬ ëĤľ
ë§Ĳ íķĺì§Ģ
ë§Ĳ íĪ¬ê°Ģ
ëı ĭ
ìłĢ ê¸°
ìłĢ ë§Į
ìłĢ íŀĪ
Ġì§Ģ ì§Ģ
Ġì§Ģ ìłģ
Ġì§Ģ ìĪĺ
Ġì§Ģ ëĤł
Ġì§Ģ ìĽĮì§Ī
Ġì§Ģ ì³¤ìĸ´
Ġì§Ģ ìĺ¥
Ġì§Ģ ëĤ¬ëĬĶëį°
íĸĪ ëĭ¤ëĬĶ
íĸĪ ëĤĺìļĶ
íĸĪ ìľ¼ëĭĪê¹ĮìļĶ
íĻĶ íķĻ
íĻĶ ìĿ´íĬ¸ëį°
ê¸¸ ê²Į
ĠìĹ°ëĿ½ ì²ĺ
ĠìĹ°ëĿ½ íĸĪëĬĶëį°
ĠìĹ°ëĿ½ ìĺ¤ëĦ¤
ĠìĹ°ëĿ½ íĸĪìĬµëĭĪëĭ¤
ìĥĿ ìĿ¼
Ġê´ ĳ
ìłĦ ë¶Ģ
ìłĦ íķĻ
ìłĦ íĻĶë¥¼
ìłĦ ëĤ¨ì¹ľìĿ´
íŀĪ ëĤĺ
ĠìĻ Ħ
ĠëĤ¨ ëĬĶê²Į
ĠëĤ¨ ê¸°ëĬĶ
ìĤ¬ ìłĦ
ìĤ¬ ìĭ¤
ìĤ¬ ìłķìĿ´
ĠìĤ¬ íļĮ
ĠìĤ¬ ê²¼ìĸ´
ĠìĤ¬ íĥķ
ëª ¬
ĠìĤ¬ëŀĮìĿ´ ìĹĪëĤĺë´ĲìļĶ
Ġíŀĺëĵ¤ ê¹Į
Ġíŀĺëĵ¤ ê²łì£ł
Ġíŀĺëĵ¤ ì§Ģë§Į
Ġíŀĺëĵ¤ ê±°ëĿ¼
ĠëķĮ ìĿ¸
ĠëķĮ ë¡ľ
ĠëķĮ ë§Īëĭ¤
ĠëķĮ ë¦¬ê¸°
ìĿ´ë³Ħ íķł
ìĿ´ë³Ħ íķĺê³ł
ĠìķĮ ê¸´
ĠìķĮ ìķĺë
ĠìķĮ ëł¤ë©´
ë¥´ ëĭĪê¹ĮìļĶ
íĺ¼ ì£¼
íĺ¼ ìĿ¸ìĭłê³ł
Ġë§ĪìĿĮ ìĹĲìĦľ
Ġë§ĪìĿĮ ìĿ´ìĹĲìļĶ
Ġë§ĪìĿĮ ê³¼
Ġë§ĪìĿĮ ìĿ´ëĦ¤ìļĶ
Ġë§ĪìĿĮ ìĿ¸ì§Ģ
Ġíĸ ĪëĦ¤ìļĶ
Ġíĸ ĪëįĶëĭĪ
Ġì¹ ¼
ĠëĤ´ ë¦´
ĠëĤ´ ë¦¬ëĬĶ
ĠëĤ´ ëĶ
ĠëĤ´ ë¦¬ì§Ģ
ĠëĤ´ ìĿ¼ìĿ´
ĠëĤ´ ë²Ħëł¤
ìĬ¤ ë¥¼
ìĬ¤ ëłĪ
ìĬ¤ íĥĢë
ë¯ ¼ë
ë¯ ¸ë¡ľ
ìłģ ìĿ¼
ìłģ ëĭ¹
ìłģ ìĿ¸ëį°
ìłģ ìĸ´ëıĦ
ì¢ĭìķĦ íķĺëĤĺë´ĲìļĶ
ì¢ĭìķĦ íķĺëĭĪê¹Į
ì¢ĭìķĦ íĸĪì§Ģë§Į
ìĺ¤ë ¹ł
Ġìłķ ìĿ´
Ġìłķ íķĺê³ł
Ġëª¨ ìĹ¬
ëĮĢ ìļ°
ëĮĢ íĻĶê°Ģ
Ġëª» ìŀĲ
Ġëª» ëĤľ
Ġëª» íķłê¹Į
Ġëª» íķĺëĬĶëį°
Ġëª» ìŀĬëĬĶ
Ġê³ł ìŀ¥
Ġê³ł ë¥´ëĬĶ
Ġê³ł ì¹ĺê³ł
Ġê³ł ë¯¼ë
ë§ĪìĿĮ ìľ¼ë¡ľ
ë§ĪìĿĮ ìĹĲê²Į
ë§ĪìĿĮ ëĮĢë¡ľ
íļĮ ë³µ
Ġë¨¹ ê¸°
Ġë¨¹ ëĤĺ
Ġë¨¹ ë¨¹
Ġë¨¹ ê¸°ë¡ľ
Ġë¨¹ ìľ¼ëŁ¬
ìļ° ìĦ¸ìļĶ
ìļ° ê¸°
ìļ° ìĹ°
ìļ° ë¦¬ë
Ġê±´ ëį°
Ġê±´ ê°Ģë´ĲìļĶ
Ġê±´ ëĵ¤ì§Ģ
ìį¸ ìĿĦ
ìį¸ ë§Į
ìį¸ ìĿĺ
ìį¸ ìĿ¸ê°Ģ
ìį¸ ìĿ´ìĹĪìľ¼ë©´
¦¬ ì§Ģ
¦¬ ê³ł
Ġìĭľê°Ħ ìĿ´ìĹĲìļĶ
Ġìĭľê°Ħ ìĿ¸ëį°
Ġìĭľê°Ħ ëĤŃ
ĠëĲł ì§Ģ
Ġë°Ľ ëĦ¤
Ġë°Ľ ìĿĮ
Ġë°Ľ ìķĺëįĺ
Ġë°Ľ ìľ¼ìħ¨
íĹ¤ìĸ´ ì§ĢëĬĶ
ĠìĨ Ķ
ë¬´ ìĦľ
ë¬´ ëİĮ
ê´ ĳ
ê´ Ģë¬¸
Ġíķĺë ł¤
Ġíķĺë ł¤ë©´
ìŀĺ ì§ĢëĤ´
ìŀĺ íķĺìħ¨ìĸ´ìļĶ
ë¶Ģ ë¥´
ë¶Ģ ì¼Ģ
Ġë² ļê½ĥ
Ġë² ¤ì¸ł
ĠìĤ´ ì£ł
ĠìĤ´ ìķĺëĬĶëį°
ĠìĤ´ ê±°ìķ¼
Ġíķľ ëį°
Ġíķľ ìĪ¨
Ġíķľ ìĪľê°Ħ
Ġíķľ ì¼ł
Ġì¡ ¸
Ġì¡ ¸ëĿ¼
ëĭ¹ ìĿ´
ëĭ¹ íķĺëĬĶ
ëĭ¹ íĸĪìĸ´
ëĭ¹ ëĭ¹íŀĪ
ëĭ¹ ìĹ°íŀĪ
ĳĲ ìĦ¸ìļĶ
ìķĪ íķł
ê³¼ ìĿĺ
ê³¼ ìłķìĿ´
ĠëĲĺ ê²łì£ł
ĠëĲĺ ìĭľê¸¸
Ġë°Ķëŀ Ħ
Ġë°Ķëŀ Ģëĭ¤ë©´
Ġíķł ê²Į
Ġíķł ê²ĮìļĶ
Ġíķł ì¤Ħ
Ġíķł ìĪĺë¡Ŀ
êµ¬ë ĬĶ
êµ¬ë ¡ľ
êµ¬ë ¶Ħ
ê±´ ëĵ¤ìĿ´
Ġì¢ĭìĿĦ ì§ĢëıĦ
Ġëĵ¤ ê²Į
Ġëĵ¤ ìĸ´ìļĶ
Ġëĵ¤ íħĲëį°
Ġëĵ¤ ëł¤ì£¼ìĦ¸ìļĶ
Ġëĵ¤ ìľ¼ë©°
ìŀĪ ëĬĶëį°
ìŀĪ ìĸ´ëıĦ
ê·¸ ê°Ģ
ê·¸ ìĤ¬ëŀĮ
ê·¸ ìª½
ĠëĨ Ģë
ĠìĦł ë°°
ĠìĦł ìĥĿëĭ
ĠìĦł ë°°ê°Ģ
Ġë¬´ ê¸°ëł¥
Ġë¬´ ìĿĺìĭĿ
Ġë¬´ ì¡°ê±´
ìĭ¤ ìĹĲ
ë¥¸ ëĭ¤
ìĻĢ ëıĦ
ìĻĢ íĶĮ
ĠëŃĲ íķ´
ĠëŃĲ ëĿ¼ëıĦ
Ġìĥģ ìĤ¬
Ġìĥģ ìŀĲë¥¼
ì§Ī ê°Ħì§Ī
ĠíķĺëĬĶ ê±°
ë¦¬ë Ŀ¼ê³ł
Ł° ì§Ģ
ìĶ ģìĵ¸
ìĨĮ ë¦¬ê°Ģ
ìĨĮ íĻĶê°Ģ
ìĨĮ ì§ĵ
ìĨĮ ìķ¡ê²°
Ġì¢ĭìĿĢ ì§Ģ
ĠìĿ´ë³Ħ íķĺëĬĶ
ĠìĿ´ë³Ħ ìĿ´ìĹĲìļĶ
ĠìĿ´ë³Ħ ìĿ´ëĵł
ìĪĺ ìłľ
ìĪĺ ì²ľ
ìĪĺ íķĻìĹ¬íĸī
ìĽĲ ì¹ĺ
ĠìłĦ ìľ¼ë¡ľ
ĠìłĦ ê³µ
ĠìłĦ ê¹Įì§Ģ
ĠìłĦ ìĹĲëĬĶ
ĠìłĦ ëĤ¨ì¹ľìĿ´
ĠëģĿ ìĿĺ
ĠëģĿ ëĤĺëıĦ
Ġë¯ ¼
Ġëĵľ ëł¤
ìľ¼ ìľ¼
ëĤł ìĿ¸ëį°
Ġìĸ ½
ĠíĹ¤ìĸ´ ì§ĢëĬĶ
Ġê±¸ ìļĶ
Ġê±¸ ìĹĪìĸ´
ê°Ļ ëĦ¤ìļĶ
ì¦ Īë¥¼
ìĥ Īë
Ġì£¼ ìĽĮ
Ġì£¼ ê¸¸
Ġì£¼ ìłľë¥¼
Ġì£¼ ìĿ¸ê³µ
ĠëĤĺë ¦Ħ
ĠëĤĺë ĭĪê¹Į
ĠëĤĺë ¹´
ĠìĹ¬ìŀĲ ë¡ľ
ĠìĹ¬ìŀĲ ëĵ¤
ĠìĹ¬ìŀĲ ìĹĲê²Į
ìĬ¤ë ħ¸
ĠíķĦìļĶ ê°Ģ
ĠíķĦìļĶ ëıĦ
ĠíķĦìļĶ íķĺëĭ¤ë©´
ĠíķĦìļĶ íĸĪìĿĦ
ëĤľ ëĭ¤ë©´
ëĤľ ëĭ¤ê³ł
Ġê·¸ ì§Ģ
Ġê·¸ ìĹĲê²Į
ĮĢë ŀĺìļĶ
Ġìĭ¶ëĭ¤ ë©´
ì¤ĳ ìĿ¸ëį°
ì¤ĳ ë¬¸
ì¤ĳ êµŃ
ìĨį ìĥģ
ĠëĤ¨ìŀĲ ëıĦ
ĠëĤ¨ìŀĲ ìĿĺ
ĠëĤ¨ìŀĲ ì¹ľêµ¬ë¥¼
ë¬¼ ê°Ģê°Ģ
Ġê´ľì°® ì§Ģ
Ġê´ľì°® ëĭ¤
Ġê´ľì°® ê¸¸
Ġê´ľì°® ìĬµëĭĪëĭ¤
Ġëı¼ ì§Ģ
Ġëı¼ ìĦľ
ê³µ ë³µ
ê³µ íĻ©
ê³µ íľ´
ìł¸ ë³´ìĦ¸ìļĶ
ĠìĹĨìĸ´ ì¡Įìľ¼ë©´
Ġì¹ľ êµ°
ĠëĮĢ ìĥģ
ĠëĮĢ ìļ°
ĠëĮĢ ëĭµ
ĠëĮĢ íķĻ
ĠëĮĢ íĻĶê°Ģ
ĠëĮĢ ìī¬
ìĿ´ìłľ ë¶ĢíĦ°
ìĺ¤ ê²Į
ìĺ¤ ë¥´ëĬĶ
ëħĦ íķĺê³ł
ëħĦ ìłĦ
ëħĦ ë°ĺ
ëħĦ ëıĻìķĪ
ëħĦ ê°ĦìĿĺ
Ġëª¨ë¥´ ê²łëĭ¤
Ġëª¨ë¥´ ê²łì§Ģë§Į
ê´Ģ ìłģìľ¼ë¡ľ
ê¾ ¸ë¡ľ
ê²½ ìĿ´
ê²½ íĹĺ
ê²½ ìŁģìĿ´
ĠìŀĬ ëĬĶê²Į
ìľł ë¶ĢëħĢ
ĠëĪ Į
ìĭĿ íķĺëĬĶ
ìĭĿ ìļķ
ëĭ¬ íķł
ë°Ķ ìģĺë
ë°Ķ ëĭ¥
ë°Ķ ëĤĺëĤĺ
ë°Ķ ìģł
ë°Ķ ìģĺë©´
ê°ľ ìĿ¸ìĿĺ
Ġê°Ģë Łī
ì°¨ ê²Į
ì°¨ ë¡ľ
ì°¨ ë³ĦìĿ´
ëĲ Ĳ
ëĲ ©ëĭĪëĭ¤
ëĦĪë¬´ ëĦĪë¬´
Ġì°¾ ìĿĢ
ì¡° ë³Ħ
ëįĶ ìĽĮìĦľ
ìĤ¬ëŀĮ ìĹĲ
ìĤ¬ëŀĮ ëĵ¤ìĿĢ
Ġë§ŀ ìĿ´
Ġë§ŀ ê²Į
Ġë§ŀ ëĤĺë´ĲìļĶ
Ġë§ŀ ì¶ľ
ĠìĿ¸ ìĥģìĿ´
íĬ¸ ì½Ķ
Ġë§ĮëĤĺ ìĭ¤
Ġë§ĮëĤĺ ìŀĲëĬĶ
íĹ ·ê°Īë
ĠëĤł ìĿ´ìĹĲìļĶ
Ġê°Ĳ ëıĻ
Ġê°Ĳ ê°ģìĿ´
Ġë¬¼ ì§ĪìĿ´
ì§ľ ìŀ¥ë©´
ĠíĸĪ ìĿĦ
ĠíĸĪ ëĤĺë´Ĳ
ĠíĸĪ ëĬĶì§Ģ
Ġìĭ« ìĿĢëį°
íĶĦ ìĤ¬
ì¹ĺ ê²Į
ì¹ĺ íĤ¨
ĠìĹ°ìķł ìĿ¸
ĠìĹ°ìķł ìĿĺ
ĠìĹ°ìķł íķĺëĬĶëį°
Ġê´Ģ ì°°
Ġë°© ë¬¸
Ġë°© ìĭĿìĿ´
ĠìķĦëĭĪ ëĭĪ
ĠìķĦëĭĪ ê²łì§Ģ
ĠìķĦëĭĪ ìĹĪìĸ´
Ġìĺ¤ ì£ł
Ġìĺ¤ ë¥´ëĦ¤
Ġì¤ĳìļĶ íķĺê²łì£ł
Ġì¤ĳìļĶ íķĺëĭĪê¹ĮìļĶ
ìĦ± ìĿĦ
ìĦ± ìĹĲ
ìĦ± ìłģ
ìĦ± ìĪĻ
ëĭµ ìĿĢ
íķĻ ë²Į
íĥĢ ê¸°
Ġì§Ħ ìłķ
Ġì§Ħ ìĭ¤ë
Ġì§Ħ ìłķíķľ
Ġì°¨ ìĿ¸
Ġì°¨ ëĿ¼ë¦¬
Ġì°¨ ìĺĢëĬĶëį°
ëĵľ ëĦ¤
Ġíķĺ ê²łì£ł
Ġíķĺ ê¸°ë¡ľ
Ġíķĺ ìĭľê³ł
Ġê¹ °
Ġê¹ į
ĠìĻľ ì¼Ģ
íŀĺë ĵŃëĭĪëĭ¤
Ġëĭ¹ ìŀ¥
Ġëĭ¹ ëĭ¹
Ġëĭ¹ ìĹ°íŀĪ
ë¹Ħ ìĺ¤ëĬĶ
ë¹Ħ íĬ¸ì½Ķ
Ġì§Ŀ ìĤ¬ëŀĳìĿ´
Ġì§Ŀ ëħĢëŀĳ
ìŀĲìĭł ìĿĢ
ìŀĲìĭł ë§ĮìĿĺ
ĠëıĦ ìłĢíŀĪ
ì§ĿëĤ¨ ìĿĢ
ì§ĿëĤ¨ ìĹĲê²Į
Ġë¹Ħ íķ´
Ġë¹Ħ ê°Ģ
Ġë¹Ħ ì¹ľ
Ġë¹Ħ ìłķìĥģ
Ġë¹Ħ ìĮĪ
ëĭ¨ ëĳĺìĿ´
ëĭ¨ ì¡°ìłĪ
Ġì°¾ìķĦ ê°Ķ
Ġì°¾ìķĦ ìĺ¤ëĦ¤
Ġìķł ê¸°
Ġìķł ìĿ¸
Ġìķł ìłķ
Ġìķł ë§¤
Ġìķł íĶĦíĦ°
Ġìĺ¤ë ŀĺëĲľ
ê·¼ íķĺì£ł
ê±¸ ìĿ´
ĠëĬĲ ê¼Ī
ìĦł ë°°
ìĦł ìĿ´ìĹĪìĿĦ
ì§Ģê¸Ī ìĿĺ
Ġë¶Ģ ìŀĲ
Ġë¶Ģ ì§Ī
Ġë¶Ģ ë¦¬ë©´
Ġë¶Ģ ìłķìłģìĿ¸
ì§ĳ ìķŀ
Ġëį° ëıĦ
ëģ ¼ë¦¬
Ġì¤Ģë¹Ħ íķł
Ġì¤Ģë¹Ħ íķĺëĬĶëį°
Ġì¤Ģë¹Ħ íķĺëĬĲëĿ¼
Ġì¤Ģë¹Ħ ëĲĺìĸ´ìķ¼
ì¹ľêµ¬ë Ŀ¼ë©´
ìĹ°ëĿ½ íķĺëĬĶ
ë¬¸ ìĿ´
ë¬¸ ìĹĲ
Ġëħ ¸ë
ĠíĿ ¥
Ġíİ¸ íķ´
Ġíİ¸ íķĺê³ł
Ġíİ¸ íķĺëĮĢ
Ġíİ¸ íķĺëĭ¤ëĬĶ
ĠìŀĲìĭł ìĹĲê²Į
Ġìłķë¦¬ ìĹĲ
Ġìłķë¦¬ íķĺê²Į
Ġìłķë¦¬ íķĺê¸¸
Ġìłķë¦¬ íķĺëł¤ê³ł
Ġìłķë¦¬ íĸĪìĬµëĭĪëĭ¤
íķ´ìķ¼ íķĺëĤĺ
Ġìłľ ë°ľ
ì¤ĺ ìĦľ
Ġë°©ë²ķ ìĿĢ
Ġë°©ë²ķ ëıĦ
Ġë°©ë²ķ ìĿ´ì£ł
ĠìĦłë¬¼ íķ´ëıĦ
Ġìį¸ ìĿ´
Ġìį¸ ë§Į
Ġìį¸ ìĿ¸
Ġì§ĳ ìķŀ
Ġëª° ëŀĲìĸ´
ëĭ¹ìĭł ë§ĮìĿ´
ĠëĶ° ìł¸ë³´ìĦ¸ìļĶ
Ġê¸°ëĭ¤ ë¦¬ê²Į
ëª¨ ìŀĦ
ëª¨ ì²ĺëŁ¼
ëª¨ ìŀĲëĿ¼
íĨµ ìĿ´
íĨµ ê¸°íķľ
ìłĲ ìĿ´
ìļ© ìłģìĿ¸
ìļ© íĴĪ
ĠìľĦ ì¶ķ
ĠíĶ ¼ë¶Ģ
ĠìĿ´ìķ¼ê¸° ëĬĶ
ĠìĿ´ìķ¼ê¸° íķł
ĠìĿ´ìķ¼ê¸° íķĺìĦ¸ìļĶ
ĠìĿ´ìķ¼ê¸° íķ´ìļĶ
ĠíĹ ¹
ĠíĹ Ĳ
Ġê³Ħ ìĭł
Ġê³Ħ ìķ½
Ġê³Ħ ìĤ°
Ġì°¸ ìĿĦ
Ġì°¸ ê²łìĸ´
Ġì¶Ķ ê°Ģ
Ġíĸīë³µ íķĺë©´
Ġíĸīë³µ íķ´ì§Ģ
Ġíĸīë³µ íĸĪìľ¼ë©´
Ġíĥ Ģë©´
ì¼ °
Ġíķĺì§Ģ ìļĶ
Ġíķĺì§Ģ ë§Ī
Ġì¤Ħ ëıĦ
Ġì¤Ħ ìĿ¼
ìĸ¸ ìłľê°Ģ
íĶ¼ íķ´ë¥¼
ë²Ī ìĿĦ
ë²Ī ìĿĺ
¯¸ ê³ł
ë¹ ¼
Ġíķ´ìķ¼ ê²łì£ł
Ġíķ´ìķ¼ íķĺëĤĺ
ĠìĻĶ ëĤĺë´ħëĭĪëĭ¤
ì§ĿìĤ¬ëŀĳ ìĹĲìĦľ
ĠìĿ¼ìĿ´ ëĭĪê¹ĮìļĶ
êµ° ìĿ¸
ìĽĶ ìļĶìĿ¼
Ġë³´ê³ł ë§Į
Ġìĭľìŀĳ ìĿĦ
Ġìĭľìŀĳ íķĺëĬĶ
ìŀł ìĿĢ
ĠëıĮ ëł¤
ĠëĲĺë Ħ¤ìļĶ
Ġë§Įëĵ¤ ì£ł
Ġë§Įëĵ¤ ë©´
Ġë§Įëĵ¤ ìĸ´ìĦľ
Ġë§Įëĵ¤ ìĸ´ë´ĲìļĶ
ĠìĬ¤ ì³Ĳ
ĠìĬ¤ íĤ¤
ìŀ¡ íķĺê²łìĸ´ìļĶ
ë³´ëĬĶ ê²ĥëıĦ
ĠìĺĪ ê³ł
ĠìĺĪ ìłķ
ĠìĺĪ ìłĦ
ĠìĺĪ ì¸
ĠìĺĪ ìĿĺë¥¼
ì¦Ŀ ìĿĦ
íķĺëĭ¤ ëĭĪ
Ġê³µ ìľł
Ġê³µ íĨµ
Ġê³µ ê°ĲìĿ´
Ġê³łë¯¼ ìĿĦ
Ġê³łë¯¼ íķ´ë³´ìĦ¸ìļĶ
Ġê³łë¯¼ ìĿ´ëĦ¤ìļĶ
íĮĮ ëıĦê°Ģ
íĤ ¤ë©´
íİ¸ ìĿ´
íİ¸ ì§Ģ
íİ¸ ìĹĲ
íİ¸ ìľ¼ë¡ľ
íİ¸ íķĺê²Į
íİ¸ ìķĪ
íİ¸ ì§ĢëıĦ
Ġìĭł ì¤ĳ
Ġìĭł ë°ľ
Ġìĭł ë¢°
ë²Ħ ëł¤ìļĶ
Ġê³łë°± íķł
Ġê³łë°± íķĺê³ł
Ġê³łë°± íķĺìĦ¸ìļĶ
Ġê³łë°± íķ´ìķ¼
Ġê³łë°± íķłê¹ĮìļĶ
Ġê³łë°± ë°Ľìķĺìĸ´
Ġëĵ¤ìĸ´ ë§ŀ
Ġëĵ¤ìĸ´ ìĺ¤ë©´
ìŀĦ ê¸Ī
ìŀĦ ë§Ĳ
ê°ķ ìłľ
Ġêµ ¬ë§
ë°° ëĭ¬
ë°° ë¶ĪëŁ¬
ìĸ´ëĸ ¨
Ġëĸ¨ ê³ł
Ġëĸ¨ ìĸ´ëľ¨
Ġíŀĺëĵľ ìĭľê²łìĸ´ìļĶ
ìĹ°ìķł íķĺëĬĶ
ìĹ°ìķł ìĿĺ
ìĹ°ìķł ë¥¼
ìĹ°ìķł ë¡ľ
ìĹ°ìķł íķłëķĮ
ìĹ°ìķł ìĥģëĭ´
ìĹ°ìķł ìĦ¸íı¬
ëĭ¤ëĬĶ ê±°
ëĭ¤ëĬĶ ê±¸
ëĭ¤ëĬĶ ê²ĥ
ìħ¨ ìĸ´
ìħ¨ ê²łìĸ´ìļĶ
ĠìķĮìķĦ ê°Ģ
ĠìķĮìķĦ ìķ¼
ê²°íĺ¼ íķľì§Ģ
ìĤ´ ëŀĳ
ìĤ´ ëĭ¤ë³´ë©´
ìĻĶ ëĦ¤ìļĶ
ë¨¹ ìľ¼ë©´ìĦľ
Ġì¡°ê¸Ī ìĿ´ëĤĺë
ìĿ´ìĹĪ ëĬĶëį°
ìķĦë¬´ ëłĩì§ĢëıĦ
íĻ© ëĭ¹
ìķĺë įĶëĭĪ
Ġë°° ìłķ
ëł¥ ìĿĢ
ìĿ´íĬ¸ ìĿ¼ê¹Į
Ġë³Ģ íķĺê³ł
ĠëĨĢ ìŀĲ
ë© Ģ
íĴ ĭ
íĴ ĢìĿ´
Ġìĵ° ì§Ģ
Ġìĵ° ê²Į
Ġìĵ° ë©´
Ġìĵ° ë©´ìĦľ
ë§¤ ìļ´
ë§¤ ëĭ¬ë
ë³´ê³ł ìĭ¶ëĭ¤
ìĬ¤ëŁ¬ ìĽł
ìī ¬ìĸ´
ĠìĤ¬ë ¡ľìŀ¡
ë¯¸ íĮħ
ë¯¸ ì¹ł
Ġì¹ľêµ¬ ìĿĺ
Ġë²Ħ ë¦´
Ġë²Ħ ëł¸
íİ ĳ
íİ ĺìĿ´
íİ ĺë¶ģ
ìĪĺë ĭ
ìĪĺë ©´
ìĪĺë ¡ľ
ìĪĺë Ħ¤ìļĶ
Ġìłģ ìĿĦ
Ġìłģ ê²Į
Ġìłģ ìĿĢ
Ġê±±ìłķ ë§ĪìĦ¸ìļĶ
ì§ĿëħĢ ìĹĲê²Į
ìĿ´ë ¤Ħ
¸ë¦ ¬ë
ĠìĤ¬ê·Ģ ìĦ¸ìļĶ
ĠìĤ¬ê·Ģ ëĬĶëį°
ĠìĤ¬ê·Ģ ê¸´
Ġìļ° ìĬµ
Ġìļ° ë¦¬ë
Ġìļ° ë¦¬ëĬĶ
ìĤ¬ë ³ĳ
Ġìŀĺë ĲĲ
ĠìŀĪìĹĪ ìĸ´ìļĶ
ĠìŀĪìĹĪ ëĤĺë´ħëĭĪëĭ¤
Ġê²°íĺ¼ íķĺ
Ġê²°íĺ¼ íķĺê¸°
Ġê²°íĺ¼ ìłģëł¹
Ġê°Ĳìłķ ìĹĲ
Ġê°Ĳìłķ ëıĦ
Ġê°Ĳìłķ ê¸°
ìĺĢ ìĿĦê¹Į
ìĺĢ ëĬĶì§Ģ
ĠìĿ´ìĥģ ìĿĺ
ĠìĿ´ìĥģ íķľê°Ģ
ĠíĶ¼ íķĺê³ł
ĠíĶ¼ íģ¬ëĭī
ë°© ìĹĲ
ë°© ê¸Ī
ë°© ìķĪ
ëĤ¨ìŀĲ ë¶Ħëĵ¤
Ġìŀł ìĭĿ
Ġê·¸ëŁ´ ë§Į
Ġê·¸ëŁ´ ê¹ĮìļĶ
Ġê·¸ëŁ´ ìĪĺëıĦ
ĠìĦľ ë¥ĺìĹĲìĦľ
Ġë¯¸ ì¹ł
Ġë¯¸ ìĦ¸ë¨¼
Ġë¯¸ ìĨĮì§ĵ
Ġê´Ģìĭ¬ ìĤ¬ìĹĲ
ëĦĪ ê°Ģ
ëĦĪ íķľíħĮ
ëĦĪ ìĻĢ
Ġëĭµ ìĿ´
Ġëĭµ ìĿĦ
Ġëĭµ ìŀ¥ìĿĦ
ĠëĨĵ ì§Ģ
ĠëĨĵ ëĬĶ
ĠëĨĵ ì¹ĺì§Ģ
ëĭ¤ê°Ģ ê°ĢëĬĶ
ĠëĲĲ ìĬµëĭĪëĭ¤
ĠìĦ± ìłģ
¶Ģ ë¥¼
Ġ1 1
Ġ1 2
Ġëĵ¯ íķľ
Ġê¿Ī ìĿ´
ìĹ¬ë Ł¬
Ġê°Ħ ìĦŃ
Ġê°Ħ ì§Īê°Ħì§Ī
Ġë¯¿ ê³ł
Ġë¯¿ ìĿĮ
Ġë¯¿ ìĹĪëĬĶëį°
Ġë¯¿ ìĸ´ì£¼ìĦ¸ìļĶ
ĠìĨį ì§Ģ
Ġíĺ¼ ëĤ´
Ġìī¬ ëĭ¤
ĠìłĢ ìŀ¥
ë°Ľ ìľ¼ë©´
Ġë¶Ħ ìĸĳ
Ġë¶Ħ ìĿ¸ê°Ģë´ĲìļĶ
ì¶Ķ ìĽĮ
Ġì¹ľêµ¬ë ıĦ
ìĸĳ ìĿĦ
ĠëĬĲëĤ Ģëĭ¤ë©´
ëķĮ ë¥¼
Ġëĭ¹ìĭł ìĹĲê²Į
Ġëĭ¹ìĭł ìĿ´ëĦ¤ìļĶ
ëŃĲ íķĺê³ł
ĠíĳľíĺĦ íķĺìĦ¸ìļĶ
ĠíĳľíĺĦ íķ´ì£¼ìĦ¸ìļĶ
Ġê¸°ìĸµ ìĿĢ
Ġê¸°ìĸµ ë§Į
ĠíĻĶ ëĤĺ
ĠíĻĶ ëĤľ
ĠíĻĶ ìĿ´íĬ¸ëį°
ë´ ¤ìĸ´
íĪ Ń
íĪ ¬ëĬĶ
ëĭ¬ëĿ¼ ëĬĶ
ëĭ¬ëĿ¼ ì§Ħê²Į
Ġë°ĺ ìĹĲ
Ġë°ĺ ìĹĲìĦľ
Ġë°ĺ ìĺģ
Ġë¶Ī íĥĢ
Ġë¶Ī ìĪľ
Ġë¶Ī ê°ĢëĬ¥
Ġë¶Ī íļ¨
ĠìĦłíĥĿ íķł
ĠìĦłíĥĿ ìĿĺ
ĠìĦłíĥĿ ìľ¼ë¡ľ
íĿ ĳìĹŃ
ĠìĿ´íķ´ ëĬĶ
ĠìĿ´íķ´ ë¥¼
Ġìĺ¬ ê²Į
ĠëķĮë¬¸ ìĿ´ìĹĲìļĶ
ĠëķĮë¬¸ ìĿ´ê²łì£ł
ëĪĪ ìĹĲìĦľ
ëĪĪ êº¼
ëĪĪ ì¹ĺê°Ģ
íĭ Ī
ìĺģ ìĸĳìłľ
Ġìĭ¶ìĿĢ ê²Į
Ġê°Ģê³ł ìĭ¶ëĭ¤
ĠëĪĦ ëĿ½
ĠëıĮìķĦ ìĻĢ
ĠëıĮìķĦ ê°ĢëĬĶ
ĠëıĮìķĦ ê°Ī
ĠëıĮìķĦ ìĺ¤ëĬĶ
ê°ĳ ìĬµëĭĪëĭ¤
ĠíĮ ģ
Ġìŀ¡ ìķĺìĸ´
Ġìĭ¬ ê²½
Ġìĭ¬ ìŀ¥ìĿ´
Ġë³´ëĤ´ ì§Ģ
Ġë³´ëĤ´ ìĦ¸ìļĶ
Ġë³´ëĤ´ ë³´ìĦ¸ìļĶ
ì²´ ê°Ģ
ì²´ ëł¥
ì²´ ìľ¡ëĮĢíļĮ
ĠëŃĺ ê¹ĮìļĶ
ĠíĽĦíļĮ ëĬĶ
ĠíĽĦíļĮ íķĺë©´
Ġíķĺë£¨ ê°Ģ
Ġíķĺë£¨ ëĬĶ
Ġíķĺë£¨ ìĿ¼
íķĺëĤĺ ìļĶ
ìĭ¸ ìĽĢ
ìĺ¬ ê¹Į
Ġëĭ¤ê°Ģ ê°ĢëĬĶ
Ġìĸ´ëĶĶ ê°Ģ
Ġìĸ´ëĶĶ ê°Ģì§Ģ
Ġë²Ī ë§Į
ì·¨ íĸ¥
Ġê²°ìłķ íķĺëĬĶ
Ġê²°ìłķ íķł
Ġê²°ìłķ ìĿ´ìĹĪ
Ġê³µë¶Ģ íķłê¹Į
Ġê³µë¶Ģ íķĺê¸°
Ġìĥ ī
Ġì·¨ ìĨĮ
Ġì·¨ íķ´ìĦľ
ë³Ģ íĻĶ
ë³Ģ íĻĶê°Ģ
ĠìķĦíĶĦ ì§Ģ
ĠìķĦíĶĦ ê¸°
ê·¸ëħĢ ëıĦ
ê·¸ëħĢ ìĹĲê²Į
Ġìŀħ ìĿĦê¹Į
Ġê¹¨ ì§Ĳ
Ġê¹¨ ì¡Įìĸ´
Ġìĸ¸ìłľ ê¹Įì§Ģ
Ġë´Ĳ ë³´ìĦ¸ìļĶ
Ġë´Ĳ ì£¼
Ġë´Ĳ ì£¼ìĦ¸ìļĶ
Ġë´Ĳ ë´ĲìļĶ
ì¹´ íİĺë
ìĹ¬ìŀĲ ëĬĶ
íĤ¤ ìļ°ê¸°
Ġíĺ¼ìŀĲ ìĦľ
Ġíĺ¼ìŀĲ ë§ĮìĿĺ
ĠìĦ¤ ê³Ħ
ĠìĿĺ ì¡´
Ġìĺģ íĸ¥ìĿĦ
íĻľ ìļ©
ìĪĻ ìłľ
ìĪĻ ì·¨
ì¶ķ ìłľ
ìĬ¤ëŁ½ ëĦ¤
ë§Ŀ ìĿ´ì§Ģ
Ġìľł ë£Į
Ġìľł íĨµê¸°íķľ
Ġìµľ ëĮĢíķľ
Ġìµľ ìĦłìĿ´ìĹĪìĿĦ
ê¸°ëĭ¤ ë¦¬
ê¸°ëĭ¤ ë¦¼
ê¸°ëĭ¤ ë¦¬ë©´
ĠìĥĿê°ģíķ´ ë´ħëĭĪëĭ¤
ĠìĽĲ íķ´
ĠìĽĲ íķĺì§Ģ
ĠìĽĲ íķľëĭ¤ë©´
Ġìĭ¸ ìļ°ê³ł
ì§ģìłĳ ìłģìľ¼ë¡ľ
ëĲĺ ê³ł
ìķĮ ë©´
ìķĮ ì½©ëĭ¬ì½©
ìĹ¬íĸī ì§Ģ
ìĹ¬íĸī ìĿĦ
Ġê·¸ë§Į ëĳĲ
Ġê·¸ë§Į íģ¼
Ġìķ½ ìłĲ
íķĺë£¨ íķĺë£¨
íķĺë£¨ íķĺë£¨ê°Ģ
ĠìķĦíĮĮ ìļĶ
ĠìķĦíĮĮ íķĺê³ł
ĠìķĦíĮĮ íķĺëĭ¤ê°Ģ
ĠíĴĢ ê³ł
ĠíĴĢ ìĸ´ìķ¼
Ġë§Ľ ëĤľ
Ġëĭ¬ëĿ¼ ì§Ī
Ġëĭ¬ëĿ¼ ì§ĢëĬĶ
ĠìĻĢ ìļĶ
Ġìļ´ ìĿ´
íıŃ ë°ľ
ĠíĿĺë ł
ĠíĿĺë ¦¬ìĦ¸ìļĶ
Ġì±Ļê²¨ ì£¼ìĦ¸ìļĶ
Ġë³Ħ ê±°
Ġì¶Ķì²ľ ëĵľëł¤ìļĶ
Ġê·¸ë¦¬ ìļ¸
ê³µë¶Ģ íķĺëĬĶ
ê³µë¶Ģ íķĺê¸°
Ġë§ŀëĬĶ ê±°
Ġë¹ł ë¥¸
Ġì¦Ĳ ê²ģ
Ġì¦Ĳ ê±°ìļ¸
ë³¸ ìĿ¸ìĿ´
Ġë§ĺ ìĿĦ
Ġë§ĺ ê°Ļì§Ģ
ĠìķĦë¬´ ëĬĶ
ĠìķĦë¬´ ë¦¬
ĠìķĦë¬´ ëŀĺëıĦ
ëĳ ¬ë
Ġê°Ī ê¶Ī
Ġëĭ¤ë ıħìĹ¬
Ġë§Ĳíķ´ ìķ¼ì§Ģ
Ġë§Ĳíķ´ ë³´ëĬĶ
Ġê°Ģìł¸ ì£¼ìĦ¸ìļĶ
Ġê°Ģìł¸ ê°Ģë©´
Ġê°Ģìł¸ ìĻĶëĭ¤
ìļ´ëıĻ ìĿĢ
íķĺë©´ìĦľ ëıĦ
ëª» íķľ
ëª» íķĺê³ł
Ġì£½ ê²łìĸ´
ĠëĤ¨ìŀĲìķł ëŀĳ
ĠìĦ¸ ìĽĮ
ëª¸ ìĹĲìĦľ
ëª¸ ê³¼
ëª¸ ìĤ´
Ġë´ īìĤ¬íĻľëıĻ
ĠìŀĶ ìĨĮë¦¬
ìĬ¬ íĶĶ
ìĬ¬ ì©į
ĠìłĲ ìĭ¬
ëĤ¨ì¹ľ ìĿ´ëŀĳ
Ġê³¼ ìĿ¼
ëŀĢ ëĭ¤
Ġíķľëĭ¬ ìĿ´ìĹĲìļĶ
ĠëĦĺ ìĸ´
ĠëĦĺ ê²Į
ĠëĦĺ ìĿĢ
Ġìŀ¬ë¯¸ ìĹĨ
ì²« ìĤ¬ëŀĳìĿ´
ĠëĤĺê°Ģ ì§Ģ
Ġê¸¸ ìĿĦ
ĠìĤ´ê³ł ìĭ¶ìĸ´
ê±´ê°ķ íķľ
ê±´ê°ķ íķĺê²Į
ĠíĻķìĿ¸ íķ´
ìķĪë Ĳ
ìķĪë Ĳľ
Ġìŀ¥ ìłĲ
Ġìŀ¥ ê±°ë¦¬
Ġìŀ¥ ìłĲìĿĦ
ì£¼ë įĺ
íĸ¥ ìĪĺ
Ġìĺ¤ëŀĺ ìĺ¤ëŀĺ
Ġê·Ģì°® ëĭ¤
Ġê·Ģì°® ê²Į
ëĭ¬ë ŀĺ
ëĭ¬ë ł¥
ëĭ¬ë ¦¬ìĦ¸ìļĶ
ĠìĹ¬ìŀĲì¹ľêµ¬ íķľíħĮ
ĠìĥģíĻ© ìĿ¼
íıī ìĺ¨
ì²ĺìĿĮ ìĿ´
ê°Ķ ëĭ¤
ìŀħ ëĥĦìĥĪ
ìłģìĿ´ ë©´
Ġìļ© ëŁī
ĠìĬ¬ íĶĶ
ĠìĬ¬ ì©į
ĠìŀĬìĸ´ ë²Ħë¦¬ëĬĶ
Ġëĸ¨ìĸ´ ì§Ĳ
ë°ĺ ê°ĳìĬµëĭĪëĭ¤
ìĥģëĮĢë°© ìĿĢ
Ġì§ĢëĤ´ ìļĶ
ëª© ìĿĦ
ë¹ł ë¥¸
°Ľ ê³ł
Ġë§¤ ëł¥ìĿĦ
ĠìĤ¬ëŀĮëĵ¤ íķľíħĮ
ë¶Ī ê¸Ī
ë¶Ī íĥĢ
ĠìĹ°ìĬµ íķ´
ĠìĹ°ìĬµ íķĺê³ł
Ġì§Ģê¸Ī ìĿ´ëĿ¼ëıĦ
ë¯¸ëł¨ ìĿĢ
Ġì£¼ë ł¤ê³ł
Ġê´Ģê³Ħ ëĬĶ
Ġê´Ģê³Ħ ëıĦ
ĠìĽĥ ê³ł
ĠìĽĥ ìĿĦ
ì¹ľêµ¬ëĵ¤ ìĿĢ
Ġìĭłê²½ìĵ° ìĿ´ëĬĶ
Ġêµ¬ ì²´ìłģìľ¼ë¡ľ
ìĸ´ëĸ»ê²Į ëĵł
Ġë¬¸ìłľ ìĹĲ
Ġë¬¸ìłľ ìĿ¸ê°ĢìļĶ
Ġíĭ° ëĤĺëĤĺ
Ġì´ ĿíļĮ
ëĤ¬ë įĶëĭĪ
Ġíŀĺ ìĿĢ
Ġíŀĺ ê²¨
Ġê°ĸ ìŀĲëĬĶ
Ġì¢ĭìķĦíķł ê¹ĮìļĶ
ĠëģĬ ìĸ´
ĠëģĬ ëĬĶ
ĠëģĬ ê¸°
ĠëģĬ ëĬĶê²Į
ĠëģĬ ìĸ´ìķ¼
ĠëĲĺìĹĪ ëĬĶì§Ģ
ì´ īíķĺëĬĶ
Ġë§Īìĭľ ê¸°
Ġê²ĥìĿ´ ëĵł
Ġë³´ëĬĶ ê±´
ìĨĲ ìľ¼ë¡ľ
ìĨĲ ìŀ¡
ìĨĲ ê°ĢëĿ½
ìĨĲ ìĪĺê±´
íĹ¤ìĸ´ì§Ģê³ł ëĤĺìĦľ
Ġìĥģê´Ģ ìĹĨìĿ´
íı¬ ê·¼íķľ
!! !
Ġë§Ŀ íķľ
Ġì§ģ íĽĦ
ìĽł ëįĺ
ë¦¬ì§Ģ ë§ĪìĦ¸ìļĶ
ĠìłķëıĦ ìĹĲ
Ġëª¨ìĬµ ìľ¼ë¡ľ
íĹĪ íĹĪ
Ġì§ĿëħĢ ë¥¼
Ġëĭµëĭµ íķł
Ġëĭµëĭµ íķłê±°ëĿ¼
Ġëĵ£ ëĬĶ
Ġë³Ħë¡ľ ëĦ¤ìļĶ
Ġë³Ħë¡ľ ìŀĦ
Ġê¿ °
Ġê¿ Ķ
Ġê°Ķ ëĤĺ
Ġê°Ķ ëĬĶì§Ģ
ĠíĹ¤ìĸ´ì§Ģ ìĦ¸ìļĶ
ĠíĹ¤ìĸ´ì§Ģ ëĦ¤
ĠíĹ¤ìĸ´ì§Ģ ëĬĶê²Į
ĠìĿ¸ìłķ íķĺëĬĶ
ĠìĿ¸ìłķ íķĺìĦ¸ìļĶ
ĠìĿ¸ìłķ íķ´ì£¼ìĦ¸ìļĶ
ê³łë°± ìĿĦ
ê³łë°± ìĿĢ
ê³łë°± íķľ
ĠíĤ¤ ê°Ģ
ĠìĭĿ ìĿĢ
ĠìĭĿ ìĤ¬
ĠìĭĿ íĺĢ
ĠìĭĿ ìĹĪìĸ´
Ġì§Ģì¼ľ ì£¼ìĦ¸ìļĶ
ĠìĤ´ìķĦ ê°ĢëĬĶ
ĠìĤ´ìķĦ ìķ¼ì£ł
ĠìłĦíĻĶ íķ´ë³´ìĦ¸ìļĶ
ĠíĿĲ ëł¤
ĠíĿĲ ì§Ģë¶Ģì§Ģ
Ġê¸°ëĭ¤ëł¤ ìķ¼
Ġë©ĭ ì§Ī
Ġëĭ¤ê°Ģê°Ģ ëıĦ
ìŀĶ ì¹ĺ
ë§ĺ ì²ĺëŁ¼
íķĺìĭľ ê²łìĸ´ìļĶ
ĠíŀĺëĤ´ ì§Ģ
Ġê¸°ëĮĢ ëĬĶ
ĠíķĻ ê¸°
ĠíķĻ ìĥĿ
ĠìĹ¬ì¹ľ ìĹĲê²Į
ìļ°ë¦¬ ì§ĳ
Ġë°ĽìķĦëĵ¤ìĿ´ ìĦ¸ìļĶ
ĠëĦĪ ìĿĺ
ĠëĦĪ ìĹĲê²Į
íķĳ ê³Ħ
Ġë°ĺë ĮĢë¡ľ
Ġë°ĺë ħĦ
Ġë°ĺë ĮĢëŀĺìļĶ
Ġì°į ìĹĪëĦ¤
Ġì°į ìĸ´ì£¼ìĦ¸ìļĶ
ĠëĲĺìĸ´ ê°ĢëĦ¤
ĠëĲĺìĸ´ ê°Ģê¸¸
ĠìŀĬíĺĢ ì§Īê¹Į
ì³¤ ëĭ¤
Ġíģ¬ ìĭľê²łìĸ´ìļĶ
Ġíģ¬ ê¸°ë§Įíģ¼
ĭĪ ê¹ĮìļĶ
ìĦ¤ ë§Ī
ìĦ¤ ê³Ħ
ê·¹ ìĿ´
ë§Īì§Ģë§ī ìĿ´
ë§Īì§Ģë§ī ìĿĦ
Ġíŀĺëĵ¤ìĹĪ ìĿĦíħĲëį°
ĠìĿ¸ìĥĿ ìĿĢ
ĠìĿ¸ìĥĿ ìĿĺ
ĠìĿ¸ìĥĿ ìĿ´ìĹĲìļĶ
Ġë³µìŀ¡ íķł
Ġë³µìŀ¡ íķľê°Ģë´ĲìļĶ
Ġë³µìŀ¡ íķľê°ĢìļĶ
ìµľ ìķħ
ìµľ ìĦłìĿĺ
ìµľ ëĮĢíķľ
łĢ ìĸ´
Ġì¢ħ ì¢ħ
Ġëĳ Ķ
ëĭ¤ëĭĪ ëĬĶ
Ġì§ľ ìŀ¥ë©´
ìĿ¸ìĹ°ìĿ´ ëĿ¼ë©´
ê·¸ë¶Ħ ìĹĲ
ê·¸ë¶Ħ ëıĦ
ìĤ¬ê·Ģ ëĬĶ
ĠëĬĲê»´ ë³´ìĦ¸ìļĶ
ìķĦì¹¨ ë§Īëĭ¤
Ġëª© ìłģ
Ġìĺ¨ ìłĦíŀĪ
ĠìŀĲì²´ ë¥¼
ĠìķĮê²Į ëĲĺë©´
íĹ¤ìĸ´ì§Ģ ìĦ¸ìļĶ
íĹ¤ìĸ´ì§Ģ ëĬĶê²Į
íĹ¤ìĸ´ì§Ģ ìŀĲëĬĶ
ĠíķĦìļĶíķľ ê°ĢìļĶ
íĺĦìĭ¤ ê³¼
íķĦ ë¦Ħ
ìļķ íĥķ
ê°Ģì¡± íķľíħĮ
ë§Īë ĶĶ
ë§Īë ¬´ë¦¬
ĠìĿ´ê²¨ ëĤ´ê³ł
Ġìłĳ ì´īíķĺëĬĶ
ë°¤ ìĿ´
ë°¤ ìĹĲ
ë°¤ ë§Į
ë°¤ ìĥĪ
ĠëĤĺìĺ¤ ê³ł
ĠëĤĺìĺ¤ ìĦ¸ìļĶ
ĠëĤĺìĺ¤ ëĿ¼ê³ł
ìĸ¸ìłľ ëĵł
ì¹´íĨ¡ íķł
ìłķìĭł ê³¼
Ġëĭ¤ë¥¼ ê±°ìĺĪìļĶ
ëıħ íķĺê³ł
ĠìĤ¬ê· Ģëįĺ
ìĬ¤íĬ¸ëłĪìĬ¤ ê°Ģ
ìĬ¤íĬ¸ëłĪìĬ¤ ë¥¼
ë¯¿ ëĬĶ
ë¯¿ ìĿĮìĿĦ
ë¯¿ ê¸°ì§Ģ
ê°Ĳìłķ ìĿĺ
Ġìī¬ìĸ´ ê°ĢëĬĶ
Ġìī¬ìĸ´ ê°ĢìĦ¸ìļĶ
Ġìī¬ìĸ´ ê°ĢëıĦ
ìĿ´ëĿ¼ê³ł ëĬĶ
Ġìŀĳ ìķĦì§Ģ
ë§ŀ ìķĦìļĶ
ë§ŀ ì¶°
ë§ŀ ì¶¤ë²ķ
Ġì°© íķľ
ĠìķĮë°Ķ ìĥĿìĿ´
ĠíĹ¤ìĸ´ì§Ĳ ìĿ´
íķĻêµĲ ìĹĲ
ĠëıĦìĻĢ ì¤ĺìķ¼
ĠíĹ·ê°Īë ¦¬
ĠíĹ·ê°Īë ł¤
ĠíĺĦìĭ¤ ìĿĺ
?? ?
ìĿ¼ë °©
ìĿ¼ë ¶Ģë¡ľ
ĠìĿ½ ìĸ´
ĠìĿ½ ìĶ¹
ĠìĿĺë¯¸ ìĿ¼ê¹Į
ì¹ĺë £Į
ìĭłê²½ìĵ° ê³ł
ëħĲ ìĿĦ
Ġë¨¹ìľ¼ë©´ ìĦľ
ĠìĥģëĮĢ ëĬĶ
ìĸ´ëĬĲ ìĥĪ
ĠëĵľëĬĶ ê±¸ë¡ľ
ëª¨ëĵł ê²Į
ĠíĹĪ ìĥģìĿ¼
ë©Ķ ë¦¬
ĠíĿĺëłĢ ëĤĺë´ĲìļĶ
Ġì§ľì¦Ŀ ëĤ¨
Ġì§ľì¦Ŀ ëĤĺëĦ¤
ĠìķĦíĶĶ ìĿĦ
ĠìķĦíĶĶ ìĿĢ
ĠìķĦíĶĶ ëıĦ
Ġë§ĪìħĶ ìļĶ
Ġë§ĪìħĶ ë³´ìĦ¸ìļĶ
ĠìļĶ ë¦¬
ĠìļĶ ì²Ń
Ġì£¼ë§Ĳ ìĹĲ
Ġì£¼ë§Ĳ ìĿ´ëĦ¤ìļĶ
ìħĺ ìĿĢ
Ġê´Ģë¦¬ íķĺëĬĶ
Ġë¶Ģì¡± íķľê°Ģë´ĲìļĶ
Ġë¶Ģì¡± íķľê°Ģ
ĠìķĪëĲĺ ê²łì£ł
ìĤ¬ëĬĶ ê²Į
ìĺ¤ëĬĺë ¡ľ
ë´Ħ ìĿ´
ĠìĦ¤ëłĪ ëĬĶ
Ġë¶Ļìŀ¡ ëĬĶ
ĠëĶ± ìĿ´ì£ł
ê¶ģê¸Ī íķĺë©´
ê¶ģê¸Ī íķľê²Į
ĠìĶ ¨
ĠìĶ ģëĭĪëĭ¤
ê³łìĥĿ íĸĪìĸ´ìļĶ
ìĽĥ ìľ¼ë©´
ìĽĥ ê²¨
Ġìĸ´ëłµ ì§Ģ
ìĻ¸ êµŃìĸ´
ëħ¸ ëĬĶ
ëħ¸ëł¥ íķĺëĬĶ
ëħ¸ëł¥ íķ´ëıĦ
íĹ¤ìĸ´ì§Ĳ ìĿĦ
ĠìĨĶì§ģ íķĺê³ł
ë¨¼ ì§Ģê°Ģ
Ġê¹Ĭ ìĹĪëĤĺë´ĲìļĶ
íĻķìĭ¤ íŀĪ
ëĶ°ëľ» íķł
Ġì¡´ì¤ĳ íķ©ëĭĪëĭ¤
Ġì¡´ì¤ĳ íķ´ì¤¬ìľ¼ë©´
ìĿ´ë²Ī ëĭ¬
ĠìĿµìĪĻ íķ´ìł¸
Ġë§ĲìĿ´ ìĺĪìļĶ
ìĥģëĮĢ ìĹĲ
ë²ł ë¦¬
ë²ł ëŀĢëĭ¤
Ġìļ¸ ê³ł
Ġìļ¸ ìĸ´ëıĦ
Ġíķĺìħ¨ ëĤĺë´ĲìļĶ
Ġìĭłê²½ ìĿĦ
ìľĦë¡ľ ë¥¼
ĠëĪĦêµ¬ ìķ¼
ëĵ ¬
ìĿĺë ³Ħ
ì§§ ê²Į
ì§Īë ł¤ê³ł
ê²ģ íķľ
ê²ģ ëĭĪëĭ¤
íķ´ì¡Į ëĤĺë´ĲìļĶ
Ġíİ ¸ë¦°
Ġíİ ĺë©Ķ
ĠìĹ´ íĿĺ
íķľê±° ëĭĪ
ìĬµê´Ģ ìĿ´
Ġíĸ¥ ìĪĺê°Ģ
íĳ ¸
ìĹ¼ íĥĲíķĺì§Ģ
íķ´ì¤ Ħê²ĮìļĶ
ëĤĺìĿ´ ìĹĲ
ĠëĤ¨ìŀĲì¹ľêµ¬ ìĻĢ
ìĬ¤ìĬ¤ë¡ľ ìĹĲê²Į
Ġìłķìĭł ìłģ
Ġìłķìĭł ì°¨
Ġë²Ĺ ìĸ´
Ġë²Ĺ ê²¨
Ġëĸ¨ëł¤ ìĦľ
ìį¸ë ıĦ
ìį¸ë ħĢëŀĳ
Ġë´¤ ìĬµëĭĪëĭ¤
ì´Ī ê°Ģ
ì´Ī ìĹĲ
Ġê¾¸ ì£ł
íĩ´ê·¼ íķĺê³ł
ĠìĮĵ ìĿ¸
ĠìĥĢ ëĭ¤
ĠìĥĢ ëĬĶëį°
íķľëĭ¤ ëĬĶëį°
íķľëĭ¬ ìĿ´
íķľëĭ¬ íķĺê³ł
ĠìĥĿê¸° ê¸¸
ì£¼ë§Ĳ ìĿ¸ëį°
ì£¼ë³Ģ ìĹĲ
ì£¼ë³Ģ ìĿĺ
ĠëĤĺìĺ¨ ëĭ¤
ê·¸ëŁ¬ ëĭĪê¹Į
íĹ¤ìĸ´ì¡Į ìĬµëĭĪëĭ¤
ì°¨ëĭ¨ ëıĦ
ĠìĿ¸ìĹ° ìĹĲ
ĠìĿ¸ìĹ° ìĿ´ì£ł
Ġì°¨ëĭ¨ íķĺìĦ¸ìļĶ
ĠëıĦìłĦ ìĿ´
ĠëıĦìłĦ íķ´ë³´ìĦ¸ìļĶ
Ġì§ĳì°© íķĺê²Į
Ġë©Ī ì¶ľ
Ġë°ĽìķĦëĵ¤ ìĿ¼
Ġë°ĽìķĦëĵ¤ ìĹ¬ë³´ìĦ¸ìļĶ
ì²ŃìĨĮ ëĬĶ
Ġë°°ìĽĮ ë³¼ê¹Į
Ġë°°ìĽĮ ë³´ê³ł
Ġë°°ìĽĮ ê°ĢëĬĶ
ĠìĿ´ìĥģíĺķ ìĿ´
Ġì¦Ŀ ê±°
Ġì¦Ŀ ìĺ¤
ĠìĤŃìłľ íķĺëĬĶ
ë¶Ģëª¨ëĭĺ ê»ĺ
ê¸°ëĮĢ íķĺì§Ģ
ĠìĪ¨ ë§ī
ìĿ¸ê±° ì£ł
Ġì¢ĭìķĦíķľ ëĮĢ
ìłķë¦¬ íķĺëĬĶ
ìĥģíĻ© ìĹĲ
ëħ¸ëŀĺ ê°Ģ
Ġë¬´ìĹĩ ìĿĦ
ë°©íķĻ ìĿĢ
ĠìĦľìļ´ íķĺëĭ¤ê³ł
Ġê¿ĪìĹĲ ëĤĺ
Ġíıī ê°Ģ
Ġíıī ìĥĿ
Ġíıī ìĺ¨
ìŀ¬ë¯¸ ìŀĪëĬĶ
ĠíĨ¡ ìĿĦ
Ġìĸĺê¸° íķ´
Ġìĸĺê¸° íķĺì§Ģ
íĳľíĺĦ íķĺì§Ģ
íļ¨ ëıĦ
ĠëĮĢíĻĶ íķ´ë³´ìĦ¸ìļĶ
ê²°ìłķ íķł
ëģĶ íķĺê²Į
ë©° ì¹ł
Ġë¶Īíİ¸ íķľ
ì»¤íĶĮ ë§ģ
Ġì´Ī ì½ľë¦¿
Ġë°Ķê¿Ķ ìķ¼ì§Ģ
Ġë°Ķê¿Ķ ë³¼ê¹Į
ĠëĳĲëł¤ìĽĮ íķĺì§Ģ
Ġê¹Įë¨¹ ìĹĪìĸ´
Ġì²ĺìĿĮ ìĹĲ
ĠëĬĺ ìĸ´
ĠëĴ¤ ìĹĲ
ĠëĴ¤ ìĪŃìĪŃ
ìĺ· ìĿĢ
ìĺĪë ¹Ħ
ìĺĪë ŀĳ
íķłëķĮ ëĬĶ
Ġì¤ĺ ìķ¼
ìĥģì²ĺë ¥¼
ìĹ°ìĺĪ ìĿ¸ëıĦ
ê±±ìłķ ëĲĺê²łìĸ´ìļĶ
Ġë¬´ëĦĪ ì¡Įìĸ´
íģ° ìĿ¼ìĿ´ëĦ¤ìļĶ
ê´Ģê³Ħ ë¥¼
Ġì°¨ìĿ´ ìĿ¸
íĥĪ ê¹Į
íĥĪ ì¶ľ
ĠìĦ¤ëł Ĳ
ĠìĦ¤ëł ľ
Ġìĸ´ìļ¸ë¦ ´ê¹Į
Ġê½ Ŀ
ëĿ¼ë Ħ¤
ìĭľìŀĳ íķĺê¸°
ĠìĺĨ ìĹĲìĦľ
Ġë²ł íĦ°ë¦¬ê°Ģ
Ġë¬´ìĦŃ ëĭ¤
Ġë¬´ìĦŃ ëĦ¤
Ġë¬´ëİĮ ì§Ī
Ġì¡°ìĸ¸ ìĿ´
ĠíĽĦëł¨ íķĺëĦ¤
íĹĽ ëĲľ
Ġëħ¸ ìŀ¼
ĠìĤ¬ëĿ¼ ì§Ħ
ìŀ¬ë°Į ëĬĶê±°
Ġë°ĶëĢĮ ìĸ´
Ġê´´ë¡Ń ëĭ¤
ĠíĹĪìłĦ íķł
ĠíĹĪìłĦ íķĺê²łìĸ´ìļĶ
Ġë¬ ¸ëĵĿ
Ġíĳľ ì¶ľ
íķĺëĬĺ ìĿĦ
Ġê²ł ì§Ģ
ĠìĿ´ìļ© íķĺëĬĶ
Ġëªħ ìłĪ
ë©´ìłĳ ë§Į
Ġê·¸ëŁ¬ ì§Ģ
ĠìĤ¬ìĭ¤ ìĹĲ
ìĸ´ëĶĶ ìĹĲìĦľ
ĠëĤłìĶ¨ ëıĦ
Ġë¹ĦìĬ· íķĺì£ł
ĠëĬĲëł¤ ì¡Įìĸ´
Ġëª°ëŀĲ ìĸ´ìļĶ
ĠíĹĪë ¦¬
ĠíĹĪë Ŀ½
íĶ¼ê³¤ íķ´ìĦľ
ĠìķĪëĲĺë Ĥĺ
ĠìķĪëĲĺë Ĥĺë´ĲìļĶ
Ġë°°ëł¤ íķ´ë³´ìĦ¸ìļĶ
Ġë°°ëł¤ íķ´ìķ¼
Ġë°°ìļ° ìĦ¸ìļĶ
Ġë¶Ģëª¨ëĭ ĺìĿ´
Ġë¶Ģëª¨ëĭ ĺìĿĦ
Ġë²Ħëł¤ ìķ¼ì§Ģ
ĠíĮĶ ìķĦë³´ìĦ¸ìļĶ
ê´ľì°®ìķĦ ì§Ī
ê´ľì°®ìķĦ ì§Ģê³ł
ĠìĬ¬íĶĦ ëĭ¤
ĠìĬ¬íĶĦ ëĦ¤ìļĶ
ëĸł ëĤĺê°Ħ
ĠìĬ¤íĥĢìĿ¼ ìĹĲ
²Ħ ëł¸ìĸ´
ìĿ´íķ´ íķĺê¸°
ìķĦëĭĪ ê¸¸
ìķĦíĮĮ íĬ¸
ë§¤ë ĦĪ
ĠìķĬìķĺ ìĿĦ
Ġê¸°ìļ¸ ìĹ¬ë³´ìĦ¸ìļĶ
Ġì§Ģì³Ĳ ìļĶ
ĠìĿ¼ì£¼ìĿ¼ ìĿ´ëĦ¤
Ġì¹Ńì°¬ íķ´ë³´ìĦ¸ìļĶ
ë¬´ìĹĩ ìĿĦ
Ġìĥģíĥľ ìĿ¸
ìĸ´ëĳĲ ìĦ¸ìļĶ
íĶĦë¡ľ íķĦ
Ġì°¨ë¶Ħ íķĺê³ł
Ġì°¨ë¶Ħ íķĺê²Į
ì§ĳìķĪ ìĿ¼ìĿĦ
Ġê°ĢëĬ¥íķł ê¹ĮìļĶ
íĴĢ ìĿĺ
Ġê²¬ëİĮ ë´ĲìļĶ
ìį¸ëħĢ íķľíħĮ
ìŀĺëª» ëĲľ
Ġìĩ¼íķĳ íķĺê³ł
Ġìĩ¼íķĳ ëª°
ìķ¡ ìħĺ
ìķĦëĭ Ĳ
Ġê°Īë ĵ±
ìŀĲì¡´ ê°Ĳ
ë§ĮëĤĺ ê¸°ë§Į
Ġìĺ¬ë ŀĲìĸ´
íķĺê³łìĭ¶ ìĿĢëį°
Ġëĭ¤ëĭĪ ëĬĶ
Ġì°Į ì§Īíķľ
ĠìŀĲì¡´ ê°ĲìĿĦ
Ġë¹¼ ìķĹ
ĠëĶ°ëľ» íķľ
Ġë¯¸ì¹ĺ ê²łëĦ¤
ìŀĬíĺĢ ìł¸
Ġì¹ľêµ¬ëĵ¤ ìĿĦ
Ġì¹ľêµ¬ëĵ¤ ìĿ´ëŀĳ
ĠëĪĦêµ¬ë ³´ëĭ¤
ĠëıĮìķĦìĺ¤ ì§Ģ
ĠìĦ¸ìĥģ ìĹĲ
ĠìĦ¸ìĥģ ìĹĲìĦľ
ĠìĦ¸ìĥģ ìĿ´ì£ł
ĠíĨµë³´ íķĺëĬĶ
Ġëľ¨ ëĬĶ
Ġì±ĦìĽĮ ë³´ìĦ¸ìļĶ
Ġì±ĦìĽĮ ì¤Ħê²ĮìļĶ
sns ë¥¼
ëĮ Ħ
ĦëŁ¬ ìĽĮ
ĠëĽ° ìĸ´
Ġê·¼ êµĲ
íĺĶ ìĸ´
Ġê°Ģê¹Į ìĽĮì§Ī
ë¡ľìĽĮ ì§ĢìĦ¸ìļĶ
ìķłë§¤ íķľ
ĠìŀĺìĥĿ ê²¨
ë§ĲìĶĢ íķ´ì£¼ìĦ¸ìļĶ
ĠìĦłíĨ¡ ìĿĦ
Ġì¶¥ ê³ł
ĠìĽĶ ìļĶìĿ¼
ì½ľ ë¡Ŀ
Ġì±ħ ìĿĦ
Ġë¬¼ìĸ´ë³´ ê±°ëĤĺ
Ġìĵ¸ ìĵ¸
Ġëĥī ë©´
Ġìĥģì²ĺë°Ľ ì§Ģ
Ġìĥģì²ĺë°Ľ ê²Į
ĠíĿĶëĵ¤ ë¦¬ì§Ģ
ëĥīìŀ¥ê³ł ìĹĲ
ëĦĪë ¥¼
Ġìª ½
Ġìª Ħ
Ġëį ¥ëĭ¤
Ġëĵł ëĵł
ìĿ´íĺ¼ ìĿĦ
ìĸ´ìŀ¥ ìĿ¸ê±°
ĠìķĦê»´ ì£¼ìĦ¸ìļĶ
Ġë°Ķë¹ł ìĦľ
Ġìŀĺíķ´ ì£¼ë©´
ëª° ëŀĺ
ĠëĤ´ëł¤ëĨ ĵê³ł
Ġì¤ĳê°Ħ ìĹĲ
ê·¸ê²ĥ ìĿ´
ê·¸ê²ĥ ë§Įíģ¼
Ġì¶© ìĭ¤
ĠìłĦë¶Ģ ëĬĶ
Ġì¡°ê¸ī íķ´
ëįĶëĿ¼ êµ¬ìļĶ
Ġì²´ ìľ¡ëĮĢíļĮ
Ġëĭ¹ìĹ° íķ´ìļĶ
Ġëĭ¹ìĹ° íķĺì£ł
Ġìĭłì²Ń íķ´ë³´ìĦ¸ìļĶ
ë¯¸ìĦ¸ë¨¼ ì§Ģê°Ģ
ìĿ´ëŁ¬ ëĭ¤
ëĨĢìĿ´ ê³µìĽĲ
ì±Ħ ê¸°
ĠëıĻìĥĿ ìĿ¸ëį°
Ġì·¨ë¯¸ ìĥĿíĻľ
ĠìĿĺì§Ģ íķ´ë³´ìĦ¸ìļĶ
ĠíĿĺëŁ¬ ê°Ī
Ġë¹łë¥´ ê²Į
Ġëĭ¤ëĲĺ ê°ĢëĦ¤
Ġëĭ¤ëĲĺ ìĸ´ê°ĢëĦ¤
ë¬¼ë¦¬ ìłģìĿ¸
ì»´ íĦ°ê°Ģ
ĠíļĮìĤ¬ ìĹĲìĦľ
Ġëĭ´ë°° ë¥¼
Ġê°Ģì¹ĺê´Ģ ìĿ´
Ġê°Ģì¹ĺê´Ģ ìĹĲ
¥´ ëª¬
ë¿Ĳ ìĿ´
ì¿ µ
ì¿ ł
Ġë§¤ë ª°
ĠëĤ¬ ëĤĺë´Ĳ
ìĹ¬ê¸°ê¹Įì§Ģ ìĺĢìĿĦ
ìŀ¥ëĤľ ìĬ¤ëŁ¬ìļ´
ìĬ¤íĤ¤ ìŀ¥
ë¯¸ë ģĦëŁ¬
ëĮĢíĻĶ ë¡ľ
ĠíķĺëĤĺë Ŀ¼ëıĦ
ìķĪíĥĢê¹Ŀ ëĦ¤ìļĶ
ĠìĥģëĮĢë°© ìĿĦ
ìĺ¤íķ´ ê°Ģ
Ġíĺ¸ë ¥´ëª¬
ì°¨ë¶Ħ íķĺê²Į
ë¹¨ ëŀĺ
ìŀĬì§Ģ ëª»
ê°ĳìŀĳ ìĬ¤ëŁ¬ìļ´
Ġì·¨ì§ģ íķł
Ġë§ĮëĤ¬ë įĺ
Ġê¹¨ëĭ¬ ìĿĮ
ĠìĿ¼ìĸ´ëĤĺ ìķ¼
ìĸ´ì©Ķ ìĪĺ
Ġë³Ģëįķ ìĬ¤ëŁ½ê²Į
ë¸Ķ ë£¨
ë¸Ķ ëŀĻ
ìŃ ī
Ġë¡ľ ë§¨
Ġë¦¬ ìķ¡ìħĺ
ê³¼ë ¥
ê³¼ë ¥¼
Ġë°± ìĪĺ
ê°Ħëĭ¨ íķĺê²Į
Ġë°Ķê¾¸ ëĬĶ
Ġë°Ķê¾¸ ìĦ¸ìļĶ
ìĭ¬ìĭ¬ íķľëį°
Ġì¤ĳëıħ ìĿ¸ê°Ģë´Ĳ
Ġë¬´ëį¤ëį¤ íķ´ì§ĢëĬĶ
ìļ¸ìłģ íķľ
ĠìĨĮë¬¸ ìĿ´
ĠìĽ¬ ìĪĺëĦ¤ìļĶ
ë°©ë²ķ ìĿ´
Ġíķ¨ê» ĺë©´
ê¼¼ ê¼¼
Ġê·¸ë¦¬ìļ´ ê°Ģë´ĲìļĶ
Ġëķ¡ ê¸´ëĭ¤
ë¨¸ë¦¿ ìĨįìĿ´
ìĺģíĻĶê´Ģ ìĿ´ëĤĺ
ëĵ± ìĤ°
ĠíĹĪë¬´ íķĺëĦ¤
ëĴ· íĨµìĪĺ
ĠìĽĶê¸ī ìĿĢ
Ġëĭ¤ëĭĲ ê¹Į
íĽ Ī
íĽ Ķì³Ĳ
ìĸ´ì°Į íķ´ìķ¼
ë³´ëł¤ êµ¬
Ġì¢ĭìķĺ ìĿĦíħĲëį°
Ġìĭ¬ë¦¬ ìĿ¼ê¹ĮìļĶ
Ġëĭ¬ëł¤ ìŀĪê²łì£ł
ìłľìŀĲë¦¬ ìĹ¬ëıĦ
ĠìķĬìķĺë Ħ¤ìļĶ
ĠìķĬìķĺë ĭ¤ë©´
Ġëĭ¤ìĸĳ íķľ
Ġì°Ķ ëł¤
ĠìĭľíĤ¤ ìĦ¸ìļĶ
ĠìłķíĻķ íķĺê²Į
Ġëª»íĸĪ êµ°ìļĶ
ĠëģĪ ìĿĦ
ĠëģĮ ì§Ģ
ë¬´ìĭľ ëĭ¹íķĺëĬĶ
ëĭ¹ìĹ° íķľ
ëĳĲë²Ī ì§¸
ë¹Ľ ìĿ´
Ġê·ĢìĹ½ ì£ł
Ġëĸłìĺ¤ ë¥´ëĬĶ
ìľĦíĹĺ íķľ
Ġë¶ĦìľĦ ê¸°ê°Ģ
ĠíıŃ ìĭĿ
ĠëıĮìķĦìĺ¬ ê¹Į
ĠíĴĢëł¸ ê¸¸
Ġë¹łìł¸ ëĤĺìĺ¤ìĦ¸ìļĶ
ĠíĶĦë¡ľ íķĦ
Ġìłĳìĸ´ëĳĲ ìħĶìļĶ
ĠìĺģíĻĶë³´ ëŁ¬
Ġíĥľìĸ´ëĤ¬ ìĿĦê¹Į
Ġêµ¬ë©į ìĿ´
ê¹¨ëģĹ ìĿ´
íĨłëĭ¥ íĨłëĭ¥
ë±ĥ ìĤ´
Ġìľłíļ¨ê¸°ê°Ħ ìĿ´
ëĬĲ ëĤĮ
Ġëł Ī
Ġëł Į
ìĸ´ë¦° ìĿ´ì§ĳ
ì§Ģíķĺì²ł ìĹĲ
ê¸°ë³¸ ìľ¼ë¡ľ
Ġê²© ëł¤
Ġíķ´ì£¼ë©´ ìĦľ
ë°ĸ ìĹĲìĦľ
Ġê¸¸ëŁ¬ë ³´ìĦ¸ìļĶ
Ġê¸¸ëŁ¬ë ³¼ê¹Į
ìĹ¬ìļ° ê°ĻìĿĢ
ìĹ¬ìĤ¬ì¹ľ ìĿ´ëŀĳ
Ġì§ĢëĤ¬ ìĸ´ìļĶ
ĠëĤ¨íİ¸ ìĿ´ëĦ¤ìļĶ
Ġë¯¸ë ģĦëŁ¬
ì¤ĳê³ł ë¡ľ
ê¾¸ë įĺ
Ġíĺ¼ëŀĢ ìĬ¤ëŁ¬ìĽĮ
ì¡°ìļ© íŀĪ
ĠìĿ¸ê¸° ìŀĪëĬĶ
ê²¨ìļ¸ ìĹĲëĬĶ
íĹ¬ìĬ¤ ìŀ¥ìĹĲ
Ġì°¨ë¡Ģ ìĺĪìļĶ
Ġë¹Ī ìŀĲë¦¬
Ġíİ¸ìķĪ íķ´ì§Ī
Ġì§ĳìķĪ ìĿ¼
Ġì§ĳìķĪ ìĿ¼ìĿĦ
Ġê°ĦìĤ¬ íķĺì£ł
Ġë¶Ħëªħ íķĺê²Į
Ġë¶Īê³µíıī íķ´
Ġë§ĮëĤ¬ ìĿĦ
Ġë§¤ëĭ¬ë ł¤
Ġì¶ķë³µ ê³¼
ĠëĤĺëĪĦ ëĬĶê²Į
ìĵ¸ëį° ìĹĨëĬĶ
ĠìĥĪì¶ľë°ľ íķĺìĦ¸ìļĶ
Ġíģ´ëŁ½ ìĿĦ
ë°°ê³łíĮĮ ìĦľ
íģ´ëŁ½ ìĹĲìĦľ
ĠíĹĽíĹĽ íķľê°Ģë´ĲìļĶ
Ġì§Ģê²¨ìĽĮ ì§Ħ
Ġì¥ Ĳ
ĠìħĢ íĶĦ
ì§Ģì¹ł ë§Į
ê°ĢìĬ¤ë ¹Ħ
Ġìķ¡ ìłķ
ĠìĹ® ìĹ¬
íķľìĪ¨ ë§Į
Ġíķ´ì£¼ ëĬĶê²Į
Ġê±¸ëł ¸ìĸ´
Ġê°ĢëĿ¼ ìķī
Ġëĭ¤ë¥ ¸ëį°
Ġë°ĶëĶĶ ë¡ľìħĺ
ì§Ħìĭ¤ë Ĳľ
Ġì§Ģê¸ Īë¶ĢíĦ°
ë§ĪìĿĮìłķë¦¬ íķĺìĦ¸ìļĶ
ê°ĲìĦ± ìłģìĿ´
ĠëĨį ëĭ´
ĠìĥģìĿĺ íķ´ë³´ìĦ¸ìļĶ
ìĸ´ëĳł ìĹĲìĦľ
ĠëģĿìĿ¼ ì¤Ħ
Ġìī¬ë ©´ìĦľ
Ġê°ĢëĬł íķĺì§Ģ
ĠìĨĮë¹Ħ ë¥¼
ĠìĨĮëª¨ ê°Ģ
ĠëıĦìĻ Ģëĵľ
ĠìķłêµĲ ê°Ģ
ê·ĢìĹ¬ ìļ¸
ĠìłľìķĪ íķ´ë³´ìĦ¸ìļĶ
Ġì¶Ķìļ´ ê°ĢìļĶ
ĠíĥĦ ëĭ¤
Ġíĥĵ íķĺì§Ģ
ĠëĳĲë²Ī ì§¸
ĠìĺĪìģĺë ĭ¤
ë²Ħëł¸ ìĬµëĭĪëĭ¤
ê°ķëł¬ íķľ
íĥĪë ª¨
Ġëĸ¨ì³Ĳ ë²Ħë¦¬ìĦ¸ìļĶ
Ġë³Ģíķ´ ê°ĢëĬĶ
ĠìŀĺëĲ ĺëĭĪê¹Į
ĠìĦľíĪ´ ëŁ¬
Ġë¯¸íĻĶ ëĲĺê¸°
Ġìĸ¸ìłł ê°Ħ
Ġëĭ¤ê°Ģìĺ¤ ê³ł
ĠìĿ´ëŁ´ ê¹Į
ĠìľłíķĻ ìĿĦ
ìĪľìĪĺ íķľ
Ġëĭ¨íĺ¸ íķĺê²Į
Ġì´Īë Ŀ¼
ĠìĿ´ìĸ´ëĤĺê°Ģ ëĬĶê²Į
ëħ¸íĽĦ ëĬĶ
íĩ´ê·¼ê¸¸ ìĹĲ
ë°ĽìķĦëĵ¤ ìĹ¬
íĹĪë¦¬ ê°Ģ
ĠìĻ¸ë¡Ń ê³ł
Ġìĺ¤ëŀľ ë§ĮìĹĲ
ĠìĽ¬ìĪĺ ìĺĪìļĶ
ĠìĿµìĪĻíķ´ì§Ģì§Ģ ê°Ģ
ĠìŁģì·¨ íķĺëĬĶ
ì« Ħ
Ĩĵ ì§Ģ
ĪìĬ¤ íħĮë¦¬
Ġìı ŁìķĦ
Ġê¶Įíĥľ ê¸°ê°Ģ
ê°ĸ ì§Ģ
ê°Ģë³ įê²Į
ê°Ģê¹Į ìļ´
Ġíŀ ĪìĬ¤íħĮë¦¬
Ġíĩ´ ê·¼
ê²ĮëĲĺë Ħ¤
Ġë³¼ë ķĮëĬĶ
ì¹ľì²Ļ ëĵ¤
ê±°ìłĪ ìĿĺ
íĺ¼ë °¥
ĠìĥĿê°ģëĤĺë Ħ¤ìļĶ
ĠìĹ°ìĺĪ ìĿ¸
ĠìķĪíĥĢ ê¹Į
ĠìķĪíĥĢê¹Ŀ ëĦ¤ìļĶ
ìķłíĭ ĭíķľ
ĠìķĮê²łìĸ´ ìĦľ
Ġëª¨ìľ¼ ëĬĶ
ë¬´ëª¨ íķľ
ìŀĺìŀĲ ìļĶ
ëĭ¹ë¶Ħê°Ħ ìĿĢ
ĠëĨĢëŀĲ ê²łìĸ´ìļĶ
Ġìľ¡ ìķĦ
ĠìĨĮë¦Ħ ëıĭ
Ġê¹Ģ ìĹĲ
ë¹ĦêµĲ íķĺë©´
ê·ĢìĹ½ ê²łëĦ¤ìļĶ
Ġìĺ¤ëĬ ĺë
ĠíĿ¬ìĥĿ ìĸĳìĿ´
ĠìłľìŀĲë¦¬ ê±¸ìĿĮ
Ġë©° ì¹ł
ĠíĻķë¥ł ìĿ´
íĥĶ ìĸ´
ê²°íĺ¼ìłģëł¹ ê¸°ê°Ģ
ĠìĨįë°ķ ìĹĲìĦľ
ì±ħìŀĦ ì§Ī
ëľ¨ ëģĪ
ĠìĦ¤ëĵĿ íķ´ë³´ìĦ¸ìļĶ
ì²«ìĿ¸ ìĥģìĿĢ
Ġë°Ķê¿¨ ìĸ´
ìµľìłĢ ìŀĦê¸Ī
Ġì¢ħì§Ģ ë¶Ģë¥¼
ê°Ģì¡±ëĵ¤ ê³¼
ìĭłê²½ìĵ°ìĿ´ ëĤĺë´ĲìļĶ
ë¶Ģëĭ´ìĬ¤ëŁ¬ìĽĮ íķĺì§Ģ
ĠìĶ¹ ìĸ´
Ġëĺĳëĺĳ íķ´
ì§Īë»Ķ íĸĪìĸ´
ìĬµê´Ģì²ĺëŁ¼ ìĿĢ
ìĸ´ì©Į ë©´
ĠìŀĲìľłë¡ľ ìĽĮì§Ī
ë°ĽìķĦëĵ¤ìĿ´ ê¸°
Ġê¹İìķĦ ìķ¼ì§Ģ
ĠíĽĪ íĽĪ
ê²¬ëĶĶ ê¸°
Ġíľĺë ĳĺë
ë´īìĤ¬íĻľëıĻ ëıĦ
Ġë¸Įëŀľ ëĵľê°Ģ
Ġìĺ¤ì§Ģëŀ ĸ
įĺëį° ìļĶ
¡ë³ ¶ìĿ´
ëĩ Į
ĭëĳĲ ë¦¬
ĭì§Ģê¸ ĭíķľ
ĺíĥĪ ìĿ´
ìĿ´íĶĮëĿ¼ ìĽĮ
ìķĦëĤł ë¡ľê·¸
ëıĦëĿ¼ ìĿĺ
ë³´ëĥĪ ìľ¼ëĭĪ
ĠìĿĺëıĦ ëĬĶ
¼ëĸ¨ ëĸ¨
ìĿ¼ì£¼ ìĿ¼ìĿ´
ìĿ¼ìļĶìĿ¼ ìĹĲ
Ġê²ĥë§Įìľ¼ë¡ľ ëıĦ
ĠìķĪìĺ¤ ì§Ģ
ì§ĦíĨµ ìłľ
Ġìĭľëģ ĦëŁ¬ìĽĮ
Ġê·¸ë¦°ëĿ¼ ìĿ´íĬ¸ìĿ¼ê¹Į
ĠìŀĲëıĻ ì°¨
ìķłìĻĦ ëıĻë¬¼
íĻĶìĿ´íĬ¸ëį° ìĿ´ìĹĲ
ĠëĤ´ë¦¬ëĬĶ ê²Į
ĠëĤ´ëĶ Ľ
Ġìĭľê°ĦëĤŃ ë¹Ħ
ìĪĺì²ľ ë²Ī
Ġê°ĢëŁī ìĿĺ
ë¹Ħìĺ¤ëĬĶ ëĤł
ë¹ĦíĬ¸ì½Ķ ìĿ¸
Ġê³ĦìĤ° ìłģìĿ¸
ĠìĺĪì¸ ¡
Ġëĵ¤ìĸ´ë§ŀ ëĤĺë´ħëĭĪëĭ¤
Ġêµ¬ë§ ¤
Ġì¡°ê¸ĪìĿ´ëĤĺë §Ī
Ġê²°íĺ¼ìłģëł¹ ê¸°ìĺĪìļĶ
Ġë¯¸ìĨĮì§ĵ ê²Į
ĠíĻĶìĿ´íĬ¸ëį° ìĿ´
ĠìľłíĨµê¸°íķľ ìĿ´
Ġëĭ¤ëıħìĹ¬ ì£¼ìĦ¸ìļĶ
ìĨĲê°ĢëĿ½ ìĿ´
íĽĶì³Ĳ ë³´ëĬĶ
. !
1 4
1 5
? .
A íĺķ
A Bíĺķ
C C
D ì¹´ëĵľ
O íĺķ
S Dì¹´ëĵľ
g o
¡ ł
¡ ì¡Įìĸ´
£ °
£ ¸
£ ½ì§Ģ
£ ë¶Ģë¥´
¤ ëĭĪ
¤ ë¦´
¤ ìħĶ
¥ ľ
¥ ì£¼
¥ íĥĢ
¥ ì§ĢëıĦ
¥ ì³Ĳ
¥ íĹ¥
¦ ´
¦ ½ëĭĪëĭ¤
¦ ´ê¹Į
¦ ¿ë¹Ľ
§ İ
§ ŀ
§ ë¬¼
§ ê¹ĢìĹĲ
¨ ¸
¨ Į
¨ ìĿ´
¨ ëĤĺë´ĲìļĶ
© Į
« ëĦ¤
¬ ìķĦ
¬ ê¹Į
¬ ê¸Ī
® ¤ëĭĪ
¯ ¸ë¦¬
¯ ¸ë¡ľ
° ¤
° ľ
° ë¨¸ë¦¬
± ìĭł
± ìĭľëıĦ
² ħ
³ ¶
´ ê³ł
´ ê¸¸
´ ë°±
¶ ĢëŁ¬
· Ķ
¸ ê¸°ê°Ģ
¹ µ
¹ ìĿĦ
¹ ìĬ¤
¹ íķĺëĦ¤
¹ ê¸Ģ
¼ ëĬĶ
¼ ëĭ¤
¼ ê¸Ī
¼ íĬ¸
¼ ìĨĲìŀ¡
½ ķ
½ Ģë
½ ìĦľë¥¼
¿ ħ
ê ¶Į
ë £½ì§Ģ
ì ĩ
ì ¨Į
í ī
í ľ
Ġ !
Ġ ,
Ġ ?
Ġ ãħľãħľ
Ġ âĢ¦
Ģ ìĿĦ
Ģ ê²Į
Ģ ì§Ħ
Ģ ìĿµ
ģ ¼
ģ Ī
ģ íħ
Ĥ ©
Ĥ ìĿ´
ĥ ë§Į
Ħ ¹
ħ íķ´
ħ íķĺê³ł
ħ ëĪ
ħ ë¹Ħ
ħ ¸ëŀĺë°©
ĩ ¨
ĩ ë°ĶíĢ
Ī ħ
Ī ìĹĲ
Ī ëıĦ
Ī ìĩ¼íķĳ
Ī ìķ¡
ī ëª¨ìĬµ
ī íĬ¸ë¡ľ
Ĭ ĺë§Į
ĭ ´
ĭ ¹ìĿĦ
Į ĵ
Į Ķ
Į ìĸ´
į ë¶Ģ
ı ì»·
ı ¼ëĦ¤
Ĳ ìĹĲ
Ĳ ë³¼ê¹Į
Ĳ ê¹Ĳ
Ĳ ĲëĬĶëį°
Ĳ ëŁ¬ë
Ĳ ¬ëĦ¤
ĳ Ķ
ĳ ¤ìħĶ
Ĵ ìĿĢ
Ĵ ìĿ´ì£ł
ĵ £
ĵ ¬
ĵ ë§Ĳ
Ķ ľ
Ķ ëŁ¬ë
Ķ ì£Ħ
Ķ ìĻĢìĦľ
ķ ì§Ģ
ķ ëıĦ
ķ ì½ķ
ĸ ìĹĲìĦľ
ĺ ìĸ´
ĺ ìĶ
ĺ ìĿĦê¹Į
ĺ ê»ĺ
Ļ ìĹ½
ļ ìĿĦ
Ľ ìĺ¤
ľ ëĶĶ
ľ ìĶ¨
Ŀ ł
Ŀ íĬ¸
ł ìľ¼ë¡ľ
ł µëĭĪëĭ¤
ł íĺķìĿ´
Ń ìĿ´
Ń ê·
Ń ê¸¸
Ń ë°ľ
Ġì ¸
Ġì İ
Ġì į°
Ġì ©Į
Ġì ĳ¤ìħĶ
Ġë ¥¼
Ġë Ŀ¼
Ġë ĥĲ
Ġë ½Ģë
Ġë Įĵ
ìĿ ĺëıĦ
íķ Ģ
íķ ¸ëĵľ
ìļ ¸ë¦¬ëĬĶ
ìļ ¸ëķĮ
ìļĶ ê°Ģ
ìļĶ ë¦¬
ìļĶ ìĿ¼ìĿ´
Ġê ¶ģ
Ġê º¼ë
ìĿ´ íķľ
ìĿ´ ìŀĲ
ìĿ´ ëł
ìĿ´ ë§Ī
ìĿ´ ë¥¸
ìĿ´ ìĪĺ
ìĿ´ ìľł
ìĿ´ ê²¨
ìĿ´ ìĦ±
ìĿ´ ì§Ģë§Į
ìĿ´ ìļ©
ìĿ´ ê²ĥ
ìĿ´ ê¸°ê°Ģ
ìĿ´ ë°ľ
ìĿ´ ì§ĢìļĶ
ìĿ´ ëĥĲ
ìĿ´ ìĽĥ
ìĿ´ ìĦ±ìĿ´
ìĿ´ ìĤ¬ê°Ģ
ìĿ´ ìĺĢìĸ´
ìĿ´ ì§Ħì§Ģ
ìĿ´ ë²¤
ìĿ´ ìĻĢìļĶ
ìĿ´ ëª¨íĭ°
ìĿ´ ìĻķìĿ´ë©´
ìĿ´ íķĢ
ĺë ĮĢë¡ľ
ĺë £Į
ĺë ĭ´
ìķ ĬìĿĢ
ê° ļìĿĦ
ì§ łìľ¼ë¡ľ
ëĭ ĺëĵ¤
ĬĶ ì§Ģ
ìĦ ¯
ìĦ ¤ë
ìĦ ¬ìľł
ìĦ ¬ìľłìľłìĹ°ìłľ
ìĦ ¹ìĬ¤
ìĸ´ ì§Ħ
ìĸ´ ë¥¸
ìĸ´ ìł¸
ìĸ´ ìĺ¤
ìĸ´ ìłľê°Ģ
ìĸ´ ê°ĢëĬĶ
ìĸ´ íĶĮ
ìĸ´ ìŀĪëĬĶ
ìĸ´ ìķ¼ì£ł
ìĸ´ ìł¸ìļĶ
ìĸ´ ìĭ±
ìĸ´ ë³´ìķĦìļĶ
ìĸ´ ë¨¹ìĿĦ
ìĸ´ ì¨Į
ìĸ´ ìļ¸ë¦¬ëĬĶ
ê² ľ
ê² Ģì§Ħ
ìĹ ¿
ìĹ Īë
ìĹ ¼ë
ìĹ ĪëĮĢ
ëĤ ©ëĭĪëĭ¤
ëĤ ĻìĹ½
ì§Ģ ì¹ľ
ì§Ģ ìĥģ
ì§Ģ ìĽĮ
ì§Ģ ê²łì§Ģ
ì§Ģ ìĭĿ
ì§Ģ ëĤĺìļĶ
ì§Ģ ë¦Ħ
ì§Ģ ì¼ľ
ì§Ģ ë§Ŀ
ì§Ģ ê²¹
ì§Ģ ëŁ¬ìĽĮ
ì§Ģ ìķķ
ì§Ģ ê·¹íŀĪ
¬ë ¡ľ
¬ë Ł¬
¬ë įľ
¬ë ½ķ
íķ´ ë³´
íķ´ ëĭ¹
íķ´ ìĦł
íķ´ ë³´ê³ł
íķ´ ì¡Įìĸ´
íķ´ ì§Ģì§Ģ
íķ´ ë³´ë©´
íķ´ ìĺ¤ìĦ¸ìļĶ
íķ´ ëĵľìĦ¸ìļĶ
íķ´ ë´¤
íķ´ ëĨĵ
ìŀ ĩ
Ġìŀ ¤ë
Ġìŀ ĩëª¸
ìķĦ ëĬĶëį°
ìķĦ ì§Ī
ìķĦ ìĿ´ëĿ¼
ìķĦ ë¦´
ìķĦ íľ´
ìķĦ ìĿ´ëĬĶ
ìķĦ ëł¨
ìķĦ ìĽĥ
ìķĦ ë³¼
ìķĦ ëĵ¤ìĿĦ
ìķĦ ìī½
ìķĦ ë¦Ħëĭµ
ìķĦ ìŀĪì§Ģ
ìķĦ ìĿ´ëĶĶ
ìķĦ ìļ¸ëłĽ
ê°Ģ ìĿĺ
ê°Ģ ìĽĮ
ê°Ģ ëĬĶê²Į
ê°Ģ ìļ¸
ê°Ģ ìķ¼ì§Ģ
ê°Ģ ì¹ĺ
ê°Ģ ìŀĲê³ł
ê°Ģ ì§Ģê³ł
ê°Ģ ì§Ĳ
ê°Ģ ë°©
ê°Ģ ì¶ľ
ê°Ģ ìŀħ
ê°Ģ ë¦¬ë©´
ê°Ģ ëĿ¼ëĬĶ
ê°Ģ ë§ĮíŀĪ
ìĦ¸ ê°Ģ
ìĦ¸ ê¸Ī
ìĦ¸ ë¶Ģ
ìĦ¸ ìĪĺ
ìĦ¸ ëĭ¤ê³ł
ìĦ¸ ê³Ħ
ìĦ¸ ë±ĥ
ìĦ¸ ìļ°ì§Ģ
ìĦ¸ ëįĶëĿ¼êµ¬ìļĶ
ëĬĶ ê±°ìĺĪìļĶ
ëĬĶ ê²ĥ
ê³ł ëĬĶ
ê³ł ê¸°
ê³ł ëį°
ê³ł ë§Į
ê³ł ìŀ¥
ê³ł êµ¬ë
ê³ł ìŀĳ
ê³ł ì§ĳ
ê³ł ë¬¸
ê³ł íĨµ
ê³ł ìŀ¥ìĿ´
ê³ł ì¹ĺê³ł
ìĿĦ ê±°
ìĿĦ ìĪĺ
ìł Ĭ
ìł ĿíĬ¸
Ġí ĮĢ
ë³ ķ
ë³ ¼ë
Ġë§ ĺëıĦ
Ġë§ ¥ì£¼
Ġë§ ĺëĮĢë¡ľ
ëĭ¤ ë³´ìĦ¸ìļĶ
ëĭ¤ ìĭł
ëĭ¤ ëĬĶëį°
ëĭ¤ íģ¬
ëĭ¤ ìĿ´ìĸ´
ëĭ¤ ìľ¡
ëĭ¤ ì¹ĺì§Ģ
ëĭ¤ ìłķíķľ
ëĭ¤ ëĵ¬
Ġìķ ±ìĿ´
Ġìķ ķëĭĪëĭ¤
íķĺë Ĥ´
íķĺë ¥¼
íķĺë ĵł
íķĺë Ŀ¼
íķĺë įĶëĿ¼
íķĺë Ĭĺë§Į
ê¸ ¸ëŁ¬ë
ìĭ ¼ëį°
ë§ ¹
íķĺ íķĺ
íķĺ êµ¬
íķĺ ìĨĮ
íķĺ ìŀĲëĬĶ
íķĺ íĴĪ
íķĺ ê°Ŀ
ìĹĲ ëĦĪ
Ġê° Ŀ
Ġê° ĴìĿ´ì£ł
ê²Į ë¥¼
ê²Į ìĹĲìĦľ
ê²Į íĥķ
ê²Į ìĬ¤íĬ¸
ìĺ Ľ
ìĺ ĢëįĶëĿ¼
¸ë ª¨
¸ë °ĺ
ìĿĢ ì§Ģ
ìĿĢ íĸīìĹĲ
ëıĦ íķ´
ëıĦ íķĺìĦ¸ìļĶ
ëıĦ íĶ¼
ëıĦ ë¦¬ëĬĶ
ëıĦ ë§Ŀ
ëıĦ ìĹ¼
ĠìĹ ĩê°Īë
ë³´ ê¹Į
ë³´ ëĬĶëį°
ë³´ ê¸¸
ë³´ íķĺìĦ¸ìļĶ
ë³´ ìķĪ
ë³´ ì¡°
ë³´ íĹ
ë³´ ëĭ¨
ë³´ ì¦Ŀ
ë³´ ìĿ´ëĦ¤
ë³´ ìĿ¼ë
ë³´ ê¸°ë§Į
ë³´ ë¦Ħëĭ¬
ĠìŀĪ ëĭĪ
ĠìŀĪ ì§ĢëĬĶ
ĠìŀĪ ê²łì§ĢìļĶ
ĠìŀĪ ëĭ¤ëĭĪ
ĠìŀĪ ëĮĢìļĶ
ĠìŀĪ ìĸ´ëĵľë¦´ê²ĮìļĶ
ĠìŀĪ ìĹĪëįĺ
ĠìŀĪ ìľ¼ìĭł
ê¹ ĥë§Į
ê¹ ħíķĺê³ł
íķľ ìŀĲ
íķľ ìłģ
íķľ ë³µ
íķľ ìĤ¬ëŀĮ
íķľ ëĭ¤ëĬĶ
íķľ ê±¸ê¹Į
íķľ ë§Įíģ¼
íķľ ê±´ì§Ģ
íķľ ìĪľê°Ħ
íķľ ëķĮëĬĶ
íķľ ìª½
íķľ ì¼ł
Īë ĵ¤
Ġì¢ĭ ê±°ëĤĺ
Ġì¢ĭ ìķĺìĸ´
Ġì¢ĭ ìķĺëįĺ
Ġì¢ĭ ê²łëĭ¤ê³ł
Ġì¢ĭ ëįĶëĿ¼ëıĦ
ê¹Į ë¨¹
ê¹Į ë¨¹ê³ł
ê¹Į ìĺ·
ìŀĲ ìķĦ
ìŀĲ ëıĦ
ìŀĲ íķľ
ìŀĲ ëĭĪ
ìŀĲ ìłľ
ìŀĲ ë©´
ìŀĲ ìĻĢ
ìŀĲ ìľł
ìŀĲ ê¸°ë¥¼
ìŀĲ ëĿ¼ëıĦ
ìŀĲ ë£Į
ìŀĲ ìŀ¥ë©´
ìŀĲ ì¡´ìĭ¬
ìŀĲ ìľ¨
ìŀĲ ìĿ´ëĦĪ
ìŀĲ ìĦ¸ê°Ģ
ĠëĤ ©ëĭĪëĭ¤
ĠëĤ ¬ìĸ´
ĠëĤ ¬ìľ¼ë©´
ì£ ĦëĬĶ
Ġê±° ìĬ
Ġê±° ë¦¬ë
Ġê±° ë¦´
Ġê±° ë¦¬ê°Ģ
Ġê±° ëĳ¬ë
Ġìĭ ¬ë
Ġìĭ ¸ë
Ġìĭ ¸ë©´
ĠìĿ ¸ëıĦ
ê¸° íķĺëĬĶ
ê¸° êµ¬
ê¸° ëĦ¤ìļĶ
ê¸° ìłķ
ê¸° ë©´
ê¸° ìļ°
ê¸° ë¶Ģ
ê¸° ì°¨
ê¸° ëĮĢë
ê¸° ìĪł
ê¸° ìģľ
ê¸° ì¹¨
ê¸° ì°¬
ê¸° ê²¬
ê¸° ëĬ¥
ê¸° íļį
ê¸° íĬ¹
ê¸° ìĪłìĿ´
ê¸° ìŀĲëŀĳ
ê¸° ì´ĪëĮĢ
ëĿ °
ëĭĪ ê³ł
ëĭĪ ëıĦ
ëĭĪ ìĿĺ
ëĭĪ ì¦ĺ
ëĭĪ ê¹Ĳ
¼ë ¬´
¼ë įĺ
¼ë °Ľ
¼ë Ĩĵì§Ģ
ìĦľ íŀĪ
ìĦľ ë¹Ħ
ìĦľ ìłĲ
ìĦľ ë¶ĢíĦ°
ìĦľ íģ´
ìĦľ ìłĲìĹĲìĦľ
ìĦľ íĪ´
ìĦľ ë¥ĺìĹĲìĦľ
êµ ³ìĿ´
ëĦ¤ ê°Ģ
ì¹ ¼
ì¹ ©ëĭĪëĭ¤
ìĺĪ ë³´
ìĺĪ ìģł
ìĺĪ ìĿĺëĬĶ
ĵ¤ ì§Ģ
ĵ¤ ìĿĦ
ëĤĺ ì£ł
ëĤĺ ìłĢ
ëĤĺ ìĻĢ
ëĤĺ ê¸´
ëĤĺ ìķ½
ëĤĺ ìģĺ
ëĤĺ ìĺ¬
ëĤĺ ê°ĢìĦ¸ìļĶ
Ġë° ī
Ġë° ĺìĿ´
Ġë° ķëıĦ
Ġë° ĸìĹĲìĦľ
¬´ ë¦¬ê°Ģ
ëį° ìĿ´íĬ¸ë
ìķ¼ íķľëĭ¤ëĬĶ
ê· ¼ëį°
íķł ê±°
íķł ë§Ĳ
íķł ì§ĢëıĦ
íķł ìĪĺë¡Ŀ
íķł ëķĲ
íķł ë§Įíķľ
ĠìĤ¬ëŀĮ ë³´ëĭ¤
ĠìĤ¬ëŀĮ ìŀħëĭĪëĭ¤
ĠìĤ¬ëŀĮ ìĿ¸ê°Ģ
ĠìĤ¬ëŀĮ ìĿ¸ì§Ģ
ĠìĤ¬ëŀĮ ë§Īëĭ¤
Ġëĭ ¥ì³Ĳ
Ġëĭ Ńë°ľ
ëł Īë¥¼
´Ĳ ë³´ìĦ¸ìļĶ
Ġì§ °ìĸ´
Ġì§ ¬ë½ķ
ĠìĿ´ ê²Į
ĠìĿ´ ë¥¼
ĠìĿ´ ëŀ
ĠìĿ´ ê¸¸
ĠìĿ´ íĽĦ
ĠìĿ´ ì¹ĺ
ĠìĿ´ ëĿ¼ê³ł
ĠìĿ´ ë²Ī
ĠìĿ´ ëĮĢë¡ľ
ĠìĿ´ ëª¨íĭ°
ĠìĿ´ ìĻķìĿ´ë©´
Ģë ĵ¯
Ģë ¯¸
Ģë ¸Ķ
Ģë ¹Ī
Ġê°Ļ ì£ł
Ġê°Ļ ìĿĦê¹Į
Ġê°Ļ ê¸°ëıĦ
Ġê°Ļ ìĿĮìĿĦ
ìĽ ¹íĪ°
Ġìł Īë
ìĿĮ ë§Į
ìĿĮ ìĭĿ
ìĿĮ ìĿ´ì£ł
ìĿĮ ìĿ´ëĤĺ
ìĿĮ ë°¥
ìĿĮ ë£Į
ìĿĮ ìĭĿìĿĦ
ë§Į íķĺëĬĶ
ë§Į ëĳĲ
ë§Į ëĵ¤ìĸ´ìĦľ
Ġíķ´ ì¤
Ġíķ´ ëĨ
Ġíķ´ ìĻ¸
Ġíķ´ ë³´ëĬĶê²Į
Ġíķ´ ëĵľìĦ¸ìļĶ
Ġíķ´ ì¤¬ìĸ´
Ġíķ´ ë´ĲëıĦ
Ġíķ´ ëĤ¸
Ġíķ´ ìķ¼ëĲ
Ġíķ´ ë²Ħëł¸ëĦ¤
ëĤĺë ĭĪ
ëĤĺë ŀĢ
ëĤĺë °Ķ
ì¹ľ íķĺê²Į
¤ë ®¤ëĭĪ
ìĿ¸ ìĿĢ
ìĿ¸ ìĥģ
ìĿ¸ ìĤ¬
ìĿ¸ ìľ¼ë¡ľ
ìĿ¸ ê±´
ìĿ¸ ëĭ¤ê³ł
ìĿ¸ ê±¸
ìĿ¸ ë³´ëĭ¤
ìĿ¸ ì§ĢëĬĶ
ìĿ¸ ê¸°ê°Ģ
ìĿ¸ ê°ķ
ìĿ¸ ìĤ¬ë
ìĿ¸ ì²Ļ
ìĿ¸ ìĬ¤íĥĢ
ìĿ¸ ìŀĲê°Ģ
ìĿ¸ ë³µìĿ´
ŀĺë Ŀ¼
ŀĺë ĭ¤
ŀĺë ´¤
ê°ģ íķľëį°
ĠìĥĿ ë¦¬íĨµ
ìĭľ ëĦ¤ìļĶ
ìĭľ ëĬĶëį°
ìĭľ ìĥĿ
ìĭľ ëĤĺë´ĲìļĶ
ìĭľ íĬ¸
ìĭľ ëĿ¼ê³ł
ìĭľ íĶ¼
ìĭľ ê¸°ê°Ģ
ìĭľ ëĪĦ
ìĭľ ê¸ī
ìĭľ íĤ¤
ìĭľ íĶ¼ë
ìĭľ ìŀĳìĿĢ
ìĭľ ê³¨
ìĭľ ìĥĿìĿ¸ëį°
ìĭľ íĤ¬
ìĿĺ íķ´
ìĿĺ ìŀĲ
ìĿĺ ìĿ¸ì§Ģ
ìĿĺ ìĻ¸ë¡ľ
ìĿĺ íķľëĭ¤ë©´
ìĿĺ ìŀĲë¥¼
ë° ī
ë° ĳ
ë° Ńê¸¸
ĠìķĦ ìĦ¸ìļĶ
ĠìķĦ ìĺĪ
ĠìķĦ ìŀ¬
ĠìķĦ ìĭ¸
ĠìķĦ ìĿ´ëĭ¤
ĠìķĦ ìĿ´ìĬ¤
ĠìķĦ ì¤Į
ĠìķĦ ìĿ´ëĶĶ
ĠìķĦ ìļ¸ëłĽ
ĠìķĦ ìĭľëĦ¤ìļĶ
ĠìĹĨ ìĿĮ
ĠìĹĨ ìĹĪìĸ´
ĠìĹĨ ê±°ëĤĺ
ĠìĹĨ ìĹĪëĬĶëį°
ĠìĹĨ ìĹĪëįĺ
ĠìĹĨ ê±°ëĵł
ëĿ¼ ëĭĪ
ëĿ¼ êµ¬
Ġê· ¤
Ġê· ľ
Ġê· ¼ëį°
Ġê· łíĺķìĿ´
Ġê· ¼ë¬´
ê±° ëĭ¤
ê±° ëĭĪ
ê±° ë¡ľ
ê±° ìĹĲìĦľ
ê±° ëĿ¼ê³ł
ê±° ë¦¬ëĬĶ
ê±° ìĽĮìļĶ
ê±° ë¦¬ê³ł
ê±° ëŀĢ
ê±° ì°½
ê±° ë¦ĦìĿ´
ê±° ê¾¸ë¡ľ
ê±° ë¦¬ì§Ģë§ĪìĦ¸ìļĶ
Ġì¢ĭìķĦ íķĺì§Ģ
Ġì¢ĭìķĦ ì¡Į
Ġì¢ĭìķĦ íķ´ìĦľ
Ġì¢ĭìķĦ íķ´ì£¼ìĦ¸ìļĶ
Ġë§Ī ì¹ĺ
Ġë§Ī ì°¬
íĸ Īë
íĸ ĪëĮĢ
ìĿ¼ ìĸ´
ìĿ¼ ì§Ģ
ìĿ¼ ë§Į
ìĿ¼ íķĺê³ł
ìĿ¼ íķ´ìļĶ
ìĿ¼ ìľ¼
ìĿ¼ ìĿ´ìķ¼
ìĿ¼ ìĹĲëĬĶ
ìĿ¼ ìĿ´ëŀĳ
ìĿ¼ ìĿ´ëĿ¼ëıĦ
ìĿ¼ ìĿ´ëĦ¤
ìĿ¼ êº¼
ìĿ¼ ìĥģìĿĦ
ìĿ¼ ìĪĺëıĦ
ìĿ¼ ë§ģ
ìĿ¼ ìļĶìĿ¼ìĿ´
ìĿ¼ ìĿ¸ìŀĲê°Ģ
íĺ Ĳ
íĺ Ģë
Ġìĭ¶ ê³ł
Ġìĭ¶ ìĿĦ
Ġìĭ¶ ëĮĢ
Ġìĭ¶ ìĹĪëĬĶëį°
Ġìĭ¶ ìĹĪëįĺ
êµ¬ ê°Ģ
êµ¬ ëĭĪ
êµ¬ ì£ł
êµ¬ íķĺìĦ¸ìļĶ
êµ¬ ì§Ī
êµ¬ ì³Ĳ
êµ¬ ìį¸ëĤ¨
êµ¬ êº¼ë
ìłķ ëĵ¤
ìłķ íķĺê²Į
ìłķ ë¦¬ë
ìłķ ìĪĺë
ìłķ ìĥī
ìłķ ë¦¬ë¥¼
ìłķ ê¸Ģ
ìłķ íķ´ìł¸
ìłķ ìĦ±ìĿ´
ìłķ ëĭµìĿĦ
ìłķ ìłģìĿ´ê³ł
ë¦¬ ìĺĪìļĶ
ë¦¬ ìĭľê¸¸
ë¦¬ ì¹´ëĵľ
ìĭł ìĿĢ
ìĭł ìĦł
ëĤ¨ ìĿ´
ëĤ¨ ë³´ëĭ¤
ëĤ¨ ìŀĶ
ëĤ¨ ëıĻìĥĿíķľíħĮ
ì° ¢
ì° ¹íķĺëĦ¤
ì° ĶëŁ¬ë
Ġê²ĥ ìĿ¼
Ġê²ĥ ê³¼
Ġê²ĥ ë¶ĢíĦ°
Ġê²ĥ ê°ĻìķĦ
Ġìĸ´ ë¥¸
Ġìĸ´ ìŀ¥ìĿĦ
ìłľ íķĺëĬĶ
ìłľ ê¸¸
ìłľ ì°¨
ìłľ ì²ł
ì£¼ ìłķ
ì£¼ ëĬĶëį°
ì£¼ ëĤĺë´ĲìļĶ
ì£¼ ìĨĮ
ì£¼ ê¸´
ì£¼ ìľĦ
ì£¼ ëĭ¤ê°Ģ
ì£¼ ìĿ¼ì§¸
ì£¼ ê°Ģì§Ģ
ì£¼ ìłķëıĦ
ì£¼ ìłľë¥¼
ì£¼ íķłê±°ìķ¼
ì£¼ ìĭľëĭ¤ëĭĪ
ì£¼ ìĭ¤ê±°ìĺĪìļĶ
Ġìĺ ®
Ġìĺ µëĭĪëĭ¤
įĶ êµ°
ĠìĥĿê°ģ ì§Ģ
ĠìĥĿê°ģ íķ´ìķ¼
ĠìĥĿê°ģ íķ´ì£¼ìĦ¸ìļĶ
ĠìĥĿê°ģ íķĺê¸°
ĠìĥĿê°ģ ìŀħëĭĪëĭ¤
ĠìĥĿê°ģ ìĿ¸ì§Ģ
ĠìĥĿê°ģ íĸĪìĸ´ìļĶ
ĠìĥĿê°ģ ëĵ¤ìĿĦ
ĠìĥĿê°ģ íķľëĭ¤ë©´
ĠìĥĿê°ģ ëĤľëĭ¤
ĠìĥĿê°ģ íķĺë©°
ĠìĥĿê°ģ íĸĪëĤĺë´Ĳ
ĠìĥĿê°ģ íķľëĭ¤ê³ł
ĠìĥĿê°ģ ëĤľëĭ¤ë©´
ëŀ ŃìĿ´
ëŀ Ģëĵ¯
íķĺê³ł ìŀĪìĸ´ìļĶ
ĠìķĬ ëĭ¤
ĠìķĬ ëĤĺ
ĠìķĬ ê²łì£ł
ĠìķĬ ëĭ¤ë©´
ĠìķĬ ëĭ¤ê³ł
ĠìķĬ ìĿĢëį°
ĠìĪĺ ê±´
ĠìĪĺ ìĪľ
ĠìĪĺ ìĹĨìĿ´
ĠìĪĺ ìļĶìĿ¼
ĠìĪĺ íķĻìĹ¬íĸī
íĻ Īìĩ¼íķĳ
Ġê± į
ê°Ħ ëĭ¹
ê°Ħ ìĭĿ
ê°Ħ ëĭ¤ê³ł
ê°Ħ ìłĳ
Ġë§Į ë³´
Ġë§Į ìĿĺ
Ġë§Į ìł¸
Ġë§Į íķĺì£ł
Ġë§Į ëĵľìĦ¸ìļĶ
Ġë³´ ì£ł
Ġë³´ ìŀ¥
Ġë³´ ìĪĺ
Ġë³´ ê´Ģ
Ġë³´ ëĭµ
Ġë³´ ëĿ¼ê³ł
Ġë³´ ëŀĢ
Ġë³´ ìĹ¬ë³´ìĦ¸ìļĶ
Ġë³´ ê¸°ë§Į
Ġë³´ ìĿ´ìĦ¸ìļĶ
Ġë³´ ìħ¨ëĤĺë´ĲìļĶ
Ġë³´ ìĺĢìľ¼ë©´
Ġë³´ ìĹ¬ëıĦ
Ġë³´ ë¦Ħëĭ¬
Ġë³´ ëĤ¼ê¹Į
Ġë³´ ìŀĲëĬĶëį°
Ġë³´ ëŀĢëĵ¯
ë³Ħ ìĿĢ
ë³Ħ ë¡ľ
ë³Ħ ëĭ¤ë¥¸
ë³Ħ íķĺì£ł
Ġë§Ĳ ì§Ģ
Ġë§Ĳ íķĺê³ł
Ġë§Ĳ ëĵ¤
Ġë§Ĳ ë³´ëĭ¤
Ġë§Ĳ ìŀĲê³ł
Ġë§Ĳ íķĺëĬĶê²Į
Ġë§Ĳ ìĿ´ëĿ¼ëıĦ
Ġë§Ĳ íĪ¬
Ġë§Ĳ íĸĪìľ¼ë©´
Ġë§Ĳ ìĿ¸ê°ĢìļĶ
Ġë§Ĳ ë³´ëĭ¤ëĬĶ
Ġë§Ĳ ìķĺëĦ¤
Ġë§Ĳ ëŀŃìĿ´
Ġê°Ģ ëĦ¤
Ġê°Ģ ì£ł
Ġê°Ģ ìĤ¬
Ġê°Ģ ìĬµ
Ġê°Ģ ë¥´
Ġê°Ģ ìĪĺ
Ġê°Ģ ëĭĪê¹ĮìļĶ
Ġê°Ģ ëĿ¼ê³ł
Ġê°Ģ ë³¼ê¹Į
Ġê°Ģ ë³´ëĬĶ
Ġê°Ģ ë¦¬ëĬĶ
Ġê°Ģ ìŀ¬
Ġê°Ģ ìķ¼ì£ł
Ġê°Ģ ìķ¼ê²łëĭ¤
Ġê°Ģ ìł¸ëıĦ
Ġê°Ģ ìł¸ë
Ġê°Ģ ê²ĮìĹĲìĦľ
ë©´ ìĦ¸
ë©´ ìĹĲ
ë©´ ê³¼
ë©´ íķĺê²łëĦ¤ìļĶ
Ġëĭ¤ íķľ
Ġëĭ¤ ë¦¬
Ġëĭ¤ ìļ´
Ġëĭ¤ ê·¸
Ġëĭ¤ íĸĪëĬĶëį°
Ġëĭ¤ ì³¤ìĸ´
Ġëĭ¤ íĸĪëĭ¤ë©´
ĠìĹ° ê¸°
ĠìĹ° ìĹ°
ìĤ¬ëŀĳ ë§Į
ìĤ¬ëŀĳ ìĹĲìĦľ
ìĤ¬ëŀĳ íķ´ìļĶ
ìĤ¬ëŀĳ íķĺê²Į
ìĤ¬ëŀĳ ìĹĨìĿ´
ìĤ¬ëŀĳ ìĿ´ëĿ¼ëĬĶ
ìĤ¬ëŀĳ ë°Ľê³ł
ìĤ¬ëŀĳ ë§Įìľ¼ë¡ľ
ìĤ¬ëŀĳ ë°ĽëĬĶ
ìĤ¬ëŀĳ ìŀĲê²©ì¦Ŀ
ìĤ¬ëŀĳ íķĺëĤĺë´ħëĭĪëĭ¤
ìĤ¬ëŀĳ ê¾¼
ìĤ¬ëŀĳ ìĿ´ìĹĪìľ¼ëĭĪê¹ĮìļĶ
ìĤ¬ëŀĳ íĸĪìľ¼ëĭĪê¹ĮìļĶ
ëĤ´ ìĦ¸ìļĶ
ëĤ´ ê²Į
ëĤ´ ë¡ľ
ëĤ´ ê¸¸
Ġì¤ ¬
Ġì¤ ¬ìĸ´
ĠìķĪ ìĿ´
ĠìķĪ ìłĦ
ĠìķĪ ì¢ĭìķĦ
ĠìķĪ ëĤł
ĠìķĪ íķ´ìĦľ
ĠìķĪ íķ´ìķ¼
ĠìķĪ íķĺê¸°
ĠìķĪ íķĺëĬĶê²Į
ĠìķĪ ì£¼ë
ĠìķĪ ìķĦìĦľ
ĠìķĪ ë§ŀ
ĠìķĪ íĸĪìľ¼ë©´
ĠìķĪ íķĺëł¤
ĠìķĪ ìĹ´
ĠìķĪ íķľëĭ¤
ĠìķĪ ìĺ¤ë©´
ĠìķĪ ìłķìĿĦ
ĠìķĪ íĸĩ
ĠìķĪ ìłĦíķĺì§Ģ
ĠìķĪ ìĿ½ìĶ¹
ĠìķĪ ëĤĺëĤĺë´ĲìļĶ
ĵľ ë¦¬ê³ł
ì¢ĭ ê²łëĦ¤ìļĶ
ì¢ĭ ìĿĦê¹Į
ì¢ĭ ìķĺìľ¼ë©´
ì¢ĭ ìľ¼ë©´ìĦľ
ì¤ įê²Į
ì¤ ĢëĮĢ
ìĪ ıì»·
ĠëĤĺ ìķĦìļĶ
ĠëĤĺ ê¸¸
ĠëĤĺ ê°Ĳ
ĠëĤĺ ê°Ī
ĠëĤĺ ê°ĢìļĶ
ĠëĤĺ ìľ¼ìĦ¸ìļĶ
ĠëĤĺ ìģĺê²Į
ĠëĤĺ ìĺ´
ĠëĤĺ ìģ¨
Ġë§İ ëĤĺë´ĲìļĶ
Ġë§İ ê²łìĸ´ìļĶ
Ġë§İ ê²łëĦ¤ìļĶ
Ġë§İ ëĭ¤ê³ł
Ġë§İ ìķĺìľ¼ë©´
Ġë§İ ìĿĦê±°ìĺĪìļĶ
Ġë§İ ëį°ìļĶ
Ġê¸ Īë¬¼
ëł¤ ìķ¼
ëł¤ ì¤¬ëĬĶëį°
ë¡ľ ë§Ŀ
ë¡ľ ë´ĩ
ìĥģ ìĹĲ
ìĥģ íķľ
ìĥģ íĻĶ
ìĥģ ìĹĲìĦľ
ìĥģ ëĮĢë
ìĥģ ìŀħëĭĪëĭ¤
ìĥģ ìĿ´ëĿ¼ê³ł
ìĥģ ê²¬ë
ìĥģ ìĤ¬ë³ĳ
ìĥģ ìĿĺëıĦ
ëĬĶëį° ë¡ľ
ìĹ¬ ìĿĺ
ìĹ¬ ê¸°ë§Į
ìĹ¬ ì§Ģë¥¼
ìĹ¬ ëĭ¤ë³´ìĦ¸ìļĶ
ì¡ ¸ëł¤
ìĻ ĵ
ìĻ łì§Ģ
ìĻ ¼ìĨĲìŀ¡
Ġì° ¼ëįĺ
íķĺì§Ģ ê°Ģ
íķĺì§Ģ ìķĬ
Ġë°Ķ ìģĺê²Į
Ġë°Ķ ì§Ģê°Ģ
Ġë°Ķ ë¥´ìĦ¸ìļĶ
ëĵ¤ ìļĶ
ëĵ¤ ë§Į
ëĵ¤ ìĹĪìĸ´
ì§Ħ íķľ
ì§Ħ íķ´ìļĶ
ì§Ħ ìĭ¬ìĿĦ
ê·¸ë ıĦ
ê·¸ë ĮĢ
ê·¸ë ŀĢ
ê·¸ë ¦¼
ê·¸ë ķĮëĬĶ
ê·¸ë ŀĺë´¤
íħ Ģë¸Ķ
Ġìĭľ ìĦł
Ġìĭľ ì²Ń
Ġìĭľ ê¸ī
Ġìĭľ ë¦°
Ġìĭľ ëŁ½
Ġìĭľ ëĮĢëĬĶ
Ġìĭľ ëıĦíķ´
Ġìĸ´ë Ķĺ
ìĹĪ ëĭ¤ë©´
ìĹĪ ëĭ¤ê³ł
ìĹĪ ìĿĦê¹Į
ìĹĪ ëĤĺë´ħëĭĪëĭ¤
Ġê·¸ë ŀ
Ġê·¸ë Ł¼
Ġê·¸ë ıĻìķĪ
ĠëĦĪë¬´ ëĦĪë¬´
ĠëĦĪë¬´ íķĺëĬĶê²Į
ĠìŀĲ ìĦ¸ìļĶ
ĠìŀĲ ëĭ¤
ĠìŀĲ ê²Į
ĠìŀĲ ìķ¼
ĠìŀĲ ê¸Ī
ĠìŀĲ ì·¨
ĠìŀĲ ì±ħ
ĠìŀĲ ëĿ¼ëıĦ
ĠìŀĲ ë¥´ëĬĶ
ĠìŀĲ ìķ¼ê²łëĭ¤
ĠìŀĲ ìľłê°Ģ
ĠìŀĲ ìŀ¥ë©´
ĠìŀĲ ìĦ¸íŀĪ
ĠìŀĲ ê´´ê°Ĳ
ĠìŀĲ ê·¹ìĿ´
ìĨ ĶìĻĢìĦľ
ìĨ ľìĶ¨
ê¸Ī íĨµ
ê¸Ī ìĿ´ë©´
ê¸Ī ê°Ĵ
ê¸Ī ìĪĺìłĢë¡ľ
ìķł ê¸°
ìķł ëĭĪ
ìķł ê·¸
ìķł ê¸°ê°Ģ
ìķł êµŃ
ìķł ìĿ¸ìĿ´
ìķł ìłĪíķľ
ĠìĤ¬ëŀĳ íķ´ë³´ìĦ¸ìļĶ
ĠìĤ¬ëŀĳ íķ´ëıĦ
ĠìĤ¬ëŀĳ ìĿ´ìķ¼
ĠìĤ¬ëŀĳ íķ©ëĭĪëĭ¤
ĠìĤ¬ëŀĳ íķĺëĬĶê²Į
ĠìĤ¬ëŀĳ ìĿ¸ê°Ģ
ĠìĤ¬ëŀĳ íķ´ì¤ĺ
ĠìĤ¬ëŀĳ íķ´ì£¼ëĬĶ
ĠìĤ¬ëŀĳ ìĿ´ëĿ¼ëĬĶ
ĠìĤ¬ëŀĳ íķĺëĤĺë´ĲìļĶ
ĠìĤ¬ëŀĳ ìĿ´ìķ¼ê¸°
ë² ¨ìĿ´
ĠìŀĪìĿĦ ê±°ëĿ¼
ĠìŀĪìĿĦ ìĪĺëıĦ
ĠëįĶ ëĶĶ
ĠëįĶ ìĹĨìĿ´
ĠìĦ ŀ
ìĹ° íķĺ
ìĹ° ìĥģ
ìĹ° ê¸Ī
ìĹ° íķĺê²Į
ìĹ° íľ´ê°Ģ
¹Ħ ì§ĳ
ìļ´ ê°Ģë´ĲìļĶ
ëħ ¼ë¬¸
ìĽĮ ì§Ģê³ł
ìĽĮ íģ¬
ìĽĮ ë³´ìĿ´ëĤĺ
Ġìŀĺ ê²Į
Ġìŀĺ íķĺìĦ¸ìļĶ
Ġìŀĺ íķ´ì£¼
Ġìŀĺ íĸĪìĸ´ìļĶ
Ġìŀĺ ìĤ´ê³ł
Ġìŀĺ ì§ĢëĤ´ê³ł
Ġê¸° ê´Ģ
Ġê¸° ê³Ħ
Ġê¸° ëĮĢë
Ġê¸° ëĭĪê¹ĮìļĶ
Ġê¸° ë¦Ħ
Ġê¸° ëĮĢë¡ľ
Ġê¸° ëħĲ
Ġê¸° ìĪłìĿ´
Ġê¸° ëħĲìĿ¼
Ġê¸° ìĪĻìĤ¬
Ġê¸° ìłģìĿ´ì£ł
Ġê¸° ëĮĪ
Ġê¸° ë»Ĳ
Ġê¸° ìĸ´ìĺ¤
Ġê¸° ëĤĺê¸´
Ġíķ «íķľ
Ġë¨ ¸ë
Ġë¨ ¼ëį°
ê± ¸ëłĪ
Ġëı Īë²
ìĸ ĺëĬĶ
ìĸ ¸ë¶Ģ
ìĸ ¼ëĸ¨ëĸ¨
ĠìĹ¬ ìļ°
ĠìĹ¬ ê¸°ëĭ¤
ĠìĹ¬ ê¸°ëĬĶ
ĠìĹ¬ ìĤ¬ì¹ľ
ìĭ¬ íķĺì§Ģ
ìĭ¬ ìŀ¥
ìĭ¬ íķĺë©´
ìĭ¬ íķĺëĦ¤
ìĭ¬ íĶĮ
ìĭ¬ ìŀ¥ìĿ´
ìĭ¬ ìĭ¬íķ´
ë§Ĳ ìĿĢ
ë§Ĳ ìŀĲ
ë§Ĳ íķł
ë§Ĳ ì¡°ìĭ¬íķĺìĦ¸ìļĶ
ë§Ĳ ë¬¸ìĿ´
ë§Ĳ íĪ¬ëĬĶ
ëı ķëĬĶ
ìłĢ ìļĶ
ìłĢ íĬ¸
ìłĢ ê²ĥ
ìłĢ ì²ĺëŁ¼
ìłĢ ëĿ¼ëıĦ
ìłĢ ìĻĢìĿĺ
ìłĢ ê¸ĪíĨµ
Ġì§Ģ ì¹ľ
Ġì§Ģ ì¹¨
Ġì§Ģ ê°ĳ
Ġì§Ģ ëł¤ê³ł
Ġì§Ģ ìļ°ëĬĶ
Ġì§Ģ ëĤ¬ìĸ´
Ġì§Ģ ì¹ĺê³ł
Ġì§Ģ ìĭĿìĿ´
Ġì§Ģ ìļ¸ê¹Į
Ġì§Ģ ì¹ĺë©´
Ġì§Ģ ìķķ
Ġì§Ģ íĤ¤ê¸°
Ġì§Ģ ì¹ĺëĦ¤
Ġì§Ģ ìĽĲíķ´ë³´ìĦ¸ìļĶ
Ġì§Ģ ê·¹íŀĪ
Ġì§Ģ ì¹ĺê²Į
Ġì§Ģ íĤ¤ë©´
Ġì§Ģ ì¹©ëĭĪëĭ¤
íĸĪ ëĭ¤ê°Ģ
íĸĪ ìĹĪëĬĶëį°
íĻĶ ìĦ¼íĦ°
íĻĶ ìĭĿë¬¼
ê¸¸ ì§Ģ
ê¸¸ ê±°ë¦¬
ìŀ¥ ê°Ģ
ìŀ¥ ìķł
ìŀ¥ ìľ¼ë¡ľ
ìŀ¥ ìĪĺ
ìŀ¥ ëĭ¨
ìŀ¥ íĮĲ
ìŀ¥ ê¸°ìŀĲëŀĳ
ìŀ¥ êµ¬ì³Ĳ
ĠìĹ°ëĿ½ ëıĦ
ĠìĹ°ëĿ½ íĸĪìĸ´
ĠìĹ°ëĿ½ íķĺê¸°
ĠìĹ°ëĿ½ ìĺ¬
ĠìĹ°ëĿ½ ìĿ´ìĹĪê¸¸
ĠìĹ°ëĿ½ íĸĪìĿĦê¹Į
ìĥĿ ìĹĲ
ìĥĿ ê¸´
ìĥĿ ê°ķ
Ġê´ ľ
ìłĦ íķľ
ìłĦ ìĿĺ
ìłĦ ìłģìĿ¸
ìłĦ íĺĢ
ìłĦ íĺķ
ìłĦ íĻĶê°Ģ
ìłĦ ìĹ¬ìŀĲì¹ľêµ¬
ìłĦ ìĪľ
ìłĦ íĻĺìĿ´
ìłĦ ìĥĿìĹĲ
íħĮ ê°Ģ
íħĮ íģ¬
íŀĪ ì§Ģ
ĠìĻ ¸ë¶Ģ
ĠìĻ łì§Ģ
ĠëĤ¨ ìĿĢ
ĠëĤ¨ ìĿĺ
ĠëĤ¨ ëĤĺë´ĲìļĶ
ĠëĤ¨ ìĹĲê²Į
ĠëĤ¨ ê²łì£ł
ĠëĤ¨ ìĿ´ì£ł
ĠëĤ¨ ìķĺìĸ´
ĠëĤ¨ ìĿ´ëĿ¼ëĬĶ
ĠëĤ¨ ìĤ¬ì¹ľ
ĠëĤ¨ ìĿĢê±¸ê¹Į
ĠëĤ¨ ì£¼ê¸´
ìĤ¬ ê³ł
ìĤ¬ íĪ
ìĤ¬ ì£¼ë
ìĤ¬ ìĿ´ê°Ģ
ìĤ¬ ëĭ¤ë¦¬
ìĤ¬ ìĪĺê°Ģ
ìĤ¬ íĥķ
ìĤ¬ ìĥĿíĻľìĿ´
ĠìĤ¬ ì§Ģ
ĠìĤ¬ ëĤĺë´ĲìļĶ
ĠìĤ¬ ì£¼ìĦ¸ìļĶ
ĠìĤ¬ ì¹ĺ
ĠìĤ¬ ìĿ´ëĿ¼
ĠìĤ¬ ì¤Ħ
ĠìĤ¬ ëĤĺë´ħëĭĪëĭ¤
ĠìĤ¬ ì¤Ħê¹Į
ĠìĤ¬ ìĺ¤ìĦ¸ìļĶ
ĠìĤ¬ ìķ¼ëı¼
ĠìĤ¬ ìĨĮíķľ
ĠìĤ¬ ê°Īê¹Į
ĠìĤ¬ ê²¼ëĬĶëį°
ĠìĤ¬ ìķ¼ê²łì§Ģ
ĠìĤ¬ ìħĶìķ¼
ĠìĤ¬ ìĥĿíĻľìĿ´
ĠìĤ¬ ìķ¼ëĲĺëĬĶëį°
ĠìĤ¬ ê³ĦìłĪ
ĠìĤ¬ëŀĮìĿ´ ëĦ¤
ĠìĤ¬ëŀĮìĿ´ ìĺĪìļĶ
ĠìĤ¬ëŀĮìĿ´ ëĿ¼ê³ł
ĠìĤ¬ëŀĮìĿ´ ìĹĪìĸ´
ĠìĤ¬ëŀĮìĿ´ êµ°ìļĶ
ĠìĤ¬ëŀĮìĿ´ ìĹĪëĬĶ
Ġíŀĺëĵ¤ ë©´
Ġíŀĺëĵ¤ ê²ĥ
Ġíŀĺëĵ¤ ì¤Ħ
Ġíŀĺëĵ¤ íħĲëį°
Ġíŀĺëĵ¤ ëķĮ
ĠëķĮ ìĿĺ
ĠëķĮ ëĿ¼ê³ł
ĠëķĮ ìŀħëĭĪëĭ¤
ĠëķĮ ë¦¬ê³ł
ìľ¼ë¡ľ ë¶ĢíĦ°
ìĿ´ë³Ħ ìĹĲëıĦ
ìĿ´ë³Ħ íķĺëł¤ê³ł
ìĿ´ë³Ħ íĨµë³´
ìĿ´ë³Ħ íķĺìĭł
ĠìķĮ ìķĦìļĶ
ĠìķĮ ìķĺ
ĠìķĮ ì§Ģë§Į
ĠìķĮ ê±°ìĺĪìļĶ
ĠìķĮ ìķĺìĸ´ìļĶ
ĠìķĮ ê²łìĬµëĭĪëĭ¤
ĠìķĮ ìķĺëĭ¤
ĠìķĮ ì½©ëĭ¬ì½©
ë¥´ ëĤĺë´ĲìļĶ
Ġë§ĪìĿĮ ìĿ´ì£ł
Ġë§ĪìĿĮ ê°ĢëĬĶ
Ġë§ĪìĿĮ ê»ı
Ġë§ĪìĿĮ ê°Ģì§Ĳ
ĠìĿ¼ ê¹Į
ĠìĿ¼ ìĿ¸ê°Ģë´ĲìļĶ
ĠìĿ¼ íķĺìĭľ
ĠìĿ¼ ìłķìĿĦ
ĠìĿ¼ íķĺëĵł
Ġíĸ ĩ
Ġì¹ ĺëĬĶ
ĠëĤ´ ëıĦ
ĠëĤ´ ë©´
ĠëĤ´ ê¸¸
ĠëĤ´ ë´ĲìļĶ
ĠëĤ´ ê±°ëĤĺ
ĠëĤ´ ëĥĲ
ĠëĤ´ ëł¤ìļĶ
ĠëĤ´ ë§ĺ
ĠëĤ´ ëł¤ë
ĠëĤ´ ë¦¬ê¸°
ĠëĤ´ ë¦¬ê¸¸
ĠëĤ´ ëł¸ëĤĺë´ĲìļĶ
ìĬ¤ íĬ
ìĬ¤ íĤ¨
ìĬ¤ ì¼Ģ
ìĬ¤ ìĦ¼íĦ°
ë¯ ¸ë¦¬ë
ìłģ ìĿĦ
ìłģ íķĺì§Ģ
ìłģ ì¶Ķ
ìłģ ìĿ¼ê¹Į
ìłģ ìĿĳ
ìłģ ê·¹
ìłģ ìĦ±ìĹĲ
ì¢ĭìķĦ ì§Ħ
ì¢ĭìķĦ ì§Ī
ì¢ĭìķĦ íķĺìĭľ
ì¢ĭìķĦ íķłê±°ìĺĪìļĶ
ì¢ĭìķĦ ë³´ìĿ´ëĦ¤ìļĶ
ìĺ¤ë ĶĶìħĺ
Ġìłķ ìľ¼ë¡ľ
Ġìłķ íķ´ìĦľ
Ġìłķ ë¦¬ëĬĶ
Ġìłķ íķ´ìł¸
Ġìłķ ëĭµìĿ´
Ġì¢ĭìķĦíķĺëĬĶ ê±¸
Ġì¢ĭìķĦíķĺëĬĶ ê±´ê°Ģ
Ġëª¨ ìĿĮ
Ġëª¨ ìĿĺ
Ġëª¨ ì§Ī
Ġëª¨ ìŀĦ
Ġëª¨ ìĸĳ
Ġëª¨ ìŀĺë
Ġëª¨ ìľ¼ìĭľ
Ġëª¨ ë°ľìĿ´
ì§ģ ìĦ¤
ì§ģ ìŀ¥ìĿ´
ì§ģ êµ¬ë¡ľ
ì§ģ ìĿ´ìĪĺ
ëĮĢ íķĺëĬĶ
ëĮĢ ë§Į
ëĮĢ ìĹĲìĦľ
ëĮĢ ìĿ¸ë
ëĮĢ íķĻìĽĲ
ëĮĢ ì¶©
ëĮĢ ì²ŃìĨĮë¥¼
Ġëª» ê°Ģ
Ġëª» íķĺê²Į
Ġëª» ìŀĲê³ł
Ġëª» íķĺì£ł
Ġëª» íķĺëĦ¤
Ġëª» ë°Ľ
Ġëª» ë¯¿
Ġëª» íķĺëĥĲ
Ġëª» ëĤľê±°
Ġëª» ì§Ģìļ°
ĠìŀĪìĸ´ìļĶ ëĿ¼ê³ł
Ġê³ł ìĻĢ
Ġê³ł ë¹Ħ
Ġê³ł íĮĮ
Ġê³ł ì¹ł
Ġê³ł ì¹ĺë
Ġê³ł ì¹ĺë©´
Ġê³ł ë¥´ìĦ¸ìļĶ
Ġê³ł ëıħíķľ
Ġìĭ¶ìĸ´ ì§Ģì£ł
Ġìĭ¶ìĸ´ ìĦľìļĶ
Ġì£ ½ì§Ģ
ë§ĪìĿĮ ì²ĺëŁ¼
ë§ĪìĿĮ ìĹĲëıĦ
ë§ĪìĿĮ ìĹĲìĦľëıĦ
ë§ĪìĿĮ ë§ĮìĿĢ
íļĮ ìĿĺ
Ġë¨¹ ëĭ¤
Ġë¨¹ ê²Į
Ġë¨¹ ìĸ´ìļĶ
Ġë¨¹ ì£ł
Ġë¨¹ ëĬĶê²Į
Ġë¨¹ ëĵł
Ġë¨¹ ë°©
Ġë¨¹ ìĹĪëĭ¤
Ġë¨¹ ìľ¼ëł¤ê³ł
Ġë¨¹ ìľ¼ëĭĪê¹Į
Ġë¨¹ ìĹĪìĬµëĭĪëĭ¤
Ġë¨¹ ìĹ¬ì£¼
Ġë¨¹ ìĹĪëĭĪ
ì¶ ĺìĿ´
ì¶ ¥ì§ĢëıĦ
ê°Ģë Ĳĺ
ìļ° ê¸¸
ìļ° ë¦°
ìļ° ë¨¼
Ġê±´ ëĦ¤
Ġê±´ ëį°ìļĶ
ìį¸ ìĿ¸
ìį¸ ìľ¼ë¡ľ
ìį¸ íĥĪë
ĺëıĦ ë¡Ŀ
Ġì¤ĳ ìĿ´
Ġì¤ĳ ìĿĺ
Ġì¤ĳ ìĿ´ìķ¼
Ġì¤ĳ êµŃ
Ġì¤ĳ ìĿ¸ê±°
Ġì¤ĳ ìĿ´ëŀĺ
Ġìĭľê°Ħ ê³¼
Ġìĭľê°Ħ ëĵ¤ìĿ´
Ġìĭľê°Ħ ìĿ¸ê°Ģ
Ġìĭľê°Ħ ëĵ¤ìĿĦ
ĠëĲł ìĪĺ
Ŀ¼ íĨ
íķĺê²Į ëıĦ
Ġë°Ľ ê²Į
Ġë°Ľ ëĭĪ
Ġë°Ľ ìķĦìļĶ
Ġë°Ľ ê²łì§Ģ
Ġë°Ľ ìķĺ
Ġë°Ľ ì§ĢëıĦ
Ġë°Ľ ìĿĦê¹Į
Ġë°Ľ ìķĺëĬĶëį°
Ġë°Ľ ìķĺëĭ¤
Ġë°Ľ ìķĺìĬµëĭĪëĭ¤
Ġë°Ľ ìľ¼ìĭł
íĹ¤ìĸ´ ì§Ī
íĹ¤ìĸ´ ì¡Įìĸ´
íĹ¤ìĸ´ ìł¸ëıĦ
ë¬´ ìĸ¸
ë¬´ ëĦĪ
ë¬´ ë£Į
ë¬´ ê´Ģìĭ¬
ë¬´ ìĨĮìĿĮ
ë¬´ ìŀĳìłķ
ë¬´ ê´Ģìĭ¬ìĿ´
ë¬´ íķľë¦¬íķĦ
ë¬´ ì§Ħíķ´ìļĶ
ì¢ĭìķĦíķĺëĬĶ ì§Ģ
ì¢ĭìķĦíķĺëĬĶ ê±°
ê´ Ģëħ
ê´ ĺìĶ
ë¶Ħ ë§Į
ë¶Ħ íķ´ìĦľ
ë¶Ħ ìĶ©
ë¶Ħ ìľĦ
Ġíķĺë ĥĲ
Ġíķĺë ĭĪê¹Į
Ġíķĺë Ŀ¼ëĬĶ
Ġíķĺë įĶëĿ¼ê³łìļĶ
Ġíķĺë įĺëį°ìļĶ
ìŀĺ íķľ
ìŀĺ íķ´ìķ¼
ìŀĺ ìĤ´
ìŀĺ ì°¸
ìŀĺ ê°ĢìļĶ
ìŀĺ íķ´ì¤
ìŀĺ íķĺëĭĪê¹Į
ìŀĺ íķĺìĭ¤
ìŀĺ ì§ĢëĤ´ê³ł
ìŀĺ íķ´ì¤Ģ
ë¶Ģ ìĤ°
ë¶Ģ ë¥´ê³ł
Ġë² Ķì£Ħ
ĠìĤ´ ê²Į
ĠìĤ´ ê¸°ê°Ģ
ĠìĤ´ ìĤ´
ĠìĤ´ ëĭ¤ë³´ë©´
ĠìĤ´ ìķĺëĭ¤
ĠìĤ´ ëł¤ëıĦ
ê°Ĳ íķľ
ê°Ĳ íŀĪ
ê°Ĳ ìĪĺ
ê°Ĳ ìŀĪê²Į
ê°Ĳ íķĺê²łìĸ´ìļĶ
ê°Ĳ ìĥģìĿ´ëĿ¼ê³ł
Ġíķľ ì§Ģ
Ġíķľ ê³ł
Ġíķľ ê²°
Ġíķľ ëĪĪ
Ġíķľ ëª¸ìĿ´
Ġíķľ ë§ĪëĶĶ
Ġì¡ ¸ë¦¬
Ġì¡ Įìĸ´
ëĭ¹ êµ¬
ëĭ¹ ìĿ´ìĹĲìļĶ
ëĭ¹ ë²ĪìĿĦ
ĳĲ ë¡ľ
ĳĲ íĨµ
ìķĪ íķĺëĬĶ
ìķĪ ì£¼
ìķĪ íĸĪëįĺ
ìķĪ ê°Īê±°ìĺĪìļĶ
ìķĪ íķľëĭ¤ê³ł
ìķĪ ìłķìłģìĿ¸
ìķĪ ìłķìłģìĿ´ê³ł
ê³¼ ìĹ°
ê³¼ íķ´ëıĦ
ê³¼ íķ¨
ê³¼ íķĺì£ł
ê³¼ ìĿ¼ìĿ´
ê³¼ ìĻ¸ë
ê³¼ ìłģìĿ¼ê¹Į
ĠëĲĺ ìļĶ
ĠëĲĺ ê²Į
ĠëĲĺ ê¸´
ĠëĲĺ ê¸°ê°Ģ
ĠëĲĺ ì§ĢìļĶ
ĠëĲĺ ìĹĪëĬĶëį°
ĠëĲĺ ê°ĢëĦ¤
ĠëĲĺ ìĹĪëĦ¤ìļĶ
ĠëĲĺ ìĭľê²łìĸ´ìļĶ
ĠëĲĺ ê°ĢëĬĶëį°
ĠëĲĺ ìĹĪë
Ġíķł ì§ĢëıĦ
Ġíķł ëŀĺ
Ġíķł ëķĮ
êµ¬ë §Į
êµ¬ë ¦¿ë¹Ľ
êµ¬ë ĳĲë¡ľ
ê±´ ëĵ¤
ê±´ ê°Ģë´ĲìļĶ
ê±´ ë¬¼
ê±´ ì¡°
ê±´ ëĦĪ
Ġìļ ¸ëł
Ġìļ ¸ë©´
Ġìļ ľë¡ľ
ë³µ ê·¼
ë³µ ìĬ¤ëŁ½ê²Į
ë³µ ìĽĲíķ´ë³´ìĦ¸ìļĶ
Ġì¢ĭìĿĦ ê±°ìĺĪìļĶ
Ġì¢ĭìĿĦ ê±°ì£ł
Ġëĵ¤ ê²łì§Ģ
Ġëĵ¤ ì§Ģë§Į
Ġëĵ¤ ìĿ´ë
Ġëĵ¤ ìľ¼ìĦ¸ìļĶ
Ġëĵ¤ ìĹĪëĬĶëį°
Ġëĵ¤ ìĹĪëĤĺë´ĲìļĶ
Ġëĵ¤ ìĹĪìĸ´ìļĶ
Ġëĵ¤ ì¼°
Ġëĵ¤ ìĹ¬ëĭ¤ë³´ìĦ¸ìļĶ
ìŀĪ ëĭ¤
ê·¸ ìłĢ
ê·¸ íķ´ëıĦ
ê·¸ ëĤĺìłĢ
ĠìĦł ìĹ°
ĠìĦł ì²ľ
Ġë¬´ ì§Ģ
Ġë¬´ ëĤľ
Ġë¬´ ìĸ¸
Ġë¬´ ë¦¬ê°Ģ
Ġë¬´ ê±°ìļ´
Ġë¬´ ì£Ħ
Ġë¬´ ëļĿ
Ġë¬´ ê¶ģ
Ġë¬´ íķľë¦¬íķĦ
Ġë¬´ ê²Įë¥¼
ëıĻ ìĥģ
ëıĻ ì§Ħ
ëıĻ ìĭ¬ìľ¼ë¡ľ
ëıĻ ìľ¡ìķĦ
ëıĻ ìķĦë¦¬
ëıĻ ìĭ¤ìĹĲ
íĸī ì¤Ģë¹Ħ
ìĭ¤ ì²ľ
ìĭ¤ íĹĺ
ìĭ¤ íĮ¨
ìĭ¤ ì»·
ìĭ¤ ìļ©ìłģìĿ¸
ìĻĢ ìļ°
ìĻĢ ìķ¼ì§Ģ
ìĻĢ ì£¼ì§Ģ
ëŀĳ ìĿ´
ĠëŃĲ ëĭĪ
ĠëŃĲ íķĺë©´
ĠëŃĲ íķĺëĥĲ
ĠëŃĲ íķĺëĬĶì§Ģ
ĠëŃĲ ìĺĢëįĶëĿ¼
Ġìĥģ íķ´ìļĶ
Ġìĥģ ì¢ħ
Ġìĥģ ìĥģìĿĦ
ì§Ī íķĺê²Į
ì§Ī ê¸´
ì§Ī ì²Ļ
ì§Ī ê¹Įë´Ĳ
ĠíķĺëĬĶ ê±¸
ĠíķĺëĬĶ ê±´ê°Ģ
ĠíķĺëĬĶ ê±°ìķ¼
ĠíķĺëĬĶ ê±°ê°ĻìķĦ
ë¦¬ë ¡ľ
ë¦¬ë ŀĺ
ë¦¬ë §Į
ë¦¬ë ©°
ë¦¬ë įĶëĿ¼
ë¦¬ë §Ī
íĮ ¬
íĮ ¨ëĶ©
íĮ Ĳëĭ¨
íĮ ¬ë¯¸
ì¡Į ëĭ¤
ì¡Į ê²łì£ł
ì¡Į ëĭ¤ê°Ģ
ìĨĮ ìĹĲìĦľ
ìĨĮ ìĽĲ
ìĨĮ ëª¨
ìĨĮ ë¦¬ëĬĶ
ìĨĮ ìĭĿìĿĦ
ìĨĮ ë§¥
ìĨĮ ìĭĿìĹĲ
ìĨĮ ê¸°ìĹħ
ìĨĮ ìĭ¬íķľ
ìĨĮ ëıħíķĺê³ł
ìĨĮ ë¶Ħíķ´ìĦľ
ĠìķĪë ıĮìķĦ
Ġì¢ĭìĿĢ ê±´
Ġì¢ĭìĿĢ ìłĲ
Ġì¢ĭìĿĢ ê²ĥ
Ġì¢ĭìĿĢ íħĲëį°
Ġì¢ĭìĿĢ ìłĲìĿĦ
ĠìĿ´ë³Ħ íķĺë©´
ĠìĿ´ë³Ħ ì¤ĳ
ĠìĿ´ë³Ħ íĸĪìĸ´
ĠìĿ´ë³Ħ íķĺê±°ëĤĺ
ĠìĿ´ë³Ħ ìĿ´ìķ¼ê¸°
ìĪĺ ê³ł
ìĪĺ ìĪĺ
ìĪĺ ê°ķ
ìĪĺ ìĭŃ
ìĪĺ ìĿ¸ê°ĢìļĶ
ìĪĺ ìŀĪìĸ´ìļĶ
ìĪĺ ê¶ģ
ìĪĺ ìŀĪìĿĦê¹Į
ìĪĺ ì¤įê²Į
ìĽĲ ëĳĲ
ìĽĲ íĶ¼
ìĽĲ íķĺëįĺ
ĠìłĦ íķł
ĠìłĦ íķĺë©´
ĠìłĦ íķĺìĦ¸ìļĶ
ĠìłĦ ìĿ¸ëį°
ĠìłĦ ê¸°ê°Ģ
ĠìłĦ íķĺëĬĶê²Į
ĠìłĦ ìĹ¬ìŀĲì¹ľêµ¬ê°Ģ
ĠìłĦ íķ´ì§Ī
ĠìłĦ ìĹŃ
ĠìłĦ íķ´ì¡Į
ĠìłĦ ëĭ¬íķł
ĠìłĦ ìĦ¸ê³Ħ
ĠëģĿ ê¹Įì§Ģ
ĠëģĿ ìĿ¸ê°Ģë´ĲìļĶ
ĠëģĿ ëĤĺë©´
ĠëģĿ ëĤĺëĦ¤
ĠëģĿ ëĤĺìĦľ
ĠëģĿ ìĿ¸ê°Ģë´Ĳ
ĠëģĿ ìĿ¼ì§ĢëıĦ
ĠëģĿ ëĤĺê°Ģ
ĠëģĿ ëĥĪìĸ´
ĠëģĿ ëĤ¬ëĬĶëį°
ĠëģĿ ëĥĪìĬµëĭĪëĭ¤
ĠëģĿ ëĥĪëĬĶëį°
Ġëĵľ ëĦ¤ìļĶ
Ġëĵľ ëŁ¬
Ġëĵľ ìĭľì§Ģ
Ġëĵľ ìĭľëĿ¼ê³ł
ìľ¼ ìĭ¤
ìľ¼ ìķħ
ìľ¼ ìħ¨ëĦ¤ìļĶ
ì¢ĭìĿĢ ì°¨ë¡ľ
ëĤł ìĿĦ
ëĤł ì§ľ
ëĤł íħĲëį°
ëĤł ëł¤ë
Ġìĸ ĩ
ĠíĹ¤ìĸ´ ì¡ĭ
ĠíĹ¤ìĸ´ ëĤĺìĺ¬
Ġê±¸ ìĿĮ
Ġê±¸ ìĸ´ëıĦ
Ġê±¸ ìľ¼ìĦ¸ìļĶ
ê°Ļ ëĦ¤
ê°Ļ ìľ¼ë©´
ê°Ļ ìķĺëįĺ
ì¦ Ļ
ìĥ ĺ
ìĥ ĮëĵľìľĦì¹ĺ
Ġì£¼ ìłĪ
Ġì£¼ íĥĿ
Ġì£¼ ìĭ¤ê±°ìĺĪìļĶ
Ġì£¼ ëĭ¹ìĿ´ìĹĲìļĶ
ìĿ¸ë ħ¸ëŀĺë°©
ĠëĤĺë ¡ľ
ĠëĤĺë Ħ¤ìļĶ
ĠëĤĺë Ŀ¼ë
ĠìĹ¬ìŀĲ ìĹĲ
ĠìĹ¬ìŀĲ ìĿĺ
ĠìĹ¬ìŀĲ ìĿ¸ì§Ģ
ĠìĹ¬ìŀĲ ì¹ľêµ¬ëŀĳ
ĠìĹ¬ìŀĲ ìĤ¬ëŀĮì¹ľêµ¬
ìĬ¤ë Ł°
ìĬ¤ë ª°
ìĬ¤ë £¸
ĠíķĦìļĶ íķĺë©´
ĠíķĦìļĶ íķłê¹Į
ĠíķĦìļĶ íķ©ëĭĪëĭ¤
ĠíķĦìļĶ íĸĪëįĺ
ĠíķĦìļĶ íķĺê²łì£ł
ĠíķĦìļĶ íķĺìĭľêµ°ìļĶ
ëĤľ ì²ĺ
ëĤľ ë°©
ëĤľ ëį°ìļĶ
ëĤľ ê°Ĳíķĺê²łìĸ´ìļĶ
Ġê·¸ ê°Ģ
Ġê·¸ ìĿĺ
Ġê·¸ íĽĦ
Ġê·¸ ê²ĥ
Ġê·¸ ê³³
ì¤ĳ ìĿ´
ì¤ĳ ìĿĦ
ì¤ĳ ìĿ¸
ì¤ĳ ìĿ´ìķ¼
ì¤ĳ ëıħ
ì¤ĳ ìĨĮê¸°ìĹħ
ìĨį íķ´
ìĨį ìĿĢ
ìĨį ìľ¼ë¡ľ
ìĨį ìĿ´ëĬĶ
ĠëĤ¨ìŀĲ ë¡ľ
ĠëĤ¨ìŀĲ ìĹĲê²Į
ĠëĤ¨ìŀĲ ìĿ¸ëį°
ĠëĤ¨ìŀĲ ëĵ¤ìĿĢ
ĠëĤ¨ìŀĲ ìĻĢìĿĺ
ë¬¼ ìĸ´
Ġê´ľì°® ëĭ¤ê³ł
Ġê´ľì°® ìķĺëĬĶëį°
Ġê´ľì°® ëĮĢìļĶ
ê³µ ìĹ°
ê³µ ê°ľ
ê³µ ìłģìĿ¸
ê³µ ë¶Ģë
ê³µ ê°ĲìĿĦ
ê³µ ê¸°ìłķ
ê³µ ëıĻìľ¡ìķĦ
ìł¸ íĬ¸
Ġê²° ìŀ¬
Ġê²° ìĭ¬ìĿ´
ĠìĹĨìĸ´ ê°Ģì§Ģ
ĠìĹĨìĸ´ ì¡ĮëĦ¤
Ġì¹ľ íķ´
Ġì¹ľ íķľ
Ġì¹ľ ì¶Ķ
ĠëĮĢ ìĭł
ĠëĮĢ íķĺê³ł
ĠëĮĢ íķĺë©´
ĠëĮĢ ì²´
ĠëĮĢ ì¶©
ĠëĮĢ ìĪĺìĿ¸ê°ĢìļĶ
ìĿ´ìłľ ìĦľìķ¼
Ġëĸ ¡ì¡Įìĸ´
ê²° ìĿ´
ê²° íķľ
ê²° íķĺê²Į
ê²° ëĭ¨
ìĺ¤ ëĬĶëį°
ìĺ¤ ê¸¸
ìĺ¤ ê²łì£ł
ìĺ¤ íĨ¡
ìĺ¤ ëĭĪê¹Į
ìĺ¤ ëĿ½ê°ĢëĿ½
ìĺ¤ ìĭ¹
ëħĦ ë§Į
ëħĦ ìĿ¸ëį°
ëħĦ ìĿ´ëĿ¼ëĬĶ
ëħĦ ë§ĮëĤľ
ëħĦ ëıĻê±°
ëħĦ ìĤ¬ê·Ħ
ëħĦ ìĹ¬ìĿĺ
Ġì¡° ì·¨
Ġì¡° ê¹ħíķĺê³ł
Ġëª¨ë¥´ ëĭĪ
Ġëª¨ë¥´ ì£ł
Ġëª¨ë¥´ ê²łì§Ģ
Ġëª¨ë¥´ ê²łìĿĮ
ê´Ģ ìĿ´
ê´Ģ ìłĪ
Ġíĺ ¹ìĭľ
Ġìī ´ë§Į
ê²½ ìļ°
ê²½ ì¡°
ê²½ ì°°
ĠìŀĬ ìŀĲ
ĠìŀĬ ìĸ´ìļĶ
ĠìŀĬ ê²łìĸ´
ĠìŀĬ ê¸°ë¡ľ
ĠìŀĬ ê¸°ëĬĶ
ĠìŀĬ ìľ¼ëł¤
ìľł íķĺê³ł
ìľł íķĻ
ìľł ê¸°ê²¬
ĠëĪ ħëĪ
ĠëĪ ķì§Ģ
ĠíĽĦ ëįľ
ìĭĿ ìĿĢ
ìĭĿ íķĺì§Ģ
ìĭĿ ìŀ¥
ìĭĿ ìĿ´ìĹĲìļĶ
ìĭĿ ë¹Ħê°Ģ
ìĭĿ ì´Ī
ìĭĿ ìĿ´ìļĶ
ìĭĿ ëĭ¨ì¡°ìłĪ
ë§İ ìľ¼ë©´
ìĺ¤ëĬĺ ì²ĺëŁ¼
íĽĦ ìķĦ
íĽĦ ìĹĲ
íĽĦ ë°°ê°Ģ
Ķ° ë¡ľ
Ķ° ë¥´ëĭĪê¹ĮìļĶ
ëĭ¬ ìĹĲëĬĶ
ë°Ķ ì§Ģ
ë°Ķ ëĭĪëĭ¤
ë°Ķ ë³´ëĬĶ
ë°Ķ ëĭ¤ëĬĶ
ë°Ķ ëĿ¼ëĬĶê²Į
ĶĶ ìĺ¤ë¥¼
ê°ľ ëĭ¹íĻ©
ê°ľ ìĭľíķ´ë³´ìĦ¸ìļĶ
ê°ľ ë°ľìĿĦ
íķĺëĭ µëĭĪëĭ¤
íķĺëĭ ¬ê¹Į
Ġê°Ģë ´Ĳ
Ġê°Ģë ©°
ł¤ êµ¬
ĠíĥĢ ìĦ¸ìļĶ
ĠíĥĢ ê²Į
ĠíĥĢ ëıĦ
ĠíĥĢ ìŀħ
ì°¨ ìĿ´
ì°¨ ê°Ģ
ì°¨ ìļ©
ì°¨ ë¦¼
ì°¨ ê³¡
ì°¨ ê°Ģìļ´
ì°¨ ë³ĦìĿĦ
ì°¨ ëĭĪì¦ĺ
ëĲ ¨
ëĲ ĺëıĦë¡Ŀ
ëĦĪë¬´ íķĺëĦ¤
ìŀĳ íķĺëĬĶ
ìŀĳ ìļ©
Ġìĸ´ëĸ»ê²Į ëĵł
ê¾¸ ëĤľ
ì¡° ë¦¬
ì¡° ë¥¼
ì¡° êµĲ
ì¡° ëªħ
ìļ¸ ì»¥
íĦ ¸
Ġë§ŀ ìĿĦ
Ġë§ŀ ìĿĮ
Ġë§ŀ ìķĦìļĶ
Ġë§ŀ ê¸¸
Ġë§ŀ ê²łì§Ģ
Ġë§ŀ ëĭ¤ê³ł
Ġë§ŀ ìķĺìĸ´
Ġë§ŀ ìķĦìĦľ
Ġë§ŀ ì¶¤ë²ķ
Ġë§ŀ ìŀ¥êµ¬ì³Ĳ
ĠìĿ¸ íĺķ
ĠìĿ¸ ìĤ¬ë¥¼
ĠìĿ¸ ìĥģìĿĦ
ìĸµ ìļ¸
Ġë§ĮëĤĺ ìķ¼ì£ł
íĹ ī
ĠëĤł ìĿĢ
ĠëĤł ëıĦ
ĠëĤł ê¹Į
ĠëĤł ëĵ¤
ĠëĤł ì§ľ
ĠëĤł ëĵ¤ìĿ´
ĠëĤł ìĿ´ìķ¼
ĠëĤł ê¹Įì§Ģ
ĠëĤł ê±°ìĺĪìļĶ
ĠëĤł ìĿ¸ê°Ģ
ĠëĤł ì¹´
ĠëĤł ìĿ´ëĦ¤
ĠëĤł ìĿ´ìĹĪëĤĺë´ħëĭĪëĭ¤
ĠëĤł ìĹĲë§Į
ĠëĤł ìĿ¸ì§ĢëĬĶ
Ġê°Ĳ ìĿ´
Ġê°Ĳ ì¶Ķ
Ġê°Ĳ ëĭ¹ìĿ´
Ġë¬¼ ìĿ´
Ġë¬¼ ì¦Ŀ
Ġë¬¼ ìĿ´ëĿ¼ëıĦ
ì§ľ ì§Ģ
ĠíĸĪ ëĤĺìļĶ
ĠíĸĪ ëĤĺë´ħëĭĪëĭ¤
ĠíĸĪ ìĿĦê±°ëĿ¼
ĠìĨĮ ìļ©
ĠìĨĮ íĴį
ĠìĨĮ ìľłê°Ģ
ĠìĨĮ ìķ¡
ĠìĨĮ íĻĢ
Ġíķĺê³ł ìĭ¶ìĸ´
Ġíķĺê³ł ìĭ¶ëĭ¤
ê³Ħ ëĭ¨
Ġìĭ« ëĦ¤
Ġìĭ« ëĮĢ
Ġìĭ« ì§ĢëĬĶ
Ġìĭ« ìĹĪëĬĶëį°
íĶĦ ëĭ¤
íĶĦ ëŀĳ
íĶĦ ë¦¬ë§Ī
ì¹ĺ íķĺê³ł
ì¹ĺ ì°Į
ĠìĹ°ìķł ëıĦ
ĠìĹ°ìķł íķĺëĬĶ
ĠìĹ°ìķł ë§Į
ĠìĹ°ìķł ì¤ĳ
ĠìĹ°ìķł ìĺĢ
ĠìĹ°ìķł ëģĿ
ĠìĹ°ìķł ìĺĢëĬĶëį°
Ġê´Ģ ë¦¬ê°Ģ
Ġê´Ģ ë¦¬ë¥¼
Ġë°© ë©´ìĹĲ
íĹ¤ìĸ´ì§Ħ íĽĦ
íĹ¤ìĸ´ì§Ħ ì§ĢëıĦ
ĠìķĦëĭĪ ìĺĪìļĶ
ĠìķĦëĭĪ ê¸´
ĠìķĦëĭĪ ìħ¨
ĠìķĦëĭĪ ìĹĪëĦ¤ìļĶ
Ġìĺ¤ ëĭĪ
Ġìĺ¤ ëĤĺ
Ġìĺ¤ ëĬĶëį°
Ġìĺ¤ ê²łëĦ¤ìļĶ
Ġìĺ¤ ê¸´
Ġìĺ¤ ëĤĺë´Ĳ
Ġìĺ¤ ëĬĶì§Ģ
Ġìĺ¤ ë¥´ê³ł
Ġìĺ¤ ìĭľë©´
Ġíĸī ìĭ¤ìĿĦ
ìĿ´ëĿ¼ ëĬĶê²Į
ë²ķ ìłģ
ë²ķ ìĿ´ëŀĳ
Ġì¤ĳìļĶ íķ´
Ġì¤ĳìļĶ íķ©ëĭĪëĭ¤
Ġì¤ĳìļĶ íķľì§Ģ
Ġì¤ĳìļĶ íķ´ì¡Įìĸ´ìļĶ
ìĦ± ìŀ¥ìĿĦ
ëĭµ ìĿ´ëĤĺ
ëĭµ ë¡Ģ
íķĻ íļĮ
íķĻ ë²Ī
íĥĢ ìŀĦ
íĥĢ ìĿ¸ìĿĺ
íĥĢ ìĿ¸ê³¼
Ġì§Ħ ë¶Ģ
Ġì§Ħ ì¶ľ
Ġì§Ħ ëıĦê°Ģ
Ġì§Ħ ìłĦìĿ´
Ġì§Ħ ë¦¬ì£ł
Ġì§Ħ ë¦¬ìĺĪìļĶ
ìĭľê°Ħ ìłģ
ìĭľê°Ħ ê³¼
Ġì°¨ ëıĦ
Ġì°¨ ë©´
Ġì°¨ ì°¨
Ġì°¨ ìŀĦ
Ġì°¨ ë¦¬ëĬĶ
Ġì°¨ ëł¸
Ġì°¨ ëĿ¼ëıĦ
Ġì°¨ íĬ¸ë¥¼
Ġì°¨ ê³¡
Ġì°¨ ë¦¬ëŀĺ
ëĵľ ëł¤
ëĵľ ëł¤ë³´ìĦ¸ìļĶ
ëĵľ ë¡ł
Ġíķĺ ê¸¸
Ġíķĺ ê²łëĦ¤ìļĶ
Ġíķĺ ìĭ¤
Ġíķĺ ê¸´
Ġíķĺ ìħĶ
Ġíķĺ ê³¤
Ġíķĺ ê²łìĬµëĭĪëĭ¤
Ġíķĺ ìĭľë©´
Ġíķĺ ìĭľê²łëĦ¤ìļĶ
Ġíķĺ ìļ°ìĬ¤
Ġíķĺ ìħĶìķ¼
Ġíķĺ ìħĶìķ¼ì£ł
Ġíķĺ ìĭľëĭ¤ëĭĪ
Ĭ¥ ìĿ´ìļĶ
Ġê¹ ľ
Ġê¹ Ĳê¹Ĳ
ĠìĻľ ê·¸ëŀĺ
ĠìĻľ ìĿ´ëŁ¬
ĠìĻľ ìĿ´ë¦¬
Ġìĭľê°ĦìĿ´ ì£ł
Ġìĭľê°ĦìĿ´ ì§ĢìļĶ
Ġëĭ¹ íķĺê³ł
Ġëĭ¹ ìĤ¬
Ġëĭ¹ íķ´ìļĶ
Ġëĭ¹ íķ¨
Ġëĭ¹ íĸĪëĤĺë´ĲìļĶ
Ġëĭ¹ íĸĪìĬµëĭĪëĭ¤
Ġëĭ¹ ëĭ¹íķ´
íĺĦ ìŀ¬
íĺĦ ê´Ģë¬¸
£¨ ì¦Ī
£¨ ì§Ģë§Ĳê³ł
ëĭ´ íķĺì§Ģ
ëĭ´ ê¸¸
íĦ° ëĶĶ
íĦ° ë¦¬ë§Į
ë¹Ħ ìĹĲ
ë¹Ħ ê¼
ë¹Ħ íĥĢë
Ġë¹ µ
Ġë¹ ¼ëĨĵì§Ģ
ìŀĲìĭł íķĺê³ł
ĠëıĦ ìĺĪìļĶ
ĠëıĦ ìŀĲê¸°
ĠëıĦ ìĦľê´Ģ
ĠëıĦ ëĮĢì²´
ĠëıĦ êµ¬ì£ł
ì§ĿëĤ¨ ìĿĺ
Ġë¹Ħ ë§Į
Ġë¹Ħ ìĽĮ
Ġë¹Ħ ìĻĢ
Ġë¹Ħ ìļ©
Ġë¹Ħ ì¶Ķ
Ġë¹Ħ íĤ¤
Ġë¹Ħ ë¡Ģ
Ġë¹Ħ íĮĲ
Ġë¹Ħ íĭĢ
Ġë¹Ħ ìĽĮë³´ìĦ¸ìļĶ
Ġë¹Ħ íĸīê¸°
Ġë¹Ħ ìĻĶìľ¼ë©´
Ġë¹Ħ íĺ¼ì£¼
Ġë¹Ħ ê²ģíķľ
Ġë¹Ħ ìĭ¼ëį°
ëĭ¨ ìĿ´ëĦ¤ìļĶ
ëĭ¨ ë°ľ
ëĭ¨ ìĪĺê°Ģ
ëĭ¨ ì§łìľ¼ë¡ľ
Ġì°¾ìķĦ ìĦľ
Ġì°¾ìķĦ ìķ¼
Ġì°¾ìķĦ ë³¼ê¹Į
Ġì°¾ìķĦ ë³´ëĬĶ
Ġì°¾ìķĦ ìĻĶ
Ġì°¾ìķĦ ê°Ģê³ł
Ġì°¾ìķĦ ìķ¼íķł
Ġìķł ìķ¼
Ġìķł íĭ
Ġìķł ì°©
Ġìķł ìį¨
Ġìķł ìłķìĿ´
Ġìķł ìĦĿ
ê·Ģ ì°¨ëĭĪì¦ĺ
Ġìĺ¤ë ĶĶìħĺ
ìĥĿê°ģ ìĿĺ
ìĥĿê°ģ ëĤł
ìĥĿê°ģ ì§ĢëıĦ
ìĥĿê°ģ ì²ĺëŁ¼
ìĥĿê°ģ ëĤ¬
ìĥĿê°ģ ìĹĨìĿ´
ìĥĿê°ģ ëĤĺëĦ¤
ìĥĿê°ģ íķ´ì£¼ëĬĶ
ìĥĿê°ģ ëĵ¤ìĿĦ
ìĥĿê°ģ íķĺê¸°ëĬĶ
ê·¼ íķ´
ê·¼ íķľê°Ģë´ĲìļĶ
ìĿ´ìķ¼ ê¸°ê°Ģ
ê±¸ ìĸ´
ê±¸ ì§Ģ
ê±¸ ì§ĢëıĦ
ìĦł íĨ¡
Ġë¶Ģ ëĬĶ
Ġë¶Ģ ëĦ¤
Ġë¶Ģ ëł¤
Ġë¶Ģ ë¥´
Ġë¶Ģ ì¶Ķ
Ġë¶Ģ ìĹĪìĸ´
Ġë¶Ģ íĮħ
Ġë¶Ģ ëł¤ë³´ìĦ¸ìļĶ
Ġë¶Ģ ë¥´ì§Ģ
Ġë¶Ģ ìŀĳìļ©
ê¹Įì§Ģ ë°ĸìĹĲ
ëĮĢë ¶Ģë
ëĮĢë Ĩĵê³ł
ì§ĳ ìŀ¡
ì§ĳ ë°ĸìĹĲ
ì§ĳ ì¤ĳìĿ´
Ġëį° ìĿ´
Ġëį° ìĹĲ
Ġëį° ìĦľ
Ġëį° ë¦¬ëŁ¬
ëĤĺëĬĶ ëį°
ĠìĽ ¹íĪ°
Ġì¤Ģë¹Ħ íķ´
Ġì¤Ģë¹Ħ ëĬĶ
Ġì¤Ģë¹Ħ íķĺë©´
Ġì¤Ģë¹Ħ íķĺëĭĪ
Ġì¤Ģë¹Ħ íķĺë©´ìĦľ
Ġì¤Ģë¹Ħ íķľë§Įíģ¼
ì¹ľêµ¬ë ³´ëĭ¤
íķ´ìĦľ ëıĦ
ìĭ¶ ëĦ¤
ìĭ¶ ìĸ´ìļĶ
ì²ľ íķĺê¸°ëĬĶ
ìĹ°ëĿ½ ëıĦ
ìĹ°ëĿ½ íĸĪëĬĶëį°
ìĹ°ëĿ½ íķ´ë´ĲìļĶ
ìĹ°ëĿ½ ëĵľëł¤ë³´ìĦ¸ìļĶ
³´ ëĬĶ
ë¬¸ ìĿĦ
ë¬¸ ìĦľ
ë¬¸ ì½ķ
ë¬¸ íĻĶìĦ¼íĦ°
ĠíĿ ĳìĹŃ
Ġíİ¸ ìĿĦ
Ġíİ¸ íķ´ìļĶ
Ġíİ¸ ìĿ´ìĹĲìļĶ
Ġíİ¸ íķ´ëıĦ
Ġíİ¸ ìĿ¸ëį°
Ġíİ¸ íķĺì£ł
Ġíİ¸ íķĺëĦ¤
Ġíİ¸ íķľê±°
ĠìĹĨëĬĶ ê±¸ìļĶ
ĠìĹĨëĬĶ ê±¸ì§ĢëıĦ
ĠìŀĲìĭł ëĭ¤ìļ´
ĠìŀĲìĭł ê°ĲìŀĪê²Į
Ġìłķë¦¬ íķ´ìķ¼
Ġìłķë¦¬ íķĺëł¤
Ġìłķë¦¬ íķ´ìķ¼íķł
íķ´ìķ¼ íķĺëĬĶ
íķ´ìķ¼ íķĺê³ł
íķ´ìķ¼ íķ´ìļĶ
Ġìłľ ê²Į
Ġìłľ ë¡ľ
Ġìłľ ìłķìĭłìĿ´
ì²ĺë ħĢ
ĠìĦłë¬¼ íķ´
ĠìĦłë¬¼ íķł
ĠìĦłë¬¼ ìĿ´ìĹĲìļĶ
ĠìĦłë¬¼ íķłê¹Į
ĠìĦłë¬¼ ìĿ´ëĿ¼
ĠìĦłë¬¼ íķ´ë³¼ê¹Į
ëĳĲ íĨµ
Ġìį¸ ìĿ¼
Ġìį¸ íĥĢ
Ġìį¸ ìŀĦ
Ġìį¸ ìĿ¸ì§Ģ
Ġìį¸ ìĿ¼ê¹Į
Ġìį¸ ìĿ¸ê°ĢìļĶ
Ġì§ĳ ê¹Įì§Ģ
Ġì§ĳ ìĸ´ìĦľ
Ġì§ĳ ì£¼ìĿ¸
ìĽĢ ìĿ´ëĦ¤ìļĶ
ìĽĢ ìĹĲëĬĶ
Ġëª° ìķĦ
ëĭ¹ìĭł ë§Į
ëĭ¹ìĭł ìĹĲê²Į
ëĭ¹ìĭł ê³¼
§Į íģ¼
§Į ìĿ´ëĿ¼ëıĦ
ĠëĶ° ì§ĢëĬĶ
ĠëĶ° ìľĦ
ĠëĶ° ëıĮ
ĠëĶ° ìķ¼íķĺëĤĺ
ĠëĶ° ëĵ¯íķľ
ĠëĶ° ë¥´ê¸°
ĠëĶ° ëģĶíķĺê²Į
Ġê¸°ëĭ¤ ë¦¼
Ġê¸°ëĭ¤ ëł¤ë
Ġê¸°ëĭ¤ ëł¸ìĸ´
Ġê¸°ëĭ¤ ë¦°ëĭ¤
Ġê¸°ëĭ¤ ë¦¬ëįĺ
ëª¨ ë¡ľ
ëª¨ ë¥¸
ëª¨ ê³µ
ëª¨ ê¸°ê°Ģ
ëª¨ íĥľ
ëª¨ ë¥¸ì²Ļ
ëª¨ ëĭĿ
íĨµ ìŀ¥
ê¸´ ì§Ģ
ê¸´ ê°Ģ
ê¸´ ê±´
ê¸´ ëĭ¤ëĬĶ
ê¸´ íķĺê¸´
ì³ ĩë°ĶíĢ
ìļ© ìĹĲ
ìļ© ê¸°ê°Ģ
ìļ© ì¹´ëĵľ
ìļ© ìĦľë¥¼
ĠìľĦ ì¹ĺê°Ģ
ĠìľĦ ëĮĢíķľ
ĠíĶ ½ìĦľë¥¼
ê²ĥ ìĹĲ
ê²ĥ ìĿ¸ê°Ģ
ĠìĿ´ìķ¼ê¸° íķĺê³ł
ĠìĿ´ìķ¼ê¸° íķ´ì£¼ìĦ¸ìļĶ
ĠìĿ´ìķ¼ê¸° íĸĪëįĺ
Ġë© Ģë¯¸
ì§ĢëĬĶ ëĵ¯
ĠíĹ ĺíķ´
ĠíĹ ¥íĹ¥
ĠíĹ ĺëĭ´
Ġê³Ħ ê¸°ë¥¼
Ġì°¸ ëĭ¤
Ġì°¸ ìķĺìĸ´ìļĶ
Ġì¶Ķ ìĦĿ
Ġì¶Ķ ìĽĮìĦľ
Ġì¶Ķ ìĦ¸ëįĶëĿ¼êµ¬ìļĶ
Ġì¶Ķ ìłģì¶Ķ
Ġíĸīë³µ ìĿĺ
Ġíĸīë³µ íķĺìĦ¸ìļĶ
Ġíĸīë³µ ìĿ¼ì§ĢëıĦ
Ġíĸīë³µ íķ´ì§ĢìĦ¸ìļĶ
Ġíĸīë³µ íķĺìĭ¤
Ġíĥ Ĳ
ì¼ ĵ
ì¼ ĢìĿ´ìĬ¤
ì¼ °ìĸ´
Ġì¤Ħ ìĹĲ
Ġì¤Ħ ìĹ¬
Ġì¤Ħ ìĿ´ìķ¼
Ġì¤Ħ ìĿ´ê³ł
Ġì¤Ħ ìŀĦë§Ĳ
ìĸ¸ íķĺëĬĶ
ìĸ¸ ëĭĪëŀĳ
íĶ¼ íķĺì§Ģ
íĶ¼ ìĸ´ìĭ±
ë²Ī íĺ¸ë¥¼
ëĭ¤ë¥¸ ê±¸
ë¹ ½
ë¹ ¼ë©´
ı¼ ìķ¼
Ġíķ´ìķ¼ íķĺëĬĶ
Ġíķ´ìķ¼ ê²łìĸ´
Ġíķ´ìķ¼ íķĺëĤĺë´Ĳ
ìłĪ íķł
ìłĪ ì¹ľ
ìłĪ ë§Ŀ
ĠìĻĶ ëĤĺ
ì§ĿìĤ¬ëŀĳ ë§Į
ì§ĿìĤ¬ëŀĳ ìĿ¸ì§Ģ
ì§ĿìĤ¬ëŀĳ ë§ĮìĿ´
ĠìĿ¼ìĿ´ ê¸¸
ĠìĿ¼ìĿ´ ìĹĪìĸ´
ĠìĿ¼ìĿ´ ì§ĢìļĶ
ĠìĿ¼ìĿ´ ëĥĲìĹĲ
ĠìĿ¼ìĿ´ ìĹĪìĿĦ
ìĽĶ ìĿĺ
Ġìĭľìŀĳ ëıĦ
Ġìĭľìŀĳ íķł
Ġìĭľìŀĳ íķĺê³ł
Ġìĭľìŀĳ ê³¼
Ġìĭľìŀĳ íķ¨
Ġìĭľìŀĳ íķĺê¸°
Ġìĭľìŀĳ ëĲ©ëĭĪëĭ¤
Ġë°ĽìķĦ ëıĦ
Ġë°ĽìķĦ ëĵľ
Ġë°ĽìķĦ ì¤Ħ
Ġë°ĽìķĦ ì¤Ħê¹Į
ĠìķĦëĭĮ ê°Ģ
ĠìķĦëĭĮ ê°Ģë´Ĳ
ìĹĨ ê³ł
ìĹĨ ê²Į
ìĹĨ ì£ł
ìĹĨ ëĭ¤ê°Ģ
ìŀł ëĵ¤
ìŀł ìĪĺ
ĠëıĮ ë¦´
ĠëıĮ ë´Ĳ
ĠëıĮ ë¦¬ê³ł
ĠëıĮ ìĭ±
ĠëıĮ ë³´ê¸¸
ĠëıĮ ëĭ´ê¸¸
ĠëĳĲ ì§Ģ
ĠëĳĲ ëłµ
ĠëĳĲ ìħ¨êµ°ìļĶ
ĠëĲĺë ł¤
Ġë§Įëĵ¤ ê¹Į
Ġë§Įëĵ¤ ê±°ìĺĪìļĶ
Ġë§Įëĵ¤ ëįĶëĿ¼ê³łìļĶ
íĸĪìĸ´ ìķ¼ì£ł
ĠìĬ¤ íĤ¨
ĠìĬ¤ íĬ¸ëłĪì¹Ń
ĠìĬ¤ íĦ°ëĶĶ
ìŀ¡ ëĭ´
ë³´ëĬĶ ê±´
ĠìĺĪ ìģĺ
ĠìĺĪ ê°ĲìĿ´
ĠìĺĪ ìĥģíķĺì§Ģ
ì¦Ŀ ìĿ¸ê°Ģë´Ĳ
Ġê³µ ê¸ī
Ġê³µ ë¶Ģë
Ġê³µ ë¬´ìĽĲ
Ġê³µ ì±Ħ
Ġê³łë¯¼ ìĿ´ìĹĲìļĶ
Ġê³łë¯¼ ê³¼
Ġê³łë¯¼ ìĿ¸ì§Ģ
Ġê³łë¯¼ ìĿ´ëĤĺ
Ġê³łë¯¼ ìĿ´ëĦ¤
Ġê³³ ê³¼
Ġê³³ ìĿ¸ê°Ģë´ĲìļĶ
ì²Ń ê°ķ
ì²Ń ìķ½
ì²Ń ê²°íķľ
íĮĮ ë§Ī
íĤ ¥
íĤ ¹
íİ¸ íķĺê³ł
íİ¸ íķ¨ìĿĦ
íķĺê¸° ë§Į
Ġìĭł ê¸°
Ġìĭł ìĿĦê¹Į
ì²ĺ ì§ĢëĬĶ
ë²Ħ ë¦°
Ġê³łë°± íķ´
Ġê³łë°± ìĿĢ
Ġê³łë°± íķłê¹Į
Ġê³łë°± íĸĪëĭ¤
Ġê³łë°± íķľëĭ¤
Ġëĵ¤ìĸ´ ìķ¼
Ġëĵ¤ìĸ´ ê°ĢìļĶ
Ġëĵ¤ìĸ´ ê°ĢìĦ¸ìļĶ
Ġëĵ¤ìĸ´ ê°ĢìĦľ
Ġë§ĪìĿĮìĿ´ ëŀĢê²Į
ê°ķ ìļĶ
Ġíģ ¬ëĬĶ
Ġíģ ¬ëĦ¤
Ġëĭ¤ë¥¸ ê±¸
íĥ Ģë¡ľ
íĥ Ģë©´
ë°° ë¥¼
ë°° ìĹĲìĦľ
ë°° ìļ¸
ë°° ì¶Ķ
ë°° ìļ°ëĬĶ
ë°° ìļ°ë©´
ë°° ìĥģìĿĦ
ë°° ê¸°ìĤ¬
ë°° ìĽĢìĹĲëĬĶ
ĠìŀĲê¾¸ ë§Į
ìĸ´ëĸ »
Ġëĸ¨ ìĸ´ìļĶ
Ġëĸ¨ ë©´
Ġëĸ¨ ë©´ìĦľ
Ġëĸ¨ ê¸°ëĬĶ
Ġëĸ¨ ëł¤ìļĶ
Ġëĸ¨ ë¦¬ê²łìĸ´ìļĶ
Ġëĸ¨ ë¦¬ëĦ¤ìļĶ
Ġëĸ¨ ë¦¬ëįĶëĿ¼
Ġíŀĺëĵľ ìĭł
Ġíŀĺëĵľ ìĭľê²łëĦ¤ìļĶ
ìĹ°ìķł ê°Ģ
ìĹ°ìķł íķĺê³ł
ìĹ°ìķł íķĺëĬĶëį°
ìĹ°ìķł ìĬ¤íĥĢ
Ġê°ĢëĬ¥ íķľ
Ġê°ĢëĬ¥ íķľì§Ģ
Ġê°ĢëĬ¥ íķĺëĭ¤ê³ł
Ġê°ĢëĬ¥ ìĦ±ìĿĦ
êµŃ ìĪĺ
êµŃ ìĿ´ëĭĪ
Ġíŀĺëĵł ê°Ģ
Ġíŀĺëĵł ê°ĢìļĶ
íĥĿ ê·¼ë
ê·¸ëŁ° ê±´ê°Ģ
ìħ¨ ëĤĺ
ìħ¨ ìĸ´ìļĶ
ì½ ĺìĿĦ
ì½ §ë¬¼
ĠìķĮìķĦ ì¤Ħ
ĠìķĮìķĦ ë´ĲìļĶ
ĠìķĮìķĦ ê°ĢëĬĶ
ĠìķĮìķĦ ê°Ģê³ł
ĠìķĮìķĦ ì£¼ëĬĶ
ĠìķĮìķĦ ëĤ´ìĦľ
ĠìķĮìķĦ ì£¼ìĭ¤ê±°ìĺĪìļĶ
Ġë¨¹ê³ł ëĦ¤ìļĶ
ĠìķĪëĲ Ĳ
ĠìķĪëĲ ©ëĭĪëĭ¤
ĠìķĪëĲ ĺë©´
ë¦¬ëĬĶ ê²ĥëıĦ
ê²°íĺ¼ ìĿĦ
ê²°íĺ¼ ìĹĲ
ê²°íĺ¼ íķł
ê²°íĺ¼ íķĺê³ł
ê²°íĺ¼ ìĹĲëĬĶ
ê²°íĺ¼ ìĿ´ëĤĺ
ê²°íĺ¼ íķ´ìĦľëıĦ
ìĤ´ ê¸°
ìĤ´ ë©´ìĦľ
Ġë¬¸ íĻĶ
Ġë¬¸ ì§Īë
Ġë¬¸ ìĿĺíķ´
ìĹħ ëį°ìĿ´íĬ¸
ë§Ľ ìŀĪì£ł
ë§Ľ ëĤľê±°
ë§Ľ ìŀĪê²łëĦ¤ìļĶ
ë§Ľ ìĿĦê±°
ë°ľ ëłĪ
ë°ľ ëĭ¬ë
ë°ľ ìłĦìĿ´
ë°ľ ìłĦìłģìĿ¸
ë¨¹ ëĬĶ
ë¨¹ ìľ¼ë©´
ë¨¹ ìĸ´ë³´ê³ł
ìĿ´ìĹĪ ëĤĺë´Ĳ
ìķĦë¬´ ëłĩê²Į
ìķĦë¬´ ëŁ°
ìķĦë¬´ ë§ĲëıĦ
Ġìĭ«ìĸ´ íķ´
Ġìĭ«ìĸ´ íķł
Ġìĭ«ìĸ´ íķłê¹Į
Ġìĭ«ìĸ´ ì¡Įìĸ´
Ġìĭ«ìĸ´ ìł¸ìļĶ
ìĵ° ëĬĶê²Į
Ġë°° ìĭł
Ġë°° ìļ¸
Ġë°° ìĽł
Ġë°° íĦ°ë¦¬
Ġë°° íĦ°ë¦¬ê°Ģ
ëł¥ ë§Į
ëł¥ ìĨĮê°Ģ
Ġê·Ģ ì°¬
Ġê·Ģ ìĹ½ê²Į
Ġë¶Ģë ª¨
Ġë¶Ģë ©Ķ
Ġë³Ģ íķĺëĬĶ
Ġë³Ģ íķĺë©´
Ġë³Ģ íķĺëĭĪ
Ġë³Ģ ìĭłíķĺê³ł
ĠëĨĢ ì§Ģ
ĠëĨĢ ëĿ¼
ĠëĨĢ ê¹ĮìļĶ
ĠëĨĢ ë¦¬ëĬĶ
ĠëĨĢ ìķĺëĬĶëį°
ĠëĨĢ ìķĦìĦľ
ĠëĨĢ ê¸°ë§Į
ë© ĺíĥĪìĿ´
íĴ ĢëĲĺ
Ġìĵ° ìĿ´
Ġìĵ° ìĦ¸ìļĶ
Ġìĵ° ëĦ¤
Ġìĵ° ìĹ¬
Ġìĵ° ëĭĪê¹ĮìļĶ
Ġìĵ° ìŀĲê³ł
Ġìĵ° ëĶĶ
Ġìĵ° ìĿ´ëĦ¤
Ġìĵ° ìħ¨ëĤĺë´ĲìļĶ
Ġìĵ° ë¦¬ê²łìĸ´ìļĶ
ë§¤ ê°Ģ
ë§¤ ìĿ¸ê°Ģë´ĲìļĶ
ë§¤ ìłķíķĺê²Į
ë³´ê³ł íĮĮ
ìĿ¸ê°Ģ ë¥¼
ìĬ¤ëŁ¬ ìļ°ë©´
ĠìĤ¬ë ¬´
ĠìĤ¬ë ĵľë¦¬ê³ł
ë¯¸ ìļ´
ë¯¸ ìĬ¤íĬ¸
Ġì¹ľêµ¬ ìķ¼
Ġì¹ľêµ¬ ìĿ¼
Ġì¹ľêµ¬ ìĹĲê²Į
Ġì¹ľêµ¬ íķ´ëıĦ
Ġì¹ľêµ¬ ìĤ¬ìĿ´
Ġëĸł ìĦ¸ìļĶ
Ġëĸł ìĦľ
Ġëĸł ëĬĶê±°
Ġëĸł ëĤĺë³´
Ġëĸł ìĺ¬ëł¤
Ġëĸł ìĺ¬ëĿ¼
ìľĦ ë¥¼
ìľĦ ì¸µ
ìľĦ ëŀĺìļĶ
ëªħ íĻķ
ëªħ ìĥģìĿĦ
Ġíŀĺëĵ¤ìĸ´ ëıĦ
Ġíŀĺëĵ¤ìĸ´ íķł
Ġíŀĺëĵ¤ìĸ´ ìł¸ìļĶ
Ġíŀĺëĵ¤ìĸ´ ì¡Įìĸ´ìļĶ
Ġë²Ħ ìĬ¤
Ġë²Ħ ë¦°
Ġë²Ħ ëł¤ë³´ìĦ¸ìļĶ
Ġë²Ħ ë¦¼
Ġë²Ħ ë¦¬ê²łìĸ´
íİ Ńê·
Ġê°ĻìĿ´ ëıĦ
ìĪĺë ¶Ħ
ìĪĺë °ķ
ìĪĺë Ŀ¼ëıĦ
ê²¼ ëĤĺë´ĲìļĶ
ê²¼ ëĭ¤ê³ł
Ġìłģ ìĿ´ìĹĲìļĶ
Ġìłģ ìľ¼ëĭĪê¹ĮìļĶ
Ġê±±ìłķ ìĿĦ
Ġê±±ìłķ ìĿ¼
Ġê±±ìłķ ìĿ´ìĹĲìļĶ
Ġê±±ìłķ ìĿ´ëĦ¤ìļĶ
Ġê±±ìłķ ëĲĺë
ì§ĿëħĢ ìĻĢ
ìĿ´ë Ł¬ë©´
ìĿ´ë £°
ĠìĤ¬ê·Ģ ê²Į
ĠìĤ¬ê·Ģ ê¸°
ĠìĤ¬ê·Ģ ìĸ´ìĦľ
Ġìļ° ëĬĶ
Ġìļ° ìłķ
íı° ê²ĮìŀĦ
ìĤ¬ë ıĦ
ìĤ¬ë Ħ¤ìļĶ
ìĤ¬ë ¹ł
ìĤ¬ë Łī
Ġìŀĺë ³´
Ġìŀĺë Ĳľ
Ġìŀĺë Ĳł
Ġìŀĺë Ĳĺê³ł
Ġìŀĺë §ŀ
Ġìŀĺë ı¼ìķ¼
ĠìŀĪìĹĪ ëĬĶì§Ģ
ê°ĻìĿ´ íķ´ë³´ìĦ¸ìļĶ
Ġê²°íĺ¼ ìĿĦ
Ġê²°íĺ¼ ìĿĢ
Ġê²°íĺ¼ íķľ
Ġê²°íĺ¼ íķĺëĬĶ
Ġê²°íĺ¼ íķĺê³ł
Ġê²°íĺ¼ íķĺìĦ¸ìļĶ
Ġê²°íĺ¼ íĸĪìĸ´
Ġê²°íĺ¼ íķ´ìķ¼íķłê¹Į
Ġê²°íĺ¼ íķĺê³łìĭ¶ìĸ´
Ġê°Ĳìłķ ìĿ´ìĹĲìļĶ
Ġê°Ĳìłķ ëĵ¤ìĿ´
Ġê°Ĳìłķ ëĵ¤ìĿĦ
ëĨ ĴìĿĢ
ëĨ Īëĵ¤
ĠëĦ ĵê³ł
ĠëĦ ĺëĦĺ
ĠëĦ ĭëĳĲë¦¬
ì§Ĳ ìŀĳíķĺëĬĶ
ìĺĢ ìĿĦê±°ìĺĪìļĶ
ĠìĿ´ìĥģ íķł
ĠìĿ´ìĥģ ìľ¼ë¡ľ
ĠìĿ´ìĥģ ìĿ´ë©´
ĠìķĪëı¼ ëĤĺ
¶Ħ íķ´
ë§ī ë§ī
ë§ī ë§ĲìĿ´
ĠíĶ¼ ì§Ģ
ĠíĶ¼ ê³ł
ĠíĶ¼ ëĤĺëĬĶ
ĠíĶ¼ ìļ°ëĬĶ
ĠíĶ¼ íķ´ë¥¼
ĠíĶ¼ íķ´ì£¼ì§Ģ
ĠíĶ¼ ìĭľë°©
ì¹¨ ë¬µ
ë°© ìł¸
ë°© ëĵ¤ìĿ´
ë°© ë¬¸
ë°© íĸ¥
ë°© íķ´ê°Ģ
ë°© ìĭ¬íķľ
ë°© íĥĪì¶ľ
ëĤ¨ìŀĲ ëıĦ
ëĤ¨ìŀĲ ëĵ¤
ëĤ¨ìŀĲ íķľíħĮ
ëĤ¨ìŀĲ ëĵ¤ìĿ´
ëĤ¨ìŀĲ ìĿ¸ì§Ģ
ëĤ¨ìŀĲ ì¹ľêµ¬ë¥¼
ëĤ¨ìŀĲ ëĵ¤ìĹĲê²Į
ëĤ¨ìŀĲ ìĤ¬ëŀĮì¹ľêµ¬
ëĤ¨ìŀĲ ì¹ľêµ¬ëĬĶ
Ġì§Ħì§ľ ìĿ¼ê¹Į
Ġìŀł ê¸¸
Ġìŀł ê¸°ëĬĶ
Ġìŀł ìŀĲë¦¬
Ġìŀł ìĪĺìĿ´ë³Ħ
Ġìŀł ê²¼ëĬĶëį°
íĺ¸ ìĿĺë¥¼
íĺ¸ íħĶ
íĺ¸ ìĿĺìĿ¸ì§Ģ
íĺ¸ íĮ¬
Ġê·¸ëŁ´ ê±°ìĺĪìļĶ
ĠìĦľ ì§Ģ
ĠìĦľ ìłĲ
ĠìĦľ ë¨¹
ĠìĦľ ìĦľíŀĪ
ĠìĦľ ìłģìĿĦ
Ġë¯¸ ì¹ĺì§Ģ
Ġë¯¸ ì¹ĺëĦ¤
Ġê´Ģìĭ¬ ìŀĪëĤĺ
ìŀ¬ ìĿ¸ê°Ģë´ĲìļĶ
ìŀ¬ ì£¼ê°Ģ
ìŀ¬ ìĦ¤ê³Ħ
ìŀ¬ ì±Ħê¸°
ìŀ¬ íħĮíģ¬
ìŀ¬ íĥĿê·¼ë
ĠëĪĪ ìĹĲìĦľ
ĠëĪĪ ìĹĲëıĦ
ìŀĬ ê¸°ê°Ģ
ìŀĬ ìľ¼ìĦ¸ìļĶ
Ġëĭµ ìĿĢ
Ġëĭµ ìĿ¸
Ġëĭµ ìĿ´ìķ¼
Ġëĭµ ìĿ¼ê¹Į
Ġë§İìķĦ ëıĦ
Ġë§İìķĦ ì§ĢëĬĶ
Ġë§İìķĦ ì¡Įìĸ´
Ġë¨¼ìłĢ ìĿ¼
ĠëĨĵ ì¹¨
ĠëĨĵ ì¹ĺê³ł
ĠëĨĵ ì³¤ìĸ´
ĠëĨĵ ìľ¼ëł¤
ĠëĨĵ ì³ĲìĦľ
ĠëĨĵ ì³¤ëĭ¤
ĠëĲĲ ëĭ¤ê³ł
ĠëĲĲ ëĤĺìļĶ
ëŀĺ íķ´ë³´ìĦ¸ìļĶ
ĠìĦ± ìĿ´
ĠìĦ± ëįķ
ĠìĦ± ë¶ĦìĿ´
ëĪĦ êµ´
ëĪĦ ìļ°ë©´
ëĪĦ ë£½ì§Ģ
Ġê³ĦìĨį íķ´ëıĦ
Ġê³ĦìĨį ëĲĺëĬĶ
¶Ģ ëĭĪê¹ĮìļĶ
¶Ģ ë¦Ħ
Ġëĵ¯ ìĿ´
Ġê¿Ī ìĿ´ìĹĪ
Ġê¿Ī ì²ĺëŁ¼
Ġê¿Ī ê¿
Ġê¿Ī ê°Ļëĭ¤
ìķ½ íķ´ì§Ģë©´
ìĹ¬ë ´ĲìļĶ
ìĹ¬ë ¦¬
ìĹ¬ë ĳĶ
Ġê°Ħ ìĹĲ
Ġê°Ħ ëĭ¤ë©´
Ġê°Ħ ëĭ¤ê³ł
Ġê°Ħ ìĭĿëıĦ
Ġë¯¿ ì§Ģ
Ġë¯¿ ëĬĶëį°
Ġë¯¿ ìĿĮìĿ´
Ġë¯¿ ìĿĮìĿĦ
ëĺĲ ëĭ¤ìĭľ
ê¸ī íķĺê²Į
ê¸ī ìĿ´ìķ¼
ê¸ī ëł¥ìĿ´
ê¸ī ë°Ľìľ¼ìĦ¸ìļĶ
ĠìĨį ëĬĶ
ĠìĨį ìĿĦ
ĠìĨį ìľ¼ë¡ľ
ĠìĨį ìĿ´ëĬĶ
ĠìĨį ìĭľìĽĲ
ĠìĨį ëıĦê°Ģ
ĠìĨį ìķĦì£¼ìĦ¸ìļĶ
ĠìĨį ìĤ¬ìłķìĿĦ
Ġíĺ¼ ìĪł
Ġíĺ¼ ëĤĺë©´
Ġíĺ¼ ëĤ¬ìĸ´
Ġíĺ¼ ëĤ´ëĬĶ
Ġíĺ¼ ìłĦìĪľ
Ġìī¬ ê²Į
Ġìī¬ ìļ¸
Ġìī¬ ìĭľê¸¸
Ġìī¬ ìĹĪëĭ¤
Ġìī¬ ìħĶìķ¼
Ġìī¬ ìĽĮë³´ìĿ´ëĤĺ
ì³Ĳ ìļĶ
ĠíŀĺëĵľëĦ¤ ìĹ¬
ê²© ëł¤
ĠìłĢ ìĿĺ
ĠìłĢ ìŀħëĭĪëĭ¤
ĠìłĢ ì¶ķ
ĠìłĢ íıī
ĠìłĢ ëł´
ĠìłĢ íİ¸ìľ¼ë¡ľ
ĠìłĢ ìĿĮìĿ´ì£ł
ë°Ľ ìĿĦ
ë°Ľ ì³Ĳ
ë°Ľ ìķĦìĦľ
ë°Ľ ìľ¼ëł¤ë©´
ë°Ľ ì§Ģë§ĪìĦ¸ìļĶ
Ġë¶Ħ ëĭ¤
Ġë¶Ħ ìĿ´ëĦ¤ìļĶ
Ġë¶Ħ ì¶ľ
Ġë¶Ħ ìĦĿ
Ġë¶Ħ ìķ¼ë
Ġë¶Ħ ìĹĲê²ĮëıĦ
Ġë¶Ħ ëĭ´ìĿĦ
Ġë¶Ħ ë°°ë¥¼
ì¶Ķ ìļ¸
ì¶Ķ ìľĦëŀĺìļĶ
Ġìĸ¸ ìĸ´ëıĦ
Ġìĸ¸ ëĭĪëŀĳ
Ġì¹ľêµ¬ë Ŀ¼ê³ł
ëŁ¬ ìļ´
ë¶Ģë ģĦëŁ¬
ìĸĳ ì§Ģ
ìĸĳ ëĭ¤ë¦¬
ìĸĳ ì¹ĺíķĺê³ł
ìĸĳ ë°°ì¶Ķ
ëķĮ ê¹Įì§Ģ
ëķĮ ë¬¸ìĹĲ
ëķĮ ë¦¬ëĬĶê²ĥëıĦ
įľ ëĦĪëįľ
Ġëĭ¹ìĭł ìĿĢ
ëŃĲ ê°Ģ
ëŃĲ íķĺë©´
ëŃĲ íķĺë©´ìĦľ
ëŃĲ íķĺëĥĲê³ł
ª¨ íĺ¸
½ì§Ģ ë¥¼
íľ´ ìļ°
íľ´ ìĸĳì§Ģ
ĠíĳľíĺĦ ìĹĲ
ĠíĳľíĺĦ íķł
ĠíĳľíĺĦ ìĿ´ìĹĲìļĶ
ĠíĳľíĺĦ íķĺê¸°
Ġê·¸ëŁ° ê²Į
Ġê·¸ëŁ° ê±´ì§Ģ
Ġê·¸ëŁ° ê±°ì§Ģ
Ġê¸°ìĸµ ìĹĲ
Ġê¸°ìĸµ ìľ¼ë¡ľ
Ġê¸°ìĸµ ëĵ¤ìĿ´
Ġê¸°ìĸµ ëĲł
Ġê¸°ìĸµ íķ´ì£¼ê³ł
ĠíĻĶ íķ´
ĠíĻĶ ë¥¼
ĠíĻĶ ìĤ´
ĠíĻĶ ëĤĺê³ł
ĠíĻĶ ìŀ¥ìĿ´
ĠíĻĶ ìŀ¥ìĿĦ
ĠíĻĶ ìļĶìĿ¼
ĠíĻĶ ëĥĪìĸ´
ĠíĻĶ íĴĢìĿ´
ëĭ¤ìĭľ ëĬĶ
ìĥĪ ê°Ģ
ìĥĪ ëĬĶ
ìĥĪ ì¹ĺê°Ģ
ê°ľìĽĶ ìĿ´ëĦ¤
ê°ľìĽĶ ëıĻìķĪ
ê°ľìĽĶ ê°ĦìĿĺ
ë´Ĳ ì£¼ëĬĶ
ĠìĤ Ķ
ëĭ¬ëĿ¼ ì§Ħ
Ġë°ĺ ìĿ´ìĹĲìļĶ
Ġë°ĺ íĸĪìĸ´
Ġë°ĺ íķĺëĬĶê²Į
Ġë°ĺ ê°ĳ
Ġë°ĺ ê°ĢìĽĮìļĶ
Ġë°ĺ íķŃ
Ġë°ĺ ê°Ģìļ¸
ĠìĿ´ìłľ ìĦľìķ¼
ì°¸ ì§Ģ
ì°¸ ëĬĶ
ì°¸ ìĿĦ
ì°¸ ëĭ¤
ì°¸ ìĻ¸
ì°¸ ìķĦìķ¼
Ġë§Įíģ¼ ë§Į
Ġë¶Ī ë§Į
Ġë¶Ī ê¸Ī
Ġë¶Ī ìĳ¥
Ġë¶Ī ìĮį
Ġë¶Ī ê³¼íķĺì£ł
Ġìłķë§Ĳ ë¡ľ
ĠìĦłíĥĿ íķ´ë³´ìĦ¸ìļĶ
ĠìĦłíĥĿ ìĿ´ì£ł
ĠìĦłíĥĿ íĸĪìĸ´ìļĶ
ĠìĦłíĥĿ ìĿ´ëĵł
ĠëĶ°ëĿ¼ íķĺê²Į
ĠëĶ°ëĿ¼ ìĺ¤ê²Į
ĠëĶ°ëĿ¼ ìĻĢì£¼ì§Ģ
íĿ ĺë
íĿ ¬ìĥĿ
íĿ °ë¨¸ë¦¬
ĠìĿ´íķ´ íķł
ĠìĿ´íķ´ íķĺê³ł
ĠìĿ´íķ´ íķĺì§Ģ
ĠìĿ´íķ´ íķ´ìļĶ
ĠìĿ´íķ´ íķ´ì¤ĺ
ĠìĿ´íķ´ íķĺëł¤ê³ł
Ġê¸°ë¶Ħ ìĿĦ
Ġê¸°ë¶Ħ ìĿ´ìķ¼
Ġê¸°ë¶Ħ ìłĦíĻĺ
ĠëıĻ ìĭľìĹĲ
ĠëıĻ ìĿĺíķľëĭ¤ë©´
ĠëıĻ ê·¸ëŀĢ
ĠëķĮë¬¸ ìĿ´ì£ł
ĠíķĺëĤĺ ìĿĺ
ìŀĪëĬĶ ê±°ìĺĪìļĶ
íĽĦíļĮ ë§Į
íĽĦíļĮ íķĺê³ł
íĽĦíļĮ ìķĪíķł
ëĪĪ ìĤ¬ëŀĮ
ëĪĪ ìĤ´ìĿ´
Ł¬ë ¥¼
Ł¬ë ªħ
ìĺģ íĻĶë¥¼
ìĺģ ìĥģìĿĦ
ìŀĲê¸° ê°ľë°ľìĿĦ
ëłĪ ìĭľíĶ¼ë
Ġìĭ¶ìĿĢ ê±°
Ġìĭ¶ìĿĢ ê°Ģë´ĲìļĶ
Ġìĭ¶ìĿĢ ëĮĢë¡ľ
ĠëĪĦ ëĤĺ
ĠëĪĦ ìĽĮ
ĠëĪĦ ëĤĺê°Ģ
Ġëį°ìĿ´íĬ¸ ìļĶ
Ġëį°ìĿ´íĬ¸ ëĬĶ
Ġëį°ìĿ´íĬ¸ ìĹĲ
Ġëį°ìĿ´íĬ¸ íķł
Ġëį°ìĿ´íĬ¸ íķĺê³ł
ĠëıĮìķĦ ìĦľ
ĠëıĮìķĦ ê°Ħ
ĠëıĮìķĦ ë³´ëĬĶ
ĠëıĮìķĦ ìĺ¨
ĠëıĮìķĦ ê°ĢìĦľ
ĠíĮ Ĳ
íĻķ ë³´íķĺìĦ¸ìļĶ
ĠëĬ¦ ê¸°
ĠëĬ¦ ìĸ´ìļĶ
Ġìŀ¡ ìĿĦ
Ġìŀ¡ íĺĢ
Ġìŀ¡ ëħĲìĿĦ
Ġìŀ¡ íĺĶìĸ´
Ġìķŀ ìĿ´ëĤĺ
Ġìķŀ ëª¨ìĬµ
Ġìķŀ ëĳĶ
Ġìķŀ ìĦľìĦľ
ìĺ¨ ëĮĢ
ìĺ¨ ìłĦíķľ
Ġìĭ¬ ìłķ
Ġìĭ¬ ëĤ¨
Ġìĭ¬ ìĭ¬
Ġìĭ¬ íķĺëĦ¤
Ġìĭ¬ íķĺëĦ¤ìļĶ
Ġìĭ¬ ìĭ¬íķ´
Ġìĭ¬ íĺ¸íĿ¡
Ġìĭ¬ íķĺëĮĢ
Ġìĭ¬ ì¿µ
Ġê°ĻìĿĢëį° ìļĶ
Ġê°ĻìĿĢëį° ëıĦ
Ġë³´ëĤ´ ê²łëĦ¤ìļĶ
Ġë³´ëĤ´ ìĭ¤
Ġë³´ëĤ´ ê¸°ë¡ľ
ì²´ ìĿ¸ìĿ´
ì²´ ìľ¡
ĠëŃĺ íķĺë©´
íĮħ ìĿĦ
Ġìĸ¼ ìĹĪìĸ´
ĠíĽĦíļĮ ë§Į
ĠíĽĦíļĮ íķĺì§Ģ
ĠíĽĦíļĮ íķĺê²łëĦ¤ìļĶ
ĠíĽĦíļĮ ëı¼
íķ´ì£¼ ê¸°
íķ´ì£¼ ëĬĶê²Į
íķ´ì£¼ ì§ĢëĬĶ
ĠìĹ¬íĸī ìĿ´
ĠìĹ¬íĸī ê°Ģê³ł
ìį¸ëĤ¨ ìĿ¸ëį°
Ġíķĺë£¨ ìĹĲ
Ġíķĺë£¨ ìĹĲëıĦ
Ġíķĺë£¨ ìĿ´ê¸¸
Ġíķĺë£¨ ìĺĢëĤĺìļĶ
ì¡°ê¸Ī ìĿĺ
íŀĺëĵ¤ ê³ł
íŀĺëĵ¤ ìĸ´ìĦľ
Ġì±Ļ ê¸´ëĭ¤ëĬĶ
Ġì±Ļ ê²¼ëĤĺë´ĲìļĶ
ìĭ¸ ìļ´
ìĭ¸ ìļ¸
ìĭ¸ ìĽł
ìĺ¬ ê²Į
ĠëĲĺëĬĶ ì¤Ħ
ĠëĲĺëĬĶ ê±´ì§Ģ
Ġëĭ¤ê°Ģ ê°Ķ
Ġëĭ¤ê°Ģ ê°Ģê³ł
Ġëĭ¤ê°Ģ ìĻĶìĸ´
Ġëĭ¤ê°Ģ ìĺ´
Ġëĭ¤ê°Ģ ìĻĶëĦ¤ìļĶ
ìĤ¬ëŀĳìĿ´ ëŀĢ
ëĤ´ìĿ¼ ìĿĺ
ëĤ´ìĿ¼ ìĿ´ë©´
Ġìĸ´ëĶĶ ëĭ¤
Ġìĸ´ëĶĶ ë¥¼
Ġìĸ´ëĶĶ ìĹĲìļĶ
Ġìĸ´ëĶĶ ìŀĪìĿĦê¹Į
Ġë²Ī ìĿĢ
Ġë²Ī ìĿĺ
Ġë²Ī ë³µ
Ġì§ĿëĤ¨ ìĹĲê²Į
Ġì§ĿëĤ¨ ê³¼
ëĶĶ ìłĢíĬ¸
ëĶĶ ìł¸íĬ¸
ì·¨ ìłľ
ì·¨ ì¤Ģ
ì·¨ ë½Ģ
ì»¤ íĴĢ
ì»¤ íİĺìĿ´
Ġìĭ¤ ëł¥
Ġìĭ¤ ëł¥ìĿ´
Ġìĭ¤ íĮ¨
Ġìĭ¤ íĸīìĹĲ
Ġìĭ¤ íĸīíķ´ë³´ìĦ¸ìļĶ
Ġìĭ¤ ëĤ´ë¡ľ
Ġìĭ¤ ì²ľíķĺê¸°ëĬĶ
ĠìĺĪë Ĭ¥ìĿ´ìļĶ
Ġê²°ìłķ ìĿ´ì£ł
Ġê²°ìłķ íĸĪìĸ´
Ġê²°ìłķ ìĿ´ê¸¸
Ġê²°ìłķ ìĿ´ìĹĪëĤĺë´ĲìļĶ
Ġê²°ìłķ ëĤľëį°ìļĶ
Ġê³µë¶Ģ ëĬĶ
Ġê³µë¶Ģ ëıĦ
Ġê³µë¶Ģ íķĺìĦ¸ìļĶ
Ġê³µë¶Ģ íķĺê¸¸
Ġê³µë¶Ģ íķĺìŀĲê³ł
ì±ħ ë§Į
ì±ħ ìŀ¥
Ġìĥ ľìĸ´
Ġìĥ ĮëĵľìľĦì¹ĺ
Ġì·¨ íķ´
Ġì·¨ íķł
Ġì·¨ íķĺê¸°
Ġì·¨ ê¸ī
Ġê¼ ¬ë¦¬
Ġê¼ Īìĸ´
ë³Ģ ê¸°
ë³Ģ íķľê²Į
ë³Ģ ìĭłìĿĢ
ĠìĿ´ë ¸Į
ĠìķĦíĶĦ ì£ł
ĠìķĦíĶĦ ê²łëĦ¤ìļĶ
ĠìķĦíĶĦ ì§Ģë§Į
Ġìĸ´ëł¤ ìļ°ëĭĪê¹Į
Ġìĸ´ëł¤ ìĦľë¶ĢíĦ°
ê·¸ëħĢ ìĹĲê²ĮëıĦ
ë¶ĢíĦ° ìĿĺ
ë¶ĢíĦ° ìĿ¸ì§Ģ
ëģĿ ìĿ´ëĦ¤
ëģĿ ëĤ¬ëĦ¤
ëģĿ ìĿ¸ê±°
ëĶ ¸ê¸°ê°Ģ
Ġìŀħ ìĿ´
Ġìŀħ ëĬĶ
Ġìŀħ íķĻ
Ġìŀħ ìĸ´ë³´ê³ł
Ġìŀħ íķĻìĭĿ
ëł¸ ìľ¼ëĭĪê¹ĮìļĶ
Ġì¹´íĨ¡ íķĺëĬĶ
Ġì¹´íĨ¡ íķĺì§Ģ
Ġì¹´íĨ¡ ìĹĲìĦľ
Ġë¬¼ìĸ´ ë³´ê³łìĭ¶
Ġë¬¼ìĸ´ ì£¼ìĭľëĭ¤ëĭĪ
Ġê¹¨ ëĬĶ
Ġê¹¨ ìĦľ
Ġê¹¨ ì§Ħ
Ġê¹¨ ì§Ī
Ġê¹¨ ì§Ģê³ł
Ġê¹¨ ëģĹ
Ġê¹¨ ì¡ĮëĬĶëį°
Ġê¹¨ ìĸ´ì§Ħ
Ġìĸ¸ìłľ íĸĪìĸ´
ê¿Ī ìĿĦ
ê¿Ī ëıĦ
ê¿Ī ê°ĻìĿĢ
ê¿Ī ê¾¸ëįĺ
Ġë´Ĳ ìķ¼
Ġë´Ĳ ëĭ¬ëĿ¼ê³ł
Ġë´Ĳ ìķ¼ê²łëĭ¤
ì¹´ ê³µ
ì¹´ ì¹´
ì¹´ ë¡±
ìĹ¬ìŀĲ ìĿ¸ëį°
íĤ¤ ìĬ¤ëĬĶ
Ġíĺ¼ìŀĲ ê°Ģ
Ġíĺ¼ìŀĲ ìŀĪ
ĠëĬĲëĤĮ ìĿĦ
ĠëĬĲëĤĮ ìĿ´ìĹĲìļĶ
ĠëĬĲëĤĮ ìĿ´ëĦ¤ìļĶ
ĠëĬĲëĤĮ ìĿ´ê¸¸
ëľ ¬ê¸Ī
íĳľ ê°Ģ
ĠìĿĺ ìĭ¬ìĿ´
ĠìĿĺ ìĤ¬ê°Ģ
ĠìĿĺ ìĤ¬íĳľ
ĠìĿĺ ìĭĿíķĺëĬĶ
ĠìĿĺ ìĭ¬íķĺì§Ģ
ĠìĿĺ ì¤ĳìĿĦ
ì°© íķł
ì°© íķ´ìĦľ
ì°© íķ´ìķ¼ì§Ģ
ì°© ê°ģìĿ´
Ġìĺģ íĨµ
Ġìĺģ íĻĶê°Ģ
Ġìĺģ ìĹŃ
Ġìĺģ ì¹¼ë¡ľë¦¬
íĻľ ê¸°ì°¬
ìĪĻ ë©´íķĺê²łëĦ¤ìļĶ
ìĬ¤ëŁ½ ëĭ¤
ìĬ¤ëŁ½ ì£ł
ìĬ¤ëŁ½ ê²łìĸ´ìļĶ
ìĬ¤ëŁ½ ê²łëĦ¤ìļĶ
ìĬ¤ëŁ½ ìĬµëĭĪëĭ¤
ëį ĺë
Ġëĵ ŃëĭĪëĭ¤
ìŀ¬ë ¯¸ë¡ľ
ë§Ŀ ìĿ´
ë§Ŀ íķľ
ë§Ŀ íķ´ëıĦ
Ġê·¸ëħĢ ìĿĺ
Ġê·¸ëħĢ ìĻĢ
ê´ľì°® ëĭ¤ê°ĢëıĦ
Ġìľł ìĿĺíķĺìĦ¸ìļĶ
Ġìľł ëªħíķľ
Ġìľł ìĦ¸ë¶Ģ
Ġìµľ ìļ°ìĦł
ê¸°ëĭ¤ ëł¤
ê¸°ëĭ¤ ëł¤ë³´ìĦ¸ìļĶ
ê¸°ëĭ¤ ë¦¬ëįĺ
ê¸°ëĭ¤ ëł¸ëĤĺë´ĲìļĶ
ĠìĥĿê²¼ ëĤĺë´Ĳ
ĠìĥĿê²¼ ìĿĦëķĮëĬĶ
ĠìķĦì§ģ ìĿ¸ê°Ģ
ĠìĥĿê°ģíķ´ ëĵľë¦´ê²ĮìļĶ
ìĶ¨ ìĿ¸ëį°
ìĶ¨ ë°©
ìĶ¨ ìĶ¨ìĿ¸ëį°
ìĤ° íķ´ìļĶ
ìĤ° ìĿ´ìĹĲìļĶ
ìĤ° ì±ħìĿĦ
Ġê¶ģê¸Ī íķĺëįĶëĿ¼ê³łìļĶ
Ġìĭ¸ ëĬĶ
Ġìĭ¸ ìĦ¸ìļĶ
Ġìĭ¸ ìĦľ
Ġìĭ¸ ìļ´
Ġìĭ¸ ìĽł
Ġìĭ¸ ê°Ģì§Ģê³ł
íĻĺ íķ´
íĻĺ ê¸°
íĻĺ íķĻìĥĿ
ê·¸ëŁ´ ëķĮëĬĶ
ĠìĤ¬ìĿ´ ëıĦ
ĠìĤ¬ìĿ´ ëĿ¼ë©´
ë¨¸ë¦¬ ìĹĲìĦľ
ë¨¸ë¦¬ ìĬ¤íĥĢìĿ¼
ëĲĺ ìĭ¤
ëĿ¼ë©´ ìļĶ
ëĿ¼ë©´ ë´ī
Ġê°ĢëĬĶ ê±°
ìĹ¬íĸī ìĿ´ì£ł
ìĹ¬íĸī ìĿ´ëĿ¼ëıĦ
Ġê·¸ë§Į íķĺëĬĶê²Į
Ġê·¸ë§Į ëĳĲê³ł
Ġê·¸ë§Į íķłëŀĺ
ĠíĺĦ ìĥģìŀħëĭĪëĭ¤
ĠíĺĦ ê¸ĪìĿ´ë©´
Ġìķ½ íķ´
Ġìķ½ ìĿĦ
Ġìķ½ ê°ĦìĿĺ
Ġìķ½ ë¨¹ê¸°
ĠìķĦíĮĮ íķĺì§Ģ
ĠìķĦíĮĮ íķĺë©´ìĦľ
ĠìĹ¬ìŀĲìķł ìĿĺ
ĠìĹ¬ìŀĲìķł ë¥¼
ĠìĹ¬ìŀĲìķł ëŀĳ
ìļĶì¦ĺ ìĹĲëĬĶ
ĠíĴĢ ìĸ´ìļĶ
ĠíĴĢ ë¦¬
ĠíĴĢ ëł¤
ĠíĴĢ ëł¤ê³ł
Ġë§Ľ ëıĦ
Ġë§Ľ ìĹĨìĸ´
Ġëĭ¬ëĿ¼ ì§Ħ
Ġëĭ¬ëĿ¼ ìł¸
Ġëĭ¬ëĿ¼ ì§Īê¹Į
Ġëĭ¬ëĿ¼ ì§Ħê²Į
Ġëĭ¬ëĿ¼ ì§Ģê²łì£ł
Ġëĭ¬ëĿ¼ ì¡Įê²łì£ł
ĠìķĬìĿĢ ê°Ģë´ĲìļĶ
ĠìĻĢ ëĿ¼
Ġìļ´ ìłĦ
íıŃ ëł¥
ìĥī ê°Ĳ
ìĥī ëĭ¤ë¥¸ê±¸
Ġìŀĺëª» ìĿĢ
Ġìŀĺëª» ìĿ´ëĦ¤ìļĶ
Ġìŀĺëª» ìĿ´ì§Ģ
Ġì±Ļê²¨ ë³´ìĦ¸ìļĶ
Ġì±Ļê²¨ ì¤ĺ
Ġì±Ļê²¨ ì¤Ħê¹Į
Ġì±Ļê²¨ ëĵľë¦¬ê³ł
Ġì±Ļê²¨ ìķ¼íķ´ìļĶ
íķ´ì§Ģ ëĤĺë´ĲìļĶ
Ġë³Ħ ë³Ħ
Ġë³Ħ ìĿ´ìĹĲìļĶ
Ġë³Ħ ìĿĺë³Ħ
Ġê´ľì°®ìķĦ ëıĦ
Ġê´ľì°®ìķĦ ì§ĢìĦ¸ìļĶ
Ġê´ľì°®ìķĦ ì§Ģê¸¸
Ġë¶Ģëĭ´ ìĿĦ
Ġë¶Ģëĭ´ ìĬ¤ëŁ¬
Ġë¶Ģëĭ´ ê°ĲìĿĦ
Ġë¶Ģëĭ´ ìĬ¤ëŁ¬ìļ´
Ġë¶Ģëĭ´ ëı¼
Ġë¶Ģëĭ´ ìĬ¤ëŁ½ê²Į
Ġë¶Ģëĭ´ ìĬ¤ëŁ¬ìļ¸
Ġìį ©
ëĤ¬ ìĬµëĭĪëĭ¤
Ġë§Īë ĶĶ
Ġë§Īë ¥¸
Ġë§Īë ¬´ë¦¬ê°Ģ
Ġë³µ ìłľê°Ģ
Ġë³µ íķ©
Ġë³µ ë°ĽìĿĢ
Ġë³µ ìĿ´ìĻĢìļĶ
Ġê·¸ë¦¬ ìĽĢìĿ´
Ġì§ĢëĤĺ ê°Ģ
Ġì§ĢëĤĺ ê³ł
Ġì§ĢëĤĺ ìķ¼
Ġì§ĢëĤĺ ê°Ħ
Ġì§ĢëĤĺ ê°ĳëĭĪëĭ¤
Ġì§ĢëĤĺ ê°ĢëĦ¤ìļĶ
ê³µë¶Ģ ê°Ģ
ê³µë¶Ģ ìĹĲ
ê³µë¶Ģ íķľ
ê³µë¶Ģ ë¥¼
ê³µë¶Ģ íķĺìĦ¸ìļĶ
ê³µë¶Ģ íķĺë©´ìĦľ
ê³µë¶Ģ íķĺëŁ¬
Ġë§ŀëĬĶ ê±°ê²łì£ł
Ġë¹ł ì§Ħ
Ġëħ¸ëł¥ ìĿ´
Ġëħ¸ëł¥ íķĺê³ł
Ġëħ¸ëł¥ íķĺì§Ģ
Ġëħ¸ëł¥ íķĺë©´
Ġëħ¸ëł¥ íķ´ìķ¼ì£ł
Ġì¦Ĳ ê²ģê²Į
Ġì¦Ĳ ê±°ìĽĮìļĶ
Ġë¿Ĳ ìĿ´
Ġë¿Ĳ ìĿ´ìĺĪìļĶ
Ġë¿Ĳ ìĿ´ëĭĪê¹ĮìļĶ
ë³¸ ìĿ¸
ë³¸ ìłģ
Ġë§ī ê³ł
Ġë§ī ìĥģ
Ġë§ī ì°¨
Ġë§ī ë§ī
Ġë§ī ìķĦë³´ìĦ¸ìļĶ
Ġë§ī íŀĪë
Ġë§ī ë§ĲìĿĦ
Ġë§ī íŀĪëĦ¤
Ġë§ĺ ìĿĢ
Ġë§ĺ ìĹĲìĦľëıĦ
Ġë§ĺ ê°Ļìľ¼ë©´
ìĪľ ìľĦë¡ľ
ìĪľ ìĦľëĬĶ
ĠìĤ¬ëŀĳìĿ´ ëĿ¼ë©´
ëĳ ĺëĭ¤
ëĳ ĺë§ĮìĿĺ
ëĤ¼ ê±°ëĿ¼
Ġê°Ī ë§Įíķľ
Ġê²½ ê³¼
Ġê²½ ìļ°ëĬĶ
Ġê²½ íĸ¥ìĿ´
Ġë°ľ ìĿĦ
Ġë°ľ ëĿ¼
Ġë°ľ ëłĮíĥĢ
Ġë°ľ ëłĮíĥĢìĿ¸ëį°ìĿ´
Ġë°ľ ë°ĶëĭĪëĭ¤
Ġë°ľ ê¸īë°Ľìľ¼ìĦ¸ìļĶ
Ġë§Ĳíķ´ ëĭ¬ëĿ¼ê³ł
Ġê°Ģìł¸ ê°ĢìĦ¸ìļĶ
Ġê°Ģìł¸ ìĺ¤ë©´
Ġëĭ¤ë¥´ ì§Ģë§Į
Ġëĭ¤ë¥´ ëĭĪê¹ĮìļĶ
ìļ´ëıĻ íķĺê³ł
ìļ´ëıĻ íĻĶ
ëª» íķ´
ëª» ëĲľ
ëª» ìĥĿê¸´
Ġì£½ ê²łëĭ¤
Ġì£½ ìĸ´ëıĦ
Ġì£½ ìĹĪëĭ¤
Ġì£½ ìĿ¸ëĭ¤
Ġë¨¹ìĸ´ ìĦľ
ê³łë¯¼ ìĿĢ
ê³łë¯¼ íķĺëĬĶ
ê³łë¯¼ ë§Į
ëĭ¤ìĿĮ ë¶ĢíĦ°
ëĭ¤ìĿĮ ëĭ¬ìĹĲëĬĶ
ìĤ¬ëŀĳíķĺëĬĶ ì§Ģ
ĠìĦ¸ ì£ł
ĠìĦ¸ ìĥģìĿ´ìĹĲìļĶ
ĠìĦ¸ ìļ°ê³ł
ĠìĦ¸ ìļ°ì§Ģ
ĠìĦ¸ ìĽĶìĿ´
Ġë¶Ļ ìĸ´
Ġë¶Ļ ìĿ´ìĦ¸ìļĶ
ëª¸ ìĿĦ
ëª¸ ìĿĢ
ëª¸ ìĿ¼ìľ¼
ĠìŀĶ íķĺê¸°
ĠìŀĶ ìŀĶ
ĠëĲľ ëĭ¤ë©´
ĠëĲľ ëĭ¤ëĬĶ
ĠëĲľ ëĭµëĭĪëĭ¤
ëĤ¨ì¹ľ ê³¼
Ġê³¼ ìĹĲ
Ġê³¼ ìĹ°
Ġê³¼ ìĹĲìĦľ
Ġê³¼ ìĿ¼ìĿĦ
Ġê³¼ ìĭĿíķĺì§Ģ
Ġë§ĮëĤĺëĬĶ ê±°
Ġíķľëĭ¬ íķĺê³ł
Ġíķľëĭ¬ ìĿ¸ëį°
Ġíķľëĭ¬ ì§¸
ĠëĦĺ ìĿĦ
ĠëĦĺ ìĹĪìĸ´
ĠëĦĺ ê²¨ë³´ìĦ¸ìļĶ
Ġìŀ¬ë¯¸ ìŀĪëĬĶê±°
ê¿ ©
ì§ĵ ìľ¼ë¡ľ
Ġê±°ëĿ¼ ëĬĶëį°
ê¸°ë¶Ħ ëĤĺìģĺ
ê¸°ë¶Ħ ìĿ¼êº¼
ê¸°ë¶Ħ ìłĦíĻĺìĿ´
Ġëĭ¨ ìĸ´
Ġëĭ¨ ìĪľ
Ġëĭ¨ ìłĲìĿĦ
ĠìĪł ë§Į
ì²« ìĿ´ë³Ħ
ì²« ëĪĪ
ì²« ìĤ¬ëŀĳìĿĢ
ì²« ìĤ¬ëŀĳìĿĦ
ì²« ëį°ìĿ´íĬ¸
ì²« ëĪĪìĹĲ
ĠëĤĺê°Ģ ê³ł
ĠëĤĺê°Ģ ëıĦ
ĠëĤĺê°Ģ ìķ¼ì§Ģ
ĠëĤĺê°Ģ ê¸°ê°Ģ
Ġê¸¸ ì§Ģ
Ġê¸¸ ìĹĲ
ìĸ¼ ìĸ´
ĠìĿ¼ìĸ´ ëĤľ
ĠìĿ¼ìĸ´ ëĤĺë³´ìĦ¸ìļĶ
ĠìĿ¼ìĸ´ ëĤ¬ëįĶëĭĪ
ê±´ê°ķ ìĿĢ
ê±´ê°ķ ìĹĲëıĦ
ê±´ê°ķ ê²Ģì§Ħ
íĸīë³µ ìĿ´
íĸīë³µ íķĺìĦ¸ìļĶ
íĸīë³µ íķĺê²Į
íĸīë³µ íķĺê¸¸
íĸīë³µ íķ´ì§Ģê¸°
ĠíĻķìĿ¸ íķĺê³ł
ĠíĻķìĿ¸ íķ´ë´ĲìļĶ
ëĶ° ëĵ¯
ëĶ° ëĵ¯íķľ
ìķĪë ¶Ģë¥¼
Ġìŀ¥ ìķł
Ġìŀ¥ ìĤ¬
Ġìŀ¥ ë§ĮíķĺëĬĶ
ì£¼ë Ħ¤
ì£¼ë Ł¬
ì£¼ë ł¤ê³ł
ì£¼ë £©
ì£¼ë Īħ
íĸ¥ ê¸°
ĠìķĦëĭĲ ì§ĢëıĦ
Ġìĺ¤ëŀĺ ê±
Ġìĺ¤ëŀĺ ìłĦ
Ġìĺ¤ëŀĺ ê°Ī
Ġìĺ¤ëŀĺ ê°ĢìļĶ
Ġê·Ģì°® ìĿĢ
Ġê·Ģì°® ëĦ¤
Ġê·Ģì°® ìĿĢëį°
ëĵ¯ íķł
ëĭ¬ë ¦¬
ëĭ¬ë °ĺ
ĠìĹĨìĿĦ ê±°ìķ¼
ĠìķĮëł¤ ì£¼ëĤĺë´ĲìļĶ
ĠìĥģíĻ© ìĿ´
ĠìĥģíĻ© ìĹĲìĦľ
ĠìĥģíĻ© ìĿ¸ì§Ģ
ĠìĥģíĻ© ìĿ¸ê°Ģë´ĲìļĶ
íıī ìĿ¼
Ġì¤ĳìļĶíķľ ëį°ìļĶ
ì²ĺìĿĮ ìĿĢ
ì²ĺìĿĮ ë§Į
ì²ĺìĿĮ ìĿ´ëĿ¼
ì²ĺìĿĮ ìĹĶ
íĥľ ëª½
íĥľ ìĸ´ëĤľ
íĥľ ìĹ°íķĺê²Į
ê½ĥ ë°Ķ
ê½ĥ ê½
ê½ĥ ê²Įíĥķ
ìŀħ ë§Ľ
ìŀħ ìŀ¥ìĿĦ
ìŀħ ìĨĮë¬¸
íĻĶìŀ¥ ìĿ´
ìłģìĿ´ ìĸ´ëıĦ
íĬ¸ë Ŀ¼
Ġë²Į ìĸ´ìļĶ
Ġë²Į ìĪĺë¡Ŀ
Ġë²Į ëłĪë¥¼
ĠìĬ¬ íĶĮ
ĠìĬ¬ ìĬ¬
ĠìŀĬìĸ´ ê°ĢìļĶ
ëĲľ ëĭ¤ë©´
Ġíĥľ ìĤ°ìĿ´ìĹĲìļĶ
Ġíģ° ìĿ¼
Ġíģ° ìĿ¼ìĿ´ëĦ¤ìļĶ
Ġëĸ¨ìĸ´ ì§Ħ
Ġëĸ¨ìĸ´ ì§Ģì§Ģ
ĠìĤ¬ëĬĶ ëį°ìļĶ
ì¢ħ ë£Į
ì¢ħ ìķĦë¦¬
ìĦ¸ìĥģ ìĿĺ
ë°ĺ íĸĪëĤĺë´ĲìļĶ
ë°ĺ ê°ĢìĽĮìļĶ
ë°ĺ ê°ĢìĽĮ
ĠëıĪ ë³´ëĭ¤
Ġì§ĢëĤ´ ëĬĶëį°
Ġì§ĢëĤ´ ë´ħìĭľëĭ¤
ëª© ê°Ĳê¸°
ëª© ìĨĮë¦¬
ëª© ê±¸ìĿ´
ëª© ìļķíĥķ
ëª© ìĨĮë¦¬ëĬĶ
ë¹ł ì§Īê¹Įë´Ĳ
Ġë§¤ ìĦ¸ìļĶ
ĠìĤ¬ëŀĮëĵ¤ ìĿĦ
ĠìĤ¬ëŀĮëĵ¤ ëıĦ
ĠìĤ¬ëŀĮëĵ¤ ê³¼
ĠìĤ¬ëŀĮíķľíħĮ ë§Į
ë¶Ī ìķĪ
ë¶Ī ìĳ¥
ë¶Ī ê°Ģíķľ
ë¶Ī íİ¸íķ¨ìĿĦ
Ġë§ĲìĶĢ íķ´
Ġë§ĲìĶĢ ìĿ´ìĭł
ĠìĹ°ìĬµ íķĺë©´
ĠìĹ°ìĬµ íķĺê±°ëĤĺ
Ġì§Ģê¸Ī ìĿ´ì£ł
Ġì§Ģê¸Ī ë³´ëĭ¤
ë¯¸ëł¨ ìĿĦ
ë¯¸ëł¨ íķľ
Ġì£¼ë ¦Ħ
Ġì¶ķ ê°Ģ
Ġì¶ķ êµ¬
Ġì¶ķ ìłľ
ê²°êµŃ ìĹĶ
Ġíĺ¸ ìĪĺ
Ġíĺ¸ ìĿĺë¥¼
Ġê´Ģê³Ħ ìĹĲ
Ġê´Ģê³Ħ ìĹĲìĦľ
Ġê´Ģê³Ħ ìŀħëĭĪëĭ¤
ĠìĽĥ ëĬĶ
ĠìĽĥ ê²Į
ĠìĽĥ ëĬĶê²Į
ĠìĽĥ ê²¨
ĠìĽĥ ìľ¼ë©´ìĦľ
ĠìĽĥ ìĸ´ë´ĲìļĶ
ì¹ľêµ¬ëĵ¤ íķľíħĮ
ĠëĲĺëĤĺ ìļĶ
Ġìĭłê²½ìĵ° ëĬĶ
Ġìĭłê²½ìĵ° ë©´
Ġêµ¬ ìĥģ
Ġêµ¬ íķĺìĦ¸ìļĶ
Ġêµ¬ ê²½
Ġêµ¬ íķ´ìķ¼
Ġêµ¬ íķĺìħ¨
Ġêµ¬ ìĨįíķ´
Ġë¬¸ìłľ ê²łëĦ¤ìļĶ
Ġíĭ° ëĤĺìļĶ
Ġíĭ° ëĤ´ë©´
Ġíĭ° ëĥĪëĬĶëį°
Ġì´ ī
Ġì´ ¬ìĺģ
ê°Īë ķĮ
Ġê°ĸ ëĬĶ
ĠìĹĦ ë§Ī
ĠìŀĪëĭ¤ë©´ ìļĶ
ê¸°ë¡ľ ë¶ĢíĦ°ìĿĺ
Ġë§ĮëĤ¨ ìĿĢ
Ġëª»íķĺ ìĭľëĬĶ
ĠëģĬ ê²¼
ĠëģĬ ìľ¼ìĦ¸ìļĶ
ĠëģĬ ìĹĪìľ¼ë©´
ĠëģĬ ê²¼ëĬĶëį°
ĠëģĬ ìľ¼ëĿ¼ê³ł
ĠëģĬ ê¸´ì§Ģ
ĠëĲĺìĹĪ ìľ¼ë©´
ĠëĲĺìĹĪ ê²łëĦ¤ìļĶ
ĠëĲĺìĹĪ ëĤĺìļĶ
ì½Ķ íĬ¸
ì½Ķ ì½Ķ
ì½Ķ ê³¨
ì½Ķ ìĬ¤íĦ°
ì½Ķ ëĵľê°Ģ
ì½Ķ ìĿ¸ëħ¸ëŀĺë°©
Ġê·¸ëłĩ ê²łì§Ģ
ì»¤íĶ¼ ìĹĲ
ì»¤íĶ¼ ëıĦ
ĠíĨµ íķĺëĬĶ
ĠíĨµ íķ´ìĦľ
ĠìĪľê°Ħ ìĿĦ
ĠìĪľê°Ħ ìĿĢ
ĠìĪľê°Ħ ëĵ¤ìĿ´
ì´ ¬ìĺģ
ĠìĿ¼ë ¡ľ
ĠìĿ¼ë ¶ĢëŁ¬
ĠìĿ¼ë ¶ĢëĭĪê¹ĮìļĶ
ì¹ł ê¹Į
Ġë§Īìĭľ ìĦ¸ìļĶ
Ġë§Īìĭľ ëĿ¼ê³ł
Ġë§Īìĭľ ëŁ¬
Ġë§Īìĭľ ë©°
Ġê²ĥìĿ´ ìļĶ
Ġê²ĥìĿ´ ê²łì£ł
Ġê²ĥìĿ´ ëĿ¼ë©´
ìĨĲ ëª©
ìĨĲ ê¸¸ìĿ´
ìĨĲ ëĭĺ
ìĨĲ ë§ĽìĿ´
ìĨĲ ìŀ¬ì£¼ê°Ģ
Ġìĥģê´Ģ ìĿ´
íı¬ ê·¼
íı¬ ìĿ¸íĬ¸ê°Ģ
íı¬ ì»¤íİĺìĿ´
Ġë§ĮëĤĺê³ł ìĻĶìĸ´
ĠìľĦë¡ľ íķ´ì¤Ħê²ĮìļĶ
íĩ´ ìĤ¬
Ġì»¤ ìļĶ
Ġì»¤ ì§Ģ
Ġì»¤ ì§ĢëĬĶ
Ġë§Ŀ ê°Ģ
Ġë§Ŀ ìĥģ
Ġë§Ŀ íķĺëĬĶê±´
ìĽł ìľ¼ë©´
Ġìĸ´ëĸ¤ ê±´ì§Ģ
Ġì¹ĺ ìļ°ê³ł
ĠìłķëıĦ ë¥¼
ĠìłķëıĦ ë©´
Ġëª¨ìĬµ ìĿ¼ì§ĢëıĦ
íģ¬ ê²Į
ĠìĬµê´Ģ ìĿ´
ĠìĬµê´Ģ ìľ¼ë¡ľ
ĠìĬµê´Ģ ìĿ´ëĿ¼ê³ł
íĹĪ ìĭĿìĿ´ìĹĲìļĶ
Ġëĭµëĭµ íķĺê³ł
Ġëĭµëĭµ íķ´ìĦľ
Ġëĭµëĭµ íķĺëĭ¤
Ġëĭµëĭµ íķĺëĭ¤ë©´
Ġëĵ£ ì§Ģ
Ġëĵ£ ëĭĪ
Ġë³Ħë¡ľ ìĿ¸ê°Ģ
Ġë³Ħë¡ľ ëĿ¼ë©´
ìĹĦë§Ī ê»ĺ
Ĳĺ ê²Į
Ĳĺ ê²łëĦ¤ìļĶ
Ġê°ĳ ìĭľëĭ¤
ĠëĤĺìĻĢ ìķ¼
ĠìĿ¸ìłķ ìĿĢ
ĠìĿ¸ìłķ íķ´ì¤Ħ
ĠíĥĪ ìĿ´ëĦ¤ìļĶ
Ġíı¬ ìŀ¥ìĿ´
Ġíı¬ ê·¼íķĺì£ł
ĠìĺĪë»Ĳ ì§Ī
ĠìĺĪë»Ĳ ì§Ģê²łëĦ¤ìļĶ
ĠìĺĪë»Ĳ ë³´ìĿ´ëĬĶ
ĠìĺĪë»Ĳ ì§ĢëĤĺë´Ĳ
ê³łë°± ëıĦ
ê³łë°± íķł
ĠíĤ¤ ìĬ¤
ĠíĤ¤ ìļ°ìĦ¸ìļĶ
ĠìĭĿ ìľ¼ë¡ľ
ĠìĭĿ ìĸ´ìĦľ
ĠìĭĿ ìĬµê´ĢìĿĦ
ĠìĭĿ ìĬµê´ĢìĿ´ìĹĲìļĶ
ĠìĭĿ ëıĦìĹ¼
ĠìĭĿ ëĭ¨ìĿ´ëĦ¤ìļĶ
ĠìĿ´ìĸ´ ê°Ģ
ĠìĿ´ìĸ´ íı°
ĠìĿ´ìĸ´ ì§Ģê¸¸
ìĿ¼ì§¸ ìĿ¸ëį°
ëĤ¨íİ¸ ìĿĦ
ëĤ¨íİ¸ íķľíħĮ
Ġê·¸ëŀĺ ìĦľ
Ġì§Ģì¼ľ ë³´ëĬĶ
Ġì§Ģì¼ľ ì§Ģì§Ģ
Ġì§Ģì¼ľ ëĭ¬ëĿ¼ê³ł
Ġì§Ģì¼ľ ë³´ê¸°ë§Į
ĠìĤ´ìķĦ ëıĦ
ĠìĤ´ìķĦ ìĦľ
ĠìĤ´ìķĦ ë³´ìĦ¸ìļĶ
ĠìĤ´ìķĦ ìĺ¨
ĠìĤ´ìķĦ ìķ¼ëı¼
Ġì¶©ë¶Ħ íķł
ĠìłĦíĻĶ ëĬĶ
ĠìłĦíĻĶ íķĺê³ł
ĠìłĦíĻĶ íķ´ëıĦ
ĠìłĦíĻĶ ìĻĶìĸ´
Ġë¯¸ëł¨ ìĿĦ
Ġë¯¸ëł¨ ë§Į
Ġë¯¸ëł¨ ìĹĨìĿ´
ĠíĿĲ ë¥¼
Ġê¸°ëĭ¤ëł¤ ì§Ģê²łëĦ¤ìļĶ
Ġë©ĭ ìĿĦ
Ġë©ĭ ìł¸
Ġë©ĭ ìŀĪìĸ´
Ġë©ĭ ì§ĢëĦ¤ìļĶ
Ġë©ĭ ìŀĪì£ł
Ġë©ĭ ìŀĪëĬĶê±°
Ġì¶Ķìĸµ ë§Į
Ġì¶Ķìĸµ ìľ¼ë¡ľ
ĠíĻķìĭ¤ íķĺê²Į
ĠíĻķìĭ¤ íķľì§Ģ
ĠíĻķìĭ¤ íķ´ì¡Į
Ġëĭ¤ê°Ģê°Ģ ê¸°
Ġëĭ¤ê°Ģê°Ģ ë©´
Ġëĭ¤ê°Ģê°Ģ ëĬĶê²Į
Ġëĭ¤ê°Ģê°Ģ ìķ¼ì£ł
ëĦ ¥íĥĢ
ëĦ Ľìĺ¤
ìĹĩ ê°Īë
ìŀĶ íķĺëĦ¤ìļĶ
ë§ĺ ìĿĦ
íķĺìĭľ ê¸¸
ĠìĤ¬ëŀĮëĵ¤ìĿ´ ìļĶ
ĠìĤ¬ëŀĮëĵ¤ìĿ´ ëĤĺ
ĠìĤ¬ëŀĮëĵ¤ìĿ´ ëŀĳ
ĠìĤ¬ëŀĮëĵ¤ìĿ´ êµ°ìļĶ
ìĿ¸ìĥĿ ìĹĲìĦľ
ë°¥ íĨµ
ë°¥ ìĭ¬ìľ¼ë¡ľ
ê±°ë¦¬ ê²łëĦ¤ìļĶ
ê±°ë¦¬ íĻķë³´íķĺìĦ¸ìļĶ
ĠíŀĺëĤ´ ìļĶ
ĠíŀĺëĤ´ ëł¤
Ġê¸°ëĮĢ ìĹĲ
Ġê¸°ëĮĢ ëıĦ
Ġê¸°ëĮĢ íķĺì§Ģ
Ġê¸°ëĮĢ íķĺê²Į
Ġê¸°ëĮĢ íĸĪëĬĶëį°
ĠíķĻ ê³¼
ĠíķĻ ìĽĲ
ĠíķĻ ìłĲ
ĠíķĻ ê¸°ë¥¼
ĠìĹ¬ì¹ľ ìĿĦ
¸ëł¤ ë³´ìĦ¸ìļĶ
¸ëł¤ ì§Ģì£ł
Ġë°ĽìķĦëĵ¤ìĿ´ ì§Ģ
Ġë°ĽìķĦëĵ¤ìĿ´ ëĬĶê²Į
ë¶Ģëª¨ëĭ ĺë§ĮìĿĺ
íĪ¬ ìĬ¤
íĪ¬ ìŀ¡
íĪ¬ ìŀĲíķľ
ĠëĦĪ ëĬĶ
ĠëĦĪ ë§Į
ĠëĦĪ íķľíħĮ
ìĿĳ ìĭľëĬĶ
ìķŀ ìĿ´ì£ł
íķ´ì¤ĺ ìļĶ
ĠëĤľ ëĭ¤
Ġë°ĺë Ĥ©
Ġê·¹ë³µ íķĺëĬĶ
Ġê·¹ë³µ íķĺê³ł
ì¡´ ìŀ¬
Ġì°į ìĹĪìĸ´
Ġì°į ëĭ¤ë³´ë©´
ìĥĿíĻľ ìĿĺ
ìĥĿíĻľ ìļ©íĴĪ
ĠëĲĺìĸ´ ê°ĳëĭĪëĭ¤
Ġì§ĳìĹĲ ë§Į
ì³¤ ëĬĶëį°
Ġíģ¬ ê²łì£ł
Ġíģ¬ ê¸°ê°Ģ
Ġíģ¬ ìĭľê²łëĦ¤ìļĶ
ì» ¤ë®¤ëĭĪ
ìĦ¤ ëĤłìĿ¸ëį°
ìĦ¤ íĮħìĿĦ
ê¸Ģ ìŀĲëĿ¼ëıĦ
ëłµ ëĭĪëĭ¤
Ġë§Īì£¼ íķĺëĬĶ
Ġë§Īì£¼ ì¹ĺì§Ģ
Ġë§Īì£¼ ì³¤ìĸ´
Ġê°Ģìŀ¥ íķ´ìĦľ
ĠëĤĺìĿĦ ê°Ģ
ë¨¸ ìĭłìĿ´
ë¨¸ ì½Ķëĵľê°Ģ
Ġë¬´ìĭľ íķĺì§Ģ
Ġë¬´ìĭľ íķ´ì£¼ìĦ¸ìļĶ
ĠìĿ¸ìĥĿ ìĹĲìĦľ
Ġë§Īëł¨ ìĿĺ
Ġë§Īëł¨ ìĿ´ì§ĢìļĶ
Ġë³µìŀ¡ íķ´
Ġë³µìŀ¡ íķĺê²Į
Ġë³µìŀ¡ íĸĪëĤĺë´ĲìļĶ
Ġë³µìŀ¡ íķĺê²łëĦ¤ìļĶ
ìµľ ê³ł
Ġì¢ħ ë£Į
Ġì¢ħ ëª©ìĿĦ
Ġëĳ ¬
íķ¸ëĵľíı° ìĿĢ
ëĭ¤ëĭĪ ê¸°
ĠìķĦíĶĪ ê°ĢìļĶ
ê·¸ë¶Ħ ìĹĲê²Į
ĠìŀĲì£¼ íķĺë©´
ë²Į ë©´
ëı¼ ìĦľ
ĠìĹ°ëĿ½íķ´ ë´ĲìļĶ
ìĤ¬ê·Ģ ëĭ¤
ìĤ¬ê·Ģ ìŀĲê³ł
ìĤ¬ê·Ģ ìŀĲëĬĶ
ĠëĤłìĿ´ ìĺĪìļĶ
ĠëĬĲê»´ ë³´ê³ł
ĠëĬĲê»´ ì§ĪëķĮ
ĠíĶĦ ìĤ¬ëŀĳ
ĠíĶĦ ìĤ¬ê°Ģ
ĠíĶĦ ìĤ¬ë¡ľ
ë¨¹ê³ł ëĬĶ
ìĿ´ìĹĪìĿĦ ê¹ĮìļĶ
ë©ĭ ìł¸
ë©ĭ ìŀĪê²Į
ë©ĭ ìŀĪëĦ¤ìļĶ
ĠëĨĵìķĦ ì¤Ħ
Ġìļ´ëıĻ ìĿĦ
Ġìļ´ëıĻ íķĺê²Į
Ġìļ´ëıĻ íķĺë©´ìĦľ
Ġì£¼ë¬´ ìħ¨ëĤĺë´ĲìļĶ
ĠíļĮ ìĿĺ
ĠíļĮ ìĤ¬ëĦ¤ìļĶ
Ġëķ ľìĹĲ
ìķĦì¹¨ ìĿ´
ìķĦì¹¨ ë°¥
ëĤĺìģľ ê±´ì§Ģ
ĠìĪĺë §Į
ĠìĪĺë §İ
ĠìĪĺë ĭ¹ìĿĦ
Ġëª© ìĨĮë¦¬
Ġëªĩ ëªħ
Ġëªĩ ìĿ¼ì§¸
Ġìĺ¨ ëĭ¤ë©´
Ġìĺ¨ ëĭ¤ê³ł
Ġìĺ¨ ì²ľ
Ġìĺ¨ ìĪĺë¡ľ
Ġê°ĢìĬ´ ìĿĦ
Ġê°ĢìĬ´ ìĿĢ
ĠìŀĲì²´ ëĬĶ
ĠìŀĲì²´ ìĹĲ
Ġíŀĺëĵ¤ê²Į ëĦ¤ìļĶ
íĹ¤ìĸ´ì§Ģ ìŀĲ
ĠíĸīëıĻ ìĿĦ
ĠíĸīëıĻ ìĿ¼ìĪĺëıĦ
ëĭ¹ìĭłìĿ´ ìļĶ
ëĭ¹ìĭłìĿ´ ëĭĪê¹ĮìļĶ
Ġë§Įëĵ¤ìĸ´ ì£¼ìĦ¸ìļĶ
Ġë§Įëĵ¤ìĸ´ ìķ¼ì§Ģ
Ġë§Įëĵ¤ìĸ´ ë³¼ê¹Į
Ġë§Įëĵ¤ìĸ´ ì£¼ëĬĶ
Ġëĭ¤ëħĢ ìķ¼
Ġëĭ¤ëħĢ ìĻĢ
Ġëĭ¤ëħĢ ìĻĢìļĶ
ëįĺ ê²Į
ëįĺ ê³³
íķĦ ìĪĺëĬĶ
ìļķ íķ´
ìļķ ìĿĢ
ìķħ ëª½
ìĹŃ íķł
ìĹŃ ë¥ĺ
ê°Ģì¡± ìĹĲê²Į
ê°Ģì¡± ê´Ģê³Ħ
ê°Ģì¡± ëģ¼ë¦¬
ë§Īë ¥¸
ë§Īë ĵ¤ìĿ´
ë§Īë Ŀ¼íĨ
Ġê°ľ ìķ¼
Ġê°ľ ì§¸
Ġê°ľ ìĭľíķ´ë³´ìĦ¸ìļĶ
ĠëĤ« ì§Ģ
ĠëĤ« ê³ł
ĠëĤ« ëĭ¤
ĠëĤ« ëĦ¤
ĠëĤ« ê²łëĦ¤ìļĶ
ĠìĿ´ê²¨ ëĥĪìĸ´ìļĶ
ĠìĿ´ê²¨ ìķ¼íķ´ìļĶ
ĠìĿ´ê²¨ ìķ¼íķľëĭ¤ëĬĶ
Ġìłĳ ìĿĢ
Ġìłĳ ì§Īë
ĠìĹĨìĿ´ ëıĦ
ëŀĮ ìĿĦ
ĠëĤĺìĺ¤ ì§Ģ
ĠëĤĺìĺ¤ ëĬĶ
ĠëĤĺìĺ¤ ëĬĶëį°
ĠëĤĺìĺ¤ ê²łëĦ¤ìļĶ
ĠëĤĺìĺ¤ ê¸°ëıĦ
Ġì§ĿìĤ¬ëŀĳ íķĺëĬĶê²Į
Ġë¹¨ë¦¬ ê°Ĳ
ìĸ¸ìłľ ë¶ĢíĦ°ìĿ¸ì§Ģ
ìĿ´ëŁ° ê²Į
ëĸ ¨ë¦¬
ëĸ ¡ë³¶ìĿ´
ìĿ´ìĥģ íķĺê²Į
Ġìŀ¬ ê°Ģìŀħ
Ġê²¬ë Ķľ
ìłķìĭł ìłģìľ¼ë¡ľ
ìłķìĭł ìĹĨìĿ´
ĠìĥĿê°ģëĤĺ ìĦľ
Ġë³´ìĹ¬ ìĦľ
Ġê°Ģì§Ģ ë¥¼
ĠëĤĺìķĦ ì§Ģì§Ģ
ĠëĤĺìķĦ ì§Ģê¸¸
ëıħ ìĦľìĻĢ
ĠìĹ°ëĿ½íķĺê³ł ìĭ¶ìĸ´
ìłĦíĻĶ íķ´ë³´ìĦ¸ìļĶ
ìłĦíĻĶ íķĺê¸°
ĠìĤ¬ê· Ģë©´
ĠìĤ¬ì§Ħ ìĹĲ
ë¯¿ ì§Ģ
ì§ģìŀ¥ ê³¼
ê°Ĳìłķ ìĿĦ
ê°Ĳìłķ ìĿĢ
ê°Ĳìłķ ì»¨
ê°Ĳìłķ ì¡°ìłĪ
Ġìļķ íķ´
Ġìļķ ìĿĦ
Ġìļķ íķĺëĬĶ
Ġìļķ ìĭ¬
Ġìļķ íķ¨
Ġìļķ íĸĪìĸ´
Ġìļķ ë§ĿìĿ´ì§Ģ
ëĤłìĶ¨ ìĹĲ
Ġìĸĺ ê¸°ê°Ģ
ĠëĤĺëĪ ´ê¸¸
ĠíķĦìļĶíķ´ ë³´ìĿ´ëĦ¤ìļĶ
Ġìī¬ìĸ´ ì£¼ìĦ¸ìļĶ
Ġì²ľ ì§Ģ
Ġì²ľ íķĺë¥¼
Ġì²ľ êµŃìĿ´ëĭĪ
Ġë¹Į ê²ĮìļĶ
Ġë¹Į ë¦´ê¹Į
Ġë¹Į ëł¤ì¤¬ëĬĶëį°
Ġë¹Į ëł¸ìľ¼ëĭĪê¹ĮìļĶ
ĠìĺģíĻĶ ëĤĺ
ĠìĺģíĻĶ ë³´ê³ł
Ġìµľê³ł ëĿ¼ê³ł
Ġìµľê³ł ìŀħëĭĪëĭ¤
íĻĺìĬ¹ ìĿ´
íĻĺìĬ¹ íķĺëĬĶ
ĠíŀĺìĿ´ ëĵľëĦ¤
Ġëĥ Īìĸ´
Ġìŀĳ ê²Į
Ġìŀĳ ë³Ħ
ë¦¼ íĸĪëĤĺë´ħëĭĪëĭ¤
ìĭľìĽĲ íķł
Ġìĺ· ìĿ´ìļĶ
Ġìĺ· ì°¨ë¦¼
Ġì°© ìļ©
Ġì°© ìŀ¡íķĺê²łìĸ´ìļĶ
ĠìķĮë°Ķ ìĺĪìļĶ
ĠìķĮë°Ķ íķĺë©´
ĠìķĮë°Ķ ë¹Ħê°Ģ
Ġë¬´ìĦľ ìĽĢ
ĠíĹ¤ìĸ´ì§Ĳ ëıĦ
ì¦Ĳ ê¸°
ì¦Ĳ ê¸¸
ì¦Ĳ ê²ģê²Į
ĠëıĦìĻĢ ì¤Ħê¹Į
Ġë©Ģ ìĹĪëĦ¤ìļĶ
Ġë©Ģ ìĹĪìĸ´ìļĶ
Ġë¶Ģë¶Ħ ìĿ´ìĹĲìļĶ
ìŀ¬íļĮ íķĺë©´
ìŀ¬íļĮ íĽĦ
Ġìŀ¬ë°Į ì£ł
Ġìŀ¬ë°Į ëĮĢ
Ġìŀ¬ë°Į ê²łì§Ģ
Ġìŀ¬ë°Į ê±°ëĤĺ
íĭ° ëģĮ
ì¶ķíķĺ íķł
ì¶ķíķĺ íķ´ì£¼ìĦ¸ìļĶ
ì¶ķíķĺ íķ´ì£¼ê³ł
ĠíĺĦìĭ¤ ìĿ´ìĹĲìļĶ
ĠíĺĦìĭ¤ ê³¼
ĠíĺĦìĭ¤ ìĿ´ëŀĳ
Ġìį¨ ìĦľ
Ġìį¨ ìķ¼
Ġìį¨ ëĨĵê³ł
Ġê·Ģì°®ìķĦ íķłê¹Į
íį ¼ë¬¸
ìĿ¼ë ¿Ĳ
ìĿ¼ë ĲĲìĸ´
ìĸ´ë¨¸ ëĤĺ
ì£½ ê²łëĭ¤
ì£½ ìĸ´ëıĦ
ĠìĿ½ ê³ł
ĠìĿ½ ìĿĦ
ĠìĿ½ ëĬĶëĭ¤
ĠìĿ½ íŀĪëĤĺ
ĠìĿĺë¯¸ ëĬĶ
ĠìĿĺë¯¸ ìŀĪëĬĶ
ĠìĿĺë¯¸ ìĿ¼ê¹ĮìļĶ
ì¹ĺë §¥
ì¹ĺë ³¶
Ġë°¥ ìĿĢ
Ġë°¥ ëıĦ
Ġë°¥ ìĿ´ìĺĪìļĶ
ìĭłê²½ìĵ° ë©´
Ġë°ĶëĿ¼ ê²łìĬµëĭĪëĭ¤
ëħĲ ìĿ´
ĠìĻĦìłĦ íķĺê²Į
ĠìĻĦìłĦ ì²´ê°Ģ
Ġë²ķ ìĿ´ìĹĲìļĶ
ĠìĥģëĮĢ ìłģìľ¼ë¡ľ
ĠìĥģëĮĢ ìłģìĿ´ì£ł
ìĸ´ëĬĲ ìłķëıĦ
ë°ĶëŀĮ ëĤľ
Ġì²« ìĿ¸ìĥģ
Ġì²« íĤ¤ìĬ¤ëĬĶ
Ġì²Ļ íķĺëĬĶê²Į
Ġì²Ń ìķ½
Ġì²Ń ì²©
Ġì²Ń ì¶ĺ
Ġì²Ń êµ¬íķĺìĦ¸ìļĶ
Ġì²Ń ì¶ĺìĿ´
Ġì²Ń ê²°íķĺê²Į
ĠíĹĪ ê¸°
ĠìķĪëĲĺëĬĶ ê²Į
ĠìķĪëĲĺëĬĶ ê±´ê°Ģ
ë©Ķ ë³´ìĦ¸ìļĶ
ë©Ķ ëĿ¼
ĠíĮĮ íĨł
ĠíĮĮ ê¸īëł¥ìĿ´
ĠíĿĺëłĢ ëĦ¤
ĠíĿĺëłĢ ëĬĶëį°
ìĺ¤ëŀľ ë§Į
Ġì§ľì¦Ŀ ëĤĺëĬĶ
¯¼ íķľê°Ģë´ĲìļĶ
ëĺĳ ê°ĻìĿ´
ìĦŃ ìĦŃ
ì£¼ë©´ ìĦľ
ê¸°ìĸµ ìĿ´
ê¸°ìĸµ ìĹĲ
ëł¤ë ´Ĳìķ¼ì§Ģ
Ġì§Īë ¦¬ê²Į
Ġì§Īë ¦¬ì§Ģ
ĠìķĦíĶĶ ìĿĺ
ìĤ¬ëŀĳíķľ ëĭ¤ë©´
ì¤Ģë¹Ħ ë¥¼
ì¤Ģë¹Ħ íķĺê³ł
ì¤Ģë¹Ħ íķ´ë³´ìĦ¸ìļĶ
ìĻ¸ë¡ľ ìĽĢ
ìĻ¸ë¡ľ ìĽĢìĿ´
ìĻ¸ë¡ľ ìĽĢìĿĦ
ìĻ¸ë¡ľ ìĽĮìĦľ
ìĻ¸ë¡ľ ìļ°ëĭĪê¹Į
íĶ¼ë ¥¼
ìļ´ëªħ ìĿĺ
ìļ´ëªħ ìĿ¸ê°ĢìļĶ
ìļ´ëªħ ìĿ¼ì§ĢëıĦ
ĠìŀĺíķĺëĬĶ ì§Ģ
ĠìļĶ ì¦ĺ
ĠìļĶ ê¸´íķĺê¸´
ĠëĨĢëŁ¬ ê°ĢìĦ¸ìļĶ
ĠëĨĢëŁ¬ ê°Īê¹Į
Ġì£¼ë§Ĳ ìĿ´ëĦ¤
ìħĺ ìľ¼ë¡ľ
Ġê´Ģë¦¬ íķ´ë´ĲìļĶ
ìĦ±ê³µ íķł
ìĦ±ê³µ íķĺë©´
ìĦ±ê³µ ìĹĲìĦľ
ìĦ±ê³µ íĸĪê¸¸
Ġë¹Ħìĭ¸ ìļĶ
Ġë¹Ħìĭ¸ ëĭ¤
Ġë¹Ħìĭ¸ ì£ł
Ġë¶Ģì¡± íķ©ëĭĪëĭ¤
Ġë¶Ģì¡± íĸĪëĤĺë´ĲìļĶ
Ġë¶Ģì¡± íķľì§Ģ
Ġíĸīë³µíķ´ ì§Īëł¤ê³ł
Ġê³³ìĿ´ ìļĶ
Ġê³³ìĿ´ ëĿ¼ë©´ìļĶ
ĠìķĪëĲĺ ìĦľ
ĠìķĪëĲĺ ê²łì§Ģë§Į
ĠíĶ¼ê³¤ íķł
ĠíĶ¼ê³¤ íķĺê²łìĸ´ìļĶ
ĠíĶ¼ê³¤ íķĺìĭłê°Ģë´ĲìļĶ
ìĺ¤ëĬĺë ¶Ģë¡ľ
ìĺ¤ëĬĺë °¤
ë´Ħ ìĹĲ
ë´Ħ ë°©íķĻ
ĠìĦ¤ëłĪ ì§Ģ
ĠìĦ¤ëłĪ ê³ł
ĠìĦ¤ëłĪ ê²Į
Ġë¶Ļìŀ¡ ìĿĦ
Ġë¶Ļìŀ¡ ìľ¼ìĦ¸ìļĶ
ìķĪëħķ ìĿ´ì£ł
Ġíĥľìĸ´ ëĤł
Ġíĥľìĸ´ ëĤĺê³ł
Ġíĥľìĸ´ ëĤĺëıĦ
ĠëĶ± íŀĪ
ê¶ģê¸Ī íķĺëĦ¤ìļĶ
ê¶ģê¸Ī íķĺëĭ¤ê³ł
ê¶ģê¸Ī ì¦ĿìĿĦ
ĠìĶ ģìĵ¸
ê²¬ ìłģ
ĠìĿĮ ë£Į
ĠìĿĮ ìĭĿìĿ´
Ġëĭ¬ ìĿ´
Ġëĭ¬ ìĹĲ
Ġëĭ¬ ìĹĲëĬĶ
Ġëĭ¬ ì§¸
Ġëĭ¬ ì½¤
Ġëĭ´ ìĿĢ
Ġì§Ī ê±°
Ġì§Ī ê±°ìĺĪìļĶ
Ġì§Ī íĪ¬ê°Ģ
Ġì§Ī íĪ¬ë¥¼
ìĽĥ ëĬĶ
ìĽĥ ìľ¼ë©´ìĦľ
ĠìĥĿìĿ¼ ìĿ¸ëį°
ĠìĥĿìĿ¼ ìĿ´ìķ¼
ĠìĥĿìĿ¼ ìŀħëĭĪëĭ¤
ĠìĥĿìĿ¼ ìĦłë¬¼
Ġìĸ´ëłµ ê²łì§Ģë§Į
ì²Ļ íķ´
ìĻ¸ ìłľì°¨
Ġìĭľì¼ľ ë³´ìĦ¸ìļĶ
Ġìĭľì¼ľ ìķ¼ì§Ģ
Ġìĭľì¼ľ ì¤ĺ
Ġìĭľì¼ľ ì¤¬ìĸ´
ëħ¸ ì²ĺëħĢ
íĹ¤ìĸ´ì§Ĳ ìĿ´
íĹ¤ìĸ´ì§Ĳ ìĹĲëıĦ
ĠìĨĲ ìĿ´
ĠìĨĲ ìĿĦ
ĠìĨĶì§ģ íĸĪìľ¼ë©´
ĠëĨĴ ìĿ´
ĠëĨĴ ìľ¼ë©´
ĠëĨĴ ê²łì£ł
ĠëĨĴ ëĤĺë´ħëĭĪëĭ¤
ĠëĨĴ ìĹ¬ë³´ìĦ¸ìļĶ
Ġê¹Ĭ ìĿ´
Ġê¹Ĭ ìĹĪìĿĦ
ĠíĿĶ ìłģìĿ´
íķ¨ê»ĺ íķĺë©´
íķ¨ê»ĺ íķłëķĮ
Ġìĸ¼êµ´ ìĿ´
Ġìĸ¼êµ´ ìĹĲ
Ġìĸ¼êµ´ ë³´ê³ł
Ġì¡´ì¤ĳ ëĲľ
íį¼ ê°ĢìļĶ
Ġëĺĳ ê°Ļì§Ģ
ìĿ´ë²Ī ìĹĶ
íķľë²Ī ìĹĲ
íķľë²Ī ì¯¤
ìŀĲìĹ° ìĿĺ
ĠëĤĺìģľ ëį°
ĠëĤĺìģľ ëĨĪ
ìĥģëĮĢ ìĿĺ
Ġìĸ´ëĬĲ ìłķëıĦ
ĠìŀĲìĹ° ìĬ¤ëŁ¬ìļ°ë©´
ë²½ íķł
ë²ł íĶĦëŀĳ
ë²ł íĦ°ë¦¬ë§Į
ë²ł íĴĢëĲĺ
ĠëĤ¨ì¹ľ ìĿĺ
ĠëĤ¨ì¹ľ ìĿ´ëŀĳ
Ġì¹´ ëĵľ
Ġì¹´ ë©ĶëĿ¼
ê°ĢëģĶ ìĶ©
Ġíķľë²Ī ì¯¤
Ġìļ¸ ìĸ´
Ġìļ¸ ìĸ´ë³´ìĦ¸ìļĶ
Ġìļ¸ ìĹĪìĸ´
Ġìļ¸ ìĹĪëĦ¤
Ġíķĺìħ¨ ìĸ´ìļĶ
Ġíķĺìħ¨ ëĤĺë³´
Ġê¹Į ë´Ĳ
Ġëį°ëł¤ ê°Ģ
Ġëį°ëł¤ ëĭ¬ëĿ¼ê³ł
ëª¨ë¥´ëĬĶ ê±¸
ìľĦë¡ľ íķ´
ìľĦë¡ľ íķ´ì¤Ħ
ìľĦë¡ľ ë´ĩ
Ġìļ°ìļ¸ íķłëķĲ
Ġìī¬ìļ´ ê²Į
Ġìī¬ìļ´ ëį°
ĠìĤ¶ ìĿ´
ĠìĤ¶ ìĹĲ
ĠìĤ¶ ìĿĢ
ĠìĤ¶ ëıĦ
ĠìĤ¶ ìĿĺ
ìĺģíĻĶ ëĬĶ
ĠëĪĦêµ¬ ëĭĪ
ĠëĪĦêµ¬ íķľíħĮ
Ġìĭłê²½ìĵ°ì§Ģ ë§ĪìĦ¸ìļĶ
Ġì½ ľ
Ġì½ ķì½ķ
ìĿĺë ŀĺ
ìĿĺë ģĿ
íķĦìļĶ ìĹĨëĬĶ
ì§§ ìľ¼ë©´
ì§Īë Ł°ì§Ģ
ê²ģ ìĿ´
ê²ģ ê³ł
íķ´ì¡Į ê¸¸
Ġíİ ´ê³ł
ë³¼ ë§ģ
ë³¼ ë§¤ìĿ¸ê°Ģë´ĲìļĶ
íķĺëł¤ ëĤĺ
íķĺëł¤ êµ¬
íķĺëł¤ ëĭĪê¹Į
íķĺëĤĺë §Į
ĠìĹ´ ìĸ´ë³´ìĦ¸ìļĶ
ìķ¼íķł ì§Ģ
ìķ¼íķł ì§ĢëıĦ
ĠìķĦì¹¨ ìĹĲ
ĠìķĦì¹¨ ìĿ´ìĹĲìļĶ
ì°½ ë¬¸ìĿĦ
Ġìĸ´ìļ ¸ë¦¬
Ġìĸ´ìļ ¸ëł¤ë³´ìĦ¸ìļĶ
Ġëĭ¤íĸī ìĿ´ëĦ¤ìļĶ
Ġëĭ¤íĸī ìŀħëĭĪëĭ¤
ê·¸ë¦¬ ìļ¸
ê·¸ë¦¬ ìĽĢìĿĦ
ìĽĮì§Ī ê±°ìĺĪìļĶ
ìĬµê´Ģ ìĿ´ëĦ¤ìļĶ
Ġíĸ¥ íķľ
Ġíĸ¥ íķĺê³ł
Ġíĸ¥ ìĿ´ì£ł
ìĬ¤íĥĢ ìĿ¼ëŁ¬
Ġë°ĶëŀĮ íĶ¼
Ġë°ĶëŀĮ ìĿ¸ì§Ģ
Ġë°ĶëŀĮ ì¢Ģ
Ġë°ĶëŀĮ ëĳ¥
Ġë§ŀì¶° ì£¼ìĦ¸ìļĶ
Ġë§ŀì¶° ì¤Ħ
Ġë§ŀì¶° ê°ĢëĬĶ
Ġë§ĮëĤĺì§Ģ ë§Ĳ
ĠìĨĮì¤ĳ íŀĪ
ĠìĨĮì¤ĳ íķ´ìļĶ
ĠìĨĮì¤ĳ íķĺê²Į
ëĭµëĭµ íķ´
ëĭµëĭµ íķ´ìĦľ
ëĭµëĭµ íķĺëĦ¤
Ġëħ¸ëŀĺ ìļĶ
ìŀłê¹Ĳ ìĶ©
ë§ĽìŀĪëĬĶ ê±°
ë¡Ŀ ê¸Ī
ë¡Ŀ ëĵ¤ìĿ´
ë¡Ŀ ì²´ìĿ¸ìĿ´
Ġìŀ¬íļĮ íĸĪëĬĶëį°
ë¡ľë§¨íĭ± íķ´ìļĶ
íĳ ¸ëł¤ì§Ģì£ł
ıĻ ìĿĦ
ìĿ´ìĸ´ íı°
íķ´ì¤ ¬ìĸ´
Ġíľ´ ê°Ģ
Ġíľ´ ìĭĿ
Ġíľ´ ìľłì¦Ŀ
Ġíľ´ ìĭĿìĹĲ
ê²ĮìŀĦ íķĺìĦ¸ìļĶ
ê²ĮìŀĦ íķłëķĮëĬĶ
ëĤĺìĿ´ ëĵ¤
Ġíķ´ê²° íķ´
Ġíķ´ê²° ëĲł
Ġíķ´ê²° íķ´ì¤Ħ
Ġíķ´ê²° íķĺëĿ¼ê³ł
Ġíķ´ê²° íķ´ì£¼ì§ĢëĬĶ
ìĭłê²½ ìĿ´
ĠìķĪëĤĺ ê²łìĸ´ìļĶ
ĠìķĪëĤĺ ìĻĢ
ì§Ħìłķ íķĺìĦ¸ìļĶ
Ġê¸°íļĮ ìĿ¼
ĠìĹ°ëĿ½íķ´ëıĦ ëĲłê¹Į
ĠìĻ¸ë¡ľ ìĽĢìĿĦ
ìĬ¤ìĬ¤ë¡ľ ëıĦ
ìĬ¤ìĬ¤ë¡ľ ìĿĺ
ìĬ¤ìĬ¤ë¡ľ ë¥¼
Ġìłķìĭł ìĹĨìĿ´
Ġìłķìĭł ë³ĳ
Ġëª»íķ´ ë³¸
Ġê³łìĥĿ ìĿ´
Ġë¨¹ìĿĦ ê²Į
Ġë¨¹ìĿĦ ëŀĺ
Ġë¨¹ìĿĦ ìĪĺë¡Ŀ
Ġë²Ĺ ìĹĪëĬĶëį°
Ġë²Ĺ ìľ¼ëĭĪê¹Į
ĠëĬ¥ ëł¥ë§Į
ĠìŀĬì§Ģ ëª»íķĺê³ł
Ġë°©ë²ķìĿ´ ëŀĢ
ì¼Ģ ìĿµ
ëŃĺ íķ´ëıĦ
ĠìĦ±ê³µ íķĺê¸¸
ĠìĦ±ê³µ íķłê±°ìĺĪìļĶ
ĠìĦ±ê³µ ìłģìĿ¼
Ġìĭ¤ìĪĺ íķľ
Ġìĭ¤ìĪĺ íķľê±´ê°Ģ
ĠìĺĪë¯¼ íķ´ìĦľ
ĠìĺĪë¯¼ íķ¨
ĠìĺĪë¯¼ íķ´ìł¸
ê´ľì°®ìĿĢ ê±°ë¡ľ
Ġìķ½ìĨį ìŀ¡
Ġê²½ìļ° ìĺĪìļĶ
Ġë´¤ ëĤĺ
Ġë´¤ ìľ¼ë©´
Ġë´¤ ëĤĺë´ĲìļĶ
ì´Ī ìĭ¬ìľ¼ë¡ľ
Ġê¾¸ ê³ł
Ġê¾¸ ëĬĶëį°
íĩ´ê·¼ ìĭľê°Ħ
Ġê¿¨ ëĬĶëį°
Ġê¿¨ ëĬĶì§Ģ
ĠìĮĵ ëĬĶ
ĠìĮĵ ìĺĢìĸ´
ĠìĮĵ ìĿ¸ëĭ¤
ĠíĹ¤ìķĦ ë¦´
ëĬ¥ ëł¥
ìĿ´ê¸¸ ìĿ´
ìĹ´ ëĭ¤
ìĹ´ ìĩ
ìĹ´ ê¹Įì§Ģë°ĸìĹĲ
Ġíħ ģíħ
Ġíħ ħë¹Ħ
ĠìĹ¬ë ĵľ
ĠìĹ¬ë ¶Ģ
ĠìĹ¬ë Ł¬ëªħ
ëį°ìĿ´íĬ¸ íķĺê¸°
Ġì§§ ìĿĦ
Ġì§§ ê²Į
Ġì§§ ìķĦìļĶ
Ġëª¸ ê°Ĵ
Ġëª¸ ì§ĵìľ¼ë¡ľ
ĠìĥĿê¸° ì§Ģ
ĠìĥĿê¸° ê¸°
ĠìĥĿê¸° ì£ł
ĠìĥĿê¸° ìĭľê¸¸
ìĭľì¼ľ ë³´ìĦ¸ìļĶ
ìĭľì¼ľ ìķ¼
ëŀĲ ëĤĺë´Ĳ
ì²ł ìĿ´
ì²ł ìĿĢ
ì²ł ë²½
ì²ł ë°¥íĨµ
ìĪ¨ ë§ī
ĠëĤĺìĺ¨ ê±°
ĠëĤĺìĺ¨ ëĭ¤ëĭĪ
ĠëĤĺìĺ¨ ëĮĢìļĶ
íĹ¤ìĸ´ì¡Į ëĦ¤
Ġê°ĢëģĶ ìĶ©
ì°¨ëĭ¨ íķĺê³ł
ì°¨ëĭ¨ íķĺëĬĶê²Į
ĠìĿ¸ìĹ° ìĿĦ
ĠìĿ¸ìĹ° ìĿ¸
ĠìĿ¸ìĹ° ìĿ´ìĹĪëĤĺë´ħëĭĪëĭ¤
ĠìĨĮê°ľ íķ´ë³´ìĦ¸ìļĶ
Ġì²ĺ ìĿĮìĿ´
Ġì°¨ëĭ¨ íķĺëĬĶ
Ġì°¨ëĭ¨ íķ´ë³´ìĦ¸ìļĶ
ĠëıĦìłĦ íķ´
ĠëıĦìłĦ ìĿĢ
Ġëħ¸ëŀĺë ¡ľ
Ġëħ¸ëŀĺë ĵ¤
Ġì§ĳì°© íķĺì§Ģ
ì²ŃìĨĮ íķĺìĦ¸ìļĶ
ì²ŃìĨĮ ê¸°ë¥¼
Ġêµ¬ë ĳĲ
Ġêµ¬ë °ķ
Ġêµ¬ë ¶ĦìĿ´
Ġêµ¬ë ¶Ħíķ´
Ġì±Ħ ìĽĮì§Ī
Ġì±Ħ ìļ°ê¸¸
Ġë°°ìĽĮ ëıĦ
Ġë°°ìĽĮ ë³´ìĦ¸ìļĶ
ìľĦê¸° ìĿ´ë©´ìĦľ
ĠìĿ´ìĥģíĺķ ìĿ¼
ĠìĿ´ìĥģíĺķ ìĿ´ìķ¼
Ġì¦Ŀ ê±°ëĿ¼
Ġì¦Ŀ ìĥģìĿ´ìĹĲìļĶ
Ġì¦Ŀ ìĺ¤ë¡ľ
Ġë§ĽìŀĪ ê³ł
Ġë§ĽìŀĪ ìĿĦ
Ġì£½ìĿĦ ê±°
íĻĶìŀ¥ìĭ¤ ìĿĦ
ë¶Ģëª¨ëĭĺ ê³¼
°ķ ìĶ¨
ìª ½ì§Ģë¥¼
ìĭ« ìĿĢ
ìĭ« ìľ¼ë©´
ìĭ« ëĭ¤ê³ł
ê¸°ëĮĢ ì¹ĺê°Ģ
ĠìĪ¨ íķľ
ĠìĪ¨ ê¸¸
Ġë³¸ ëĭ¤
Ġë³¸ ê±°ìĹĲìĦľ
ìłķë¦¬ íķ´ë³´ìĦ¸ìļĶ
ìłķë¦¬ íķĺëĬĶëį°
ĠìĥĿê°ģíķł ìĪĺë¡Ŀ
ĠìĥĿê°ģíķł ìĪĺìŀĪìĸ´ìļĶ
ĠìķĪíķĺê³ł ëĬĶ
ìĥģíĻ© ìĿĦ
Ġë¶Īë ©´ì¦Ŀ
ìĤ¬ì§Ħ ìĿ´
ê°ĢëĬ¥ íķ´ìļĶ
ê°ĢëĬ¥ íķ©ëĭĪëĭ¤
ê°ĢëĬ¥ íķĺëĭ¤ê³ł
ê°ĢëĬ¥ íķĺëĭ¤ë©´
íĨł ëĭī
Ġë¬´ìĹĩ ë³´ëĭ¤
Ġë¬´ìĹĩ ìĿ¸ì§Ģ
Ġë¬´ìĹĩ ìĿ¸ê°Ģë¥¼
ĠìķĪëĵ¤ìĸ´ ìĻĢ
ĠíĻĺ ìĭ¬ìĿĦ
ĠíĻĺ ê¸°íķĺëĬĶ
ìŀĳìĿĢ ê²ĥìĹĲ
ĠìĨĮë¦¬ ëĤĺìĦľ
ìĽĶê¸ī ìĿĦ
ìĽĶê¸ī ëĤłìĿĦ
Ġë¬¸ìŀĲ ë¥¼
ĠìłģìĿĳ ìĿ´
ĠìłģìĿĳ íķ´
ĠìłģìĿĳ íķĺê³ł
ĠìĦľìļ´ íķĺê²łìĸ´ìļĶ
ĠìĦľìļ´ íķ¨ìĿĦ
Ġíıī ë²Ķ
Ġíıī ìķĪíĸĪëįĺ
ëį¤ëį¤ íķĺê²Į
ìĸ¼êµ´ ìĹĲ
ĠëĤĺëĪł ë´ĲìļĶ
Ġë²Ħíħ¨ ëĥĪìĸ´ìļĶ
¦¬ë ¥¼
¦¬ë Ŀł
ìŁģ ìĹ¬ëĳĶ
íĳľíĺĦ íķĺëĬĶ
íĳľíĺĦ ìĿ´ëĿ¼ê³ł
íķ© ìĦ±
íķ© ìĭľëĭ¤
íķ© ë¦¬ìłģìĿ¸
Ġê°ķ ìļĶ
Ġê°ķ ìĬµ
Ġê°ķ ë°ķ
Ġê°ķ ëł¬
Ġê°ķ ì¶ĶìľĦëŀĺìļĶ
Ġê°ķ ë¦¼íĸĪëĤĺë´ħëĭĪëĭ¤
Ġíķ´ë³´ëĬĶ ê±´
ĠìĥĿê¸´ ê±°
ĠìĥĿê¸´ ëĭ¤ê³ł
ĠìĥĿê²¼ë ĮĢ
ë°ķ ì¹ĺê¸°
Ġê³¨ ìĿ¸
Ġê³¨ ëŀĲëĤĺë´Ĳ
ë¶Ļ ëĬĶ
ë¶Ļ ìľ¼ë¡ľ
Ġê°Ģìķ¼ ê²łì§Ģ
ĠëĤĺíĥĢ ëĤ¬
ĠëĤĺíĥĢ ëĤĺë©´
ĠëĤĺíĥĢ ëĤĺì£ł
Ġê¸Ģ ìŀĲë§Į
ìĤ¬ê· Ģëįĺ
Ġê²ĮìŀĦ íķ´ë³´ìĦ¸ìļĶ
Ġì¹ĺë §Ī
ìį¸íĥĢ ëĭ¤
ìį¸íĥĢ ëĬĶëį°
ìį¸íĥĢ ëĬĶê±°
ĠëģĿëĤ´ ê¸´
ĠëģĿëĤ´ ìĭľê¸¸
Ġê²°êµŃ ìĿĢ
Ġê²°êµŃ ìĹĶ
ĠëĮĢíĻĶ ëıĦ
ĠëĮĢíĻĶ íķľ
ĠëĮĢíĻĶ ë¡ľ
ê²°ìłķ íķĺê¸°
ê²°ìłķ ìłģìĿ¸
ìĦłìĥĿëĭ ĺëıĦ
Ġë©Ķ ìĿ¸
Ġë©Ķ ëª¨ë¡ľ
Ġë³ĢíĻĶ íķ´ë³´ìĦ¸ìļĶ
Ġë³ĢíĻĶ ìĿ´ê¸¸
ë¡ł ê°Ģ
ì»¤íĶĮ ìĿ¸ëį°
ì»¤íĶĮ ë¶ĢíĦ°
ì»¤íĶĮ ìĹ¬íĸīìĿ´
Ġëĵ± ìĿ´
Ġëĵ± ìľ¼ë¡ľ
Ġëĵ± ìĤ°íķ´ìļĶ
Ġë¶Ģëĭ´ìĬ¤ëŁ¬ìĽĮ íķĺì§Ģ
Ġë¶Ģëĭ´ìĬ¤ëŁ¬ìĽĮ íķĺì§Ħ
Ġê³¼ìłķ ìĿĦ
Ġê³¼ìłķ ìĿ¼
Ġì´Ī ê³¼
Ġì´Ī ì¡°
Ġì´Ī ì´Ī
Ġë°Ķê¿Ķ ìķ¼
Ġê¹Įë¨¹ ìĸ´
°ĺ ì§¸
ŀ¬ ëĭ¤
ŀĲ ëĤĺë´ĲìļĶ
ŀĲ ëĭ¤ê°Ģ
Ġì¼ ł
Ġì¼ ĢìĿµ
Ġì¼ Ģë¹Ī
ĠëĬĺ ê±°ìĺĪìļĶ
ĠëĴ¤ ìĹĲìĦľ
ĠëĴ¤ ì²ĺì§ĢëĬĶ
ìĺ· ìĿ´ìļĶ
ìĺ· ê¹ĥë§Į
ìĺĪë Ĭ¥
ìĺĪë ¯¼íķľê°Ģë´ĲìļĶ
Ġê±°ì§ĵë§Ĳ ìĿĦ
Ġê±°ì§ĵë§Ĳ ìĿ¼
Ġê±°ì§ĵë§Ĳ ìĿ´ê¸¸
Ġê±°ì§ĵë§Ĳ ìĿ´ê²łì§ĢìļĶ
Ġìĸ´íĶĮ ìĹĲ
Ġìĸ´íĶĮ ìĿĢ
Ġìĸ´íĶĮ ë¡ľ
Ġìĸ´ìĥī íķ´ìĦľ
ìĻ¸ë ¶Ģ
Ġë°Ķë³´ ì§Ģ
Ġë°Ķë³´ ëĿ¼ê³ł
Ġë°Ķë³´ ê°ĻìĿ´
Ġê·¸ëĮĢë¡ľ ë¥¼
ê±±ìłķ ìĿ´
ê±±ìłķ íķĺì§Ģ
ê±±ìłķ íķĺë©´
Ġì§Ģì³¤ ìĿĦ
Ġì¢ĭìķĦíķĺëĬĶëį° ëıĦ
Ġë¬´ëĦĪ ì§Ĳ
Ġì¶ľ êµŃ
Ġì¶ľ ë°ľ
Ġì¶ľ ë°ľìĿĦ
ìĽĲíķĺëĬĶ ëĮĢë¡ľ
Ġì£¼ê³ł ëıĦ
Ġê´ľì°®ìĿĢ ê°ĢìļĶ
ê´Ģê³Ħ ê°Ģ
Ġìĭ«ìĿĢ ê°Ģ
Ġìĭ«ìĿĢ ê°Ģë´ĲìļĶ
Ġìĭ«ìĿĢ ê°Ģë´Ĳ
íķĻìĽĲ ìĿĦ
íķĻìĽĲ ìĹĲ
Ġì°¨ìĿ´ ìĿ¼
Ġìĺ¤ë¹ł ëĵ¤
Ġìĺ¤ë¹ł íķľíħĮ
Ġìĺ¤ë¹ł ëŀĳ
ĠìĺĪìģľ ëį°
ëĥī ë°©ë¹Ħ
íĥĪ ì·¨ìłľ
Ġë¯¸ìĽĮ íķ´ëıĦ
ĠìĥĪ ê°Ģ
ĠìĦ¤ëł ĺìĿ´
Ġìŀ¥ëĤľ ì¹ľ
ì¢ħêµĲ ë¥¼
Ġì¶ķíķĺ íķ´
Ġì¶ķíķĺ íķ´ì£¼ìĦ¸ìļĶ
Ġì¹´íİĺ ìĹĲ
Ġì¹´íİĺ ê°Ģë©´
Ġìĸ´ìļ¸ë¦ ´
Ġìĸ´ìļ¸ë¦ ¬ë©´
ëĴ¤ ìĪŃìĪŃ
ìķĦíĶĦ ê³ł
ìķĦíĶĦ ë©´
ìķĦíĶĦ ê²łìĸ´ìļĶ
ëĿ¼ë ĶĶìĺ¤ë¥¼
Ġë°¤ ìĿ¸ê°Ģë´ĲìļĶ
Ġë°Ģ ëĭ¹
Ġì§Ģë ¶Ī
Ġì§Ģë ģĪ
ìĽ¨ëĶ© ìĿ´
ìĽ¨ëĶ© ëĵľëłĪ
ĠìłĪ ìłľê°Ģ
ìĭľìŀĳ íķł
ìĭłíĺ¼ ìĿ¸ëį°
ìĭłíĺ¼ ì§ĳ
ë¶Īë ¥ľ
Ġê±· ê¸°
ĠìŀĲê¸° íķľíħĮ
ĠìŀĲê¸° ë³´ëĭ¤
ĠìĤ¬ëŀĳíķł ìĪĺë¡Ŀ
Ġê¸°ë³¸ ìĿ´
Ġê¸°ë³¸ ìĿ´ìĹĲìļĶ
Ġê¸°ë³¸ ìĿ¸ëį°ìļĶ
ìłĦìĹ¬ì¹ľ íķľíħĮ
ĠëĤ´ëł¤ ì£¼ìĦ¸ìļĶ
ĠëĤ´ëł¤ ìĺ¬
ĠëĤ´ëł¤ ë³´ëĬĶê²ĥëıĦ
Ġìłķë¦¬ë ıĦ
Ġë²ł íĶĦ
Ġë²ł ìĺĢìĸ´
Ġë¬´ìĦŃ ê³ł
Ġë¬´ìĦŃ ì£ł
Ġë¬´ëİĮ ìł¸
Ġë¬´ëİĮ ì§ĢëĬĶ
Ġì¶©ìłĦ ëıĦ
Ġì¶©ìłĦ íķ´ì£¼ìĦ¸ìļĶ
Ġì¶©ìłĦ ê¸°ëıĦ
Ġìĥģì²ĺ ê°Ģ
Ġìĥģì²ĺ ì¤¬ìĸ´
ĠíķĦìļĶíķł ì§ĢëıĦ
íĽĦëł¨ íķĺëĭ¤ëĭĪ
íĽĦëł¨ íķĺëĭ¬ê¹Į
ëĪĪë¬¼ ìĿĦ
íĹĽ íĹĽ
ĠëĬĲëģ¼ ê²Į
ĠëĬĲëģ¼ ëĬĶê²Į
Ġëħ¸ ëĭµ
ëĳĲê³ł ëĳĲê³ł
Ġê·ĢìĹ¬ ìĽĮìļĶ
ĠìĤ¬ëĿ¼ ì§Īê¹Į
ĠëĸłëĤľ ëĭ¤ëĬĶ
ëĪĦêµ¬ë ıĦ
ĠìĤ° ëĭ¤
ĠìĤ° ìĹĲ
ĠìĤ° ì±ħ
ĠìĤ° ìĿ´ëĦ¤
ĠìĤ° ì±ħìĿĦ
Ġë§ĮëĤ¬ëĬĶëį° ëıĦ
ìĪľê°Ħ ìĿĺ
Ġëĵ£ê³ł ìĭ¶ìĸ´
Ġê´´ë¡Ń íĺĢ
Ġê´´ë¡Ń íŀĪëĬĶ
ĠíĹĪìłĦ íķľê°Ģë´ĲìļĶ
ĠíĹĪìłĦ íķĺìĭłê°Ģë´ĲìļĶ
Ġë¬¼ìĸ´ë´Ĳ ë³´ìĦ¸ìļĶ
ëķ ĢìĿĦ
ëī´ ìĬ¤ëĬĶ
Ġë¬ ĺ
Ġë¬ ¼ë
ìķĦìĿ´ êµ¬
ìķĦìĿ´ ë¥¼
ìķĦíĶĶ ìĿĢ
íķĺëĬĺ ìĿĢ
íķĺìħ¨ ëĦ¤ìļĶ
ê¹Ģ ì¹ĺì°Į
ê¹Ģ ì¹ĺë³¶
Ġê²ł ì£ł
Ġê²ł ëĦ¤ìļĶ
Ġê²ł ì§ĢìļĶ
ĠìĿ´ìļ© íķ´
ĠìĿ´ìļ© íķł
ë§ĮëĤ¨ ìĿĢ
ë§ĮëĤ¨ ê³¼
Ġëªħ ë§Į
Ġëªħ ìĥģìĿĦ
Ġê°Ģì¹ĺ ìĻĢ
ê·¸ëŁ¼ ìĹĲëıĦ
Ġê·¸ëŁ¬ ëĭ¤ê°Ģ
Ġíķ¸ëĵľíı° ìĿĦ
Ġíķ¸ëĵľíı° ìĹĨìĿ´
ĠìĤ¬ìĭ¤ ìĿĦ
ĠìĤ¬ìĭ¤ ìĿ´ëĦ¤ìļĶ
íĮ¨ ìħĺìľ¼ë¡ľ
ìĸ´ëĶĶ ë¡łê°Ģ
ĠìĿ´ë³ĦìĿ´ ëŀĢ
ì§ľì¦Ŀ ëĤľëĭ¤
Ġë¹ĦìĬ· íķ´
Ġë¹ĦìĬ· íķľ
Ġë¹ĦìĬ· íķľê°Ģë´ĲìļĶ
Ġë¹ĦìĬ· íķľê±°
ĠëĬĲëł¤ ì§ĢëĬĶëĵ¯
Ġìį¸ëĤ¨ ìĿ´
Ġìį¸ëĤ¨ íķľíħĮ
Ġëª°ëŀĲ ëĦ¤ìļĶ
íĶ¼ê³¤ íķľíħĮ
íĶ¼ê³¤ íķľê°Ģë´ĲìļĶ
íĶ¼ê³¤ íķľê±´
Ġë°°ëł¤ íķ´ì¤Ħ
Ġë°°ìļ° ìĭ¤
Ġë°°ìļ° ëĬĶê²Į
Ġë°°ìļ° ìŀĲê°Ģ
ĠëĸłëĤĺ ì§Ģ
ĠëĸłëĤĺ ìĦ¸ìļĶ
ĠëĸłëĤĺ ê°Ķìĸ´
ĠëĸłëĤĺ ê°ĶëĦ¤
Ġë²Ħëł¤ ìķ¼
Ġë²Ħëł¤ ëĭ¬ëĿ¼ê³ł
Ġë²Ħëł¤ ìķ¼ê²łì§Ģ
ìĤ¼ ìŀ¬ìĿ¸ê°Ģë´ĲìļĶ
ĠíĮĶ ì°Į
ëĸł ë³´ëĬĶ
ëĸł ëĤĺë³´
ëĸł ëĤĺëł¤
ëĸł ìĺ¤ë¥´ëĬĶ
ìĵ¸ ìĵ¸
ĠìĬ¤íĥĢìĿ¼ ìĿ´ëĦ¤ìļĶ
~~ ~
¡Ń ì§Ģ
²Ħ ëł¸
²Ħ ë¦°
²Ħ ë¦¬ëĦ¤
²Ħ ë¦¬ìĭľê¸¸
ìĩ¼íķĳ ìĿĦ
ìĩ¼íķĳ ìĿĢ
ĦëĬĶ ìĤ¬ëŀĮìĿĢ
ìĿ´íķ´ íķĺê³ł
ìĦ¼ ìĬ¤ìŀĪëĬĶ
ëĤŃ ë§ĮìĿ´
ê³¨ ë°ĺ
ìķĦíĮĮ íĬ¸ê°Ģ
ë§¤ë ª¨íĺ¸
ëıĦìĦľê´Ģ ëıĦ
ëıĦìĦľê´Ģ ìĹĲìĦľ
ìĿ¸íĺķ ë½ĳ
ĠìķĦê¹Į ìļ´
ĠìķĦê¹Į ìĽĮìļĶ
ĠìķĬìķĺ ê¸°
ĠìķĬìķĺ ìĿĦíħĲëį°
Ġë§Įëĵľ ëĤĺë´ĲìļĶ
Ġë§Įëĵľ ëĭĪê¹Į
ìĪĺëıĦ ê°Ģ
Ġê·¸ëŀ¬ ì§Ģ
ĠìŀĲìľł ì§Ģë§Į
ĠìŀĲìľł ë¡ľìĽĮì§ĢìĦ¸ìļĶ
ĠìŀĲìľł ìĹ¬íĸīìĿ´ì£ł
ìĨĶì§ģ íķĺì§Ģ
ìĨĶì§ģ íŀĪ
ìĨĶì§ģ íķĺê²Į
Ġê¸°ìļ´ ìĿ´
Ġê¸°ìļ´ ëĤ¼
Ġê¸°ìļ¸ ìĿ´ëĬĶ
Ġê¸°ìļ¸ ìĿ´ì§Ģ
Ġê¸°ìļ¸ ìĹ¬ì£¼ê³ł
Ġê¸°ìļ¸ ìĹ¬ë´ĲìļĶ
ĠíķĦ ìĪĺ
ĠíķĦ ë¦Ħ
ĠíķĦ ìĹ°ìĿ´
Ġëıħ íķĺê²Į
Ġëıħ íĬ¹
Ġì§Ģì³Ĳ ê°ĢëĦ¤
ìŀ¥ê±°ë¦¬ ìĹ°ìķł
ĠìĿ¼ì£¼ìĿ¼ ë§ĮìĹĲ
Ġìĥģíĥľ ë¥¼
Ġìĥģíĥľ ìĹĲìĦľ
ìĸ´ëĳĲ ëĬĶ
Ġê·¸ìĤ¬ëŀĮ ìĿ´
ĠëĮĢëĭ¨ íķľ
ĠëĮĢëĭ¨ íķ´ìļĶ
ĠíĥĢìĿ´ë°į ìĿĦ
ĠíĥĢìĿ´ë°į ìĿ´ëĦ¤ìļĶ
ĠíĥĢìĿ´ë°į ìŀħëĭĪëĭ¤
ì¡°ìĭ¬ íķ´ìķ¼íķ´ìļĶ
ì¡°ìĭ¬ íĸĪìĸ´ìķ¼ì£ł
íĶĦë¡ľ ìłĿíĬ¸
Ġì²ĺë °©
Ġì²ĺë Łī
Ġì°¾ìķĦìĺ¬ ê±°ëĿ¼
ìĦłìĿĺ ìĿĺ
ìĦłë¬¼ íķ´
ì§ĳìķĪ ìĿ¼ìĿ´
ìļ©ê¸°ëĤ´ ìĦ¸ìļĶ
ìļ©ê¸°ëĤ´ ë³´ëĬĶ
ë³´ê³łìĭ¶ ìĿĦ
ë³´ê³łìĭ¶ ëĦ¤
ë³´ê³łìĭ¶ ëĭ¤ê³ł
ìī½ ì§Ħ
ìī½ ì§ĢëĬĶ
Ġ10 0
ĠìĨįìĥģ íķľ
ĠìĨįìĥģ íķłê±°ìĺĪìļĶ
ĠíĻĶê°Ģ ëĤĺ
ĠíĻĶê°Ģ ëĤĺëĦ¤
ì¶ľê·¼ ê¸¸
ì¶ľê·¼ ìĭľê°Ħ
ì¶ľê·¼ íķĺê¸°
ì·¨ì§ģ ìĿ´ëĤĺë
Ġìľłì§Ģ íķ´ë³´ìĦ¸ìļĶ
ê¸°ëĭ¤ë¦¬ëĬĶ ê²Į
ĠíĭĢ ìĸ´ëıĦ
ìķĮë°Ķ íķ´ë³´ìĦ¸ìļĶ
Ġì§ĢëĤĺê°Ķ ëĦ¤ìļĶ
Ġì§ĢëĤĺê°Ķ ìľ¼ë©´
Ġë°ľìłĦ ìĿ´
Ġë°ľìłĦ íķł
Ġë°ľìłĦ íķĺë©´
Ġë°ľìłĦ ìĭľì¼ľë³´ìĦ¸ìļĶ
ë¬¸ëĵĿ ë¬¸ëĵĿ
Ġíĺ¸ê°Ĳ ìĿ¸ì§Ģ
Ġíĺ¸ê°Ĳ ê°ĢëĬĶ
Ġëľ» ìĿĢ
Ġëľ» ìľ¼ë¡ľ
Ġëľ» ëĮĢë¡ľ
Ġëľ» íķĺê¸°ëıĦ
Ġê²¬ëİĮ ë³´ìĦ¸ìļĶ
ĠíĬ¹ íŀĪ
ĠíĬ¹ ìĿ´íķľ
ĠíĬ¹ ë³Ħíķĺì£ł
Ġëį°ëł¤ëĭ¤ ì¤¬ëĬĶëį°
¬ìĬ¤ ëĬĶ
ëŁ° ì¹ĺ
ìĮ ©ìĸ¼
Ġíķĺê²Į íķĺê³łìĭ¶ìĿĢëį°
Ġìĩ¼íķĳ íķ´ë³´ìĦ¸ìļĶ
Ġë»Ķ ë»Ķ
ìķĦë¹ł ìĹĲê²Į
ê³łë§Ī ìĽĮ
Ġê°Īë ł¸ëĤĺë´ĲìļĶ
ëıĦìłĦ ìĿĦ
ëıĦìłĦ ìĿĢ
ĠìĹŃ íķł
ìŀĲì¡´ ê°ĲìĿĦ
Ġë³ĳ ìĿ´
Ġë³ĳ íĸīíķ´ë³´ìĦ¸ìļĶ
ëĤĺë³´ ëĦ¤
ë°ĺë ħĦ
ë°ĺë °°
ê±°ì§ĵë§Ĳ ìĿĦ
Ġìĺ¬ë ŀĲ
Ġìĺ¬ëł¤ ë³´ìĦ¸ìļĶ
Ġìĺ¬ëł¤ ëĭ¬ëĿ¼ê³ł
íķĺê³łìĭ¶ ìĿĢ
Ġëĭ¤ëĭĪ ê³ł
Ġëĭ¤ëĭĪ ìĦ¸ìļĶ
Ġëĭ¤ëĭĪ ê±°ëĤĺ
Ġëĭ¤ëĭĪ ìĭľëĤĺë´ĲìļĶ
ĠìĹ°ìĿ¸ ê³¼
ĠëĤĺìĻĶ ê¸¸
ĠëĤĺìĺ¬ ê¹Į
Ġì°Į ëĬĶ
Ġì°Į ë¿Į
Ġì°Į íĳ¸ëł¤ì§Ģì£ł
ĠìŀĲì¡´ ê°Ĳ
Ġì§ĢìĽĮ ìķ¼
ĠìĤ¬ê³¼ íķ´ë³´ìĦ¸ìļĶ
ĠìĤ¬ê³¼ íķ´ìķ¼ì£ł
Ġê³łíĨµ ë°Ľê³ł
ê´´ ê°ĲìĿ´
ê·¸ë§Į íģ°
ëıĻê±° íķĺëĭ¤
íģ¬ë £¨ì¦Ī
Ġì¡°ìłĪ ìĿĢ
Ġê°ĲìĤ¬ íķľ
Ġë¹¼ ëĭĪê¹Į
ì§Ģê¸Īì²ĺëŁ¼ ë§Į
ĠìĽĢ ì¸ł
Ġíİ¸íķł ì§ĢëıĦ
Ġëª°ëĿ¼ ìĦľ
Ġëª°ëĿ¼ ì¤ĺëıĦ
ĠëĶ°ëľ» íķĺê²Į
ĠìľĦíĹĺ íķ´ìļĶ
ĠìľĦíĹĺ íķłê¹Į
ĠìľĦíĹĺ íķĺì£ł
ĠêµĲ ë³µìĿ´
ĠêµĲ íĻĺíķĻìĥĿ
ĠëĦ£ ê³ł
ĠëĦ£ ìĸ´ë³´ìĦ¸ìļĶ
ĠëĦ£ ìľ¼ìĦ¸ìļĶ
Ġë¯¸ì¹ĺ ê²łëĭ¤
ìŀĬíĺĢ ì§Ģ
ìŀĬíĺĢ ì§Ħ
ìŀĬíĺĢ ì§ĢëĦ¤
Ġì¹ľêµ¬ëĵ¤ íķľíħĮ
ĠëıĻìķĪ ìĿĺ
ĠëĪĦêµ¬ë ¥¼
ĠëĪĦêµ¬ë ĥĲ
ĠëıĮìķĦìĺ¤ ê¸°
ì¹´ëĵľ ê°Ģ
ì¹´ëĵľ ê°Ĵ
Ġë§ĮëĤĺë©´ ìĦľ
Ġìį¼ ëĬĶëį°
Ġìį¼ ê¸¸
Ġìį¼ ëĭ¤ê°Ģ
ì²«ìĤ¬ëŀĳ ëıĦ
íıīìĨĮ ìĿĺ
íıīìĨĮ ì²ĺëŁ¼
ĠíķĻêµĲ ìĹĲìĦľ
ĠíķĻêµĲ ê°Ī
ĠìŀĬíĺĢì§Ģ ëįĶëĿ¼ê³łìļĶ
Ġíģ¬ê²Į íķľë²Ī
Ġìĸ´ì©Ķ ìĪĺ
ĠíĶĦìĤ¬ ìĹĲ
Ġìĵ´ ì§Ģ
Ġìĵ´ ë§Įíģ¼
Ġëľ¨ ê²ģê³ł
ĠëĥĦìĥĪ ëĤĺ
Ġì°©ê°ģ íķĺê³ł
Ġì°©ê°ģ ìĿ¼ê¹Į
ĠëĬ¥ëł¥ìĿ´ ê²łì£ł
ĠìĹ¬ëŁ¬ ê°Ģì§Ģ
Ġì±ĦìĽĮ ëĵľë¦´ê²ĮìļĶ
Ġì±ĦìĽĮ ëĤĺê°ĢëĬĶ
Ġë¶ĪëŁ¬ ì¤¬ìĸ´
ìĥģì²ĺë°Ľ ìķĺëĤĺë´ĲìļĶ
ìĥģì²ĺë°Ľ ëĬĶëĭ¤ê³ł
ìĹ°ìĺĪìĿ¸ ìĿĦ
ëĮ ĵë§Ĳ
ëĴ ¹ê¸Ģ
Ĭ¦ ê²Į
ĠëĿ µ
ĠëĦĪë ŀĢ
ĠëĦĪë įľëĦĪëįľ
ĠëĽ° ëĬĶ
Ġêº¼ ì§Ģê¸°
Ġìŀĥ ìĿĦ
ìĭ¤ë ¹Ħ
Ġê°ļ ê³ł
Ġê±°ìłĪ ìĿĺ
ĠìĿĢ íĸī
ĠìĿĢ íĩ´
ê°ģìŀĲ ê°Ģ
Ġê·¼ ì§Ī
ì°° ëŀĳ
Ġìĺ¬ëĿ¼ ê°Ī
Ġê°Ģê¹Į ìĿ´
Ġê°Ģê¹Į ìļ´
ĠëĤĺìģĺ ìħ¨ëĤĺë´ĲìļĶ
íķĺì§Ģë§Į ìĿĢ
Ġìĭľê¸° ìĹĲìļĶ
Ġìĭľê¸° ìĺĢìĿĦê±°ìĺĪìļĶ
ĠìŀĺìĥĿ ê²¼ìĸ´
ìłĦëĤ¨ì¹ľ íķľíħĮ
ĠëĤ¨ê²¨ ë³´ìĦ¸ìļĶ
ĠëĤ¨ê²¨ ì§Ħ
ĠìĿ¼ìĥģ ìľ¼ë¡ľ
ì¶©ìłĦ ê¸°
ì¶©ìłĦ íķĺëĬĶ
ì¶©ìłĦ íķł
ì¶©ìłĦ íķĺê³ł
ì¶©ìłĦ ê¸°ë¥¼
Ġì¶¥ ëĭ¤ê³ł
Ġì¶¥ ëĥĲ
íģ´ ë§ģ
ìĤ¬ëŀĮìĿ´ ëĭĪê¹ĮìļĶ
ĠìĨĮê°ľíĮħ íķĺê¸°ë¡ľ
Ġê¹İ ìĿ¸
Ġê¹İ ìķĦìļĶ
Ġë¹ĦêµĲ ëı¼
ìĥĿê°ģíķł ìĪĺë¡Ŀ
ëª¨ëĳĲ ê°Ģ
ëª¨ëĳĲ ë¥¼
Ġë©į ëķĮë¦¬ëĬĶê²ĥëıĦ
Ġê³ĦìłĪ ìĿ´ìĹĲìļĶ
Ġê³ĦìłĪ ìĿ´ì£ł
ë²Ħëł¤ ìĦľ
Ġì±ħ ìŀĦìĿ´
ĠíĻĶìŀ¥ ìĿĢ
ĠíĻĶìŀ¥ íķĺëĬĶ
ĠëıĻê±° íķĺê³ł
ĠíĮĲëĭ¨ íķĺì§Ģ
ì·¨ìĹħ ìĹĲ
Ġë¬¼ìĸ´ë³´ ì§Ģ
Ġë¬¼ìĸ´ë³´ ë©´ìĦľ
Ġë¬¼ìĸ´ë³´ ìĭľëĤĺìļĶ
ëįķ ì§Ī
ëįķ ìĪĺê¶ģ
ê¼¬ë ¥´
Ġê·¸ë¦¬ìĽĮ íķĺëĬĶ
Ġëĭ¨ëĭ¨ íķ´ì§ĢìĦ¸ìļĶ
ĠíĥľëıĦ ê°Ģ
ĠíĥľëıĦ ìĹĲ
ĠíĥľëıĦ ëĦ¤ìļĶ
Ġê°Ķëĭ¤ ìĻĢìķ¼ì§Ģ
Ġë°ĺë³µ íķĺì§Ģ
Ġë°ĺë³µ ëĲł
Ġëĥī ëıĻìĭ¤ìĹĲ
ĠíĿĶëĵ¤ ë¦¬ëĦ¤
ĠíĿĶëĵ¤ ë¦¬ê²łìĸ´ìļĶ
Ġê±¸ë¦´ ì§ĢëıĦ
Ġë©Īì¶Ķ ê³ł
Ġë°ĽìķĦëĵ¤ìĹ¬ ìļĶ
Ġë°ĽìķĦëĵ¤ìĹ¬ ì§Ģì§Ģ
Ġê³¨ëĿ¼ ì¤ĺ
¡Ģ íĹĪìĭĿìĿ´ìĹĲìļĶ
ëĦĪë ŀĳ
ëŁ¬ë ıĦ
ëŁ¬ë ĵ¤ì§Ģ
Ġìª ¼ê¸Ī
Ġì» ¸
Ġì» ¸ìľ¼ë©´
Ġì» ´ë°±
Ġëį §
Ġëį ®
Ġëį ¤ëį¤
ìĿµìĪĻ íķ´ì§Ī
ìĿµìĪĻ íķ¨ìĿ´
ìĿ´íĺ¼ ìĿ´
ìĸ´ìŀ¥ ìĿĺ
ìĸ´ìŀ¥ ìĿ´ë©´
ê³³ ìľ¼ë¡ľ
ì§ĢëĤĺ ê°ĢëĬĶ
ì§Ģë§Ī ìļĶ
ĠíĽ Į
ìŀĲì±ħíķĺì§Ģ ë§ĪìĦ¸ìļĶ
ëłĩ ì§Ģ
Ġì§ĵ ë§Į
ĠìĥĿíĻľ ìĿ´
ĠìĥĿíĻľ íĮ¨íĦ´
ìĭľìĸ´ë¨¸ ëĭĪë
Ġì¢ĭìķĦíķĺëĤĺ ìļĶ
ìĥģëĭ´ ìĿ´ëĤĺ
ìĹ°ìĿ¸ ê³¼
íŀĮ íĬ¸
ìĤ¬íļĮ ë¥¼
ìĤ¬íļĮ ìĹĲìĦľëıĦ
ëª° ëŀĲ
ĠëĤ´ëł¤ëĨ Ķ
Ġëª¨ìķĦ ë´ĲìļĶ
ëĮĢì²´ ë¶Īê°Ģíķľ
ì¶© ê²©
ì¶© ê²©ìĿ´
Ġì¤ĳê°Ħ ìĿĦ
Ġì¤ĳê°Ħ ìĿ¸
Ġì¤ĳê°Ħ ì¤ĳê°Ħ
ĠíķĺëĬĺ ìĿ´
Ġíķľëĭ¤ ëĬĶëį°
ëĭ¹íĻ© íķ´ìĦľ
ëĭ¹íĻ© íķĺìħ¨ê²łìĸ´ìļĶ
Ġë¬´ë¦¬ íķĺì§Ģ
Ġë¬´ë¦¬ íķĺë©´
Ġë¬´ë¦¬ ìĿ¼ê¹Į
Ġë¬´ë¦¬ íķĺì§ĢëĬĶ
íĮĲ ëıĦëĿ¼ìĿĺ
ĠìķĪëħķ íŀĪ
ĠìłĦë¶Ģ ìĿ¸
ĠìłĦìĹ¬ì¹ľ ìĿ´ëŀĳ
ĠìłĦëĤ¨ì¹ľ ìĿ´ëŀĳ
ĠëĵľëĿ¼ ìĿ´íĶĮëĿ¼ìĽĮ
Ġìĸĳ ë§Ĳ
Ġìĸĳ ìĭĿìĿĦ
Ġìĸĳ íķ´ë¥¼
Ġìĸĳ ë©´ê³¼
ê´Ģë¦¬ íķĺëĬĶ
ê´Ģë¦¬ íķ´ì£¼ìĦ¸ìļĶ
ëĭ¬ëĭ¬ íķł
ĠìĿ¸ìĤ¬ íķ´ì¤¬ìĸ´
íĹĪë ¦¬ëĿł
íĹĪë ¡ĢíĹĪìĭĿìĿ´ìĹĲìļĶ
Ġì²´ ì§ĪìĿ´
Ġì²´ ìĿ¸ìľ¼ë¡ľ
Ġì²´ ì¡°ë¥¼
Ġëĭ¹ìĹ° íķľ
Ġëĭ¹íĻ© íķł
íĺĦê¸Ī ìĿ´
íĺĦê¸Ī ë§Į
Ġë¹Ħë°Ģ ìĿĢ
Ġë¹Ħë°Ģ ìĹ°ìķł
ë¹Į ë¦¬ë©´
ë¹Į ìĸ´ë¨¹ìĿĦ
ĠëĳĲê·¼ ê±°ë¦¬ê²łìĸ´ìļĶ
Ġê³łë°±íķ´ëıĦ ëĲłê¹Į
Ġëĵ¤ìĸ´ìĻĢ ìĦľ
Ġìļ°ìĦł ìĪľìľĦë¡ľ
ëĨĢìĿ´ íĦ°
ì±Ħ ìĽĮì§Ī
ì±Ħ ëĦĲ
Ġë¯¸ìķĪ íķĺëĮĢ
ìĹ¬ëĵľ ìĦ¸ìļĶ
Ġë¶ĦìĿ´ ìĭľêµ°ìļĶ
ĠëıĻìĥĿ ìľ¼ë¡ľ
ì¹´íİĺ ìĿ¸ìĿ´
ĠìĿĺì§Ģ íķĺì§Ģ
ĠìĿĺì§Ģ íķ´ëıĦ
Ġìļ´ëªħ ìĿ´
Ġìļ´ëªħ ëıĦ
ĠíĿĺëŁ¬ ê°Ģ
ĠíĿĺëŁ¬ ê°ĳëĭĪëĭ¤
ĠíĿĺëŁ¬ ê°ĢëĦ¤ìļĶ
Ġë¹łë¥´ ìĭľêµ°ìļĶ
ë¬¼ë¦¬ ì¹ĺë£Į
Ġê¾¸ë ¯¸ê³ł
íı¬ê¸° íķ´ìķ¼
íı¬ê¸° íķĺì§Ģë§ĪìĦ¸ìļĶ
ë¶Ģëª¨ëĭĺìĿ´ ëĤĺ
ìķŀìľ¼ë¡ľ ëĬĶ
ì»´ íĦ°
ë§ĪìĬ¤íģ¬ íĮ©
ìĿ´ìĥģíĺķ ìĿ´
ìĿ´ìĥģíĺķ ìĿĦ
ëĬ¥ëł¥ìĿ´ ê¸´
ëĬ¥ëł¥ìĿ´ ëĿ¼ë©´
ìĦłìĥĿëĭĺìĿ´ ìļĶ
ìĦłìĥĿëĭĺìĿ´ ëĤĺ
ĠíĪ¬ ìĦ±ìĿ´ìĹĲìļĶ
ĠìĽĢì§ģ ìĿ´ê¸°ê°Ģ
10 0
ê¶Įíĥľ ê¸°ê°Ģ
ëĬ¦ ì§Ģ
ì¿ ¼íĬ¸
Ġë¿Į ëł¤ë³´ìĦ¸ìļĶ
Ġë¿Į ìĸĺ
Ġë¿Į ëĵ¯íķł
ê°Ĵ ìĿ´
Ġìķħ ìĪĺë¥¼
ê¸įìłķ ìłģìľ¼ë¡ľ
ê¸įìłķ ìłģìĿ´ê³ł
ĠëĤ¬ ëĤĺë´ĲìļĶ
ê¸°ëħĲìĿ¼ ìĹĲ
ìĿ¸ìĹ° ìĿ¸ê°Ģ
ìĭłê³ł íķĺê³ł
ĠìķĬìĿĦê¹Į ìĭ¶ìĸ´ìļĶ
Ġëĭ¤ìĿĮ ìĹĲ
Ġëĭ¤ìĿĮ ëĤł
Ġëĭ¤ìĿĮ ë¶ĢíĦ°ëĬĶ
ìĹ¬ê¸°ê¹Įì§Ģ ê°Ģ
ĠìĦ¼ ìĬ¤ê°Ģ
Ġê¸°ìĽĲ íķ´ìļĶ
ìŀ¥ëĤľ ìĿ¸ì§Ģ
ìłĦê³µ ìĹĲ
ĠìĻ¸ë ª¨
ĠìĻ¸ë °ķ
Ġì¹¨ ë¬µ
Ġì¹¨ íķ´ëĭ¹
Ġì¹¨ ëĮĢìĹĲìĦľ
ë¯¸ë £¨ì§Ģë§Ĳê³ł
ëĮĢíĻĶ íķĺë©´ìĦľ
ì¶ĺ ê³¤
ìļ°ìļ¸ íķľ
ìļ°ìļ¸ ì¦Ŀ
Ġê±´ê°ķ ìĿ´
Ġê±´ê°ķ ìĬµê´ĢìĿ´ìĹĲìļĶ
Ġê±´ê°ķ ìĬµê´ĢìĿ´ëĦ¤ìļĶ
ĠëģĦ ê³ł
ĠëģĦ ìĦ¸ìļĶ
ĠíķĺëĤĺë °ĸìĹĲ
ìķĪíĥĢê¹Ŀ ì§Ģë§Į
ĠëĨĪ ìĿĺ
ëıĻìĥĿ ìĿ´
ëıĻìĥĿ ìĿ´ëŀĳ
ìĭ¤ìĪĺ íķĺì§Ģ
ìĭ¤ìĪĺ íĸĪëĭ¤
ìĭ¤ìĪĺ íĸĪëĤĺìļĶ
ĠìłĦíĻĺ íķ´ë³´ìĦ¸ìļĶ
ĠëģĿëĤĺ ê¸¸
ê³µíĨµ ìłĲìĿĦ
Ġê²°ìĭ¬ íķľ
Ġê²°ìĭ¬ ìĿ´ëĦ¤ìļĶ
ìĺ¤íķ´ íķłë§Įíķľ
Ġíĺ¸ë °ķìĶ¨
Ġê°Ĳê¸° ìĿ¼
Ġê°Ĳê¸° ì¡°ìĭ¬íķĺìĦ¸ìļĶ
ì¹ĺê¸° ë°ķì¹ĺê¸°
Ġë°©íķĻ ìĹĲ
Ġë°©íķĻ ìĿ´ìĺĪìļĶ
Ġë°©íķĻ ìĿ´ëŀĺ
Ġì°¾ìķĦê°Ģ ë³´ìĦ¸ìļĶ
Ġì¤Ģë¹ĦíķĺëĬĶ ë°©ë²ķìĿ´
ĠíĿ¬ë§Ŀ ìłģìĿ´ìĹĲìļĶ
íķ´ìķ¼íķł ëĵ¯
ë¹¨ ìĿ¸ê°Ģ
Ġë³´ê³łìĭ¶ ìĸ´ìļĶ
Ġë³´ê³łìĭ¶ ìĹĪëĤĺë´ĲìļĶ
ë°ľíĳľ ëĬĶ
ë°ľíĳľ íķłëķĮ
ë©į ì²Ń
ëĨĵ ìķĦì£¼ìĦ¸ìļĶ
ë¡± íĮ¨ëĶ©
ĠíĶ¼íķ´ ìŀĲ
ĠíĶ¼íķ´ ê°ĢëĬĶ
ìŀĬì§Ģ ë§Ĳê³ł
Ġëĭµìŀ¥ íķ´
ĠìĦ±ê²© ëıĦ
ìĹ¬ë¦Ħ ìĿ´ëĦ¤ìļĶ
ìĹ¬ë¦Ħ ìĹĲëĬĶ
Ġê°ĦìłĪ íŀĪ
Ġê°ĦìłĪ íķĺëĦ¤
ĠëıĻë¬¼ ìĽĲ
ĠëıĻë¬¼ ìĿ´ì£ł
ê°ĳìŀĳ ìĬ¤ëŁ¬ìĽł
ê°ĳìŀĳ ìĬ¤ëŁ½ê²łëĦ¤ìļĶ
ì·¨ë¯¸ ìĻĢ
Ġìĭ¤ë§Ŀ ìĿĦ
Ġìĭ¤ë§Ŀ íķĺì§Ģ
Ġì·¨ì§ģ íķłê¹Į
Ġì·¨íĸ¥ ìĿ´
Ġì·¨íĸ¥ ìĿĦ
Ġì·¨íĸ¥ ìĿ¸ëį°
ĠìĺģìĽĲ íķľ
ĠìĺģìĽĲ íŀĪ
ĠìĺģìĽĲ íĸĪìľ¼ë©´
ĠìĽĲë§Ŀ ìĿĢ
Ġì¦Ĳê¸° ë©´
Ġê¸¸ìĸ´ ì§Ħëĭ¤
Ġìŀ¥ìĨĮ ìĹĲ
ì£¼ëł¤ ëĬĶ
ì£¼ëł¤ ëĤĺë´ĲìļĶ
Ġì´ĪëĮĢ íķĺëł¤ê³ł
íĹĪìłĦ íķĺìĭľê²łìĸ´ìļĶ
ĠíĿĲë¥´ ë©´
Ġë°ĺëĮĢ ê°Ģ
Ġë°ĺëĮĢ ìĺĪìļĶ
ĠëĳĺìĿ´ ìĦľ
ĠìĪĺëĭ¤ ë¥¼
ĠìĿĮìķħ ìĿĦ
ĠìĿĮìķħ ê°ĲìĥģìĿ´ëĿ¼ê³ł
ë§¥ì£¼ ë³ĳ
Ġë³Ģëįķ ìĿ´
ìķĦëĭĮ ê±´
ĠìĹŃìĭľ ëĤĺ
ĠìĿĺë¯ ¸ë¶Ģ
Ġë°ĿíĺĢ ì§Ģê¸°
ë¸Ķ ë¡Ŀì²´ìĿ¸ìĿ´
ìı ŁìķĦ
Ŀ¼ë Ħ¤
Ŀ¼ë ĩ¨
ê³° ê³°íŀĪ
ìŀ¼ ìĹĲê²Į
ĠíĥĿ ë°°ê¸°ìĤ¬
ë³Ģë įķ
ëĭ¤íĸī ìĿ´ëĦ¤ìļĶ
ìĺĨ ìĹĲìĦľ
ì£Ħ ì§Ģ
ì£Ħ ìĨ¡
Ġìĭ¤ë ¡ľ
Ġëĭ® ìķĦìĦľ
Ġëĭ¬ë ŀĺ
Ġëĭ¬ë ł¸ëĤĺë´ĲìļĶ
Ġëĭ¬ë ŀĲëĤĺë´ĲìļĶ
ĠìĿ´ìĤ¬ ê°Ī
ìĿ¸ìłķ íķ´ì£¼ìĦ¸ìļĶ
ìĿ¸ëĤ´ ìĿĺ
ìľ¼ëł¤ ëĭĪ
ê°Ħëĭ¨ íķľ
ê°Ħëĭ¨ íķĺê³ł
Ġê°Ģì¡± ê°ĻìĿĢ
ìĤ¬ëŀĳíķ´ ëĿ¼ê³ł
ìĻķ ëĶ°
ĠìŀĲë¦¬ ìĹĲ
ĠìŀĲë¦¬ ìĹĲìĦľ
ĠìŀĲë¦¬ ëĭĪê¹ĮìļĶ
ĠìĤ¬ëŀĳíĸĪ ê¸°
ĠìĤ¬ëŀĳíĸĪ ëĭ¤ëĬĶ
ê±Ķ ëĬĶ
ĠëĤ¨ê¸° ê³ł
ĠëĤ¨ìķĺë ĭ¤ë©´
ìĬ¤íĬ¸ëłĪì¹Ń íķ´ì£¼ìĦ¸ìļĶ
Ġì¤ĳëıħ ìĿ¸
ìķĪìłĦ ìĿ´
ê³¼ìĭĿ ìĿĢ
ê³¼ìĭĿ íķĺì§Ģ
Ġë¬´ëį¤ëį¤ íķ´ì§Ī
íĮĶ ë©°
íĮĶ ëļĿ
Ġìĸ» ëĬĶëĭ¤ëĬĶ
íģ¬ë¦¬ìĬ¤ë§ĪìĬ¤ ìĹĲëĬĶ
Ġì°¾ëĬĶ ëĭ¤ê³ł
ĠìĨĮë¬¸ ìĿ¼
ê³Ħíļį ìĿĦ
ê³Ħíļį ëĮĢë¡ľ
ê³Ħíļį ìłģìĿ´ê³ł
ĠìķĦëĭĪìĹĪ ìĿĦì§ĢëıĦ
ìĿ´ìķ¼ê¸° íķĺê³ł
ĠìľĦíķ´ìĦľ ëĬĶ
êµĲíĨµ ìĤ¬ê³ł
ĠëĲĺëıĮ ë¦´
ĠëĲĺëıĮ ìķĦë³´ìĦ¸ìļĶ
ĠëĨĢìķĦ ëĵľë¦¬ê³ł
ëĨĢëŁ¬ ê°Ģê³ł
ëĨĢëŁ¬ ê°ĢìĦ¸ìļĶ
Ġë¯¸ìķĪíķ´ íķĺëĬĶ
ìŀĬìĸ´ ë³´ëł¤ê³ł
ĠìĦ±ìŀ¥ íķł
ĠìĦ±ìŀ¥ íķĺëł¤
ĠìĦ±ìŀ¥ íķĺëĤĺë´ĲìļĶ
Ġíı° ê²ľ
Ġíı° ì¼ĢìĿ´ìĬ¤
Ġìµľìķħ ìĿĺ
Ġë§Īë¬´ë¦¬ íķĺìĭľê¸¸
ìĪľìľĦ ìĹĲ
Ġê²½íĹĺ íķ´ë³´ìĦ¸ìļĶ
Ġê²½íĹĺ ìĿ´ëĿ¼ê³ł
Ġëĭ¨ê³Ħ ìĿ¸ê°Ģë´ĲìļĶ
íĸīë³µíķ´ ë³´ìĹ¬ìļĶ
Ġëķ¡ ê²¨
Ġëķ¡ ê¸°ëĦ¤
ĠìĿ´ê²¨ëĤ´ ê¸°
ë¨¸ë¦¿ ìĨįìĹĲ
ĠìĤ¬ê·Ħ ëĭ¤
ëıĮìķĦ ë³´ë©´
ëıĮìķĦ ìĺ¤ê¸¸
ëĵ± ë¡Ŀê¸Ī
ìĭ«ìĸ´ íķĺì§Ģ
Ġíĳ¸ ìĦĿ
Ġì¹ĺë£Į íķ´ë³´ìĦ¸ìļĶ
ĠíĹĪë¬´ íķĺëĭ¤
ĠìĽĶê¸ī ëĤłìĿ´
Ġì³Ĳëĭ¤ ë´Ĳ
Ġì³Ĳëĭ¤ ë´Ħ
ìĤ¼ê²¹ìĤ´ ìĹĲ
Ġsns ìĹĲ
Ġsns ë¥¼
Ġì« Ħ
Ġë©´ ìłĳ
Ġë¸Į ëŁ°ì¹ĺ
Ġë½ĳ ìķĦ
Ġê½ĥ ìľ¼ë¡ľ
ìĿ´ì§ģ ìĿĦ
ì§ķ ê¸Ģ
ìĸ´ì°Į íķĺë©´
ëĤ® ìĪł
ëĤ® ìŀłìĿĦ
ëĤ® ìŀłìĿĢ
ê³łê°Ģ ìĿĺ
Ġìķī ìķĦìŀĪì§Ģ
ĠìŀĪëĭ¤ ëĬĶëį°
ê¹ĶëģĶ íķĺê²Į
ê¹ĶëģĶ íķ´ì§Ī
ê¹ĶëģĶ íķľê²Į
Ġì¢ĭìķĺ ê²łì£ł
Ġì¢ĭìľ¼ìĭľ ê²łìĸ´ìļĶ
Ġê²Ģìĥī íķ´ìĦľ
ìķ¼ê·¼ ìĿ´
ìĭľê³Ħ ì¤Ħ
ĠìķĦê¹Ŀ ì§Ģ
ĠìķĦê¹Ŀ ëĭ¤
ĠìķĦê¹Ŀ ëĦ¤ìļĶ
Ġìĸ´ë¦° ëį°
Ġìĸ´ë¦° ê°Ģë´ĲìļĶ
ì£¼ì°¨ ìŀ¥ìĿ´
Ġê±¸ëł¤ ìļĶ
Ġë§ĲìķĦ ìķ¼ì§Ģ
Ġë§ĲìķĦ ë³´ìħĶìļĶ
Ġì°Ķ ê¹Įë´Ĳ
ĠìĭľíĤ¤ ì§Ģ
ĠìĭľíĤ¤ ëĬĶëį°ë¡ľ
Ġê·¸ëĮĢ ìĿĺ
Ġê·¸ë¦½ ìĬµëĭĪëĭ¤
ìĨ¡ ìŀ¥
ìķłìłķ ìĿĺ
ìķłìłķ íĳľíĺĦìĿ¼
ìķłìłķ íĳľíĺĦìĿ´ëĿ¼ê³ł
ìļ´ìłĦ ì²ĺëŁ¼
ìļ´ìłĦ íķĺëĬĶê±°
Ġë¨¸ë¦ ¿
Ġë¨¸ë¦ ¬ëĬĶ
Ġë¨¸ë¦ ¬ë¡ľ
ìĤ¬ëĤ´ ì»¤íĶĮìĿ¸ëį°
Ġìłķìĥģ ìĿ´ì£ł
Ġìłķìĥģ ìĿ¼ê¹Į
ĠìłķíĻķ íŀĪ
Ġê³łë§Ī ìĽĮìļĶ
Ġë¨¹ìĹĪìĸ´ ëıĦ
Ġëģĵ ìĹ¬
Ġëģĵ ìĿ´ëĬĶ
Ġëģĵ ìĹ¬ëĵľìĦ¸ìļĶ
ë¶Ħëªħ íķľ
ĠìĤ´ê¸° ìĹĲëĬĶ
Ġíķľëĭ¬ë §ĮìĹĲ
ëıĻìĦ± ìĿĦ
ĠëģĿìĿ¸ ê±°ìĺĪìļĶ
Ġìī½ ê²łìĸ´ìļĶ
ĠëĪĪë ¹Ľ
ë°Ķë³´ ê°ĻìĿĢ
ë°Ķë¹ł ìĦľ
ìĦ±íĺķ íķłê¹Į
íķĻìĥĿ ìĿ´
Ġê¹ĶëģĶ íķ´ì§Ī
Ġê¹ĶëģĶ íķĺê²łì£ł
ë¹Ħë°Ģ ìĿĢ
Ġë¹¨ ëĿ¼
Ġë¹¨ ëŀĺíķ´ë³´ìĦ¸ìļĶ
Ġë¹ĦëĤľ ë§Į
ìĦłíĥĿ ìĿĦ
ìĦłíĥĿ íķł
ì¹ľêµ¬ë¡ľ ìĦľìĻĢ
ëĳĲê·¼ ê±°ë¦¬ê²łëĦ¤ìļĶ
ĠíĥĶ ëĭ¤
ĠíĥĶ ëĬĶëį°
ĠíĥĶ ëįĺ
Ġìĭľìŀĳíķ´ ë³´ë©´
Ġê·ĢìĹ½ ëĮĢ
Ġê·ĢìĹ½ ëĭ¤ê³ł
ë¯¸ì¹ĺ ê²łëĦ¤
Ġëĸłìĺ¤ ë¥´ëĦ¤
ìľĦíĹĺ íķł
ìľĦíĹĺ íķĺëĦ¤ìļĶ
Ġë²Ħíĭ° ì§Ģ
Ġìļ°ìĤ° ìĿĦ
Ġê²°íĺ¼ìĭĿ ìĿ´ìķ¼
ìĸĳë§Ĳ ìĿ¸ê°Ģë´ĲìļĶ
ĠíıŃ ëł¥ìĿĢ
ĠìĿ´ë¤Ħ ì§Ģì§Ģ
ĠìĿ´ë¤Ħ ë³´ìķĦìļĶ
Ġê¹¨ëĭ« ê²Į
ĠíĴĢëł¸ ì£ł
Ġìį¸ë ¶ĢíĦ°
ĠìĪłë§Ī ìĭľ
ĠìĪłë§Ī ìĭľëĬĶ
Ġìļ©ìĦľ íķĺë©´ìĦľ
Ġê¿Ģ ê¿Ģ
ìĦ¤ëł ľ
ìĦ¤ëł ĺìĿ´
ìĦ¤ëł ĺìĿĦ
ìĦ¤ëłĪ ê²łìĸ´ìļĶ
ĠíĶĦë¡ľ íı¬ì¦Ī
ĠíĶĦë¡ľ ê·¸ëŀ¨
ĠëķĢ ìĿĦ
ĠëķĢ ëĤĺëĦ¤
ĠëķĢ ëĤľëĭ¤
Ġìłĳìĸ´ëĳĲ ëĬĶê²Į
ëĸ¨ ë¦¬ëĬĶ
Ġì²ľìŀ¬ ìĺĪìļĶ
ĠìĺģíĻĶë³´ ìŀ¬
Ġíĥľìĸ´ëĤ¬ ìĸ´ìļĶ
Ġíĥľìĸ´ëĤ¬ ìľ¼ë©´
Ġì§ĪíĪ¬ íķĺëĬĶ
Ġê¸´ìŀ¥ íķĺì§Ģ
Ġê¸´ìŀ¥ íĸĪëĤĺë´ĲìļĶ
Ġê¸´ìŀ¥ ëĲĺê²łìĸ´ìļĶ
ì§§ìĿĢ ë§ĮëĤ¨
Ġêµ¬ë©į ìĿ´ëĭĪê¹ĮìļĶ
ìĤ¬ê·Ħ ì§Ģ
ĠëĴ· ëª¨ìĬµ
ìĻ¸ëª¨ ëĬĶ
ìĭłíĺ¼ìĹ¬íĸī ìĿĢ
Ġìłķë¦¬ëĲł ì§ĢëıĦ
ìĸ´ëĶĶìĦľ ë¶ĢíĦ°
ëĤŃë§Į ìĿ´ëĿ¼ê³łëĬĶ
Ġìķ¼ê·¼ íķ´
Ġì½ĶìĬ¤ ë¥¼
ĠëĳĲê·¼ê±° ëł¤ìļĶ
ëļĿ íķ´
´¤ ìĿĦëķĮ
ê¶Ī ë³´ìĦ¸ìļĶ
ë»Ķ íķĺëĭ¤
ìĿ´ìĤ¬ íķĺëĬĶ
ìĿ´íģ¬ ìĹħ
ìķķ ìĹĲëĬĶ
ëĭĿ íķłê¹Į
ìĹī ìĹī
ëĤĮ ìĥĪê°Ģ
ì§Ģíķĺì²ł ìĹĲìĦľ
ìĦ¸íı¬ ìĹĲ
ê³łìŀĪ ìĹĪëĬĶëį°
ĠíĴ Īìĸ´
ĠíĴ ĪìĹĲ
ĠíĴ įë¶Ģ
ìĿĢê·¼ íŀĪ
ëıĦìĻĢ ì£¼ëł¤ëĬĶ
ê¸°ë³¸ ìĿ´
Ġê²© ìĭĿìĿĢ
ìĺĪìģľ ê±¸ë¡ľ
ìĬĪ íį¼ë¬¸
Ġëĭ« ê³ł
Ġëĭ« ìľ¼ìĦ¸ìļĶ
ĠìĿ´ìĦ±ìľ¼ë¡ľ ìĦľ
ë§ĮëĤĺëĬĶ ê²Į
ë§ĮëĤĺëĬĶ ëį°
ë§Įì¡± íķĺë©´
ìĿĺìĭĿ íķĺëĬĶ
ë°ĸ ìĿĺ
ĠìķĦíĶĮ ê¹Į
ê±°ê°Ļ ëĦ¤
ê±°ê°Ļ ìĿĢëį°
Ġì¢ĭìķĦíķĺìĭľ ëĤĺë´ĲìļĶ
ìłķíĻķ íķĺê²Į
Ġë§Įì¡± íķ´
Ġë§Įì¡± íķĺëĬĶ
ĠìķĪê°Ģ ì§Ģê³ł
ìĹ¬ìļ° ìĿ¸ê°Ģë´ĲìļĶ
Ġë°Ķìģĺë įĶëĿ¼ëıĦ
ì§Ħê¸ī ìĹĲìĦľ
ĠìĭľìĽĲ íķľ
ĠìĭľìĽĲ íķĺëĦ¤ìļĶ
Ġê¸°ëıĦ íķłê²ĮìļĶ
Ġë¨¼ ì§Ģê°Ģ
ë§ĲíķĺëĬĶ ëĮĢë¡ľ
ìĤ¬ìĿ´ ì¦Īë¥¼
ìĤ¬íĳľ ë¥¼
ë¯¸ëŀĺ ìĿĺ
ëĮĢë¦¬ íļ¨ëıĦ
ĠìĨĶë¡ľ ìķ¼
ê³¼ê±° ëĬĶ
ëıĻê°Ĳ ìĿ´ìĹĲìļĶ
ìĨĮë¬¸ ìĿĢ
ìĪĺìĹħ ìĭľê°Ħ
Ġë¯¸ë £¨
ìĥ¤ìĽĮ íķĺëĬĶëį°
ìĥ¤ìĽĮ ê°Ģìļ´
ì¤ĳê³ł ìĦľìłĲìĹĲìĦľ
ê°ľìĿ¸ ìłģìĿ¸
Ġê°Ģë²¼ ìĽĢìĿ´ëĦ¤ìļĶ
Ġê°Ģë²¼ ìĽĮì§Īê±°ìĺĪìļĶ
ì¡°ìļ© íķĺëĭĪ
ì¡°ìĸ¸ íķ´ì£¼ìĦ¸ìļĶ
íĹ¤ ìķĦë¦´
íĹ¬ìĬ¤ ìŀ¥ìĹĲìĦľ
ì¹ĺê³¼ ìĹĲ
Ġì§Ħê¸ī íķł
Ġì°¨ë¡Ģ ìĿ¸
ëĵľìĭľ ëĬĶê±°
Ġì°¾ìķĦìĺ¤ ê¸¸
Ġëħ¸ëł¤ ë³´ìĦ¸ìļĶ
êµĲíļĮ ìĹĲ
ĠíĻķìĭł íķĺëĬĶ
Ġê³µê°ľ íķ´
Ġê³µê°ľ ìłģìľ¼ë¡ľ
Ġìĭłê³ł íķĺê³ł
Ġìĭłê³ł íķĺìĦ¸ìļĶ
Ġëĵ¤ìĸ´ê°Ģ ê¸°ê°Ģ
ìĻĶëĭ¤ ê°Ķëĭ¤
íİ¸ë ĳĲíĨµ
ĠìŀłìĪĺ íĥĢëĬĶ
ĠìŀłìĪĺ íĥĶìĸ´
ìĹ¬ëŁ¬ë ªħ
ìĹ¬ëŁ¬ë ²Ī
Ġë¶Ħëĵ¤ ìĿ´ìĹĲìļĶ
Ġë¶Ħëªħ íŀĪ
ĠíĻĶëĤ´ ì§Ģ
ĠíĻĶëĤ´ ê²Į
Ġë¶Īê³µíıī íķ´ìļĶ
ì¶ľíĩ´ê·¼ ìĿĦ
ì¶ľíĩ´ê·¼ íķĺê¸°
ëĪĪìį¹ ìĿ´
ĠìĹ¬íĸīê°Ģ ìŀ¬
Ġê¼¼ ê¼¼
ĠìĿ´ë»Ĳ ìļĶ
ĠìĿ´ë»Ĳ íķ´
ĠìĿ´ë»Ĳ ìĦľ
ëĶ´ ì§ĵ
Ġë§ĮëĤĺë³´ ëĬĶ
Ġë§ĮëĤĺë³´ ê³ł
Ġë§ĮëĤĺë³´ ìĭľë©´
ìķĮëľ° íķľ
ĠìĿ¼ìĸ´ëĤł ê¹Į
ì´Īë °ĺ
Ġíļ¨ ëıĦíķĺìĦ¸ìļĶ
Ġíļ¨ ê³¼ìłģìĿ¼ê¹Į
Ġì¹ĺìĹ´ íķĺì£ł
Ġì¹ĺìĹ´ íķ´ì§ĢëĬĶ
ĠíĹ¤ìĸ´ì§ĢìŀĲ ëĦ¤
ĠíĸīëıĻìĿ´ ëĥĲìĹĲ
ìłķìĭłì°¨ ë¦¬ìĦ¸ìļĶ
Ġê´´ë¡ľ ìļ´
ĠíĬ¸ ìĿ¸
ĠíĬ¸ ì§ĳìŀ¡
Ġë©Ģë¦¬ ìĦľ
ë°Ģëĭ¹ ìĿĦ
ë°Ģëĭ¹ ìĿ¼
Ġì²ŃìĨĮ íķ´ë³´ìĦ¸ìļĶ
Ġì²ŃìĨĮ íķĺìĦ¸ìļĶ
ë©Ķëª¨ ë¦¬ì¹´ëĵľ
ĠíĮĮíĺ¼ íĸĪìĸ´
ëħ¸íĬ¸ë¶ģ ìĿĢ
ìĿĺë¯¸ë¶Ģ ìĹ¬ëĬĶ
ìĬ¤íĥĢíĬ¸ìĹħ íķĺë©´
ĠìĨĮê°ľìĭľì¼ľ ì£¼ìĦ¸ìļĶ
ĠìĨĮê°ľìĭľì¼ľ ëĵľë¦´ê²ĮìļĶ
ìĺĪë»Ĳ ìļĶ
ìĺĪë»Ĳ íķ´
ìĺĪë»Ĳ ì§Ī
ĠìłĪìķ½ íķ´ë´ĲìļĶ
ëĵĿíħľ íĸĪê¸¸
ëĵĿíħľ íķ´ìĺ¤ìĦ¸ìļĶ
íĺĦê¸ĪìĺģìĪĺì¦Ŀ ìĿĢ
Ġìļ°ìĦłìĪľìľĦ ë¥¼
Ġìļ°ìĦłìĪľìľĦ ë©´
ĠìĿ´ë£¨ìĸ´ ì¡Įìľ¼ë©´
Ġìķħëª½ ìĿĦ
Ġìķħëª½ ê³¼
ĠìĹĲëĦĪ ì§Ģê°Ģ
ĠíĥĿìĭľ íĥĪê¹Į
ë³Ģëªħ ë³´ëĭ¤ëĬĶ
Ġìĭ¤ë¡Ģ ìĺĪìļĶ
Ġìĭ¤ë¡Ģ ìĹĲìļĶ
ĠëĬĻìĸ´ ê°Ģê³ł
ìħĢíĶĦìĽ¨ëĶ© ìĿ´
Ġíķĳê³Ħ ë¥¼
Ġíķĳê³Ħ ë¡ľ
Ġì§ĢëĥĪ ìľ¼ë©´
Ġì§ĢëĥĪ ëĤĺë´ĲìļĶ
ìĸ´ìł¯ë°¤ ìĹĲ
ê¸°íĶĦíĬ¸ì½ĺ ìľ¼ë¡ľ
ì°ľì§Īë°© ìĹĲìĦľ
Ġìŀłìŀ¬ëł¥ ìĿĢ
°° ìĭľêµ°ìļĶ
ë½ĳ ì§Ģë§Ĳê³ł
Ġì¥ ¬ìĬ¤ëĬĶ
Ġìº Ĳë³¼ê¹Į
ĠìħĢ ì¹´
ĠëĶĶ ìŀĲìĿ´ëĦĪ
Ġê¶Į ë¦¬ë¡ľ
Ġê¶Į ìľłíķĺê³ł
ìĿ´ê¸° ìłģìĿ¸
ê°Ŀ ê´Ģìłģìľ¼ë¡ľ
ìĸ´ëł¸ ìĿĦëķĮ
ìĸ´ëł¸ ìĿĦëķĮëĬĶ
ê²Ł ìĸ´
ê²Ł ì£ł
ì§Ģì§Ħ ëĤĺë©´
ê°ĢìĿĦ ìĿ´ëĦ¤ìļĶ
ê°ĢìĬ¤ë ¶Ī
Ġìķ¡ ìħĺìĿĢ
ìĭ¬ë ¶Ģë¦Ħ
íķĺìļ°ìĬ¤ ìĹĲìĦľ
íķĺìļ°ìĬ¤ ìĽ¨ëĶ©
ìĺ¬ë ¦´ê¹Į
ìĺ¬ë ŀĲëĭ¤ê°Ģ
íķľê°ķ ìĹĲìĦľ
ĠëĤ® ì¶°
ĠëĤĻ ìĿ´ì£ł
ĠëĤĻ ëĭ´íķĺì§Ģ
Ġìĭ±ìĪŃìĥĿìĪŃ íķ´ìĦľ
ê¸°íļĮ ê°Ģ
ê¸°íļĮ ë¥¼
Ġê²ģ ëĤĺ
Ġê²ģ ìĿ´ëĤĺ
Ġë°Ł íŀĲ
ê·¼ë ĳĲ
ê·¹ë³µ íķĺê±°ëĤĺ
ĠìĪĺë©´ ìĸĳë§ĲìĿ¸ê°Ģë´ĲìļĶ
ĠìĿ´ìĦ± ì¹ľêµ¬ê°Ģ
Ġìłĸ ìĹĪìĸ´
ìĿ¸ê³µ ëĪĪë¬¼ìĿĦ
ìĭľëıĦ íķ´ë´ĲëıĦ
ëĤ¨ìĤ¬ì¹ľ ìĿ´ëŀĳ
ì°¾ ìķĦ
ì£¼ìłĢë¦¬ ì£¼ìłĢë¦¬
Ġìĺ³ ìĿĢ
Ġìĺ³ ìĿĢê±¸ê¹Į
ĠìĪĺì¤Ģ ìĹĲìĦľ
Ġê±¸ëł ¸
Ġë§Ĳíķ´ì£¼ ì£ł
Ġëĭ¤ë¥ ¸ë°ĺ
Ġëĭ¤ì§Ĳ ìĿ´ìĹĲìļĶ
Ġê¸Ī ìĪĺìłĢë¡ľ
ë¡ľê·¸ ìĿ¸
Ġì°¬ ìĦ±ìĿ´ìĹĲìļĶ
Ġì°½ íĶ¼íķ´
Ġë°ĶëĶĶ ìĽĮìĭľ
ì§Ħìĭ¤ë Ĳĺê²Į
Ġê·¸ë¶Ħ ìĿĦ
Ġê·¸ëŁ¬ë ĵłì§Ģ
ê¸ĪìĹ° íķĺìĦ¸ìļĶ
ëħ¹ ì°¨
ëħ¹ ìĿĮìĿ´ëĤĺ
Ġìŀĺíķ´ì¤ ĺë³´ìĦ¸ìļĶ
Ġë¶ģ ë°Ľì³Ĳ
Ġë¶ģ ì¹ĺê¸°ë°ķì¹ĺê¸°
Ġì§Ģê¸ ĭì§Ģê¸ĭíķľ
Ġìĸ´ëĸ» íķ´
Ġëª¨ë¥¸ì²Ļ íķĺìĦ¸ìļĶ
Ġê±´ì¡° íķľ
ë¬´ë¦İ ìĹĲ
ë¶ĢìŀĲ ëĲĺìĭ¤
Ġíķľê³Ħ ìĹĲ
Ġíķľê³Ħ ìķ¼
ë³µìłĦ íķĺë©´
ì§ĪíĪ¬ íķĺì§Ģ
ì§ĪíĪ¬ ëĤľëĭ¤ê³ł
ĠìķĪë¶Ģ ë¥¼
ĠëĤĺëĤł ìĿĦ
Ġì¡°ê±´ ìĿ´
Ġìī¬ë ł¤ê³ł
ê²½ìłľ ëł¥
ê²½ìłľ ìłģìľ¼ë¡ľ
ĠìĿ¸ê°Ħ ìĿ´ëĿ¼ëĬĶ
Ġê°Ĳìĭ¸ ì£¼ìĦ¸ìļĶ
Ġìĺ¤ëł¤ ëĤĺë´ĲìļĶ
Ġìĺ¤ëł¤ ëĤĺìļĶ
Ġíĸīìļ´ ìĿ¼
Ġíĸīìļ´ ê¹Įì§Ģ
ëĵľëłĪ ìĬ¤ë£¸
ĠëıĦìĻ Ģëĵľë¦´ê²ĮìļĶ
ê·ĢìĹ¬ ìļ´
Ġë¶ĢìĹ¬ íķĺì§Ģ
ëĳĲëł¤ìĽĮ íķĺì§Ģ
Ġê¸°ëĭ¤ëł¸ ëĭ¤ê°Ģ
Ġì°¸ìĦĿ íķĺëĬĶ
Ġì°¸ìĦĿ íķĺëĬĶê²Į
Ġíĥĵ ìĿ¸ì§Ģ
Ġê³µê°Ĳ íķł
Ġê³µê°Ĳ íķ´ì£¼ëĬĶê²Į
Ġëĵ¤ìĸ´ì¤Ħ ê±°ìĺĪìļĶ
Ġëĵ¤ìĸ´ìĺ¬ ê±°ìĺĪìļĶ
ê°ķëł¬ íķĺê³ł
Ġëĸ¨ì³Ĳ ëĤ¼
Ġíŀĺëĵłê±° ëĦ¤
Ġë³Ģíķľ ê²ĥ
Ġìłģê·¹ ìłģìĿ¸
ĠìŀĺëĿ¼ ìļĶ
Ġë¯¸ì¹ľ ëĵ¯ìĿ´
ìķ½ìĨį ìĿĦ
Ġë¶ĪìķĪíķ´ íķĺì§Ģ
Ġê¼¬ ìĺĢëĬĶì§Ģ
Ġìľłíĸī ìĿ´ëŀĺ
Ġìľłíĸī íķĺê³łìŀĪìĸ´ìļĶ
Ġìĭ¸ìļ° ê¸°ë§Į
ê¼¬ ê¹Įìĺ·
ìķĮìķĦ ë´Ĳì£¼ëĬĶ
Ġë§Ľì§ĳ ìĿĦ
Ġë¹łì¡Į ëĤĺë´ĲìļĶ
Ġë¹łì¡Į êµ°ìļĶ
ëĳ¥ íķ´
Ġê²½ìŁģ íķĺê²łì£ł
Ġê²½ìŁģ íķ´ìķ¼íķĺê³ł
Ġì£½ê³ł ìĭ¶ìĸ´
ĠìŀĶìĿ¸ íķĺëĦ¤
ë¬¼ë ¡ł
ëª©íĳľ ê°Ģ
ëª©íĳľ ëĬĶ
Ġë§¤ëł¥ìĿ´ ê²łì£ł
ĠíĨµíĻĶ íķĺë©´
ìĨĲíĨ± ìĿ´
ìĨĲíĨ± ìĿ´ëĤĺ
Ġì§ģìŀ¥ ìĿ¸
ĠíĥĪì¶ľ íķĺê³ł
ĠíĥĪì¶ľ êµ¬ë¥¼
ĠìĿ´ìĸ´ëĤĺê°Ģ ëĭĪê¹ĮìļĶ
Ġìĵ¸ëį° ìĹĨìĸ´ìļĶ
Ġëķħ ìĿĦ
Ġëķħ ë§Įíģ¼
Ġê°ľê°ķ ìĿ´ëĿ¼ëĭĪ
Ġë¬´ìĦľìļ´ ê±´
ĠëıĦìĻĢì£¼ ìĦ¸
ĠëıĦìĻĢì£¼ ìĹĪëĭ¤ê³ł
Ġì§Īë¬¸ ìĿ´ëĦ¤ìļĶ
Ġì§Īë¦° ëĮĢ
ë¶Ģëĭ´ìĬ¤ëŁ¬ìļ´ ì§Ģ
ĠìļĶêµ¬ ê°Ģ
ĠìļĶêµ¬ íķĺìĦ¸ìļĶ
ĠìĶ» ê³ł
ĠìĶ» ìĸ´ë³´ê³ł
ĠìĶĮ ìĺĢëĤĺë´ĲìļĶ
ĠìĨĲíķ´ ìĺĪìļĶ
ĠìĨĲíķ´ ë°°ìĥģìĿĦ
ĠëĨĴìķĦ ì§ĳëĭĪëĭ¤
ìĬ¤íĥĢìĿ¼ ìĿĺ
ìĹ¼ìĥī ìĿĦ
ìª¼ ê·¸ë§Į
ìª¼ ìŀĶíķĺëĦ¤ìļĶ
íķ©ê²© íķĺëĬĶ
ìĦłìĥĿëĭĺ íķľíħĮ
ìĦłìĥĿëĭĺ ê»ĺ
Ġì¼ľ ìĦ¸ìļĶ
ĠëĴ¤ë ıĮìķĦ
ĠëĴ¤ë Ķ°ë¥´ëĭĪê¹ĮìļĶ
Ġìĸ´ìĥīíķ´ ì¡Įìĸ´
ìĻ¸ë¡Ń ëĭ¤ê³ł
Ġìłķë¦¬ëĲĺ ê¸¸
ĠìĬ¬íĶĦê²Į ëıĦ
Ġìķ¼ê²½ ìĿ´ì£ł
Ġìķ¼ê²½ êµ¬ê²½
ĠíĬ¹ì§ķ ìĿĢ
ìĮį ì»¤íĴĢ
ê³łë§Īìļ´ ë§Įíģ¼
ë°ĺë³µ ëĲĺëĬĶ
ë°°ê³łíĶĦ ì§Ģ
ë°ĽìķĦëĵ¤ ìĿ¼
ĠëĿĦ ê¸¸
ĠëĿĦ ìĸ´ë³´ìĦ¸ìļĶ
Ġê°ļìķĦ ëĤĺê°ĢìĦ¸ìļĶ
ìĤ¬íļĮìĥĿíĻľ ìĿĦ
ìĤ¬íļĮìĥĿíĻľ ë¡ľ
ëĨĢìķĦ ì¤ĺ
ĠìĽ¬ìĪĺ ì£ł
Ġê³łë§ĪìĽĮ íķł
ë°ĶëĬĺ ê³¼
ì±Ļê²¨ ì£¼ê³ł
ĠìŁģì·¨ íķĺìĦ¸ìļĶ
ëį°ëł¤ëĭ¤ ì£¼ëł¤ëĤĺë´ĲìļĶ
ë»Ĳ ê·¼íķľê°Ģë´ĲìļĶ
ìº ¬ìķĦ
Ġëº ı
ĠëĤ¬ë Ħ¤
ĠëĤ¬ë ĬĶì§Ģ
ìĿ´ë¶Ī íĤ¥
Ġìŀ¤ ëĦ¤
ê°Ģê²Į ë¶Ģë¥¼
ê³łìĭľìĽĲ ìĹĲìĦľ
Ġë§´ ì°¢
Ġë§º ëĬĶ
ìŀĲëŀĳ íķĺëĬĶ
ìŀĲê´´ê°Ĳ ìĹĲìĦľ
Ġê±°ìļ¸ ìĿĦ
Ġê²ª ìĿĢ
ìľ¨ ìłģìľ¼ë¡ľ
ìľĹ ëª¸ìĿ¼ìľ¼
ì¹ĺëıĦ ë¡Ŀ
Ġë°ĳ ë°Ķëĭ¥
Ġë°ĳ ê±°ë¦ĦìĿ´
ĠìĿ´ë²¤ íĬ¸ë¥¼
ĠìĿ´ëģĮ ìĸ´ì£¼ëĬĶ
Ġë³¸ë°Ľ ìĿĦ
Ġë³¸ë°Ľ ìľ¼ë©´ìĦľ
ĠìłĢë ŀ¬ëĭ¤
Ġíķ´ë¡ľ ìĽĮìļĶ
Ġíķ´ë¡ľ ìļ°ëĭĪ
Ġëª« ìĿ´ìĹĲìļĶ
Ġëª« ìŀħëĭĪëĭ¤
ìĿĺì§Ģ íķł
ĠìķĦë¬¼ ê¸¸
ĠìķĦëł¨ íķľ
ĠìķĦìī½ ê²łìĸ´ìļĶ
ìĿ¼ê¸° ìĺĪë³´
ĠìĺĢ ëĤĺë´ĲìļĶ
ĠìĪĺìĥģ íķ´
ĠìĪĺìĥģ íķľëį°
Ġê±Ķ ëĬĶ
ëĤ´ë©´ ìĿĦ
ĠìķĪê²½ íħĮê°Ģ
Ġë§İìľ¼ìĭľ ëĦ¤ìļĶ
Ġë§İìľ¼ìĭľ êµ°ìļĶ
Ġê¸ī íķ´
ìĥģìĤ¬ íķľíħĮ
ì¡¸ë¦° ëį°
ì¡¸ë¦° ê°Ģë´ĲìļĶ
ëĵ¤ìĸ´ ê°ĢìĦľ
ĠìŀĲê²© ìĿĢ
ĠìŀĲê²©ì¦Ŀ ìĿ¼
íĶ¼ë¡ľ ë¥¼
ìķłìĦĿ íķĺëĦ¤ìļĶ
ìĹ°ìĬµ ìĿ´
ìĹ°ìĬµ íķ´ë³´ìĦ¸ìļĶ
Ġìŀĺíķ´ìķ¼ íķĺëĤĺë´Ĳ
Ġíķ© ë¦¬ìłģìĿ¸
ĠìĹ¬ê¸° ìĦľ
ë§Ĳë¡ľ ë§Į
Ġì§Ģê°ģ íķĺëĦ¤
Ġì§ĢìĨį íķ´ëıĦ
ìŀ¥ê°ĳ ìĿĦ
ìłĦìĦ¸ ë¹Ħ
ìłĦê¸° ìŀ¥íĮĲ
ìłĦìĹŃ íķ´ìĦľ
ĠëĤ¨ìķĺ ê¸¸
ìĤ¬ì¶ĺ ê¸°ìĿ¸ê°Ģë´ħëĭĪëĭ¤
ìĤ¬ì¶ĺ ê¸°ë¡ľë¶ĢíĦ°ìĿĺ
ĠìĿ¼ìĭľ ìłģ
ĠìĿ¼ìĭľ ìłģìĿ¸
ìĬ¤ë¦´ ìŀĪê²łëĦ¤ìļĶ
ìĺ¤ë¡ľ ëĿ¼
Ġëª¨ìŀĲ ëĿ¼ìļĶ
Ġê³łê¸° ìĸ´ëıĦ
Ġê³łê¸° ìķŀìĿ´ì£ł
ìļ°ìłķìĿ´ ëŀĢê²Į
Ġëģ¼ ìĦ¸ìļĶ
Ġë°Ľìľ¼ìĭľ ëĬĶ
Ġë°Ľìľ¼ìĭľ ëĤĺë´ĲìļĶ
ë¬´ê¸°ëł¥ ì¦Ŀ
ë¶Ģì¡± íķľ
ë¶Ģì¡± íķĺì§Ģë§Į
íĸīëıĻ íķł
ìĽĲë§Ŀ ê³¼
Ġë¯¸ëŀĺ ìĹĲ
Ġëĵľë¦´ ê¹ĮìļĶ
ĠíĻľ ìļ©ìĹĲ
ĠíĻľ ëł¥ìĨĮê°Ģ
ĠíķĦìļĶíķĺì§Ģ ìļĶ
ĠíķĦìļĶíĸĪ ìĿĦíħĲëį°
Ġì¹ľìłĪ íķľëį°
Ġíĺķ íİ¸ìĹĲ
ìĭĿë¬¼ ìĿĦ
ê°ľëħĲ ë§Į
Ġê°Ģë´ ¤ìĸ´
Ġê°Ģë´ ħìĭľëĭ¤
ê¾¸ì¤Ģ íķľ
ê¾¸ì¤Ģ íķľê²Į
ì¡°ê¸ī íķĺê²Į
ĠìĿ¸ìĤ¬ë ¶ĢíĦ°
ĠìĿ¸ì§Ģìĭľì¼ľ ë³´ìĦ¸ìļĶ
ëĵłëĵł íķĺê²Į
Ġê°ĲìĪĺ íķ´ë³´ìĦ¸ìļĶ
Ġê°ĲìĪĺ ìĦ±
Ġê°Ĳì¶ľ ê¸¸ìĿ´
ĠìĨĮìĽĲ ìĿ´
Ġìĺ¤íķ´ íķĺê²Į
Ġìĺ¤ìħ¨ ê¸¸
Ġìĺ¤ëĿ½ê°ĢëĿ½ íķ´ìļĶ
ìĦ±ëįķ ìĿ´ëĦ¤ìļĶ
Ġì§Ħì§Ģ íķĺê²Į
Ġì§Ħìĭ¬ ìĿ¸ì§Ģ
Ġê¹ľë¹¡ ê±°ëł¤
Ġìĭľê°ĦìĿ´ìĹĪ ìĿĦê±°ëĿ¼
ë¹Ħì°¸ íķľ
ë¹Ħìĭ¸ ìļĶ
ë¹Ħìĭ¸ ì§Ģë§Į
ë¹Ħíĸīê¸° íĳľê°Ģ
ĠëıĦë§Ŀ ê°Ģê³ł
ëĭ¨ìĪľ íķľ
ê·Ģì°® ìľ¼ë©´
Ġìĺ¤ëŀĺë ĲĲëĬĶëį°
ìĦłíĴį ê¸°
ë¬¸ìłľ ëĬĶ
Ġëħ¹ ìĹ¬ë³´ìĦ¸ìļĶ
Ġëħ¹ ìĹ¬ìĦľ
Ġëª°ëł¤ ê°ĢëĬĶ
ëª¨ë¥´ ê²łìĸ´
ĠíĹĮ ìĭł
ĠíĹĮ íĮħ
Ġì°¸ê²¬ íķ´
ë¹Ļ ìĪĺ
ìłĪìķ½ íķĺë©´
ĠìĺĪìķ½ íķĺìĦ¸ìļĶ
ì¦Ŀëªħ íķĺëĬĶ
ì¦Ŀëªħ ìŀĲë£Į
Ġê³µê°Ħ ìľ¼ë¡ľ
ì§¸ê¹į ì§¸ê¹į
Ġêµ´ ë©´
ë°°ìļ° ìŀĲìĻĢ
ë§ĽìŀĪìĿĦ ê±°
Ġë¶Ģë¶Ģ ê°Ģ
ë§¤ëł¥ ìŀĪëĬĶ
ĠìĤ¬ë¨¹ ìľ¼ìĦ¸ìļĶ
ë¯¸ìķĪíķ´ íķĺì§Ģ
ĠëĸłëĤł ê¹Įë´Ĳ
ĠëĸłëĤ¬ ìĬµëĭĪëĭ¤
ìĿ´ë£¨ ìĸ´
ì¹¨ëĮĢ ìĻĢ
ìŀĬê³ł ìĭ¶
ìŀĬê³ł ìĭ¶ëĭ¤
ìŀĬê¸° ìĭ«
ĠìĤĲ ìł¸
ĠëĶ°ëĿ¼ê°Ģ ê²łì§Ģ
ĠëĶ°ëĿ¼ê°Ģ ëł¤ë©´
ĠìĿ´íķ´ëª» íķĺê²łìĸ´
ìĺģìĸ´ íķĻìĽĲ
ĠëĪĦêµ´ ê¹Į
Ġíķĺë£¨íķĺë£¨ ë¥¼
Ġìĥ¤ìĽĮ ë¥¼
Ġê¼°ëĮĢ ê°Ģ
ĠìĿ´ëŁ¬ëĬĶ ê±¸ê¹Į
Ġíĺ¼ìŀĲìĿ¸ ê²Į
ĠìĦ¤ëªħ ìĿ´
ĠìĦ¤ëªħ íķ´ë³´ìĦ¸ìļĶ
ĠìĽĲëıĻëł¥ìĿ´ ìĺĪìļĶ
ĠìĪľìĪĺ íĸĪëįĺ
ĠìĪľìĪĺ íķĺëĭ¤ëĬĶ
ë¨¸ë¦¬ì¹´ëĿ½ ìĿ´
ìķĮê³ł ë³´ëĭĪ
Ġê·¸ë§Įëĳ¬ ìĦľ
Ġìķ½ìĿ´ ê¸´
ĠìĻĢëĭ¿ ì§Ģ
Ġì¶Ķì²ľíķ´ ëĵ¤ìļĶ
Ġì¦Ĳê²¨ ìķ¼ì§Ģ
Ġì¦Ĳê²¨ ë³´ëĬĶ
ĠìĿ¼ìĸ´ëĤ¬ ëĤĺë´ĲìļĶ
ìķĪëĲĲ ëĦ¤
ìķĪëĲĲ ëĦ¤ìļĶ
ì£¼ë¬¼ ì£¼ë¬¼
ì£¼ë¦Ħ ëıĦ
ì£¼ëŁī ìĿĢ
íıīê°Ģ ìĽĲ
íĬ¸ë¡¤ ìĿĦ
ë¶Īíĸī ìĿĦ
ĠìĽĥìĿĮ ëĤĺëĬĶ
ĠëĶ¸ ê¹Į
ĠëĶ¸ê¸° ìŀ¼ìĹĲê²Į
ì´ĪëĮĢ íķĺê³ł
ĠìĿ¼ë°ĺ ìĿ¸ë³´ëĭ¤
Ġì¹ĺìĽĮ ì£¼ìĦ¸ìļĶ
ìĹĦë§ĪìķĦë¹ł ëŀĳ
ìķŀë¨¸ë¦¬ë ¡ľ
ìķŀë¨¸ë¦¬ë §ĮìĿ´ëĿ¼ëıĦ
ĠëĤľë°© ìľ¼ë¡ľ
ĠëĤľë°© ë¹Ħê°Ģ
ĠíĶĦëĿ¼ìĿ´ë²Ħìĭľ ë¥¼
ĠíĶĦëĿ¼ìĿ´ë²Ħìĭľ ëĭĪê¹Į
ĠíļĮë³µ íķł
ìļķìĭ¬ ìĹĲ
ìļķìĭ¬ ìĿĺ
Ġê°ľìĿ¸ ìłģìľ¼ë¡ľ
ĠìŀĳìķĦ ìł¸
ĠìŀĳëıĻ ìĿ´
ĠìŀĳëıĻ íķĺëĬĶì§Ģ
ì¹ĺë§¤ ê°Ģ
ê¶ģê¸Īíķ´ íķĺì§Ģë§ĪìĦ¸ìļĶ
ê¶ģê¸Īíķł ë§Į
ĠìĿµìĪĻíķ´ì§Ī ê±°ìĺĪìļĶ
ë²łíĬ¸ëĤ¨ ìĸ´
Ġìļ¸ìłģ íķ´
ĠìĹ´ìĸ´ ì£¼ì§Ģ
Ġêµ¬ë³Ħ íķ´ë³´ìĦ¸ìļĶ
ĠíĦ°ì§Ī ê±°
ê¹¨ëĭ¬ ìĿĮìĿ´
Ġì¹ĺë§¥ ìĿ´ì£ł
Ġë³ĢíĻĶìĭľì¼ľ ë´ĲìļĶ
ĠëĴ¹êµ´ ê±°ë¦¬ê³ł
ĠëĴ¹êµ´ ëĴ¹ê¸Ģ
ĠìĦ¤ëłĪë ©´
ĠìĦ¤ëłĪë °ľ
ĠìĻ¸ì¶ľ íķĺìĦ¸ìļĶ
Ġëħ¸íĽĦ ê°Ģ
ìķĦìĿ´ëıĮ ìĿ´
íĶ¼ë¶Ģê´Ģë¦¬ ê¹Įì§Ģ
Ġì²ĺë¦¬ íķł
Ġì²ĺë¦¬ íķĺìĦ¸ìļĶ
Ġìĺ¬ëł¤ë ´ħëĭĪëĭ¤
Ġìĺ¬ëł¤ë ´Ĳë³´ìĦ¸ìļĶ
ĠëĤĺìĿ´íħĮ ìĺĪìļĶ
ĠëĤĺìĿ´íħĮ ì£ł
ĠëĽ°ìĸ´ëĦ ĺëĬĶ
ĠëĽ°ìĸ´ëĦ ĺìĿĦ
ĠìŀĺìĥĿê²¼ ì§Ģ
ĠìŀĺìĥĿê²¼ ìĸ´ìļĶ
Ġì»¨ ìĦ¤íĮħìĿĦ
ëĨĢìĿ´ëıĻìĤ° ìĿĢ
ë¡±ëĶĶ ìĿ¸ëį°
ì·¨ë¯¸ìĥĿíĻľ ìĿĢ
Ġë¦¬íı¼ íķłê±°ìķ¼
Ġë°±ìĹħ íķ´ëĨĵ
ëĨįêµ¬ íķĺëĭ¤
ëĴ·ê°Ĳëĭ¹ ìĿĢ
ĠëĴ·ëĭ´íĻĶ íķĺëĬĶ
Ġëļ« ìĸ´ë³´ìķĦìļĶ
ĠìĹ¼ìĥī ìĿĦ
ìĬĪíį¼ ëĿ¼ëıĦ
ìĬĪíį¼ ìļ°ë¨¼
ì´Īë¡Ŀ íķĺëĦ¤ìļĶ
ì´Īë¡Ŀ ì´Īë¡ĿíķĺëĦ¤ìļĶ
Ġì´Īê¸°íĻĶ íķĺëĬĶê²Į
Ġëĵ¤ìĿ´ëĮĢ ë³´ìĦ¸ìļĶ
Ġë¦¬ëĵľ ë¥¼
Ġë¦¬ëĵľ íķ´ë³´ìĦ¸ìļĶ
ê°ģì§Īìłľ ê±°
ê°ģì§Īìłľ ê±°ë¥¼
ëĤ´ëł¤ëĨĵ ëĬĶ
Ġë§ĿìĦ¤ìĹ¬ ì§Ģ
ë©Ķëī´ìĸ¼ ìĿ´
°± ë²Ī
ì¢ĮìłĪ íķĺì§Ģë§ĪìĦ¸ìļĶ
íĮĢ íĶĮ
ĠSNS ìĹĲ
Ġëĸ´ ìĸ´
ĠëĴĢ ëĦ¤ìļĶ
Ġë¸Ķ ë¡Ŀëĵ¤ìĿ´
ìĿ´ìĤ¬ëŀĮ ìĿ´ëĭ¤
ìķĺëĬĶ ì§Ģ
ìĸ´ì§¸ ìĦľ
ìĸ´ìĥī íķľ
ê³± ì°½
ì§Ģìĺ¥ ê°ĻìĿĢ
íķ´ê²° ëĲł
ìĦ¸íĥģ ìĨĮ
ê³łë§Ļ ëĭ¤ê³ł
Ġíį ¼
ĠìĹĬ ê·¸
ìŀĲìŀ¥ ê°Ģë¥¼
Ġê±°ë¶Ģ ìĿĺ
Ġê±°ìĺĢ êµ¬ëĤĺ
Ġê²¬ ê³¼ë¥
ìĦľíķĳ íķĺëŁ¬
ìĺĪìģĺë ĭĪê¹Į
ìķ¼êµ¬ ìŀ¥
íķłìĿ¸ ìłĲìĹĲìĦľ
ĠìĪ«ìŀĲ ìĿ¼
ĠìĿ´ë¶Ī ìĹĲìĦľ
Ġë³¶ ëĬĶ
ìĿĮìķħ ìĿ´
ĠìķĦë¹ł ê°Ģ
Ġê·¹ íĺĲ
ìłķìĹ´ ìłģìĿ¸
ìĭłê¸° íķĺëĦ¤ìļĶ
Ġê³± ëĭ¤ê³ł
Ġê³¤ëĳĲ ìĦ¸ìļ°ì§Ģ
ìłľìĬµ ê¸°ë¥¼
Ġìĺ¥ ì£Ħì§Ģ
ĠìĥĿê°ģíķĺ ìħĶìķ¼ì£ł
ĠìķĬìľ¼ìħ¨ ëĤĺ
ê°ĦìłĪ íŀĪ
Ġë³´ìĿ´ ëĬĶëį°
Ġë³´ìķ½ ìĿ´ìĹĲìļĶ
Ġë³´ìĹ¬ëĵľ ë¦¬ìĦ¸ìļĶ
Ġê°Ģìĭľ ë°Ńê¸¸
ëĤ´ëħĦ ìĿ´ëĿ¼ê³ł
ĠìķĪíĴĢ ë¦¬ëĬĶ
ì¢ĭìķĺ ê²łìĸ´ìļĶ
ìĥģì¢ħ íķĺì§Ģë§ĪìĦ¸ìļĶ
ìĹ¬ìľł ëĬĶ
Ġë°Ķê¾ ¸ë©´
Ġë°ĶëĿ¼ë ´¤ìĿĦëķĮ
Ġë°Ķëĭ¥ ìĿĦ
Ġìĭľìĸ´ë¨¸ ëĭĪëıĦ
Ġìĭľê³¨ ìĹĲìĦľ
ĠìŀĲìĦ¸ ìĺĪìļĶ
ĠìĦ¬ìľłìľłìĹ°ìłľ ëĤĺ
Ġê¸°ìĪł ìĿ´ì£ł
Ġê¸°ìģ¨ ìĿ´ì£ł
ê±· ëĭ¤ë³´ë©´
Ġëıĭ ìĿĦ
ĠìĹ¬ìľł ë¡Ńê²Į
ìłĢê¸° ìķķìĹĲëĬĶ
Ġê´ĳ íĥĪ
ĠìĻĦ ë²½íķł
ìĤ¬ìłĦ ëıĦ
ĠìĤ¬íļĮ ìĥĿíĻľìĿĺ
ìĬ¤íĥĢë ²ħ
ë¯¸ë¡ľ ìļ´
ìłģëĭ¹ íķ´ìļĶ
Ġëª¨ìĹ¬ ìļĶ
Ġê³łë¯¼ë ı¼
ìļ°ìĹ° ìĿĦ
ìļ°ë¦¬ë °ĺ
Ġë°Ľìľ¼ìħ¨ ê²łìĸ´ìļĶ
ĠìĨĶ ìĨĶìĻĢìĦľ
ë¬´ìĦľ ìĽĮìĦľ
ë¬´ëİĮ ì§Ħ
ê´ĳ íķ©ìĦ±
ìŀĺì§ĢëĤ´ ëĬĶì§Ģ
ĠíķľìĪ¨ ë§Į
ĠíķľìĪľê°Ħ ìĿ´ìĺĪìļĶ
Ġíķľì¼ł ìĹĲ
Ġì¡¸ ê²Į
Ġë°ĶëŀĦ ìĦ¸ìļĶ
êµ¬ë¶Ħ ì§ĵ
ê±´ëĵ¤ìĿ´ ì§Ģë§ĪìĦ¸ìļĶ
Ġëĵ¤íħĲëį° ìļĶ
ê·¸ìĤ¬ëŀĮ ëıĦ
ĠìĦłìĥĿëĭ ĺê»ĺ
ĠìĥģìĤ¬ ìĺĪìļĶ
ìĨĮìķ¡ê²° ìłľë¥¼
ìĪĺíķĻìĹ¬íĸī ê°ĢëĬĶëį°
Ġë¯¼ ë§Ŀíķľ
Ġìĸ½ íŀĮ
ìĥĪë ģ¼
Ġì£¼ìĽĮ ëĭ´ìĿĦ
Ġì£¼ìĿ¸ê³µ ìĿĢ
ĠëĤĺë¹´ ëĦ¤ìļĶ
ìĬ¤ëħ¸ íģ´ë§ģ
ê³µë³µ ìĿ´ëĿ¼
ê³µíĻ© ìŀ¥ìķł
ê³µíľ´ ìĿ¼ìĹĲëĬĶ
ĠëĮĢìļ° íķĺëĬĶ
ĠëĮĢëĭµ íķłì§Ģ
ê²½íĹĺ ìĿĢ
ìĭĿìļķ íıŃë°ľ
ë°Ķìģĺë Ħ¤ìļĶ
ë°Ķìģł ëķĮ
Ġë§ŀìĿ´ íķł
Ġë§ŀì¶ľ ê¹Į
ì§ľìŀ¥ë©´ ìĿĢ
Ġê´Ģì°° íķĺê³ł
Ġë°©ë¬¸ íķ´ë³´ìĦ¸ìļĶ
ìĦ±ìĪĻ íķľ
íķĻë²Į ìĿ´
Ġì§Ħìĭ¤ë ¡ľ
Ġê¹į ê³ł
Ġëĭ¹ëĭ¹ íķ´ì§ĢìĦ¸ìļĶ
Ġë¹Ħìłķìĥģ ìĿ´ìķ¼
ëĭ¨ëĳĺìĿ´ ëĬĶ
Ġì°¾ìķĦê°Ķ ìĬµëĭĪëĭ¤
Ġìķłìłķ íĳľíĺĦìĿ¼
ĠìķłíĶĦíĦ° ê¹Įì§Ģ
Ġë¶ĢìŀĲ ëĭĺ
ì§ĳìķŀ ìĹĲìĦľ
Ġëħ¸ë ıĻìĿĦ
ĠíĿ¥ ë¯¸ë¥¼
Ġíİ¸íķĺëĮĢ ìļĶ
Ġê¸°ëĭ¤ë¦¬ê²Į íĸĪìĸ´
ëª¨ìŀĦ ìĹĲìĦľ
ëª¨ì²ĺëŁ¼ ë§ĮìĹĲ
ëª¨ìŀĲëĿ¼ ì§Ģ
ĠìľĦì¶ķ ëĲľ
ĠíĹ¹ ê¶Īë³´ìĦ¸ìļĶ
ĠíĹĲ ìĹĪìĸ´
Ġê³Ħìĭł ê°Ģ
Ġê³Ħìķ½ íĸĪìĸ´
Ġì¶Ķê°Ģ íķ´ë³´ìĦ¸ìļĶ
Ġíĸīë³µíķ´ì§Ģ ìĭľê¸¸
ë¹¼ ëıĦ
ìĽĶìļĶìĿ¼ ëıĦ
ĠìĬ¤ì³Ĳ ëıĦ
ĠìĬ¤íĤ¤ íĥĪ
ĠìĺĪìłĦ ì²ĺëŁ¼
Ġê³µìľł íķ´ë³´ìĦ¸ìļĶ
Ġê³µíĨµ ìĿ´ìĹĲìļĶ
íİ¸ìķĪ íķĺê²Į
Ġê³łë°±íķł ê±¸
ê°ķìłľ ì¢ħë£Į
ìĸ´ëĸ¨ ëķĮ
Ġëĸ¨ìĸ´ëľ¨ ëł¤ìĦľ
ĠìķĮìķĦê°Ģ ìķ¼ì£ł
ë©Ģ ë¦¬
íĴĭ ìĿ´
ìī¬ìĸ´ ìķ¼
ĠìĤ¬ë¡ľìŀ¡ íŀĪì§Ģ
ë¯¸ì¹ł êº¼
Ġë²Ħëł¸ ëĭ¤
íİĺë¶ģ ìĿĦ
ìĪĺë©´ ìĸĳë§Ĳ
ìĿ´ë¤Ħ ì§Ī
Ġìļ°ë¦¬ë ģ¼ë¦¬
ĠìŀĺëĲĲ ìľ¼ë©´
Ġê²°íĺ¼íķĺ ê²łëĮĢ
Ġê°Ĳìłķê¸° ë³µìĿ´
Ġë¯¸ìĦ¸ë¨¼ ì§Ģê°Ģ
Ġê°Ħì§Īê°Ħì§Ī íķľê°Ģë´ĲìļĶ
Ġíĺ¼ëĤ´ ì¤Ħê²ĮìļĶ
Ġë¶Ħìĸĳ ë°Ľìľ¼ìĦ¸ìļĶ
ĠëĬĲëĤĢëĭ¤ë©´ ìļĶ
ëĪĪêº¼ íĴĢìĿĺ
íĭĪ ìĿ´
ĠëĪĦëĿ½ ëĲĲìĸ´
Ġìĭ¬ê²½ ìĿ¸ê°Ģë´ĲìļĶ
ì²´ëł¥ ìĹĲ
Ġê²°ìłķìĿ´ìĹĪ ê²łìĸ´ìļĶ
Ġë´Ĳì£¼ ëĭĪê¹Į
ì¹´íİĺë Ŀ¼ëıĦ
ĠìĿĺì¡´ íķĺëĬĶ
íĻľìļ© ëıĦ
Ġìľłë£Į ë¡ľ
ê¸°ëĭ¤ë¦¬ë©´ ìĦľ
ìĹ¬íĸīì§Ģ ìĹĲìĦľ
ĠíĿĺëł ¸ìĸ´
Ġì¦Ĳê²ģ ì£ł
ĠìŀĶìĨĮë¦¬ íķ´ë³´ìĦ¸ìļĶ
Ġìŀ¬ë¯¸ìĹĨ ì§Ģ
ìķĪëĲľ ëĭ¤ê³ł
ëĭ¬ëł¥ ìĹĲ
ĠìĬ¬íĶĶ ìĹĲ
ë¶ĪíĥĢ ìĺ¬ëŀĲëĭ¤ê°Ģ
ĠìĹ°ìĬµíķ´ ë´ħìĭľëĭ¤
Ġì´ĿíļĮ ìĹĲ
Ġíŀĺê²¨ ìļ¸ëķĮ
ĠëģĬìĸ´ ë²Ħë¦¬ìĦ¸ìļĶ
Ġê¿° ë©Ķë³´ìĦ¸ìļĶ
ĠìĭĿìĤ¬ ìĭľê°Ħ
ĠìĭĿíĺĢ ì£¼ìĦ¸ìļĶ
ĠíķĻê¸° ìĹĲëĬĶ
íķĳê³Ħ ë³´ëĭ¤
ìµľìķħ ìĿĺ
Ġëª©ìłģ ìĿĢ
ĠìķĮê²ĮëĲĺë©´ ìĦľ
ĠíĹ·ê°Īë¦¬ ëĤĺìļĶ
ìĿ¼ë°© ìłģ
ĠìļĶë¦¬ íķ´ëĵľìĦ¸ìļĶ
ĠìļĶì²Ń íķ´ë³´ìĦ¸ìļĶ
ĠìĶ¨ ìķĹ
ìĽĥê²¨ ë´Ĳ
ĠìĿµìĪĻíķ´ìł¸ ìĦľ
ë²łë¦¬ ìķĦ
Ġíİ¸ë¦° ìĿ¼
Ġìłķìĭłì°¨ ë¦¬ìĦ¸ìļĶ
Ġì¦Ŀê±° ìĿ¼
Ġíıīìĺ¨ íķĺê¸¸
ìĺĪëŀĳ ìĿ´ê°Ģ
ĠìĦ¤ëłľ ëĤĺë´ĲìļĶ
Ġíĳľì¶ľ íķĺëĬĶ
ĠíĹĪëĿ½ íķĺëĬĶ
Ġë²Ħëł¤ìķ¼ì§Ģ ìļĶ
Ġìĩ¼íķĳëª° ìĿ´
ìķĦëĭĲ ê±°ìĺĪìļĶ
Ġë¹¼ìķĹ ê²¼ëĭ¤ê³ł
ëĮĦ ëĶĶ
Ġìª½ íĮĶ
ĠìªĦ ìĦľ
Ġëĵłëĵł íķł
Ġì¶©ìĭ¤ íķĺìĦ¸ìļĶ
ì¿ł íı°
Ġë§¤ëª° ì°¬
ë¯¸ëģĦëŁ¬ ìļ°ëĭĪ
Ġíĺ¸ë¥´ëª¬ ìĿ´
ìĸ´ì©ĶìĪĺ ìĹĨì£ł
ë¸Ķë£¨ íĪ¬ìĬ¤
ë¸ĶëŀĻ ë°ķ
ê¼¼ê¼¼ íķľ
ëĬĲëĤĮ ìĿ´
ĠëłĪ ìĭľíĶ¼
Ġê²©ëł¤ íķĺê³ł
Ġë¯¸ëģĦëŁ¬ ì§Īë»ĶíĸĪìĸ´
ĠìħĢíĶĦ ìĺĢìľ¼ë©´
ĠìĹ®ìĹ¬ ìŀĪëĬĶê±°ìĺĪìļĶ
ê°ĲìĦ±ìłģìĿ´ ê¸°
ĠëıĦìĻĢëĵľ ë¦¬ë©´
Ġë³Ģíķ´ê°ĢëĬĶ ê±°
ì«Ħ ë©´
Ġíĩ´ê·¼ íķĺê³ł
ĠìķĪíĥĢê¹Į ìĽĮìļĶ
ĠìĨĮë¦Ħëıĭ ëĦ¤ìļĶ
Ġìĺ¤ëĬĺë ³´ëĭ¤
ëľ¨ëģĪ íķĺê²Į
Ġìĺ¤ì§Ģëŀĸ ìĿ´ìĹĪìľ¼ë©´
ëĩĮ ìĦ¸íı¬ìĹĲ
ĠëĤ´ëĶĽ ìľ¼ìħ¨ëĦ¤ìļĶ
ĠìĺĪì¸¡ íķł
Ġêµ¬ë§¤ íķĺë©´
·Ķ íİĺ
ê¶Į ìĿ´
ĠâĢ¦ .
Īìķ¡ íĺķìĿ´
ĲëŁ¬ë ĵľ
ľëĶĶ ìĺ¤
Ġì©Į ëĬĶ
ĠëĿ¼ ìĿ¸
ĠëĥĲ ìĹĲ
Ġë½Ģë ½Ģ
ĠëĮĵ ê¸Ģ
íķ¸ëĵľ ë°±
ìĿ´ëł īíĬ¸ë¡ľ
ìĿ´ìĽĥ ìľ¼ë¡ľë¶ĢíĦ°
ìĿ´ìĦ±ìĿ´ ëĭĪê¹Į
ìĿ´ë²¤ íĬ¸
ìĿ´ëª¨íĭ° ì½ĺ
ìĦ¤ë ªħ
ìĦ¬ìľł íĥĪì·¨ìłľ
ìĦ¹ìĬ¤ ë¦¬ìĬ¤
ìĸ´ë¥¸ ìĿ´
ìĸ´íĶĮ ë¡ľ
ìĸ´ì¨Į ëĵł
ì§Ģë¦Ħ ìĭłìĿ´
ì§Ģìķķ ìĿ´ëĤĺ
Ġìŀ¤ë įĶëĭĪ
ìķĦìĿ´ëĿ¼ ìĿ´ëĦĪ
ìķĦìĽĥ íĴĭìĿ´
ìķĦë³¼ ê»ĺ
ìķĦë¦Ħëĭµ ê²Į
ê°Ģì¹ĺ ê´ĢìĿ´
ê°Ģë°© ìĿĢ
ìĦ¸ìĪĺ íķĺê³ł
ìĦ¸ë±ĥ ëıĪ
ê³łëį° ê¸°
ê³łêµ¬ë §Ī
ĠíĮĢ ìĽĮíģ¬
ëĭ¤íģ¬ ìĦľíģ´
ëĭ¤ìĿ´ìĸ´ íĬ¸ë¥¼
ëĭ¤ìľ¡ ìĿ´
ëĭ¤ëĵ¬ ê¸°ë§Įíķ´ëıĦ
íķĺëĬĺë§Į íģ¼
ê¸¸ëŁ¬ë ıĦ
íķĺìĨĮ ìĹ°
ìĹĲëĦĪ ì§Ģê°Ģ
ê²ĮìĬ¤íĬ¸ íķĺìļ°ìĬ¤ìĹĲìĦľ
ëıĦíĶ¼ ìĦ±
ëıĦë§Ŀ ê°ĢëĿ¼ëĬĶ
ë³´ìķĪ ìĥģ
ë³´íĹ ĺë£Į
ë³´ì¦Ŀ ê¸Ī
ë³´ìĿ¼ë Ł¬ë¥¼
íķľìłģ íķľ
íķľìĪľê°Ħ ìĹĲ
ê¹Įë¨¹ ìĹĪëĤĺë´ĲìļĶ
ìŀĲì¡´ìĭ¬ ìĿĦ
ìŀĲìľ¨ ì£¼íĸī
Ġê±°ìĬ ¬ëł¤
Ġê±°ë¦¬ë ĳĲ
ĠìĿ¸ëıĦ íķ´ì¤Ħ
ê¸°ìļ° ìłľë¥¼
ê¸°ëĮĢë Ĳĺê²łëĦ¤ìļĶ
ê¸°ì¹¨ ëıĦ
ê¸°íĬ¹ íķĺëĦ¤ìļĶ
ê¸°ì´ĪëĮĢ ìĤ¬ëŁī
ìĦľë¹Ħ ìĬ¤ìĦ¼íĦ°
ìĦľíĪ´ ëŁ¬ëıĦ
ëĤĺìķ½ íķľ
Ġëĭ¥ì³Ĳ ìĺ¬
ĠìĿ´ëŀ ¬ëĭ¤
ĠìĿ´ì¹ĺ ì£ł
ĠìĿ´ëĮĢë¡ľ ê°Ģ
ĠìĿ´ëª¨íĭ° ì½ĺìĿĦ
ìĿĮë£Į ìĪĺëĿ¼ëıĦ
Ġíķ´ì¤ ĺë³´ìĦ¸ìļĶ
Ġíķ´ëĨ ¨ëĤĺë´ĲìļĶ
ìĿ¸ìĤ¬ë ĵľë¦¬ëŁ¬
ìĿ¸ìĬ¤íĥĢ ë¥¼
ìĭľìĥĿ ìĿ´ë©´
ìĭľíĬ¸ ì§Ģë¡ľ
ĠìķĦìŀ¬ ìĿ¸ê°Ģ
ĠìķĦìĭ¸ íķ´ëıĦ
ĠìķĦìĿ´ëĭ¤ ìĽĮìķ¼
ĠìķĦìĿ´ìĬ¤ íģ¬ë¦¼
ĠìķĦì¤Į ë§Īëĵ¤ìĿ´
ĠìķĦìļ¸ëłĽ ìĿ´ì£ł
Ġê·¼ë¬´ ìĭľê°ĦìĿ´
ê±°ì°½ íķĺì§Ģ
Ġì¢ĭìķĦì¡Į ëĤĺë´ħëĭĪëĭ¤
Ġë§Īì¹ĺ ê¸¸
Ġë§Īì°¬ ê°Ģì§Ģ
êµ¬êº¼ë ¹Ħì§ĳ
ìłķëĵ¤ ìĹĪëĤĺë´ĲìļĶ
ìłķë¦¬ë Ĳĺ
ìłķìĪĺë ¦¬
ìłķê¸Ģ ìĹĲìĦľ
ìĭłìĦł íķľ
ëĤ¨ìŀĶ ëį°
ìłľì²ł ê³¼ìĿ¼ìĿ´
íĻĪìĩ¼íķĳ ìĹĲìĦľ
Ġë³´ìŀ¥ íķ´ìļĶ
Ġë³´ê´Ģ íķ´ë³´ìĦ¸ìļĶ
Ġë³´ëĭµ íķĺìĦ¸ìļĶ
Ġë³´ëŀĢëĵ¯ ìĿ´
Ġê°ĢìĬµ ê¸°
Ġê°Ģë¥´ ì³Ĳ
Ġëĭ¤ê·¸ ì¹ĺì§Ģ
ĠìĹ°ìĹ° íķ´íķĺì§Ģ
ìĤ¬ëŀĳìŀĲê²©ì¦Ŀ ìĿĦ
ĠìķĪìłĦ ê±°ë¦¬íĻķë³´íķĺìĦ¸ìļĶ
ĠìķĪì£¼ë ŀĳ
ĠìķĪíĸĩ ëĭ¤
ĠìķĪìĿ½ìĶ¹ íķĺë©´
Ġê¸Īë¬¼ ìĿ´ìĹĲìļĶ
ë¡ľë§Ŀ ìĿ´ëĦ¤ìļĶ
ë¡ľë´ĩ ëıĦ
ìĥģëĮĢë ¶ĦìĿ´
ìĥģê²¬ë ¡Ģ
ìĻ¼ìĨĲìŀ¡ ìĿ´ê°Ģ
ê·¸ëŀĺë´¤ ìŀĲ
íħĢë¸Ķ ëŁ¬
Ġìĭľê¸ī íķĺëĦ¤ìļĶ
ĠìĭľëŁ½ ìĿĦ
Ġìĸ´ëĶĺ ê°ĢìĹĲ
ĠìŀĲìŀ¥ë©´ ìĿ´ìļĶ
ìĨľìĶ¨ ê°Ģ
ìķłêµŃ ê°ĢìļĶ
ĠìĤ¬ëŀĳìĿ´ëĿ¼ëĬĶ ê±´
ĠëįĶëĶĶ ê²Į
Ġê¸°ê´Ģ ìĹĲ
Ġê¸°ëĮĢë ı¼
Ġê¸°ëĮĢë¡ľ ë¶ĢíĦ°
Ġê¸°ëħĲ ìĿ¼ìĿĦ
Ġê¸°ìĸ´ìĺ¤ ë¥¸ëĭ¤
ê±¸ëłĪ ì§Ī
ĠëıĪë² ĦëĬĶìĤ¬ëŀĮìĿĢ
ìĸ¸ë¶Ģ íĥģ
ìĸ¼ëĸ¨ëĸ¨ íķł
ĠìĹ¬ìļ° ëĦ¤ìļĶ
ìĭ¬íĶĮ íķĺê²Į
Ġì§Ģìķķ ìĿĦ
Ġì§ĢíĤ¤ë©´ ìĦľ
íĻĶìĭĿë¬¼ ëıĦ
ìŀ¥ëĭ¨ ìłĲìĿĦ
ìĥĿê°ķ ì°¨
ìłĦíĺķ ìłģìĿ¸
ĠìĻ¸ë¶Ģ ìĿĺ
ìĤ¬íĪ ¬ë¦¬
ìĤ¬ì£¼ë ¥¼
ìĤ¬ëĭ¤ë¦¬ íĥĢê¸°
ĠìĤ¬ìħĶìķ¼ ê²łìĸ´ìļĶ
ĠìĤ¬ëŀĮìĿ´ìĹĪëĬĶ ê°Ģë¥¼
ĠìĿ¼íķĺìĭľ ëĤĺë´ĲìļĶ
ĠëĤ´ëĥĲ êµ¬
ĠëĤ´ëł¤ë ĳĲìĦ¸ìļĶ
ìĬ¤íĬ ľëĶĶìĺ¤
ìĬ¤ì¼Ģ ìĿ¼ë§ģ
ë¯¸ë¦¬ë ¯¸ë¦¬
ì¢ĭìķĦíķĺìĭľ ëĭĪê¹Į
Ġëª¨ìŀĺë Ŀ¼
Ġëª¨ìľ¼ìĭľ ëĬĶê±°ìĺĪìļĶ
ì§ģìĦ¤ ìłģìľ¼ë¡ľ
ëĮĢìĿ¸ë °°ìĭľêµ°ìļĶ
Ġëª»íķĺëĥĲ êµ¬
Ġëª»ì§Ģìļ° ê²łëĦ¤
Ġê³łìĻĢ ìķ¼
Ġê³łë¹Ħ ìĺĪìļĶ
Ġê³łì¹ĺë ł¤ê³ł
Ġê³łì¹ĺë©´ ìĦľ
ê°ĢëĲĺ ìĸ´ìŀĪëĬĶ
ìį¸íĥĪë ķĮ
ĠëĲłìĪĺ ìŀĪê²łì£ł
ë¬´ëĦĪ ì§Ħ
ë¬´ìĨĮìĿĮ ìľ¼ë¡ľ
ê´Ģëħ ĲìĹĲ
ê´ĺìĶ ¸
ë¶ĦìľĦ ê¸°ëıĦ
Ġë²Ķì£Ħ ìĹĲìļĶ
ĠíķľëĪĪ íĮĶë©°
ê³¼ìĻ¸ë ¹Ħ
Ġìļľë¡ľ ìĿĺ
Ġëĵ¤ìĿ´ë ĮĶ
ê·¸ëĤĺìłĢ ëĤĺ
ĠìĦłì²ľ ìłģìĿ¸
Ġë¬´ëļĿ ëļĿíķ´
Ġë¬´ê¶ģ ë¬´ì§Ħíķ´ìļĶ
Ġë¬´íķľë¦¬íķĦ ë§Į
ìĭ¤ì²ľ ìĿ´
ìĭ¤íĹĺ ìĭ¤
ìĭ¤íĮ¨ íķ´ëıĦ
ĠëŃĲíķĺëĥĲ ëĬĶëį°
Ġìĥģì¢ħ íķĺì§Ģ
ì§Īì²Ļ ê±°ë¦¬ì§Ģë§ĪìĦ¸ìļĶ
íĮĲëĭ¨ ìĿĢ
íĮ¬ë¯¸ íĮħ
ìĨĮëª¨ ê°Ģ
ìĨĮë§¥ ìĿ´ìļĶ
ĠìķĪëıĮìķĦ ìĺ¤
Ġì¢ĭìĿĢê²ĥ ë§ĮìĿĢ
ìĪĺê°ķ ìĭłì²Ń
ìĽĲíĶ¼ ìĬ¤
ĠìłĦíķ´ì¡Į ìľ¼ë©´
ëĤłëł¤ë ²Ħë¦¬ìĭľê¸¸
ĠëĤĺëĿ¼ë ¥¼
ìĬ¤ëª° ìĽ¨ëĶ©
ëĤľë°© ìĿ´
Ġê·¸ê³³ ìĹĲìĦľ
ì¤ĳëıħ ìĹĲìĦľ
ê³µê¸°ìłķ íĻĶìĭĿë¬¼ëıĦ
ê³µëıĻìľ¡ìķĦ ê°Ģ
ĠìĹĨìĸ´ê°Ģì§Ģ êµ¬
ê²°ëĭ¨ ìĿĢ
ìĺ¤ìĭ¹ íķľ
Ġì¡°ì·¨ ë¥¼
ê´ĢìłĪ ìĹ¼
ê²½ì¡° ìĤ¬ëĬĶ
ê²½ì°° ìĹĲ
ĠëĪħëĪ ħíķ´
ĠíĽĦëįľ ëįľ
ìĭĿìĿ´ìļĶ ë²ķìĿ´ëŀĳ
ìĭĿëĭ¨ì¡°ìłĪ ëıĦ
ì°¨ìļ© ì¦Ŀ
ìļ¸ì»¥ íķĺëĦ¤
ĠëĤłì¹´ ë¡ľìĽĮ
Ġë¬¼ì¦Ŀ ìĿ´
ĠìĨĮìķ¡ ìĿ´
íĶĦë¦¬ë§Ī ì¼ĵ
ĠìķĦëĭĪìħ¨ ìĿĦê±°ìĺĪìļĶ
ëĭµë¡Ģ íĴĪ
íĥĢìŀĦ ë¨¸ìĭłìĿ´
Ġì§Ħì¶ľ íķ´ë³¼ê¹Į
Ġì°¨ê³¡ ì°¨ê³¡
ĠíķĺìħĶ ëıĦ
Ġíķĺìļ°ìĬ¤ ìĽ¨ëĶ©ìĿ´
ĠíķĺìħĶìķ¼ íķ´ìļĶ
Ġëĭ¹ëĭ¹íķ´ ìł¸ëıĦ
ë¹ĦíĥĢë ¯¼
Ġë¹Ħìļ© ìĿĢ
Ġë¹ĦíĤ¤ ëĭĪ
Ġë¹ĦíĮĲ ìĿĺ
Ġë¹ĦíĭĢ ìĸ´ìł¸ìļĶ
Ġë¹Ħíĸīê¸° íĳľ
Ġë¹Ħíĺ¼ì£¼ ìĿĺëŀĺ
Ġìķłì°© ìĿ´
ĠìķłìĦĿ íķ´ìļĶ
ê·Ģì°¨ëĭĪì¦ĺ ìĿĦ
ìĥĿê°ģëĤ¬ ìĿĦ
ìĦłíĨ¡ ìĿĦ
Ġë¶Ģì¶Ķ ê¸°ë©´
ëĮĢë¶Ģë ¶Ħ
ĠìĽ¹íĪ° ìĿ´
ëĳĲíĨµ ìķ½
ĠëĶ°ëıĮ ë¦¼
Ġê¸°ëĭ¤ëł¤ë ´ĲìļĶ
Ġê¸°ëĭ¤ë¦°ëĭ¤ ëĬĶê²Į
ëª¨íĥľ ìĨĶë¡ľ
ì³ĩë°ĶíĢ ´
Ġì¶Ķìłģì¶Ķ ìłģ
ĠìĬ¤íĤ¨ ìī½
ĠìĬ¤íĬ¸ëłĪì¹Ń ìĿĦ
ĠìĬ¤íĦ°ëĶĶ íķĺìŀĲê³ł
ĠìĺĪìģĺ ê²łì£ł
Ġê³µê¸ī íķĺëł¤ëĬĶ
Ġê³µë¶Ģë °©ë²ķìĿĦ
Ġê³µì±Ħ ëķĮëĬĶ
ìĹ°ìķłìĬ¤íĥĢ ìĿ¼ìĿ´
Ġë¬¸ì§Īë Ł¬
ìĹħëį°ìĿ´íĬ¸ ê°Ģ
ë°ľëĭ¬ë Ĳľ
ìķĦë¬´ëłĩê²Į ëĤĺ
Ġë°°ìĽł ê¸¸
Ġê·Ģì°¬ íķĺ
Ġë¶Ģë©Ķ ëŀĳìĿ´
ë¯¸ìĬ¤íĬ¸ ëĤĺ
ëªħíĻķ íķĺê²Į
íİŃê· Ħ
ìĪĺë¶Ħ íģ¬ë¦¼
ë§īë§ī íķĺê²łëĦ¤ìļĶ
ë°©íĸ¥ ìĿ¸ì§Ģ
ĠìŀłìŀĲë¦¬ ìĹĲ
ìŀ¬ìĦ¤ê³Ħ ê°Ģ
ìŀ¬íĥĿê·¼ë ¬´
ĠìĦ±ëįķ ìĿ´
ĠìĨįìĿ´ëĬĶ ê±´
ĠìĨįìĭľìĽĲ íķ´ìļĶ
Ġíĺ¼ëĤĺë©´ ìĦľ
Ġíĺ¼ìłĦìĪľ ê²°ìĿ´
ĠìłĢì¶ķ íķ´ìĦľ
ĠìłĢíıī ê°ĢëĲĺìĸ´ìŀĪëĬĶ
ĠìłĢëł´ íķĺê²Į
Ġë¶Ħì¶ľ íķł
Ġë¶ĦìĦĿ íķ´ë³´ìĦ¸ìļĶ
Ġë¶Ħìķ¼ë ¥¼
ìĸĳë°°ì¶Ķ ì¦Ļ
Ġë°ĺíķŃ íĸĪìĸ´
ĠìĿ´íķ´íķ´ì¤ĺ ìķ¼íķłê¹Į
Ġê¸°ë¶ĦìłĦíĻĺ ìĹĲ
ëłĪìĭľíĶ¼ë ĮĢë¡ľ
Ġìķŀëª¨ìĬµ ìĿĦ
Ġìĭ¬íĺ¸íĿ¡ íķ´ë³´ìĦ¸ìļĶ
ì²´ìľ¡ ë³µ
Ġëĭ¤ê°Ģê°Ķ ëĦ¤ìļĶ
Ġëĭ¤ê°Ģìĺ´ ìĿĦ
ëĶĶìłĢíĬ¸ ëĬĶ
ì·¨ì¤Ģ ìĥĿìĿ¸ëį°
Ġê¼¬ë¦¬ ê°Ģ
ĠìĿ´ë¸Į ëĦ¤
Ġë¬¼ìĸ´ë³´ê³łìĭ¶ ëĦ¤ìļĶ
Ġê¹¨ëģĹ íķĺê²Į
ì¹´ì¹´ ìĺ¤íĨ¡
ĠìĿĺìĤ¬íĳľ ìĭľ
Ġìµľìļ°ìĦł ìĿ´ì£ł
ëĿ¼ë©´ë´ī ì§Ģ
Ġë¶Ģëĭ´ìĬ¤ëŁ¬ìļ´ ëį°
Ġë§īíŀĪë įĶëĿ¼
ĠìŀĶìŀĶ íķĺëĦ¤
ê¸°ë¶ĦëĤĺìģĺ ê²łìĸ´ìļĶ
ê¸°ë¶ĦìĿ¼êº¼ ìĹĲìļĶ
ê½ĥê½ ĤìĿ´
Ġë§ĲìĶĢìĿ´ìĭł ê°ĢìļĶ
Ġì£¼ë¦Ħ ìĤ´
Ġêµ¬íķĺìħ¨ ëĤĺìļĶ
ì½Ķì½Ķ ëĦĽìĺ¤
ì½Ķê³¨ ìĿ´
ì½ĶìĬ¤íĦ° ë¥¼
íı¬ì»¤íİĺìĿ´ ìĬ¤ë¥¼
ëĦ¥íĥĢ ìĿ´íķĢ
ìĥĿíĻľìļ©íĴĪ ìĿ´
ì»¤ë®¤ëĭĪ íĭ°
Ġì¢ħë£Į ëĦ¤ìļĶ
ĠìĪĺë§İ ìĿĢ
ìĹŃë¥ĺ ìĦ±
ë§ĪëĿ¼íĨ ¤
Ġìłĳì§Īë łĢìĸ´
ê°Ĳìłķì¡°ìłĪ ìĿ´
Ġìĺ·ì°¨ë¦¼ ëıĦ
Ġì²Ńì¶ĺìĿ´ ìĸ´ìķ¼ì£ł
Ġëĭ¬ì½¤ íķĺëĦ¤ìļĶ
Ġíķĺìħ¨ëĤĺë³´ êµ°ìļĶ
ìľĦë¡ľë´ĩ ìĿ´ìļĶ
ìĹ´ìĩ ł
Ġíħģíħ ģ
Ġëª¸ê°Ĵ ìĿĦ
Ġêµ¬ë°ķ íķĺì§ĢëĬĶ
Ġë³¸ê±°ìĹĲìĦľ ëĬĶ
ê°ĢëĬ¥íķĺëĭ¤ë©´ ìļĶ
Ġíıīë²Ķ íķĺë©´ìĦľ
Ġê°ķë°ķ ê´ĢëħĲìĹĲ
Ġê°ķëł¬ íķľ
Ġì¼ĢìĿµ ìĿĦ
Ġì¼Ģë¹Ī ê³¼
ëĴ¤ìĪŃìĪŃ íķĺëĦ¤
Ġì§Ģë¶Ī íķĺê³ł
Ġì§ĢëģĪ ê±°ëł¤
ê¹Ģì¹ĺì°Į ê°ľ
ê¹Ģì¹ĺë³¶ ìĿĮë°¥
ĠëıħíĬ¹ íķ¨ìĿĦ
ì·¨ì§ģìĿ´ëĤĺë Ŀ¼ëĩ¨
ë°ĺë°° ìłķ
Ġì°Įë¿Į ëĳ¥íķ´
ĠìĽĢì¸ł ëŁ¬ëĵ¤ì§Ģ
Ġì±ĦìĽĮëĤĺê°ĢëĬĶ ê±°ì£ł
ĠìĨĮê°ľíĮħíķĺê¸°ë¡ľ íĸĪìĸ´
ê¼¬ë¥´ ë¥µ
Ġì»´ë°± íķľëĭ¤
ĠìĥĿíĻľíĮ¨íĦ´ ìĿĦ
íĹĪë¦¬ëĿł ë¥¼
ì±ĦëĦĲ ìĿĦ
Ġì¹¨ë¬µ íķĺìĦ¸ìļĶ
Ġì¹¨íķ´ëĭ¹ íķĺê¸°
ê°ĳìŀĳìĬ¤ëŁ¬ìĽł ëĤĺë´ĲìļĶ
ĠíĥĿë°°ê¸°ìĤ¬ ëĭĺëĵ¤
Ġê¿Ģê¿Ģ íķ´
ĠíĶĦë¡ľê·¸ëŀ¨ ìĿĦ
ĠëĴ·ëª¨ìĬµ ë§Į
ĠíĬ¸ì§ĳìŀ¡ ëĬĶ
ĠëĶĶìŀĲìĿ´ëĦĪ ìĹĲê²Į
ë¬¼ë¡ł ìĿ´ì£ł
ĠëĴ¤ëıĮìķĦ ë´ĲëıĦ
ìľĹëª¸ìĿ¼ìľ¼ íĤ¤ê¸°
ì¦ĿëªħìŀĲë£Į ë¥¼
Ġë°±ìĹħíķ´ëĨĵ ìľ¼ìĦ¸ìļĶ
ìĬĪíį¼ìļ°ë¨¼ ìĿ´
Ġê²¬ê³¼ë¥ ĺëĤĺ
ìĬ¤íĥĢë²ħ ìĬ¤
ĠíĮĢìĽĮíģ¬ ê°Ģ
ê¸°ì´ĪëĮĢìĤ¬ëŁī ìĿĦ
ì½Ķì½ĶëĦĽìĺ¤ ìĿ¼
