{"<s>":0,"<pad>":1,"</s>":2,"<unk>":3,"<mask>":4,"!":5,"\"":6,"#":7,"$":8,"%":9,"&":10,"'":11,"(":12,")":13,"*":14,"+":15,",":16,"-":17,".":18,"/":19,"0":20,"1":21,"2":22,"3":23,"4":24,"5":25,"6":26,"7":27,"8":28,"9":29,":":30,";":31,"<":32,"=":33,">":34,"?":35,"@":36,"A":37,"B":38,"C":39,"D":40,"E":41,"F":42,"G":43,"H":44,"I":45,"J":46,"K":47,"L":48,"M":49,"N":50,"O":51,"P":52,"Q":53,"R":54,"S":55,"T":56,"U":57,"V":58,"W":59,"X":60,"Y":61,"Z":62,"[":63,"\\":64,"]":65,"^":66,"_":67,"`":68,"a":69,"b":70,"c":71,"d":72,"e":73,"f":74,"g":75,"h":76,"i":77,"j":78,"k":79,"l":80,"m":81,"n":82,"o":83,"p":84,"q":85,"r":86,"s":87,"t":88,"u":89,"v":90,"w":91,"x":92,"y":93,"z":94,"{":95,"|":96,"}":97,"~":98,"¡":99,"¢":100,"£":101,"¤":102,"¥":103,"¦":104,"§":105,"¨":106,"©":107,"ª":108,"«":109,"¬":110,"®":111,"¯":112,"°":113,"±":114,"²":115,"³":116,"´":117,"µ":118,"¶":119,"·":120,"¸":121,"¹":122,"º":123,"»":124,"¼":125,"½":126,"¾":127,"¿":128,"À":129,"Á":130,"Â":131,"Ã":132,"Ä":133,"Å":134,"Æ":135,"Ç":136,"È":137,"É":138,"Ê":139,"Ë":140,"Ì":141,"Í":142,"Î":143,"Ï":144,"Ð":145,"Ñ":146,"Ò":147,"Ó":148,"Ô":149,"Õ":150,"Ö":151,"×":152,"Ø":153,"Ù":154,"Ú":155,"Û":156,"Ü":157,"Ý":158,"Þ":159,"ß":160,"à":161,"á":162,"â":163,"ã":164,"ä":165,"å":166,"æ":167,"ç":168,"è":169,"é":170,"ê":171,"ë":172,"ì":173,"í":174,"î":175,"ï":176,"ð":177,"ñ":178,"ò":179,"ó":180,"ô":181,"õ":182,"ö":183,"÷":184,"ø":185,"ù":186,"ú":187,"û":188,"ü":189,"ý":190,"þ":191,"ÿ":192,"Ā":193,"ā":194,"Ă":195,"ă":196,"Ą":197,"ą":198,"Ć":199,"ć":200,"Ĉ":201,"ĉ":202,"Ċ":203,"ċ":204,"Č":205,"č":206,"Ď":207,"ď":208,"Đ":209,"đ":210,"Ē":211,"ē":212,"Ĕ":213,"ĕ":214,"Ė":215,"ė":216,"Ę":217,"ę":218,"Ě":219,"ě":220,"Ĝ":221,"ĝ":222,"Ğ":223,"ğ":224,"Ġ":225,"ġ":226,"Ģ":227,"ģ":228,"Ĥ":229,"ĥ":230,"Ħ":231,"ħ":232,"Ĩ":233,"ĩ":234,"Ī":235,"ī":236,"Ĭ":237,"ĭ":238,"Į":239,"į":240,"İ":241,"ı":242,"Ĳ":243,"ĳ":244,"Ĵ":245,"ĵ":246,"Ķ":247,"ķ":248,"ĸ":249,"Ĺ":250,"ĺ":251,"Ļ":252,"ļ":253,"Ľ":254,"ľ":255,"Ŀ":256,"ŀ":257,"Ł":258,"ł":259,"Ń":260,"Ġì":261,"Ġë":262,"ìĿ":263,"íķ":264,"ìļ":265,"ìļĶ":266,"Ġê":267,"ìĿ´":268,"ĺë":269,"ìķ":270,"ê°":271,"ì§":272,"ëĭ":273,"ĸ´":274,"ĬĶ":275,"ìĦ":276,"ìĸ´":277,"ê²":278,"ìĹ":279,"ëĤ":280,"ê³":281,"ì§Ģ":282,"¬ë":283,"íķ´":284,"ìŀ":285,"Ġìŀ":286,"ìķĦ":287,"ê°Ģ":288,"ìĦ¸":289,"ëĬĶ":290,"ê³ł":291,"ìĿĦ":292,"ìł":293,"ìĦ¸ìļĶ":294,"Ġí":295,"ë³":296,"Ġë§":297,"ëĭ¤":298,"Ġìķ":299,"íķĺë":300,"ê¸":301,"ıĦ":302,"ìĭ":303,"ë§":304,"íķĺ":305,"±°":306,"Ĥ¬ë":307,"¢ĭ":308,"ìĹĲ":309,"Ĥ¬ëŀ":310,"Ġê°":311,"ê²Į":312,"ìĺ":313,"¸ë":314,"ìĿĢ":315,"ëıĦ":316,"ĠìĹ":317,"ë³´":318,"ĠìŀĪ":319,"ê¹":320,"©´":321,"íķľ":322,"Ħ¤":323,"Īë":324,"Ġì¢ĭ":325,"ê¹Į":326,"ìŀĲ":327,"ĠëĤ":328,"ì£":329,"Ġê±°":330,"Ġìĭ":331,"ĠìĿ":332,"ê¸°":333,"íķĺëĬĶ":334,"į°":335,"ĠìĤ¬ëŀ":336,"ëĿ":337,"ëĭĪ":338,"ê²ł":339,"¼ë":340,"Ġê²":341,"¡ľ":342,"ìĦľ":343,"ë³´ìĦ¸ìļĶ":344,"êµ":345,"ĥĿ":346,"ìľ":347,"ëĦ¤":348,"ì¹":349,"ë¥":350,"ìĺĪ":351,"ĵ¤":352,"ë¦":353,"ëĤĺ":354,"Ġë°":355,"¬´":356,"ìĺĪìļĶ":357,"ëį°":358,"ìĬ":359,"ìķ¼":360,"ê·":361,"ìĸ´ìļĶ":362,"íķł":363,"ĠìĤ¬ëŀĮ":364,"Ġëĭ":365,"ëł":366,"Ġê±°ìĺĪìļĶ":367,"´Ĳ":368,"ĠìĪ":369,"Ġì§":370,"ì£ł":371,"ĠìĿ´":372,"Ģë":373,"Ġê°Ļ":374,"ìĽ":375,"Ġë³":376,"Ġìł":377,"ìĿĮ":378,"ë§Į":379,"Ġíķ´":380,"ëĤĺë":381,"ì¹ľ":382,"¤ë":383,"Ġëª":384,"ìĿ¸":385,"ŀĺë":386,"ê°ģ":387,"ĠìĥĿ":388,"ìĭľ":389,"ĠëĲ":390,"ìĿĺ":391,"ë°":392,"ìľ¼ë":393,"ĠìķĦ":394,"ĠìĹĨ":395,"ëĿ¼":396,"Ġê·":397,"ëĭĪëĭ¤":398,"ê±°":399,"ĥģ":400,"Ġì¢ĭìķĦ":401,"Ġë§Ī":402,"íĸ":403,"ìĤ¬ëŀ":404,"ìĿ¼":405,"íĺ":406,"Ĥ¬":407,"Ġìĭ¶":408,"êµ¬":409,"´ĲìļĶ":410,"ëĦ¤ìļĶ":411,"ìłķ":412,"ë¦¬":413,"ìĭł":414,"ëĤ¨":415,"Ġê³":416,"ì°":417,"Ġê²ĥ":418,"Ġìĸ´":419,"ìłľ":420,"ì£¼":421,"Ġìĺ":422,"įĶ":423,"ë¥¼":424,"ĠìĥĿê°ģ":425,"ëŀ":426,"íķĺê³ł":427,"ĦĪë":428,"ë¶":429,"ĠìķĬ":430,"ĠìĪĺ":431,"íĻ":432,"Ġê±":433,"ê°Ħ":434,"ĦĪë¬´":435,"Ġë§Į":436,"ìķĦìļĶ":437,"Ġë³´":438,"ë³Ħ":439,"Ġë§Ĳ":440,"Ġê°Ģ":441,"ë©´":442,"Ġëĭ¤":443,"ë§Ī":444,"ĠìĹ°":445,"ì²":446,"ìĤ¬ëŀĳ":447,"Ġíŀĺë":448,"ëĤ´":449,"ĮĢ":450,"Ġì¤":451,"ĠìķĪ":452,"ĵľ":453,"ì¢ĭ":454,"ì¤":455,"ìĪ":456,"ĠëĤĺ":457,"Ġë§İ":458,"Ġê¸":459,"íķ´ë³´ìĦ¸ìļĶ":460,"ëł¤":461,"ë¡ľ":462,"ëĿ½":463,"ìĥģ":464,"ëĬĶëį°":465,"ìĹ¬":466,"¤ìĸ´":467,"ķĮ":468,"ì¡":469,"ìĻ":470,"Ġì°":471,"íķĺì§Ģ":472,"Ġë°Ķ":473,"ëĵ¤":474,"ì§Ħ":475,"ê·¸ë":476,"íħ":477,"Ġìĭľ":478,"ì¹ľêµ¬":479,"Ġìĸ´ë":480,"ìĹĪ":481,"Ġê·¸ë":482,"ĠëĦĪë¬´":483,"Ĺ¤ìĸ´":484,"ĠìŀĲ":485,"ìĨ":486,"ê¸Ī":487,"íĶ":488,"ìķł":489,"ĠìĤ¬ëŀĳ":490,"ë²":491,"ĠìŀĪìĿĦ":492,"ĠëįĶ":493,"ĠìĦ":494,"ìĹ°":495,"¹Ħ":496,"ìļ´":497,"ìľ¼ë©´":498,"ëħ":499,"ìĽĮ":500,"Ġìŀĺ":501,"Ġê¸°":502,"íŀ":503,"Ġíķ":504,"Ġë¨":505,"Ġë¶":506,"į¸":507,"ê±":508,"Ġëı":509,"ìĸ":510,"ĠìĹ¬":511,"ìĭ¬":512,"Ĥ´":513,"ë§Ĳ":514,"ëı":515,"¬¼":516,"ìłĢ":517,"Ġì§Ģ":518,"íĸĪ":519,"íĻĶ":520,"ê¸¸":521,"ìŀ¥":522,"ĠìĹ°ëĿ½":523,"ìĥĿ":524,"Ġê´":525,"ìłĦ":526,"íħĮ":527,"íŀĪ":528,"íķĺë©´":529,"ĠìĻ":530,"ĠëĤ¨":531,"íķĺìĦ¸ìļĶ":532,"ìŀĲì¹ľêµ¬":533,"ìĤ¬":534,"¥¼":535,"ĠìĤ¬":536,"ëª":537,"ìĹĲìļĶ":538,"ĠìĤ¬ëŀĮìĿ´":539,"Ġíŀĺëĵ¤":540,"ìĬµ":541,"ĠëķĮ":542,"ìľ¼ë¡ľ":543,"Ġê²Į":544,"ìĿ´ë³Ħ":545,"ĠìķĮ":546,"ë¥´":547,"íĺ¼":548,"Ġë§ĪìĿĮ":549,"Ł¬":550,"ì§Ŀ":551,"¢Ģ":552,"ĠìĿ¼":553,"ĽĦ":554,"Ġíĸ":555,"íķľíħĮ":556,"Ġìĸ´ëĸ":557,"Ġì¹":558,"ĠëĤ´":559,"íļ":560,"ìĹĲìĦľ":561,"ìĬ¤":562,"ëĤĺë´ĲìļĶ":563,"ë¯":564,"ìłģ":565,"íķ´ìļĶ":566,"Ġê°ĻìķĦìļĶ":567,"ì¢ĭìķĦ":568,"ê¹ĮìļĶ":569,"ìĺ¤ë":570,"Ġìłķ":571,"ĵł":572,"Ġì¢ĭìķĦíķĺëĬĶ":573,"Ġëª¨":574,"ĥĢ":575,"ì§ģ":576,"ĠëŃ":577,"ëĮĢ":578,"ê²łìĸ´ìļĶ":579,"Ġëª»":580,"ĠìŀĪìĸ´ìļĶ":581,"Ġê³ł":582,"Ġìĭ¶ìĸ´":583,"Ġì£":584,"ë§ĪìĿĮ":585,"íļĮ":586,"Ġë¨¹":587,"ì¶":588,"ê°Ģë":589,"ìļ°":590,"Ġê±´":591,"ìį¸":592,"¦¬":593,"ĺëıĦ":594,"Ġì¤ĳ":595,"Ġì¢Ģ":596,"ì°®":597,"íĬ":598,"Ġëģ":599,"Ġìĭľê°Ħ":600,"ĠëĲł":601,"Ġê°ĻìķĦ":602,"Ŀ¼":603,"íķĺê²Į":604,"Ġë°Ľ":605,"íĹ¤ìĸ´":606,"ĠìĨ":607,"ë¬´":608,"ìĿ´ìĹĲìļĶ":609,"ë¨":610,"ì¢ĭìķĦíķĺëĬĶ":611,"ê´":612,"ĺëĬĶ":613,"ë¶Ħ":614,"Ġíķĺë":615,"ìŀĺ":616,"ë¶Ģ":617,"Ĭĺ":618,"Ġë²":619,"¸ëł":620,"ê²łëĦ¤ìļĶ":621,"ì£¼ìĦ¸ìļĶ":622,"ĠìĤ´":623,"Ġë§İìĿ´":624,"ê°Ĳ":625,"Ġíķľ":626,"Ġì¡":627,"ëĭ¹":628,"ìĹĲê²Į":629,"ĳĲ":630,"ìķĪ":631,"ê³¼":632,"íĨ":633,"ĠëĲĺ":634,"Ġë°Ķëŀ":635,"Ġíķł":636,"êµ¬ë":637,"ê±´":638,"ìĬµëĭĪëĭ¤":639,"ľì°®":640,"Ġìļ":641,"ë³µ":642,"Ġì¢ĭìĿĦ":643,"Ġë§ĪìĦ¸ìļĶ":644,"Ġëĵ¤":645,"ìŀĪ":646,"ê²łì§Ģ":647,"ê·¸":648,"ĠëĨ":649,"ĠìķĦëĭ":650,"ĠìĦł":651,"ŀĺ":652,"Ġë¬´":653,"ëıĻ":654,"íĸī":655,"ìĭ¤":656,"ë¥¸":657,"Ġì¶":658,"ìĻĢ":659,"ëŀĳ":660,"ĠëŃĲ":661,"Ġìĥģ":662,"¬¸":663,"ì§Ī":664,"ĠìŀĪëĬĶ":665,"ĠíķĺëĬĶ":666,"ë¦¬ë":667,"ħëĭĪëĭ¤":668,"Ł°":669,"ìĶ":670,"íĮ":671,"ĠëĬ":672,"ì¡Į":673,"ìĨĮ":674,"ĦìļĶ":675,"İ¸":676,"ĠìķĪë":677,"ê²ĮìļĶ":678,"íı":679,"įĺ":680,"Ġíķ´ë³´ìĦ¸ìļĶ":681,"ìŀĲì¹ľêµ¬ê°Ģ":682,"ìĸ´ë":683,"Ġì¢ĭìĿĢ":684,"ĠìĿ´ë³Ħ":685,"ìĪĺ":686,"ìĽĲ":687,"ĠìłĦ":688,"ĠëģĿ":689,"Ġë¯":690,"Ġëĵľ":691,"ìľ¼":692,"ì¢ĭìĿĢ":693,"ëĤł":694,"Ġìĸ":695,"ĠíĹ¤ìĸ´":696,"Ġê±¸":697,"ê°Ļ":698,"ê°Ģë´ĲìļĶ":699,"ì¦":700,"ìĥ":701,"Ġì£¼":702,"ìģ":703,"ìĿ¸ë":704,"ĠëĤĺë":705,"»ê²Į":706,"ĠìĹ¬ìŀĲ":707,"ìĬ¤ë":708,"ĠíĻ":709,"ĠíķĦìļĶ":710,"ëĤľ":711,"Ġê·¸":712,"íģ":713,"ĮĢë":714,"Ġìĭ¶ëĭ¤":715,"ì¤ĳ":716,"ìĨį":717,"ĠëĤ¨ìŀĲ":718,"ë¬¼":719,"Ġê´ľì°®":720,"Ġëı¼":721,"ê³µ":722,"ìħ":723,"ìł¸":724,"Ġê²°":725,"ĠìĹĨìĸ´":726,"Ġì¹ľ":727,"ĠëĮĢ":728,"ìĿ´ìłľ":729,"Ġëĸ":730,"ê²°":731,"íķ´ëıĦ":732,"Ĥĺ":733,"ê²łìĸ´":734,"ìĺ¤":735,"ëħĦ":736,"Ġì¡°":737,"Ġëª¨ë¥´":738,"ê´Ģ":739,"ê¾":740,"ìķĺ":741,"Ġíĺ":742,"ê²łì£ł":743,"Ġìī":744,"ĠìĬ":745,"ëĭ¤ë©´":746,"ĺĲ":747,"ê²½":748,"ĠìŀĬ":749,"ìľł":750,"ĠëĪ":751,"ĠíĽĦ":752,"ìĭĿ":753,"ë§İ":754,"ìĺ¤ëĬĺ":755,"íĽĦ":756,"ĵ°":757,"Ġìľ":758,"ìĿ¸ëį°":759,"Ķ°":760,"ëĭ¬":761,"ë°Ķ":762,"ħĢ":763,"ĶĶ":764,"ê°ľ":765,"ëĬĶê²Į":766,"ĠìŀĪìĸ´":767,"íķĺëĭ":768,"Ġê°Ģë":769,"ł¤":770,"ĠíĥĢ":771,"ŀĳ":772,"ì°¨":773,"ĠìĪĺëıĦ":774,"ëĲ":775,"ëĦĪë¬´":776,"ìŀĳ":777,"ëĭ¤ê³ł":778,"Ġì°¾":779,"Ġìĸ´ëĸ»ê²Į":780,"ê¾¸":781,"ìĿ´ëĦ¤ìļĶ":782,"ì¡°":783,"ëįĶ":784,"ìļ¸":785,"ìĤ¬ëŀĮ":786,"©ëĭĪëĭ¤":787,"íĦ":788,"Ġë§ŀ":789,"ĠìĿ¸":790,"ìĸµ":791,"íĬ¸":792,"ëĪ":793,"ê²¨":794,"Ġë§ĮëĤĺ":795,"íĹ":796,"ĠëĤł":797,"ìķ¼ì§Ģ":798,"ëĵł":799,"ĳľ":800,"Ġê°Ĳ":801,"íķłê¹Į":802,"ê»":803,"Ġë¬¼":804,"ì§ľ":805,"ĠíĸĪ":806,"ĠìĨĮ":807,"Ġíķĺê³ł":808,"ìĸ´ë³´ìĦ¸ìļĶ":809,"ê³Ħ":810,"Ġìĭ«":811,"íĶĦ":812,"ì¹ĺ":813,"Ģë¹Ħ":814,"ĠìĹ°ìķł":815,"Ġê´Ģ":816,"ĩê²Į":817,"Ġë°©":818,"Ġê²ĥëıĦ":819,"íĹ¤ìĸ´ì§Ħ":820,"Ġì²":821,"ĠìķĦëĭĪ":822,"Ġìĺ¤":823,"Ġíĸī":824,"ë¯¼":825,"ìĿ´ëĿ¼":826,"ëĤ´ê°Ģ":827,"ë²ķ":828,"ìĿĢëį°":829,"Ġì¤ĳìļĶ":830,"ìĦ±":831,"Ħ¤ìļĶ":832,"ëĭµ":833,"Ł´":834,"íķĻ":835,"íĥĢ":836,"Ġì§Ħ":837,"ìĭľê°Ħ":838,"Ġì°¨":839,"ë§İìĿ´":840,"ëĵľ":841,"Ġíķĺ":842,"Ĭ¥":843,"Ġê¹":844,"ĠìĻľ":845,"Ġìĭľê°ĦìĿ´":846,"íŀĺë":847,"Ġëĭ¹":848,"ëĿ¼ìļĶ":849,"íĺĦ":850,"£¨":851,"ëĭ´":852,"íĦ°":853,"ë¹Ħ":854,"Ħê²ĮìļĶ":855,"Ġì§Ŀ":856,"ë°±":857,"Ġë¹":858,"ìŀĲìĭł":859,"ëĵ¤ìĿ´":860,"¼ê¹Į":861,"ĠëıĦ":862,"ì§ĢëıĦ":863,"ì§Ģë§Į":864,"ì§ĿëĤ¨":865,"Ġë¹Ħ":866,"ëĭ¨":867,"ëħĢ":868,"Ġì°¾ìķĦ":869,"Ġìķł":870,"ê·Ģ":871,"Ġìĺ¤ë":872,"ìĥĿê°ģ":873,"ìĿ´ì£ł":874,"ê·¼":875,"íĺ¼ìŀĲ":876,"ĵ¯":877,"ìĿ´ìķ¼":878,"¬ëĿ¼":879,"ìłľê°Ģ":880,"ê±¸":881,"ĠëĬĲ":882,"ìĦł":883,"ì§Ģê¸Ī":884,"ĠìĹĨìĸ´ìļĶ":885,"Ġë¶Ģ":886,"ê¹Įì§Ģ":887,"ê±°ìĺĪìļĶ":888,"¿Ī":889,"ëĮĢë":890,"ì§ĳ":891,"Ġëį°":892,"ëĤĺëĬĶ":893,"ãħ":894,"ëģ":895,"ĠìĽ":896,"Ġì¤Ģë¹Ħ":897,"ìĿĦê¹Į":898,"ê²łëĭ¤":899,"ì¹ľêµ¬ë":900,"Ġë°ĶëŀĦê²ĮìļĶ":901,"¼ìłĢ":902,"íķ´ìĦľ":903,"ìĭ¶":904,"ì²ľ":905,"ìĹ°ëĿ½":906,"³´":907,"´ħëĭĪëĭ¤":908,"ë¬¸":909,"Ġëħ":910,"ĠíĿ":911,"Ġíİ¸":912,"ë³´ëĭ¤":913,"ĠìĹĨëĬĶ":914,"ĠìŀĲìĭł":915,"ìłĢëıĦ":916,"Ġëı¼ìļĶ":917,"Ġìłķë¦¬":918,"íķ´ìķ¼":919,"Ġìłľ":920,"ì²ĺë":921,"ì¤ĺ":922,"ë§ĪìĿĮìĿ´":923,"Ġë°©ë²ķ":924,"ĠìĦłë¬¼":925,"ëĳĲ":926,"Ġìį¸":927,"Ġì§ĳ":928,"ìĽĢ":929,"Ġëª°":930,"ëĭ¹ìĭł":931,"ë¦´":932,"§Į":933,"·¨":934,"ĠëĶ°":935,"Ġëĭ¤ìĭľ":936,"Ġê¸°ëĭ¤":937,"ëª¨":938,"íĨµ":939,"ĦĪ":940,"¼ë©´":941,"íķ´ì£¼ìĦ¸ìļĶ":942,"ìłĲ":943,"ìłł":944,"ê¸´":945,"ĠìŀĪìĿĦê¹Į":946,"ì³":947,"ìļ©":948,"ìĹĲëĬĶ":949,"ëĭĪê¹ĮìļĶ":950,"ëĿ¼ê³ł":951,"íģ¼":952,"ĠìľĦ":953,"ĠíĶ":954,"êµĲ":955,"ê²ĥ":956,"ìķ¼ê¸°":957,"ĠìĿ´ìķ¼ê¸°":958,"Ġë©":959,"ì§ĢëĬĶ":960,"ĠíĹ":961,"Ġê³Ħ":962,"Ġì°¸":963,"Ġì¶Ķ":964,"Ġíĸīë³µ":965,"Ġíĥ":966,"ì¼":967,"Ġíķĺì§Ģ":968,"¸ë¦¬":969,"Ġì¤Ħ":970,"ìĸ¸":971,"ëŃ":972,"ĠëĺĲ":973,"Ġì¢ĭìķĦìļĶ":974,"ìłķë§Ĳ":975,"Ġë³´ìĦ¸ìļĶ":976,"ìĪł":977,"íĶ¼":978,"ë²Ī":979,"ĠëĲłê¹Į":980,"¯¸":981,"Ĥĺë":982,"ë³¼ê¹Į":983,"ëĭ¤ë¥¸":984,"íĨ¡":985,"ë¹":986,"ı¼":987,"ê¸°ê°Ģ":988,"Ġíķ´ìķ¼":989,"ìłĪ":990,"Īëįĺ":991,"ĠìĻĶ":992,"ì§ĿìĤ¬ëŀĳ":993,"ĠìĿ¼ìĿ´":994,"įëĭĪëĭ¤":995,"êµ°":996,"ìĽĶ":997,"Ġë³´ê³ł":998,"Ġìĭľìŀĳ":999,"Ġë°ĽìķĦ":1000,"ĠìķĦëĭĮ":1001,"ĠíĻķ":1002,"¬ìĸ´":1003,"°©":1004,"ìĹĨ":1005,"ìŀł":1006,"ĠëıĮ":1007,"ĠíķĺìĦ¸ìļĶ":1008,"ĠëĳĲ":1009,"íķ¨":1010,"ìŀĲê³ł":1011,"ĠëĲĺë":1012,"ĠìķĬìķĦìļĶ":1013,"Ġë§Įëĵ¤":1014,"íĸĪìĸ´":1015,"ìģľ":1016,"ĠìĬ¤":1017,"ìŀ¡":1018,"ë³´ëĬĶ":1019,"ĠìĺĪ":1020,"ì¦Ŀ":1021,"íķĺëĭ¤":1022,"Ġì¢ĭì£ł":1023,"Ġê³µ":1024,"ì¤Ħ":1025,"Ġê³łë¯¼":1026,"ĠëĵľìĦ¸ìļĶ":1027,"¶ģ":1028,"Ġê³³":1029,"ì²Ń":1030,"ĺëĬĶëį°":1031,"íĮĮ":1032,"íĤ":1033,"íİ¸":1034,"ìĿ´ëŀĳ":1035,"íķĺê¸°":1036,"Ġìĭł":1037,"ì²ĺ":1038,"ë²Ħ":1039,"Ġê³łë°±":1040,"Ġëĵ¤ìĸ´":1041,"±ìłķ":1042,"ìŀĦ":1043,"Ġë§ĪìĿĮìĿ´":1044,"ê°ķ":1045,"ì§¸":1046,"Ġíģ":1047,"Ġëĭ¤ë¥¸":1048,"ëĥ":1049,"íĥ":1050,"Ġêµ":1051,"ì§Ģê³ł":1052,"ë°°":1053,"ĠìŀĲê¾¸":1054,"Ġë°ĶëŀįëĭĪëĭ¤":1055,"ìĸ´ëĸ":1056,"Ġëĸ¨":1057,"íĹ¤ìĸ´ì§Ħì§Ģ":1058,"»¤":1059,"¬ëĬĶ":1060,"ëĤ¨ìŀĲì¹ľêµ¬ê°Ģ":1061,"Ġíŀĺëĵľ":1062,"ìĹ°ìķł":1063,"Ġê°ĢëĬ¥":1064,"íķ©ëĭĪëĭ¤":1065,"ëĭ¤ëĬĶ":1066,"íķĺëĬĶê²Į":1067,"êµŃ":1068,"Ġíŀĺëĵł":1069,"ìĹ¬ìŀĲì¹ľêµ¬ê°Ģ":1070,"ìĶ©":1071,"íĥĿ":1072,"ìŀħëĭĪëĭ¤":1073,"ìķĦì§ģ":1074,"ìłĳ":1075,"ê·¸ëŁ°":1076,"ìħ¨":1077,"ì½":1078,"Ł½":1079,"Ġì±":1080,"ìĦľë¡ľ":1081,"ĠìķĮìķĦ":1082,"Ġë¨¹ê³ł":1083,"ĠìķĪëĲ":1084,"ë¦¬ëĬĶ":1085,"ê²°íĺ¼":1086,"ìĤ´":1087,"Ġë¬¸":1088,"ìĹħ":1089,"ë§Ľ":1090,"Ġíķ´ìļĶ":1091,"ë°ľ":1092,"ìĻĶ":1093,"ë¨¹":1094,"Ġì¡°ê¸Ī":1095,"ìĿ´ìĹĪ":1096,"ìķĦë¬´":1097,"íĻ©":1098,"ìłģìĿ¸":1099,"Ġìĭ«ìĸ´":1100,"ìĵ°":1101,"ìķĺë":1102,"Ġë°°":1103,"ëł¥":1104,"ëłĩê²Į":1105,"Ġê·Ģ":1106,"ĠìĥĿê°ģíķ´ìļĶ":1107,"Ġë¶Ģë":1108,"ê»ĺ":1109,"ľ´":1110,"ìĿ´íĬ¸":1111,"ëĤĺìļĶ":1112,"Ġë³Ģ":1113,"íĻĶë¥¼":1114,"ĠëĨĢ":1115,"ĠìķĦëĭĪë":1116,"ë©":1117,"íĴ":1118,"Ġìĵ°":1119,"ë§¤":1120,"ë³´ê³ł":1121,"Īë¡ľ":1122,"ìĬ¨":1123,"ìĿ¸ê°Ģ":1124,"ìĬ¤ëŁ¬":1125,"©ë¶Ħ":1126,"ìī":1127,"ĥ¥":1128,"ĠìĤ¬ë":1129,"ë¯¸":1130,"Ġì¹ľêµ¬":1131,"Ġëĸł":1132,"Ġíķĺë©´":1133,"Ł¼":1134,"íķĺì£ł":1135,"ìľĦ":1136,"ëªħ":1137,"Ġíŀĺëĵ¤ìĸ´":1138,"Ġë²Ħ":1139,"ĳľíĺĦ":1140,"´íĨ¡":1141,"íİ":1142,"Ġê°ĻìĿ´":1143,"ìĪĺë":1144,"µľ":1145,"Ĳëį°":1146,"ê²¼":1147,"Ġì¢ĭê²łìĸ´ìļĶ":1148,"Ġìłģ":1149,"Ġê±±ìłķ":1150,"ì§ĿëħĢ":1151,"Ġìĸ´ëĸ¨":1152,"Ġíķłê¹Į":1153,"³´ìĦ¸ìļĶ":1154,"ìĿ´ë":1155,"¸ë¦":1156,"ìĿ¸ì§Ģ":1157,"ĠìķĬëĬĶ":1158,"ĠìĤ¬ê·Ģ":1159,"Ġìļ°":1160,"íı°":1161,"ë´ĲìļĶ":1162,"ìĤ¬ë":1163,"ĺìĿ´":1164,"Ġìŀĺë":1165,"¸ë¡ľ":1166,"ĠìŀĪìĹĪ":1167,"ê°ĻìĿ´":1168,"Ġê²°íĺ¼":1169,"Ġê°Ĳìłķ":1170,"ëĨ":1171,"ĠëĦ":1172,"ì§Ĳ":1173,"ìĺĢ":1174,"ĠìŀĪìľ¼ë©´":1175,"ĠìĿ´ìĥģ":1176,"íĺĢ":1177,"ĠìķĪëı¼":1178,"¶Ħ":1179,"ë¡":1180,"íķĺëĦ¤":1181,"ë§ī":1182,"ĠìķĬìĿĦ":1183,"Ġë§Ĳíķ´ë³´ìĦ¸ìļĶ":1184,"Ġëª°ëĿ¼ìļĶ":1185,"ĠíĶ¼":1186,"ì±":1187,"ìĤ":1188,"ì¹¨":1189,"ë¦Ħ":1190,"ë°©":1191,"ëĤ¨ìŀĲ":1192,"ëıĪ":1193,"Ġì§Ħì§ľ":1194,"Ġìŀł":1195,"ê°ĢëĬĶ":1196,"íĺ¸":1197,"ì¡±":1198,"Ġê·¸ëŁ´":1199,"ĠìĦľ":1200,"Ġë§ĪìĿĮìĿĦ":1201,"Ġë¯¸":1202,"Ġê´Ģìĭ¬":1203,"ì¼ľ":1204,"ìŀ¬":1205,"ĠëĪĪ":1206,"ëĦĪ":1207,"ìŀĬ":1208,"Ġëĭµ":1209,"Ġë§İìķĦ":1210,"Ġë¨¼ìłĢ":1211,"¸ëłĪ":1212,"ĠëĨĵ":1213,"¶ģê¸Ī":1214,"ĬĲ":1215,"ëĭ¤ê°Ģ":1216,"ê¸°ëıĦ":1217,"íķĺëĬĶëį°":1218,"ĠëĲĲ":1219,"ëŀĺ":1220,"ĠìĦ±":1221,"ì¡Įìĸ´":1222,"ëĪĦ":1223,"Ġê³ĦìĨį":1224,"Īë¡ľìļ´":1225,"¶Ģ":1226,"Ġ1":1227,"Ġëĵ¯":1228,"Ġê¿Ī":1229,"ìķ½":1230,"ìĹ¬ë":1231,"Ġê°Ħ":1232,"ìĻľ":1233,"Ġíķ¨":1234,"ê²łì§Ģë§Į":1235,"Ġë¯¿":1236,"Ġìĸ´ëĸ¨ê¹ĮìļĶ":1237,"ëĺĲ":1238,"ê¸ī":1239,"ĠìŀĪëĬĶëį°":1240,"ŀĺëıĦ":1241,"ĠìĥĿê°ģíķ´ë³´ìĦ¸ìļĶ":1242,"ĠëĤ´ê°Ģ":1243,"íĬ¸ëłĪ":1244,"ĠìĨį":1245,"Ġíĺ¼":1246,"Ġìī¬":1247,"ãħł":1248,"ì³Ĳ":1249,"ĠíŀĺëĵľëĦ¤":1250,"ê²©":1251,"ĠìłĢ":1252,"ë°Ľ":1253,"Ġë¶Ħ":1254,"ì¶Ķ":1255,"¸ëł¨":1256,"Ġìĸ¸":1257,"Ġì£¼ìĦ¸ìļĶ":1258,"Ġì¹ľêµ¬ë":1259,"ëŁ¬":1260,"Ġìŀ¬ë":1261,"íĸĪëįĺ":1262,"ë¶Ģë":1263,"íħĲëį°":1264,"íĶĪ":1265,"ìĸĳ":1266,"ìĺ¤ëĬ":1267,"¸ëł¥":1268,"ĠëĬĲëĤ":1269,"ëķĮ":1270,"ìį":1271,"įľ":1272,"ëĭĪê¹Į":1273,"Ġíķ´ëıĦ":1274,"íĺķ":1275,"ĠíĥĢëĬĶ":1276,"Ġëĭ¹ìĭł":1277,"ëĮĢë¡ľ":1278,"ëŃĲ":1279,"¢ħ":1280,"ª¨":1281,"½ì§Ģ":1282,"íľ´":1283,"Ġì¦":1284,"ĠíĳľíĺĦ":1285,"Ġë§Ĳê³ł":1286,"Ġë§İìĿĢ":1287,"ìĹĪìĸ´":1288,"Ġê·¸ëŁ°":1289,"Ġê¸°ìĸµ":1290,"ĠíĻĶ":1291,"ë´":1292,"íĪ":1293,"ëĭ¤ìĭľ":1294,"ê¸°ë¥¼":1295,"ìĥĪ":1296,"ĠëĤĺë¥¼":1297,"ê°ľìĽĶ":1298,"ë´Ĳ":1299,"ĠìĤ":1300,"ëĭ¬ëĿ¼":1301,"Ġíı":1302,"Ġë°ĺ":1303,"ĠìĤ¬ëŀĮìĿĦ":1304,"ĠìĿ´ìłľ":1305,"ì¹ľìĿ´":1306,"ê±°ëĤĺ":1307,"ì°¸":1308,"Ġë§Įíģ¼":1309,"Ġë¶Ī":1310,"Ġìłķë§Ĳ":1311,"ĠìĦłíĥĿ":1312,"ĠëĶ°ëĿ¼":1313,"íĿ":1314,"ìķĺëĬĶëį°":1315,"ĠìĤ¬ëŀĮìĿĢ":1316,"ĠìĿ´íķ´":1317,"Ġìĺ¬":1318,"ĠìķĬìķĦ":1319,"íĶĮ":1320,"Ġê¸°ë¶Ħ":1321,"ĠëıĻ":1322,"ĠëķĮë¬¸":1323,"ì¶ľ":1324,"ĠíķĺëĤĺ":1325,"ìŀĪëĬĶ":1326,"íĽĦíļĮ":1327,"ëĪĪ":1328,"íĭ":1329,"Ł¬ë":1330,"ê°Ī":1331,"ìĺģ":1332,"ìŀĲê¸°":1333,"ëłĪ":1334,"ĠìĿ´ìľł":1335,"Ġìĭ¶ìĿĢ":1336,"Ġê°Ģê³ł":1337,"Ġê·¸ëł":1338,"ĠëĪĦ":1339,"íĹĺ":1340,"Ġëį°ìĿ´íĬ¸":1341,"ì²ĺëŁ¼":1342,"ĠëıĮìķĦ":1343,"ª»":1344,"ê°ĳ":1345,"ìĸ´ëıĦ":1346,"ĠíĮ":1347,"Ġì¢ĭê²łëĦ¤ìļĶ":1348,"íĻķ":1349,"ĠëĬ¦":1350,"¿Ĳ":1351,"Ńìĥģ":1352,"Ġìŀ¡":1353,"ê°ĢìļĶ":1354,"Ġìķŀ":1355,"ìĺ¨":1356,"Ġìĭ¬":1357,"Ġê°ĻìĿĢëį°":1358,"Ġë³´ëĤ´":1359,"ì²´":1360,"ĠëŃĺ":1361,"íĮħ":1362,"ìľ¼ìĦ¸ìļĶ":1363,"Ġìĸ¼":1364,"ê²½ìĵ°":1365,"ĠíĽĦíļĮ":1366,"ìĽĢìĿ´":1367,"Ĥĺë´ĲìļĶ":1368,"íķ´ì£¼":1369,"ĠìĿ´ëłĩê²Į":1370,"ĠìĹ¬íĸī":1371,"ìį¸ëĤ¨":1372,"Ġíķĺë£¨":1373,"ìģĺ":1374,"ì¡°ê¸Ī":1375,"íŀĺëĵ¤":1376,"êµ°ìļĶ":1377,"Ġì±Ļ":1378,"íĬ¸ëłĪìĬ¤":1379,"íķĺëĤĺ":1380,"ìĭ¸":1381,"ìĺ¬":1382,"ĠëĲĺëĬĶ":1383,"Ġëĭ¤ê°Ģ":1384,"ìĤ¬ëŀĳìĿ´":1385,"ëĤ´ìĿ¼":1386,"Ġìĸ´ëĶĶ":1387,"Ġìĸ´ëĸ¡":1388,"ìłģìľ¼ë¡ľ":1389,"Ġë²Ī":1390,"ìħĶ":1391,"ł¤ê³ł":1392,"ĠìķĦëĭĪìĹĲìļĶ":1393,"Ġì§ĿëĤ¨":1394,"ëĶĶ":1395,"ì·¨":1396,"ì»¤":1397,"ĭ¤":1398,"Ġì¢ĭê²łëĭ¤":1399,"Ġìĭ¤":1400,"ìĿ¸ê°Ģë´ĲìļĶ":1401,"ĠìĺĪë":1402,"ìĤ¬ëŀĳìĿĢ":1403,"Ġë°ĶëĿ¼ìļĶ":1404,"íĸĪëĬĶëį°":1405,"ĮĢë¡ľ":1406,"Ġê²°ìłķ":1407,"Ġê³µë¶Ģ":1408,"ì±ħ":1409,"Ġìĥ":1410,"Ġì·¨":1411,"Ġê¼":1412,"ë³Ģ":1413,"íķĺëĦ¤ìļĶ":1414,"ĠìĿ´ë":1415,"ĠìķĦíĶĦ":1416,"Ġìĸ´ëł¤":1417,"Ġë§ĮëĤ":1418,"Ġë§ĮëĤł":1419,"ê·¸ëħĢ":1420,"Ġìĸ´ëķĮ":1421,"ë¶ĢíĦ°":1422,"Ġëª¨ë¥´ê²łìĸ´":1423,"ëģĿ":1424,"ëĶ":1425,"ì¢Ģ":1426,"Ġìŀħ":1427,"ëł¸":1428,"ê±°ëĿ¼":1429,"ë©´ìĦľ":1430,"ĠëķĮê°Ģ":1431,"Ġì¹´íĨ¡":1432,"Ġë¬¼ìĸ´":1433,"Ġê¹¨":1434,"Ġìĸ¸ìłľ":1435,"´ìĭ¬":1436,"ê¿Ī":1437,"ĴĢ":1438,"Ġë´Ĳ":1439,"ì§Ģì§Ģ":1440,"ì¹´":1441,"ëĿ¼ëıĦ":1442,"ì¤Ģ":1443,"ìĹ¬ìŀĲ":1444,"ìłĢëĬĶ":1445,"ìĭľê°ĦìĿ´":1446,"Ġì°¾ìķĦë³´ìĦ¸ìļĶ":1447,"íĤ¤":1448,"Ġíĺ¼ìŀĲ":1449,"ĠëĬĲëĤĮ":1450,"¡Ŀ":1451,"ëľ":1452,"íĳľ":1453,"ĠìĦ¤":1454,"ĠìĿĺ":1455,"ì°©":1456,"Ġìĺģ":1457,"íĻľ":1458,"ìĪĻ":1459,"ĠìĹ°ëĿ½ìĿ´":1460,"ì¶ķ":1461,"ìĬ¤ëŁ½":1462,"¥¸":1463,"ëį":1464,"Ġëĵ":1465,"ìŀ¬ë":1466,"ĠíĨ":1467,"ë§Ŀ":1468,"Ģëŀĳ":1469,"ëĤĺë´Ĳ":1470,"Ġê°Ģë³´ìĦ¸ìļĶ":1471,"Ġê·¸ëħĢ":1472,"ê´ľì°®":1473,"Ġìľł":1474,"ìĿ´ëĿ¼ëıĦ":1475,"Ġìµľ":1476,"ìĿ´ëĤĺ":1477,"ìĿ´ìłł":1478,"¸ëŀĺ":1479,"ê¸°ëĭ¤":1480,"ĠìĥĿê²¼":1481,"ĠìķĦì§ģ":1482,"ëĤ¨ìŀĲì¹ľêµ¬":1483,"ĠìĥĿê°ģíķ´":1484,"Ġë§ĮëĤĺë":1485,"ìĶ¨":1486,"ì¦ĺ":1487,"ìĥĪë¡ľìļ´":1488,"ĠìĽĲ":1489,"ìĤ°":1490,"ì©":1491,"Ġê¶ģê¸Ī":1492,"Ġíĭ":1493,"Ġì¢ĭê²łìĸ´":1494,"Ġìĭ¸":1495,"ĠìĪľ":1496,"ë¦¬ê°Ģ":1497,"íĻĺ":1498,"ê·¸ëŁ´":1499,"ĠìĤ¬ìĿ´":1500,"ì§ģìłĳ":1501,"ì¶©ë¶Ħ":1502,"ë¨¸ë¦¬":1503,"ê°ĻìĿĢ":1504,"ëĲĺ":1505,"Ġíķ¨ê»ĺ":1506,"ê¼":1507,"Ġ3":1508,"ìķĮ":1509,"ì§ĢìļĶ":1510,"ëĿ¼ë©´":1511,"ë¦¬ìĦ¸ìļĶ":1512,"Ġê°ĢëĬĶ":1513,"ìĹ¬íĸī":1514,"ì¹ľêµ¬ê°Ģ":1515,"Ġê·¸ë§Į":1516,"ĠíĺĦ":1517,"»Ĳ":1518,"ì§Ģë§ī":1519,"Ġìķ½":1520,"íķĺë£¨":1521,"ĠìŀĪì£ł":1522,"êµ´":1523,"ĠìķĦíĮĮ":1524,"ì§Ħì§ľ":1525,"íĻĶê°Ģ":1526,"ë¨¼ìłĢ":1527,"ê°ĲìĿ´":1528,"ĠìĹ¬ìŀĲìķł":1529,"ìķĺìĸ´ìļĶ":1530,"Ġë¬¼ìĸ´ë³´ìĦ¸ìļĶ":1531,"´ìĭ¬íŀĪ":1532,"Ġ2":1533,"ìļĶì¦ĺ":1534,"ìĿ´ëĦ¤":1535,"ĠíĴĢ":1536,"Ġë§Ľ":1537,"ĪëĦ¤":1538,"Ġëĭ¬ëĿ¼":1539,"¤ë©´":1540,"ĠìķĬìĿĢ":1541,"ê·¸ëł":1542,"ĠìĻĢ":1543,"Ġìļ´":1544,"Ġì¢ĭìĿĦê¹Į":1545,"íıŃ":1546,"ìĥī":1547,"ìķĺìĸ´":1548,"íķĺëĭĪ":1549,"ê±¸ê¹Į":1550,"ìĭ¶ìĸ´":1551,"ĠíĿĺë":1552,"ìĸ´ëĸ¤":1553,"Ġìŀĺëª»":1554,"Ġì±Ļê²¨":1555,"ê³¤":1556,"íķ´ì§Ģ":1557,"ë³´ë©´":1558,"¼ë¥¸":1559,"ìĬ´":1560,"Ġë³Ħ":1561,"Ġìĭ¶ìĿĢëį°":1562,"Ġë§ĲìķĦìļĶ":1563,"ìĹ¬ìŀĲì¹ľêµ¬":1564,"ìĶĢ":1565,"Ġê´ľì°®ìķĦ":1566,"ĠëıĦìĽĢìĿ´":1567,"Ġë¶Ģëĭ´":1568,"ê²ĥëıĦ":1569,"Ġì¶Ķì²ľ":1570,"Ġìį":1571,"ëĤ¬":1572,"Ġë§Īë":1573,"íķľê°Ģë´ĲìļĶ":1574,"Ġë³µ":1575,"ëĤĺë´ħëĭĪëĭ¤":1576,"ĠìĥĿê°ģìĿ´":1577,"Ġê·¸ë¦¬":1578,"Ġì§ĢëĤĺ":1579,"ê³µë¶Ģ":1580,"Ġë§ŀëĬĶ":1581,"Ġë¹ł":1582,"ëĮĢë°©":1583,"Ġëħ¸ëł¥":1584,"Ġì¦Ĳ":1585,"ĠëķĮë¬¸ìĹĲ":1586,"½ĥ":1587,"Ġëįľ":1588,"Ġë¿Ĳ":1589,"ìĹĦ":1590,"ë³¸":1591,"Ġë§ī":1592,"Ġë§ĺ":1593,"ë¦°":1594,"ĠìķĦë¬´":1595,"ìĿ¼ê¹Į":1596,"ìĭłìĿ´":1597,"ìĪľ":1598,"ëł¤ë³´ìĦ¸ìļĶ":1599,"ĠìĤ¬ëŀĳìĿ´":1600,"ìĹ°ìĿ´":1601,"ìĽĮìļĶ":1602,"Ġë¬´ìĬ¨":1603,"ìľ¼ëĭĪê¹ĮìļĶ":1604,"ĠíĹ¤ìĸ´ì§Ħ":1605,"íĴį":1606,"ìĺ¤ëĬĺëıĦ":1607,"ëĳ":1608,"ĦìłĦ":1609,"ĳìĽĲ":1610,"ĺĳ":1611,"ëĤ¼":1612,"Ġê°Ī":1613,"¸ëĵľ":1614,"ĠìŀĪëĤĺë´ĲìļĶ":1615,"Ġê²½":1616,"Ġë°ľ":1617,"Ġëĭ¤ë":1618,"Ġê°ĻìĿĢ":1619,"ëĤĺë¥¼":1620,"ëĤĺë§Į":1621,"ë¦¬ê³ł":1622,"Ġë§Ĳíķ´":1623,"Ġê°Ģìł¸":1624,"Ġëĭ¤ë¥´":1625,"ëł¤ê³ł":1626,"ìļ´ëıĻ":1627,"ìĭ¬íķĺìĦ¸ìļĶ":1628,"íĸĪëĤĺë´ĲìļĶ":1629,"íķĺë©´ìĦľ":1630,"ëª»":1631,"Ġì£½":1632,"Ġë¨¹ìĸ´":1633,"Ŀ¼ê³ł":1634,"ĠëĤ¨ìŀĲìķł":1635,"ª¨ëĭ":1636,"ìĿ´ëĬĶ":1637,"ê³łë¯¼":1638,"ëĭ¤ìĿĮ":1639,"íķľì§Ģ":1640,"Ġë³¼":1641,"ìĤ¬ëŀĳíķĺëĬĶ":1642,"ìĹ¬ì¹ľ":1643,"ĠìĦ¸":1644,"Ġë¶Ļ":1645,"ëª¸":1646,"Ġê´ľì°®ìķĦìļĶ":1647,"ë¦´ê²ĮìļĶ":1648,"ìĸ¸ìłł":1649,"Ġë´":1650,"ĠìŀĶ":1651,"ìŀĲê¾¸":1652,"ìĬ¬":1653,"ĠìłĲ":1654,"Ġíķ´ë³¼ê¹Į":1655,"ĠëĲľ":1656,"ëĤ¨ì¹ľ":1657,"Ġê³¼":1658,"ëŀĢ":1659,"Ġë§ĮëĤĺëĬĶ":1660,"Ġë§ĲìĿĦ":1661,"ê·¸ëĥ¥":1662,"íļĮìĤ¬":1663,"ê°ĲìĿĦ":1664,"Ġíķľëĭ¬":1665,"ĠíĹ¤ìĸ´ì¡Į":1666,"ĠëĮĢíķľ":1667,"Ġìī½ì§Ģ":1668,"Ġìĺ¤ìĦ¸ìļĶ":1669,"ì§ĿëĤ¨ìĿ´":1670,"ĠìłľìĿ¼":1671,"ĠëĦĺ":1672,"Ġìŀ¬ë¯¸":1673,"ê¿":1674,"ì§ĵ":1675,"Ġê±°ëĿ¼":1676,"ê¸°ë¶Ħ":1677,"Ġëĭ¨":1678,"ëł¨":1679,"ĠìĪł":1680,"Ġê°Ļìķł":1681,"ë§ĮìĹĲ":1682,"ĠìĥĿê°ģìĿĦ":1683,"ì²«":1684,"ĠëĤĺê°Ģ":1685,"Ġê¸¸":1686,"íĶĶ":1687,"ìĸ¼":1688,"ĠìĹ°ëĿ½íķ´ë³´ìĦ¸ìļĶ":1689,"ĠìĿ¼ìĸ´":1690,"ĠìĤ´ê³ł":1691,"ê±´ê°ķ":1692,"ìŀĪê²Į":1693,"íĸīë³µ":1694,"íŀĺëĵł":1695,"ĠíĻķìĿ¸":1696,"¸ëĵľíı°":1697,"ë¬":1698,"ëĶ°":1699,"ìķĪë":1700,"Ġìŀ¥":1701,"ì£¼ë":1702,"íĸ¥":1703,"ĠìĤ¬ëŀĮìĿ´ëŀĳ":1704,"ĠìķĦëĭĲ":1705,"ìĬ¤ë¡ľ":1706,"ê»´":1707,"Ġì¤ĳìļĶíķ´ìļĶ":1708,"Ġìĺ¤ëŀĺ":1709,"Ġê·Ģì°®":1710,"ìĬ¤ëŁ¬ìļ´":1711,"ìį¨":1712,"ëľ»":1713,"¨ë¦¬":1714,"ëĵ¯":1715,"ìĿ´ê°Ģ":1716,"ëĭ¬ë":1717,"íķĺê²łìĸ´ìļĶ":1718,"ĠìĹĨìĿĦ":1719,"êµ¬ëĤĺ":1720,"Ġíķ©ëĭĪëĭ¤":1721,"ĠìĹ¬ìŀĲì¹ľêµ¬":1722,"ìĿ´ë³ĦìĿĦ":1723,"ĠìķĮëł¤":1724,"ĠìķĮìķĺëĬĶëį°":1725,"ê·¸ê²Į":1726,"ĠìĥģíĻ©":1727,"íıī":1728,"ĠíĸĪëĬĶëį°":1729,"Ġì¤ĳìļĶíķľ":1730,"ì²ĺìĿĮ":1731,"íĥľ":1732,"°Į":1733,"ê½ĥ":1734,"ģĶ":1735,"ê°Ķ":1736,"ìŀħ":1737,"Īë¬¼":1738,"ĠìĹĨëĦ¤":1739,"ìĤ¬ëŀĳìĿĺ":1740,"ìĹĪëĬĶëį°":1741,"ĠíķŃìĥģ":1742,"íĻĶìŀ¥":1743,"ìłģìĿ´":1744,"íĬ¸ë":1745,"ë¬´ìĬ¨":1746,"Ġë²Į":1747,"Ġìļ©":1748,"ĠìĬ¬":1749,"ĠìŀĬìĸ´":1750,"ëĲľ":1751,"ê³ĦìĨį":1752,"ìŀĲìĭłìĿĦ":1753,"ì¹ľêµ¬ëŀĳ":1754,"Ġíĥľ":1755,"ĠìĻĶìĸ´":1756,"Ġíģ°":1757,"Ġëĸ¨ìĸ´":1758,"ë§¤ìĿ¼":1759,"ĠìĤ¬ëĬĶ":1760,"ìĪĺë¡Ŀ":1761,"ì¶©ë¶ĦíŀĪ":1762,"íıŃíĴį":1763,"ì¢ħ":1764,"ĩ´":1765,"ìĦ¸ìĥģ":1766,"ĪëĮĢ":1767,"ë§Įíģ¼":1768,"ë°ĺ":1769,"ìĥģëĮĢë°©":1770,"Ġê·¸ëĥ¥":1771,"ĠìĤ¬ëŀĳìĿĦ":1772,"ĠìĤ¬ëŀĳíķĺëĬĶ":1773,"ĠëıĪ":1774,"Ġì§ĢëĤ´":1775,"ĠìĹ°ëĿ½ìĿĦ":1776,"ëª©":1777,"ë¥´ëĬĶ":1778,"ĠëĮĢíĻĶë¥¼":1779,"ê°ľíĮħ":1780,"Ġìĺ¤ëĬĺ":1781,"ë¹ł":1782,"°Ľ":1783,"ê°Ģê³ł":1784,"Ġë§¤":1785,"ĠìĤ¬ëŀĮëĵ¤":1786,"ĠìĤ¬ëŀĮíķľíħĮ":1787,"ë¶Ī":1788,"Ġë§ĲìĶĢ":1789,"ë§ĪìĦ¸ìļĶ":1790,"ĠìĹ°ìĬµ":1791,"Ġì§Ģê¸Ī":1792,"ë¯¸ëł¨":1793,"Ġì£¼ë":1794,"Ġì¡´":1795,"Ġì¶ķ":1796,"ê²°êµŃ":1797,"Ġíĺ¸":1798,"Ġê´Ģê³Ħ":1799,"ĠìĽĥ":1800,"ì¹ľêµ¬ëĵ¤":1801,"ĠëĲĺëĤĺ":1802,"Ġìĭłê²½ìĵ°":1803,"Ġêµ¬":1804,"ìĸ´ëĸ»ê²Į":1805,"Ġë¬¸ìłľ":1806,"ìĻĶìĸ´":1807,"ëł¥ìĿ´":1808,"ìī¬":1809,"ëĭ¬ëĿ¼ê³ł":1810,"ĠëŃĺê¹Į":1811,"Ġíĭ°":1812,"Ġì´":1813,"ĠëĶ":1814,"ĺë©´":1815,"ĺë¯¸":1816,"ê°Īë":1817,"ëĤ¬ë":1818,"Ġíŀĺ":1819,"ë§¨":1820,"Ġê°ĸ":1821,"ĠìĹĦ":1822,"ĠìŀĪëĭ¤ë©´":1823,"ê¸°ë¡ľ":1824,"ëĤĺê³ł":1825,"ĢëŁ¬":1826,"Ġì¢ĭìķĦíķł":1827,"Ġìĭ¶ìĸ´ìļĶ":1828,"įĶëĭĪ":1829,"Ġë§ĮëĤ¨":1830,"ĠëĤĺíķľíħĮ":1831,"Ġëª»íķĺ":1832,"ĠëģĬ":1833,"ĠëĲĺìĹĪ":1834,"Ġëª¨ë¥´ê²łìĸ´ìļĶ":1835,"ĠìŀĲìĭłìĿĦ":1836,"ìĹĨìĿ´":1837,"ì½Ķ":1838,"ì§ĿëħĢê°Ģ":1839,"Ġê·¸ëłĩ":1840,"ì»¤íĶ¼":1841,"Ġê¼Ń":1842,"ĠíĨµ":1843,"ĠìĪľê°Ħ":1844,"£Į":1845,"¹ë³µ":1846,"ì´":1847,"Ķì§ģ":1848,"Ġê¾":1849,"ĠìĿ¼ë":1850,"ì¹ł":1851,"Ġë§Īìĭľ":1852,"Ġê²ĥìĿ´":1853,"Ġë³´ëĬĶ":1854,"ê·¸ëŀĺëıĦ":1855,"ìĨĲ":1856,"íĹ¤ìĸ´ì§Ģê³ł":1857,"ê±´ê°Ģ":1858,"Ġìĥģê´Ģ":1859,"ë¦¬ë¥¼":1860,"íı¬":1861,"ĠëĤĺë§Į":1862,"ìĺ¤ëĬĺìĿĢ":1863,"Ġë§ĮëĤĺê³ł":1864,"ĠìľĦë¡ľ":1865,"ìģĺê²Į":1866,"Ġìĸ´ëĸ¡íķ´":1867,"!!":1868,"µê´Ģ":1869,"íĩ´":1870,"ł¨":1871,"Ġì»¤":1872,"ìĸ´ìłľ":1873,"¬ë¦¬":1874,"Ġíļ":1875,"Ġë§Ŀ":1876,"ìĹĲëıĦ":1877,"ìĬ¹":1878,"Ġì§ģ":1879,"ìĽł":1880,"ë¦¬ì§Ģ":1881,"ë§Īëĭ¤":1882,"Ġìĸ´ëĸ¤":1883,"Ġì¹ĺ":1884,"ĠìłķëıĦ":1885,"Ġëª¨ìĬµ":1886,"Ġê±¸ê¹Į":1887,"ĠìĹ¬ìŀĲê°Ģ":1888,"íģ¬":1889,"ĠìĬµê´Ģ":1890,"íĹĪ":1891,"Ġì§ĿëħĢ":1892,"ì²ľíŀĪ":1893,"ĠìĬ¤íĬ¸ëłĪìĬ¤":1894,"ëĥĲ":1895,"ĠìĦľë¡ľ":1896,"Ġëĭµëĭµ":1897,"Ġëĵ£":1898,"ê·¸ëłĩê²Į":1899,"Ġë³Ħë¡ľ":1900,"ìĹĦë§Ī":1901,"ĥĲ":1902,"Ĳĺ":1903,"Ġê¿":1904,"ì§Ģê°Ģ":1905,"íķ´ì§Ī":1906,"Ġê°ĳ":1907,"Ġê°Ķ":1908,"ê¸°ëĬĶ":1909,"ê¸°ê¹Įì§Ģ":1910,"ê±°ìķ¼":1911,"ì°¬":1912,"ĠëĤĺìĻĢ":1913,"ëł¤ìļĶ":1914,"ìĿ´ë³ĦìĿĢ":1915,"ë§ĪìĿĮìĿĦ":1916,"ëıĻìķĪ":1917,"ĠíĹ¤ìĸ´ì§Ģ":1918,"ê°ĻìķĦ":1919,"ĠëĤ¨ìŀĲê°Ģ":1920,"ĠìĿ¸ìłķ":1921,"ĠíĥĪ":1922,"¬ëĬĶëį°":1923,"Ġì¹ľêµ¬ê°Ģ":1924,"íİ´":1925,"Ġíı¬":1926,"ĠìĺĪë»Ĳ":1927,"ĠìĹĦì²Ń":1928,"Ĥ¤":1929,"ħķ":1930,"ê³łë°±":1931,"ĠíĤ¤":1932,"ĠìĭĿ":1933,"ĠìĤ¬ëŀĮëıĦ":1934,"ĠìĿ´ìĸ´":1935,"ĠìķĦëĬĶ":1936,"ìĿ¼ì§¸":1937,"ìłķìĿ´":1938,"ëĤ¨íİ¸":1939,"ì£¼ëĬĶ":1940,"Ġê·¸ëŀĺ":1941,"Ġì§Ģì¼ľ":1942,"ĠìĤ¬ìĦ¸ìļĶ":1943,"Ġìĭľê°ĦìĿĦ":1944,"ĠìĤ´ìķĦ":1945,"ĠìĤ´íİ´":1946,"Ġì¶©ë¶Ħ":1947,"ĠëŃĲê°Ģ":1948,"ĠíķĺëĬĶëį°":1949,"ĠìłĦíĻĶ":1950,"Ġë¯¸ëł¨":1951,"ìķĺìľ¼ë©´":1952,"Ġíķĺì£ł":1953,"ì§Ģê¸ĪëıĦ":1954,"ĠíĿĲ":1955,"Ġê¸°ëĭ¤ëł¤":1956,"Ġë©ĭ":1957,"Ġì¶Ķìĸµ":1958,"ĠíĻķìĭ¤":1959,"ìķĦì§ģëıĦ":1960,"Ġëĭ¤ê°Ģê°Ģ":1961,"ëĦ":1962,"ĵĿ":1963,"Ġë´ĲìļĶ":1964,"ìĿ´ë©´":1965,"ìĹĩ":1966,"ìŀĶ":1967,"ë§ĺ":1968,"íķĺìĭľ":1969,"íķĺê²łëĦ¤ìļĶ":1970,"Īë°©":1971,"ëĤĺíķľíħĮ":1972,"ĠìĤ¬ëŀĮëĵ¤ìĿ´":1973,"ìĿ¸ìĥĿ":1974,"ë°¥":1975,"ê±°ë¦¬":1976,"ìĿ¼ìĿ´":1977,"ì°į":1978,"ĠíŀĺëĤ´":1979,"Ġë°Ķë":1980,"Ġê¸°ëĮĢ":1981,"ĠíķĻ":1982,"ĠìĹ¬ì¹ľ":1983,"ë§ĪìĿĮìĿĺ":1984,"ìļ°ë¦¬":1985,"¸ëł¤":1986,"Ġë°ĽìķĦëĵ¤ìĿ´":1987,"ĠìĺĪìĿĺ":1988,"ë¶Ģëª¨ëĭ":1989,"íĪ¬":1990,"µìĪĻ":1991,"İĮ":1992,"Ĵ¤":1993,"ĠëĦĪ":1994,"ìĿĳ":1995,"íķĳ":1996,"ìĿ´ì§Ģ":1997,"ìķŀ":1998,"ìĸ´ìĦľ":1999,"íķ´ì¤ĺ":2000,"ìłĢëŀĳ":2001,"¸ëŀĺë":2002,"ê¹Ĳ":2003,"ĠëĤľ":2004,"¼ë¡ľ":2005,"Ġë°ĺë":2006,"Ġê·¹ë³µ":2007,"ĠëĤĺìĦľ":2008,"Ġë§İìķĺìĸ´ìļĶ":2009,"ì¡´":2010,"Ġì°į":2011,"Ġë°Ķê¿":2012,"ìĥĿíĻľ":2013,"ìĺ¤ëŀĺ":2014,"ĠëĲĺìĸ´":2015,"ĠëĲĺê¸¸":2016,"ê²łì§ĢìļĶ":2017,"ĠìŀĬíĺĢ":2018,"ë§İìĿĢ":2019,"Ġì§ĳìĹĲ":2020,"ì³¤":2021,"ĠìķĦëĭĮëį°":2022,"Ġíģ¬":2023,"ĠìķĦëĭĪëĿ¼":2024,"ìĬ¤ëŁ¬ìĽĮ":2025,"Ġë¯¿ìĸ´ìļĶ":2026,"Ġë¿ĲìĿ´ìĹĲìļĶ":2027,"ì»":2028,"ĭĪ":2029,"ìĦ¤":2030,"¬ëł¤":2031,"ëĬĶì§Ģ":2032,"ê¸Ģ":2033,"ĠìŀĪëĤĺ":2034,"ê·¹":2035,"ëłµ":2036,"Ģë¡ľ":2037,"ëĤĺëıĦ":2038,"Ġë§Īì£¼":2039,"Ġìĸ´ì©":2040,"ĠìķĬì£ł":2041,"Ġê°Ģìŀ¥":2042,"ë§Īì§Ģë§ī":2043,"ĠëĤĺìĿĦ":2044,"ìŀ¥ìĿ´":2045,"Ġíŀĺëĵ¤ëĭ¤":2046,"Ġíŀĺëĵ¤ìĹĪ":2047,"ìĺ¤ëŀ":2048,"ĠëŃĶ":2049,"ë§ĪìĿĮìĹĲ":2050,"ì¶°":2051,"Ġë°Ľê³ł":2052,"ë¨¸":2053,"Ġë¬´ìĭľ":2054,"ĠìĿ¸ìĥĿ":2055,"ìŀĲìĭłìĿĺ":2056,"ì§ĿëĤ¨íķľíħĮ":2057,"ëĥĪ":2058,"Ġì¡°ê¸ĪìĶ©":2059,"ì¡°ê¸Īë§Į":2060,"Ġë§Īëł¨":2061,"Ġë³µìŀ¡":2062,"Ġë°ĶëĢ":2063,"º¼":2064,"ìµľ":2065,"łĢ":2066,"Ġì¢ħ":2067,"Ġëĳ":2068,"íķ¸ëĵľíı°":2069,"ëĭ¤ëĭĪ":2070,"íķĺê¸¸":2071,"ĠìĹ´ìĭ¬íŀĪ":2072,"Ġê±°ì£ł":2073,"Ġì§ľ":2074,"ëĤĺë©´":2075,"ìĿ¸ìĹ°ìĿ´":2076,"ĠìķĦíĶĪ":2077,"Ġê°ĢìĦľ":2078,"ê·¸ë¶Ħ":2079,"ĠìŀĲì£¼":2080,"ë²Į":2081,"ëı¼":2082,"ĠìĹ°ëĿ½íķ´":2083,"ìĤ¬ê·Ģ":2084,"Ġë§ĪìĿĮìĹĲ":2085,"Ġëª¨ëĳĲ":2086,"ê°Ģë´ħëĭĪëĭ¤":2087,"ĠëĤłìĿ´":2088,"ĠëĬĲê»´":2089,"Ġìłķë¦¬ê°Ģ":2090,"ĠíĶĦ":2091,"ë§ĽìŀĪê²Į":2092,"ë¨¹ê³ł":2093,"ìĿ´ìĹĪìĿĦ":2094,"ë©ĭ":2095,"ìĤ¬ë¥¼":2096,"ĠìŀĪìĹĪëĤĺë´ĲìļĶ":2097,"ĠëĨĵìķĦ":2098,"ìĹ¬ë³´ìĦ¸ìļĶ":2099,"ê²©ìĿ´":2100,"Ġìļ´ëıĻ":2101,"Ġì£¼ë¬´":2102,"ĠíļĮ":2103,"·ê°Īë":2104,"ëŀĺëıĦ":2105,"Ġìĵ":2106,"Ġëķ":2107,"ìĦĿ":2108,"ìŀĸ":2109,"ìķĦì¹¨":2110,"ĠíĦ":2111,"ëĤĺìģľ":2112,"ĠìĪĺë":2113,"Ġëª©":2114,"Ġëªĩ":2115,"Ġì¢ĭìķĦíķ´":2116,"Ġìĺ¨":2117,"Ġê°ĢìĬ´":2118,"ë§ĪìĬ¤":2119,"ĠìŀĲì²´":2120,"ĠìĤ¬ëŀĳíķľ":2121,"ìĸ¼ë¥¸":2122,"Ġíŀĺëĵ¤ê²Į":2123,"ĠìķĮê²Į":2124,"ê°Ģë´Ĳ":2125,"ìļ°ëĬĶ":2126,"íĹ¤ìĸ´ì§Ģ":2127,"ìĨĮê°ľíĮħ":2128,"ĠíķĦìļĶíķľ":2129,"Ġì¡°ìĭ¬íķĺìĦ¸ìļĶ":2130,"ĠíĸīëıĻ":2131,"íĺĦìĭ¤":2132,"ëĭ¹ìĭłìĿ´":2133,"ĠìľĦíķ´":2134,"Ġë§Įëĵ¤ìĸ´":2135,"Ġëĭ¤ëħĢ":2136,"ìĸ¸ìłłê°Ħ":2137,"Ġëª»íķĺê²łìĸ´":2138,"¹ł":2139,"ëįĺ":2140,"Ġëľ":2141,"íķĦ":2142,"ìļķ":2143,"ìĿ´ê³ł":2144,"ìķħ":2145,"ìĹŃ":2146,"ìķĦìĦľ":2147,"ê°Ģì¡±":2148,"ë§Īë":2149,"Ġê°ľ":2150,"ĠëĤ«":2151,"ìķ¼ì£ł":2152,"ìķ¼ê²łëĭ¤":2153,"ĠìĿ´ê²¨":2154,"Ġìłĳ":2155,"ë°¤":2156,"ĠìĹĨìĿ´":2157,"ê±°ìļ´":2158,"ëŀĮ":2159,"ìĪŃ":2160,"ĠëĤĺìĺ¤":2161,"íĸĪìĸ´ìļĶ":2162,"ìĿ´ë³ĦíĽĦ":2163,"ë¥´ê³ł":2164,"ë¨¸ë¦":2165,"ê°Ĳê¸°":2166,"ĠëĲĺì§Ģ":2167,"ĠëŃĲìķ¼":2168,"ĠìłĦìĹĲ":2169,"ì¤ĳìĹĲ":2170,"ĠíĸĪìĸ´":2171,"Ġì§ĿìĤ¬ëŀĳ":2172,"Ġë¹¨ë¦¬":2173,"ëĭ¹ìĭłìĿĺ":2174,"ìĸ¸ìłľ":2175,"ìŀłìĭľ":2176,"ĠëĳĲëł¤":2177,"Ġê³³ìľ¼ë¡ľ":2178,"íĤ¨":2179,"íİĺ":2180,"ìĿ´ëŁ°":2181,"Ġìĸ¼ë§Ī":2182,"Ġë¨¹ìĸ´ìķ¼ì§Ģ":2183,"ì§ĵë§Ĳ":2184,"Ġì£¼ë¬´ìĦ¸ìļĶ":2185,"ëĸ":2186,"ĠìĮ":2187,"ìĿ´ìĥģ":2188,"ìķ¼ë":2189,"Ġìŀ¬":2190,"íķľê²Į":2191,"íķľëį°":2192,"¼ë¦¬":2193,"Ġê²¬ë":2194,"ì¹´íĨ¡":2195,"Ġíķ´ì£¼ìĦ¸ìļĶ":2196,"ĠìĹĨì£ł":2197,"Ġìĭ¶ëĦ¤ìļĶ":2198,"ìłķìĭł":2199,"ĠìĥĿê°ģëĤĺ":2200,"Ġë³´ë©´":2201,"Ġë³´ìĹ¬":2202,"Ġê°Ģì§Ģ":2203,"Ġëĭ¤ë¥¼":2204,"ĠëĤĺìķĦ":2205,"Ġë§İìķĦìļĶ":2206,"ëĵ¤ìĿĢ":2207,"ëıħ":2208,"ĠìĹ°ëĿ½íķĺê³ł":2209,"Ġê´´":2210,"ìłĦíĻĶ":2211,"ĠìĤ¬ê·":2212,"ĠìĤ¬ì§Ħ":2213,"ìĬ¤íĬ¸ëłĪìĬ¤":2214,"ë¯¿":2215,"ì§ģìŀ¥":2216,"ê°Ĳìłķ":2217,"Ġìļķ":2218,"ëĤłìĶ¨":2219,"Ġìĸĺ":2220,"ĠëĤĺëĪ":2221,"ĠíķĦìļĶíķ´":2222,"ĠíķĦìļĶíķ´ìļĶ":2223,"Ġê´ľì°®ìĿĦê¹Į":2224,"ìł¸ìļĶ":2225,"Ġìī¬ìĸ´":2226,"Ġì²ľ":2227,"ìĿ´ëĿ¼ê³ł":2228,"Ġë¹Į":2229,"ìķĺëĤĺë´ĲìļĶ":2230,"ĠìķĬìķĦëıĦ":2231,"Ġê·¸ëłĩê²Į":2232,"Ġë§ĮëĤ¬ìĸ´":2233,"ĠìĺģíĻĶ":2234,"Ġìµľê³ł":2235,"íĻĺìĬ¹":2236,"Ġê°Ģìł¸ë³´ìĦ¸ìļĶ":2237,"ĠíŀĺìĿ´":2238,"©ìłĦ":2239,"¬ìľ¼ë©´":2240,"Ġëĥ":2241,"ĠëĮĢë¡ľ":2242,"Ġìŀĳ":2243,"ê°ĢìĦ¸ìļĶ":2244,"ĠíĬ":2245,"ë§ŀ":2246,"ê²łìĬµëĭĪëĭ¤":2247,"ì¹Ń":2248,"ë¦¼":2249,"ëĤĺëĦ¤":2250,"ìĭľìĽĲ":2251,"ĠìĹĨëĦ¤ìļĶ":2252,"Ġì¢ĭìķĦíķĺê²Į":2253,"ìĿ¼ìĿĦ":2254,"Ġìĺ·":2255,"Ġì°©":2256,"ìĭ¬ìľ¼ë¡ľ":2257,"íĸĪìľ¼ë©´":2258,"ĠëķĮê¹Įì§Ģ":2259,"ĠìķĮë°Ķ":2260,"Ġê±´ì§Ģ":2261,"Ġì¤ĳìĹĲ":2262,"Ġë¬´ìĦľ":2263,"ĠíĹ¤ìĸ´ì§Ĳ":2264,"ì¦Ĳ":2265,"Ġì£¼ëĬĶ":2266,"Ġì¤ĳìļĶíķĺì§Ģ":2267,"íķĻêµĲ":2268,"ĠëıĦìĻĢ":2269,"Ġìķłê°Ģ":2270,"ì²ľì²ľíŀĪ":2271,"ìĽĢìĿĦ":2272,"Ġë©Ģ":2273,"ĠíĹ·ê°Īë":2274,"ìķĦë¬´ëŀĺëıĦ":2275,"Ġë¶Ģë¶Ħ":2276,"ìŀ¬íļĮ":2277,"Ġìŀ¬ë°Į":2278,"íĭ°":2279,"íķ´ì£¼ëĬĶ":2280,"ì¶ķíķĺ":2281,"ìĬ¤ëŁ½ê²Į":2282,"ĠíĺĦìĭ¤":2283,"Ġìį¨":2284,"ĠíĻķìĿ¸íķ´ë³´ìĦ¸ìļĶ":2285,"Ġê·Ģì°®ìķĦ":2286,"ĠìĤ´íİ´ë³´ìĦ¸ìļĶ":2287,"ĠìĺĪìĿĺê°Ģ":2288,"??":2289,"¯¤":2290,"¼íķĳ":2291,"íį":2292,"íĥģ":2293,"ĩ¼íķĳ":2294,"ĸìĹĲ":2295,"ìĿ¼ë":2296,"ìĿ´ëłĩê²Į":2297,"ìĸ´ë¨¸":2298,"íķ´ìķ¼ì§Ģ":2299,"íķĺê²łì£ł":2300,"ĪëĦ¤ìļĶ":2301,"ì£½":2302,"ĠìĿ½":2303,"ĠìĿĺë¯¸":2304,"ì¹ĺë":2305,"Ġë°¥":2306,"ĠìĥĿê¸¸":2307,"ë°Ģ":2308,"ìĭłê²½ìĵ°":2309,"ĠìķĪíķ´":2310,"Ġë°ĶëĿ¼":2311,"ĠìĤ¬ëŀĳíķ´ì£¼ìĦ¸ìļĶ":2312,"ëħĲ":2313,"ĠìĻĦìłĦ":2314,"Ġíŀĺëĵ¤ì£ł":2315,"ìĿ´ë³ĦìĿ´":2316,"ìĿ´ë³Ħíķľì§Ģ":2317,"Ġë¨¹ìľ¼ë©´":2318,"Ġë°ĽìĿĦ":2319,"Ġë²ķ":2320,"ê±´ì§Ģ":2321,"ĠìĥģëĮĢ":2322,"Ġìĥģì²ĺë":2323,"ìĸ´ëĬĲ":2324,"ĠëĵľëĬĶ":2325,"ìľ¼ëĭĪ":2326,"ë°ĶëŀĮ":2327,"Ġì²«":2328,"Ġì²Ļ":2329,"Ġì²Ń":2330,"Ġìłľê°Ģ":2331,"ëª¨ëĵł":2332,"ĠíĹĪ":2333,"Ġê³łë¯¼ìĿ´ìķ¼":2334,"ĠìķĪëĲĺëĬĶ":2335,"ë©Ķ":2336,"ĠìĤ¬ê·ĢëĬĶ":2337,"ãħłãħł":2338,"Ł¬ë©´":2339,"ĠíĮĮ":2340,"ĠëĬ¦ì§Ģ":2341,"ĠìķŀìĹĲ":2342,"ĠíĿĺëłĢ":2343,"ĠëĤ¨ìŀĲìķłê°Ģ":2344,"ëĤ¨íİ¸ìĿ´":2345,"ìĺ¤ëŀľ":2346,"Ġì§ľì¦Ŀ":2347,"©°":2348,"¯¼":2349,"½ê²Į":2350,"ëĺĳ":2351,"ë£Į":2352,"ì¯¤":2353,"Ġ.":2354,"ìĦŃ":2355,"¬ë§":2356,"ìĭŃ":2357,"ì£¼ë©´":2358,"ê¸°ë§Į":2359,"ê¸°ìĸµ":2360,"ê²łëĦ¤":2361,"ëł¤ë":2362,"Ġì§Īë":2363,"Ġê°ĻìĬµëĭĪëĭ¤":2364,"ĠìķĦíĶĶ":2365,"ĠìĹĨëĭ¤ë©´":2366,"Ġë§ĪìħĶ":2367,"ĠìķĬê³ł":2368,"ìĤ¬ëŀĳìĹĲ":2369,"ìĤ¬ëŀĳíķľ":2370,"ì¤Ģë¹Ħ":2371,"ìĥģì²ĺ":2372,"ìĻ¸ë¡ľ":2373,"ìĹĪëĤĺë´ĲìļĶ":2374,"íĶ¼ë":2375,"ìļ´ëªħ":2376,"ĠìŀĺíķĺëĬĶ":2377,"ëıĮ":2378,"Ġíŀĺëĵ¤ìĸ´ìļĶ":2379,"ë¶Ģëĭ´":2380,"ĠìļĶ":2381,"ĠëĨĢëŁ¬":2382,"ë¦¬ë©´":2383,"Ġì£¼ë§Ĳ":2384,"ìħĺ":2385,"ĠëĪĪë¬¼":2386,"ĠíĥĢê³ł":2387,"Ġê´Ģë¦¬":2388,"ìĿ´ëĿ¼ëĬĶ":2389,"ìĦ±ê³µ":2390,"Ġë¹Ħìĭ¸":2391,"Ġë¶Ģì¡±":2392,"Ġíİ¸ìĿ´":2393,"ĠìŀĲìĭłìĿ´":2394,"ëĭ¹ìĭłìĿĢ":2395,"Ġíĸīë³µíķ´":2396,"ĠìķĦëĭĮì§Ģ":2397,"Ġê³³ìĿ´":2398,"ĠìķĪëĲĺ":2399,"ìĤ¬ëĬĶ":2400,"Ġê°ĲìłķìĿĦ":2401,"ĠíĶ¼ê³¤":2402,"ìĺ¤ëĬĺë":2403,"ë´Ħ":2404,"Ġìĸ¸ìłľëĤĺ":2405,"ĠìĦ¤ëłĪ":2406,"Ġë¶Ļìŀ¡":2407,"ìĬ¬íĶĪ":2408,"ìķĪëħķ":2409,"Ġíĥľìĸ´":2410,"ĠëĶ±":2411,"ëĤ¬ëĦ¤":2412,"Ġê·¸ëŀĺìļĶ":2413,"ê¶ģê¸Ī":2414,"ëŁ½":2415,"ìĵ":2416,"Ĳìĸ´":2417,"ĵê³ł":2418,"ĠìĶ":2419,"Ġë´ħëĭĪëĭ¤":2420,"íķŃìĥģ":2421,"ê²¬":2422,"ìĹĪëĦ¤":2423,"ê°ĢëĦ¤":2424,"ê³łìĥĿ":2425,"Ġì¢ĭê²łì£ł":2426,"ĠëĤĺëĬĶ":2427,"ĠìĿĮ":2428,"ëĤĺì¤ĳìĹĲ":2429,"Ġëĭ¬":2430,"Ġëĭ´":2431,"Ġì§Ī":2432,"ìĽĥ":2433,"Ġíķ´ë´ĲìļĶ":2434,"ĠìĥĿìĿ¼":2435,"Ġìĸ´ëłµ":2436,"Ġê°ĢìĦ¸ìļĶ":2437,"ì²Ļ":2438,"ëĤ´ê³ł":2439,"ìĻ¸":2440,"Ġìĭľì¼ľ":2441,"ëħ¸":2442,"ëħ¸ëł¥":2443,"Ġìŀĺíķł":2444,"Ġìŀĺíķĺê³ł":2445,"ìĭ¬ìĿĦ":2446,"ëĮĢìļĶ":2447,"ìļ°ë©´":2448,"Ġì¤ĳìĿ¸ëį°":2449,"íĹ¤ìĸ´ì§Ĳ":2450,"ĠìĨĲ":2451,"ĠìĨĶì§ģ":2452,"ë¨¼":2453,"ëĭ¹íŀĪ":2454,"ĠëĨĴ":2455,"ĠìŀĪëĬĶì§Ģ":2456,"Ġì¢ĭìĿĢëį°":2457,"ìľłê°Ģ":2458,"ëĲł":2459,"ìĤ¬ëŀĮìĿĢ":2460,"Ġê¹Ĭ":2461,"ãħİ":2462,"ëģ¼":2463,"ìĭ¶ëĭ¤":2464,"ĠíĿĶ":2465,"ĠíĹ¤":2466,"íķ¨ê»ĺ":2467,"ĠëĲĺëĦ¤":2468,"ĠëĲĲìĸ´":2469,"¶ĢíĦ°":2470,"ì¶Ķìĸµ":2471,"Ġê¸°ë¶ĦìĿ´":2472,"ĠìĿ´ìľłê°Ģ":2473,"íĻķìĭ¤":2474,"Ġìĸ¼êµ´":2475,"ëĶ±":2476,"ĠìĹ¬ìŀĲìķłê°Ģ":2477,"ĠíĹ¤ìĸ´ì¡ĮìĬµëĭĪëĭ¤":2478,"ëĶ°ëľ»":2479,"ĠìķĮëł¤ì¤ĺ":2480,"Ġì¡´ì¤ĳ":2481,"Ġê°ĳìŀĲê¸°":2482,"ìŀĸìķĦìļĶ":2483,"íį¼":2484,"»Ķ":2485,"ĢìĿ´":2486,"Ĳľ":2487,"Łģ":2488,"Ġëĺĳ":2489,"ìĿ´ë²Ī":2490,"ìĸ´ìķ¼":2491,"ìĹĶ":2492,"ìĹ´ìĭ¬íŀĪ":2493,"íķ´ì§ĢëĬĶ":2494,"ê°Ģë¥¼":2495,"íķĺëįĺ":2496,"ê¸Īë°©":2497,"¸ë¥¼":2498,"ë³´ëĬĶê²Į":2499,"íķľë²Ī":2500,"ìŀĲëĬĶ":2501,"ìŀĲìĹ°":2502,"ĠìĿĳìĽĲ":2503,"ĠìĿµìĪĻ":2504,"ê¸°ìĦ¸ìļĶ":2505,"ìĿĮìĿ´":2506,"Ġíķ´ìĦľ":2507,"Ġë§ĪìļĶ":2508,"ìĭłê°Ģë´ĲìļĶ":2509,"ĠìķĬê¸¸":2510,"Ġë§ĲìĿ´":2511,"ĵľë¦´ê²ĮìļĶ":2512,"ĠëĤĺìģľ":2513,"Ġê¸´":2514,"ë¡ľë§¨":2515,"ìĥģëĮĢ":2516,"ìĥģìĿ´ìĹĲìļĶ":2517,"ìĻĦìłĦ":2518,"Ġìĸ´ëĬĲ":2519,"ĠìŀĲìĹ°":2520,"ë²½":2521,"ë²ł":2522,"ìĭ¬ìĿ´":2523,"ĠëĤ¨ì¹ľ":2524,"ĠëķĮëıĦ":2525,"Ġì¹´":2526,"ê°ĢëģĶ":2527,"Ġíķĺëĭ¤":2528,"Ġíķľë²Ī":2529,"Ġìļ¸":2530,"ĠìĿ´ë³ĦìĿĦ":2531,"ĠìĿ´ë³ĦìĿĢ":2532,"Ġê·¸ê²Į":2533,"ìĭĿìĿĦ":2534,"Ġë¬¼ìĸ´ë":2535,"Ġìĭ«ëĭ¤":2536,"Ġíķĺìħ¨":2537,"Ġê¹Į":2538,"ìĥĿê°ģìĿĦ":2539,"ì§Ģê¸ĪìĿĢ":2540,"Ġëį°ëł¤":2541,"ëª¨ë¥´ëĬĶ":2542,"ëĿ¼ê³łìļĶ":2543,"ì¤Ħê¹Į":2544,"Ġìĭłê²½":2545,"Ġë³ĢíĻĶê°Ģ":2546,"ìľĦë¡ľ":2547,"ĠìķĬëĬĶëĭ¤ë©´":2548,"Ġìļ°ìļ¸":2549,"Ġê´Ģìĭ¬ìĿ´":2550,"ĠëĪĪìĿĦ":2551,"Ġê°Ħëĭ¤":2552,"Ġìī¬ìļ´":2553,"ĠìĤ¶":2554,"íĭ±":2555,"ìĺģíĻĶ":2556,"ĠëĪĦêµ¬":2557,"ëĶĶìĸ´":2558,"ì±ħíķĺì§Ģ":2559,"Ġìĸ´ëł¤ìĽĮ":2560,"ëį§":2561,"ĠíĹ¤ìĸ´ì§Ħì§Ģ":2562,"ĠìķĦëĭĲê¹ĮìļĶ":2563,"Ġìĭłê²½ìĵ°ì§Ģ":2564,"ìī¬ìļ´":2565,"ëĵ":2566,"Ġ5":2567,"Ŀ¼ë©´":2568,"Ġì½":2569,"ìĿĺë":2570,"íķĦìļĶ":2571,"ìĿ´ë°":2572,"ì§§":2573,"ì§Īë":2574,"ê²ģ":2575,"íķ´ì¡Į":2576,"íķ´ìł¸":2577,"ìķĦë³´ìĦ¸ìļĶ":2578,"ê°ĢìĬ´":2579,"Ġíİ":2580,"ë³¼":2581,"íķĺëł¤":2582,"íķĺëĤĺë":2583,"ĠìĹ´":2584,"ĠìŀĪìĬµëĭĪëĭ¤":2585,"ê¹Ŀ":2586,"íķľê±°":2587,"ìŀĲë¦¬":2588,"Ġê±°ê¸°ê¹Įì§Ģ":2589,"ĵ¤ìĸ´":2590,"ìķ¼íķł":2591,"Ġë³¼ê¹Į":2592,"ĠìķĦì¹¨":2593,"ì°½":2594,"Ġê²ĥìĿĦ":2595,"Ġìĸ´ìļ":2596,"Ġëĭ¤íĸī":2597,"ê·¸ë¦¬":2598,"ìĽĮì§Ī":2599,"ìłĦíŀĪ":2600,"ìĬµê´Ģ":2601,"ìĿ´ë³ĦìĿĺ":2602,"ĠìķĮê³ł":2603,"ĠìĿ¼ì°į":2604,"Ġíĸ¥":2605,"ìĬ¤íĥĢ":2606,"Ġëª»íķĺëĬĶ":2607,"Ġë°ĽëĬĶ":2608,"ìŀĺíķł":2609,"Ġë°ĶëŀĮ":2610,"Ġìĸ¼ë¥¸":2611,"ĠíĽĦíıŃíĴį":2612,"Ġë§ŀì¶°":2613,"Ġë§ĮëĤĺì§Ģ":2614,"ĠìĨĮì¤ĳ":2615,"ëĭµëĭµ":2616,"íŀĺëĤ´":2617,"ë¹Ħê°Ģ":2618,"ìĥĿê°ģìĿ´":2619,"ìĥĿê°ģë³´ëĭ¤":2620,"ì§ĳìĹĲ":2621,"ãħľ":2622,"Ġëħ¸ëŀĺ":2623,"ìŀłê¹Ĳ":2624,"ĠìĬ¤ìĬ¤ë¡ľ":2625,"Ġë¬¸ìłľê°Ģ":2626,"ë§ĽìŀĪëĬĶ":2627,"Ġë²Ħíħ":2628,"ĠìĤ¬ê·Ģê³ł":2629,"ë¡Ŀ":2630,"Ġìī¬ê³ł":2631,"Ġëĭ¹ìĭłìĿĦ":2632,"ĠìĥĪë¡ľìļ´":2633,"Ġë¬¼ìĸ´ë³´ëĬĶ":2634,"ĠìłĲìłĲ":2635,"Ġë°ĽìķĦëĵ¤ìĿ´ëĬĶ":2636,"ĠëŃĶì§Ģ":2637,"Ġìŀ¬íļĮ":2638,"ë¡ľë§¨íĭ±":2639,"ìĿ´ë°į":2640,"¶Į":2641,"¸ìĹħ":2642,"íĳ":2643,"Ġ6":2644,"į¤":2645,"ıĻ":2646,"ìĿ´ìĸ´":2647,"ìĿ´ëĭ¤":2648,"ìĹ¼":2649,"íķ´ì¤":2650,"íķ´ë´ĲìļĶ":2651,"Ġíľ´":2652,"Ġë§¨":2653,"ê²ĮìŀĦ":2654,"ë³´ìĹ¬":2655,"ëĤĺìĿ´":2656,"ëĤĺìĦľ":2657,"Ġê°ĻëĦ¤ìļĶ":2658,"Ġíķ´ê²°":2659,"¤ëį¤":2660,"Ġë§Īì§Ģë§ī":2661,"ìĭłê²½":2662,"Ġê²ĥë³´ëĭ¤":2663,"ĠìķĬìķĺìľ¼ë©´":2664,"Ġë§ĲíķĺìĦ¸ìļĶ":2665,"Ġê°Ģê¸°":2666,"Ġê°Ģì§Ģê³ł":2667,"ìĤ¬ëŀĳìĿĦ":2668,"ĠìķĪëĤĺ":2669,"ëĵ¤ìĿĦ":2670,"ì§Ħìłķ":2671,"ê·¸ëŀĺ":2672,"ĠìĤ¬ëŀĳìĿĢ":2673,"ĠìĤ¬ëŀĳíķĺê³ł":2674,"Ġê¸°íļĮ":2675,"íĸĪëĭ¤":2676,"ĠìĹ°ëĿ½íķ´ëıĦ":2677,"ìĥĿëĭ":2678,"ĠìĻ¸ë¡ľ":2679,"ĠëĤ¨ìŀĲì¹ľêµ¬":2680,"ĠìĤ¬ëŀĮìĿ´ëĦ¤ìļĶ":2681,"ĠìĿ¼ìĿĢ":2682,"ìĬ¤ìĬ¤ë¡ľ":2683,"Ġìłķìĭł":2684,"Ġì¢ĭìķĦíķĺëĬĶê²Į":2685,"Ġëª»íķ´":2686,"Ġê³łìĥĿ":2687,"Ġë¨¹ìĿĦ":2688,"ìļ°ê³ł":2689,"Ġë²Ĺ":2690,"ĠëĬ¥":2691,"ìĺ¤ìĦ¸ìļĶ":2692,"Ġëª¨ë¥´ëĬĶ":2693,"ĠìŀĬì§Ģ":2694,"ĠìŀĬëĬĶ":2695,"Ġê°Ģë©´":2696,"ĠìĨĮìĭĿ":2697,"ìĦ±ìĿ´":2698,"Ġë°©ë²ķìĿ´":2699,"ì¼Ģ":2700,"ëŃĶ":2701,"ëŃĺ":2702,"ìĹĨëĬĶ":2703,"ë²Ħë¦¬ìĦ¸ìļĶ":2704,"Ġëĸ¨ëł¤":2705,"ë¡Ń":2706,"ĠìĦ±ê³µ":2707,"ìį¸ë":2708,"ê°ĳìŀĲê¸°":2709,"Ġìĭ¤ìĪĺ":2710,"ĠìĺĪë¯¼":2711,"ĠìĿ´ëŁ°":2712,"ëĶ©":2713,"ì¤ĢíŀĪ":2714,"ê´ľì°®ìĿĢ":2715,"ê¼Ń":2716,"Ġìķ½ìĨį":2717,"Ġê²½ìļ°":2718,"ëĭ¤ìĿĮìĹĲëĬĶ":2719,"Ġë´¤":2720,"ì´Ī":2721,"Ġê¾¸":2722,"íĩ´ê·¼":2723,"Ġê¿¨":2724,"ĠíŀĺëĤ´ìĦ¸ìļĶ":2725,"ĠìĮĵ":2726,"ĠíĹ¤ìķĦ":2727,"¦Ħ":2728,"êº¼":2729,"ëĬ¥":2730,"Ġ4":2731,"ĦìĥĪ":2732,"Ńìłľ":2733,"ĠìĥĢ":2734,"ìĿ´ê¸¸":2735,"ìĿ´ëĵł":2736,"ìĿ´íĬ¸ë":2737,"ìĹ´":2738,"ìŀĺë":2739,"ê°Ģì§Ģ":2740,"Ġíħ":2741,"íķĺëł¤ê³ł":2742,"ĠìĹ¬ë":2743,"ĠìŀĪëĦ¤ìļĶ":2744,"ĠìŀĪê²łìĸ´ìļĶ":2745,"ĠìŀĪëĤĺìļĶ":2746,"ĠìŀĪìŀĸìķĦìļĶ":2747,"íķľëĭ¤":2748,"íķľëĭ¬":2749,"Īë²":2750,"ëĭĪê°Ģ":2751,"ëį°ìĿ´íĬ¸":2752,"ĠìĤ¬ëŀĮìĹĲ":2753,"Ġì§§":2754,"Ģëħ":2755,"Ġëª¸":2756,"ĠìĥĿê¸°":2757,"ìĭľì¼ľ":2758,"ìĭľíĹĺ":2759,"ì£¼ê³ł":2760,"ì£¼ìĿ¼":2761,"ì£¼ë§Ĳ":2762,"ì£¼ë³Ģ":2763,"ëŀĲ":2764,"Ġê±¸ë¦":2765,"Ġë§ĮëĤľ":2766,"Ġë³´ì§Ģ":2767,"Ġë³´ëŁ¬":2768,"Ġê°Ģìķ¼ì§Ģ":2769,"ì²ł":2770,"ìĪ¨":2771,"ĠëĤĺìĺ¨":2772,"ê·¸ëŁ¬":2773,"ìľ¼ë©´ìĦľ":2774,"Ġë¨¸ë¦¬":2775,"ìĭ¬íķ´":2776,"ìŀ¥ìĿĦ":2777,"ìĤ¬ê°Ģ":2778,"ìĬ¤ë§ĪìĬ¤":2779,"Ġëª¨ëĵł":2780,"Ġì£¼ë©´":2781,"ìļ°ìĤ°":2782,"Ġë°Ľìķĺìĸ´":2783,"íĹ¤ìĸ´ì¡Į":2784,"ìķĪíķ´":2785,"ĠëĲĺê³ł":2786,"ê·¸ê±´":2787,"ĠíķĺëĬĶê²Į":2788,"ìĺ¤ëĦ¤":2789,"ìľłë¥¼":2790,"Ġê°ĢëģĶ":2791,"ì°¨ëĭ¨":2792,"ĠìĿ¸ìĹ°":2793,"ĠìĨĮê°ľ":2794,"ì¹ĺê°Ģ":2795,"Ġì²ĺ":2796,"Ġìĺ¤ëĬĶ":2797,"ëĭµëĭĪëĭ¤":2798,"Ġì°¨ëĭ¨":2799,"ĠëıĦìłĦ":2800,"ì§ĿëĤ¨ìĿ´ëŀĳ":2801,"Ġì¤Ģë¹Ħê°Ģ":2802,"Ġëħ¸ëŀĺë":2803,"Ġì§ĳì°©":2804,"Ġë©Ī":2805,"Ġë°ĽìķĦëĵ¤":2806,"íķ¨ìĿ´":2807,"ĠìĬ¤íĥĢ":2808,"ì²ŃìĨĮ":2809,"Ġêµ¬ë":2810,"Ġì±Ħ":2811,"Ġë°°ìĽĮ":2812,"ìī½ì§Ģ":2813,"ìľĦê¸°":2814,"ì§ĿëħĢíķľíħĮ":2815,"ĠìĿ´ìĥģíĺķ":2816,"ĠìķĬìĿĦê¹ĮìļĶ":2817,"Ġì¹ľêµ¬ë¥¼":2818,"Ġëĭ¹ìĭłìĿĺ":2819,"Ġì¦Ŀ":2820,"ĠìĤŃìłľ":2821,"Ġìĸ´ëł¤ìļ´":2822,"ëł¸ìĸ´":2823,"Ġê·¸ëħĢë¥¼":2824,"Ġë§ĮëĤĺë³´ìĦ¸ìļĶ":2825,"Ġë§ĽìŀĪ":2826,"Ġê·¸ë¦¬ê³ł":2827,"Ġì£½ìĿĦ":2828,"íĻĶìŀ¥ìĭ¤":2829,"Ġê°ĸê³ł":2830,"Ġíı¬ê¸°":2831,"ë¶Ģëª¨ëĭĺ":2832,"Ġìĸ´ì©Į":2833,"ĠíĦ°":2834,"íĤ¨ìĭŃ":2835,"¨ëĶ©":2836,"°ķ":2837,"ëİĮ":2838,"ìª":2839,"ĤĺëıĦ":2840,"Łī":2841,"ł¤ë©´":2842,"ëĤ¬ìĸ´":2843,"ê³§":2844,"ëĬĶê±°":2845,"íķĺëĤĺë´ĲìļĶ":2846,"ìĭ«":2847,"ê¹¨":2848,"Ġì¢ĭëĭ¤":2849,"ê¸°ëĤ´":2850,"ê¸°ëĮĢ":2851,"ĠìĤ¬ëŀĮìĹĲê²Į":2852,"ĠìĤ¬ëŀĮê³¼":2853,"ĠìĪ¨":2854,"Ģëįĺ":2855,"Ġë³¸":2856,"ìĿ¸ê±°":2857,"ìĿ¸ê°Ģë´Ĳ":2858,"ìĭľë©´":2859,"ìĭľê¸¸":2860,"Ġì¢ĭìķĦíķľ":2861,"ìłķë¦¬":2862,"ĠìĥĿê°ģíķł":2863,"ĠìķĪíķĺê³ł":2864,"ìĥģíĻ©":2865,"ìĹĪëĭ¤":2866,"ëħ¸ëŀĺ":2867,"Ġë¶Īë":2868,"ìĤ¬ì§Ħ":2869,"ëªĩ":2870,"Ġë§ĪìĿĮìĿĺ":2871,"ĠìĿ¼ìĿĦ":2872,"ĠìĿ¼ìĿ´ìĹĲìļĶ":2873,"íļį":2874,"ê°ĢëĬ¥":2875,"ĠíķĺëĤĺëıĦ":2876,"ìķĪê²½":2877,"íĨł":2878,"ĠëĲĺê²łëĦ¤ìļĶ":2879,"Ġë¬´ìĹĩ":2880,"ĠìķĪëĵ¤ìĸ´":2881,"ìĸ´ëĵľë¦´ê²ĮìļĶ":2882,"ĠëģĿìĿ´":2883,"ĠëģĿëĤ¬":2884,"ìľ¼ìĭľ":2885,"ĠíĹ¤ìĸ´ì¡Įìĸ´":2886,"ìģĺë":2887,"ĠíĻĺ":2888,"Ġê´ľì°®ìĿĦ":2889,"ìĿ´ìłľëĬĶ":2890,"ìĺ¤ëĬĶ":2891,"ĠìŀĬê³ł":2892,"íĽĦíıŃíĴį":2893,"ìŀĳìĿĢ":2894,"ì¡°ìĭ¬íķĺìĦ¸ìļĶ":2895,"ìĤ¬ëŀĮë§Īëĭ¤":2896,"íĦ´":2897,"ĠìĨĮë¦¬":2898,"ëĵľëĶĶìĸ´":2899,"Ġíķĺê¸°":2900,"Ġìķłëŀĳ":2901,"ì¹ľêµ¬ë¥¼":2902,"Ġì§ĳì¤ĳ":2903,"ìĽĶê¸ī":2904,"íķĺëĭ¤ê³ł":2905,"Ġë¬¸ìŀĲ":2906,"ìķĦë¬´ê²ĥëıĦ":2907,"Ġë¶ĢëŁ¬":2908,"íĴĪ":2909,"ĠìłģìĿĳ":2910,"ë¦Ħëĭ¤":2911,"ë°©íķĻ":2912,"ĠìĦľìļ´":2913,"Ġê¿ĪìĹĲ":2914,"ë°Ľê³ł":2915,"Ġì¹ľêµ¬ëŀĳ":2916,"Ġê·¸ëŁ°ê°Ģë´ĲìļĶ":2917,"Ġíıī":2918,"ĠíķĺëĤĺìĶ©":2919,"íĽĦíļĮíķĺì§Ģ":2920,"íĻķìĭłìĿ´":2921,"Ġì§ĿëĤ¨ìĿ´":2922,"ëį¤ëį¤":2923,"ìŀ¬ë¯¸":2924,"ĠíĨ¡":2925,"ĠìķĦì§ģëıĦ":2926,"Ġê¶ģê¸Īíķ´":2927,"íķĺëĭĪê¹Į":2928,"ìĸ¼êµ´":2929,"ë²Įìį¨":2930,"Ġìĸĺê¸°":2931,"ĠëĤĺëĪł":2932,"Ġë¬´ìĦľìĽĮ":2933,"ì¦Ĳê±°ìļ´":2934,"Ġë²Ħíħ¨":2935,"Ġë§¨ëĤł":2936,"..":2937,"¦¬ë":2938,"¸Į":2939,"¿Į":2940,"ìŁģ":2941,"íĳľíĺĦ":2942,"ŀĢ":2943,"íķ©":2944,"ìĿ´ìļĶ":2945,"ê²¼ë":2946,"ìĹĪëįĺ":2947,"ì§ĢëĦ¤":2948,"Ġíĳ":2949,"íķĺëĵľ":2950,"ë§¥":2951,"Ġê°ķ":2952,"ĠìŀĪê³ł":2953,"íķľëıĻìķĪ":2954,"Ġì¢ĭì§Ģ":2955,"ĠìĤ¬ëŀĮìĿĺ":2956,"Ġê°ĻëĦ¤":2957,"ë§ĮëĤľ":2958,"Ġíķ´ë³´ëĬĶ":2959,"ìĿ¸ìĿ´":2960,"ĠìĥĿê¸´":2961,"ĠìĥĿê²¼ë":2962,"ìĭľëĭ¤":2963,"ë°ķ":2964,"Ġì¢ĭìķĦíķĺë©´":2965,"Ġìĭ¶ì§Ģ":2966,"ëĤ¨ì¹ľìĿ´":2967,"Ġê³¨":2968,"ì°Į":2969,"ĠìĥĿê°ģíķĺìĦ¸ìļĶ":2970,"ĠìĥĿê°ģë³´ëĭ¤":2971,"ë¶Ļ":2972,"Ġê°Ģìķ¼":2973,"Ġì¤Ģ":2974,"ĠëĤĺíĥĢ":2975,"Ġê¸Ģ":2976,"ìĥģìĿĦ":2977,"ìĹ¬ì¹ľìĿ´":2978,"ì¹ľêµ¬íķľíħĮ":2979,"ĠìĹ¬ìŀĲì¹ľêµ¬ê°Ģ":2980,"íĸĪìĬµëĭĪëĭ¤":2981,"ìĤ¬ê·":2982,"Ġê²ĮìŀĦ":2983,"Ġì¹ĺë":2984,"íļ¨":2985,"Ġì¢ĭìķĦíķĺëĬĶì§Ģ":2986,"Ġëª»íķĺê³ł":2987,"ìį¸íĥĢ":2988,"¦¬ê²Į":2989,"ĠëģĿëĤ´":2990,"Ġê²°êµŃ":2991,"ĠëĮĢíĻĶ":2992,"ê²°ìłķ":2993,"ëħĦì§¸":2994,"ëįĶëĿ¼ê³łìļĶ":2995,"Ġë§ĮëĤĺìĦ¸ìļĶ":2996,"Ġë§ĮëĤĺìŀĲê³ł":2997,"ìĦłìĥĿëĭ":2998,"Ġë¶Ģíĥģ":2999,"ëģĶ":3000,"³´ëĭ¤":3001,"Ġíİ¸ì§Ģ":3002,"ĠìľĦíķľ":3003,"Ġë©Ķ":3004,"Ġìĭľìŀĳíķ´ë³´ìĦ¸ìļĶ":3005,"ĠíĻķìĭłìĿ´":3006,"ĠìĺĪìģĺê²Į":3007,"ìĦľë¡ľìĹĲê²Į":3008,"Ġë³ĢíĻĶ":3009,"ĠëĨĢìķĦìļĶ":3010,"ë©°":3011,"ë¡ł":3012,"ëĪĦêµ¬ëĤĺ":3013,"Ġë¶Īíİ¸":3014,"ìį¸ëĤ¨ìĿ´":3015,"ì»¤íĶĮ":3016,"Ġëĵ±":3017,"Ġë¶Ģëĭ´ìĬ¤ëŁ¬ìĽĮ":3018,"Ġê³¼ìłķ":3019,"Ġë²Įìį¨":3020,"ĠìĹ°ìĬµìĿĦ":3021,"Ġì´Ī":3022,"¬ë¦¬ìĬ¤ë§ĪìĬ¤":3023,"Ġë°Ķê¿Ķ":3024,"ë©ĭì§Ħ":3025,"ĠëĳĲëł¤ìĽĮ":3026,"ìķ¼ëı¼":3027,"Ġê¹Įë¨¹":3028,"Īë²½":3029,"Ġì²ĺìĿĮ":3030,"íķĺëĵľëł¤ìļĶ":3031,"NS":3032,"SNS":3033,"ªħ":3034,"°ĺ":3035,"²Ī":3036,"³µ":3037,"ħĦ":3038,"ľíŀĪ":3039,"ŀ¬":3040,"ŀĲ":3041,"Ġì¼":3042,"ĠëĴ":3043,"ĠëĬĺ":3044,"ĠëĴ¤":3045,"íķ´ì¤Ħ":3046,"ê°Ģìŀ¥":3047,"ìĿĦì§ĢëıĦ":3048,"ìĺ·":3049,"ìĺĪë":3050,"¸ëĦ¤":3051,"¸ëĵĿ":3052,"íķľê°Ģ":3053,"ê¹Įë´Ĳ":3054,"Ġê±°ì§ĵë§Ĳ":3055,"ìľ¡":3056,"ë¥ĺ":3057,"ĵ¤ìĿ´":3058,"íķłëķĮ":3059,"ĠìĿ´ê¸°":3060,"ìĿ¸ìĿĺ":3061,"ĠëĲĺëĬĶëį°":3062,"ĠìĹĨëĭ¤":3063,"Ġìĸ´íĶĮ":3064,"Ġìĸ´ìĥī":3065,"įĶëĿ¼":3066,"ĠìĥĿê°ģíķĺëĬĶ":3067,"Ġê±¸ë¡ľ":3068,"Ġë³´íĨµ":3069,"Ġê°ĢìŀĲê³ł":3070,"ìĤ¬ëŀĳíķĺë©´":3071,"Ġì¤ĺ":3072,"ì¤¬ìľ¼ë©´":3073,"ìĥģì²ĺë":3074,"ìĻ¸ë":3075,"íķĺì§Ģë§ĪìĦ¸ìļĶ":3076,"Ġë°Ķë³´":3077,"Ġê·¸ëĮĢë¡ľ":3078,"ìĹ°ìĺĪ":3079,"ê±±ìłķ":3080,"ë§Ĳê³ł":3081,"Ġì§Ģì³¤":3082,"Ġíŀĺëĵ¤ì§Ģ":3083,"Ġíŀĺëĵ¤ê²łìĸ´ìļĶ":3084,"ĠíĸĪëįĺ":3085,"Ġì¢ĭìķĦíķĺëĬĶëį°":3086,"Ġëª»íķľ":3087,"Ġë¨¹ëĬĶ":3088,"Ġì¢ĭìĿĦíħĲëį°":3089,"Ġë¬´ëĦĪ":3090,"Ġì¶ľ":3091,"Ġìĥģëĭ´":3092,"ìĽĲíķĺëĬĶ":3093,"Ġë¯¸ë¦¬":3094,"Ġì£¼ê³ł":3095,"íģ°":3096,"ĠëĤ¨ìŀĲë¥¼":3097,"Ġê´ľì°®ìĿĢ":3098,"ëħĦìĿ´":3099,"Ġëª¨ë¥´ê²łëĦ¤ìļĶ":3100,"ê´Ģê³Ħ":3101,"íķĺëĭ¤ë©´":3102,"Ġìĭ«ìĿĢ":3103,"ì¹ĺê³ł":3104,"íķĻìĽĲ":3105,"Ġì°¨ìĿ´":3106,"ëĵľìĦ¸ìļĶ":3107,"ìŀĲìĭłìĹĲê²Į":3108,"Ġìĺ¤ë¹ł":3109,"ĠìĿ´ìķ¼ê¸°íķ´ë³´ìĦ¸ìļĶ":3110,"êµ°ëĮĢ":3111,"ĠìĺĪìģľ":3112,"ëĥī":3113,"íĥĪ":3114,"ì½©":3115,"Ġì¡°ê¸Īë§Į":3116,"ìķĺëįĺ":3117,"ìĿ¸ê°ĢìļĶ":3118,"ĠìĿ´ìĥģíķ´":3119,"Ġë¯¸ìĽĮ":3120,"Ġê¿ĪìĿĦ":3121,"ë´ĩ":3122,"ëĪĪìĿ´":3123,"ĠìĥĪ":3124,"ĠìĦ¤ëł":3125,"ĠíĺĦìĥģìĿ´ìĹĲìļĶ":3126,"Ġìŀ¥ëĤľ":3127,"ĠìĥģíĻ©ìĿĦ":3128,"ì¢ħêµĲ":3129,"Ġì¶ķíķĺ":3130,"Ġê°ĢìĬ´ìĿ´":3131,"ë¨¸ë¦¬ë":3132,"Ġì¹´íİĺ":3133,"Ġìĸ´ìļ¸ë¦":3134,"Ġëĭ¤íĸīìĿ´ìĹĲìļĶ":3135,"ıĻìķĪ":3136,"Ģëħģ":3137,"¦°":3138,"ëĴ¤":3139,"ì¸":3140,"ī´":3141,"ıĮ":3142,"ĺìĿĦ":3143,"Ġê½":3144,"ì§Ģë©´":3145,"ìķĦíĶĦ":3146,"ìĿĦê±°ìĺĪìļĶ":3147,"ìĿĦíħĲëį°":3148,"ìĿĦê±°ëĿ¼":3149,"ìĭ±":3150,"¸ëį°":3151,"ĠìŀĪì§Ģ":3152,"ĪëįĶëĭĪ":3153,"Ġê±°ìķ¼":3154,"ëĿ¼ë":3155,"ìĦľê´Ģ":3156,"ì¹ĺëĬĶ":3157,"ëĤĺê²Į":3158,"Ġë°¤":3159,"Ġë°Ģ":3160,"Ġì§Ģë":3161,"ìĽ¨ëĶ©":3162,"ĠìłĪ":3163,"ìĿĮìĿĦ":3164,"ë§ĮìĿ´":3165,"ë§ĮìĿĺ":3166,"Ġíķ´ì¤ĺ":3167,"ëĤĺëŀĳ":3168,"ìĭľìŀĳ":3169,"ĠìķĦëĬĶëį°":3170,"ĠìĹĨëĬĶëį°":3171,"ĠìĹĨìķł":3172,"ê±°ìļ¸":3173,"Ġì¢ĭìķĦíķłê¹Į":3174,"ìĿ¼ì§ĢëıĦ":3175,"ìĭłíĺ¼":3176,"ì£¼ì§Ģ":3177,"ì£¼ê°Ģ":3178,"ĠìĺĨ":3179,"ĠìĥĿê°ģíķĺê³ł":3180,"ĠìĥĿê°ģëĤĺëĬĶ":3181,"ë¶Īë":3182,"ĠìķĬìķĺìĸ´ìļĶ":3183,"Ġê±·":3184,"ĠìķĪìĻĢ":3185,"ìĻĦ":3186,"ĠìŀĲê¸°":3187,"ĠìĤ¬ëŀĳíķł":3188,"ìĹ°íŀĪ":3189,"ìĽĮìĦľ":3190,"Ġê¸°ë³¸":3191,"ìłĦìĹ¬ì¹ľ":3192,"ĠìĻ¸":3193,"ìĤ¬ì¹ľ":3194,"ĠìĤ¬ëŀĮìĿ´ìĹĲìļĶ":3195,"ĠìĿ¼ëıĦ":3196,"ĠëĤ´ëł¤":3197,"Ġìłķë¦¬ë":3198,"Ġê³łì³Ĳ":3199,"Ġê±´ê°Ģ":3200,"ĠëĲłê¹ĮìļĶ":3201,"Ŀ¼ëıĦ":3202,"Ġë²ł":3203,"ĠìĤ´ê¹Į":3204,"ĠíķľìŀĶ":3205,"Ġë¬´ìĦŃ":3206,"Ġë¬´ëİĮ":3207,"Ġì¶©ìłĦ":3208,"ĠëŃĲíķĺì§Ģ":3209,"Ġìĥģì²ĺ":3210,"ìĨĮíķľ":3211,"ì¦Ī":3212,"Ġì£¼ì§Ģ":3213,"ĠíķĦìļĶíķł":3214,"ìĨįìĿ´":3215,"ìł¸ìķ¼":3216,"ĠëĮĢíķ´":3217,"Ġì¡°ìĸ¸":3218,"ĠíĽĦëł¨":3219,"íĽĦëł¨":3220,"ë°Ķìģľ":3221,"ĠìŀĪìĸ´ëıĦ":3222,"ëĪĪë¬¼":3223,"íĹĽ":3224,"ĠíĸĪìľ¼ë©´":3225,"ìĭľê°ĦìĿĦ":3226,"ìĥĿê°ģë§Į":3227,"íĺ¼ìŀĲê°Ģ":3228,"ĠëĬĲëģ¼":3229,"Ġëħ¸":3230,"ëĳĲê³ł":3231,"ĠëĲĺë©´":3232,"Ġê·ĢìĹ¬":3233,"ĠìĤ¬ëĿ¼":3234,"ĠëĸłëĤľ":3235,"ìĪĺë¥¼":3236,"ìĺĢìĸ´":3237,"ĬĲëĿ¼":3238,"ëĭ¤ê°ĢëıĦ":3239,"ëĪĦê°Ģ":3240,"ëĪĦêµ¬ë":3241,"Ġìī¬ìĦ¸ìļĶ":3242,"ĠìĤ°":3243,"ĠìĦłíĥĿìĿ¼":3244,"íĿ¡":3245,"ëłĪê¸°":3246,"ĠìķŀìĹĲìĦľ":3247,"Ġìĭ¬íķ´":3248,"ì¡°ê¸ĪìĶ©":3249,"íķĺëĤĺìĶ©":3250,"ëĤ´ìĿ¼ìĿĢ":3251,"Ġë§ĮëĤ¬ëĬĶëį°":3252,"ìŀ¬ë°Į":3253,"ê·¸ëłĩ":3254,"íķ´ì§Ģë©´":3255,"Ġì§ĢëĤĺê°Ī":3256,"ìĪľê°Ħ":3257,"ê¸°ë¶ĦìĿ´":3258,"Ġì§ģìłĳ":3259,"ĠìĦľë¡ľìĹĲê²Į":3260,"Ġëĵ£ê³ł":3261,"Ġì§Ģì¼ľë³´ìĦ¸ìļĶ":3262,"Ġë°ĶëĢĮ":3263,"Ġë°ĶëĢĶ":3264,"ĠëĨĵìķĦì£¼ìĦ¸ìļĶ":3265,"Ġê´´ë¡Ń":3266,"ĠíĹĪìłĦ":3267,"ìŀĲìĹ°ìĬ¤ëŁ¬ìļ´":3268,"Ġë¬¼ìĸ´ë´Ĳ":3269,"ëŃĶê°Ģ":3270,"Ġìĸ´ì©Įì§Ģ":3271,"¦¼":3272,"¹ìĭľ":3273,"½ëĭĪëĭ¤":3274,"ëķ":3275,"ëįľ":3276,"ëī´":3277,"Ĳł":3278,"ĲëĬĶëį°":3279,"ĶëģĶ":3280,"ŃëĭĪëĭ¤":3281,"ĠìĲ":3282,"Ġë¬":3283,"ìļĶìĿ¼":3284,"ëĭ¥":3285,"ëĭĪë":3286,"ìĸ´ì©":3287,"íķ´ë³¼ê¹Į":3288,"ìķĦìĿ´":3289,"ìķĦíĶĶ":3290,"ê°Ģë©´":3291,"ìĦ¸ë¨¼":3292,"Ġíĳľ":3293,"ë³ĳ":3294,"ë³ĳìĽĲ":3295,"íķĺëĬĺ":3296,"íķĺìħ¨":3297,"ĠìŀĪìľ¼ëĭĪê¹ĮìļĶ":3298,"ê¹Ģ":3299,"Ġê²ł":3300,"ëĤĺê°Ģ":3301,"ìĬ·":3302,"íķłì§Ģ":3303,"ĠìĿ´ìļ©":3304,"Ģë©´":3305,"ë§ĮëĤ¨":3306,"Ġëªħ":3307,"ĠëĲ¨":3308,"ìľ¼ëł¤ê³ł":3309,"ĠìĹĨëĤĺ":3310,"ê±°ëł¤":3311,"ĠìķĬëĦ¤":3312,"ĠìķĬìľ¼ë©´":3313,"Ġë§ĲëıĦ":3314,"Ġê°Ģì¹ĺ":3315,"ë©´ìłĳ":3316,"ìĤ¬ëŀĳíĸĪëįĺ":3317,"Ġë§İì£ł":3318,"Ġë°Ķë¡ľ":3319,"ê·¸ëŁ¼":3320,"Ġê·¸ëŁ¬":3321,"ĠìĤ¬ëŀĳíĸĪëįĺ":3322,"ëħĢëŀĳ":3323,"Ġê¸°ê°Ħ":3324,"Ġíķ¸ëĵľíı°":3325,"ĠìĤ¬ìĭ¤":3326,"ĠëķĮëĬĶ":3327,"ĠëķĮëĦ¤ìļĶ":3328,"ĠëĤ´ëĬĶ":3329,"Ġëª»íķł":3330,"Ġë°Ľì§Ģ":3331,"ìŀĺíķĺëĬĶ":3332,"ëĭ¹íķĺê²Į":3333,"ĠëĲĺì£ł":3334,"ìŀĪìĸ´":3335,"ĠëŃĲëĿ¼ê³ł":3336,"íĮ¨":3337,"ìĸ´ëĶĶ":3338,"ĠìĿ´ë³ĦìĿ´":3339,"ĠìłĦíķ´ë³´ìĦ¸ìļĶ":3340,"Ġì£¼ë³Ģ":3341,"ìĿ¸ëĵ¯":3342,"ĠíķĦìļĶíķĺì£ł":3343,"ì¤ĳìļĶ":3344,"ĠíĥĢëĬĶëį°":3345,"ĠëĤłìĶ¨":3346,"ì§ľì¦Ŀ":3347,"ĠíĸĪìĬµëĭĪëĭ¤":3348,"ì¹ĺì§Ģ":3349,"Ġë¹ĦìĬ·":3350,"ĠëĬĲëł¤":3351,"ìĦłìĿĦ":3352,"ìłĢëıĦìļĶ":3353,"Ġìį¸ëĤ¨":3354,"Ġëª°ëŀĲ":3355,"Ġê¸°ëĭ¤ë¦¬ê³ł":3356,"ìłĲìĭ¬":3357,"ìłĲìłĲ":3358,"ìļ©ê¸°ë¥¼":3359,"ĠìĿ´ìķ¼ê¸°ëĦ¤ìļĶ":3360,"ĠíĹĪë":3361,"íĶ¼ê³¤":3362,"ĠìĻĶëĬĶëį°":3363,"ë²ĦìĬ¤":3364,"ĠìķĮìķĦë³´ìĦ¸ìļĶ":3365,"ĠìķĪëĲĺë":3366,"ìķĦë¬´ë¦¬":3367,"Ġë°°ëł¤":3368,"Ġë°°ìļ°":3369,"Ġë¶Ģëª¨ëĭ":3370,"ĠëĸłëĤĺ":3371,"Ġë²Ħëł¤":3372,"Ġê±±ìłķëı¼":3373,"ìĤ¼":3374,"ĠìĿ´íķ´íķ´ì£¼ìĦ¸ìļĶ":3375,"ĠíĮĶ":3376,"Ġìŀ¡ê³ł":3377,"íķ´ì£¼ê³ł":3378,"íŀĺëĵ¤ê²łì§Ģë§Į":3379,"Ġìĸ´ëķĮìļĶ":3380,"ìŀ¬ë¥¼":3381,"ê´ľì°®ìķĦ":3382,"ĠìĽĲíķĺëĬĶ":3383,"Ġëĭ¬ëĿ¼ê³ł":3384,"Ġê´ľì°®ìķĦì¡Į":3385,"Ġëħ¸ëł¥íķ´ë³´ìĦ¸ìļĶ":3386,"Ġê°Īê¹Į":3387,"ê³łë¯¼ìĿ´":3388,"ê³łë¯¼íķĺê³ł":3389,"ëª¸ìĿ´":3390,"Ġë´Ħ":3391,"ê±´ê°ķìĹĲ":3392,"ìłģìĿ´ëĵł":3393,"ĠìĬ¬íĶĦ":3394,"Ġë§ĲìĶĢíķ´ì£¼ìĦ¸ìļĶ":3395,"ë¯¸ëł¨ìĿ´":3396,"ĠìľĦë¡ľíķ´":3397,"ëĸł":3398,"ëĤłìĶ¨ê°Ģ":3399,"ĠíĹ·ê°Īë¦¬ê²Į":3400,"ìĸ´ëĬĲëį§":3401,"ĠíĿĺëłĢëĦ¤ìļĶ":3402,"¬ë§Ŀ":3403,"ëł¤ëĨ":3404,"íĶ¼ë¶Ģ":3405,"ìĵ¸":3406,"ĠìĬ¤íĥĢìĿ¼":3407,"~~":3408,"¡Ń":3409,"²Ħ":3410,"¸Ķ":3411,"ìĩ¼íķĳ":3412,"ĦëĬĶ":3413,"įìłķ":3414,"Ĳëĭ¨":3415,"Ńì°¬":3416,"ìĿĺë¯¸":3417,"ìĿ´íķ´":3418,"ìĿ´ê²Į":3419,"ìĦ¼":3420,"ìĹ½":3421,"ìĹĪëĦ¤ìļĶ":3422,"ëĤŃ":3423,"ê³¨":3424,"ì§Ģë¡ľ":3425,"ìķĦëĭĪ":3426,"ìķĦíĮĮ":3427,"ìĿĦëķĮ":3428,"ìłĪëĮĢ":3429,"Ġìķ¼":3430,"ë§¤ë":3431,"¸ëıĦ":3432,"¸ë¶Ģ":3433,"ëıĦìĦľê´Ģ":3434,"ĠìŀĪì§Ģë§Į":3435,"ê¹į":3436,"íķľëĭ¤ë©´":3437,"ê¸°ê°Ħ":3438,"ĠìĤ¬ëŀĮìľ¼ë¡ľ":3439,"Ġë³Ģë":3440,"Ġíķ´ìķ¼ì§Ģ":3441,"ìĿ¸íĺķ":3442,"ĠìķĦê¹Į":3443,"ĠìĹĨëĭ¤ê³ł":3444,"ê±°ë¥¼":3445,"Ġì¢ĭìķĦíķ´ëıĦ":3446,"ĠìĥĿê°ģëĤĺëĦ¤":3447,"ĠìķĬê²Į":3448,"ĠìķĬìķĺ":3449,"ĠìķĬìľ¼ëĭĪê¹ĮìļĶ":3450,"Ġë§Įëĵľ":3451,"Ġì¤ĺëıĦ":3452,"ìĪĺëıĦ":3453,"ìĥģìĿ´":3454,"ì§Ħìĭ¬ìľ¼ë¡ľ":3455,"ìĹĪìĸ´ìļĶ":3456,"Ġê·¸ëŀ¬":3457,"ĠìŀĲìľł":3458,"ìĨĶì§ģ":3459,"Ġê¸°ìļ´":3460,"Ġê¸°ìļ¸":3461,"ĠíķĦ":3462,"Ġëıħ":3463,"ĠìĹ¬ì¹ľìĿ´":3464,"Ġì§Ģì³Ĳ":3465,"ìŀ¥ê±°ë¦¬":3466,"ĠìĤ¬ê³ł":3467,"Ġë§ĪìĿĮëıĦ":3468,"ĠìĿ¼ì£¼ìĿ¼":3469,"Ġì¹Ńì°¬":3470,"ìĹĲìĦľëıĦ":3471,"ëĮĢíĻĶë¥¼":3472,"ë¬´ìĹĩ":3473,"ìŀĺíķĺê³ł":3474,"Ġì¡¸ëł¤":3475,"ĠíķłíħĲëį°":3476,"Ġìĥģíĥľ":3477,"ì§Īê¹Į":3478,"ĠìŀĪëĬĶê²Į":3479,"ìĸ´ëĳĲ":3480,"ĠëģĿìĿĢ":3481,"ìľ¼ëĭĪê¹Į":3482,"ĠíķĦìļĶëĬĶ":3483,"Ġê·¸ìĤ¬ëŀĮ":3484,"ìħĢ":3485,"Ġê²°ê³¼":3486,"ĠëĮĢëĭ¨":3487,"ĠíĥĢìĿ´ë°į":3488,"ì¡°ìĭ¬":3489,"Ġë§ĮëĤĺìĦľ":3490,"íĶĦë¡ľ":3491,"Ġì²ĺë":3492,"ìĦ±ê²©ìĿ´":3493,"íĥĢê¹Ŀ":3494,"Ġì°¨ë¶Ħ":3495,"ëĵľëĿ¼":3496,"Ġì°¾ìķĦìĺ¬":3497,"ìĦłìĿĺ":3498,"ìĦłë¬¼":3499,"ì§ĳìķĪ":3500,"ì§ĳì°©":3501,"ëĭ¹ìĭłìĿĦ":3502,"ìļ©ê¸°ëĤ´":3503,"Ġë³´ê³łìĭ¶ìĸ´":3504,"ìŀłìĿ´":3505,"Ġë§Įëĵ¤ìĸ´ë³´ìĦ¸ìļĶ":3506,"Ġíģ´":3507,"Ġêµ°":3508,"ë°°ê°Ģ":3509,"Ġê°ĢëĬ¥íķł":3510,"ìĦľë¡ľìĿĺ":3511,"ìĤ´ì§Ŀ":3512,"ĠìķĦëĭĪëĿ¼ê³ł":3513,"íĴĢ":3514,"Ġìĵ°ëĬĶ":3515,"ë³´ê³łìĭ¶":3516,"ìī½":3517,"Ġë²Ħë¦¬ìĦ¸ìļĶ":3518,"Ġê°ĲìłķìĿ´":3519,"ĠìŀłìĿ´":3520,"íĺ¸íĿ¡":3521,"Ġê´Ģìĭ¬ìĿĦ":3522,"ĠëĪĪìĿ´":3523,"ĠëĪĪìĹĲ":3524,"Ġ10":3525,"ĠìĨįìĥģ":3526,"ĠíĻĶê°Ģ":3527,"íĿĶ":3528,"ì¶ľê·¼":3529,"ĠìĿ´ìľłë¥¼":3530,"ìį¸ëĤ¨íķľíħĮ":3531,"Ġìĸ´ëĸ¡íķĺì§Ģ":3532,"ì·¨ì§ģ":3533,"Ġê²°ìłķìĿ´ìĹĪìĿĦ":3534,"ë©´ìĦľëıĦ":3535,"ìĬ¤ëŁ½ì§Ģ":3536,"Ġìľłì§Ģ":3537,"ê¸°ëĭ¤ë¦¬ëĬĶ":3538,"ĠìĥĿê²¼ìĸ´":3539,"ëĤ¨ìŀĲì¹ľêµ¬ìĿĺ":3540,"Ġê¶ģê¸ĪíķĺëĦ¤ìļĶ":3541,"ĠíĭĢ":3542,"ì¶©ë¶Ħíķľ":3543,"ìķĮë°Ķ":3544,"Ġì§ĢëĤĺê°Ķ":3545,"Ġì¦Ĳê¸°ìĦ¸ìļĶ":3546,"Ġë°ľìłĦ":3547,"ë¬¸ëĵĿ":3548,"Ġì§ĢëĤ´ê³ł":3549,"Ġíĺ¸ê°Ĳ":3550,"ì¹ľêµ¬ëĵ¤ê³¼":3551,"ìĹĦë§Īê°Ģ":3552,"Ġì¶©ë¶ĦíŀĪ":3553,"ĭĪê¹Į":3554,"ê·¹ìłģìľ¼ë¡ľ":3555,"Ġëĳĺ":3556,"Ġëľ»":3557,"Ġê²¬ëİĮ":3558,"Ġê°Ģì§ĢìĦ¸ìļĶ":3559,"ĠíĬ¹":3560,"ìĺ¤ëŀľë§ĮìĹĲ":3561,"íĻķìĭ¤íķľ":3562,"Ġëį°ëł¤ëĭ¤":3563,"íŀĺëĤ´ìĦ¸ìļĶ":3564,"¶Įíĥľ":3565,"ìĿ´ìĸ´íĬ¸":3566,"ìį¸ëħĢ":3567,"Ġê¿¨ìĸ´":3568,"ĠìĥĢìĸ´":3569,"ìŀĺëª»":3570,"ĠíħĲëį°":3571,"ĠìĲ¬":3572,"ì¤ĳìļĶíķľ":3573,"§Ī":3574,"¬ìĬ¤":3575,"½ĳ":3576,"ëŁ°":3577,"ìĮ":3578,"Ġíķĺê²Į":3579,"įķ":3580,"Ľ°":3581,"Ł¬ëĬĶ":3582,"Ġìĩ¼íķĳ":3583,"Ġë»Ķ":3584,"ìĿ´ê±°":3585,"ĺë³´ìĦ¸ìļĶ":3586,"ìķ¡":3587,"ìĸ´ëĤĺ":3588,"íķ´ë¥¼":3589,"ìķĦëĭ":3590,"ìķĦì§Ģ":3591,"ìķĦë¹ł":3592,"ê³łë§Ī":3593,"ĠíĪ":3594,"ëĭ¤ë³´ë©´":3595,"íķĺëŁ¬":3596,"íķĺëĥĲ":3597,"ë§ģ":3598,"Ġê°Īë":3599,"¸ëĿ¼":3600,"ëıĦìłĦ":3601,"ĠìĹŃ":3602,"ĠìŀĪê¸¸":3603,"ĠìŀĪê²łì§Ģ":3604,"ĠìŀĪê²łì£ł":3605,"ìŀĲì¡´":3606,"ĠëĤĺëıĦ":3607,"Ġê±°ëĭĪ":3608,"Ġê±°ê²łì£ł":3609,"¼ëį°":3610,"ìĦľìļ´":3611,"Ġë³ĳ":3612,"ë§ĮëĤĺ":3613,"ëĤĺë³´":3614,"ìĭľê³ł":3615,"ĠëĲ©ëĭĪëĭ¤":3616,"ë°ĺë":3617,"ĠìĹĨìľ¼ë©´":3618,"ê±°ì§ĵë§Ĳ":3619,"íĸĪëĦ¤":3620,"ìĿ¼ê¹ĮìļĶ":3621,"Ġê³§":3622,"Ġìĺ¬ë":3623,"Ġìĺ¬ëł¤":3624,"ĠìĥĿê°ģíķĺì§Ģ":3625,"íķĺê³łìĭ¶":3626,"ĠìĪĺê°Ģ":3627,"ê°ĦìĿĺ":3628,"Ġë§ĲíķĺëĬĶ":3629,"Ġë§ĲìĿ´ìĹĲìļĶ":3630,"Ġê°ĢìļĶ":3631,"Ġëĭ¤ëĭĪ":3632,"ĠìĹ°ìĿ¸":3633,"ìĤ¬ëŀĳíķĺëĬĶëį°":3634,"ì¤¬ìĸ´":3635,"ĠëĤĺìĿ´":3636,"ĠëĤĺìĿĢ":3637,"ĠëĤĺìĻĶ":3638,"ĠëĤĺìĺ¬":3639,"ĠëĤĺìĻĶìĸ´":3640,"Ġë§İìĿĢëį°":3641,"ì¡¸ìĹħ":3642,"Ġì°Į":3643,"ĠìŀĲì¡´":3644,"ĠìŀĲì±ħíķĺì§Ģ":3645,"ĠìŀĪìĿĦê±°ìĺĪìļĶ":3646,"íŀĪë":3647,"ë§ĲìĿĦ":3648,"Ġì§ĢìĽĮ":3649,"ĠìĤ¬ê³¼":3650,"Ġë§ĪìĿĮìĿĢ":3651,"ĠëĤ´ìĿ¼":3652,"ìĺ¤ë©´":3653,"Ġê³łíĨµ":3654,"Ġë¨¹ìĿĦê¹Į":3655,"ìį¸ìĿ´":3656,"Ġìĭľê°ĦìĿĢ":3657,"ê´´":3658,"ĠëĲĺê¸°ëıĦ":3659,"Ġëĵ¤ìĸ´ëĵľë¦´ê²ĮìļĶ":3660,"ìŀĪìĸ´ìļĶ":3661,"ê·¸ë§Į":3662,"ëıĻê±°":3663,"ìĨĮë¦¬ë¥¼":3664,"ìĥĪë²½":3665,"íģ¬ë":3666,"ĠìĹĨìĸ´ìĦľ":3667,"Ġì¡°ìłĪ":3668,"Ġëª¨ë¥´ê³ł":3669,"ĠìŀĬìĿĦ":3670,"ìĭĿìĿ´":3671,"ëĭ¬ìĿ´":3672,"ì°¨ê·¼":3673,"ëĲĺëĬĶ":3674,"Ġê°ĲìĤ¬":3675,"ìĦ±ìľ¼ë¡ľ":3676,"ëĵľë¦´ê²ĮìļĶ":3677,"íŀĺëĵľ":3678,"Ġë¹¼":3679,"ĠìķłíķľíħĮ":3680,"ì§Ģê¸Īì²ĺëŁ¼":3681,"ãħĭ":3682,"ĠìĽĢ":3683,"Ġíİ¸íķł":3684,"ĠìŀĲìĭłìĿĺ":3685,"Ġìłķë¦¬íķĺëĬĶê²Į":3686,"Ġë°©ë²ķìĿ´ìĹĲìļĶ":3687,"ĠìĦłë¬¼ìĿ´":3688,"Ġëª°ëĿ¼":3689,"ëĭ¹ìĭłëıĦ":3690,"ĠëĶ°ë¡ľ":3691,"ĠëĶ°ëľ»":3692,"ìłĲìĿĦ":3693,"ĠìľĦíĹĺ":3694,"ĠìĻĶëĭ¤":3695,"ìŀłìĿĦ":3696,"ĠêµĲ":3697,"ë°°ê³ł":3698,"Ġê°ĢëĬ¥ìĦ±ìĿ´":3699,"êµŃìĸ´":3700,"ĠìķĪëĲĲëĬĶëį°":3701,"ìĿ´ìĹĪìľ¼ë©´":3702,"ìķĺëĭ¤":3703,"ĠëĨĢê³ł":3704,"ĠìķĦëĭĪë©´":3705,"ĠìķĦëĭĪëĿ¼ë©´":3706,"ëĨĵê³ł":3707,"ĠëĦ£":3708,"ĠìķĪëı¼ìļĶ":3709,"ë¡Ģ":3710,"Ġë¯¸ì¹ĺ":3711,"ìŀĬíĺĢ":3712,"ĠëĨĵê³ł":3713,"ĠëĲĲìľ¼ë©´":3714,"ë°ĽìķĦ":3715,"Ġì¹ľêµ¬ëĵ¤":3716,"ëŃĲëĵł":3717,"ë´¤":3718,"ĠëıĻìķĪ":3719,"ê°Īê¹Į":3720,"ĠëĪĦêµ¬ë":3721,"ĠëıĮìķĦìĺ¤":3722,"ĠíĽĦíļĮíķł":3723,"Ġê²°ìłķìĿĦ":3724,"ê·¸ëħĢìĿĺ":3725,"ëģĿìĿ´":3726,"ê¿ĪìĿ´":3727,"Ġë´ĲëıĦ":3728,"ì¹´ëĵľ":3729,"ĠìĥĿê²¼ëĬĶëį°":3730,"Ġë§ĮëĤĺë©´":3731,"ĠìĹ¬ìŀĲìķłíķľíħĮ":3732,"Ġê´ľì°®ìķĦì§Ī":3733,"Ġìį¼":3734,"ĠìĦ¸ìĥģ":3735,"ìĸ¸ìłłê°Ģ":3736,"ì²«ìĤ¬ëŀĳ":3737,"íıīìĨĮ":3738,"Ġëĸ¨ìĸ´ì¡Įìĸ´":3739,"ĠëıĪìĿ´":3740,"Ġë§¤ìĿ¼":3741,"ĠìĤ¬ëŀĮëĵ¤ìĹĲê²Į":3742,"ĠíĨµë³´":3743,"ĠìĺĪë»ĲìļĶ":3744,"Ġì¶©ë¶Ħíķ´ìļĶ":3745,"ĠíĻķìĭ¤íŀĪ":3746,"ĠíķĻêµĲ":3747,"ĠìŀĬíĺĢì§Ģ":3748,"Ġíģ¬ê²Į":3749,"Ġìĸ´ì©Ķ":3750,"ĠíĶĦìĤ¬":3751,"Ġìĵ´":3752,"ĠìĪĺë¡Ŀ":3753,"Ġëľ¨":3754,"ìĸ¸ìłľì¯¤":3755,"Ġê²¬ëĶĶ":3756,"Ġìµľê³łì£ł":3757,"ĠëĥĦìĥĪ":3758,"Ġì°©ê°ģ":3759,"Ġë©Ģìĸ´":3760,"ãħİãħİ":3761,"ĠìŀĲìĹ°ìĬ¤ëŁ½ê²Į":3762,"ê·¸ëŀĺìĦľ":3763,"ĠëĬ¥ëł¥ìĿ´":3764,"Ġê¾¸ì¤ĢíŀĪ":3765,"ĠìĹ¬ëŁ¬":3766,"Ġì±ĦìĽĮ":3767,"ìĥģíĻ©ìĿ´":3768,"Ġë¶ĪëŁ¬":3769,"Ġë¶ĢëŁ¬ìĽĮ":3770,"íķľëıĻìķĪìĿĢ":3771,"ë§ĮëĤľì§Ģ":3772,"ë¶Ļìŀ¡":3773,"ìĥģì²ĺë°Ľ":3774,"ìĹ°ìĺĪìĿ¸":3775,"ìĻĦë²½":3776,"ĠìĲ¬ê³ł":3777,"ns":3778,"sns":3779,"¶Ī":3780,"ëĮ":3781,"ëĴ":3782,"Ġãħł":3783,"ĦëŁ¬":3784,"Ĭ¦":3785,"ĵŃëĭĪëĭ¤":3786,"Ķë¡ľ":3787,"ĠëĿ":3788,"ĠëĦĪë":3789,"ĠëĽ°":3790,"Ġêº¼":3791,"ìĿ´ìĦ¸ìļĶ":3792,"ìĿ´íĮħ":3793,"ìĿ´ëĿ¼ë©´":3794,"ĺë¶ģ":3795,"ì§Ģë¥¼":3796,"Ġìŀĥ":3797,"ìķĦìķ¼":3798,"ìķĦë¦Ħëĭ¤":3799,"ëĭ¤ë¦¬":3800,"ëĭ¤ëĵ¤":3801,"íķĺëĮĢ":3802,"ìĭ¤ë":3803,"íķĺê±°ëĤĺ":3804,"Ġê°ļ":3805,"¸ë©´":3806,"ë³´ëĤ´":3807,"ë³´íĨµ":3808,"ĠìŀĪëĦ¤":3809,"ĠìŀĪëĭ¤ê³ł":3810,"Ġì¢ĭê²łì§Ģ":3811,"Ġì¢ĭì§Ģë§Į":3812,"Ġì¢ĭê²łì§Ģë§Į":3813,"Ġê±°ìłĪ":3814,"ĠìĿĢ":3815,"ë¦½ëĭĪëĭ¤":3816,"¬´ë¦¬":3817,"ĠìĿ´ë¦Ħ":3818,"ë§Įìľ¼ë¡ľ":3819,"ì¹ľíķľ":3820,"ê°ģìŀĲ":3821,"ë°ĸìĹĲ":3822,"ĠìĹĨëĤĺë´ĲìļĶ":3823,"ëĿ¼ëĬĶ":3824,"Ġê·¼":3825,"Ġì¢ĭìķĦíķ´ìļĶ":3826,"Ġë§Īëĭ¤":3827,"ìĿ¼ì°į":3828,"íĺĶ":3829,"íĺ¹ìĭľ":3830,"Ġìĭ¶ëĦ¤":3831,"ëĤ¨ìĿĺ":3832,"Ġê³ģ":3833,"ì°°":3834,"Ġê²ĥìĿĢ":3835,"Ġìĸ´ìłľ":3836,"Ġìĺ¬ëĿ¼":3837,"ĠìĥĿê°ģìĹĲ":3838,"ĠìĥĿê°ģìĿĢ":3839,"ĠìĥĿê°ģìĿ´ìĹĲìļĶ":3840,"Ġë§Įëĵł":3841,"Ġë§Ĳê¹Į":3842,"Ġë§Ĳíķł":3843,"Ġê°Ģê¹Į":3844,"ì²©":3845,"ĠëĤĺìģĺ":3846,"ĠëĤĺìĿ´ê°Ģ":3847,"ëł¤ëıĦ":3848,"ë¡ľìĽĮ":3849,"íķĺì§Ģë§Į":3850,"ê·¸ëŁ¬ë©´":3851,"ê·¸ëıĻìķĪ":3852,"Ġìĭľê¸°":3853,"Ġê·¸ëŁ¬ë©´":3854,"ĠìŀĲê³ł":3855,"ìķłë§¤":3856,"ĠìĤ¬ëŀĳíķ´":3857,"ĠìŀĺìĥĿ":3858,"íŀĺ":3859,"ìĭ¬íĺ¸íĿ¡":3860,"ë§ĲìĶĢ":3861,"Ġì§ĢëĤ¬ëĦ¤":3862,"ìŀ¥ê³ł":3863,"ìŀ¥ìĹĲìĦľ":3864,"ĠìĹ°ëĿ½íķĺëĬĶ":3865,"ĠìĹ°ëĿ½íķĺë©´":3866,"ìłĦìĹĲ":3867,"ìłĦëĤ¨ì¹ľ":3868,"ĠëĤ¨ìŀĲì¹ľêµ¬ê°Ģ":3869,"ĠëĤ¨ê²¨":3870,"ìĤ¬ì¹ľìĿ´":3871,"ĠìĤ¬ìļ©":3872,"ëª½":3873,"Ġíŀĺëĵ¤ê²łì§Ģ":3874,"ĠìĿ¼ìĥģ":3875,"ĠìĿ¼ìĿ´ëĦ¤ìļĶ":3876,"ĠëĤ´ìĦ¸ìļĶ":3877,"ìłģëĭ¹íŀĪ":3878,"ëĮĢíķĻ":3879,"ì¶©ìłĦ":3880,"ìį¸ìĿ¸ëį°":3881,"ìį¸ìĿ¸ì§Ģ":3882,"íĬ¹":3883,"ĠíķĺëĦ¤":3884,"ìŀĪìĿĦ":3885,"ĠëĨĶ":3886,"ĠìĦłíĨ¡":3887,"Ġì¶¥":3888,"ìĽĲìĿĦ":3889,"ìĽĲëŀĺ":3890,"ĠëģĿëĤľ":3891,"ĠëĵľëĦ¤":3892,"ĠëĤĺë©´":3893,"ĠìĹ¬ìŀĲë¥¼":3894,"ĠíķĦìļĶíķĺê²łëĦ¤ìļĶ":3895,"íģ´":3896,"Ġìī¬ëĬĶ":3897,"Ġìī½ê²Į":3898,"ëĲĺë©´":3899,"ìļ¸ê¹Į":3900,"ìĤ¬ëŀĮìĿ´":3901,"ĠìĨĮê°ľíĮħ":3902,"ĠìķĦëĭĪìķ¼":3903,"Ġì¤ĳìļĶíķĺì£ł":3904,"Ġê¹İ":3905,"ìŀĲìĭłìĿ´":3906,"Ġë¹ĦêµĲ":3907,"ìĥĿê°ģíķł":3908,"ëģĹ":3909,"ĠìĽĶ":3910,"ìĹ°ëĿ½ìĿĦ":3911,"Ġíİ¸íķĺê²Į":3912,"ĠìŀĲìĭłìĹĲ":3913,"ĠìłľëĮĢë¡ľ":3914,"Ġê¸°ëĭ¤ëł¤ë³´ìĦ¸ìļĶ":3915,"ëª¨ëĳĲ":3916,"íĨµë³´":3917,"Ġë©į":3918,"Ġê³ĦìłĪ":3919,"Ġíĸīë³µíķĺê²Į":3920,"ìĪłìĿ´":3921,"Ĥĺë´ħëĭĪëĭ¤":3922,"ì§ĿìĤ¬ëŀĳìĿ´":3923,"ìĹĨìĸ´":3924,"ĠìĬ¤íĤ¨ìĭŃ":3925,"íķĺëĭ¤ê°Ģ":3926,"íķĺëĭ¤ë³´ë©´":3927,"Ġê³³ìĹĲ":3928,"Ġê³³ìĹĲìĦľ":3929,"ë²Ħëł¤":3930,"ìħ¨ëĤĺë´ĲìļĶ":3931,"ì½¤":3932,"ì½ľ":3933,"Ł½ëĦ¤ìļĶ":3934,"Ġì±ħ":3935,"ëł¥ìĿĦ":3936,"ê²¼ìĸ´":3937,"Ġìłģìĸ´ë³´ìĦ¸ìļĶ":3938,"Ġìļ°ë¦¬":3939,"ìĺĢëĤĺë´ĲìļĶ":3940,"ĠìĿ´ìĥģíķľ":3941,"ĠíĶ¼íķĺìĦ¸ìļĶ":3942,"ëĤ¨ìŀĲëĵ¤ìĿĢ":3943,"ëıĪìĿ´":3944,"íĺ¸ê°ĲìĿ´":3945,"ëĪĦêµ°":3946,"ĠìłĢë¥¼":3947,"Ġëĭ¹ìĭłìĿ´":3948,"íľ´ê°Ģ":3949,"ĠíĻĶìŀ¥":3950,"ë´ĲëıĦ":3951,"íĿ¥":3952,"ĠëıĻê±°":3953,"ĠíĮĲëĭ¨":3954,"ì·¨ìĹħ":3955,"ĠìķĦíĶĦëĦ¤":3956,"ĠìķĦíĶĦëĦ¤ìļĶ":3957,"ê·¸ëħĢëĬĶ":3958,"ëģĿìĿĦ":3959,"Ġë¬¼ìĸ´ë³´":3960,"ê¿ĪìĹĲ":3961,"ìĹ¬ìŀĲì¹ľêµ¬ëŀĳ":3962,"ëįķ":3963,"ĠìĤ¬ìĿ´ê°Ģ":3964,"ê¼¬ë":3965,"Ġê·¸ë¦¬ìĽĮ":3966,"ĠìķĦë¬´ê²ĥëıĦ":3967,"ëĳĺ":3968,"Ġë§ĮëĤĺëĬĶê²Į":3969,"Ġëĭ¨ëĭ¨":3970,"ìĸ¼ë§Ī":3971,"ĠìķĮëł¤ì£¼ìĦ¸ìļĶ":3972,"Ġìļ©ê¸°ê°Ģ":3973,"ĠíĥľëıĦ":3974,"Ġê·¸ëłĩì§Ģë§Į":3975,"ìĽłìĸ´":3976,"Ġëª¨ìĬµìĿ´":3977,"ĠìĬµê´ĢìĿ´ìĹĲìļĶ":3978,"Ġê°Ķëĭ¤":3979,"Ġì¶ĶìĸµìĿ´":3980,"ĠíĻķìĭ¤íķľ":3981,"Ġë°ĺë³µ":3982,"Ġë°Ķê¿Ģ":3983,"ëĥĪìĸ´":3984,"ìĤ¬ê·Ģê³ł":3985,"Ġìĵ¸":3986,"ìķĦì¹¨ìĹĲ":3987,"ĠìĤ¬ê·Ī":3988,"Ġëĥī":3989,"ëħĲìĿ¼":3990,"Ġìĥģì²ĺë¥¼":3991,"Ġìĥģì²ĺë°Ľ":3992,"Ġì§ľì¦ĿëĤĺ":3993,"ìĥģì²ĺê°Ģ":3994,"ĠëĪĪë¬¼ìĿ´":3995,"ëĲłê¹Į":3996,"ĠíĿĶëĵ¤":3997,"Ġíķĺìħ¨ëĦ¤ìļĶ":3998,"Ġì½Ķ":3999,"Ġê±¸ë¦´":4000,"Ġë©Īì¶Ķ":4001,"Ġë°ĽìķĦëĵ¤ìĹ¬":4002,"Ġê³¨ëĿ¼":4003,"Ġì§Ģì³¤ëĤĺë´ĲìļĶ":4004,"ëĥīìŀ¥ê³ł":4005,"Ġì¶ķíķĺíķ´ìļĶ":4006,"ìķĦë¦Ħëĭ¤ìļ´":4007,"ĠìĤ¬ìļ©íķ´ë³´ìĦ¸ìļĶ":4008,"¡Ģ":4009,"£©":4010,"¤Ħ":4011,"¤ìĽĮ":4012,"°Ķ":4013,"ëĦĪë":4014,"ëŁ¬ë":4015,"ëĵĿ":4016,"Īìĸ´":4017,"ĲĲ":4018,"Ķª":4019,"ļê½ĥ":4020,"ľì§ģ":4021,"ł¥":4022,"Ġìª":4023,"Ġì³":4024,"Ġì»":4025,"Ġëį":4026,"Ġëĵł":4027,"ìĿµìĪĻ":4028,"ìĿ´íĺ¼":4029,"ìĿ´ìľłê°Ģ":4030,"ëĭī":4031,"ìĸ´ìŀ¥":4032,"ê²¹":4033,"ê³³":4034,"ì§ĢëĤĺ":4035,"ì§Ģë§Ī":4036,"ìķĦìĺĪ":4037,"ê°ĢëĿ½":4038,"ĠíĽ":4039,"Ġë§¡":4040,"íķĺëĬĲëĿ¼":4041,"ë§Ļ":4042,"íķĺìŀĲê³ł":4043,"ëıĦìĭľ":4044,"ĠìŀĪê²Į":4045,"ĠìŀĪëĭ¤ëĬĶ":4046,"ĠìŀĪìľ¼ëĭĪ":4047,"ìŀĲì±ħíķĺì§Ģ":4048,"Ġê±°ì§Ģ":4049,"Ġê±°ìĿĺ":4050,"ĠìĿĺë":4051,"íķĺëĬĶì§Ģ":4052,"íķĺëĬĶê±°":4053,"Ġê²¨":4054,"Ġë°Ŀ":4055,"ëį°ìļĶ":4056,"ê·ľì§ģ":4057,"íķłê²ĮìļĶ":4058,"ëłĩ":4059,"ëłĮ":4060,"Ġì§ĵ":4061,"ĠìĿ´ìłł":4062,"ĠìĥĿíĻľ":4063,"ìĭľëĬĶ":4064,"ìĭľê²łìĸ´ìļĶ":4065,"ìĭľìĸ´ë¨¸":4066,"ĠìķĦê»´":4067,"ĠìĹĨê²łëĦ¤ìļĶ":4068,"ê±°ì§Ģ":4069,"ê±°ê°ĻìķĦ":4070,"Ġì¢ĭìķĦíķĺê³ł":4071,"Ġì¢ĭìķĦíķĺëĤĺ":4072,"Ġìĭ¶ìĬµëĭĪëĭ¤":4073,"ìłķëıĦ":4074,"ë¦¬ê²Į":4075,"ë¦¬ê¸°":4076,"ìłľë¥¼":4077,"ĠìĥĿê°ģíķĺë©´":4078,"ëŀľ":4079,"ĠìķĬëĬĶëį°":4080,"ĠìķĬê²łì§Ģë§Į":4081,"Ġë³´ê¸°":4082,"Ġë³´ëĭĪ":4083,"Ġë³´ìĿ´ê³ł":4084,"ë©´ëıĦ":4085,"ëĤ´ëĬĶ":4086,"ĠìķĪíķĺëĬĶ":4087,"ìĥģëĭ´":4088,"Ġë°Ķìģľ":4089,"Ġë°Ķë¹ł":4090,"ì§Ħëĭ¤":4091,"ĠìŀĲê²©ìĿ´":4092,"ĠìĤ¬ëŀĳíķĺì§Ģ":4093,"ë²¼":4094,"ìĹ°ìĿ¸":4095,"Ġìŀĺíķ´":4096,"íŀĮ":4097,"ë§ĲìĿ´":4098,"ë§Ĳíķ´ë³´ìĦ¸ìļĶ":4099,"íĸĪê²łìĸ´ìļĶ":4100,"ìŀ¥ë©´":4101,"ĠìĹ°ëĿ½íķĺì§Ģ":4102,"ĠëĤ¨ìķĦ":4103,"ìĤ¬íļĮ":4104,"ëª°":4105,"ì§ĿëħĢëŀĳ":4106,"ĠëĤ´ìļĶ":4107,"ĠëĤ´ë³´ìĦ¸ìļĶ":4108,"ĠëĤ´ëł¤ëĨ":4109,"ì¢ĭìķĦíķĺë©´":4110,"Ġëª¨ìķĦ":4111,"ëĮĢíı°":4112,"ëĮĢì²´":4113,"ì¶©":4114,"Ġì¤ĳê°Ħ":4115,"Ġìĭľê°ĦëıĦ":4116,"ë¬´ìĽĲ":4117,"ĠíķĺëĬĺ":4118,"ĠíķĺëĤĺë´ĲìļĶ":4119,"Ġíķľëĭ¤":4120,"ëĭ¹íĻ©":4121,"ë³µìŀ¡":4122,"ê·¸ê²ĥ":4123,"Ġë¬´ë¦¬":4124,"Ġì¶©":4125,"Ġìĥģì²":4126,"íĮĲ":4127,"ìĨĮë¦¬":4128,"ìĨĮíĻĶ":4129,"ĠìķĪëħķ":4130,"ìĪĺê°Ģ":4131,"ĠìłĦë¶Ģ":4132,"ĠìłĦìĹ¬ì¹ľ":4133,"ĠìłĦëĤ¨ì¹ľ":4134,"ĠëĵľëĿ¼":4135,"Ġìĸĳ":4136,"Ġê±¸ìĸ´ë³´ìĦ¸ìļĶ":4137,"Ġì¡°ê¸ī":4138,"ê´Ģë¦¬":4139,"ìľłì¦Ŀ":4140,"ëĭ¬ëĭ¬":4141,"ëĭ¬ì§¸":4142,"ë°Ķë¡ľ":4143,"ĠìŀĪìĸ´ìĦľ":4144,"ëĲĺë":4145,"ëįĶëĿ¼":4146,"ìĤ¬ëŀĮìĿĦ":4147,"ĠìĿ¸ìĤ¬":4148,"Ġë§ĮëĤĺê¸°ë¡ľ":4149,"íĹĪë":4150,"ê»ı":4151,"ĠíĸĪëĤĺë´ĲìļĶ":4152,"ĠìĹ°ìķłë¥¼":4153,"Ġì²´":4154,"Ġìĺ¤ëĦ¤":4155,"ìĿ´ëĿ¼ëĭĪ":4156,"ëĭµìĿ´":4157,"íĥĢëĬĶ":4158,"ìĭľê°ĦìĿĢ":4159,"Ġëĭ¹ìĹ°":4160,"Ġëĭ¹íĻ©":4161,"íĺĦê¸Ī":4162,"Ġë¹Ħë°Ģ":4163,"Ġìĺ¤ë©´":4164,"ì§ĳëĵ¤ìĿ´":4165,"Ġì¤Ģë¹Ħë¥¼":4166,"Ġì¤Ģë¹Ħíķ´ë³´ìĦ¸ìļĶ":4167,"ìĹ°ëĿ½ìĿ´":4168,"ĠìŀĲìĭłê°ĲìĿĦ":4169,"Ġìłķë¦¬íķł":4170,"íķ´ìķ¼íķłê¹Į":4171,"Ġê¸°ëĭ¤ë¦¬ëĬĶ":4172,"ì³¤ìĸ´":4173,"ë¹¡":4174,"ë¹Į":4175,"ìĹĨìĸ´ìļĶ":4176,"ĠëıĮëł¤ë³´ìĦ¸ìļĶ":4177,"ĠëĳĲê·¼":4178,"Ġë§Įëĵ¤ìĸ´ìļĶ":4179,"íķĺê¸°ëĬĶ":4180,"íķĺê¸°ëıĦ":4181,"Ġìĭłì²Ń":4182,"Ġê³łë°±íķ´ë³´ìĦ¸ìļĶ":4183,"Ġê³łë°±íķ´ëıĦ":4184,"Ġëĵ¤ìĸ´ìĻĢ":4185,"íĥķ":4186,"ìĿ´ìĹĪê¸¸":4187,"Ġë¶ĢëĶª":4188,"Ġìĵ°ê³ł":4189,"ë¯¸ìĦ¸ë¨¼":4190,"Ġíķĺë©´ìĦľ":4191,"Ġíŀĺëĵ¤ìĸ´ìĦľ":4192,"ìĿ´ëŁ¬":4193,"Ġìļ°ìĦ¸ìļĶ":4194,"Ġìļ°ìĦł":4195,"ëĨĢ":4196,"ëĨĢìĿ´":4197,"ì±Ħ":4198,"ëĤ¨ìŀĲê°Ģ":4199,"ëĤ¨ìŀĲì¹ľêµ¬ëŀĳ":4200,"ëıĪìĿĦ":4201,"ĠìŀłìĿĦ":4202,"Ġë¯¸ìķĪ":4203,"ìŀĬìĿĦ":4204,"ĠëĲĲëĦ¤":4205,"ĠëĲĲëĬĶëį°":4206,"ìĹ¬ëĵľ":4207,"Ġë¯¿ìĸ´ë³´ìĦ¸ìļĶ":4208,"íĬ¸ëłĪì¹Ń":4209,"ê²©ì¦Ŀ":4210,"ĠìłĢëıĦ":4211,"ĠìłĢìĹĲê²Į":4212,"ë°ĽëĬĶ":4213,"Ġë¶ĦìĿ´":4214,"Ġì¹ľêµ¬ë¡ľ":4215,"ìĸĳìĿ´":4216,"ĠìĦłíĥĿìĿĦ":4217,"ĠëıĻìĥĿ":4218,"ëĪĪìĿĦ":4219,"ĠëĬ¦ê²Į":4220,"Ġë³´ëĤ´ê³ł":4221,"ĠìĹ¬íĸīìĿĦ":4222,"ìį¸ëĤ¨ìĿ´ëŀĳ":4223,"Ġë²Īíĺ¸":4224,"ìħĶë³´ìĦ¸ìļĶ":4225,"Ġì§ĿëĤ¨íķľíħĮ":4226,"Ġì·¨ë¯¸":4227,"ĠìĿ´ë£¨":4228,"ì¹´íİĺ":4229,"ĠìĿĺì§Ģ":4230,"ĠìĿĺìĤ¬ë¥¼":4231,"ì¶ķíķĺëĵľëł¤ìļĶ":4232,"Ġê·¸ëħĢê°Ģ":4233,"ë¨¸ë¦¬ê°Ģ":4234,"ëĲĺê²łëĦ¤ìļĶ":4235,"ĠíĴĢë¦´":4236,"Ġìļ´ëªħ":4237,"ĠíĿĺëŁ¬":4238,"ìĹ¬ìŀĲì¹ľêµ¬ìĿĺ":4239,"ìĹ¬ìŀĲì¹ľêµ¬ìĻĢ":4240,"Ġë§ŀëĬĶê±¸ê¹Į":4241,"Ġë¹łë¥´":4242,"Ġë§ĺìĹĲ":4243,"Ġëĭ¤ëĲĺ":4244,"Ġëĭ¤ë¥´ê²łì§Ģë§Į":4245,"ìļ´ëıĻìĿĦ":4246,"ĠëĤĺê°ĢìĦ¸ìļĶ":4247,"ë¬¼ë¦¬":4248,"ê°Ķìĸ´":4249,"ĠìĬ¬íį¼":4250,"ĠìŀĬìĸ´ë²Ħë¦¬ìĦ¸ìļĶ":4251,"Ġëĸ¨ìĸ´ìł¸":4252,"ìĥģëĮĢë°©ìĿĦ":4253,"Ġì¡´ìŀ¬":4254,"ë§¨ëĤł":4255,"Ġê¾¸ë":4256,"íı¬ê¸°":4257,"íı¬ì¦Ī":4258,"Ġëª¨ìĬµìĿĦ":4259,"Ġì§ĿëħĢê°Ģ":4260,"ëĥĲìĹĲ":4261,"ëĦĺ":4262,"ë§ĺê³łìĥĿ":4263,"ìĿ¸ìĥĿìĿĢ":4264,"ë¶Ģëª¨ëĭĺìĿ´":4265,"íĪ¬ê°Ģ":4266,"ìķŀìľ¼ë¡ľ":4267,"Ġê·¹ë³µíķł":4268,"ì»¨":4269,"ì»´":4270,"Ġíŀĺëĵ¤ìĹĪê²łìĸ´ìļĶ":4271,"ĠíļĮìĤ¬":4272,"ë§ĪìĬ¤íģ¬":4273,"ĠìĤ¬ëŀĳíķľëĭ¤ë©´":4274,"ĠëĤ«ì£ł":4275,"ĠìĿ´ê²¨ëĤ¼":4276,"Ġìĸ¼ë§ĪëĤĺ":4277,"ìĿ´ìĥģíĺķ":4278,"Ġì²ľì²ľíŀĪ":4279,"ĠìŀĳìĿĢ":4280,"ì¹Ńì°¬":4281,"Ġë¶Ģë¶ĦìĿ´":4282,"ì¶ķíķĺíķ´ìļĶ":4283,"ìĭłê²½ìĵ°ì§Ģ":4284,"ĠíĶ¼ê³¤íķ´":4285,"Ġëĭ´ë°°":4286,"ìĻĦìłĦíŀĪ":4287,"ĠìĻ¸ë¡ľìĽĮ":4288,"ëĬ¥ëł¥ìĿ´":4289,"íĽĦíıŃíĴįìĿ´":4290,"ĠëĤĺëĪłë³´ìĦ¸ìļĶ":4291,"ìĦłìĥĿëĭĺìĿ´":4292,"ĠìĺĨìĹĲ":4293,"Ġê·ĢìĹ¬ìĽĮ":4294,"Ġê°Ģì¹ĺê´Ģ":4295,"ĠíĪ¬":4296,"ĠìĽĢì§ģ":4297,"10":4298,"¥´":4299,"«ëıĻìķĪ":4300,"²ķ":4301,"¸ìĸ´":4302,"¹¼ë¡ľ":4303,"ê¶Įíĥľ":4304,"ë±":4305,"ë¿Ĳ":4306,"ëĬ¦":4307,"ì¿":4308,"Ġãħłãħł":4309,"ĬìĿĢ":4310,"Ġë¿Į":4311,"ìĿ´ìĺĪìļĶ":4312,"ìĿ´ëŀĺ":4313,"ê°Ĵ":4314,"ìĸ´ë³´ê³ł":4315,"ì§Ģê²Į":4316,"ì§Ģê¸°":4317,"íķ´ë³´ëĬĶ":4318,"ê°ĢìĦľ":4319,"ê°ĢëĬĶëį°":4320,"ê°Ģë²¼":4321,"Ġë§¤ë":4322,"ëĭ¤ë°ľ":4323,"Ġìķħ":4324,"íķĺëĿ¼ê³ł":4325,"ê¸įìłķ":4326,"íķĺê¸´":4327,"íķĺê²łìĬµëĭĪëĭ¤":4328,"ìĿĢìĹ°":4329,"ĠìĹĲ":4330,"ĠìŀĪëįĶëĿ¼ê³łìļĶ":4331,"ìŀĲì£¼":4332,"ĠëĤ¬":4333,"Ġê±°ë©´":4334,"ê¸°ëħĲìĿ¼":4335,"ëĿ¼ë¦¬":4336,"¼ë¹¼ë¡ľ":4337,"ì¹ĺë©´":4338,"ëĤĺìĿĺ":4339,"Ġë°ĸìĹĲ":4340,"ìķ¼íķłê¹Į":4341,"Ġì§Ĳ":4342,"ĠìĿ´ëŁ¬":4343,"ĢëŀĲ":4344,"ĠìłĪëĮĢ":4345,"Ġíķ´ì£¼ëĬĶ":4346,"ëĤĺëĤĺ":4347,"ëĤĺë³´ìĦ¸ìļĶ":4348,"ìĿ¸ìĹ°":4349,"ìĿ¸ê°Ģë´ħëĭĪëĭ¤":4350,"ĠìĥĿê²¨":4351,"ìĭľêµ°ìļĶ":4352,"ĠìĹĨì§Ģ":4353,"ĠìĹĨìĿĦê¹Į":4354,"ê±°ì£ł":4355,"Ġì¢ĭìķĦíķ´ì£¼ëĬĶ":4356,"Ġë§Īìĭ¤":4357,"íĺ¸ë¥¼":4358,"ìłķë¦¬ê°Ģ":4359,"ìłķê·ľì§ģ":4360,"ìĭłê³ł":4361,"ĠìĥĿê°ģë§Į":4362,"íķĺê³łìĭ¶ìĸ´":4363,"ĠìķĬëĤĺë´ĲìļĶ":4364,"ĠìķĬìĿĦê¹Į":4365,"Ġë³´ëĭ¤":4366,"Ġë³´ìĿ´ì§Ģ":4367,"Ġë§ĲìĿĢ":4368,"Ġê°ĢëıĦ":4369,"Ġê°ĢëĬĶëį°":4370,"Ġëĭ¤ëĭ":4371,"Ġëĭ¤ìĿĮ":4372,"Ġëĭ¤ìĿ´ìĸ´íĬ¸":4373,"ìĤ¬ëŀĳíķł":4374,"ĠìķĪíķ´ëıĦ":4375,"ì¤Ħê²ĮìļĶ":4376,"ĠëĤĺìĿĦê¹Į":4377,"Ġë§İìĿĦ":4378,"ìĹ¬ê¸°ê¹Įì§Ģ":4379,"íķĺì§ĢëĬĶ":4380,"ìĹĪìĿĦ":4381,"ìĹĪìľ¼ë©´":4382,"ĠìĤ¬ëŀĳìĹĲ":4383,"ĠìŀĪìĿĦê¹ĮìļĶ":4384,"ĠìŀĪìĿĦì§ĢëıĦ":4385,"ĠìĦ¼":4386,"Ġê¸°ìĽĲ":4387,"ìłĢë¥¼":4388,"ìłĢìĹĲê²Į":4389,"Ġì§Ģìļ°":4390,"Ġì§ĢëĤ¬ë":4391,"íĸĪìĿĦ":4392,"ê¸¸ìĿ´":4393,"ìŀ¥ëĤľ":4394,"ìĥĿìĪŃ":4395,"ìłĦê³µ":4396,"ìłĦíĻĺ":4397,"íħĮë¦¬":4398,"ĠìĻ¸ë":4399,"ĠëĤ¨ìĿĦ":4400,"ĠëĤ¨ì¹ľìĿ´":4401,"ìĤ¬ìĨĮíķľ":4402,"Ġíŀĺëĵ¤ê²łì§Ģë§Į":4403,"ĠëķĮë¥¼":4404,"ë¥´ìĦ¸ìļĶ":4405,"Ġì¹¨":4406,"ìĬ¤íĤ¤":4407,"ë¯¸ë":4408,"ëĮĢíĻĶ":4409,"Ġëª»íķ´ìļĶ":4410,"Ġì£Ħ":4411,"ë§ĪìĿĮìĿĢ":4412,"ì¶ĺ":4413,"ìļ°ìļ¸":4414,"ìļ°ìĦł":4415,"Ġê±´ê°ķ":4416,"Ġì¤ĳìĿ¸":4417,"ĠëģĦ":4418,"ë¬´ìĦľìļ´":4419,"ì¢ĭìķĦíķĺëĬĶëį°":4420,"ĠíķĺëĤĺë":4421,"ë¶Ģì§Ģ":4422,"ìĹĲê²ĮëıĦ":4423,"ìķĪíĥĢê¹Ŀ":4424,"Ġëĵ¤ìĸ´ë³´ìĦ¸ìļĶ":4425,"ĠëĨĪ":4426,"ëıĻìĥĿ":4427,"ìĭ¤ìĪĺ":4428,"ĠìĥģëĮĢë°©":4429,"ë¦¬ëĦ¤":4430,"ìĶ¹":4431,"ì¡Įìľ¼ë©´":4432,"ìĸ´ë´ĲìļĶ":4433,"ĠìĿ´ë³ĦíĨµë³´":4434,"ĠìłĦíĻĺ":4435,"ĠëģĿëĤĺ":4436,"ĠëĵľìħĶë³´ìĦ¸ìļĶ":4437,"ìľ¼ìĭłê°Ģë´ĲìļĶ":4438,"ĠíĹ¤ìĸ´ì§Ģê³ł":4439,"ĠìĹ¬ìŀĲíķľíħĮ":4440,"ĠìĹ¬ìŀĲëŀĳ":4441,"ĠëĤ¨ìŀĲëŀĳ":4442,"ê³µíĨµ":4443,"Ġê²°ìĭ¬":4444,"ìĺ¤íķ´":4445,"ëħĦìĿĺ":4446,"ìķĺìĬµëĭĪëĭ¤":4447,"Ġíĺ¸ë":4448,"ìĭĿìĹĲ":4449,"Ķ°ëĿ¼":4450,"ë°Ķìģĺ":4451,"ì°¨ë¶Ħ":4452,"ëĲĲìĸ´":4453,"ìĤ¬ëŀĮëĵ¤ìĿ´":4454,"Ġë§ŀìķĺëĤĺë´ĲìļĶ":4455,"ĠìĿ¸ê¸°ê°Ģ":4456,"ĠìĿ¸ìĹ°ìĿ´":4457,"ìĸµì§Ģë¡ľ":4458,"ê²¨ë³´ìĦ¸ìļĶ":4459,"Ġê°Ĳê¸°":4460,"ì¹ĺê¸°":4461,"ĠìĹ°ìķłê°Ģ":4462,"Ġë°©íķĻ":4463,"ĠìķĦëĭĪëĭĪê¹ĮìļĶ":4464,"ë²ķìĿĦ":4465,"Ġì§Ħìĭ¬ìĿĦ":4466,"Ġì°¨ê°Ģ":4467,"íĺĦìŀ¬ë¥¼":4468,"Ġì°¾ìķĦê°Ģ":4469,"Ġìĺ¤ëŀ":4470,"íĺ¼ìŀĲë§Į":4471,"Ġëį°ëĬĶ":4472,"Ġëį°ìĿ´íĬ¸ë":4473,"Ġì¤Ģë¹ĦíķĺëĬĶ":4474,"ĠëħĦ":4475,"ĠíĿ¬ë§Ŀ":4476,"íķ´ìķ¼íķł":4477,"ĠìĦłë¬¼ìĿĢ":4478,"ëĳĲìĦ¸ìļĶ":4479,"ìļ©ëıĪ":4480,"Ġíĸīë³µìĿĦ":4481,"Ġíĸīë³µíķľ":4482,"ë¹¨":4483,"Ġíķ´ìķ¼íķłê¹Į":4484,"ìłĪíķľ":4485,"ĠìĻĶëĦ¤":4486,"ĠìĻĶìľ¼ë©´":4487,"ì§ĿìĤ¬ëŀĳìĿĢ":4488,"Ġë³´ê³łìĭ¶":4489,"ĠëĳĲê³ł":4490,"íķ¨ìĿĦ":4491,"Ġê³łë¯¼ìŀĦ":4492,"ë²Ħëł":4493,"ë²Ħëł¸ìĸ´":4494,"Ġê³łë°±íĸĪëĬĶëį°":4495,"Ġíģ¬ë¦¬ìĬ¤ë§ĪìĬ¤":4496,"ìĹ°ìķłëĬĶ":4497,"Ġíŀĺëĵłê°Ģë´ħëĭĪëĭ¤":4498,"ìħ¨ëĦ¤ìļĶ":4499,"ìĦľë¡ľë¥¼":4500,"ĠìķĮìķĦì°¨":4501,"ë°ľíĳľ":4502,"ìĻĶëĬĶëį°":4503,"ë¨¹ê¸°":4504,"ĠëĨĢìĿ´":4505,"ë©į":4506,"ë¯¸ì¹ľ":4507,"Ġì¹ľêµ¬íķľíħĮ":4508,"ìĿ´ëŁ´":4509,"ĠìŀĪìĹĪìľ¼ë©´":4510,"ëĨĵ":4511,"ë¡±":4512,"ĠíĶ¼íķ´":4513,"ìŀĬì§Ģ":4514,"ìŀĬëĬĶ":4515,"Ġëĭµìŀ¥":4516,"ĠìĦ±ê²©":4517,"ìĹ¬ë¦Ħ":4518,"Ġê°ĦìłĪ":4519,"íľ´ëĮĢíı°":4520,"ĠíĳľíĺĦìĿ´":4521,"ĠíĳľíĺĦìĿĦ":4522,"ĠíĳľíĺĦíķ´ë³´ìĦ¸ìļĶ":4523,"íĪ°":4524,"ëĭ¬ëĿ¼ì§ĢëĬĶ":4525,"ì°¸ê³ł":4526,"ĠìķĬìķĦìĦľ":4527,"ĠëıĻë¬¼":4528,"ĠìĿ´ìľłëĬĶ":4529,"ê°ĳëĭĪëĭ¤":4530,"ê°ĳìŀĳ":4531,"ĠëĲĺëĬĶì§Ģ":4532,"ì·¨ë¯¸":4533,"Ġìĭ¤ë§Ŀ":4534,"ì±ħìĿĦ":4535,"Ġì·¨ì§ģ":4536,"Ġì·¨íĸ¥":4537,"ĠìķĦíĶĦëĭ¤":4538,"Ġìĸ´ëł¤ìĽĮìļĶ":4539,"Ġë§ĮëĤ¬ë":4540,"ê·¸ëħĢê°Ģ":4541,"ëģĿê¹Įì§Ģ":4542,"Ġê¹¨ëĭ¬":4543,"ê¿ĪìĹĲìĦľ":4544,"ìĹ¬ìŀĲëĵ¤ìĿĢ":4545,"ĠëĬĲëĤĮìĿ´":4546,"ĠìĺģìĽĲ":4547,"ê´ľì°®ìķĦìļĶ":4548,"ê¸°ëĭ¤ë¦´":4549,"ĠìĽĲë§Ŀ":4550,"ê³µë¶ĢëĬĶ":4551,"Ġë¹łë¥¼":4552,"Ġì¦Ĳê¸°":4553,"ëĳ¬":4554,"ëĳĺìĿ´":4555,"Ġë°ľíĳľ":4556,"Ġëĭ¤ë¥´ê²łì£ł":4557,"íļĮìĤ¬ìĹĲìĦľ":4558,"Ġìŀ¬ë¯¸ê°Ģ":4559,"Ġê¸¸ìĸ´":4560,"ĠìĿ¼ìĸ´ëĤĺ":4561,"íĸīë³µíķľ":4562,"Ġìŀ¥ìĨĮ":4563,"ì£¼ëł¤":4564,"ë°ĺì§Ģ":4565,"Ġë§ĲìĶĢíķ´ë³´ìĦ¸ìļĶ":4566,"ì¹ľêµ¬ëĵ¤ìĿ´":4567,"Ġì´ĪëĮĢ":4568,"ĠëĲĺìĹĪìĬµëĭĪëĭ¤":4569,"ĠíĨµíķ´":4570,"Ġë§Īìĭľê³ł":4571,"íĹĪìłĦ":4572,"ĠìĦľë¡ľë¥¼":4573,"ĠíĿĲë¥´":4574,"Ġëĭ¤ê°Ģê°Ģë³´ìĦ¸ìļĶ":4575,"Ġê¸°ëĮĢìĦ¸ìļĶ":4576,"Ġë°ĺëĮĢ":4577,"Ġë¬´ìĭľíķĺìĦ¸ìļĶ":4578,"Ġë§Īëł¨ìĿ´ìĹĲìļĶ":4579,"Ġë§Īëł¨ìĿ´ì£ł":4580,"Ġë³µìŀ¡íķĺê²łìĸ´ìļĶ":4581,"Ġì¢ħêµĲ":4582,"ĠëĳĺìĿ´":4583,"ĠìĪĺëĭ¤":4584,"ĠìŀĲì²´ê°Ģ":4585,"ìĪŃìĥĿìĪŃ":4586,"ê°ĲìłķìĹĲ":4587,"Ġìī¬ìĸ´ëıĦ":4588,"ìĭľìĽĲíķľ":4589,"Ġìį¨ë³´ìĦ¸ìļĶ":4590,"ìĿ¼ëŁ¬":4591,"Ġì²«ìĤ¬ëŀĳ":4592,"ìĤ¬ëŀĳíķľëĭ¤ê³ł":4593,"ĠìĿĮìķħ":4594,"ĠìĤ¶ìĿĦ":4595,"íķĺëĤĺë´Ĳ":4596,"ĠíĽĦíıŃíĴįìĿ´":4597,"ĠìĨĮì¤ĳíķľ":4598,"ãħľãħľ":4599,"ë¡ľë§¨íĭ±íķľ":4600,"ë¡ľë§¨íĭ±íķĺëĦ¤ìļĶ":4601,"ì§Ħìłķíķľ":4602,"Ġê¸°íļĮê°Ģ":4603,"ĠíĹ¤ìķĦë¦¬ëĬĶ":4604,"ë§¥ì£¼":4605,"ĠìĥĿê²¼ëĦ¤":4606,"Ġë¶Ģíĥģíķ´ë³´ìĦ¸ìļĶ":4607,"ìĸ´ì©Ķ":4608,"ìłĲìĭ¬ìĭľê°Ħ":4609,"Ġë³Ģëįķ":4610,"íĿĶëĵ¤":4611,"ìķĦëĭĮ":4612,"ĠìĹŃìĭľ":4613,"ìĻĦë²½íķľ":4614,"Ġê³ģìĹĲ":4615,"ì½¤íķľ":4616,"ëĪĦêµ°ê°Ģë¥¼":4617,"Ġê³¨ëĿ¼ë³´ìĦ¸ìļĶ":4618,"Ġì³Ĳ":4619,"ëıĦìĭľëĿ½":4620,"ĠìĿĺë¯":4621,"Ġë°ĿíĺĢ":4622,"ëłĮíĥĢ":4623,"Ġì§ĢëĤ¬ëĦ¤ìļĶ":4624,"ë°Ķìģĺê±°ëĤĺ":4625,"¢°":4626,"¤ì¼Ģ":4627,"¦½":4628,"©į":4629,"©Ķ":4630,"³Ħ":4631,"¸ê¸°":4632,"»ĳ":4633,"ëļ":4634,"ë¿Į":4635,"ë¸Ķ":4636,"ë¢°":4637,"ìı":4638,"ìŃ":4639,"ģĦëŁ¬":4640,"ħìĭľëĭ¤":4641,"ĭíķľ":4642,"ĸìĿĢ":4643,"Ŀ¼ë":4644,"Ġë¡ľ":4645,"Ġë¦¬":4646,"ĠëĿ¼ê³ł":4647,"ìĿ´ìĹĲ":4648,"ìĿ´ëĭĪ":4649,"ìĿ´ìĬ¤":4650,"ĺë§Į":4651,"ìĸ´ê°ĢëĦ¤":4652,"ê²¬ë":4653,"ëĤ¸":4654,"ê³°":4655,"ê³¼ë":4656,"ì§ĢëĤľ":4657,"ìŀ¼":4658,"Ġìŀ¤ìĸ´":4659,"ê°Ģê¸°":4660,"ìłĢëħģ":4661,"ìł¸ëıĦ":4662,"Ġíľ":4663,"ĠíĥĿ":4664,"ë³Ģë":4665,"ëĭ¤íĸī":4666,"ëĭ¤ëħĢ":4667,"ìĹĲíľ´":4668,"ìĺ¥":4669,"ìĺĨ":4670,"ìĺ¬ëł¤":4671,"¸ëŁ¬ë":4672,"ëıĦê°Ģ":4673,"ë³´ëĭĪ":4674,"ë³´íĹĺ":4675,"ë³´ëł¤ê³ł":4676,"ĠìŀĪê¸°":4677,"ĠìŀĪì§ĢìļĶ":4678,"ĠìŀĪëĤĺë´ħëĭĪëĭ¤":4679,"Ġì¢ĭìķĺëĬĶëį°":4680,"ìŀĲë¥¼":4681,"ì£Ħ":4682,"Ġìĭ¤ë":4683,"ìĦľëıĦ":4684,"ìĺĪìģĺê²Į":4685,"Ġë°±":4686,"ìķ¼ê²½":4687,"ìķ¼íķĺëĤĺ":4688,"ĠìĤ¬ëŀĮìĿ¸ê°Ģë´ĲìļĶ":4689,"Ġëĭ®":4690,"Ġëĭ¬ë":4691,"ëł¬":4692,"ëł¹":4693,"ĠìĪĺëĬĶ":4694,"Ġì§¸":4695,"ĠìĿ´ìĤ¬":4696,"Ġê°Ļì§Ģ":4697,"ĠìłĢëħģ":4698,"ë§ĮìĿĢ":4699,"ìĿ¸ìłķ":4700,"ìĿ¸ëĤ´":4701,"ìĿĺìļķ":4702,"ìľ¼ëł¤":4703,"ìłķìĿĦ":4704,"ìłķë³´":4705,"ìłľë°ľ":4706,"ìłľëĮĢë¡ľ":4707,"Ġìĺ´":4708,"ĠìĥĿê°ģíĸĪëĬĶëį°":4709,"ĠìĥĿê°ģíĸĪëĤĺë´ĲìļĶ":4710,"ê°Ħëĭ¨":4711,"Ġë§ĲìĿ´ëĦ¤ìļĶ":4712,"Ġê°Ģì¡±":4713,"ìĤ¬ëŀĳíķ´":4714,"Ġì¤ĺë³´ìĦ¸ìļĶ":4715,"ĠëĤĺì§Ģ":4716,"ĠëĤĺìĿ´ëĬĶ":4717,"Ġë§İì§Ģ":4718,"ë¡ľëĺĲ":4719,"ìĹ¬ìľłë¥¼":4720,"ìĻķ":4721,"Ġë°Ķê¾¸":4722,"íħľ":4723,"Ġìĭľê¸°ê°Ģ":4724,"ìĹĪìĬµëĭĪëĭ¤":4725,"ĠìŀĲë¦¬":4726,"ĠìĤ¬ëŀĳìĿĺ":4727,"ĠìĤ¬ëŀĳíĸĪ":4728,"ĠìĤ¬ëŀĳìĿ´ëĦ¤ìļĶ":4729,"ìļ´ìĿĦ":4730,"Ġìŀĺíķ´ì¤ĺ":4731,"ê±Ķ":4732,"ê±¸ë¡ľ":4733,"ĠìĹ¬ìľłë¥¼":4734,"ìĭ¬ìĭ¬":4735,"ìłĢíķľíħĮ":4736,"Ġê´ľíŀĪ":4737,"íŀĪëĬĶ":4738,"ĠëĤ¨ê¸°":4739,"ĠëĤ¨ìķĺë":4740,"ĠìĤ¬ìķ¼ì§Ģ":4741,"ìĿ´ë³ĦìĹĲ":4742,"ĠìķĮë©´":4743,"Ġë§ĪìĿĮìľ¼ë¡ľ":4744,"ìĬ¤íĤ¨ìĭŃ":4745,"ìĬ¤íĬ¸ëłĪì¹Ń":4746,"ë¯¸ë¦¬":4747,"ìłģê¸Ī":4748,"Ġìłķë¦¬ë¥¼":4749,"ĵłì§Ģ":4750,"ëĮĢíķľ":4751,"ëĮĢì¶ľ":4752,"ë§ĪìĿĮëıĦ":4753,"íļĮìĽĲ":4754,"íļĮìĤ¬ëĬĶ":4755,"Ġë¨¹ìĸ´ë³´ìĦ¸ìļĶ":4756,"ìį¸ìĿĢ":4757,"Ġì¤ĳìŀħëĭĪëĭ¤":4758,"Ġì¤ĳëıħ":4759,"Ġê°ĻìķĦìĦľ":4760,"íĹ¤ìĸ´ìł¸ìķ¼":4761,"ê´ľíŀĪ":4762,"ë¶ĦìľĦê¸°":4763,"ìŀĺíĸĪìĸ´ìļĶ":4764,"Ġì¡¸ìĹħ":4765,"ëĭ¹ìŀ¥":4766,"ìĹĲê²ĮëĤĺ":4767,"ìķĪìłĦ":4768,"ê³¼ìĭĿ":4769,"Ġëĵ¤ê³ł":4770,"Ġëĵ¤ìĹĪìĸ´":4771,"ê·¸ëĬĶ":4772,"ĠìĦłë¬":4773,"Ġë¬´ìĥī":4774,"Ġë¬´ëį¤ëį¤":4775,"ĠëŃĲíķĺê³ł":4776,"ĠëŃĲëĵł":4777,"ĠíķĺëĬĶê±´":4778,"íĮĶ":4779,"ĠëĬĻ":4780,"ìĪĺìĿ´ë³Ħ":4781,"ĠëģĿìĿĦ":4782,"ĠëģĿëĤ¬ìĸ´":4783,"Ġëĵľë¦´ê²ĮìļĶ":4784,"Ġìĸ»":4785,"ìģł":4786,"ëĤľëĭ¤":4787,"íģ¬ë¦¬ìĬ¤ë§ĪìĬ¤":4788,"Ġìĭ¶ëĭ¤ê³ł":4789,"ê³µìĭľ":4790,"ê³µíıī":4791,"ê³µíĹĪ":4792,"ê³µë¬´ìĽĲ":4793,"ĠëĮĢíķ´ìĦľ":4794,"Ġì¡°ìĭ¬":4795,"Ġëª¨ë¥´ê²Į":4796,"ê´Ģìĭ¬":4797,"ĠìŀĬìľ¼ìĦ¸ìļĶ":4798,"ĠíĽĦê°Ģ":4799,"ĠíĽĦìĹĲ":4800,"ëĭ¬ì½¤íķľ":4801,"ë°Ķìģĺê²Į":4802,"Ġì°¾ëĬĶ":4803,"Ġì°¾ê¸°ë¥¼":4804,"ê¾¸ì¤ĢíŀĪ":4805,"ìļ¸ìłģ":4806,"Ġë§ŀì¶Ķ":4807,"Ġê°Ĳê³ł":4808,"ĠìĨĮë¬¸":4809,"ê³Ħíļį":4810,"Ġì²ł":4811,"ĠìķĦëĭĪì£ł":4812,"ĠìķĦëĭĪìĹĪ":4813,"ĠìķĦëĭĪì§Ģë§Į":4814,"ëĭµìĿĦ":4815,"íĥĢìĿ´ë°į":4816,"Ġì°¨ë³Ħ":4817,"ĠíķĺìŀĲê³ł":4818,"Ġëĭ¹íĸĪìĸ´":4819,"Ġëĭ¹ëĭ¹íķĺê²Į":4820,"ëĭ´ë°°":4821,"ìŀĲìĭłê°ĲìĿĦ":4822,"ĠëıĦìĽĢìĿĦ":4823,"íĺ¼ìŀĲëıĦ":4824,"ìĿ´ìķ¼ê¸°":4825,"ìĿ´ìķ¼ê¸°ë¥¼":4826,"ĠìĽ¬":4827,"ìĭ¶ìĿĢëį°":4828,"íķ´ìķ¼ê²łì§Ģ":4829,"ì¤ĺìķ¼":4830,"ĠìĦłë¬¼ìĿĦ":4831,"Ġê¸°ëĭ¤ë¦´":4832,"Ġê¸°ëĭ¤ë¦¬ë©´":4833,"íĨµìĪĺ":4834,"ìłĲìĹĲìĦľ":4835,"ĠìľĦíķ´ìĦľ":4836,"êµĲíĨµ":4837,"êµĲìĸĳ":4838,"Ġê³Ħíļį":4839,"Ġì¶ĶìĽĮ":4840,"Ġíĸīë³µíķł":4841,"íĶ¼íķł":4842,"Ġíķ´ìķ¼ê²łëĭ¤":4843,"Ġíķ´ìķ¼íķłì§Ģ":4844,"ĠìĻĶìĬµëĭĪëĭ¤":4845,"ì§ĿìĤ¬ëŀĳíķĺëĬĶ":4846,"ĠìĭľìŀĳìĿ´":4847,"Ġë°ĽìķĦë³´ìĦ¸ìļĶ":4848,"ĠëĲĺëıĮ":4849,"Ġë§Įëĵ¤ê³ł":4850,"Ġê³łë¯¼ìĿ´":4851,"ì²Ńì²©":4852,"íĤģ":4853,"Ġê³łë°±íķĺë©´":4854,"ê°ķìķĦì§Ģ":4855,"ëĭ¤ëĬĶê±´":4856,"ì½ĺ":4857,"ĠìķĮìķĦë³´ê³ł":4858,"ê²°íĺ¼íķĺë©´":4859,"ìĹħë¬´":4860,"ë§ĽëĤĺê²Į":4861,"Ġì¡°ê¸ĪìĿ´ëĿ¼ëıĦ":4862,"ìĿ´ìĹĪëĤĺë´ĲìļĶ":4863,"Ġë³ĢíĻĶë¥¼":4864,"ĠëĨĢìķĦ":4865,"Ġìĵ°ëłĪê¸°":4866,"ê²¼ëĬĶëį°":4867,"Ġìłģëĭ¹íŀĪ":4868,"Ġê±±ìłķíķĺì§Ģ":4869,"Ġìĸ´ëĸ¨ê¹Į":4870,"ëĨį":4871,"ëĨĢëŁ¬":4872,"ë°©ë²ķ":4873,"íĺ¸ê°ĲìĿĦ":4874,"Ġë¯¸ìķĪíķ´":4875,"Ġê´Ģìĭ¬ìĤ¬ë¥¼":4876,"ĠëĪĪì¹ĺ":4877,"ìŀĬìĸ´":4878,"Ġë§İìķĦìĦľ":4879,"ĠìĦ±ìŀ¥":4880,"Ġê°Ħìłĳ":4881,"Ġíķ¨ê»":4882,"ĠìĨįìĹĲ":4883,"ëŁ¬ìĽĮ":4884,"ë¶ĢëŁ¬":4885,"ĠëĬĲëĤĦ":4886,"ëŃĲëĿ¼ê³ł":4887,"ë´ī":4888,"ê°ľìĽĶìĿ´":4889,"Ġíı°":4890,"Ġë°ĺìĿĳ":4891,"ĠìĿ´íķ´ê°Ģ":4892,"íĭĢ":4893,"ĠëĪĦêµ¬ëĤĺ":4894,"ìĺ¨ìłĦíŀĪ":4895,"Ġë³´ëĤ´ëĬĶ":4896,"Ġë³´ëĤ´ì£¼ìĦ¸ìļĶ":4897,"ĠíĽĦíļĮê°Ģ":4898,"ĠìĹ¬íĸīëıĦ":4899,"ìħĶìļĶ":4900,"ëĶĶìħĺ":4901,"Ġê³µë¶Ģíķ´ìĦľ":4902,"Ġì·¨íķ´ë³´ìĦ¸ìļĶ":4903,"ê·¸ëħĢë¥¼":4904,"ë¶ĢíĦ°ëĬĶ":4905,"Ġë¬¼ìĸ´ë³´ëĬĶê²Į":4906,"Ġê¹¨ìļĶ":4907,"íĤ¤ëĬĶ":4908,"ĠëĬĲëĤĮìĿ´ìķ¼":4909,"íĻľëıĻ":4910,"ìĪĻìĤ¬":4911,"ì¶ķêµ¬":4912,"Ġìµľìķħ":4913,"ĠìµľìĦłìĿĺ":4914,"ĠìĥĿê²¼ìľ¼ë©´":4915,"ëĤ¨ìŀĲì¹ľêµ¬ìĻĢ":4916,"Ġê¶ģê¸Īíķ´ìļĶ":4917,"Ġìĭ¸ìĽĮ":4918,"ĠìĤ¬ìĿ´ìĹĲ":4919,"ê¼¼":4920,"íķĺëĭĪê¹ĮìļĶ":4921,"Ġì±Ļê²¨ëĵľìĦ¸ìļĶ":4922,"Ġì¶Ķì²ľíķ´ìļĶ":4923,"Ġë§Īë¬´ë¦¬":4924,"Ġê·¸ë¦¬ìļ´":4925,"ĠìķĦë¬´ëıĦ":4926,"ìĪľìľĦ":4927,"Ġê²½íĹĺ":4928,"ëĤĺë§ĮìĿĺ":4929,"Ġë§Ĳíķ´ë³¼ê¹Į":4930,"Ġëĭ¤ë¥´ê²łì§ĢìļĶ":4931,"Ġë´¤ìĸ´":4932,"íļĮìĤ¬ìĻĢ":4933,"Ġíķľëĭ¬ìĿ´":4934,"ĠíĹ¤ìĸ´ì¡ĮëĦ¤":4935,"Ġëĭ¨ê³Ħ":4936,"Ġê¸¸ìĿ´":4937,"íĸīë³µíķ´":4938,"ëĵ¯ìĿ´":4939,"íıīìĥĿ":4940,"ê½ĥëĭ¤ë°ľ":4941,"íĬ¸ë¥¼":4942,"ĠìŀĬìĸ´ìķ¼":4943,"ëĲľëĭ¤ê³ł":4944,"Ġê´Ģê³Ħê°Ģ":4945,"Ġê´Ģê³Ħë¥¼":4946,"ĠìĿ¼ëħĦ":4947,"ĠìľĦë¡ľê°Ģ":4948,"Ġì¹ĺê³¼":4949,"Ġë¯¸ëł¨ìĿ´":4950,"ĠíĿĲë¥´ê³ł":4951,"ëĦĮ":4952,"íķĺìĭľêµ°ìļĶ":4953,"ìĤ¬ê·Ģê¸°":4954,"Ġëķ¡":4955,"Ġëª©ìĨĮë¦¬ë¥¼":4956,"íĺĦìĭ¤ìłģìĿ¸":4957,"ĠìĿ´ê²¨ëĤ´":4958,"ë¨¸ë¦¿":4959,"ìķ¼ëĲ":4960,"ĠìĤ¬ê·Ħ":4961,"ë¯¿ìĿĮìĿ´":4962,"ì§ģìŀ¥ìĹĲìĦľ":4963,"ë§ŀëĬĶ":4964,"ì£½ìĿĦ":4965,"ĠìĿ½ìĸ´ë³´ìĦ¸ìļĶ":4966,"ĠìĻĦìłĦíŀĪ":4967,"ëĺĳê°ĻìĿĢ":4968,"Ġë§ĪìħĶìķ¼ì§Ģ":4969,"ëıĮìķĦ":4970,"Ġê´Ģë¦¬íķĺìĦ¸ìļĶ":4971,"ìĺ¤ëĬĺëĶ°ëĿ¼":4972,"Ġíĥľìĸ´ëĤľ":4973,"ĠìĨĶì§ģíķĺê²Į":4974,"ëĶ°ëľ»íķľ":4975,"ëĶ°ëľ»íķĺê²Į":4976,"ìĿ´ë²ĪìĹĲëĬĶ":4977,"ĠìĿµìĪĻíķ´":4978,"Ġìĸ´ëĬĲëį§":4979,"ê°ĢëģĶìĿĢ":4980,"ìĺģíĻĶê´Ģ":4981,"ëĵ±":4982,"Ġíİĺë¶ģ":4983,"Ġê±°ê¸°ê¹Įì§ĢìĿ¸ê°Ģë´ĲìļĶ":4984,"íĳ¼":4985,"Ġë²Ĺìĸ´ëĤĺ":4986,"ĠìĨĮìĭĿìĿ´ëĦ¤ìļĶ":4987,"Ġëª¸ìĿ´":4988,"ĠìĥĿê¸°ë©´":4989,"Ġë¨¸ë¦¬ê°Ģ":4990,"íĹ¤ìĸ´ì¡ĮëĬĶëį°":4991,"ìĭ«ìĸ´":4992,"ĠíĻĺìĬ¹":4993,"ë°©íķĻìĿ´":4994,"Ġíĳ¸":4995,"Ġíĳ¹":4996,"ĠëĤĺíĥĢëĤł":4997,"Ġì¹ĺë£Į":4998,"Ġë¶Īíİ¸íķ´":4999,"Ġê¹Įë¨¹ìĹĪëĭ¤":5000,"ĠëĬĺìĸ´ìļĶ":5001,"ë¨¸ë¦¬ëŀĳ":5002,"ĠëĬĲëģ¼ëĬĶ":5003,"ê·¸ëłĩëĭ¤ë©´":5004,"ëķĲ":5005,"ê·¸ëŁ¼ìļĶ":5006,"Ġê·¸ëŁ¬ê³ł":5007,"ĠíĹĪë¬´":5008,"ĠìķĪëĲĺëĦ¤":5009,"Ġë¶Ģëª¨ëĭĺ":5010,"ìĤ¼ê²¹":5011,"Ġê´ľì°®ìķĦì¡Įê¸¸":5012,"ìĦ¼íĦ°":5013,"ĠìķĦê¹ĮìĽĮ":5014,"Ġë§ĮëĵľëĬĶ":5015,"ìħĢíĶĦ":5016,"íĶĦë¡ľíı¬ì¦Ī":5017,"ìļ©ê¸°ëĤ´ìĦľ":5018,"Ġìľłì§ĢíķĺëĬĶ":5019,"íģ¬ë¦¼":5020,"íŀĺëĵľëĦ¤":5021,"ë¶Ļìŀ¡ê³ł":5022,"ëĴ·":5023,"ĠëĤĺìģĺì§Ģ":5024,"ĠìĽĶê¸ī":5025,"ê¼¬ë°ķ":5026,"Ġëĭ¨ëĭ¨íŀĪ":5027,"ëłĩì§ĢëıĦ":5028,"ìĭľìĸ´ë¨¸ëĭĪê°Ģ":5029,"ìĨĮíĻĶìłľ":5030,"ì»¨ëĶĶìħĺ":5031,"ĠìĿ´ëŁ¬ì§Ģ":5032,"Ġëĭ¤ëĭĲ":5033,"Ġëį°ìĿ´íĬ¸ë¥¼":5034,"ë²Ħëł¸ëĦ¤":5035,"Ġì³Ĳëĭ¤":5036,"íļĮìĽĲìłķë³´":5037,"íĥĢìĿ´ë°įìĿ´":5038,"ìĤ¼ê²¹ìĤ´":5039,"¦¬ëĬĶ":5040,"¬ìľł":5041,"´ë§Į":5042,"µëĭĪëĭ¤":5043,"íĽ":5044,"Ġ8":5045,"Ġsns":5046,"Ģìĥī":5047,"ĩëª¸":5048,"ĭ¤ë©´":5049,"ĳ¥":5050,"Ĺìĸ´":5051,"ľë¹¡":5052,"Ŀ½":5053,"Ġì«":5054,"Ġë©´":5055,"Ġë¸Į":5056,"Ġë½ĳ":5057,"Ġê½ĥ":5058,"ìĿ´ì§ģ":5059,"ìĿ´ëĭĪê¹ĮìļĶ":5060,"ìķĬ":5061,"ì§ķ":5062,"ëĭ«":5063,"ìĸ´ì£¼ìĦ¸ìļĶ":5064,"ìĸ´ì°Į":5065,"ëĤ®":5066,"ëĤ¬ëĬĶëį°":5067,"ì§ĢëĦ¤ìļĶ":5068,"íķ´íķĺì§Ģ":5069,"ìķĦê¸°":5070,"ìķĦíĶĪ":5071,"ê°ĢëıĦ":5072,"ê°Ģê¸¸":5073,"ìĦ¸íŀĪ":5074,"ê³łê°Ģ":5075,"ìłĢë":5076,"Ġë§ĺìĿ´":5077,"Ġìķī":5078,"íķĺë©°":5079,"íķĺê²łì§Ģ":5080,"íķĺì²ł":5081,"ëıĦë¥¼":5082,"ë³´ì§Ģ":5083,"ë³´ìķĦìļĶ":5084,"ë³´ëł¤":5085,"ĠìŀĪëĭ¤":5086,"ĠìŀĪê²łëĦ¤ìļĶ":5087,"ê¹ĶëģĶ":5088,"ê¹ĬìĿĢ":5089,"©´ìĦľ":5090,"íķľìŀĶ":5091,"Ġì¢ĭìķĺ":5092,"Ġì¢ĭìľ¼ìĭľ":5093,"ìŀĲê°Ģ":5094,"Ġê±°ìļĶ":5095,"Ġê±°ëŀĳ":5096,"Ġìĭ¬ìĸ´":5097,"Ġìĭ¬ë¦¬":5098,"ê¸°ëł¥":5099,"ê¸°ìłģìľ¼ë¡ľ":5100,"Ġê²Ģìĥī":5101,"ë¦¿":5102,"ëĤĺê°ĢëĬĶ":5103,"ìķ¼ê²łì§Ģ":5104,"ìķ¼ê·¼":5105,"íķłê¹ĮìļĶ":5106,"íķłê±°ëĿ¼":5107,"ĠìĤ¬ëŀĮìĿ¸ëį°":5108,"Ġëĭ¬ëł¤":5109,"Ġì§ł":5110,"ĠìĿ´ê±´":5111,"Ģëĵľ":5112,"Ġê°Ļëĭ¤ê³ł":5113,"ĠìłĢëŀĳ":5114,"ë§Įíķľ":5115,"ë§ĮíŀĪ":5116,"ìĿ¸ëĭ¤":5117,"ìĿ¸ê°Ħ":5118,"ìĿ¸ìĿ¸ëį°":5119,"ìĿ¸íĦ´":5120,"ŀĺëĲľ":5121,"ê°ģìĿ´":5122,"ìĭľê²łëĦ¤ìļĶ":5123,"ìĭľê³Ħ":5124,"ìľ¼ëł¤ë©´":5125,"ĠìķĦê¹Ŀ":5126,"ĠìķĦë¦Ħëĭ¤":5127,"ëĿ¼ìĿ´":5128,"ê±°ìĽĮ":5129,"ê±°ê²łì£ł":5130,"Ġì¢ĭìķĦíĸĪëĬĶëį°":5131,"Ġì¢ĭìķĦíķĺëįĺ":5132,"Ġë§Īìħ¨":5133,"íĸĪëįĶëĭĪ":5134,"ìĿ¼ì°¨":5135,"ìłķìĭłìĿ´":5136,"ë¦¬ê²łìĸ´ìļĶ":5137,"ìĭłëĤĺëĬĶ":5138,"ëĤ¨ëĵ¤ìĿ´":5139,"Ġê²ĥì²ĺëŁ¼":5140,"Ġìĸ´ë¦°":5141,"Ġìĸ´íķĦ":5142,"ìłľìŀĲë¦¬":5143,"ì£¼ëıĦ":5144,"ì£¼ìĭĿ":5145,"ì£¼ì°¨":5146,"ĠìĥĿê°ģíķ´ëıĦ":5147,"ĠìĥĿê°ģíķłê¹Į":5148,"ĠìķĬìķĺë":5149,"ĠìķĬìķĺëĤĺë´ĲìļĶ":5150,"Ġê±¸ë¦¬":5151,"Ġê±¸ëł¤":5152,"ê°Ħëĭ¤":5153,"Ġë³´ê²Į":5154,"Ġë³´ëĬĶê²Į":5155,"Ġë§ĲìķĦ":5156,"Ġë§Ĳíķĺì§Ģ":5157,"Ġë§Ĳíķ´ëıĦ":5158,"Ġë§Ĳíķ´ì£¼ìĦ¸ìļĶ":5159,"Ġë§ĲëĿ¼ê³ł":5160,"Ġëĭ¤ìĸĳ":5161,"ìĤ¬ëŀĳê³¼":5162,"ìĤ¬ëŀĳíķ´ìĦľ":5163,"ìĤ¬ëŀĳìĹĲëĬĶ":5164,"ĠíŀĺëĵŃëĭĪëĭ¤":5165,"ì¤¬ëĬĶëį°":5166,"ìĥģìĿĢ":5167,"Ġì°Ķ":5168,"ëĵ¤ìĹĲê²Į":5169,"ĠìĭľíĹĺ":5170,"ĠìĭľíĤ¤":5171,"ì¹ľêµ¬ìĿĺ":5172,"Ġê·¸ëĮĢ":5173,"Ġê·¸ëŀĺëıĦ":5174,"Ġê·¸ë¦½":5175,"ìĨ¡":5176,"ìķłìłķ":5177,"ĠìĤ¬ëŀĳìľ¼ë¡ľ":5178,"ĠìĤ¬ëŀĳíķ´ìĦľ":5179,"ĠìĤ¬ëŀĳíĸĪëĤĺë´ĲìļĶ":5180,"ë²ļê½ĥ":5181,"ĠìŀĪìĿĦì§Ģ":5182,"ìļ´ìłĦ":5183,"ìĽĮë³´ìĦ¸ìļĶ":5184,"Ġê¸°ì¤Ģ":5185,"Ġíķĳ":5186,"Ġë¨¸ë¦":5187,"ĠìĹ¬ìłĦíŀĪ":5188,"Ġì§Ģìļ¸":5189,"íĸĪì§Ģë§Į":5190,"ìŀ¥ìĹĲ":5191,"ĠìĻ¤ì¼Ģ":5192,"ĠëĤ¨ì§Ģ":5193,"ìĤ¬ëĤ´":5194,"ìĤ¬íĻľëıĻ":5195,"ĠìĤ¬ê²¨":5196,"ĠìĤ¬ëŀĮìĿ´ëĿ¼ë©´":5197,"Ġíŀĺëĵ¤ì§ĢìļĶ":5198,"ĠìķĮê¸°":5199,"ĠìķĮë©´ìĦľëıĦ":5200,"ĠìĿ¼ìĿ´ì£ł":5201,"ìłģìĿ´ìķ¼":5202,"ìłģëł¹":5203,"Ġìłķíķ´ë³´ìĦ¸ìļĶ":5204,"Ġìłķìĥģ":5205,"ĠìłķíĻķ":5206,"Ġìłķë¥ĺ":5207,"Ġëª»íĸĪ":5208,"Ġê³łë§Ī":5209,"Ġê³łë§Ļ":5210,"Ġë¨¹ìĹĪìĸ´":5211,"ìļ°ìĬ¤":5212,"ìļ°ìĹ°íŀĪ":5213,"ìį¸ìĹĲìĦľ":5214,"ĠëģĪ":5215,"ĠëģĮ":5216,"Ġëģĵ":5217,"ĠëĲłì§ĢëıĦ":5218,"ĠëĲłê±°ìĺĪìļĶ":5219,"ë¬´ìĭľ":5220,"ë¶Ħëĵ¤":5221,"ë¶Ħëªħ":5222,"Ġíķĺëįĺ":5223,"ĠíķĺëĦ¤ìļĶ":5224,"Ġíķĺëł¤ê³ł":5225,"ĠíķĺëĭĪ":5226,"ĠìĤ´ì§Ģ":5227,"ĠìĤ´ê¸°":5228,"ĠìĤ´ìķĦìļĶ":5229,"ê°Ĳëĭ¹":5230,"Ġíķľëĭ¬ë":5231,"ëĭ¹ìĹ°":5232,"ë³µìĿ´":5233,"Ġì¢ĭìĿĦê¹ĮìļĶ":5234,"ìŀĪì£ł":5235,"ê·¸ë§Įíģ¼":5236,"ĠìĦłìĿ´":5237,"ëıĻë¬¼":5238,"ëıĻìĦ±":5239,"ëıĻíĺ¸":5240,"ë¥¸ì²Ļ":5241,"ìĻĢìĿĺ":5242,"ĠëŃĲëĿ¼":5243,"ĠëŃĲíķłê¹Į":5244,"ë¦¬ëŁ¬":5245,"ìĶ»":5246,"ìĨĮìĿĮ":5247,"ìĨĮì¤ĳ":5248,"ĠìłĦíĻĶë¥¼":5249,"ĠìłĦíĻĶê°Ģ":5250,"ĠëģĿìĹĲ":5251,"ĠëģĿëıĦ":5252,"ĠëģĿìĿ¸":5253,"ĠëģĿëĤĺê³ł":5254,"ê°Ļì§Ģ":5255,"ìģĺë©´":5256,"ĠëĤĺëĦ¤":5257,"ĠíķĦìļĶíķĺê²łìĸ´ìļĶ":5258,"ëĤľê±°":5259,"ìĨįìĹĲ":5260,"ĠìĹĨìĸ´ëıĦ":5261,"ëħĦìĿĦ":5262,"ëħĦê°Ħ":5263,"Ġëª¨ë¥´ëĬĶê²Į":5264,"ê´Ģìĭ¬ìĿĦ":5265,"Ġìī½":5266,"ê²½ìĿĺ":5267,"ĠëĪĪë":5268,"ìĺ¤ëĬĺìĿ´":5269,"ë°Ķë":5270,"ë°Ķë³´":5271,"ë°Ķë¹ł":5272,"ìļ¸ìĸ´ëıĦ":5273,"Ġë§ŀìĿĦê¹Į":5274,"Ġë§ŀìĿĦê±°ìĺĪìļĶ":5275,"íĹĺìĿ´":5276,"ĠíĸĪìĸ´ìļĶ":5277,"ĠìĨĮë¦¬ê°Ģ":5278,"ĠìķĦëĭĪê³ł":5279,"Ġìĺ¤ì§Ģ":5280,"ìĦ±íĺķ":5281,"íķĻìĥĿ":5282,"Ġì§Ħìĭ¬ìľ¼ë¡ľ":5283,"Ġê¹ĶëģĶ":5284,"íĦ°ê°Ģ":5285,"íĦ°ë¦¬":5286,"ë¹Ħë°":5287,"ë¹Ħë°Ģ":5288,"Ġì§ĿìĤ¬ëŀĳíķĺëĬĶ":5289,"Ġë¹¨":5290,"Ġë¹ĦëĤľ":5291,"ê·¼ì²ĺ":5292,"ìĦłíĥĿ":5293,"ì§Ģê¸ĪìĿ´ëĿ¼ëıĦ":5294,"ì§ĳìĿ´":5295,"ì¹ľêµ¬ë¡ľ":5296,"íķ´ìķ¼ì£ł":5297,"ì²ĺë¥¼":5298,"ëĳĲê·¼":5299,"ëĳĲë²Ī":5300,"Ġìį¸ìĿĺ":5301,"Ġìį¸íĥĢëĬĶ":5302,"§ĮìĹĲ":5303,"ĠìĿ´ìķ¼ê¸°íķ´ëıĦ":5304,"ĠíĹĽ":5305,"Ġì°¸ëĬĶ":5306,"Ġì°¸ìķĦë³´ìĦ¸ìļĶ":5307,"ĠíĥĶ":5308,"Ġíķĺì§Ģë§Į":5309,"Ġíķĺì§Ģë§ĪìĦ¸ìļĶ":5310,"Ġì¤Ħê¹Į":5311,"ë¹Ľ":5312,"ë¹¨ë¦¬":5313,"Ġíķ´ìķ¼ì£ł":5314,"Ġë³´ê³łìĭ¶ëĭ¤":5315,"Ġìĭľìŀĳíķ´":5316,"ĠìĭľìŀĳíķĺìĦ¸ìļĶ":5317,"íķĺëĭ¤ëĬĶ":5318,"íİ¸íķľ":5319,"Ġê³łë°±íķĺëĬĶ":5320,"ëĥĦìĥĪ":5321,"Ġê°ĢëĬ¥íķ´":5322,"Ġê°ĢëĬ¥íķ´ìļĶ":5323,"íĥĿìĭľ":5324,"ì½ķ":5325,"ĠìķĪëĲĺëĬĶëį°":5326,"ê²°íĺ¼ìĿĢ":5327,"ê²°íĺ¼ìĭĿ":5328,"ìĤ´ìĿ´":5329,"ìĤ´ìķĦ":5330,"Ġìĭ«ìĸ´íķĺëĬĶ":5331,"ìĵ°ëĬĶ":5332,"ìĵ°ëłĪê¸°":5333,"Ġë°°ìļ°ëĬĶ":5334,"Ġê·ĢìĹ½":5335,"ĠëĨĢì£ł":5336,"ĠìķĦëĭĪëĦ¤ìļĶ":5337,"ìī½ê²Į":5338,"ë¯¸ì¹ĺ":5339,"Ġëĸłìĺ¤":5340,"ĠëĸłëĤĺê³ł":5341,"ĠëĸłëĤĺë³´ìĦ¸ìļĶ":5342,"ìľĦíĹĺ":5343,"Ġíŀĺëĵ¤ìĸ´íķĺì§Ģ":5344,"Ġë²Ħíĭ°":5345,"Ġìłģê·¹ìłģìľ¼ë¡ľ":5346,"ìĿ´ë¸Į":5347,"¸ë¦°":5348,"Ġìļ°ìĤ°":5349,"ĠìŀĪìĹĪëĤĺìļĶ":5350,"Ġê²°íĺ¼ìĭĿ":5351,"ëĨĪ":5352,"ĠëĦĲ":5353,"ìĺĢìĿĦ":5354,"ìĺĢëĬĶëį°":5355,"ë§īë§Ĳ":5356,"ì±Ļ":5357,"ìĤ¶":5358,"ì¹¨ìĿ´":5359,"ì¹¨íĳľ":5360,"ë¦Ħëĭµ":5361,"ëĤ¨ìŀĲëĬĶ":5362,"Ġê·¸ëŁ´ê¹Į":5363,"ëĦĪëıĦ":5364,"Ġëĭµìŀ¥ìĿ´":5365,"ĠëĲĲìĸ´ìļĶ":5366,"ëĪĦêµ¬":5367,"Ġëĵ¯íķ©ëĭĪëĭ¤":5368,"ĠìĨįìĿ´":5369,"ĠìĨįìĹĲìĦľ":5370,"Ġë¶ĦìľĦ":5371,"Ġë¶ĦìľĦê¸°":5372,"ìĸĳë§Ĳ":5373,"ëķĮëĬĶ":5374,"ëŃĲëĿ¼ëıĦ":5375,"íĪ´":5376,"ìĥĪíķ´":5377,"ê°ľìĽĶë§ĮìĹĲ":5378,"ëĭ¬ëĿ¼ì§Ģ":5379,"ĠíıŃ":5380,"Ġë¶ĪìķĪ":5381,"Ġë¶Īíĸī":5382,"ĠìĿ´íķ´íķ´":5383,"ì¶ľë°ľ":5384,"ê°Īê±°ìĺĪìļĶ":5385,"ĠëıĮìķĦìĺ¬":5386,"Ġìŀ¡ìķĦ":5387,"Ġìŀ¡ìľ¼ìĦ¸ìļĶ":5388,"ĠìķŀëĳĲê³ł":5389,"Ġíķĺë£¨ëıĦ":5390,"ìĭ¸ìļ°":5391,"ĠëĲĺëĬĶê²Į":5392,"ëĤ´ìĿ¼ëıĦ":5393,"Ġìĸ´ëĶĶìĦľ":5394,"Ġìĸ´ëĶĶê¹Įì§Ģ":5395,"ìħĶìķ¼":5396,"Ġìĭ¤ê°ĲìĿ´":5397,"Ġìĭ¤ìĪĺë¥¼":5398,"ĠìĿ´ë¤Ħ":5399,"Ġìŀħì§Ģ":5400,"Ġê¹¨ëĭ«":5401,"ê¿ĪìĿĢ":5402,"Ġë´ĲìĦľ":5403,"ìĹ¬ìŀĲëĵ¤ìĿ´":5404,"Ġìľłíļ¨":5405,"ĠìĥĿê°ģíķ´ë´ĲìļĶ":5406,"Ġë§ĮëĤĺëıĦ":5407,"ĠìĽĲëŀĺ":5408,"ì©į":5409,"Ġìĭ¸ìĽĢ":5410,"ĠìĤ¬ìĿ´ìĹĲìĦľ":5411,"ì§ģìłĳìłģìĿ´ëĵł":5412,"ëĲĺì§Ģ":5413,"íķĺë£¨ê°Ģ":5414,"ĠíĴĢìĸ´ë³´ìĦ¸ìļĶ":5415,"ĠíĴĢëł¸":5416,"ĠìĻĢìĦľ":5417,"ĠíĿĺëł¤":5418,"Ġìŀĺëª»ìĿ¸":5419,"íķ´ì§ĢìĦ¸ìļĶ":5420,"Ġìį¸ë":5421,"Ġë§ŀëĬĶì§Ģ":5422,"Ġë¹łìł¸":5423,"Ġëįľíķł":5424,"ìĹĦì²Ń":5425,"Ġë§īíĺĢ":5426,"Ġë§ĺê³łìĥĿ":5427,"Ġê²½íĹĺìĿ´":5428,"ìĬ¬íĶĦ":5429,"ëŀĢê²Į":5430,"ĠìĪłë§Ī":5431,"ĠìķĦëĭĲê¹Į":5432,"íĬ¸ë¶ģ":5433,"Ġìļ©ê¸°":5434,"Ġìļ©ìĦľ":5435,"ĠìĬ¬íĶĪ":5436,"ì¢ħìĿ¼":5437,"ìĦ¸ìĥģìĹĲ":5438,"ìĦ¸ìĥģìĿĢ":5439,"ìĥģëĮĢë°©ìĿ´":5440,"Ġì§ĢëĤ´ëĬĶ":5441,"Ġë§ĲìĶĢíķĺìĦ¸ìļĶ":5442,"Ġì¶ķíķĺëĵľëł¤ìļĶ":5443,"Ġíĺ¸ê°ĲìĿĦ":5444,"ì¹ľêµ¬ëĵ¤ìĿ´ëŀĳ":5445,"Ġë§ĮëĤ¨ìĿ´ìĹĪê¸¸":5446,"Ġê·¸ëłĩì§Ģ":5447,"Ġê·¸ëłĩì£ł":5448,"ĠìĪľê°ĦìĿ´":5449,"ĠìĿ¼ë¶ĢíĦ°":5450,"ĠìľĦë¡ľë´ĩ":5451,"Ġì»¤íĶ¼":5452,"Ġì»¤íĶĮ":5453,"ĠìłķëıĦëĬĶ":5454,"íģ¬ëĭī":5455,"Ġì§ĿëħĢíķľíħĮ":5456,"ëĥĲê³ł":5457,"Ġëĭµëĭµíķ´":5458,"Ġë³Ħë¡ľëĿ¼ê³ł":5459,"ìĹĦë§ĪíķľíħĮ":5460,"Ġê¿Ģ":5461,"ĠíĹ¤ìĸ´ì§ĢìŀĲê³ł":5462,"ĠíĤ¤ìļ°ê³ł":5463,"ĠìĤ´ìķĦìķ¼":5464,"Ġì¶©ë¶Ħíķľ":5465,"Ġê¸°ëĭ¤ëł¤ì£¼ìĦ¸ìļĶ":5466,"Ġë©ĭì§Ħ":5467,"Ġë©ĭìł¸ìļĶ":5468,"íķĺìĭľëĦ¤ìļĶ":5469,"¸ëŀĺë°©":5470,"ìĦ¤ëł":5471,"ìĦ¤ëłĪ":5472,"Ġíŀĺëĵ¤ìĹĪìĿĦ":5473,"ĠëŃĶê°Ģ":5474,"Ġë¬´ìĭľíķĺëĬĶ":5475,"Ġì¢ħìĿ¼":5476,"ê·¸ë¶ĦìĿ´":5477,"ĠëĬĲê»´ìł¸":5478,"ĠíĶĦë¡ľ":5479,"ĠëķĢ":5480,"ĠëķĲ":5481,"ĠìŀĲì²´ë¡ľ":5482,"ĠìĤ¬ëŀĳíķľëĭ¤ê³ł":5483,"Ġìłĳìĸ´ëĳĲ":5484,"ëĸ¨":5485,"Ġë³´ìĹ¬ìļĶ":5486,"Ġë³´ìĹ¬ì£¼ìĦ¸ìļĶ":5487,"ĠëĤĺìķĦì§Ī":5488,"ĠëĤĺìķĦì¡Į":5489,"Ġì²ľìŀ¬":5490,"ĠìĺģíĻĶë³´":5491,"íĻĺìĬ¹ìĿĢ":5492,"ìĭľìĽĲíķĺê²Į":5493,"ì¶ķíķĺíķ©ëĭĪëĭ¤":5494,"Ġë°ĶëĿ¼ì§Ģ":5495,"Ġë°ĶëĿ¼ëĬĶ":5496,"ĠìĥģëĮĢë¥¼":5497,"ĠíĮĮìĿ´íĮħ":5498,"ë£Įê°Ģ":5499,"ĠìķĪëĲĺê²łì§Ģ":5500,"Ġë¶Ļìŀ¡ê³ł":5501,"Ġíĥľìĸ´ëĤ¬":5502,"ëŁ½ê²Į":5503,"Ġì§ĪíĪ¬":5504,"ĠìĿĳìĽĲíķ©ëĭĪëĭ¤":5505,"Ġê¸´ìŀ¥":5506,"Ġë¬¼ìĸ´ë´ĲìļĶ":5507,"Ġìļ°ìļ¸íķ´":5508,"ìĿĺë¥¼":5509,"íķĦìļĶíķľ":5510,"íķĦìļĶíķĺëĭ¤ë©´":5511,"ì§§ìĿĢ":5512,"Ġê±°ê¸°ê¹Įì§ĢìĺĢëĤĺë´ĲìļĶ":5513,"ëĭµëĭµíķľ":5514,"ĠìĬ¤ìĬ¤ë¡ľìĹĲê²Į":5515,"ë³´ìĹ¬ìļĶ":5516,"ĠíĹ¤ìķĦë¦¬ì§Ģ":5517,"ê·¸ëŁ¬ê²ĮìļĶ":5518,"Ġëª¨ëĵłê±¸":5519,"Ġêµ¬ë©į":5520,"ìª½":5521,"ê¹¨ëģĹ":5522,"ìĤ¬ì§ĦìĿĦ":5523,"íĨłëĭ¥":5524,"Ġë¬´ìĹĩìĿ´ëĵł":5525,"Ġë²Ħíħ¨ë³´ìĦ¸ìļĶ":5526,"Ġê¸ĢìĿĦ":5527,"ìĤ¬ê·Ħ":5528,"ĠëĴ·":5529,"ìĻ¸ëª¨":5530,"Ġì¶ľê·¼":5531,"Ġìĥģëĭ´ìĿĦ":5532,"Ġìĸ´ìļ¸ë¦¬ëĬĶ":5533,"Ġê½¤":5534,"Ġì§Ģëĥ":5535,"ìĭľìŀĳìĿ´":5536,"ìĭłíĺ¼ìĹ¬íĸī":5537,"ĠìĻ¸êµŃ":5538,"Ġìłķë¦¬ëĲł":5539,"ìĥĿê°ģë§Įíķ´ëıĦ":5540,"ëĪĦêµ¬ëĵł":5541,"ìĸ´ëĶĶìĦľ":5542,"ëĤŃë§Į":5543,"ìķĦëĭĪìĹĲìļĶ":5544,"Ġìķ¼ê·¼":5545,"Ġê·¸ëŀ¬ëĤĺë´ĲìļĶ":5546,"Ġê²°ìłķìĿ´ìĹĪìĿĦíħĲëį°":5547,"ë´¤ëĬĶëį°":5548,"ĠìĿĢê·¼":5549,"ë§ĲìĶĢíķ´ë³´ìĦ¸ìļĶ":5550,"ì½ľë¦¿":5551,"Ġì½ĶìĬ¤":5552,"ĠëĵľëĿ¼ë§Ī":5553,"ìľłì¦ĿìĿ´":5554,"ëĭ¬ëĭ¬íķľ":5555,"ĠëĳĲê·¼ê±°":5556,"ë¯¸ìĦ¸ë¨¼ì§Ģ":5557,"ë±ĥ":5558,"ê°Ģë²¼ìļ´":5559,"ìłĦíĻĺìĿĦ":5560,"ìĸµì§Ģë¡ľëĿ¼ëıĦ":5561,"Ġë¹łë¥¼ìĪĺë¡Ŀ":5562,"Ġë°ĿíĺĢë³´ìĦ¸ìļĶ":5563,"ëłĮíĥĢìĿ¸ëį°":5564,"ëļĿ":5565,"ì²Ńì²©ìŀ¥":5566,"Ġê°ĦìłĳìłģìĿ´ëĵł":5567,"ë¶ĢëŁ¬ìĽĮìļĶ":5568,"ëıĻíĺ¸íļĮ":5569,"Ġìľłíļ¨ê¸°ê°Ħ":5570,"ĠìľĦë¡ľë´ĩìŀħëĭĪëĭ¤":5571,"§¥":5572,"¨¹":5573,"©ìĸ¼":5574,"¬ìĥĿ":5575,"¯ë°¤":5576,"¯¸ë¶Ģ":5577,"²¼":5578,"´¤":5579,"½Ģ":5580,"ê¶ģ":5581,"ê¶Ī":5582,"ëĺ":5583,"ë´ħëĭĪëĭ¤":5584,"ëĬĲ":5585,"ë»Ķ":5586,"ëŁī":5587,"ë£©":5588,"íĢ":5589,"íĵ":5590,"Ġ7":5591,"Ġ9":5592,"Ģëĭ¤ë©´":5593,"ģëĭĪëĭ¤":5594,"Ĥł":5595,"Ĭł":5596,"įê²Į":5597,"ĲĲìĸ´":5598,"ĳł":5599,"ľ¨":5600,"ľì§":5601,"ŀįëĭĪëĭ¤":5602,"ł¸":5603,"Ńë¹Ħ":5604,"Ġëļ":5605,"Ġëł":5606,"ìĿµ":5607,"ìĿĳìĽĲ":5608,"ìļ±":5609,"ìĿ´ìĤ¬":5610,"ìĿ´ê±´":5611,"ìĿ´íģ¬":5612,"ìĿ´ìĦ±ìľ¼ë¡ľ":5613,"ìķķ":5614,"ìķĹ":5615,"ëĭĺ":5616,"ëĭĿ":5617,"ìĸ´ìł":5618,"ìĸ´ëĵ¤":5619,"ìĸ´ë¦°":5620,"ìĹī":5621,"ìĹ½ê²Į":5622,"ëĤĮ":5623,"ê³¡":5624,"ì§ĢìĦ¸ìļĶ":5625,"ì§Ģê¸":5626,"ì§Ģì£ł":5627,"ì§Ģê¸¸":5628,"ì§Ģê°ĳ":5629,"ì§Ģë§Ĳê³ł":5630,"ì§Ģíķĺì²ł":5631,"¬ëĦ¤":5632,"¬ë¥¼":5633,"íķ´ì§Ħ":5634,"íķ´ìĻ¸":5635,"ê°Ģìļ´":5636,"ìĦ¸íı¬":5637,"ê³łìŀĪ":5638,"ĠíĴ":5639,"íķĺëįĶëĭĪ":5640,"íķĺìŀĲ":5641,"ìĺ´":5642,"ìĺĢëįĺ":5643,"¸ë¬´":5644,"ìĿĢê·¼":5645,"ìĿĢê²ĥ":5646,"ìĿĢê±¸ê¹Į":5647,"ìĿĢíĩ´":5648,"ëıĦìĻĢ":5649,"ĠìĹ¼":5650,"ë³´ìĿ¼ëŁ¬":5651,"©´ì¦Ŀ":5652,"íķľê±´ê°Ģ":5653,"ĪëįĶ":5654,"Ġì¢ĭê³ł":5655,"Ġì¢ĭìĬµëĭĪëĭ¤":5656,"ìŀĲëĿ¼":5657,"ìŀĲê¸°ëıĦ":5658,"ìŀĲê²©ì¦Ŀ":5659,"ĠëĤ³":5660,"ĠëĤŃë¹Ħ":5661,"Ġê±°ëĳĺ":5662,"ê¸°íķľ":5663,"ê¸°íĶĦ":5664,"ê¸°ìĹħ":5665,"ê¸°ë³¸":5666,"ê¸°ìĪĻìĤ¬":5667,"ê²łìĿĮ":5668,"ê²łëĬĶëį°":5669,"¼ëŀĢ":5670,"Ġê²©":5671,"ì¹¼ë¡ľ":5672,"ìĺĪìģľ":5673,"ë¦İ":5674,"ìĬĪ":5675,"ìķ¼íķĺëĬĶëį°":5676,"íķłê±°ìĺĪìļĶ":5677,"íķłê±°ìķ¼":5678,"ĠìĤ¬ëŀĮë§Į":5679,"Ġëĭ«":5680,"ëł¤ë©´":5681,"ĠìĿ´ìĦ±ìľ¼ë¡ľ":5682,"Ģë²Ī":5683,"ë§ĮëĤĺëĬĶ":5684,"ë§Įì¡±":5685,"ë§ĮëĤĺê³ł":5686,"Ġíķ´ëĤ¼":5687,"Ġíķ´ì£¼ë©´":5688,"ìĿ¸ê±´ê°Ģ":5689,"ìĿĺíķĺìĦ¸ìļĶ":5690,"ìĿĺìĭĿ":5691,"ë°ĸ":5692,"ĠìķĦìĿ´":5693,"ĠìķĦíĶĮ":5694,"ĠìĹĨê²łì§Ģ":5695,"ĠìĹĨëĬĶê²Į":5696,"ĠìĹĨì§Ģë§Į":5697,"ëĿ¼ìĦľ":5698,"ê±°ê°Ļ":5699,"Ġì¢ĭìķĦíķĺìĭľ":5700,"ìłķíķľ":5701,"ìłķíĻķ":5702,"ë¦¬íĨµ":5703,"ìĭłë°ľ":5704,"ëĤ¨ìĹĲê²Į":5705,"ì°ľì§":5706,"Ġê²ĥëĵ¤":5707,"Ġê²ĥëĵ¤ìĿ´":5708,"ìłľì£¼ëıĦ":5709,"ì£¼ê¸°ìłģìľ¼ë¡ľ":5710,"įĶëĿ¼ëıĦ":5711,"ĠìĥĿê°ģëĤĺê³ł":5712,"ĠìķĬê²łìĸ´ìļĶ":5713,"ĠìķĬì§Ģë§Į":5714,"Ġë§Įì¡±":5715,"Ġë³´ìķĦìļĶ":5716,"Ġë³´ë©´ìĦľ":5717,"ë³ĦìĿ´":5718,"ë³ĦìĿĦ":5719,"ë³Ħíķľ":5720,"ë³Ħê±°":5721,"Ġê°Ģì§Ĳ":5722,"ëĤ´ìĦľ":5723,"ĠìķĪê°Ģ":5724,"ĠìķĪìĹĲ":5725,"ĵľëŁ½ê²Į":5726,"ĠëĤĺìĿĺ":5727,"ĠëĤĺíĺ¼ìŀĲ":5728,"Ġë§İëĭ¤":5729,"Ġë§İëĦ¤":5730,"Ġê¸Ģë¡ľ":5731,"Ġê¸¸ëŁ¬ë":5732,"ëł¤ìĽĮ":5733,"ëł¤ì£¼ìĦ¸ìļĶ":5734,"ëĿ½ê°ĢëĿ½":5735,"ìĹ¬ìļ°":5736,"ìĹ¬ìĤ¬ì¹ľ":5737,"ì¡´ìĭ¬":5738,"Ġë°Ķìģĺë":5739,"ì§Ħì§Ģ":5740,"ì§Ħê¸ī":5741,"ĠìĭľìĽĲ":5742,"Ġìĭľê³Ħ":5743,"ìĹĪê²łëĦ¤ìļĶ":5744,"ìĹĪëĤĺë´Ĳ":5745,"ë²¤":5746,"ë²Ĺìĸ´":5747,"ĠëįĶëŁ¬ìĽĮ":5748,"Ġê¸°ëıĦ":5749,"íŀĺìĿ´":5750,"Ġë¨¼":5751,"ìĭ¬ê²½ìĿĺ":5752,"ë§ĲëıĦ":5753,"ë§ĲíķĺëĬĶ":5754,"ìłĢë¦¬":5755,"Ġì§ĢëıĦ":5756,"Ġì§Ģê²¨":5757,"Ġì§ĢëĤ¬":5758,"íĸĪê¸¸":5759,"íĸĪëĤĺë´Ĳ":5760,"íĸĪëĤĺë´ħëĭĪëĭ¤":5761,"ĠìĹ°ëĿ½ìĿĢ":5762,"ĠìĹ°ëĿ½íķ´ìĦľ":5763,"ĠìĹ°ëĿ½ì²ĺë¥¼":5764,"ìłĦê³¼":5765,"ĠëĤ¨ëĬĶ":5766,"ĠëĤ¨íİ¸":5767,"ìĤ¬ìĿ´":5768,"ìĤ¬ê³¼":5769,"ìĤ¬íĳľ":5770,"Ġíŀĺëĵ¤ê²łëĦ¤ìļĶ":5771,"Ġíŀĺëĵ¤ì§ĢëıĦ":5772,"Ġíŀĺëĵ¤ê±°ìĺĪìļĶ":5773,"ĠëķĮë¡ł":5774,"ìĿ´ë³ĦìĹĲëĬĶ":5775,"ĠìķĮìķĺìĸ´":5776,"Ġë§ĪìĿĮëĮĢë¡ľ":5777,"ĠìĿ¼ë§Į":5778,"Ġìĸ´ëĸł":5779,"ìĬ¤ëĬĶ":5780,"ìĬ¤íĦ°":5781,"ìĬ¤ìŀĪëĬĶ":5782,"ë¯¸ëŀĺ":5783,"ë¯¸ë¥¼":5784,"ìłģìĿ´ì£ł":5785,"Ġì¢ĭìķĦíķĺëĬĶê±°":5786,"Ġëª¨ìķĦìĦľ":5787,"ëĮĢë¦¬":5788,"ëĮĢíļĮ":5789,"ëĮĢì¤ĳ":5790,"Ġëª»íķĺë©´":5791,"Ġëª»íĸĪëĤĺë´ĲìļĶ":5792,"Ġê³łê³ł":5793,"ë§ĪìĿĮìĿ´ëĿ¼ëıĦ":5794,"Ġë¨¹ì§Ģ":5795,"Ġë¨¹ìĹĪëĬĶëį°":5796,"ìļ°ë§Ī":5797,"ìļ°ë¦¬ëĬĶ":5798,"ìļ°ëĭĪê¹Į":5799,"ìļ°ë¦¬ê°Ģ":5800,"Ġê±´ê°ĢìļĶ":5801,"¦¬ìĦ¸ìļĶ":5802,"Ġìĭľê°ĦìĹĲ":5803,"Ŀ¼ëĬĶ":5804,"Ġë°ĽìĿĢ":5805,"Ġë°Ľìľ¼ë©´":5806,"ĠìĨĶë¡ľ":5807,"Ġíķĺëĵł":5808,"ë¶Ģë¥¼":5809,"Ġë²½":5810,"ĠìĤ´ë©´":5811,"ê°ĲìĤ¬":5812,"ê°ĲìłķìĿ´":5813,"Ġíķľê±°":5814,"ìķĪíķ´ëıĦ":5815,"ê³¼ê±°":5816,"íĨ±":5817,"ĠëĲĺê²łì§Ģ":5818,"ê±´ëį°":5819,"Ġëĵ¤ìĿĦ":5820,"Ġëĵ¤ìĹ¬ë³´ìĦ¸ìļĶ":5821,"ìŀĪìĬµëĭĪëĭ¤":5822,"ìŀĪìĿĦê¹Į":5823,"ëıĻê°Ĳ":5824,"íĸīê¸°":5825,"ìĭ¤ëĤ´":5826,"ìĭ¤ê°ĲìĿ´":5827,"ìĻĢìļĶ":5828,"ìĻĢìĦľ":5829,"ĠìŀĪëĬĶê±°":5830,"íĮ¸":5831,"ì¡ĮëĬĶëį°":5832,"ìĨĮë¬¸":5833,"ĠìķĪë°Ľ":5834,"ìĪĺì¦Ŀ":5835,"ìĪĺìĹħ":5836,"ìĪĺìĹ¼":5837,"ĠëģĿëĤ¬ëĦ¤":5838,"Ġë¯¸ë":5839,"Ġëĵľìĭľê³ł":5840,"ìľ¼ìĭł":5841,"ìľ¼ìħ¨":5842,"ĠíĹ¤ìĸ´ì§Ī":5843,"ĠíĹ¤ìĸ´ìł¸ìķ¼":5844,"Ġê±¸ê¹ĮìļĶ":5845,"ìĥĪë¡ľ":5846,"ìĥ¤ìĽĮ":5847,"ĠëĤĺëŀĳ":5848,"ĠëĤĺë¹ł":5849,"ĠìĹ¬ìŀĲìĻĢ":5850,"ĠíķĦìļĶíķľê°Ģë´ĲìļĶ":5851,"ì¤ĳê³ł":5852,"ì¤ĳêµŃìĸ´":5853,"ĠëĤ¨ìŀĲëĵ¤":5854,"ĠëĤ¨ìŀĲíķľíħĮ":5855,"Ġê´ľì°®ì§Ģë§Į":5856,"ìĿ´ìłľëĿ¼ëıĦ":5857,"ìĺ¤íĨł":5858,"Ġì¡°ì°¨":5859,"ê¾¸ë":5860,"Ġíĺ¼ëŀĢ":5861,"ĠíĽĦìľłì¦ĿìĿ´":5862,"ìĭĿëıĦ":5863,"ë°ĶìĿ´":5864,"ë°ĶíĢ":5865,"ê°ľìĿ¸":5866,"ĠìŀĪìĸ´ìķ¼":5867,"Ġê°ĢëĵĿ":5868,"Ġê°Ģë²¼":5869,"ĠíĥĢê¸°":5870,"ĠíĥĢëĭ¤ê°Ģ":5871,"ì°¨ëĿ¼ë¦¬":5872,"ìŀĳìłķ":5873,"ì¡°ê±´":5874,"ì¡°ìļ©":5875,"ì¡°ìĸ¸":5876,"ì¡°ì¹´":5877,"ëįĶëĭĪ":5878,"ĠìĿ¸ê¸°":5879,"íĬ¸ê°Ģ":5880,"íĬ¸ìĹħ":5881,"íĬ¸ì½ĺ":5882,"ê²¨ìļ¸":5883,"Ġë§ĮëĤĺê¸¸":5884,"íĹ¤":5885,"íĹ¬ìĬ¤":5886,"íķłê¹Įë´Ĳ":5887,"ĠíĸĪëĭ¤":5888,"ĠíĸĪëĤĺ":5889,"ĠìĨĮìĭ¬íķ´":5890,"ì¹ĺê³¼":5891,"ĠìĹ°ìķłë¡ľ":5892,"Ġê´Ģëł¨":5893,"Ġì¤ĳìļĶíķł":5894,"íķĻê¸°":5895,"Ġì§Ħê¸ī":5896,"Ġì°¨ê°ĳ":5897,"Ġì°¨ë¦¬ìĦ¸ìļĶ":5898,"Ġì°¨ìĿ´ê°Ģ":5899,"Ġì°¨ë¡Ģ":5900,"ëĵľìĭľ":5901,"Ġíķĺê±°ëĤĺ":5902,"Ġìĭľê°ĦìĿ´ê²łëĦ¤ìļĶ":5903,"ëĭ´ìĿĦ":5904,"Ġë¹Ī":5905,"ìŀĲìĭłë§Į":5906,"ìŀĲìĭłê°Ĳ":5907,"ìŀĲìĭłê³¼":5908,"ĠëıĦëĦ¤ìļĶ":5909,"Ġì°¾ìķĦìĺ¤":5910,"Ġìķłëĵ¤":5911,"ìĥĿê°ģíķĺê³ł":5912,"ê·¼ìĹĲ":5913,"ê·¼íķľ":5914,"ì§ĳìĹĲìĦľ":5915,"ëģĮ":5916,"Ġì¤Ģë¹ĦíķĺìĦ¸ìļĶ":5917,"ìĹ°ëĿ½íķ´":5918,"ìĹ°ëĿ½ìĿĢ":5919,"ìĹ°ëĿ½íķĺê³ł":5920,"Ġëħ¸ëł¤":5921,"Ġíİ¸íķľ":5922,"Ġíİ¸ìķĪ":5923,"ë³´ëĭ¤ëĬĶ":5924,"Ġìłķë¦¬íķĺëĬĶ":5925,"Ġë°©ë²ķìĿĦ":5926,"Ġìį¸ìĿĦ":5927,"Ġì§ĳìĹĲìĦľ":5928,"Ġì§ĳìķĪ":5929,"Ġëª°ëŀĺ":5930,"ëª¨ìĬµ":5931,"êµĲíļĮ":5932,"ĠìĿ´ìķ¼ê¸°íķ´":5933,"ĠìĿ´ìķ¼ê¸°ë¥¼":5934,"Ġì°¸ê³ł":5935,"ĠíĥĢëįĺ":5936,"Ġì¤ĦìĹ¬ë³´ìĦ¸ìļĶ":5937,"Ġì¤Ħìĸ´ëĵ¤":5938,"íĶ¼ìŀĲ":5939,"íĶ¼ìĭ±":5940,"Ġìĭľìŀĳíķ´ëıĦ":5941,"Ġë°ĽìķĦë³´ëĬĶ":5942,"ĠìķĦëĭĮê±°":5943,"ĠìķĦëĭĮê°Ģë´ĲìļĶ":5944,"ĠíĻķìĭł":5945,"°©ë²ķìĿĦ":5946,"ìŀłìĪĺìĿ´ë³Ħ":5947,"ĠëĳĲëĭ¬":5948,"Ġë§Įëĵ¤ëł¤ê³ł":5949,"Ġê³µê°ľ":5950,"Ġê³łë¯¼íķĺê²Į":5951,"Ġìĭłê³ł":5952,"ë²Ħë¦´":5953,"Ġê³łë°±ìĿĦ":5954,"Ġëĵ¤ìĸ´ê°Ģ":5955,"íĥĦ":5956,"Ġíŀĺëĵľìĭłê°Ģë´ĲìļĶ":5957,"Ġê°ĢëĬ¥íķłê¹Į":5958,"ìķĦì§ģìĿĢ":5959,"ìħ¨êµ°ìļĶ":5960,"ìĦľë¡ľê°Ģ":5961,"Ġë¬¸ìĭł":5962,"ìĻĶëĭ¤":5963,"ìĻĶìĬµëĭĪëĭ¤":5964,"ë¨¹ìĿĦ":5965,"ìķĦë¬´ëıĦ":5966,"ìķĺëĤĺë´ħëĭĪëĭ¤":5967,"Ġê·Ģë¥¼":5968,"Ġë¶ĢëĵľëŁ½ê²Į":5969,"ĠëĨĢëĭ¤":5970,"ĠìķĦëĭĪëŀįëĭĪëĭ¤":5971,"ë§¤ì£¼":5972,"ë³´ê³łìĭ¶ìĸ´":5973,"ìĬ¤ëŁ¬ìļ¸":5974,"ĠìĤ¬ë³´ìĦ¸ìļĶ":5975,"ëªħìłĪ":5976,"íİ¸ë":5977,"Ġê±±ìłķìĿ´":5978,"Ġê±±ìłķìĿĢ":5979,"Ġê±±ìłķëĲĺê²łëĦ¤ìļĶ":5980,"ĠìĤ¬ê·Ģìĸ´ëıĦ":5981,"Ġê²°íĺ¼íķł":5982,"Ġê°ĲìłķìĿĺ":5983,"ĠëĦĵ":5984,"ìĺĢìľ¼ë©´":5985,"ĠìķĬìĿĦê±°ìĺĪìļĶ":5986,"ĠìŀłìĪĺ":5987,"Ġìŀłìŀ¬ë":5988,"Ġê·¸ëŁ´ì§ĢëıĦ":5989,"ëĦĪìĹĲê²Į":5990,"ĠìĦ±íĸ¥":5991,"ìķ½ìĿ´":5992,"ìĹ¬ëıĦ":5993,"ìĹ¬ëŁ¬ë":5994,"Ġê°ĦìĤ¬":5995,"ì³ĲìĦľ":5996,"ì³Ĳë³´ìĦ¸ìļĶ":5997,"ë°ĽìĿĢ":5998,"Ġë¶Ħëĵ¤":5999,"Ġë¶Ħëªħ":6000,"ë¶Ģë¡ľ":6001,"ë¶ĢëŁ½ëĦ¤ìļĶ":6002,"ëķĮë¡ł":6003,"ìį¹":6004,"íĺķìĿ´":6005,"Ġë§İìĿĢê°Ģë´ĲìļĶ":6006,"Ġê¸°ìĸµìĿ´":6007,"Ġê¸°ìĸµìĿĦ":6008,"ĠíĻĶëĤ´":6009,"íĪ¼":6010,"ìĥĪíķĻê¸°":6011,"ê°ľìĽĶì§¸":6012,"ĠìĤ¼":6013,"Ġë¶Īê³µíıī":6014,"Ġìĺ¬ê¹Į":6015,"Ġê¸°ë¶ĦìĿĢ":6016,"ĠëıĻë£Įê°Ģ":6017,"ì¶ľíĩ´ê·¼":6018,"íĽĦíļĮíķł":6019,"ëĪĪìį¹":6020,"ìĺģìĪĺì¦Ŀ":6021,"ĠëıĮìķĦê°Ģê³ł":6022,"íĻķìĿ¸":6023,"Ġìĭ¬íķľê°Ģë´ĲìļĶ":6024,"Ġìĭ¬íķĺê²łëĦ¤ìļĶ":6025,"Ġìĸ¼ë§Īë":6026,"ĠìĹ¬íĸīê°Ģ":6027,"Ġíķĺë£¨ë¥¼":6028,"ìĭ¸ìļ°ë©´":6029,"ìĺ¬íķ´":6030,"Ġìĸ´ëĶĶë¡ľ":6031,"Ġë²Īíĺ¸ë¥¼":6032,"Ġê¼¼":6033,"ĠìĿ´ë»Ĳ":6034,"Ġë§ĮëĤ¬":6035,"ëĶ´":6036,"Ġìŀħìĸ´":6037,"Ġìŀħê³ł":6038,"ìĹ¬ìŀĲê°Ģ":6039,"ëľ°":6040,"ê¸°ëĭ¤ë¦¬ê³ł":6041,"ê¸°ëĭ¤ë¦¬ì§Ģ":6042,"ëĤ¨ìŀĲì¹ľêµ¬íķľíħĮ":6043,"Ġë§ĮëĤĺëŁ¬":6044,"Ġë§ĮëĤĺë³´":6045,"ĠìĤ¬ìĿ´ìĿ¸ëį°":6046,"ëĲĺê²łìĸ´ìļĶ":6047,"Ġ30":6048,"ìķĮë©´ìĦľëıĦ":6049,"ìķĮëľ°":6050,"Ġê·¸ë§Įíķĺê³ł":6051,"Ġ20":6052,"Ġë§ĽìĿ´":6053,"Ġìļ´ìĿĦ":6054,"Ġë¶Ģëĭ´ìĬ¤ëŁ½ì§Ģ":6055,"Ġì¶Ķì²ľíķ©ëĭĪëĭ¤":6056,"Ġì¶Ķì²ľíķ´ì¤ĺ":6057,"Ġëħ¸ëł¥íķĺëĬĶ":6058,"Ġì¦Ĳê±°ìļ´":6059,"ë¦°ëĭ¤":6060,"Ġë§Ĳíķ´ì¤ĺ":6061,"Ġë§Ĳíķ´ë´ĲìļĶ":6062,"Ġë¶ĻìĹ¬ë³´ìĦ¸ìļĶ":6063,"ĠìłĲìĿ´":6064,"ĠìłĲìĿĢ":6065,"Ġê³¼ìłķìĿ´":6066,"íļĮìĤ¬ìĹĲëĬĶ":6067,"ĠëĦĺìĹĪëĦ¤":6068,"Ġìŀ¬ë¯¸ìŀĪìĸ´ìļĶ":6069,"ê¸°ë¶ĦìłĦíĻĺìĿĦ":6070,"ĠëĤĺê°Ģê¸°":6071,"ĠìĿ¼ìĸ´ëĤł":6072,"ëĵ¯íķľ":6073,"ì²ĺìĿĮìĹĲëĬĶ":6074,"ì²ĺìĿĮë¶ĢíĦ°":6075,"ìłģìĿ´ê³ł":6076,"Ġìļ©ê¸°ë¥¼":6077,"ë§¤ìĿ¼ë§¤ìĿ¼":6078,"ìĦ¸ìĥģìĹĲëĬĶ":6079,"Ġë§¤ëł¥":6080,"Ġë§¤ëĭ¬ë":6081,"Ġì§Ģê¸ĪìĿĢ":6082,"Ġì¶ķë³µ":6083,"Ġíĺ¸ê°ĲìĿ´":6084,"ĠìĽĥìĸ´ë³´ìĦ¸ìļĶ":6085,"Ġë¬¸ìłľë¡ľ":6086,"Ġíĭ°ë¥¼":6087,"ĠëĶ´":6088,"ĠëĲĺìĹĪëĤĺë´ĲìļĶ":6089,"ì½Ķê°Ģ":6090,"ì»¤íĶ¼íĸ¥":6091,"ì´Īë":6092,"ĠìĿ¼ëĵ¤ìĿ´":6093,"Ġë§Īìĭľë©´":6094,"Ġíļ¨":6095,"Ġë§ĿíĸĪìĸ´":6096,"Ġì¹ĺìľł":6097,"Ġì¹ĺìĹ´":6098,"ĠìĬµê´ĢìĿĦ":6099,"ĠìĬµê´ĢìĿ´ëĦ¤ìļĶ":6100,"ĠìĬ¤íĬ¸ëłĪìĬ¤ê°Ģ":6101,"Ġëĵ£ëĬĶëį°":6102,"Ġë³Ħë¡ľìķ¼":6103,"Ġê°Ķìĸ´":6104,"Ġê°ĶëĬĶëį°":6105,"ĠíĹ¤ìĸ´ì§ĢìŀĲ":6106,"ĠíĥĪíĩ´":6107,"ĠíĤ¤ìĽĮ":6108,"ĠìłĦíĻĶíķĺëĬĶ":6109,"ëĤĺíķľíħĮë§Į":6110,"ê±°ë¦¬ê²łìĸ´ìļĶ":6111,"ìķŀë¨¸ë¦¬":6112,"ìĥĿíĻľìĿ´":6113,"ĠìŀĬíĺĢì§Ī":6114,"ĠìķĦëĭĪëĿ¼ëĬĶ":6115,"ĠëĤĺìĿĦì§ĢëıĦ":6116,"ëĥĪìĬµëĭĪëĭ¤":6117,"ë©ĭì§Ģê²Į":6118,"ìŀĸìķĦ":6119,"Ġìĺ¨ëĭ¤":6120,"ĠíĸīëıĻìĿ´":6121,"ĠëĤ«ê²łì§Ģ":6122,"ìĿ´ìĥģíķľ":6123,"ìłķìĭłì°¨":6124,"Ġê´´ë¡ľ":6125,"Ġìĸĺê¸°ë¥¼":6126,"ĠëĤĺëĪĦ":6127,"Ġë¹Įëł¤ë³´ìĦ¸ìļĶ":6128,"ĠíĬ¸":6129,"Ġë©Ģë¦¬":6130,"ĠìĿĺë¯¸ê°Ģ":6131,"ë°Ģëĭ¹":6132,"Ġì²Ńíķ´ë³´ìĦ¸ìļĶ":6133,"Ġì²ŃìĨĮ":6134,"ë©Ķëª¨":6135,"ĠíĮĮíĺ¼":6136,"ĠíĮĮë¨¹ê¸°":6137,"©°ë³´ìĦ¸ìļĶ":6138,"ĠìķĦíĶĶìĿ´":6139,"ë¶Ģëĭ´ìĬ¤ëŁ½ì§Ģ":6140,"ĠìļĶê¸Ī":6141,"ĠëĨĢëŁ¬ê°Ģê³ł":6142,"ìĦ±ê³µìĿĦ":6143,"Ġë¶Ģì¡±íķľ":6144,"ìķĪëħķíķĺìĦ¸ìļĶ":6145,"ìĵ¸ëį°":6146,"ĠìĿĮìĭĿìĿĦ":6147,"Ġìĸ´ëłµëĦ¤":6148,"ëħ¸íĬ¸ë¶ģ":6149,"Ġê¹Ĭê²Į":6150,"ĠíĿĶìłģ":6151,"ĢìĿ´ìĬ¤":6152,"ĠìĿĳìĽĲíķ´ìļĶ":6153,"ìĥģëĮĢê°Ģ":6154,"ĠìŀĲìĹ°ìĬ¤ëŁ¬ìļ´":6155,"ĠëĪĦêµ¬ìĹĲê²ĮëĤĺ":6156,"ìĿĺë¯¸ë¶Ģ":6157,"ê²ģê²Į":6158,"ê°ĢìĬ´ìĿ´":6159,"íķĺëł¤ëĬĶ":6160,"ìĬ¤íĥĢíĬ¸ìĹħ":6161,"Ġíľ´ìĭĿìĿĦ":6162,"ì§Ħìłķìľ¼ë¡ľ":6163,"Ġê¸°íļĮë¥¼":6164,"Ġê³łìĥĿíĸĪìĸ´ìļĶ":6165,"ĠëĬ¥ëł¥ìĿĦ":6166,"Ġê²½ìļ°ê°Ģ":6167,"Ġê²½ìļ°ëıĦ":6168,"ìĿ´íĬ¸ëį°":6169,"ì£¼ë§ĲìĹĲ":6170,"ĠìĨĮê°ľìĭľì¼ľ":6171,"Ġì§ĳì°©íķ´":6172,"ì²ŃìĨĮë¥¼":6173,"Ġì¦Ŀê±°ë¥¼":6174,"Ġë§ĽìŀĪìĸ´ìļĶ":6175,"ĠíĦ°ëĨĵê³ł":6176,"Ġì¢ĭìķĦíķľëĭ¤ê³ł":6177,"ĠëģĿëĤ¬ìľ¼ë©´":6178,"Ġì§ĳì¤ĳíķĺìĦ¸ìļĶ":6179,"ìĽĶê¸īìĿ´":6180,"ìŁģìĿ´":6181,"ìĤ¬ê·Ģë©´":6182,"ìį¸íĥĢëĬĶ":6183,"ê²°ìłķìĿĢ":6184,"Ġë©Ķëī´":6185,"Ġì´Īê¸°":6186,"ìĺĪë»Ĳ":6187,"ìľ¡ëĮĢíļĮ":6188,"ĠìĥĪì¶ľë°ľ":6189,"Ġì¹´íİĺìĹĲìĦľ":6190,"ì¸µ":6191,"ĠìłĪìķ½":6192,"ĠìĹĨìķłëĬĶ":6193,"Ġê³łì³Ĳìĵ°ëĬĶ":6194,"Ġì¶©ìłĦíķĺìĦ¸ìļĶ":6195,"ëĪĪë¬¼ìĿ´":6196,"ĠìĦłíĥĿìĿ¼ê±°ëĿ¼":6197,"Ġê´´ë¡Ńê²Į":6198,"Ġíĳľìĭľ":6199,"ë³ĳìĽĲìĹĲ":6200,"ĠìĿ´ìļ©íķ´ì£¼ìĦ¸ìļĶ":6201,"Ġê¸°ê°ĦìĿ´":6202,"Ġì£¼ë³ĢìĹĲ":6203,"Ġë´ĦìĿ´":6204,"íĶ¼ë¶Ģê°Ģ":6205,"Ġì°¨ë¶ĦíŀĪ":6206,"Ġíģ´ëŁ½":6207,"Ġêµ°ì¹¨ìĿ´":6208,"ĠìĨįìĥģíķ´":6209,"Ġì§ĢëĤĺê°Ķê¸¸":6210,"ëŁ°íķĺìĭľëĦ¤ìļĶ":6211,"ìŀĲì¡´ê°ĲìĿ´":6212,"ĠìŀĲì¡´ê°ĲìĿ´":6213,"íŀĪëł¤":6214,"ê´´ê°Ĳ":6215,"ìĥĪë²½ìĹĲ":6216,"ì°¨ê·¼ì°¨ê·¼":6217,"Ġë¹¼ê³ł":6218,"ë°°ê³łíĮĮ":6219,"Ġìį¼ìĸ´":6220,"ĠëĦĪë¥¼":6221,"Ġìŀĥìĸ´":6222,"ê°ģìŀĲìĿĺ":6223,"íŀĺê»ı":6224,"íģ´ëŁ½":6225,"Ġë¹ĦêµĲíķĺì§Ģ":6226,"Ġëĥīìłķ":6227,"ëĵĿíħľ":6228,"Ġê²¨ìļ°":6229,"Ġë°Ķìģľê°Ģë´ĲìļĶ":6230,"ë³µìŀ¡íķľ":6231,"íĺĦê¸ĪìĺģìĪĺì¦Ŀ":6232,"Ġê¸°ëĭ¤ë¦¬ëĬĶê²Į":6233,"ë¹Įëł¤":6234,"Ġë¶ĢëĶªíĺĶ":6235,"Ġìļ°ìĦłìĪľìľĦ":6236,"ĠìĿ´ë£¨ìĸ´":6237,"Ġê¾¸ë©°ë³´ìĦ¸ìļĶ":6238,"Ġìķħëª½":6239,"ĠìĹĲëĦĪ":6240,"ë¶Ģì§ĢëŁ°íķĺìĭľëĦ¤ìļĶ":6241,"Ġì°¨ê°ĢìĽĮ":6242,"íĿĶëĵ¤ë¦¬ì§Ģ":6243,"ĠìĿĺë¯¸ë¥¼":6244,"ìĿ´ìĬ¤íĶ¼ìĭ±":6245,"ê³°íŀĪ":6246,"ĠíĥĿìĭľ":6247,"ë³Ģëªħ":6248,"ëĭ¤ëħĢìĺ¤ìĦ¸ìļĶ":6249,"Ġìĭ¤ë¡Ģ":6250,"ìĿĺìļķìĿ´":6251,"ĠìĦłë¬¼ë¡ľ":6252,"ĠëĬĻìĸ´":6253,"êµĲíĨµìĿĦ":6254,"Ġë²Ĺìĸ´ëĤĺìĦ¸ìļĶ":6255,"ĠíĻĺìĬ¹ìĿ´ë³Ħ":6256,"Ġíĳ¸ëĬĶ":6257,"ìħĢíĶĦìĽ¨ëĶ©":6258,"Ġíķĳê³Ħ":6259,"Ġìłķë¥ĺìŀ¥ìĹĲìĦľ":6260,"ìĨĮì¤ĳíķľ":6261,"ë¹Ħë°Ģë²Ī":6262,"ĠíĹĽíĹĽ":6263,"ëĭ¬ëĿ¼ì§ĢëĬĶê²Į":6264,"ìĭ¸ìļ°ë©´ìĦľ":6265,"ìĬ¬íĶĦëĦ¤ìļĶ":6266,"Ġì§ĢëĥĪ":6267,"ëłĮíĥĢìĿ¸ëį°ìĿ´":6268,"ëĺ¥":6269,"íĵ¨":6270,"ìĸ´ìł¯ë°¤":6271,"ê¸°íĶĦíĬ¸ì½ĺ":6272,"ì¹¼ë¡ľë¦¬":6273,"ì°ľì§Īë°©":6274,"Ġê°Ģì§ĲìĹĲ":6275,"Ġì§Ģê²¨ìĽĮ":6276,"ëĮĢì¤ĳêµĲíĨµìĿĦ":6277,"ìĺ¤íĨłë°ĶìĿ´":6278,"Ġìŀłìŀ¬ëł¥":6279,"Ġìĸ¼ë§Īëĵłì§Ģ":6280,"ë¹Ħë°Ģë²Īíĺ¸":6281,".?":6282,"§¤":6283,"ª°":6284,"°°":6285,"°ìĸ´":6286,"°ëĮĢ":6287,"°ĸìĹĲ":6288,"±ìĪŃìĥĿìĪŃ":6289,"´ê¹Į":6290,"¶Ģë¡ľ":6291,"º¼ë":6292,"¼ìĸ´":6293,"âĢ":6294,"ë½ĳ":6295,"ìĳ¥":6296,"Ġãħİãħİ":6297,"ģìĹĪìĸ´":6298,"ģìĵ¸":6299,"įĺë":6300,"ĳìĹŃ":6301,"ļìĭľ":6302,"ľìĸ´":6303,"ľíķľ":6304,"ŁìķĦ":6305,"ł¤ë":6306,"Ġì¥":6307,"Ġìº":6308,"ĠìħĢ":6309,"ĠìŁģ":6310,"ĠëĦ¤":6311,"ĠëĶĶ":6312,"ìļ¸ëł":6313,"Ġê¶Į":6314,"ìĿ´ê¸°":6315,"ìĿ´ëĤĺë":6316,"ìĿ´ê²łì£ł":6317,"ìĿ´ë³´ëĭ¤":6318,"ìĿ´ë¦Ħ":6319,"ĺëĭ¤":6320,"ê°Ŀ":6321,"ëĭ¿":6322,"ìĸ´ëł¸":6323,"ìĸ´ê¹¨":6324,"ê²Ł":6325,"ìĹĪëįĶëĭĪ":6326,"ì§ĢëĤ´":6327,"ì§Ģì§Ħ":6328,"ì§Ģê²łëĦ¤ìļĶ":6329,"ì§Ģì¹ł":6330,"¬ëįĶëĭĪ":6331,"íķ´ê°Ģ":6332,"íķ´ëĭ¬ëĿ¼ê³ł":6333,"ìŀĩëª¸":6334,"ìķĦë§Ī":6335,"ìķĦì£¼ìĦ¸ìļĶ":6336,"ê°Ģê°Ģ":6337,"ê°ĢìĿĦ":6338,"ê°ĢìĬ¤ë":6339,"ê³łì¹ł":6340,"ìłĪë":6341,"ëĭ¤ìĸĳ":6342,"Ġìķ¡":6343,"ìĭ¼":6344,"ìĭ¬ë":6345,"ë§ĺìĿ´":6346,"íķĺì§Ħ":6347,"íķĺìĭ¤":6348,"íķĺìĭłê°Ģë´ĲìļĶ":6349,"íķĺìļ°ìĬ¤":6350,"ìĺ¬ë":6351,"ìĺ¬ëĿ¼":6352,"ìĿĢê±°":6353,"ëıĦë¡Ŀ":6354,"ĠìĹ®":6355,"ĠìĹħ":6356,"ë³´ìĿ´ìĬ¤íĶ¼ìĭ±":6357,"ĠìŀĪìĿĮ":6358,"ĠìŀĪìľ¼ëĭĪê¹Į":6359,"ĠìŀĪìľ¼ìĭłê°Ģë´ĲìļĶ":6360,"íķľëĭ¤ê³ł":6361,"íķľê°ķ":6362,"íķľê°ĢìļĶ":6363,"íķľì°½":6364,"íķľìĪ¨":6365,"Īë¥¼":6366,"Ġì¢ĭìľ¼ë":6367,"Ġì¢ĭìľ¼ë©´":6368,"Ġì¢ĭì§ĢìļĶ":6369,"ìŀĲìĦ¸íŀĪ":6370,"ĠëĤ®":6371,"ĠëĤĻ":6372,"Ġê±°ëĬĶ":6373,"Ġê±°ëĿ¼ê³ł":6374,"Ġê±°ë¥´ìĦ¸ìļĶ":6375,"Ġìĭ±ìĪŃìĥĿìĪŃ":6376,"ê¸°ìĹĲ":6377,"ê¸°íļĮ":6378,"íķĺëĬĶê±¸":6379,"ê²łëĭ¤ê³ł":6380,"Ġê²ģ":6381,"ìĦľìķ¼":6382,"ìĦľíĪ°":6383,"ë¥ł":6384,"ë¦ħëĭĪëĭ¤":6385,"Ġë°Ł":6386,"ëį°ëł¤":6387,"ê·¼ë":6388,"ê·¹ë³µ":6389,"ĠëĭĪ":6390,"´Ĳìķ¼ì§Ģ":6391,"ĠìĪĺë©´":6392,"Ġì§±":6393,"ĠìĿ´íĺ¼":6394,"ĠìĿ´ìĦ±":6395,"ĠìĿ´ë¯¸":6396,"ĢëĮĢ":6397,"Ġë³ĳìĽĲ":6398,"Ġìłĸ":6399,"ë§ĮëĤł":6400,"ë§ĮëĤĺë©´":6401,"Ġíķ´ì£¼":6402,"Ġíķ´ì¤Ħ":6403,"Ġíķ´ë³´ê³ł":6404,"Ġíķ´ì£¼ê³ł":6405,"Ġíķ´ìķ¼ëı¼":6406,"¤ë²ķ":6407,"ìĿ¸ê³µ":6408,"ìĿ¸ì¤Ħ":6409,"ìĿ¸ê±¸ê¹Į":6410,"ìĭľì§Ģ":6411,"ìĭľëıĦ":6412,"ìĿĺê¸Ī":6413,"ìľ¼ë©°":6414,"ĠìķĦì£¼":6415,"ĠìķĦíĮ":6416,"ĠìķĦìī¬":6417,"ĠìķĦë¦Ħëĭµ":6418,"ĠìĹĨê²łì§ĢìļĶ":6419,"ëĿ¼ëĬĶê²Į":6420,"ê±°ë¦¬ë¥¼":6421,"Ġì¢ĭìķĦíĸĪìľ¼ë©´":6422,"Ġì¢ĭìķĦíķĺëĤĺë´ĲìļĶ":6423,"íĸĩ":6424,"íĸĪëĦ¤ìļĶ":6425,"ìĿ¼ìĹĲ":6426,"ìĿ¼ìĿĢ":6427,"ìĿ¼íķĺëĬĶ":6428,"ìĿ¼ìĿ´ëĦ¤ìļĶ":6429,"ìĿ¼ëĭ¨":6430,"ìłķìłģìĿ¸":6431,"ìĭłíķĺê³ł":6432,"ìĭłì¤ĳ":6433,"ìĭłë¢°":6434,"ëĤ¨ìĤ¬ì¹ľ":6435,"ëĤ¨ìĤ¬ì¹ľìĿ´":6436,"ì°¾":6437,"ì°Ĳ":6438,"Ġê²ĥë§Į":6439,"Ġê²ĥìŀħëĭĪëĭ¤":6440,"Ġê²ĥëĵ¤ìĿĦ":6441,"Ġìĸ´ë¦¬ê²Į":6442,"ìłľê²Į":6443,"ì£¼ì§¸":6444,"ì£¼ìłĢë¦¬":6445,"Ġìĺ³":6446,"įĶëĿ¼ê³łìļĶ":6447,"ĠìĥĿê°ģìľ¼ë¡ľ":6448,"ĠìĥĿê°ģëĤł":6449,"ĠìĥĿê°ģíķ´ìĦľ":6450,"ĠìķĬëĬĶê²Į":6451,"ĠìĪĺì¤Ģ":6452,"Ġê±¸ëł":6453,"ê°ĦìĨĮìĿĮ":6454,"Ġë§ĮìĹĲ":6455,"Ġë³´ìĿ¼":6456,"Ġë³´ìĿ´ëĦ¤ìļĶ":6457,"Ġë³´ëĭ¨":6458,"Ġë³´ìŀĲê³ł":6459,"Ġë³´ëĥ":6460,"Ġë³´ëĤ¼":6461,"Ġë³´ë©°":6462,"Ġë³´ëĥĪìĸ´":6463,"Ġë§Ĳíķľ":6464,"Ġë§ĲíĸĪìĸ´":6465,"Ġë§Ĳíķ´ì£¼":6466,"Ġê°ĢëĿ¼":6467,"Ġê°Ģë§ĮíŀĪ":6468,"ë©´íĹĪ":6469,"Ġëĭ¤ë¥":6470,"Ġëĭ¤ì§Ĳ":6471,"Ġëĭ¤íĪ¼":6472,"ĠìĹ°ìĨį":6473,"ì²¨":6474,"ëĤ´ëł¤":6475,"ĠìķĪì¢ĭ":6476,"ĠìķĪíķĺì§Ģ":6477,"ĠëĤĺê°Ķìĸ´":6478,"Ġë§İìľ¼ë©´":6479,"Ġë§İìķĺ":6480,"Ġê¸Ī":6481,"Ġê¸Īë°©":6482,"Ġê¸ģìĹĪìĸ´":6483,"ëł¤ìĦľ":6484,"ë¡ľê·¸":6485,"ķĮëĬĶ":6486,"Ġì°¬":6487,"Ġì°½":6488,"Ġë°ĶëĶĶ":6489,"Ġë°Ķë¥´ê³ł":6490,"ëĵ¤ì§Ģ":6491,"ì§Ħê²Į":6492,"ì§Ħìĭ¬ìĿ´":6493,"ì§Ħìĭ¤ë":6494,"ê·¸ëĮĢë¡ľ":6495,"ì¹ľêµ¬ìĻĢ":6496,"ìĹĪê¸¸":6497,"Ġê·¸ë¥¼":6498,"Ġê·¸ë¶Ħ":6499,"Ġê·¸ëŁ¬ë":6500,"ĠìŀĲëĬĶ":6501,"ĠìŀĲëıĦ":6502,"ĠìŀĲë©´":6503,"ê¸ĪìĹ°":6504,"ĠìĤ¬ëŀĳëıĦ":6505,"ĠìĤ¬ëŀĳíķĺë©´":6506,"ĠìŀĪìĿĦê²ĮìļĶ":6507,"ĠëįĶìļ±":6508,"ìĹ°ìłľ":6509,"ëħ¹":6510,"ëħ¸ëŀĺë°©":6511,"Ġìŀĺíķ´ì£¼ìĦ¸ìļĶ":6512,"Ġìŀĺíķ´ì£¼ëĬĶ":6513,"Ġìŀĺíķ´ì¤":6514,"íŀĪëĦ¤":6515,"Ġë¶ģ":6516,"ĠìĹ¬ìľłê°Ģ":6517,"ë§Ĳíķĺê³ł":6518,"Ġì§Ģê¸":6519,"Ġì§ĢëĤ¼":6520,"Ġì§Ģì¹ł":6521,"Ġì§ĢëĤĺë©´":6522,"Ġì§Ģë¥´ê³ł":6523,"Ġì§Ģìļ°ê³ł":6524,"ê¸¸ìĿĢ":6525,"ê¸¸ìĹĲìĦľ":6526,"ĠìĹ°ëĿ½ìĺ¤":6527,"ìĥĿìĿ¸ëį°":6528,"ìłĦìĿ´":6529,"ìłĦíķĺì§Ģ":6530,"ĠìĻķ":6531,"ĠëĤ¨ê¸¸":6532,"ĠëĤ¨ìķĺëĤĺë´ĲìļĶ":6533,"ìĤ¬ìĹĲ":6534,"ìĤ¬ìĹħ":6535,"ĠìĤ¬ìķ¼":6536,"ĠìĤ¬ìłķìĿ´":6537,"ĠìĤ¬ëŀĮìĿ´ëĭĪê¹ĮìļĶ":6538,"ĠëķĮìĺĪìļĶ":6539,"ĠìķĮì§Ģ":6540,"ĠìķĮëĭ¤ê°ĢëıĦ":6541,"ë¥´ëĦ¤":6542,"Ġë§ĪìĿĮë§Į":6543,"Ġë§ĪìĿĮìĿ¸ê°Ģë´ĲìļĶ":6544,"Ġìĸ´ëĸ»":6545,"ĠëĤ´ëĤ´":6546,"ìĬ¤íħĮ":6547,"ìĬ¤íĮ¸":6548,"ìłģìĿ´ëĦ¤ìļĶ":6549,"ìłģê·¹ìłģìľ¼ë¡ľ":6550,"ì¢ĭìķĦíĸĪëįĺ":6551,"ì¢ĭìķĦíķĺëįĺ":6552,"ĠìłķìĿĺ":6553,"Ġëª¨ë¥¼":6554,"Ġëª¨ë¥¸ì²Ļ":6555,"Ġëª»íķ´ìĦľ":6556,"Ġëª»íĸĪëįĺ":6557,"ë§ĪìĿĮìłķë¦¬":6558,"íļĮìĭĿ":6559,"Ġë¨¹ìŀĲê³ł":6560,"ì¶¤ë²ķ":6561,"ìļ°ì§Ģ":6562,"ìļ°ëĭĪ":6563,"Ġê±´ì¡°":6564,"íĬ¸ë¡ľ":6565,"Ġë°Ľê¸°":6566,"ë¬´ëį¤ëį¤":6567,"ë¬´ë¦İ":6568,"ë¶ĦìĿ´":6569,"ë¶Ħê°Ħ":6570,"ĠíķĺëŁ¬":6571,"ë¶ĢìŀĲ":6572,"ë¶ĢëĤ¨":6573,"ĠìĤ´ìĿ´":6574,"ê°ĲìĿĢ":6575,"ê°ĲìĦ±":6576,"Ġíķľê³Ħ":6577,"Ġíķľëĭ¤ëĬĶ":6578,"ëĭ¹íķ´":6579,"ëĭ¹ëĭ¹íķĺê²Į":6580,"ê³¼ìĿ¼":6581,"ĠëĲĺê¸°":6582,"ë³µìłĦ":6583,"Ġì¢ĭìĿĦì§Ģ":6584,"Ġëĵ¤ìĿ´":6585,"Ġëĵ¤ê¹Į":6586,"Ġëĵ¤ë©´":6587,"Ġëĵ¤ìľ¼ë©´":6588,"Ġëĵ¤ë¦¬ë":6589,"ìŀĪì§Ģ":6590,"ìŀĪëĤĺ":6591,"ìŀĪìĿĮ":6592,"ìŀĪëĤĺë´ĲìļĶ":6593,"ìŀĪê²łì£ł":6594,"ĠëĨį":6595,"ĠìķĦëĭĺ":6596,"ĠìĦłìĹĲìĦľ":6597,"Ġë¬´ê±°ìĽĮ":6598,"ëıĻìĤ°":6599,"íĸīìļ´ìĿĦ":6600,"ìĭ¤ìĿĦ":6601,"ĠëŃĲìŀĦ":6602,"ĠìĥģìĿĺ":6603,"Ġìĥģìĥģ":6604,"ì§ĪìĿ´":6605,"ì§ĪíĪ¬":6606,"ĠíķĺëĬĶì§Ģ":6607,"íĮ©":6608,"íĮį":6609,"ì¡ĮëĦ¤":6610,"ìĨĮê°ľ":6611,"ìĨĮë¹Ħ":6612,"ìĨĮìĽĲìĿĦ":6613,"ĠìķĪë¶Ģ":6614,"íı¼":6615,"ìĸ´ëĳł":6616,"ĠìĿ´ë³ĦëıĦ":6617,"ĠìĿ´ë³ĦìĿĺ":6618,"ĠìĿ´ë³ĦíĸĪìĬµëĭĪëĭ¤":6619,"ìĪĺê±´":6620,"ìĪĺìĺģ":6621,"ĠìłĦíķ´":6622,"ĠìłĦíĺĢ":6623,"ĠëģĿìĿ¼":6624,"ĠëģĿëĤł":6625,"ĠëģĿëĤ´ê³ł":6626,"Ġëĵľë¦¬ê³ł":6627,"Ġëĵľìĭľë©´":6628,"ëĤłìĿ´":6629,"ĠíĹ¤ìĸ´ìł¸":6630,"ĠíĹ¤ìĸ´ì§Ģì§Ģ":6631,"Ġê±¸ìĸ´":6632,"ìģ¨":6633,"ìĿ¸ëıĦ":6634,"ĠëĤĺëĤĺ":6635,"ĠëĤĺë³´ëĭ¤":6636,"ĠëĤĺëĤł":6637,"ëĤľíŀĪ":6638,"Ġê·¸ìłĢ":6639,"Ġìĭ¶ëĭ¤ëĬĶ":6640,"ì¤ĳê°Ħ":6641,"ìĨįìĹĲìĦľ":6642,"Ġê´ľì°®ëĭ¤ë©´":6643,"ê³µìĽĲ":6644,"Ġì¹ľíķ´ì§Ī":6645,"ĠëĮĢíķ´ë³´ìĦ¸ìļĶ":6646,"ìĿ´ìłľìķ¼":6647,"ìĺ¤ë¥¼":6648,"ëħĦìĹ°ìķł":6649,"ëħĦë§ĮìĹĲ":6650,"Ġì¡°ê±´":6651,"Ġëª¨ë¥´ê²łëĦ¤":6652,"ê´Ģìĭ¬ìĿ´":6653,"ê¾¹":6654,"Ġìī¬ë":6655,"ê²½ìłľ":6656,"ĠìŀĬìľ¼ëł¤ê³ł":6657,"ìľłìĹ°ìłľ":6658,"ìĿ¸ëį°ìļĶ":6659,"ëĭ¬ì½©":6660,"ë°Ķëĭ¤":6661,"Ġê°ĢëĬł":6662,"ĠíĥĢëĭ¤":6663,"ì¡°ì°¨":6664,"ì¡°ìłĪ":6665,"ëįĶìĽĮ":6666,"ëįĶëĿ¼ëıĦ":6667,"Ġë§ŀì§Ģ":6668,"Ġë§ŀëĤĺ":6669,"ĠìĿ¸ê°Ħ":6670,"Ġë§ĮëĤĺìļĶ":6671,"Ġê°Ĳìĭ¸":6672,"ĠìĨĮì£¼":6673,"ĠìĨĮë¹Ħ":6674,"ĠìĨĮëª¨":6675,"ĠìĹ°ìķłëĬĶ":6676,"ĠìĹ°ìķłíķĺë©´":6677,"Ġìĺ¤ëł¤":6678,"Ġìĺ¤íŀĪëł¤":6679,"Ġíĸīìļ´":6680,"ìĿ´ëĿ¼ìĦľ":6681,"ìĦ±ê²©":6682,"íķĻìĹ¬íĸī":6683,"Ġì§Ħíĸī":6684,"ìĭľê°Ħíĳľ":6685,"Ġì°¨ìĿ´ëĬĶ":6686,"ëĵľê°Ģ":6687,"ëĵľëłĪ":6688,"ëĵľë¦¬ê³ł":6689,"ëĵľë¦½ëĭĪëĭ¤":6690,"ëĭ´íķ´ë³´ìĦ¸ìļĶ":6691,"ëĭ´íĻĶ":6692,"íĦ°ë¦¬ê°Ģ":6693,"Ġë¹¼ë¹¼ë¡ľ":6694,"ĠëıĦìĻ":6695,"Ġë¹Ħíķĺ":6696,"Ġì°¾ìķĦìĺ¨":6697,"Ġìķłë¥¼":6698,"ĠìķłêµĲ":6699,"ê·ĢìĹ¬":6700,"ìĥĿê°ģíķľ":6701,"íĺ¼ìŀĲìĦľëıĦ":6702,"ê±¸ìļĶ":6703,"ìĦłìĿ´":6704,"Ġë¶ĢìĹ¬":6705,"ì§ĳëĭĪëĭ¤":6706,"ëģĪ":6707,"Ġì¤Ģë¹Ħíķĺê³ł":6708,"Ġì¤Ģë¹Ħì¤ĳ":6709,"ì¹ľêµ¬ëĦ¤":6710,"ì¹ľêµ¬ëĿ¼ê³ł":6711,"ìĹ°ëĿ½íķ´ë³´ìĦ¸ìļĶ":6712,"ìĹ°ëĿ½íķĺì§Ģ":6713,"ìĹ°ëĿ½íķĺë©´":6714,"ìĹ°ëĿ½íķ´ëıĦ":6715,"ìĹ°ëĿ½ì²ĺ":6716,"Ġíİ¸íķĺê²łì£ł":6717,"ĠìĹĨëĬĶê±°":6718,"íķ´ìķ¼ê²łëĭ¤":6719,"ĠìłľìķĪ":6720,"ëĳĲëł¤ìĽĮ":6721,"Ġìį¸ìĿ¸ê°Ģ":6722,"ë¦´ê¹Į":6723,"Ġê¸°ëĭ¤ëł¸":6724,"ëª¨ìı":6725,"ê²ĥê°ĻìķĦ":6726,"Ġì°¸ì§Ģ":6727,"Ġì°¸ìĦĿ":6728,"Ġì¶Ķìļ´":6729,"Ġì¶ĶìĬ¤":6730,"Ġíĸīë³µíķłê¹Į":6731,"Ġíĸīë³µíķ´ì§Ī":6732,"ĠíĥĦ":6733,"Ġíĥĵ":6734,"ì¼ł":6735,"ìłķë§Ĳë¡ľ":6736,"ìĪłìĿĦ":6737,"ìĪłë§Į":6738,"ìĪłë¨¹ê³ł":6739,"íĶ¼íķ´":6740,"ë²Īíĺ¸":6741,"ĠìĻĶëĤĺë´ĲìļĶ":6742,"ĠìĭľìŀĳìĿ´ì£ł":6743,"Ġë°ĽìķĦìķ¼":6744,"ĠìķĦëĭĮê°ĢìļĶ":6745,"ĠëĳĲë²Ī":6746,"ĠëĳĲìħ¨ëĦ¤ìļĶ":6747,"ĠìĺĪìģĺë":6748,"Ġê³µê°Ĳ":6749,"Ġê³µíĹĪ":6750,"Ġê³³ìĿĦ":6751,"íİ¸ìĿĺ":6752,"ë²Ħìĭľ":6753,"ë²Ħë¦¬":6754,"ë²Ħë¦¬ëĬĶ":6755,"ë²Ħëł¸":6756,"Ġëĵ¤ìĸ´ëıĦ":6757,"Ġëĵ¤ìĸ´ìĦľ":6758,"Ġëĵ¤ìĸ´ì£¼ìĦ¸ìļĶ":6759,"Ġëĵ¤ìĸ´ì¤Ħ":6760,"Ġëĵ¤ìĸ´ìĺ¬":6761,"Ġëĵ¤ìĸ´ìĻĶìĸ´":6762,"ê°ķëł¬":6763,"íĥĲ":6764,"íĥĪë":6765,"íĥĢë":6766,"ë°°ëł¤":6767,"Ġëĸ¨ì³Ĳ":6768,"ìĹ°ìķłìĹĲ":6769,"Ġê°ĢëĬ¥íķ©ëĭĪëĭ¤":6770,"Ġê°ĢëĬ¥íķĺê²łì£ł":6771,"Ġíŀĺëĵłëį°":6772,"Ġíŀĺëĵłê±°":6773,"íĥĿë°°":6774,"ê²°íĺ¼íķĺëĬĶëį°":6775,"ìĤ´ê³ł":6776,"ë§ĽìĿ´":6777,"ë°ľìĿ´":6778,"ë°ľëª©":6779,"ìĻĶëĦ¤":6780,"ìĿ´ìĹĪìĸ´":6781,"ìĿ´ìĹĪëĤĺë´ħëĭĪëĭ¤":6782,"ìķĺëĦ¤":6783,"Ġê·Ģê°Ģ":6784,"Ġë¶ĢëŁ½ëĦ¤ìļĶ":6785,"Ġë³Ģíķ´":6786,"Ġë³Ģíķľ":6787,"Ġë³Ģíķĺì§Ģ":6788,"ìī¬ëĬĶ":6789,"ĠìĤ¬ëĥĲ":6790,"ë¯¸ìĽĮ":6791,"ë¯¸ìķĪ":6792,"ë¯¸ìļ©":6793,"íİĺë":6794,"ĠìłģìĿ´":6795,"Ġìłģìĸ´":6796,"Ġìłģê·¹":6797,"Ġê±±ìłķíķł":6798,"Ġê±±ìłķëĲľëĭ¤ê³ł":6799,"ĠìŀĺëĲ":6800,"ĠìŀĺëĿ¼":6801,"ĠìŀĪìĹĪìĿĦ":6802,"ĠìŀĪìĹĪëĬĶëį°":6803,"ëĨĶ":6804,"ëĨĢëŀĲ":6805,"ëıĪìĿĢ":6806,"Ġìŀłìĭľ":6807,"Ġìŀłê¹Ĳ":6808,"ĠìĦľíĪ´":6809,"Ġë¯¸ì¹ľ":6810,"Ġë¯¸íĻĶ":6811,"ĠëĪĪì¹ĺê°Ģ":6812,"ëĦĪëĬĶ":6813,"ìŀĬìĸ´ìķ¼":6814,"ĬĲëĥĲìĹĲ":6815,"ëŀĺìļĶ":6816,"ĠìĦ±ê²©ìĿ´":6817,"Ġ15":6818,"ìķ½ìĿĦ":6819,"ìķ½ìĨį":6820,"Ġë¯¿ìľ¼ìĦ¸ìļĶ":6821,"ĠìĨįìĿĢ":6822,"ĠìĨįëıĦë¥¼":6823,"ĠìłĢëĬĶ":6824,"ĠìłĢíķľíħĮ":6825,"Ġìĸ¸ìłł":6826,"íľ´ê°Ģë¥¼":6827,"ĠíĳľíĺĦíķĺëĬĶ":6828,"ë´ħìĭľëĭ¤":6829,"ĠìĿ´ìłľëĬĶ":6830,"Ġë¶ĪìķĪíķ´":6831,"ĠìĦłíĥĿìĿ´ê¸¸":6832,"íĿ¬ë§Ŀ":6833,"ĠëķĮë¬¸ìĿ¼":6834,"ìŀĪëĬĶê±°":6835,"íĽĦíļĮê°Ģ":6836,"íĽĦíļĮëĬĶ":6837,"íĽĦíļĮíķ´ëıĦ":6838,"Ł¬ë³´ìĦ¸ìļĶ":6839,"ìĺģìĽĲ":6840,"ĠëıĮìķĦê°Ģ":6841,"ĠíĮ¨":6842,"ĠëĬ¦ìĸ´":6843,"ĠëĬ¦ëĬĶ":6844,"Ġìŀ¡ëĬĶ":6845,"Ġìķŀìľ¼ë¡ľ":6846,"ĠíĽĦíļĮë¥¼":6847,"íŀĺëĵ¤ìĸ´":6848,"íŀĺëĵ¤ê²łëĦ¤ìļĶ":6849,"Ġëĭ¤ê°Ģìĺ¤":6850,"Ġë²ĪìĶ©":6851,"ìħĶìķ¼ì£ł":6852,"Ġì§ĿëĤ¨ìĿ´ëŀĳ":6853,"Ġê³µë¶Ģíķł":6854,"ĠìĥĪë¡ľ":6855,"ĠìĥĪë²½":6856,"Ġê¼¬":6857,"ë³ĢíĻĶë¥¼":6858,"ĠìĿ´ëŁ´":6859,"ê·¸ëħĢìĻĢ":6860,"Ġìŀħìĸ´ëıĦ":6861,"Ġì¹´íĨ¡ìĿ´":6862,"Ġë¬¼ìĸ´ë³´ë©´":6863,"ì¹´ëĿ½":6864,"íĤ¤ê¸°":6865,"ì°©íķľ":6866,"Ġìľłíĸī":6867,"ĠìľłíķĻ":6868,"ĠìľłëĤľíŀĪ":6869,"ìĤ°ì±ħ":6870,"Ġìĭ¸ìļ°":6871,"Ġìĭ¸ìļ°ëĬĶ":6872,"ëĲĺê¸°":6873,"Ġíķ¨ê»ĺíķł":6874,"ê¼¬":6875,"ìķĮìķĦ":6876,"íķĺë£¨ìĹĲëıĦ":6877,"íķĺë£¨ì¢ħìĿ¼":6878,"ìļĶì¦ĺìĿĢ":6879,"ĠíĴĢìĸ´":6880,"Ġë§Ľì§ĳ":6881,"Ġë§ĽìŀĪëĬĶ":6882,"Ġë§ĽìŀĪê²Į":6883,"Ġìŀĺëª»ìĿ´":6884,"Ġìŀĺëª»ëĲľ":6885,"íķ´ì§ĢëĬĶê²Į":6886,"ìĹ¬ìŀĲì¹ľêµ¬íķľíħĮ":6887,"ìĹ¬ìŀĲì¹ľêµ¬ìĹĲê²Į":6888,"Ġë¹łì¡Į":6889,"Ġë¹łì§ĢëĬĶ":6890,"ìĹĦë§Īë":6891,"ë³¸ìĿ¸ìĿĺ":6892,"ĠìķĦë¬´ëłĩì§ĢëıĦ":6893,"ìĪľìĪĺ":6894,"ëĳ¥":6895,"Ġê²½ìŁģ":6896,"Ġëĭ¤ë¥´ì£ł":6897,"ìļ´ëıĻìľ¼ë¡ľ":6898,"Ġì£½ê³ł":6899,"Ġë¨¹ìĸ´ìķ¼ê²łëĭ¤":6900,"ĠëĤ¨ìŀĲìķłíķľíħĮ":6901,"ëĭ¤ìĿĮìĹĲ":6902,"ëĭ¤ìĿĮë¶ĢíĦ°ëĬĶ":6903,"Ġë³¼ê²ĮìļĶ":6904,"ëª¸ìĹĲ":6905,"ìĸ¸ìłłê°ĢëĬĶ":6906,"ĠìŀĶìĿ¸":6907,"ìĬ¬íį¼":6908,"íļĮìĤ¬ìĹĲ":6909,"ĠíĹ¤ìĸ´ì¡ĮëĬĶëį°":6910,"Ġìŀ¬ë¯¸ìĹĨìĸ´":6911,"ê¿Ģ":6912,"Ġëĭ¨íĺ¸":6913,"ĠìĪłìĿĦ":6914,"ĠëĤĺê°Ģìķ¼":6915,"ĠëĤĺê°Ģë³¼ê¹Į":6916,"ĠìĿ¼ìĸ´ëĤĺëĬĶ":6917,"ĠìĿ¼ìĸ´ëĤĺìĦľ":6918,"íĸīë³µìĿĢ":6919,"ë¬¼ë":6920,"ëĶ°ë¡ľ":6921,"íĸ¥ìĿ´":6922,"ëĭ¬ë§ĮìĹĲ":6923,"ĠìĹĨìĿĦê±°ìĺĪìļĶ":6924,"ĠìĹ¬ìŀĲì¹ľêµ¬ìĻĢ":6925,"ĠìĥģíĻ©ìĿ´ëĦ¤ìļĶ":6926,"Ġì¤ĳìļĶíķľëį°":6927,"ê°ĶëĦ¤":6928,"ìŀħìĿ´":6929,"ìŀħìĿĦ":6930,"íĻĶìŀ¥íķĺëĬĶ":6931,"Ġë²Įê³ł":6932,"Ġìļ©ê¸°ëĤ´":6933,"ĠìĤ¬ëĬĶê²Į":6934,"ìĦ¸ìĥģìĿ´":6935,"ìĦ¸ìĥģìĹĲìĦľ":6936,"ìĥģëĮĢë°©ìĹĲ":6937,"ìĥģëĮĢë°©ëıĦ":6938,"ìĥģëĮĢë°©ìĹĲê²Į":6939,"ĠëıĪìĿĦ":6940,"Ġì§ĢëĤ´ê¸¸":6941,"ëª©íĳľ":6942,"Ġë§¤ëł¥ìĿ´":6943,"ĠìĤ¬ëŀĮëĵ¤ìĿĢ":6944,"ĠìĹ°ìĬµìĿ´":6945,"Ġì¡´ìŀ¬ë¥¼":6946,"Ġìĭłê²½ìĵ°ìĹ¬":6947,"Ġêµ¬íķ´ë³´ìĦ¸ìļĶ":6948,"Ġíĭ°ê°Ģ":6949,"Ġì´Īë":6950,"Ġê°ĸì§Ģ":6951,"Ġë§ĮëĤ¨ìĿ´":6952,"ĠíĨµíĻĶ":6953,"ĠìĪľê°ĦìĿ´ëĦ¤ìļĶ":6954,"ĠìĪľê°ĦìĿ´ìĹĪìĿĦ":6955,"Ġê¾¹":6956,"ìĨĲíĨ±":6957,"Ġìĥģê´ĢìĹĨ":6958,"Ġìĥģê´ĢìĹĨìĸ´ìļĶ":6959,"ł¨ë§Į":6960,"Ġë§ĿíĸĪëĭ¤":6961,"Ġì§ģìŀ¥":6962,"ìĽłìĿĦ":6963,"Ġì¹ĺê³ł":6964,"ĠìłķëıĦë¡ľ":6965,"Ġì§ĿëħĢìĹĲê²Į":6966,"ĠëĭµëĭµíķĺëĦ¤":6967,"Ġëĵ£ê¸°":6968,"Ġê°ĳìŀĳ":6969,"ĠíĹ¤ìĸ´ì§Ģë©´":6970,"ĠìĿ¸ìłķíķĺê³ł":6971,"ĠìĿ¸ìłķë°Ľê³ł":6972,"ĠíĥĪì¶ľ":6973,"Ġíı¬ìŀ¥":6974,"ĠíĤ¤ìļ°ëĬĶ":6975,"ĠìĿ´ìĸ´ëĤĺê°Ģ":6976,"ĠìĤ´ìķĦê°Ģ":6977,"ìĿ¸ìĥĿìĿ´":6978,"íķ´ì¤ĺìĦľ":6979,"¸ëŀĺë¥¼":6980,"Ġì°įê³ł":6981,"Ġë§Īì£¼ì¹ĺëĬĶ":6982,"Ġë§Īì£¼ì³Ĳë³´ìĦ¸ìļĶ":6983,"Ġíŀĺëĵ¤ìĹĪì£ł":6984,"ìĺ¤ëŀ«ëıĻìķĪ":6985,"ĠìĿ¸ìĥĿìĿ´":6986,"ĠìĿ¸ìĥĿìĿĦ":6987,"ĠìĿ¸ìĥĿìĿ´ì£ł":6988,"ëĥĪìĸ´ìļĶ":6989,"ìµľìĦłìĿĦ":6990,"ìµľê·¼ìĹĲ":6991,"ê·¸ë¶ĦìĿĺ":6992,"ĠìĹ°ëĿ½íķ´ë³¼ê¹Į":6993,"ĠíļĮìĭĿ":6994,"Ġìĵ¸ëį°":6995,"Ġëķħ":6996,"Ġëª©íĳľ":6997,"Ġì¢ĭìķĦíķ´ì¤¬ìľ¼ë©´":6998,"íĹ¤ìĸ´ì§ĢìŀĲê³ł":6999,"íĺĦìĭ¤ìĿĺ":7000,"ìĹŃìĭľ":7001,"Ġê°ľê°ķ":7002,"ìĪŃìĪŃ":7003,"ĠëĳĲëł¤ìĽĢìĿĦ":7004,"ëıħíķľ":7005,"Ġê´´ë¡ľìĽĮ":7006,"ĠìĤ¬ì§ĦìĿĦ":7007,"Ġë¹Įìĸ´ìļĶ":7008,"ĠíĬ¸ëĿ¼":7009,"Ġìĺ·ìĿ´":7010,"Ġìĺ·ìĿĦ":7011,"Ġë¬´ìĦľìļ´":7012,"íķĻêµĲìĹĲìĦľ":7013,"ĠëıĦìĻĢì£¼":7014,"ĠëıĦìĻĢì¤ĺ":7015,"ĠíĹ·ê°Īë¦¬ë":7016,"ìŀ¬íļĮë¥¼":7017,"Ġìŀ¬ë°Įìĸ´":7018,"ĠíĺĦìĭ¤ìĿĦ":7019,"ì£½ê³ł":7020,"ì¹ĺëĦ¤":7021,"ê¸°ìĸµìĿĺ":7022,"Ġì§Īë¬¸":7023,"Ġì§Īë¦°":7024,"Ġë§ĪìħĶëıĦ":7025,"ìĤ¬ëŀĳíķľëĭ¤ëĬĶ":7026,"ìļ´ëªħìĿ´":7027,"ìļ´ëªħìłģìĿ¸":7028,"ë¶Ģëĭ´ìĬ¤ëŁ¬ìļ´":7029,"ĠìļĶêµ¬":7030,"Ġì£¼ë§ĲìĿ´":7031,"ìĦ±ê³µíķĺê¸¸":7032,"ìĺ¤ëĬĺë¶ĢíĦ°":7033,"ë´ĦìĿĢ":7034,"ĠìĶ»":7035,"ĠìĶĮ":7036,"Ġëĭ´ê¸´":7037,"ìĽĥìĿĦ":7038,"ĠìĥĿìĿ¼ìĿ´ëĦ¤":7039,"ëħ¸íĽĦ":7040,"ëħ¸ëł¥íķĺë©´":7041,"ĠìĨĲíķ´":7042,"ĠìĨĲìĹĲ":7043,"ĠëĨĴìķĦ":7044,"Ġê¹ĬìĿĢ":7045,"ì¶ĶìĸµìĿ´":7046,"ì¶ĶìĸµìĿĢ":7047,"Ġëĺĳê°ĻìķĦ":7048,"ìĥģëĮĢë¥¼":7049,"ìĥģëĮĢìĹĲê²Į":7050,"Ġíķĺëĭ¤ê°Ģ":7051,"Ġìĭłê²½ìĿ´":7052,"Ġìĭłê²½ìį¨":7053,"Ġì½©":7054,"íķĦìļĶíķľê²Į":7055,"ì§§ì§Ģ":7056,"íķĺëĤĺë´ħëĭĪëĭ¤":7057,"ĠìķĦì¹¨ìĿ´":7058,"ì°½ìĹħ":7059,"ê·¸ë¦¬ê³ł":7060,"ìĬµê´ĢìĿĦ":7061,"ìĬ¤íĥĢìĿ¼":7062,"Ġë§ŀì¶°ë³´ìĦ¸ìļĶ":7063,"íĳ¹":7064,"ìĹ¼ìĥī":7065,"Ġë§Īì§Ģë§īìľ¼ë¡ľ":7066,"ĠìĻ¸ë¡ľìļ´":7067,"ĠìŀĬëĬĶëĭ¤ëĬĶ":7068,"ĠìĨĮìĭĿìĿ´":7069,"Ġìĭ¤ìĪĺíķł":7070,"ĠìĺĪë¯¼íķľ":7071,"Ġë´¤ëĬĶëį°":7072,"íĩ´ê·¼ê¸¸":7073,"Ġì§§ìĿĢ":7074,"Ġê±¸ë¦°":7075,"ê·¸ëŁ¬ê²Į":7076,"Ġì£¼ë©´ìĦľ":7077,"ĠëıĦìłĦíķĺëĬĶ":7078,"Ġëħ¸ëŀĺë¥¼":7079,"Ġëħ¸ëŀĺë°©":7080,"Ġì§ĳì°©íķĺëĬĶ":7081,"ĠìĤŃìłľíķĺìĦ¸ìļĶ":7082,"Ġíı¬ê¸°íķĺëĬĶ":7083,"ìª¼":7084,"ê¸°ëĮĢê°Ģ":7085,"Ġì¢ĭìķĦíķľëĭ¤ëĬĶ":7086,"íĽĦíıŃíĴįìĿĢ":7087,"Ġë¶ĢëŁ¬ìĽĮìļĶ":7088,"ĠìłģìĿĳíķ´ìķ¼":7089,"ĠìĦľìļ´íķ´":7090,"Ġë²Ħíħ¨ìļĶ":7091,"....":7092,"íķ©ê²©":7093,"ĠìĥĿê²¼ëĦ¤ìļĶ":7094,"Ġê°Ģìķ¼ê²łì£ł":7095,"Ġê²ĮìŀĦìĿĦ":7096,"ìĦłìĥĿëĭĺ":7097,"Ġëĵ±ìĿĦ":7098,"Ġê³¼ìłķìĿ´ìĹĲìļĶ":7099,"Ġë°Ķê¿Ķë³´ìĦ¸ìļĶ":7100,"Ġì¼ľ":7101,"ĠëĴ¤ë":7102,"ìľ¡ìķĦ":7103,"ë¥ĺìĹĲìĦľ":7104,"ĠìĿ´ê¸°ìłģìĿ¸":7105,"Ġìĸ´ìĥīíķ´":7106,"įĶëĿ¼êµ¬":7107,"ìĻ¸ë¡Ń":7108,"Ġê·¸ëĮĢë¡ľìĿĺ":7109,"Ġì¢ĭìĿĦíħĲëį°ìļĶ":7110,"ëħĦìĿ´ëŀĢ":7111,"ì½©ê¹į":7112,"ì½©ëĭ¬ì½©":7113,"ëĴ¤ìĹĲìĦľ":7114,"ì¸ł":7115,"ıĮìķĦ":7116,"ĠìķĦëĬĶëį°ëıĦ":7117,"Ġìłķë¦¬ëĲĺ":7118,"ĠìĤ¬ëĿ¼ì§Ī":7119,"ëĪĦêµ¬ëŀĳ":7120,"ìŀ¬ë°ĮëĬĶ":7121,"Ġë°ĶëĢĮê²Į":7122,"Ġë¬»":7123,"ìķĦíĶĶìĿĺ":7124,"ê¹ĢìĹĲ":7125,"íĮ¨íĦ´":7126,"ì§ľì¦ĿëĤł":7127,"ĠìĬ¬íĶĦê²Į":7128,"ìĿĦëķĮëĬĶ":7129,"Ġìķ¼ê²½":7130,"ë§¤ë²Ī":7131,"ìĨĶì§ģíķľ":7132,"ë¬´ìĹĩìĿ´":7133,"ìħĢì¹´":7134,"Ġì²ĺëŁ¼":7135,"ëĵľëĿ¼ë§Ī":7136,"ëĵľëĿ¼ìĿ´ë¸Į":7137,"ì§ĳìķĪìĿ¼":7138,"ĠíĬ¹ì§ķ":7139,"ìĮį":7140,"Ġë»ĶíĸĪìĸ´":7141,"ìķĦë¹łê°Ģ":7142,"ê³łë§Īìļ´":7143,"íķĺëĥĲê³ł":7144,"ë§ĮëĤĺì§Ģ":7145,"ë°ĺë³µ":7146,"íķĺê³łìĭ¶ìĹĪëįĺ":7147,"ĠìĹ°ìĿ¸ìľ¼ë¡ľ":7148,"ĠìĤ¬ê³¼íķĺìĦ¸ìļĶ":7149,"ãħĭãħĭ":7150,"ĠëĶ°ëľ»íķł":7151,"ĠêµĲíļĮ":7152,"ë°°ê³łíĶĦ":7153,"ë°ĽìķĦëĵ¤":7154,"íıīìĨĮìĹĲ":7155,"ĠìŀĬíĺĢì§Ģê¸°ëıĦ":7156,"Ġê²¬ëĶĶê³ł":7157,"ëĮĪ":7158,"ĠëĿĦ":7159,"Ġêº¼ëĤ´":7160,"Ġê°ļìķĦ":7161,"ìķłë§¤íķĺëĦ¤ìļĶ":7162,"ìĭ¬íĺ¸íĿ¡ìĿĦ":7163,"íĬ¹ë³Ħíķľ":7164,"Ġë©įì²Ń":7165,"Ġê³ĦìłĪìĿ´":7166,"íľ´ê°Ģê°Ģ":7167,"Ġë°Ķê¿Ģê¹Į":7168,"Ġë§¡ê²¨ë³´ìĦ¸ìļĶ":7169,"ëŀľìĦł":7170,"ìĹ°ìĿ¸ìĿĢ":7171,"íŀĮëĭ¤":7172,"ìĤ¬íļĮìĥĿíĻľ":7173,"ĠëĤ´ëł¤ëĨĵ":7174,"ĠíķĺëĬĺìĿĦ":7175,"Ġìĥģì²ĺëıĦ":7176,"Ġìĥģì²ĺëĬĶ":7177,"íĹĪë¦¬":7178,"ëĨĢìķĦ":7179,"ìĹ¬ëĵľë¦Ħ":7180,"ë¬¼ë¦¬ìłģ":7181,"ì»´íĵ¨":7182,"ìĿ´ìĥģíĺķìĿĢ":7183,"ê¶Įíĥľê¸°":7184,"Ġì§ĲìĿĦ":7185,"ìĿ¸ìĹ°ìĿĢ":7186,"Ġë§Īìĭ¤ê¹Į":7187,"Ġê¸°ìĽĲíķ©ëĭĪëĭ¤":7188,"íħĮë¦¬ìĸ´":7189,"ĠìĻ¸ë¡Ń":7190,"ëıĻìĥĿíķľíħĮ":7191,"ĠìĥģëĮĢë°©ìĿ´":7192,"ì°¨ë¶ĦíŀĪ":7193,"Ġìĺ¤ëŀľ":7194,"ë¯¸ì¹ľëĵ¯ìĿ´":7195,"Ġì¦Ĳê¸°ë©´ìĦľ":7196,"ëĭ¤íĸīìĿ´ìĹĲìļĶ":7197,"ê³µíĹĪíķ¨ìĿ´":7198,"Ġë§ŀì¶ĶìĦ¸ìļĶ":7199,"Ġì²łë²½":7200,"Ġì°¨ë³Ħíķ´":7201,"ĠìĽ¬ìĪĺ":7202,"Ġê³ĦíļįìĿĦ":7203,"Ġìĵ°ëłĪê¸°ìķ¼":7204,"Ġë°ĺìĿĳìĿ´":7205,"ĠìĿ´ê²¨ëĤ´ìĦ¸ìļĶ":7206,"ìķ¼ëĲĺëĬĶëį°":7207,"ĠìĿµìĪĻíķ´ì§Ģì§Ģ":7208,"¬ìľłìľłìĹ°ìłľ":7209,"Ġë½ĳê¸°":7210,"ìłĢë¶Ħ":7211,"ĠìķĦë¦Ħëĭ¤ìĽĮìļĶ":7212,"ëĿ¼ìĿ´ë²Ħìĭľ":7213,"Ġìĸ´íķĦíķ´ë³´ìĦ¸ìļĶ":7214,"ì£¼ìĭĿìľ¼ë¡ľ":7215,"Ġê±¸ë¦¬ê²łì§Ģë§Į":7216,"ĠìĤ¬ê²¨ëıĦ":7217,"Ġê³łë§ĪìĽĮ":7218,"Ġê³łë§Ļëĭ¤":7219,"ë°ĶëĬĺ":7220,"Ġë¹ĦëĤľíķĺì§Ģ":7221,"íĥĿìĭľë¹Ħ":7222,"ì±Ļê²¨":7223,"Ġìį¸ëħĢ":7224,"ĠëĤĺìķĦì¡Įê¸¸":7225,"íķĦìļĶíķĺëĭ¤ë©´ìļĶ":7226,"ĠìĻ¸êµŃìĿ¸ìĿ¸ëį°":7227,"ìĿĳìĽĲíķ©ëĭĪëĭ¤":7228,"¸ë¬´ê²Į":7229,"ĠëĤŃë¹Ħíķĺì§Ģ":7230,"Ġìĭľê³ĦëĬĶ":7231,"Ġë²½ìĹĲ":7232,"ê°ĲìĤ¬íķ©ëĭĪëĭ¤":7233,"Ġì°¨ê°ĳê²Į":7234,"Ġìŀĥìĸ´ë²Ħëł¸ìĸ´":7235,"âĢ¦":7236,"ĠìŁģì·¨":7237,"ëĭ¤ìĸĳíķĺê²Į":7238,"Ġì¢ĭìľ¼ëł¨ë§Į":7239,"ëį°ëł¤ëĭ¤":7240,"ĠìķĦíĮł":7241,"ìĭłì¤ĳíķĺê²Į":7242,"ëª¨ìıł":7243,"ĠíĬ¸ëĿ¼ìļ°ë§Ī":7244,",,":7245,"00":7246,"30":7247,"AS":7248,"Bíĺķ":7249,"as":7250,"¡¤":7251,"¢Į":7252,"¢ìĸ´":7253,"¤ë³´ìĦ¸ìļĶ":7254,"¬ìĺģ":7255,"°¥":7256,"°ĸìĿĢ":7257,"°ê³°íŀĪ":7258,"³¼ê¹Į":7259,"·íķ´ë³´ìĦ¸ìļĶ":7260,"¸ìľ¼ë©´":7261,"¹ì§Ħ":7262,"¹êµ´":7263,"¹íĪ°":7264,"½ìĶ¹":7265,"¿¨":7266,"ë£¨":7267,"ëĴĢ":7268,"ë»Ĳ":7269,"ëĬĲëĿ¼":7270,"ë»ĳ":7271,"ì«":7272,"ìº":7273,"ìİ":7274,"Ġ'":7275,"Ģìĸ´":7276,"ģĿ":7277,"Ħĺ":7278,"ĦëıĦ":7279,"ħì°°":7280,"ĨĴ":7281,"Ĩĵ":7282,"ĪìĬ¤":7283,"Įëĵľ":7284,"įíĮį":7285,"ĲëĮĢìļĶ":7286,"Ķì³Ĳ":7287,"ķĲ":7288,"ĸ¨":7289,"ļìĸ´ë³´ìĦ¸ìļĶ":7290,"ľ¨ë¦¬":7291,"ĿíļĮ":7292,"ŀ¨":7293,"łì§Ģ":7294,"łíĨ¡":7295,"łíĭ°":7296,"Ġìı":7297,"Ġì¿¨":7298,"Ġëº":7299,"ĠëĤ¬ë":7300,"ĠëĮĢë":7301,"ĠëĿ¼ë©´":7302,"Ġë¦¬ë":7303,"Ġë»ĳ":7304,"ìĿĺëĬĶ":7305,"ìĿ½ìĶ¹":7306,"Ġê¶Įíĥľ":7307,"ìĿ´ëł¥":7308,"ìĿ´ë¯¸":7309,"ìĿ´ë¶Ī":7310,"ĺë¡ľ":7311,"ìķ¨":7312,"ê°ĸ":7313,"ì§¸ëĦ¤":7314,"ì§ļìĸ´ë³´ìĦ¸ìļĶ":7315,"ìĸ´ìĿ´":7316,"ìĸ´ëł¤":7317,"ìĸ´íĿ¥":7318,"ìĹłíĭ°":7319,"ëĤļìĭľ":7320,"ì§Ģìļ°":7321,"ì§Ģë§ĪìĦ¸ìļĶ":7322,"ì§ĢëĤ´ê³ł":7323,"ì§ĢëĬ¥":7324,"ì§Ģìĭľì¼ľ":7325,"ì§ĢìłĢë¶Ħ":7326,"íķ´ì§Ģê³ł":7327,"íķ´ë´ĲëıĦ":7328,"Ġìŀ¤":7329,"ìķĦë¦¬":7330,"ìķĦë¶Ģ":7331,"ìķĦíĶĮ":7332,"ê°Ģë³":7333,"ê°Ģê²Į":7334,"ê°Ģê¹Į":7335,"ê°ĢëĦ¤ìļĶ":7336,"ê°Ģëł¤":7337,"ê°ĢìĽĮìļĶ":7338,"ëĬĶëĭ¤ê³ł":7339,"ëĬĶêµ¬ëĤĺ":7340,"ê³łíĮĮ":7341,"ê³łìĭľìĽĲ":7342,"ìĿĦê¹ĮìļĶ":7343,"ìĿĦë¿Ĳ":7344,"ìłĢë¡ľ":7345,"Ġíŀ":7346,"Ġíĩ´":7347,"Ġë§´":7348,"Ġë§º":7349,"ëĭ¤ë¦¬ê°Ģ":7350,"ëĭ¤ëĭĪë":7351,"ëĭ¤ìĿ´ìĸ´íĬ¸":7352,"íķĺëł¤ë©´":7353,"ê¸Ģë¡ľ":7354,"ìĭ¹":7355,"íķĺìķĦ":7356,"íķĺê¸°ê°Ģ":7357,"ìĹĲë§Į":7358,"Ġê°łíĨ¡":7359,"ê²ĮëĲĺë":7360,"¸ë°Ľ":7361,"ëıĦëĮĢì²´":7362,"ë³´ìĿ´ëĦ¤ìļĶ":7363,"ë³´ìĿ´ëĬĶ":7364,"ĠìŀĪëĮĢ":7365,"ĠìŀĪê²łëĭ¤":7366,"ĠìŀĪê±°ëĤĺ":7367,"ĠìŀĪìľ¼ìĦ¸ìļĶ":7368,"ĠìŀĪêµ°ìļĶ":7369,"ĠìŀĪëĭµëĭĪëĭ¤":7370,"ĠìŀĪëĥĲê³ł":7371,"ê¹ľ":7372,"íķľë¦¬":7373,"íķľë²":7374,"íķľê±´":7375,"íķľêµŃ":7376,"íķľìķ½":7377,"íķľê°Ģë´ħëĭĪëĭ¤":7378,"íķľíĳ¼":7379,"íķľë°ĶíĢ":7380,"Īë¶ĢíĦ°":7381,"Ġì¢ĭìĿĮ":7382,"Ġì¢ĭëĦ¤ìļĶ":7383,"Ġì¢ĭëĮĢìļĶ":7384,"ìŀĲëŀĳ":7385,"ìŀĲì·¨":7386,"ìŀĲê´´ê°Ĳ":7387,"ĠëĤĺëĬĶëį°":7388,"Ġê±°ê²łì§Ģ":7389,"Ġê±°ìļ¸":7390,"Ġê±°ëĿ¼ë©´":7391,"Ġê±°ë¦¬ë¥¼":7392,"ê¸°ì§Ģ":7393,"íķĺëĬĶê±´":7394,"ê²łëĮĢ":7395,"¼ë¬¸":7396,"Ġê²ª":7397,"ìĦľë¥¼":7398,"ìĦľìĻĢ":7399,"ìľ¨":7400,"ìľĹ":7401,"ì¹ĺëıĦ":7402,"ë¦ĩ":7403,"ëĤĺê°Ħ":7404,"ëĤĺìĿ´ê°Ģ":7405,"Ġë°ĳ":7406,"ìķ¼íķ´":7407,"ìķ¼íķ´ìļĶ":7408,"íķłìĪĺ":7409,"ĠìĤ¬ëŀĮìĿ¸":7410,"ĠìĤ¬ëŀĮíķĺê³ł":7411,"ĠìĿ´ê±°":7412,"ĠìĿ´ê²ĥ":7413,"ĠìĿ´ìĤ¬ë¥¼":7414,"ĠìĿ´ë²¤":7415,"ĠìĿ´ëģĮ":7416,"Ģë¬¸":7417,"Ġê°Ļëĭ¤":7418,"Ġê°ĻìĿĮ":7419,"Ġë³¼ë":7420,"Ġë³¸ë°Ľ":7421,"ĠìłĢë":7422,"ë§Įíķ´":7423,"ë§ĮíĻĶ":7424,"Ġíķ´ë¡ľ":7425,"Ġíķ´ë´Ĳ":7426,"Ġíķ´ì¤Ģ":7427,"Ġíķ´ì¤Ħê¹Į":7428,"Ġíķ´ëĵľë¦´ê²ĮìļĶ":7429,"Ġíķ´ë³´ëł¤ê³ł":7430,"Ġíķ´ë´¤ëĬĶëį°":7431,"ëĤĺë³´ëĭ¤":7432,"ì¹ľì²Ļ":7433,"Ġëª«":7434,"Ġëª¸ë¬´ê²Į":7435,"ìĿ¸ê¸°":7436,"ìĿ¸ê³¼":7437,"ìĿ¸íĦ°":7438,"ìĿ¸ìĿ´ì£ł":7439,"ìĿ¸ë§¥":7440,"ìĿ¸íħĮë¦¬ìĸ´":7441,"ê°ģì§Ī":7442,"ìĭľíķ´ë³´ìĦ¸ìļĶ":7443,"ìĭľëĭ¤ëĭĪ":7444,"ìĿĺì§Ģ":7445,"ìĿĺìĭ¬":7446,"ìľ¼ëŁ¬":7447,"ĠìķĦë¬¼":7448,"ĠìķĦëł¨":7449,"ĠìķĦìī½":7450,"ĠìĹĨê³ł":7451,"ĠìĹĨì§ĢìļĶ":7452,"ĠìĹĨìľ¼ëĭĪê¹ĮìļĶ":7453,"ĠìĹĨëĭµëĭĪëĭ¤":7454,"Ġê·Ģë¡ľ":7455,"ê±°ìłĪ":7456,"Ġì¢ĭìķĦìĦľ":7457,"Ġì¢ĭìķĦì§Ī":7458,"Ġì¢ĭìķĦì§ĢëĬĶ":7459,"Ġì¢ĭìķĦì§Ģê³ł":7460,"Ġì¢ĭìķĦíĸĪëįĺ":7461,"Ġë§ĪìĬ¤":7462,"Ġë§Īì¹¨íĳľ":7463,"ìĿ¼ëıĦ":7464,"ìĿ¼ê¸°":7465,"ìĿ¼íķĺë©´ìĦľ":7466,"íĺ¼ë":7467,"Ġìĭ¶ìľ¼ë©´":7468,"êµ¬ê²½":7469,"ìłķìłķ":7470,"ìłķìĥģ":7471,"ìłķëħĢ":7472,"ë¦¬ì£ł":7473,"ë¦¬ê¸¸":7474,"ë¦¬ìłģìĿ¸":7475,"ë¦¬ìĦĿ":7476,"ìĭłì²Ń":7477,"ëĤ¨ìĿĢ":7478,"ëĤ¨ëĵ¤":7479,"ëĤ¨ê³¼":7480,"ëĤ¨ìĿ´ëĭĪ":7481,"Ġê³°ê³°íŀĪ":7482,"Ġê²ĥìĿ´ì£ł":7483,"Ġìĸ´ì°Į":7484,"ì£¼íĥĿ":7485,"ĠìĺĢ":7486,"ĠìĥĿê°ģëıĦ":7487,"ĠìĥĿê°ģëĤĺë":7488,"ĠìĥĿê°ģíķĺê²Į":7489,"ĠìĥĿê°ģìĿ´ëĦ¤ìļĶ":7490,"ëŀĲìĸ´":7491,"ĠìķĬê²łëĦ¤ìļĶ":7492,"ĠìķĬì§ĢìļĶ":7493,"ĠìĪĺìĥģ":7494,"Ġê±Ķ":7495,"ê°Ħë§ĮìĹĲ":7496,"Ġë§Įì§Ģì§Ģ":7497,"Ġë³´ìĭł":7498,"Ġë³´ìĿ´ëĬĶ":7499,"Ġë³´ê¸°ë¡ľ":7500,"Ġë³´ëĵ":7501,"Ġë³´ëĭµìĿĦ":7502,"Ġë³´ëĥĪìĬµëĭĪëĭ¤":7503,"Ġë§ĲìĶ":7504,"Ġë§Ĳê±¸":7505,"Ġë§Ĳíķ´ìĦľ":7506,"Ġë§ĲíĪ¬ê°Ģ":7507,"Ġê°ĢëĦ¤ìļĶ":7508,"Ġê°ĢëĬĶê²Į":7509,"Ġê°Ģë¦¬ìĦ¸ìļĶ":7510,"Ġê°Ģëł¤ê³ł":7511,"Ġê°Ģê¸°ë¡ľ":7512,"Ġê°Ģìķ¼ëı¼":7513,"Ġëĭ¤íķĺìĦ¸ìļĶ":7514,"Ġëĭ¤ì¹ł":7515,"Ġëĭ¤ë¦ħëĭĪëĭ¤":7516,"ë§ĪìļĶ":7517,"ë§ĪìŀĲ":7518,"ë§Īì£¼":7519,"ë§Īìĭľë©´":7520,"ĠìĹ°ìĺĪ":7521,"ĠìĹ°íľ´":7522,"ìĤ¬ëŀĳëĭĪ":7523,"ìĤ¬ëŀĳìľ¼ë¡ľ":7524,"ëĤ´ë©´":7525,"ëĤ´ëł¤ëĨ":7526,"ĠìķĪê³ł":7527,"ĠìķĪíķł":7528,"ĠìķĪì¢ĭìĿĢ":7529,"ĠìķĪê²½":7530,"ĠìķĪíĥĢ":7531,"ĠìķĪíĥĢê¹Ŀ":7532,"ì¢ĭìķĦìļĶ":7533,"ì¢ĭìľ¼ë©´":7534,"ì¤Į":7535,"ìĪĺëĬĶ":7536,"ĠëĤĺìķ¼":7537,"ĠëĤĺê²łëĦ¤ìļĶ":7538,"ĠëĤĺìĹĲê²Į":7539,"ĠëĤĺì¤ĳìĹĲ":7540,"ĠëĤĺê°Īê±°ìĺĪìļĶ":7541,"Ġë§İìľ¼ìĭľ":7542,"Ġë§İìķĺëĤĺë´ħëĭĪëĭ¤":7543,"Ġê¸ī":7544,"Ġê¸įìłķ":7545,"Ġê¸¸ë©´":7546,"ë¡ľëĬĶ":7547,"ìĥģíķĺì§Ģ":7548,"ìĥģìĤ¬":7549,"ìĥģìĤ¬ê°Ģ":7550,"ìĹ¬ê¸°":7551,"ìĹ¬ìĦľ":7552,"ìĹ¬ìĤ¬ì¹ľìĿ´":7553,"ì¡¸ë¦°":7554,"Ġì°¢ìĸ´":7555,"Ġë°Ķì§Ģ":7556,"ëĵ¤ìĸ´":7557,"ì§Ħìĭľ":7558,"ê·¸ëŁ¬ëĬĶ":7559,"ê·¸ëķĲ":7560,"íħĶ":7561,"íħĲëĮĢìļĶ":7562,"Ġìĭľëł¤":7563,"ĠìĭľìĦłìĿĦ":7564,"ì¹ľêµ¬ìĿ¸ëį°":7565,"ìĹĪëĤĺìļĶ":7566,"ĠìŀĲìķ¼ì§Ģ":7567,"ĠìŀĲê²©":7568,"ĠìŀĲê²©ì¦Ŀ":7569,"ĠìŀĲì¡´ìĭ¬":7570,"ìĨĶë¡ľ":7571,"íĶ¼ë¡ľ":7572,"ìķłíĭ":7573,"ìķłìĦĿ":7574,"ĠìĤ¬ëŀĳìĿ´ìĹĲìļĶ":7575,"ĠìĤ¬ëŀĳíķłê¹Į":7576,"ĠìĤ¬ëŀĳìĿ´ì£ł":7577,"ĠìĤ¬ëŀĳíķĺëĬĶëį°":7578,"ĠìĤ¬ëŀĳë°Ľê³ł":7579,"ë²Ķ":7580,"ĠëįĶìĽĮ":7581,"ìĹ°ìĬµ":7582,"Ġìŀĺíķĺë©´":7583,"Ġìŀĺíķ´ìķ¼":7584,"ĠìŀĺíķĺëĬĶê²Į":7585,"Ġê¸°ë¥´ê³ł":7586,"íŀĲ":7587,"Ġíķ©":7588,"ìĸĺ":7589,"ĠìĹ¬ê¸°":7590,"ĠìĹ¬ê¸°ê¹Įì§Ģ":7591,"ĠìĹ¬ìŃ":7592,"ìĭ¬íķľ":7593,"ë§Ĳíķ´":7594,"ë§Ĳë¡ľ":7595,"Ġì§ĢëĬĶ":7596,"Ġì§Ģê°ģ":7597,"Ġì§ĢëĤľ":7598,"Ġì§ĢìĨį":7599,"Ġì§ĢìĽłìĸ´":7600,"Ġì§ĢëĤ¸":7601,"Ġì§Ģì§Ħìĭľ":7602,"íĸĪëĤĺ":7603,"íĸĪëĭ¤ë©´":7604,"íĸĪëĭ¤ê³ł":7605,"íĸĪìĿĦê¹Į":7606,"ê¸¸ë§Į":7607,"ìŀ¥íķĻ":7608,"ìŀ¥ê°ĳ":7609,"ĠìĹ°ëĿ½íķłê¹Į":7610,"ĠìĹ°ëĿ½íķĺëĬĶê²Į":7611,"ĠìĹ°ëĿ½ìĻĶìĸ´":7612,"ĠìĹ°ëĿ½íķĺëĿ¼ê³ł":7613,"ìĥĿìĿ´":7614,"ìĥĿë¦¬íĨµ":7615,"ìłĦìĦ¸":7616,"ìłĦê¸°":7617,"ìłĦìĹŃ":7618,"íħĮëĭĪ":7619,"íħĮëĭĪê¹ĮìļĶ":7620,"ĠëĤ¨ìĿ´ìĹĲìļĶ":7621,"ĠëĤ¨ìķĺ":7622,"ìĤ¬ì¶ĺ":7623,"ìĤ¬ìłķìĿĦ":7624,"ĠìĤ¬ì¤ĺ":7625,"ĠìĤ¬ìĹħ":7626,"ĠìĤ¬ëŀĮìĿ´ëĭ¤":7627,"ĠìĤ¬ëŀĮìĿ´ìķ¼":7628,"Ġíŀĺëĵ¤ê³ł":7629,"ĠëķĮìļĶ":7630,"ĠëķĮì£ł":7631,"ĠëķĮëł¤":7632,"ĠëķĮë§¤":7633,"ĠëķĮë¶ĢíĦ°":7634,"ìĿ´ë³ĦëıĦ":7635,"ìĿ´ë³Ħì¤Ģë¹Ħ":7636,"ĠìķĮê¹Į":7637,"ĠìķĮê²łìĸ´":7638,"ë¥´ì§Ģ":7639,"ë¥´ê¸°":7640,"íĺ¼ìĪĺ":7641,"íĺ¼ìĪł":7642,"ĠìĿ¼ìĹĲ":7643,"ĠìĿ¼íķĺëĬĶ":7644,"ĠìĿ¼ìĭľ":7645,"ĠìĿ¼ìĿ¸ì§Ģ":7646,"ĠíĸĪëĦ¤":7647,"ĠëĤ´ê²Į":7648,"ĠëĤ´ê¸°":7649,"ĠëĤ´ìĦľ":7650,"ĠëĤ´ìĿ¼ìĿĦ":7651,"ìĬ¤ê°Ģ":7652,"ìĬ¤íĬ¸":7653,"ìĬ¤ë¦´":7654,"ìĬ¤íģ¬ë¦¼":7655,"ë¯¸ëŀĺë¥¼":7656,"ìłģê²Į":7657,"ìłģìĿ´ìĹĲìļĶ":7658,"ì¢ĭìķĦíķĺê³ł":7659,"ì¢ĭìķĦíķĺì§Ģ":7660,"ìĺ¤ë¡ľ":7661,"ìĺ¤ëŀĺëĲľ":7662,"Ġëª¨ìŀĲ":7663,"Ġëª¨ìľ¼":7664,"ì§ģíķĺìĦ¸ìļĶ":7665,"ĠëŃĺë¡ľ":7666,"ëĮĢëĬĶ":7667,"ëĮĢê¸°ìĹħ":7668,"Ġëª»íķĺëĬĶê²Į":7669,"Ġëª»ìŀĬ":7670,"Ġê³łê¸°":7671,"Ġìĭ¶ìĸ´íķĺëĬĶ":7672,"ë§ĪìĿĮê³¼":7673,"Ġë¨¹ìĿĢ":7674,"Ġë¨¹ëĬĶëį°":7675,"Ġë¨¹ê±°ëĤĺ":7676,"Ġë¨¹ìĸ´ëıĦ":7677,"Ġë¨¹ìĹĪëįĶëĭĪ":7678,"ê°Ģëľ¨ë¦¬":7679,"ìļ°ìĹ°ìĿ´":7680,"ìļ°ìłķìĿ´":7681,"ìį¸ìĿ¼":7682,"Ġëģ¼":7683,"ĠëģĦëĬĶ":7684,"Ġìĭľê°ĦìĿ´ëĦ¤ìļĶ":7685,"Ġë°Ľìľ¼ìĦ¸ìļĶ":7686,"Ġë°Ľìľ¼ìĭľ":7687,"íĹ¤ìĸ´ì§Ģì§Ģ":7688,"ë¬´ëª¨":7689,"ë¬´ê¸°ëł¥":7690,"ê´ľíķľ":7691,"ë¶Ħëħ¸":7692,"ĠíķĺëĬĲëĥĲìĹĲ":7693,"ìŀĺìŀĲ":7694,"ë¶Ģì¡±":7695,"Ġë²ħì°°":7696,"ĠìĤ´ì§Ŀ":7697,"ĠìĤ´ë©´ìĦľ":7698,"ĠìĤ´ìª":7699,"ĠìĤ´ì°Ĳ":7700,"Ġíķľìĭ¬íķ´":7701,"ĠíķľëĭµëĭĪëĭ¤":7702,"ëĭ¹ë¶Ħê°Ħ":7703,"ìķĪëĤĺ":7704,"ĠëĲĺìĸ´ìļĶ":7705,"ĠëĲĺìĹĪëĦ¤":7706,"ĠëĲĺì§ļìĸ´ë³´ìĦ¸ìļĶ":7707,"Ġíķłì§Ģ":7708,"Ġíķłê¹ĮìļĶ":7709,"êµ¬ë¥¼":7710,"Ġì¢ĭìĿĦê±°":7711,"Ġëĵ¤ìĹĪê²łëĦ¤ìļĶ":7712,"ìŀĪìľ¼ë©´":7713,"ìŀĪê²łëĦ¤ìļĶ":7714,"ê·¸ê±¸":7715,"ê·¸ê²ĥëıĦ":7716,"ĠëĨĢëŀĲ":7717,"ŀĺìļĶ":7718,"Ġë¬´ìŀĳìłķ":7719,"ëıĻëł¥ìĿ´":7720,"íĸīìĹĲ":7721,"íĸīíķ´ë³´ìĦ¸ìļĶ":7722,"íĸīëıĻ":7723,"ìĭ¤ê±°ìĺĪìļĶ":7724,"ìĭ¤ë§Ŀ":7725,"ìĻĢìĿ¸":7726,"ĠëŃĲì§Ģ":7727,"ĠëŃĲíķĺëĬĶ":7728,"ĠëŃĲë¡ľ":7729,"ĠëŃĲíķĺëĤĺ":7730,"Ġìĥģë©Ķ":7731,"ì§Īíķľ":7732,"ì§Īì§Ī":7733,"ĠìŀĪëĬĶê±¸ê¹Į":7734,"ë¦¬ëįĺ":7735,"ë¦¬ëĦ¤ìļĶ":7736,"ì¡Įìĸ´ìļĶ":7737,"ìĨĮê°Ģ":7738,"ìĨĮìĨĮíķľ":7739,"íı¬ë§":7740,"ìĸ´ëĦ":7741,"ìĸ´ëľ¨":7742,"Ġì¢ĭìĿĢê±°":7743,"ĠìĿ´ë³Ħíķĺê³ł":7744,"ĠìĿ´ë³ĦìĹĲëĬĶ":7745,"ĠìĿ´ë³Ħíķľì§Ģ":7746,"ìĪĺìłĢë¡ľ":7747,"ìĽĲíķ´ë³´ìĦ¸ìļĶ":7748,"ìĽĲë§Ŀ":7749,"ĠëģĿëĤĺë":7750,"ĠëģĿìĿ¸ê°Ģ":7751,"Ġë¯¸ëŀĺ":7752,"Ġëĵľë¦´":7753,"Ġëĵľëł¤ë³´ìĦ¸ìļĶ":7754,"Ġëĵľëł¤ìļĶ":7755,"ĠëĵľëĶĶìĸ´":7756,"Ġëĵľë¦½ëĭĪëĭ¤":7757,"ìľ¼ìķĦ":7758,"ìľ¼ëĿ¼ê³ł":7759,"Ġìĸµ":7760,"Ġê±¸ìĿĮìĿĦ":7761,"ê°Ļëĭ¤":7762,"ê°Ļìķł":7763,"Ġì£¼ìĿĺíķĺìĦ¸ìļĶ":7764,"ĠëĤĺëĭĪ":7765,"ĠìĹ¬ìŀĲëĬĶ":7766,"ĠìĹ¬ìŀĲëıĦ":7767,"ĠìĹ¬ìŀĲì¹ľêµ¬ë¥¼":7768,"ĠíĻľ":7769,"ĠíķĦìļĶíķĺì§Ģ":7770,"ĠíķĦìļĶíĸĪ":7771,"ì¤ĳìŀħëĭĪëĭ¤":7772,"ĠëĤ¨ìŀĲëĬĶ":7773,"ĠëĤ¨ìŀĲìŀħëĭĪëĭ¤":7774,"ë¬¼ìĿ´":7775,"Ġê´ľì°®ê²łì§Ģ":7776,"ê³µì§ĢëĬ¥":7777,"ìł¸ìĦľ":7778,"ĠìĹĨìĸ´ì¡Įìĸ´":7779,"Ġì¹ľìłĪ":7780,"Ġì¹ľíķ´ì§ĢëĬĶ":7781,"Ġì¹ľíķ´ì§ĢëĬĶê²Į":7782,"ĠëĮĢíĶ¼ë":7783,"Ġì¡°ê°Ģ":7784,"ê¾¼":7785,"Ġíĺķ":7786,"Ġìī´":7787,"ĠìĬ¹ì§Ħ":7788,"ìľłíķĺëĬĶ":7789,"ìľłë¶ĢëĤ¨":7790,"ìĭĿë¬¼":7791,"Ġìľ¡":7792,"ĶĶìħĺ":7793,"ê°ľê°ķ":7794,"ê°ľëħĲ":7795,"Ġê°Ģë´":7796,"Ġê°Ģë´ĲìļĶ":7797,"ĠíĥĢëĤĺ":7798,"ŀĳìĿ´ë³´ëĭ¤":7799,"Ġìĸ´ëĸ»ê²Įíķ´":7800,"ê¾¸ì¤Ģ":7801,"ì¡°ê¸ī":7802,"ìĤ¬ëŀĮëĵ¤":7803,"ìĤ¬ëŀĮì¹ľêµ¬":7804,"ìĤ¬ëŀĮìĹĲê²Į":7805,"Ġë§ŀìķĦ":7806,"Ġë§ŀìľ¼ë©´":7807,"ĠìĿ¸ìĥģ":7808,"ĠìĿ¸ìĤ¬ë":7809,"ĠìĿ¸ìĬ¤íĥĢ":7810,"ĠìĿ¸ì§Ģìĭľì¼ľ":7811,"ĠìĿ¸ê³µì§ĢëĬ¥":7812,"íĬ¸ëĤ¨":7813,"Ġë§ĮëĤĺìŀĲ":7814,"íĹ¥":7815,"ĠëĤłìĿ´ëĦ¤ìļĶ":7816,"ëĵłëĵł":7817,"Ġê°ĲíŀĪ":7818,"Ġê°ĲìĪĺ":7819,"Ġê°ĲìĦ±":7820,"Ġê°Ĳì¶ľ":7821,"Ġê°Ĳìľ¼ìĦ¸ìļĶ":7822,"ê»Ħ":7823,"ĠìĨĮìĽĲ":7824,"ĠìĨĮë¦Ħ":7825,"ĠìĨĮìľłíķĺëĬĶ":7826,"ê³ĦìłĪ":7827,"Ġìĭ«ìĸ´ìļĶ":7828,"Ġìĭ«ëĭ¤ê³ł":7829,"íĶĦíĦ°":7830,"ĠìĹ°ìķłìĹĲ":7831,"ĠìĹ°ìķłíķĺê³ł":7832,"ĠìķĦëĭĪì§Ģ":7833,"Ġìĺ¤íķ´":7834,"Ġìĺ¤ê¸¸":7835,"Ġìĺ¤ëĿ¼ê³ł":7836,"Ġìĺ¤ìħ¨":7837,"Ġìĺ¤ëĭĪê¹Į":7838,"Ġìĺ¤ëĿ½ê°ĢëĿ½":7839,"ìĦ±ìĿ´ìĹĲìļĶ":7840,"ìĦ±ëįķ":7841,"ëĭµìłķëħĢ":7842,"íķĻìĭĿ":7843,"íķĻìłĲ":7844,"Ġì§Ħì§Ģ":7845,"Ġì§Ħìĭ¬":7846,"ìĭľê°ĦëĤ´ìĦľ":7847,"ëĵľë¦¬ëĬĶ":7848,"ëĵľëł¤ìļĶ":7849,"Ġíķĺê¸°ëıĦ":7850,"Ġê¹Ģ":7851,"Ġê¹ľë¹¡":7852,"ĠìĻľìĿ´ëłĩê²Į":7853,"Ġìĭľê°ĦìĿ´ìĹĪ":7854,"Ġëĭ¹íķľ":7855,"Ġëĭ¹ì²¨":7856,"£¨íķ´":7857,"ë¹ĦêµĲ":7858,"ë¹Ħì°¸":7859,"ë¹Ħìĭ¸":7860,"ë¹Ħìłķê·ľì§ģ":7861,"ë¹Ħíĸīê¸°":7862,"ë¹Ħìĭ¼":7863,"ëĵ¤ìĿ´ëŀĳ":7864,"ĠëıĦë§Ŀ":7865,"Ġë¹ĦìĦ¸ìļĶ":7866,"Ġë¹Ħì°¸":7867,"ëĭ¨ë§Ľ":7868,"ëĭ¨ì²´":7869,"ëĭ¨ìĪľ":7870,"Ġì°¾ìķĦë´ĲìļĶ":7871,"Ġì°¾ìķĦê°ĢëĬĶ":7872,"Ġì°¾ìķĦìĺ¤ëĬĶ":7873,"ĠìķłìĿĺ":7874,"ê·Ģê°Ģ":7875,"ê·Ģì°®":7876,"ê·ĢìĹ½":7877,"ê·ĢìĹ½ê²Į":7878,"Ġìĺ¤ëĬ":7879,"Ġìĺ¤ëŀĺë":7880,"Ġìĺ¤ë°Ķ":7881,"íĺ¼ìŀĲë¥¼":7882,"íĺ¼ìŀĲíķ´ëıĦ":7883,"íĺ¼ìŀĲë§ĮìĿĺ":7884,"ê±¸ìĿĮ":7885,"ìĦłíĴį":7886,"ìĦłë°°ê°Ģ":7887,"ì§Ģê¸Īë³´ëĭ¤":7888,"ì§ĳìĹĲìĦľëıĦ":7889,"Ġëį°ê°Ģ":7890,"Ġì¤Ģë¹Ħíķĺê¸°ëĬĶ":7891,"ì¹ľêµ¬ëĬĶ":7892,"ì¹ľêµ¬ëıĦ":7893,"ìĹ°ëĿ½íķł":7894,"ìĹ°ëĿ½ëĳĲ":7895,"ìĹ°ëĿ½ìĿ´ëĿ¼ëıĦ":7896,"ë¬¸ìŀĲ":7897,"ë¬¸ìłľ":7898,"Ġëħ¹":7899,"ĠíĿ¬ìĥĿ":7900,"ë³´ëĭ¤ë³´ë©´":7901,"ĠìĹĨëĬĶì§Ģ":7902,"ĠìĹĨëĬĶê±¸ê¹Į":7903,"ĠìŀĲìĭłë§Į":7904,"ĠìŀĲìĭłìľ¼ë¡ľ":7905,"Ġìłķë¦¬íķ´":7906,"Ġìłķë¦¬íķĺê³ł":7907,"Ġìłķë¦¬íķ´ë³´ìĦ¸ìļĶ":7908,"Ġìłķë¦¬íķĺìĦ¸ìļĶ":7909,"íķ´ìķ¼íķłì§Ģ":7910,"ĠìłľìŀĲë¦¬":7911,"ì²ĺë¡ľ":7912,"ì²ĺë¦¬":7913,"ë§ĪìĿĮìĿ´ëŀĳ":7914,"ĠìĦłë¬¼íķĺë©´":7915,"ĠìĦłë¬¼ìĿ´ëĦ¤ìļĶ":7916,"ëĳĲëĭ¬":7917,"ëĳĲëĭ¬ìĿ´":7918,"Ġì§ĳìĿ´":7919,"Ġëª°ëł¤":7920,"Ġê¸°ëĭ¤ë¦¬":7921,"Ġê¸°ëĭ¤ë¦¬ìĦ¸ìļĶ":7922,"Ġê¸°ëĭ¤ë¦´ê²ĮìļĶ":7923,"ëª¨ë¥´":7924,"ëª¨íĭ°":7925,"ê¸´ëĭ¤":7926,"ê¸´ìŀ¥":7927,"ìļ©ê¸°":7928,"ĠìľĦê¸°":7929,"ĠìĿ´ìķ¼ê¸°íķĺëĬĶ":7930,"Ġë©°":7931,"ĠíĹĮ":7932,"ĠíĹ¬ìĬ¤":7933,"Ġê³Ħê¸°ê°Ģ":7934,"Ġì°¸ìķĦ":7935,"Ġì°¸ìķĺìĸ´":7936,"Ġì°¸ê²¬":7937,"Ġíĸīë³µìĿĢ":7938,"Ġíĸīë³µíķĺê¸¸":7939,"ĠíĥĢë":7940,"ĠíĥĢëŁ¬":7941,"Ġíķĺì§ĢëıĦ":7942,"Ġíķĺì§Ģë§Ĳê³ł":7943,"ĠëĺĲíķľ":7944,"ìĪłìĿĢ":7945,"ìĪłíķľìŀĶ":7946,"íĶ¼íģ¬ëĭī":7947,"Ĥĺë´Ĳ":7948,"ë¹µ":7949,"ë¹Ļ":7950,"ë¹ļ":7951,"ë¹¼ë¹¼ë¡ľ":7952,"ı¼ìĦľ":7953,"Ġíķ´ìķ¼íķł":7954,"Ġíķ´ìķ¼ê²łì§Ģ":7955,"Ġíķ´ìķ¼ê²łëĦ¤":7956,"ìłĪìķ½":7957,"ì§ĿìĤ¬ëŀĳìĿĦ":7958,"ìĽĶìĿ´":7959,"ìĽĶìĦ¸":7960,"ĠíĻķë¥ł":7961,"ìĹĨëĦ¤":7962,"ĠëıĮë©´":7963,"ĠëıĮë¦¬ëĬĶ":7964,"ĠëĳĲìĦ¸ìļĶ":7965,"ĠëĳĲëĭ¬ìĿ´":7966,"ĠëĳĲíĳ¼":7967,"íķ¨ìĹĲ":7968,"ĠëĲĺëł¤ê³ł":7969,"ĠëĲĺëł¤ë©´":7970,"Ġë§Įëĵ¤ê¸°":7971,"Ġë§Įëĵ¤ìĹĪìĸ´ìļĶ":7972,"ĠìĺĪìķ½":7973,"ĠìĺĪê°ĲìĿĢ":7974,"ì¦Ŀëªħ":7975,"Ġê³µê°Ħ":7976,"Ġê³łë¯¼ìĿ´ì£ł":7977,"Ġê³łë¯¼íķĺëĬĲëĿ¼":7978,"Ġê³³ìĿ´ì£ł":7979,"Ġê³³ê¹Įì§Ģ":7980,"íĮĮëıĦ":7981,"íĮĮíĺ¼":7982,"íĮĮìĿ´íĮħ":7983,"íķĺê¸°ë¡ľ":7984,"ë²Ħë¦¼":7985,"Ġê³łë°±íķĺëĬĶê²Į":7986,"ìŀĦìĿ´":7987,"ìŀĦìļ©":7988,"ê°ķìĬµ":7989,"ì§¸ê¹į":7990,"íĥĶ":7991,"Ġêµ´":7992,"ĠêµŃ":7993,"ë°°ìļ°":7994,"ìĸ´ëĸ¡":7995,"Ġëĸ¨ë¦°ëĭ¤":7996,"ĠíŀĺëĵľëĭĪê¹ĮìļĶ":7997,"Ġê°ĢëĬ¥íķĺì£ł":7998,"Ġê°ĢëĬ¥íķľê°Ģ":7999,"Ġíŀĺëĵłê°Ģë´ĲìļĶ":8000,"ìķĦì§ģìĿ´ëĿ¼ë©´":8001,"ìħ¨ëĤĺìļĶ":8002,"ĠìķĮìķĦë³´ëĬĶ":8003,"ĠìķĮìķĦë³¼":8004,"ĠìķĮìķĦëĳĲìĦ¸ìļĶ":8005,"ĠìķĪëĲł":8006,"ê²°íĺ¼íķ´ëıĦ":8007,"ê²°íĺ¼ì¤Ģë¹Ħ":8008,"ê²°íĺ¼ìłģëł¹":8009,"ë§ĽëĤľ":8010,"ë§Ľì§ĳ":8011,"ë§ĽìŀĪìĿĦ":8012,"ë°ľìĿĦ":8013,"ë°ľëłĮíĥĢìĿ¸ëį°ìĿ´":8014,"ìĻĶìľ¼ë©´":8015,"ìĿ´ìĹĪìľ¼ëĭĪê¹ĮìļĶ":8016,"Ġìĭ«ìĸ´ëıĦ":8017,"Ġìĭ«ìĸ´íķĺì§Ģ":8018,"ìĵ°ì§Ģ":8019,"Ġë°°ìļ°ë©´":8020,"Ġë°°ìļ¸ê¹Į":8021,"Ġë°°ê³łíĮĮ":8022,"Ġë¶Ģë¶Ģ":8023,"Ġë³Ģíķ´ìļĶ":8024,"ĠëĨĢê¹Į":8025,"ĠìķĦëĭĪëĦ¤":8026,"Ġìĵ°ìĿ¼":8027,"Ġìĵ°ëł¤ê³ł":8028,"Ġìĵ°ìĿ´ëĬĶ":8029,"ë§¤ëł¥":8030,"ĠìĤ¬ëıĦ":8031,"ĠìĤ¬ë©´":8032,"ĠìĤ¬ë¨¹":8033,"ë¯¸ìķĪíķ´":8034,"ĠëĸłëĤł":8035,"Ġëĸłë³´ëĬĶ":8036,"ĠëĸłëĤ¬":8037,"ìľĦì¹ĺ":8038,"ëªħíķľ":8039,"ëªħíĴĪ":8040,"Ġë²ĦëĬĶ":8041,"Ġë²Ħë¦¬ëĬĶ":8042,"Ġë²Ħë¦ĩ":8043,"ìĪĺëĬ¥":8044,"Ġê±±ìłķìĿ´ìķ¼":8045,"Ġê±±ìłķíķĺì§Ģë§ĪìĦ¸ìļĶ":8046,"ìĿ´ëĶĶ":8047,"ìĿ´ë£¨":8048,"ìĿ´ëĦĪ":8049,"¸ë¦¬ëĬĶ":8050,"ĠìĤ¬ê·Ģìĸ´":8051,"Ġìļ°ë¦°":8052,"ìĤ¬ë©´":8053,"ìĤ¬ë¡ľ":8054,"ĠìŀĪìĹĪìĸ´":8055,"ĠìŀĪìĹĪìĿĦì§ĢëıĦ":8056,"Ġê²°íĺ¼íķ´ëıĦ":8057,"Ġê²°íĺ¼íķ´ìķ¼":8058,"Ġê°ĲìłķìĿĢ":8059,"ĠëĦĮ":8060,"ìĺĢëĦ¤":8061,"ìĺĢëĤĺ":8062,"ìĺĢëĤĺìļĶ":8063,"¶ĦìĿ´":8064,"ë§īì°¨":8065,"ĠíĶ¼íķĺëĬĶ":8066,"ĠíĶ¼íķł":8067,"ì¹¨ëĮĢ":8068,"ë¦ĦìĿ´":8069,"ë¦Ħëĭ¬":8070,"ë°©ë¹Ħ":8071,"ĠëĪĪìĿĢ":8072,"ìŀĬê³ł":8073,"ìŀĬê¸°":8074,"ĠëĨĵìľ¼ìĦ¸ìļĶ":8075,"ĠìĦ±ìĪĻ":8076,"ĠìĦ±ìłģìĿ´":8077,"ĠìĦ±ë³ĦìĿĦ":8078,"Ġê¿ĪìĹĲìĦľ":8079,"Ġê°ĦëĮĢ":8080,"Ġê°Ħì§ģíķĺìĦ¸ìļĶ":8081,"Ġíķ¨ë¶Ģë¡ľ":8082,"Ġë¯¿ìĸ´":8083,"ĠìĨįë°ķ":8084,"ĠìłĢë§Īëĭ¤":8085,"ë°Ľìľ¼ìĦ¸ìļĶ":8086,"ë°Ľìķĺìĸ´":8087,"Ġë¶Ħëĭ´íķ´ë³´ìĦ¸ìļĶ":8088,"ì¶ĶìĦĿ":8089,"Ġì¹ľêµ¬ëĬĶ":8090,"Ġì¹ľêµ¬ëĵ¤ìĿ´":8091,"íĸĪëįĺê±°":8092,"ë¶ĢëħĢ":8093,"ë¶ĢëĶĶ":8094,"ìĸĳìłľ":8095,"ìĸĳíķ´ë¥¼":8096,"ëķĮë¡ľëĬĶ":8097,"íĺķíİ¸ë":8098,"íľ´íķĻ":8099,"íľ´ìĭĿëıĦ":8100,"ĠíĳľíĺĦíķ´":8101,"ĠíĳľíĺĦíķ´ë³´ëĬĶ":8102,"Ġë§İìĿĢê°Ģ":8103,"Ġê·¸ëŁ°ì§Ģ":8104,"Ġê·¸ëŁ°ê°Ģ":8105,"Ġê¸°ìĸµíķ´":8106,"íĪ¬ë¥¼":8107,"ìĥĪìĭłë°ľ":8108,"ê°ľìĽĶì°¨":8109,"ĠìĤĲ":8110,"ëĭ¬ëĿ¼ì§Ģì§Ģ":8111,"Ġë°ĺíķľ":8112,"ĠìĿ´ìłľìķ¼":8113,"ì°¸ê²¬":8114,"ĠìĦłíĥĿìĿ´ìĹĪìĿĦ":8115,"ĠëĶ°ëĿ¼ê°Ģ":8116,"íĿĲ":8117,"íĿĺ":8118,"íĿł":8119,"ĠìĿ´íķ´íķ´ë³´ìĦ¸ìļĶ":8120,"ĠìĿ´íķ´ëª»":8121,"Ġìĺ¬ê±°ìĺĪìļĶ":8122,"íĶĮëĿ¼":8123,"ĠëıĻìĺģ":8124,"ĠíķĺëĤĺì£ł":8125,"íĽĦíļĮíķĺëĬĶ":8126,"ëĪĪìĹĲ":8127,"ê°ĪìĪĺë¡Ŀ":8128,"ìĺģìĸ´":8129,"ĠìĿ´ìľłë¡ľ":8130,"ĠëĪĦê°Ģ":8131,"ĠëĪĦêµ°":8132,"ĠëĪĦêµ´":8133,"Ġëį°ìĿ´íĬ¸ê°Ģ":8134,"ĠíĮįíĮį":8135,"ĠëĬ¦ìĿĢ":8136,"ĠëĬ¦ìŀł":8137,"ĠëĬ¦ìĹĪìĸ´ìļĶ":8138,"Ġìŀ¡ìķĦë³´ìĦ¸ìļĶ":8139,"ìĺ¨ëĭ¤":8140,"Ġìĭ¬íķ´ì§ĢëĬĶ":8141,"Ġë³´ëĤ´ìĭľê¸¸":8142,"ì²´ìłģìľ¼ë¡ľ":8143,"ĠíĽĦíļĮíķ´":8144,"ĠíĽĦíļĮíķłê¹Į":8145,"ĠíĽĦíļĮíķĺê¸°":8146,"íķ´ì£¼ì§Ģ":8147,"ĠìĹ¬íĸīìĿ´ëĦ¤ìļĶ":8148,"Ġíķĺë£¨íķĺë£¨":8149,"íŀĺëĵ¤ê²łìĸ´ìļĶ":8150,"Ġì±Ļê¸°ìĦ¸ìļĶ":8151,"ĠëĲĺëĬĶê±°":8152,"Ġìĸ´ëĶĶëĵł":8153,"Ġìĸ´ëĸ¡íķ¨":8154,"Ġìĸ´ëĸ¡íķĺì£ł":8155,"Ġê²°ìłķíĸĪëĤĺë´ĲìļĶ":8156,"Ġê³µë¶Ģíķ´ìķ¼ì§Ģ":8157,"ì±ħìŀĦ":8158,"Ġìĥ¤ìĽĮ":8159,"Ġì·¨ìĹħ":8160,"Ġì·¨ë¯¸ë":8161,"Ġê¼°ëĮĢ":8162,"ë³ĢíķĺëĬĶ":8163,"ĠìĿ´ëŁ¬ëĬĶ":8164,"ĠìķĦíĶĦê³ł":8165,"ĠìķĦíĶĦê²Į":8166,"Ġìĸ´ëł¤ìļ¸":8167,"ëģĿìĿĢ":8168,"ëģĿëĤ¼":8169,"ëĶ¸ê¸°":8170,"ĠìŀħìĿĦ":8171,"Ġìŀħìľ¼ìĦ¸ìļĶ":8172,"ëł¸ëĤĺë´ĲìļĶ":8173,"Ġì¹´íĨ¡ìĿĦ":8174,"Ġì¹´íĨ¡ìľ¼ë¡ľ":8175,"Ġë¬¼ìĸ´ë³´ê³ł":8176,"Ġìĸ¸ìłľëĵł":8177,"íĤ¤ê°Ģ":8178,"Ġíĺ¼ìŀĲìĿ¸":8179,"ëľ¨":8180,"ĠìĦ¤ëªħ":8181,"ĠìĦ¤ëĵĿ":8182,"ĠìĿĺìĤ¬":8183,"ĠìĿĺìĻ¸ë¡ľ":8184,"ĠìĿĺê²¬":8185,"ĠìĿĺìĭ¬íķ´":8186,"ì°©ê°ģ":8187,"ì¶ķìĿĺê¸Ī":8188,"Ġê·¸ëħĢìĹĲê²Į":8189,"ê´ľì°®ìĿĦ":8190,"ĠìĥĿê²¼ìĸ´ìļĶ":8191,"ĠìĥĿê²¼ìĿĦì§ĢëıĦ":8192,"ëĤ¨ìŀĲì¹ľêµ¬ìĹĲê²Į":8193,"ĠìĽĲìĿ¸ìĿ´ì£ł":8194,"ĠìĽĲëıĻëł¥ìĿ´":8195,"Ġìĭ¸ìĽłìĸ´":8196,"ĠìĪľìĪĺ":8197,"ê·¸ëŁ´ë§Į":8198,"ĠìĤ¬ìĿ´ë¡ľ":8199,"ë¨¸ë¦¬ì¹´ëĿ½":8200,"ëĲĺê¸¸":8201,"ëĲĺìĸ´ìķ¼":8202,"Ġíķ¨ê»ĺíķĺê³ł":8203,"ê¼Ī":8204,"ìķĮê³ł":8205,"ìķĮëĭ¤ê°ĢëıĦ":8206,"ìĹ¬íĸīìĿ´":8207,"ìĹ¬íĸīìĿĢ":8208,"Ġê·¸ë§Įëĳ¬":8209,"ĠíĺĦíĥĢ":8210,"Ġìķ½ìĿ´":8211,"íķĺë£¨ìĹĲ":8212,"Ġëĭ¬ëĿ¼ìļĶ":8213,"Ġëĭ¬ëĿ¼ìł¸ìļĶ":8214,"ĠìĻĢëĭ¿":8215,"Ġìŀĺëª»ìĿĦ":8216,"Ġìŀĺëª»ìŀħëĭĪëĭ¤":8217,"Ġì±Ļê²¨ì£¼ë©´":8218,"Ġì±Ļê²¨ëĵľìĭľ":8219,"íķ´ì§Ģê¸°":8220,"íķ´ì§ĢëĦ¤":8221,"íķ´ì§Ģê¸¸":8222,"Ġì¶Ķì²ľíķ´":8223,"ê³µë¶Ģíķĺë©´":8224,"Ġë¹łì§Ģë©´":8225,"Ġëħ¸ëł¥íķĺê²łìĬµëĭĪëĭ¤":8226,"Ġì¦Ĳê²¨":8227,"Ġì¦Ĳê¸°ëĬĶ":8228,"Ġëįľìĸ´ë³´ìĦ¸ìļĶ":8229,"Ġë§īíŀĪëĬĶ":8230,"Ġë§īíŀĮëĭ¤":8231,"ë¦°ëĮĢë¡ľ":8232,"ëĳĶ":8233,"Ġë°ľê²¬":8234,"Ġëĭ¤ë¥´ì§Ģ":8235,"Ġëĭ¤ë¥´ê²Į":8236,"ìļ´ëıĻíķł":8237,"ëª»ì°¸ê³ł":8238,"Ġë¨¹ìĸ´ìķ¼":8239,"ìĹ¬ì¹ľìĿ´ëŀĳ":8240,"ĠìĦ¸ìĸ´":8241,"ĠìĦ¸ìĽĮë³´ìĦ¸ìļĶ":8242,"ĠëĲľëĭ¤ê³ł":8243,"Ġê³¼ê±°":8244,"Ġë§ĮëĤĺëĬĶëį°":8245,"Ġìī½ì§Ģê°Ģ":8246,"ĠëĦĺìĹĪëĬĶëį°":8247,"ĠëĦĺìĸ´ê°ĢëĦ¤":8248,"Ġìŀ¬ë¯¸ìŀĪìĸ´":8249,"Ġëĭ¨íĨ¡":8250,"Ġëĭ¨ëĳĺìĿ´":8251,"ì²«ìĿ¸":8252,"ĠëĤĺê°Ģë©´":8253,"Ġê¸¸ê²Į":8254,"ĠìĿ¼ìĸ´ëĤ¬":8255,"ĠìĿ¼ìĸ´ëĤĺë©´":8256,"ê±´ê°ķìĿ´":8257,"ê±´ê°ķìĿĦ":8258,"íĸīë³µíķł":8259,"ĠíĻķìĿ¸íķĺëĬĶ":8260,"ë¬µ":8261,"ìķĪëĲĲ":8262,"ì£¼ë¬¼":8263,"ì£¼ë¦Ħ":8264,"ì£¼ëŁī":8265,"íĸ¥ìĿĦ":8266,"ëľ»ëĮĢë¡ľ":8267,"ĠìĹ¬ìŀĲì¹ľêµ¬ìĿĺ":8268,"ĠìĹ¬ìŀĲì¹ľêµ¬ìĹĲê²Į":8269,"íıīê°Ģ":8270,"ì²ĺìĿĮìĹĲ":8271,"ê½ĥê¸¸ë§Į":8272,"ìŀħìĹĲ":8273,"íĻĶìŀ¥íĴĪ":8274,"íĬ¸ë¡¤":8275,"ĠìŀĬìĸ´ê°ĢëĬĶ":8276,"Ġëĸ¨ìĸ´ì§ĢëĬĶ":8277,"ë°ĺìŀ¥":8278,"ìĥģëĮĢë°©ìĿĺ":8279,"ĠìĤ¬ëŀĳíķĺëĬĶì§ĢëĬĶ":8280,"ëª©ìĿ´":8281,"Ġìĺ¤ëĬĺìĿ´ìĹĲìļĶ":8282,"ë¶Īíĸī":8283,"ĠìĹ°ìĬµíķ´ë³´ìĦ¸ìļĶ":8284,"Ġì§Ģê¸ĪëıĦ":8285,"Ġíĺ¸ì¹Ń":8286,"ĠìĽĥìĸ´":8287,"ĠìĽĥìĿĮ":8288,"Ġêµ¬ìĽĮ":8289,"Ġë¬¸ìłľëĬĶ":8290,"Ġë¬¸ìłľì£ł":8291,"Ġë¬¸ìłľëĦ¤ìļĶ":8292,"ìī¬ê³ł":8293,"ĠëĶ¸":8294,"ĠëĶ¸ê¸°":8295,"Ġê°ĸê²Į":8296,"Ġì¢ĭìķĦíķłê±°ìĺĪìļĶ":8297,"Ġë§ĮëĤ¨ê³¼":8298,"Ġë§ĮëĤ¨ìĿ´ëĦ¤ìļĶ":8299,"ĠëģĬê²¼ìĸ´":8300,"ĠëĲĺìĹĪìĿĦ":8301,"ĠëĲĺìĹĪê¸¸":8302,"Ġê·¸ëłĩê²łì£ł":8303,"ì»¤íĶ¼ê°Ģ":8304,"ì»¤íĶ¼ëĬĶ":8305,"ì´ĪëĮĢ":8306,"ĠìĿ¼ë°ĺ":8307,"Ġë§Īìĭľì§Ģ":8308,"Ġì»¤ìĦľ":8309,"Ġë§Ŀíķ¨":8310,"Ġë§ĿìĦ¤":8311,"Ġë§Ŀê°Ģëľ¨ë¦¬":8312,"Ġì§ģìłĦ":8313,"Ġì§ģìĹħ":8314,"Ġì¹ĺìĽĮ":8315,"Ġëª¨ìĬµëıĦ":8316,"ĠìĬ¤íĬ¸ëłĪìĬ¤ìķ¼":8317,"ĠìĬ¤íĬ¸ëłĪìĬ¤ìĿĺ":8318,"ìĹĦë§ĪìķĦë¹ł":8319,"ĥĲê³ł":8320,"Ĳĺê³ł":8321,"Ġê°ĳëĭĪëĭ¤":8322,"Ġíı¬ê¸°ê°Ģ":8323,"ê³łë°±íķĺê³ł":8324,"ĠíĤ¤ìļ¸":8325,"ĠìĿ´ìĸ´ì§Ī":8326,"ĠìĿ´ìĸ´ë³´ê³ł":8327,"ĠìĿ´ìĸ´ì£¼ëĬĶ":8328,"ĠìĿ´ìĸ´ëĤĺê°ĢëĬĶ":8329,"ĠìķĦëĬĶê±°":8330,"Ġë¯¸ëł¨ìĿĢ":8331,"Ġë¯¸ëł¨ëıĦ":8332,"ĠíĿĲë¥¸":8333,"ĠíĿĲë¥´ëĬĶ":8334,"Ġê¸°ëĭ¤ëł¤ëıĦ":8335,"Ġëĭ¤ê°Ģê°ĢìĦ¸ìļĶ":8336,"ëĦ·":8337,"ëĦĲ":8338,"ìĿ¸ìĥĿìĿĦ":8339,"ĠíķĻìĽĲìĿĦ":8340,"Ġë°ĽìķĦëĵ¤ìĿ´ê¸°":8341,"ĠìĺĪìĿĺìĿ¼":8342,"ìķŀë¨¸ë¦¬ë":8343,"ĠëĤľë°©":8344,"Ġê·¹ë³µíķ´ë³´ìĦ¸ìļĶ":8345,"Ġì°įìĸ´":8346,"Ġì°įëĬĶ":8347,"Ġë°Ķê¿¨":8348,"ĠìŀĬíĺĢì§Ģì§Ģ":8349,"ë§İìĿĢê±¸":8350,"ì³¤ëĤĺë´ĲìļĶ":8351,"ì»¥":8352,"ì»·":8353,"ê¸ĢìĿĦ":8354,"ê¸Ģìİ":8355,"ê·¹íŀĪ":8356,"Ġë§Īì£¼ì¹ĺë©´":8357,"ë§Īì§Ģë§īìľ¼ë¡ľ":8358,"Ġë¬´ìĭľíķ´":8359,"ëĥĪëĬĶëį°":8360,"ìµľìĭł":8361,"ìµľìłĢ":8362,"Ġì¢ħì§Ģ":8363,"íķ¸ëĵľíı°ìĿ´":8364,"ĠìĹ°ëĿ½íķ´ë³´ëĬĶ":8365,"Ġëª¨ëĳĲìĹĲê²Į":8366,"ĠíĶĦëĿ¼ìĿ´ë²Ħìĭľ":8367,"Ġìļ´ëıĻíķ´ë³´ìĦ¸ìļĶ":8368,"Ġìļ´ëıĻíķĺìĦ¸ìļĶ":8369,"ĠíļĮë³µ":8370,"ìķĦì¹¨ë¶ĢíĦ°":8371,"ĠíĦ¸":8372,"ĠíĦ¸ìĸ´":8373,"ĠìŀĲì²´ë§Įìľ¼ë¡ľ":8374,"íĹ¤ìĸ´ì§Ģê¸°":8375,"íĹ¤ìĸ´ì§Ģë©´":8376,"ìĨĮê°ľíĮħíķĺê³ł":8377,"ìĨĮê°ľíĮħìľ¼ë¡ľ":8378,"ĠíĸīëıĻìĿĢ":8379,"íĺĦìĭ¤ìĿĦ":8380,"Ġëĭ¤ëħĢëıĦ":8381,"Ġëĭ¤ëħĢìĻĶìĸ´":8382,"Ġëĭ¤ëħĢìĺ¤ìĦ¸ìļĶ":8383,"ìļķìĭ¬":8384,"ìĹŃìĿ´":8385,"ê°Ģì¡±ìĿ´":8386,"ê°Ģì¡±ëĵ¤":8387,"ê°Ģì¡±ëĵ¤ìĿ´ëŀĳ":8388,"Ġê°ľìĿ¸":8389,"ĠìłĳëĬĶê²Į":8390,"Ġìłĳìĸ´ìķ¼":8391,"ĠëĤĺìĺ¤ëĦ¤":8392,"ë¨¸ë¦¬ëĬĶ":8393,"ìĸ¸ìłľê¹Įì§Ģ":8394,"ĠìĮ©ìĸ¼":8395,"ìĿ´ìĥģìłģìĿ¸":8396,"Ġìļķíķĺê³ł":8397,"ĠíķĦìļĶíķ´ë³´ìĹ¬ìļĶ":8398,"Ġìī¬ìĸ´ìķ¼":8399,"Ġìµľê³łìĿĺ":8400,"íĻĺìĬ¹ìĿ´ë³Ħ":8401,"ĠìŀĳìķĦ":8402,"ĠìŀĳëıĻ":8403,"ë¦¼ìĿĦ":8404,"ĠíĹ¤ìĸ´ì§ĲìĿĦ":8405,"ĠëıĦìĻĢëĭ¬ëĿ¼ê³ł":8406,"Ġë¶Ģë¶ĦìĿĦ":8407,"Ġìŀ¬ë°ĮìĿĦ":8408,"Ġìŀ¬ë°Įëĭ¤":8409,"ìĸ´ë¨¸ìĸ´ë¨¸":8410,"ì¹ĺë§¤":8411,"Ġë°¥ìĿĦ":8412,"ìĭłê²½ìĵ°ìĿ´":8413,"ìĭłê²½ìĵ°ëĬĶ":8414,"ĠìķĪíķ´ë¨¹ê³ł":8415,"ìĿ´ë³ĦìĿ´ëŀĢ":8416,"ĠìĥģëĮĢìĹĲê²Į":8417,"ë°ĶëŀĮìĿ´ëĿ¼ëıĦ":8418,"Ġì²«ìĤ¬ëŀĳìĿ´":8419,"ë©Ķëī´":8420,"ĠìķŀìĹĲìĦł":8421,"ëĺĳëĺĳ":8422,"ê¸°ë§Įíķ´ëıĦ":8423,"ê¸°ìĸµìĹĲìĦľ":8424,"Ġì§Īëł¤":8425,"Ġì§ĪëŁ¬ë³´ìĦ¸ìļĶ":8426,"ìĻ¸ë¡ľìļ´":8427,"ìĻ¸ë¡ľìĽĮ":8428,"ë¶Ģëĭ´ìĬ¤ëŁ¬ìĽĮ":8429,"ìĦ±ê³µìłģìľ¼ë¡ľ":8430,"Ġë¶Ģì¡±íķ´":8431,"Ġíĸīë³µíķ´ë³´ìĹ¬":8432,"ĠíĶ¼ê³¤íķľê°Ģë´ĲìļĶ":8433,"Ġë¶Ļìŀ¡ìķĦ":8434,"ìķĪëħķíŀĪ":8435,"ê¶ģê¸Īíķ´":8436,"ê¶ģê¸Īíķł":8437,"ĠìĶ¹":8438,"ĠìĿĮìĭĿ":8439,"Ġìĸ´ëłµëĭ¤":8440,"Ġìĸ´ëłµì£ł":8441,"Ġìĭľì¼ľëĭ¬ëĿ¼ê³ł":8442,"ëħ¸ëł¥íķĺê³ł":8443,"ëħ¸ëł¥íķĺê²łìĬµëĭĪëĭ¤":8444,"íĹ¤ìĸ´ì§ĲìĿĢ":8445,"ĠìĨĶì§ģíķľ":8446,"ë¨¼ì§Ģ":8447,"ĠëĨĴê²łëĦ¤ìļĶ":8448,"íķ¨ê»ĺíķľ":8449,"ì¶ĶìĸµìĹĲ":8450,"ì¶Ķìĸµìľ¼ë¡ľ":8451,"íĻķìĭ¤íķ´ì§Ģë©´":8452,"ëĶ°ëľ»íķ´ì¡Į":8453,"Ġì¡´ì¤ĳíķĺê³ł":8454,"Ġì¡´ì¤ĳíķ´ì£¼ìĦ¸ìļĶ":8455,"Ġëĺĳê°ĻìĿĢ":8456,"Ġëĺĳëĺĳ":8457,"Ġëĺĳê°Ļìķł":8458,"íķľë²Īë§Į":8459,"ìŀĲìĹ°ìĬ¤ëŁ½ê²Į":8460,"ĠìĿĳìĽĲíķ´":8461,"ĠìĿĳìĽĲíķłê²ĮìļĶ":8462,"ĠìĿµìĪĻíķ´ì§Ī":8463,"ĠëĤĺìģľê±°ìĺĪìļĶ":8464,"ë²łíĦ°ë¦¬":8465,"ë²łíĬ¸ëĤ¨":8466,"Ġíķĺëĭ¤ëĭĪ":8467,"Ġíķĺëĭ¤ë³´ë©´":8468,"Ġíķĺëĭ¤ë³´ëĭĪ":8469,"Ġìļ¸ìłģ":8470,"Ġíķĺìħ¨êµ°ìļĶ":8471,"Ġëį°ëł¤ê°ĢìĦ¸ìļĶ":8472,"ìľĦë¡ľê°Ģ":8473,"ëĵ£":8474,"ì§ĪëķĮ":8475,"ì§Īë»Ķ":8476,"íķ´ì¡Įìĸ´ìļĶ":8477,"íķĺëĤĺëĿ¼ëıĦ":8478,"ĠìĹ´ìĸ´":8479,"ê·¸ë¦¬ìĽĮ":8480,"ê·¸ë¦¬ìĽĢ":8481,"ìĬµê´ĢìĿ´ìĹĲìļĶ":8482,"ìĬµê´Ģì²ĺëŁ¼":8483,"Ġíĸ¥ìĪĺ":8484,"ĠìĨĮì¤ĳíķ©ëĭĪëĭ¤":8485,"íŀĺëĤ´ì§Ģ":8486,"Ġìŀ¬íļĮëĬĶ":8487,"íķ´ì¤¬ìľ¼ë©´":8488,"Ġíķ´ê²°ëĲĺê¸¸":8489,"ìĭłê²½ìĿĦ":8490,"Ġìłķìĭłê±´ê°ķìĹĲ":8491,"ë¡Ńê²Į":8492,"ĠìĦ±ê³µíķľ":8493,"ĠìĦ±ê³µíķł":8494,"ĠìĦ±ê³µíķĺê³ł":8495,"Ġìĭ¤ìĪĺíķĺì§Ģ":8496,"ĠìĺĪë¯¼íķ´":8497,"ĠìĺĪë¯¼íķľê°Ģë´ĲìļĶ":8498,"Ġìķ½ìĨįìĿĦ":8499,"Ġë´¤ëĦ¤":8500,"ì´Īì½ľë¦¿":8501,"ĠìĮĵìĹ¬":8502,"êº¼ìķ¼":8503,"Ġì§§ì£ł":8504,"Ġëª¸ìĹĲëĬĶ":8505,"ì£¼ë§ĲìĿ´":8506,"ì£¼ë³ĢìĹĲìĦľ":8507,"Ġë§ĮëĤľëĭ¤ë©´":8508,"Ġëª¨ëĵłê²Į":8509,"Ġëħ¸ëŀĺëĬĶ":8510,"Ġë©Īì¶°":8511,"ĠìĬ¤íĥĢìĿ¼ìĿ´":8512,"Ġêµ¬ë³Ħ":8513,"ĠìĤŃìłľíķ´ë³´ìĦ¸ìļĶ":8514,"ĠìĤŃìłľíķĺëĬĶê²Į":8515,"Ġë§ĽìŀĪìĸ´":8516,"Ġë§ĽìŀĪëĭ¤":8517,"ĠíĦ°ì§Ģ":8518,"ĠíĦ°ì§Ī":8519,"ê¹¨ëĭ¬":8520,"ê¸°ëĮĢë¥¼":8521,"Ġë³¸ìĿ¸":8522,"Ġë³¸ìĿ¸ìĿĺ":8523,"ĠìĥĿê°ģíķłê²ĮìļĶ":8524,"ëªĩìĿ¼":8525,"ê°ĢëĬ¥íķĺë©´":8526,"ìķĪê²½íħĮ":8527,"ĠëģĿëĤ¬ìĬµëĭĪëĭ¤":8528,"Ġê´ľì°®ìĿĦê±°":8529,"Ġì§ĳì¤ĳìĿ´":8530,"ìŀ¬ë¯¸ìŀĪê²Į":8531,"ìŀ¬ë¯¸ìŀĪëĤĺë´ĲìļĶ":8532,"ĠíĨ¡ìĿ´":8533,"ìĸ¼êµ´ìĿ´":8534,"ĠëĤĺëĪłë³´ëĬĶê²Į":8535,"íĳľíĺĦìĿ¼":8536,"ĠìĥĿê¸´ëĭ¤ëĬĶ":8537,"Ġì¤Ģëĭ¤ë©´":8538,"Ġì¹ĺë§¥":8539,"ìį¸íĥĢê³ł":8540,"ĠëĮĢíĻĶíķĺëĬĶ":8541,"Ġë¶Ģíĥģëĵľë¦½ëĭĪëĭ¤":8542,"Ġë³ĢíĻĶëıĦ":8543,"Ġë³ĢíĻĶìĭľì¼ľ":8544,"Ġë¶Īíİ¸íķĺê²łì£ł":8545,"Ġë¶Ģëĭ´ìĬ¤ëŁ¬ìĽĮíķłê¹Į":8546,"Ġì¼ĢìĿ´ìĬ¤":8547,"ĠëĴ¹êµ´":8548,"íķľê°Ģì§Ģë§Į":8549,"ĠìĿ´ê¸°ëĭĪ":8550,"Ġìĸ´íĶĮìĿĦ":8551,"Ġë¬´ëĦĪìł¸ìļĶ":8552,"ê´Ģê³ĦìĿĺ":8553,"Ġìĺ¤ë¹łê°Ģ":8554,"Ġë¯¸ìĽĮíķĺì§Ģ":8555,"ë´ĩìĿ´ìĹĲìļĶ":8556,"ĠìĦ¤ëłĺ":8557,"ĠìĦ¤ëłĪë":8558,"ì¢ħêµĲê°Ģ":8559,"ì¢ħêµĲìĿĺ":8560,"¦°ëĿ¼":8561,"ëĴ¤íĨµìĪĺ":8562,"Ġê½ī":8563,"ìķĦíĶĦì§Ģ":8564,"ìĭ±ìĪŃìĥĿìĪŃ":8565,"ëĿ¼ëįĶëĭĪ":8566,"Ġë°¤ìĹĲ":8567,"Ġë°Ģëł¤":8568,"Ġë°Ģìĸ´ë³´ìĦ¸ìļĶ":8569,"Ġì§Ģë£¨íķ´":8570,"ĠìĹĨìķłì£¼ìĦ¸ìļĶ":8571,"ê±°ìļ¸ìĿĦ":8572,"ë¶ĪëŁ¬":8573,"ë¶Īë©´ì¦Ŀ":8574,"ë¶Īë°ĸìĿĢ":8575,"Ġê±·ê³ł":8576,"Ġê±·ê¸¸":8577,"Ġê¸°ë³¸ìĿ´ì£ł":8578,"ĠìĻ¸ì¶ľ":8579,"Ġë²łíĴĢ":8580,"Ġë¬´ìĦŃëĤĺìļĶ":8581,"íĽĦëł¨íķĺëĭĪ":8582,"ë°Ķìģľê°Ģë´ĲìļĶ":8583,"ë°ĶìģľìĿ¼ìĿ´":8584,"Ġëħ¸ëĬĶ":8585,"Ġëħ¸íĽĦ":8586,"ìŀ¬ë°Įê²łìĸ´ìļĶ":8587,"ê·¸ëłĩì§Ģ":8588,"Ġë¬¼ìĸ´ë´ĲëıĦ":8589,"ëķħ":8590,"ëĭĪëŀĳ":8591,"ìĸ´ì©Į":8592,"ìķĦìĿ´ëıĮ":8593,"ìķĦìĿ´ìĬ¤íģ¬ë¦¼":8594,"ìķĦíĶĶìĿĦ":8595,"Ġíĳľìłķ":8596,"ë³ĳìĽĲê°ĢìĦ¸ìļĶ":8597,"íķĺìħ¨ìĸ´ìļĶ":8598,"íķĺìħ¨ê²łìĸ´ìļĶ":8599,"Ġê²łì§Ģë§Į":8600,"ë§ĮëĤ¨ìĹĲ":8601,"íĶ¼ê³¤íĸĪëĤĺë´ĲìļĶ":8602,"ë²ĦìĬ¤ê°Ģ":8603,"ĠìľĦë¡ľíķ´ëĵľë¦¬ëĬĶ":8604,"íĶ¼ë¶Ģê´Ģë¦¬":8605,"ìĿĺë¯¸ìŀĪëĬĶ":8606,"ìĿ´íķ´íķł":8607,"ê³¨íĶĦ":8608,"ê¹įì§Ģê°Ģ":8609,"ê¸°ê°ĦìĿĦ":8610,"Ġë³Ģëªħ":8611,"ĠìķĬìķĺê¸¸":8612,"ĠìŀĲìľłë¡ľ":8613,"ĠëıħìĿ´":8614,"Ġì¹Ńì°¬íķ´ì£¼ê³ł":8615,"ë¬´ìĹĩìĿ´ëĵł":8616,"Ġê²°ê³¼ê°Ģ":8617,"ĠëĮĢëĭ¨íķĺëĦ¤ìļĶ":8618,"ĠëĮĢëĭ¨íķĺìĭľêµ°ìļĶ":8619,"ì¡°ìĭ¬íŀĪ":8620,"Ġì²ĺë¦¬":8621,"ìĦłë¬¼ìĿĦ":8622,"Ġêµ°ëĮĢ":8623,"ì·¨ì§ģíķĺë©´":8624,"Ġê²°ìłķìĿ´ìĹĪìĿĦê±°ëĿ¼":8625,"ĠíĭĢë¦¬ëĬĶ":8626,"ĠíĭĢë¦°":8627,"Ġê²¬ëİĮëĤ´ê³ł":8628,"ìį¸ëħĢê°Ģ":8629,"ìĮĪ":8630,"ìķ¡ê²°":8631,"ê³łë§ĪìĽĢìĿĦ":8632,"Ġê°ĪëķĮ":8633,"ëıĦìłĦíķ´":8634,"Ġë³ĳìĭł":8635,"ê±°ì§ĵë§ĲìĿĢ":8636,"Ġìĺ¬ëł¤ë":8637,"ĠëĤĺìĿ´íħĮ":8638,"ĠëĤĺìĻĶëĦ¤":8639,"ĠëĤĺìĺ¬ê±°":8640,"ì¡¸ìĹħìĭĿìĹĲ":8641,"Ġì¡°ìłĪìĿĦ":8642,"Ġê°ĲìĤ¬íķĺëĬĶ":8643,"Ġê°ĲìĤ¬íķ©ëĭĪëĭ¤":8644,"ĠìľĦíĹĺíķ´":8645,"ìķĺëĭ¤ê³ł":8646,"ĠëĦ£ìĿĦ":8647,"Ġë¯¸ì¹ĺê²łìĸ´":8648,"ë°ĽìķĦëĵ¤ìĿ´":8649,"ĠëĪĦêµ¬ëıĦ":8650,"Ġë©Ģìĸ´ì§Ħ":8651,"Ġë©Ģìĸ´ì§Ģë©´":8652,"ìĥģì²ĺë°Ľì§Ģ":8653,"ĠëĿĦëĬĶ":8654,"ĠëĽ°ìĸ´ëĦ":8655,"ĠìĿ´ë¦ĦìĿ´":8656,"ĠìĿ´ë¦ĦìĿ´ëŀĳ":8657,"Ġê·¼ì²ĺë¡ľ":8658,"Ġìĸ´ìłľìĻĢ":8659,"Ġìĭľê¸°ëĦ¤ìļĶ":8660,"ĠìŀĺìĥĿê²¼":8661,"ìĭ¬íĺ¸íĿ¡íķ´ë³´ìĦ¸ìļĶ":8662,"ĠëĤ¨ê²¨ìĦľ":8663,"ĠëĨĶëĳ¬":8664,"Ġì¶¥ëĦ¤":8665,"Ġê¹İìķĦ":8666,"íĿ¥ë¯¸ë¥¼":8667,"ĠíĮĲëĭ¨ëĲĺë©´":8668,"ìĸ¼ë§ĪëĤĺ":8669,"Ġë©Īì¶Ķì§Ģ":8670,"Ġë©Īì¶ĶìĦ¸ìļĶ":8671,"Ġë°ĽìķĦëĵ¤ìĹ¬ìķ¼":8672,"ëĦĪëįľ":8673,"Ġì»¨":8674,"ì§ĢëĤĺê°Ħ":8675,"ĠíĽĪ":8676,"Ġë§¡ê¸°ìĦ¸ìļĶ":8677,"Ġê²¨ìļ¸":8678,"ĠìķĦê»´ëĴĢ":8679,"ë©´ëıĦê¸°":8680,"Ġëª¨ìķĦìķ¼íķł":8681,"Ġì¶©ê²©":8682,"Ġì¡°ê¸īíķ´ì§Ģë©´":8683,"Ġëĭ¹íĻ©íĸĪê²łìĸ´ìļĶ":8684,"Ġë¹Ħë°ĢìĿĦ":8685,"ëĨĢìĿ´ëıĻìĤ°":8686,"Ġë¯¸ìķĪíķĺëĭ¤":8687,"Ġë¹łë¥´ë©´":8688,"ĠìĬ¬íį¼íķĺê³ł":8689,"ëĦĺìĸ´":8690,"ì¹Ńì°¬ìĿ´ëĦ¤ìļĶ":8691,"ĠíĪ¬ìŀĲ":8692,"ĠìĽĢì§ģìĿ´ìĦ¸ìļĶ":8693,"ëĬ¦ìĿĢ":8694,"Ġë§¤ëĦĪ":8695,"ê¸įìłķìłģìĿ¸":8696,"ĠìĥĿê²¨ìĦľ":8697,"ìĭłê³łíķĺìĦ¸ìļĶ":8698,"ìĤ¬ëŀĳíķłìĪĺë¡Ŀ":8699,"ĠìĦ¼ìĬ¤ìŀĪëĬĶ":8700,"ëĮĢíĻĶìĿĺ":8701,"Ġì£Ħê°Ģ":8702,"ìķĪíĥĢê¹Ŀê²Į":8703,"Ġíĺ¸ëŀĳìĿ´ë³´ëĭ¤":8704,"Ġìĺ¤ëŀ«ëıĻìķĪ":8705,"ĠíĿ¬ë§ĿìĿĢ":8706,"Ġë³´ê³łìĭ¶ëĦ¤":8707,"ĠìķĮìķĦì°¨ë¦¬ì§Ģ":8708,"ĠìķĮìķĦì°¨ëł¤ëıĦ":8709,"ë¡±ëĶĶ":8710,"ĠíĶ¼íķ´ë§Į":8711,"Ġê°ĦìłĪíķĺê²łëĦ¤ìļĶ":8712,"ì·¨ë¯¸ìĥĿíĻľ":8713,"Ġë§ĮëĤ¬ëĵł":8714,"ĠìĿ¼ìĸ´ëĤĺìĦ¸ìļĶ":8715,"Ġì¢ħêµĲê°Ģ":8716,"ìłĲìĭ¬ìĭľê°ĦìĹĲ":8717,"ë¿Įë¦°ëĮĢë¡ľ":8718,"Ġë¡ľë´ĩìĿ´ìĹĲìļĶ":8719,"Ġë¦¬íı¼":8720,"ĺë§ĮìĿĺ":8721,"ê²¬ëĶĶ":8722,"Ġíľĺë":8723,"ìĺĨìĹĲ":8724,"ìĺ¬ëł¤ëĭ¬ëĿ¼ê³ł":8725,"ë³´íĹĺì²ĺë¦¬":8726,"Ġë°±ìĹħ":8727,"ìķ¼ê²½ìĿ´":8728,"Ġëĭ®ìĿĢ":8729,"ĠìłĢëħģìĹĲ":8730,"ìĿ¸ëĤ´íķł":8731,"Ġê°Ģì¡±ìĿ´":8732,"ìĻķìĿ´ë©´":8733,"ĠëĤ¨ìķĺëĦ¤ìļĶ":8734,"ìĬ¤íĬ¸ëłĪì¹ŃìĿĦ":8735,"Ġì¡¸ìĹħíķĺëĬĶëį°":8736,"ĠìľĦíķ´ìĦľìĺĪìļĶ":8737,"êµĲìĸĳìĪĺìĹħ":8738,"íĤģíĤģ":8739,"ĠëĨĢìķĦì¤ĺ":8740,"ëĨįêµ¬":8741,"ìŀĬìĸ´ë²Ħë¦¬ìĦ¸ìļĶ":8742,"Ġíķ¨ê»ĺëıĦ":8743,"ë´īìĤ¬íĻľëıĻ":8744,"Ġì¹ĺê³¼ìĹĲ":8745,"Ġì¹ĺë£ĮíķĺìĦ¸ìļĶ":8746,"ìĦ¼íĦ°ìĹĲ":8747,"íĶĦë¡ľíı¬ì¦Īíķ´ë³´ìĦ¸ìļĶ":8748,"ëĴ·ê°Ĳëĭ¹":8749,"ê¼¬ë°ķê¼¬ë°ķ":8750,"Ġì«Į":8751,"Ġë©´ìĹŃìĿ´":8752,"Ġë¸Įëŀľ":8753,"Ġì¢ĭìľ¼ìĭľëĦ¤ìļĶ":8754,"Ġìĭ¬ìĸ´ë³¼ê¹Į":8755,"Ġì§łíķĺê³ł":8756,"Ģëĵľëł¤ë³´ìĦ¸ìļĶ":8757,"Ġë§Īìħ¨ëĬĶëį°":8758,"Ġê¸°ì¤ĢìĿ´":8759,"ë¬´ìĭľíķĺìĦ¸ìļĶ":8760,"ĠíķĺëĭĪê¹ĮìļĶ":8761,"ëĭ¹ìĹ°íķĺì£ł":8762,"ìĶ»ê³ł":8763,"Ġìī½ì§Ħ":8764,"ĠëĪĪëĨĴ":8765,"ë°Ķë¹łëıĦ":8766,"Ġìĺ¤ì§Ģëŀ":8767,"ëĳĲê·¼ê±°ë¦¬ê²łìĸ´ìļĶ":8768,"ìĤ´ìķĦìŀĪìĿĮ":8769,"ë¯¸ì¹ĺê²łìĬµëĭĪëĭ¤":8770,"Ġë²Ħíĭ°ê³ł":8771,"Ġìļ°ìĤ°ìĹĲ":8772,"ìĤ¶ìĿĺ":8773,"Ġë¶ĦìľĦê¸°ë¥¼":8774,"Ġìŀ¡ìķĦëıĦ":8775,"Ġê¹¨ëĭ«ëĭ¤ëĭĪ":8776,"ĠíĿĺëł¤ë³´ìĦ¸ìļĶ":8777,"Ġìļ©ìĦľíķĺê³ł":8778,"ê¹¨ëģĹíķĺê²Į":8779,"ĠëĴ·ëĭ´íĻĶ":8780,"ëĤŃë§ĮìłģìĿ¸":8781,"ĠëĳĲê·¼ê±°ë¦¼ìĿĦ":8782,"ł¸ëĤĺë´ĲìļĶ":8783,"Ġëļ«":8784,"íķ´ìĻ¸ìĹ¬íĸī":8785,"ĠìĹ¼ìĥī":8786,"ë³´ìĿ¼ëŁ¬ê°Ģ":8787,"ĠëĤ³ìĿĦë¿Ĳ":8788,"ìĬĪíį¼":8789,"ĠìķĦìĿ´ëıĮ":8790,"Ġì¢ĭìķĦíķĺìĭľëĬĶêµ¬ëĤĺ":8791,"ë²Ĺìĸ´ëĤĺëĬĶ":8792,"ìĤ¬ê³¼íķł":8793,"Ġìĸ´ëĸłìĦ¸ìļĶ":8794,"ìĬ¤íĦ°ëĶĶ":8795,"ë¯¸ëŀĺìĹĲ":8796,"ëıĻê°ĲìŀħëĭĪëĭ¤":8797,"ĠìķĪë°ĽìķĦ":8798,"ĠëĦĵìľ¼ìĭłê°Ģë´ĲìļĶ":8799,"íĻķìĿ¸íķ´ëĭ¬ëĿ¼ê³ł":8800,"Ġê¼¼ìĪĺë¥¼":8801,"ìķĮëľ°íı°":8802,"ì´Īë¡Ŀ":8803,"ë©Ķëª¨íķĺëĬĶ":8804,"ìĿĺë¯¸ë¶ĢìĹ¬":8805,"ìĬ¤íĥĢíĬ¸ìĹħìĹĲ":8806,"Ġì´Īê¸°íĻĶ":8807,"ì¸µê°ĦìĨĮìĿĮ":8808,"ĠìłĪìķ½ëĲĺê²łëĦ¤ìļĶ":8809,"Ġë¶ĢëĶªíĺĶëĤĺë´ĲìļĶ":8810,"ĠìĹĲëĦĪì§Ģë¥¼":8811,"ëĺ¥ì°¨":8812,"Ġìŀłìŀ¬ëł¥ìĿĦ":8813,"įĺëį°":8814,"ìļ¸ëłĽ":8815,"ìŀĩëª¸ìķ½":8816,"ìłĪëı¼ìĦľ":8817,"Ġë³ĳìĽĲìĹĲ":8818,"ĠìķĦìī¬ìĽĢìĿ´":8819,"ĠìķĦë¦Ħëĭµì£ł":8820,"Ġë³´ëĥĪëĦ¤":8821,"ĠìĻķëĶ°":8822,"ìĬ¤íħĮìĿ´íģ¬":8823,"Ġëĵ¤ìĿ´ëĮĢ":8824,"Ġëĵ¤ë¦¬ëł¤ê³ł":8825,"Ġë¹Ħíķĺíķĺì§ĢëĬĶ":8826,"ìĥĿê°ģíķľëĮĢë¡ľ":8827,"íİ¸ìĿĺìłĲ":8828,"íĥĲíķĺì§Ģ":8829,"ë¯¸ìļ©ìĭ¤":8830,"ëĨĢëŀĲëĤĺë´ĲìļĶ":8831,"íĿ¬ë§ĿìĿ´":8832,"ìĺģìĽĲíķľ":8833,"ĠíĮ¨íĦ´":8834,"ĠìĥĪë²½ìĹĲ":8835,"ìĹĦë§Īëŀĳ":8836,"Ġìļ©ê¸°ëĤ´ìĦľ":8837,"Ġê¾¹ê¾¹":8838,"Ġìĥģê´ĢìĹĨì§Ģë§Į":8839,"Ġíı¬ìŀ¥íķĺëĬĶê²Į":8840,"Ġëª©íĳľëĦ¤ìļĶ":8841,"ĠíĹ·ê°Īë¦¬ëĦ¤":8842,"Ġì½©ê¹įì§Ģê°Ģ":8843,"ĠìłģìĿĳíķ´ìķ¼ê²łëĦ¤ìļĶ":8844,"ì½©ê¹įì§Ģ":8845,"ì»´íĵ¨íĦ°ê°Ģ":8846,"ĠìķĦíĮłìľ¼ë©´":8847,"ASìĦ¼íĦ°ìĹĲ":8848,"¢ĮìłĪ":8849,"ë»ĳíķ´":8850,"ĮëĵľìľĦì¹ĺ":8851,"Ġë¦¬ëĵľ":8852,"Ġë»ĳë»ĳíķ´":8853,"ìĿ´ëł¥ìĦľ":8854,"ì§ĢìłĢë¶Ħíķ´ìļĶ":8855,"ëĭ¤ëĭĪë©´ìĦľ":8856,"íķľë¦¬íķĦ":8857,"íķľë²ĪëįĶ":8858,"íķľêµŃëıĦ":8859,"íķľë°ĶíĢ´ë§Į":8860,"ë§ĮíĻĶê°ĻìĿĢ":8861,"ìĿ¸íĦ°ëĦ·":8862,"ìĿ¸ë§¥ìĿ´":8863,"ê°ģì§Īìłľ":8864,"Ġë§ĪìĬ¤íģ¬":8865,"ìłķìłķê¸°ê°ĦìĿĦ":8866,"Ġë³´ëĵ¬ìĸ´":8867,"Ġë§ĲìĶĢëĵľëł¤ë³´ìĦ¸ìļĶ":8868,"ëĤ´ëł¤ëĨĵ":8869,"Ġê¸įìłķìłģìĿ¸":8870,"ĠìĹ¬ìŃ¤ë³´ìĦ¸ìļĶ":8871,"ìŀ¥íķĻê¸Ī":8872,"Ġë²ħì°°íħĲëĮĢìļĶ":8873,"ĠìĤ´ìªĦëıĦ":8874,"íı¬ë§·íķ´ë³´ìĦ¸ìļĶ":8875,"ĠëĮĢíĶ¼ë°©ë²ķìĿĦ":8876,"ĠìĿ¸ê³µì§ĢëĬ¥ìĹĲ":8877,"ëĭ¨ë§ĽëıĦ":8878,"ëĭ¨ì²´ìĥĿíĻľ":8879,"ìĹ°ëĿ½ëĳĲìłĪëı¼ìĦľ":8880,"Ġíķ´ìķ¼ê²łëĦ¤ìĹ¬":8881,"ĠìłĢë§Īëĭ¤ìĿĺ":8882,"íĺķíİ¸ëĮĢë¡ľ":8883,"ĠëıĻìĺģìĥģ":8884,"Ġì·¨ë¯¸ëĦ¤ìļĶ":8885,"Ġì±Ļê²¨ëĵľìĭľê±°ëĤĺ":8886,"Ġë§ĿìĦ¤ìĹ¬":8887,"Ġë§Ŀê°Ģëľ¨ë¦¬ê¸°":8888,"ê¸ĢìİĦìļĶ":8889,"ë©Ķëī´ìĸ¼":8890,"ëĶ°ëľ»íķ´ì¡Įì£ł":8891,"Ġë²łíĴĢê³ł":8892,"ĠëĨĶëĳ¬ìķ¼íķĺëĬĶëį°":8893,"ĠìķĦê»´ëĴĢëĤĺë´ĲìļĶ":8894,"ĠëĪĪëĨĴìĿ´ê°Ģ":8895,"ĠëĤ³ìĿĦë¿ĲìĿ´ìĹĲìļĶ":8896,";;":8897,"¡ë³":8898,"¤ì¸ł":8899,"¥ëĭ¤":8900,"«íķľ":8901,"«ìŀĲ":8902,"¬ëĭ¤":8903,"°±":8904,"±ìĿ´":8905,"³ĳ":8906,"³ìĿ´":8907,"¶ìĿ´":8908,"¶Ģë":8909,"¹´":8910,"¹Ī":8911,"¹Ľ":8912,"»´":8913,"¿ë¹Ľ":8914,"ê½":8915,"êº¼ë":8916,"ëĩ":8917,"ë½Ģ":8918,"ì¢ĮìłĪ":8919,"íĤ¬":8920,"íĮĢ":8921,"Ġ0":8922,"ĠSNS":8923,"ģ¼ë¦¬":8924,"ħ¸":8925,"ħìĹ¬":8926,"ħĢëŀĳ":8927,"ĨĪ":8928,"Ĩĵê³ł":8929,"ĩê°Īë":8930,"īíķĺëĬĶ":8931,"īìĤ¬íĻľëıĻ":8932,"ĭëĳĲ":8933,"ĭì§Ģê¸":8934,"ıħìĹ¬":8935,"ĳĺë":8936,"ĵ±":8937,"Ķĺ":8938,"ķëĬĶ":8939,"ķëĭĪëĭ¤":8940,"ĺíķ´":8941,"ĺíĥĪ":8942,"ľìĹĲ":8943,"ľë¡ľ":8944,"ŀĲìĸ´":8945,"Ġëĸ´":8946,"ĠëĴĢ":8947,"Ġë¸Ķ":8948,"ĠëĿ¼ëĬĶ":8949,"ìĿ¼ë¡ľ":8950,"íķŃ":8951,"Ġêº":8952,"Ġê»´":8953,"ìĿ´ë¦¬":8954,"ìĿ´ìĭł":8955,"ìĿ´ê²łëĦ¤ìļĶ":8956,"ìĿ´ìĤ¬ëŀĮ":8957,"ìĿ´ì§ĳ":8958,"ìĿ´ìģľ":8959,"ìĿ´ë©´ìĦľ":8960,"ìĿ´ê²łì§ĢìļĶ":8961,"ìĿ´ê¹ĢìĹĲ":8962,"ìĿ´íĶĮëĿ¼":8963,"ìĿ´ë¶Īë°ĸìĿĢ":8964,"ĺëĵ¤":8965,"ĺëĤĺ":8966,"ĺëĭĪê¹Į":8967,"ĺë©Ķ":8968,"ĺëĦĺ":8969,"ìķī":8970,"ìķĺëĬĶ":8971,"ì§±":8972,"ì§¼ëį°":8973,"ëĭ·":8974,"ìĸ´ëĤľ":8975,"ìĸ´ì§¸":8976,"ìĸ´ì§Ģê³ł":8977,"ìĸ´ìĥī":8978,"ìĸ´ìĿ´ê°Ģ":8979,"ìĸ´ì£¼ëĬĶ":8980,"ìĸ´ëłµ":8981,"ê²Ĳ":8982,"ìĹ¬ëĬĶ":8983,"ëĤ¼ê¹Į":8984,"ê³±":8985,"ì§Ģì§Ī":8986,"ì§Ģê²łì£ł":8987,"ì§ĢëĭĪê¹ĮìļĶ":8988,"ì§ĢëĤĺë´Ĳ":8989,"ì§Ģë¶Ģì§Ģ":8990,"ì§Ģìĺ¥":8991,"ì§Ģì³ĲìĦľ":8992,"ì§Ģì³¤ëĤĺë´ĲìļĶ":8993,"¬ë©´":8994,"¬ë¬¼":8995,"¬ë¯¸":8996,"íķ´ê²°":8997,"íķ´ì¤Ģ":8998,"ìŀĪëĦ¤":8999,"ìŀĪëĦ¤ìļĶ":9000,"ĠìŀħëĭĪëĭ¤":9001,"ìķĦëĤ´":9002,"ìķĦëĤł":9003,"ìķĦìĿ´ê³ł":9004,"ìķĦìī¬ìļ´":9005,"ìķĦëĨĶ":9006,"ê°ĢìĹĲ":9007,"ê°Ģíķľ":9008,"ê°Ģë³´ëĭ¤":9009,"ê°Ģê¸°ëıĦ":9010,"ê°ĢìĤ¬ê°Ģ":9011,"ìĦ¸íĥģ":9012,"ëĬĶëĭ¤":9013,"ëĬĶê±´":9014,"ëĬĶì§ĢëıĦ":9015,"ëĬĶëĭ¤ëĬĶ":9016,"ê³łìĿĺ":9017,"ê³łë§Ļ":9018,"ê³łìĸĳìĿ´":9019,"ê³łì¹ĺê¸°":9020,"ìł¸ë":9021,"Ġíį":9022,"ëĭ¤ëĦ¤":9023,"ëĭ¤ìłķ":9024,"ëĭ¤ìļ´":9025,"ëĭ¤ëĬĶê²Į":9026,"íķĺëįĶëĿ¼ê³łìļĶ":9027,"ê¸¸ëŀĺ":9028,"ìĭ¬ë¦¬":9029,"íķĺìĭł":9030,"íķĺê²łìĸ´":9031,"íķĺê²łì§Ģë§Į":9032,"íķĺíķĦ":9033,"ìĹĲìĿ´":9034,"Ġê°ģ":9035,"¸ëķĮ":9036,"ëıĦëĬĶ":9037,"ëıĦëĿ¼":9038,"ëıĦìĽĢìĿ´":9039,"ĠìĹī":9040,"ĠìĹĬ":9041,"ë³´ëĵľ":9042,"ë³´ëŁ¬":9043,"ë³´ìĿ´ëĤĺ":9044,"ë³´ëĤ¼":9045,"ë³´ëĥĪ":9046,"ë³´ìħĶìļĶ":9047,"ĠìŀĪëįĺ":9048,"ĠìŀĪìĿĮìĿĦ":9049,"ĠìŀĪëıĦë¡Ŀ":9050,"ê¹Ģë":9051,"ê¹ľë¹¡":9052,"íķľëĮĢ":9053,"íķľëĵ¯":9054,"íķľëĭ¬ë":9055,"íķľìĹĨìĿ´":9056,"Īëį°":9057,"Ġì¢ĭê²Į":9058,"Ġì¢ĭëĦ¤":9059,"Ġì¢ĭëĭ¤ê³ł":9060,"Ġì¢ĭê¸´":9061,"Ġì¢ĭìķĺìľ¼ë©´":9062,"Ġì¢ĭê²łìĬµëĭĪëĭ¤":9063,"Ġì¢ĭìľ¼ëĭĪ":9064,"Ġì¢ĭëįĶëĿ¼":9065,"ê¹ĮìķĦ":9066,"ìŀĲë§Į":9067,"ìŀĲëĬĶëį°":9068,"ìŀĲìŀ¥":9069,"ìŀĲëĿ¼ê³ł":9070,"ìŀĲëĭ¤ê°Ģ":9071,"ìŀĲë§ĪìŀĲ":9072,"ĠëĤ¸":9073,"Ġê±°ìĹĲ":9074,"Ġê±°ëıĦ":9075,"Ġê±°ë¶Ģ":9076,"Ġê±°ëĭĪê¹ĮìļĶ":9077,"Ġê±°ìĺĢ":9078,"Ġê±°ëĿ¼ëıĦ":9079,"Ġê±°ëĳĲìĦ¸ìļĶ":9080,"ĠìĿĺëıĦ":9081,"ê¸°ëĦ¤":9082,"ê¸°ìĺĪìļĶ":9083,"ê¸°ìļ´":9084,"ê¸°ìĤ¬":9085,"ê¸°ë¦Ħ":9086,"ê¸°ë§Įíģ¼":9087,"ê¸°ìĿ¸ê°Ģë´ħëĭĪëĭ¤":9088,"ê¸°ìļ´ìĿĦ":9089,"ê¸°ëĮĪ":9090,"¼ëĦ¤":9091,"¼ëĵ¤":9092,"¼ë¶Ģ":9093,"¼ëĸ¨":9094,"Ġê²¬":9095,"¡ľìŀ¡":9096,"ìĦľìļĶ":9097,"ìĦľëĬĶ":9098,"ìĦľìĦľ":9099,"ìĦľìļ¸":9100,"ìĦľíķĳ":9101,"ë¥µ":9102,"ìĺĪìĿĺ":9103,"ìĺĪìłĦ":9104,"ìĺĪìģĺë":9105,"ëĤĺì§Ģ":9106,"ëĤĺìĹĲê²Į":9107,"ëĤĺíĺ¼ìŀĲ":9108,"ëĤĺìĿ´ëĬĶ":9109,"ëĤĺìĺ¤ìĦ¸ìļĶ":9110,"ëį°ìĿ´":9111,"ìķ¼êµ¬":9112,"ìķ¼ê²łìĸ´":9113,"ìķ¼ê²łì£ł":9114,"ìķ¼ìĭĿ":9115,"íķłìĿ¸":9116,"íķłì¤Ħ":9117,"íķłëŀĺ":9118,"ĠìĤ¬ëŀĮìĿ¼":9119,"ĠìĤ¬ëŀĮë§ĮìĿĺ":9120,"ĠìĤ¬ëŀĮìĿ¼ì§ĢëıĦ":9121,"ëł´":9122,"ĠìĪ«ìŀĲ":9123,"ĠìĿ´ìģľ":9124,"ĠìĿ´ë¶Ī":9125,"ĠìĿ´íĭĢ":9126,"ĢëĲĺ":9127,"Ģëĵľë¦´ê²ĮìļĶ":9128,"ĢëįĶëĿ¼":9129,"Ġê°Ļìľ¼ë©´":9130,"Ġê°Ļëĭ¤ë©´":9131,"Ġë³¶":9132,"Ġìł¤":9133,"ĠìłĸìĿĢ":9134,"ìĿĮìķħ":9135,"ë§ĮëĤĺìĦľ":9136,"Ġíķ´ê°Ģ":9137,"Ġíķ´ë³´":9138,"Ġíķ´ëĭ¬ëĿ¼ê³ł":9139,"Ġíķ´ëĤ´ê³ł":9140,"Ġíķ´ì¤¬ìľ¼ë©´":9141,"ëĤĺëł¤":9142,"ëĤĺëĤĺë´ĲìļĶ":9143,"ëĤĺëĭ¤":9144,"ëĤĺëĵ¤ìĿ´":9145,"¤ëĳĲ":9146,"ìĿ¸ìĥģìĿ´":9147,"ìĿ¸ìĭłê³ł":9148,"ìĿ¸íĬ¸ê°Ģ":9149,"ìĿ¸ê³łìĿĺ":9150,"ĠìĥĿìĥĿ":9151,"ìĭľìĹĲ":9152,"ìĭľëĤĺìļĶ":9153,"ìĭľë°©":9154,"ìĭľíĤ¤ëĬĶ":9155,"ìĿĺìĻ¸":9156,"ĠìķĦëĭĪëĭ¤":9157,"ĠìķĦëł¤":9158,"ĠìķĦëŀĺ":9159,"ĠìķĦë¹ł":9160,"ĠìķĦëĥĲ":9161,"ĠìķĦëģ¼":9162,"ĠìĹĨìĹĪ":9163,"ĠìĹĨìĬµëĭĪëĭ¤":9164,"ĠìĹĨëĭ¤ëĬĶ":9165,"ĠìĹĨëĮĢìļĶ":9166,"ĠìĹĨìľ¼ë©´ìĦľ":9167,"ĠìĹĨìķ¨":9168,"Ġê·¹":9169,"ê±°ëĵł":9170,"ê±°ëŀĺ":9171,"ê±°ë¦¬ê°Ģ":9172,"Ġì¢ĭìķĦìł¸":9173,"Ġì¢ĭìķĦì¡Įìĸ´":9174,"Ġì¢ĭìķĦíĸĪëĤĺë´ĲìļĶ":9175,"Ġë§Īì¤ĳ":9176,"ìĿ¼ìĿ¼":9177,"ìĿ¼ì£¼":9178,"ìĿ¼ìĥģ":9179,"ìĿ¼ê³¼":9180,"ìĿ¼ê¸°ë¥¼":9181,"ìĿ¼ì£¼ìĿ¼":9182,"ìĿ¼ìļĶìĿ¼":9183,"ìĿ¼ìĸ´ëĤĺ":9184,"íĺ¹":9185,"Ġìĭ¶ëĤĺë´ĲìļĶ":9186,"Ġìĭ¶ì§Ģë§Į":9187,"êµ¬ìļĶ":9188,"êµ¬ìĨį":9189,"ìłķìŀ¥":9190,"ìłķìĹ´":9191,"ë¦¬ìĬ¤":9192,"ë¦¬ê²łìĸ´":9193,"ìĭłê¸°":9194,"ëĤ¨ìĿĦ":9195,"ëĤ¨ëħĢ":9196,"Ġê³±":9197,"Ġê³¤ëĳĲ":9198,"ì°¬ë¬¼":9199,"Ġê²ĥìĹĲ":9200,"Ġê²ĥìĿ¼ê¹Į":9201,"Ġê²ĥë§Įìľ¼ë¡ľ":9202,"Ġìĸ´ìĿ´":9203,"Ġìĸ´ìĦľ":9204,"Ġìĸ´ìŀ¥":9205,"Ġìĸ´ìĸ¸":9206,"Ġìĸ´ë¦¬ìĦĿ":9207,"ìłľìĬµ":9208,"ì£¼ìĹĲ":9209,"ì£¼ìĿ¸":9210,"ì£¼íĸī":9211,"Ġìĺ¥":9212,"Ġìĺ¬ë¦¬":9213,"ĠìĥĿê°ģíķĺ":9214,"ĠìĥĿê°ģíķľ":9215,"ĠìĥĿê°ģíĸĪëįĺ":9216,"ĠìĥĿê°ģìĿ¼ê¹Į":9217,"ĠìĥĿê°ģíķĺë©´ìĦľ":9218,"ĠìĥĿê°ģíķĺëĤĺë´ĲìļĶ":9219,"ëŀĻ":9220,"ëŀįëĭĪëĭ¤":9221,"ĠìķĬê¸°":9222,"ĠìķĬìĬµëĭĪëĭ¤":9223,"ĠìķĬìľ¼ìħ¨":9224,"ĠìĪĺìĹħ":9225,"íĻĢ":9226,"íĻĺìĿ´":9227,"ê°ĦëĮĢ":9228,"ê°Ħì§Ī":9229,"ê°ĦìłĪ":9230,"ê°ĦìłĪíķľ":9231,"Ġë§Įíķľ":9232,"Ġë³´ìĿ´":9233,"Ġë³´ëĬĶëį°":9234,"Ġë³´ìŀĦ":9235,"Ġë³´ìķ½":9236,"Ġë³´ëĭĪê¹Į":9237,"Ġë³´ìĿ´ëĦ¤":9238,"Ġë³´ìĭľë©´":9239,"Ġë³´ìĹ¬ëĵľ":9240,"Ġë³´ìĿ¸ëĭ¤":9241,"Ġë§ĲìŀĲ":9242,"Ġë§Ĳë§Į":9243,"Ġë§Ĳë¡ľ":9244,"Ġë§Ĳíķĺë©´":9245,"Ġë§Ĳê³¼":9246,"Ġë§Ĳíķłê¹Į":9247,"Ġë§ĲìĿ´ì£ł":9248,"Ġë§ĲìķĦìķ¼":9249,"Ġê°ĢìŀĲ":9250,"Ġê°Ģìĭľ":9251,"Ġê°ĢëĤĺë´ĲìļĶ":9252,"Ġê°Ģê±°ëĤĺ":9253,"Ġê°Ģë³¸":9254,"Ġê°Ģìŀħ":9255,"Ġê°ĢìĤ¬ê°Ģ":9256,"Ġê°Ģì¹ĺê°Ģ":9257,"Ġëĭ¤ê°Ķìĸ´":9258,"ë§ĪíĬ¸":9259,"ë§Īì¹¨íĳľ":9260,"ĠìĹ°ìĿ¸ìĿ´":9261,"ĠìĹ°ìĨįìĿ´":9262,"ìĤ¬ëŀĳëıĦ":9263,"ìĤ¬ëŀĳíķĺê³ł":9264,"ìĤ¬ëŀĳíķĺì§Ģ":9265,"ìĤ¬ëŀĳë³´ëĭ¤":9266,"ìĤ¬ëŀĳíķĺê¸°":9267,"ìĤ¬ëŀĳìĿ¸ì§Ģ":9268,"ìĤ¬ëŀĳìĬ¤ëŁ¬ìļ´":9269,"ìĤ¬ëŀĳìĹĲëıĦ":9270,"ìĤ¬ëŀĳíķĺëĭĪê¹Į":9271,"ëĤ´ë³´ìĦ¸ìļĶ":9272,"ëĤ´ëħĦ":9273,"ëĤ´ëĬĶê²Į":9274,"Ġì¤¬ìľ¼ë©´":9275,"ĠìķĪíķľ":9276,"ĠìķĪíķĺë©´":9277,"ĠìķĪì¢ĭìķĦíķĺëĬĶ":9278,"ĠìķĪìĺ¤":9279,"ĠìķĪíķ´ì¤ĺ":9280,"ĠìķĪë³´ìĹ¬":9281,"ĠìķĪíĴĢ":9282,"ĵľë¦¬ëŁ¬":9283,"ì¢ĭê²Į":9284,"ì¢ĭê²łìĸ´ìļĶ":9285,"ì¢ĭìķĺ":9286,"ì¢ĭìķĺëįĺ":9287,"ì¤ĺëıĦ":9288,"ĠëĤĺê²Į":9289,"ĠëĤĺê²łìĸ´ìļĶ":9290,"ĠëĤĺê°ĢëĬĶ":9291,"ĠëĤĺìķ½":9292,"ĠëĤĺê°Īê¹Į":9293,"ĠëĤĺìĹĲê²ĮëıĦ":9294,"Ġë§İê²łì§Ģ":9295,"Ġë§İì§Ģë§Į":9296,"ëł¤ëĤĺ":9297,"ëł¤ì¤ĺ":9298,"ë¡ľìħĺ":9299,"ìĥģìĿ¼":9300,"ìĥģê´Ģ":9301,"ìĥģì¢ħ":9302,"ëĬĶëį°ëĬĶ":9303,"ìĹ¬ì£¼":9304,"ìĹ¬ìľł":9305,"ìĹ¬ìľłê°Ģ":9306,"ìĹ¬ìłĦíŀĪ":9307,"ìĹ¬ì£¼ê³ł":9308,"ì¡ĭ":9309,"Ġì°¼ìĸ´":9310,"Ġë°Ķëĭ¤":9311,"Ġë°Ķê¾":9312,"Ġë°ĶëĿ¼ë":9313,"Ġë°Ķëĭ¥":9314,"Ġë°Ķìģĺë©´":9315,"ëĵ¤ê³ł":9316,"ëĵ¤ìĸ´ìĦľ":9317,"ëĵ¤ìĸ´ëĵľë¦´ê²ĮìļĶ":9318,"ì§Ħìĭ¬":9319,"ì§ĦíĨµ":9320,"ê·¸ëħ":9321,"ê·¸ëķĮ":9322,"ê·¸ë¥¼":9323,"ê·¸ëŀ¨":9324,"Ġìĭľëģ":9325,"Ġìĭľìĸ´ë¨¸":9326,"Ġìĭľê³¨":9327,"ìĹĪì§Ģ":9328,"ìĹĪëĬĶ":9329,"ìĹĪëĭĪ":9330,"ìĹĪëĤĺ":9331,"ìĹĪì§Ģë§Į":9332,"Ġê·¸ëŁ¬ëĬĶ":9333,"Ġê·¸ë¦°ëĿ¼":9334,"ĠëĦĪë¬´ëĤĺëıĦ":9335,"ĠìŀĲìļĶ":9336,"ĠìŀĲìĦ¸":9337,"ĠìŀĲëıĻ":9338,"ĠìŀĲë¦¬ë":9339,"ĠìŀĲë¦¬ê°Ģ":9340,"ĠìŀĲìľłë¥¼":9341,"íĶĪëį°":9342,"ìķłë¥¼":9343,"ìķłëĵ¤":9344,"ìķłêµĲ":9345,"ìķłìĻĦ":9346,"ĠìĤ¬ëŀĳíķĺìĦ¸ìļĶ":9347,"ĠìĤ¬ëŀĳíķ´ìļĶ":9348,"ĠìĤ¬ëŀĳíĸĪìĸ´":9349,"ĠìĤ¬ëŀĳíķĺê¸°":9350,"ĠìĤ¬ëŀĳìĿ´ëĿ¼ê³ł":9351,"ĠìĤ¬ëŀĳíķ´ì¤Ħ":9352,"ĠìĤ¬ëŀĳìĿ´ìĹĪëĤĺë´ĲìļĶ":9353,"ĠëįĶìĿ´ìĥģ":9354,"ĠìĦ¬ìľłìľłìĹ°ìłľ":9355,"ìļ´ëį°":9356,"ìĽĮìķ¼":9357,"ìĽĮìĭľ":9358,"Ġìŀĺíķĺê²Į":9359,"Ġìŀĺíķłê¹Į":9360,"ĠìŀĺíķĺëĭĪ":9361,"Ġê¸°ëĦ¤":9362,"Ġê¸°ìĪł":9363,"Ġê¸°ìģ¨":9364,"ê±·":9365,"Ġëıĭ":9366,"ĠìĹ¬ìľł":9367,"ìĭ¬ëĤľ":9368,"ë§Ĳíķĺì§Ģ":9369,"ë§ĲíĪ¬ê°Ģ":9370,"ëıĭ":9371,"ìłĢê¸°":9372,"ìłĢë§Į":9373,"ìłĢíŀĪ":9374,"Ġì§Ģì§Ģ":9375,"Ġì§Ģìłģ":9376,"Ġì§ĢìĪĺ":9377,"Ġì§ĢëĤł":9378,"Ġì§ĢìĽĮì§Ī":9379,"Ġì§Ģì³¤ìĸ´":9380,"Ġì§Ģìĺ¥":9381,"Ġì§ĢëĤ¬ëĬĶëį°":9382,"íĸĪëĭ¤ëĬĶ":9383,"íĸĪëĤĺìļĶ":9384,"íĸĪìľ¼ëĭĪê¹ĮìļĶ":9385,"íĻĶíķĻ":9386,"íĻĶìĿ´íĬ¸ëį°":9387,"ê¸¸ê²Į":9388,"ĠìĹ°ëĿ½ì²ĺ":9389,"ĠìĹ°ëĿ½íĸĪëĬĶëį°":9390,"ĠìĹ°ëĿ½ìĺ¤ëĦ¤":9391,"ĠìĹ°ëĿ½íĸĪìĬµëĭĪëĭ¤":9392,"ìĥĿìĿ¼":9393,"Ġê´ĳ":9394,"ìłĦë¶Ģ":9395,"ìłĦíķĻ":9396,"ìłĦíĻĶë¥¼":9397,"ìłĦëĤ¨ì¹ľìĿ´":9398,"íŀĪëĤĺ":9399,"ĠìĻĦ":9400,"ĠëĤ¨ëĬĶê²Į":9401,"ĠëĤ¨ê¸°ëĬĶ":9402,"ìĤ¬ìłĦ":9403,"ìĤ¬ìĭ¤":9404,"ìĤ¬ìłķìĿ´":9405,"ĠìĤ¬íļĮ":9406,"ĠìĤ¬ê²¼ìĸ´":9407,"ĠìĤ¬íĥķ":9408,"ëª¬":9409,"ĠìĤ¬ëŀĮìĿ´ìĹĪëĤĺë´ĲìļĶ":9410,"Ġíŀĺëĵ¤ê¹Į":9411,"Ġíŀĺëĵ¤ê²łì£ł":9412,"Ġíŀĺëĵ¤ì§Ģë§Į":9413,"Ġíŀĺëĵ¤ê±°ëĿ¼":9414,"ĠëķĮìĿ¸":9415,"ĠëķĮë¡ľ":9416,"ĠëķĮë§Īëĭ¤":9417,"ĠëķĮë¦¬ê¸°":9418,"ìĿ´ë³Ħíķł":9419,"ìĿ´ë³Ħíķĺê³ł":9420,"ĠìķĮê¸´":9421,"ĠìķĮìķĺë":9422,"ĠìķĮëł¤ë©´":9423,"ë¥´ëĭĪê¹ĮìļĶ":9424,"íĺ¼ì£¼":9425,"íĺ¼ìĿ¸ìĭłê³ł":9426,"Ġë§ĪìĿĮìĹĲìĦľ":9427,"Ġë§ĪìĿĮìĿ´ìĹĲìļĶ":9428,"Ġë§ĪìĿĮê³¼":9429,"Ġë§ĪìĿĮìĿ´ëĦ¤ìļĶ":9430,"Ġë§ĪìĿĮìĿ¸ì§Ģ":9431,"ĠíĸĪëĦ¤ìļĶ":9432,"ĠíĸĪëįĶëĭĪ":9433,"Ġì¹¼":9434,"ĠëĤ´ë¦´":9435,"ĠëĤ´ë¦¬ëĬĶ":9436,"ĠëĤ´ëĶ":9437,"ĠëĤ´ë¦¬ì§Ģ":9438,"ĠëĤ´ìĿ¼ìĿ´":9439,"ĠëĤ´ë²Ħëł¤":9440,"ìĬ¤ë¥¼":9441,"ìĬ¤ëłĪ":9442,"ìĬ¤íĥĢë":9443,"ë¯¼ë":9444,"ë¯¸ë¡ľ":9445,"ìłģìĿ¼":9446,"ìłģëĭ¹":9447,"ìłģìĿ¸ëį°":9448,"ìłģìĸ´ëıĦ":9449,"ì¢ĭìķĦíķĺëĤĺë´ĲìļĶ":9450,"ì¢ĭìķĦíķĺëĭĪê¹Į":9451,"ì¢ĭìķĦíĸĪì§Ģë§Į":9452,"ìĺ¤ë¹ł":9453,"ĠìłķìĿ´":9454,"Ġìłķíķĺê³ł":9455,"Ġëª¨ìĹ¬":9456,"ëĮĢìļ°":9457,"ëĮĢíĻĶê°Ģ":9458,"Ġëª»ìŀĲ":9459,"Ġëª»ëĤľ":9460,"Ġëª»íķłê¹Į":9461,"Ġëª»íķĺëĬĶëį°":9462,"Ġëª»ìŀĬëĬĶ":9463,"Ġê³łìŀ¥":9464,"Ġê³łë¥´ëĬĶ":9465,"Ġê³łì¹ĺê³ł":9466,"Ġê³łë¯¼ë":9467,"ë§ĪìĿĮìľ¼ë¡ľ":9468,"ë§ĪìĿĮìĹĲê²Į":9469,"ë§ĪìĿĮëĮĢë¡ľ":9470,"íļĮë³µ":9471,"Ġë¨¹ê¸°":9472,"Ġë¨¹ëĤĺ":9473,"Ġë¨¹ë¨¹":9474,"Ġë¨¹ê¸°ë¡ľ":9475,"Ġë¨¹ìľ¼ëŁ¬":9476,"ìļ°ìĦ¸ìļĶ":9477,"ìļ°ê¸°":9478,"ìļ°ìĹ°":9479,"ìļ°ë¦¬ë":9480,"Ġê±´ëį°":9481,"Ġê±´ê°Ģë´ĲìļĶ":9482,"Ġê±´ëĵ¤ì§Ģ":9483,"ìį¸ìĿĦ":9484,"ìį¸ë§Į":9485,"ìį¸ìĿĺ":9486,"ìį¸ìĿ¸ê°Ģ":9487,"ìį¸ìĿ´ìĹĪìľ¼ë©´":9488,"¦¬ì§Ģ":9489,"¦¬ê³ł":9490,"Ġìĭľê°ĦìĿ´ìĹĲìļĶ":9491,"Ġìĭľê°ĦìĿ¸ëį°":9492,"Ġìĭľê°ĦëĤŃ":9493,"ĠëĲłì§Ģ":9494,"Ġë°ĽëĦ¤":9495,"Ġë°ĽìĿĮ":9496,"Ġë°Ľìķĺëįĺ":9497,"Ġë°Ľìľ¼ìħ¨":9498,"íĹ¤ìĸ´ì§ĢëĬĶ":9499,"ĠìĨĶ":9500,"ë¬´ìĦľ":9501,"ë¬´ëİĮ":9502,"ê´ĳ":9503,"ê´Ģë¬¸":9504,"Ġíķĺëł¤":9505,"Ġíķĺëł¤ë©´":9506,"ìŀĺì§ĢëĤ´":9507,"ìŀĺíķĺìħ¨ìĸ´ìļĶ":9508,"ë¶Ģë¥´":9509,"ë¶Ģì¼Ģ":9510,"Ġë²ļê½ĥ":9511,"Ġë²¤ì¸ł":9512,"ĠìĤ´ì£ł":9513,"ĠìĤ´ìķĺëĬĶëį°":9514,"ĠìĤ´ê±°ìķ¼":9515,"Ġíķľëį°":9516,"ĠíķľìĪ¨":9517,"ĠíķľìĪľê°Ħ":9518,"Ġíķľì¼ł":9519,"Ġì¡¸":9520,"Ġì¡¸ëĿ¼":9521,"ëĭ¹ìĿ´":9522,"ëĭ¹íķĺëĬĶ":9523,"ëĭ¹íĸĪìĸ´":9524,"ëĭ¹ëĭ¹íŀĪ":9525,"ëĭ¹ìĹ°íŀĪ":9526,"ĳĲìĦ¸ìļĶ":9527,"ìķĪíķł":9528,"ê³¼ìĿĺ":9529,"ê³¼ìłķìĿ´":9530,"ĠëĲĺê²łì£ł":9531,"ĠëĲĺìĭľê¸¸":9532,"Ġë°ĶëŀĦ":9533,"Ġë°ĶëŀĢëĭ¤ë©´":9534,"Ġíķłê²Į":9535,"Ġíķłê²ĮìļĶ":9536,"Ġíķłì¤Ħ":9537,"ĠíķłìĪĺë¡Ŀ":9538,"êµ¬ëĬĶ":9539,"êµ¬ë¡ľ":9540,"êµ¬ë¶Ħ":9541,"ê±´ëĵ¤ìĿ´":9542,"Ġì¢ĭìĿĦì§ĢëıĦ":9543,"Ġëĵ¤ê²Į":9544,"Ġëĵ¤ìĸ´ìļĶ":9545,"Ġëĵ¤íħĲëį°":9546,"Ġëĵ¤ëł¤ì£¼ìĦ¸ìļĶ":9547,"Ġëĵ¤ìľ¼ë©°":9548,"ìŀĪëĬĶëį°":9549,"ìŀĪìĸ´ëıĦ":9550,"ê·¸ê°Ģ":9551,"ê·¸ìĤ¬ëŀĮ":9552,"ê·¸ìª½":9553,"ĠëĨĢë":9554,"ĠìĦłë°°":9555,"ĠìĦłìĥĿëĭ":9556,"ĠìĦłë°°ê°Ģ":9557,"Ġë¬´ê¸°ëł¥":9558,"Ġë¬´ìĿĺìĭĿ":9559,"Ġë¬´ì¡°ê±´":9560,"ìĭ¤ìĹĲ":9561,"ë¥¸ëĭ¤":9562,"ìĻĢëıĦ":9563,"ìĻĢíĶĮ":9564,"ĠëŃĲíķ´":9565,"ĠëŃĲëĿ¼ëıĦ":9566,"ĠìĥģìĤ¬":9567,"ĠìĥģìŀĲë¥¼":9568,"ì§Īê°Ħì§Ī":9569,"ĠíķĺëĬĶê±°":9570,"ë¦¬ëĿ¼ê³ł":9571,"Ł°ì§Ģ":9572,"ìĶģìĵ¸":9573,"ìĨĮë¦¬ê°Ģ":9574,"ìĨĮíĻĶê°Ģ":9575,"ìĨĮì§ĵ":9576,"ìĨĮìķ¡ê²°":9577,"Ġì¢ĭìĿĢì§Ģ":9578,"ĠìĿ´ë³ĦíķĺëĬĶ":9579,"ĠìĿ´ë³ĦìĿ´ìĹĲìļĶ":9580,"ĠìĿ´ë³ĦìĿ´ëĵł":9581,"ìĪĺìłľ":9582,"ìĪĺì²ľ":9583,"ìĪĺíķĻìĹ¬íĸī":9584,"ìĽĲì¹ĺ":9585,"ĠìłĦìľ¼ë¡ľ":9586,"ĠìłĦê³µ":9587,"ĠìłĦê¹Įì§Ģ":9588,"ĠìłĦìĹĲëĬĶ":9589,"ĠìłĦëĤ¨ì¹ľìĿ´":9590,"ĠëģĿìĿĺ":9591,"ĠëģĿëĤĺëıĦ":9592,"Ġë¯¼":9593,"Ġëĵľëł¤":9594,"ìľ¼ìľ¼":9595,"ëĤłìĿ¸ëį°":9596,"Ġìĸ½":9597,"ĠíĹ¤ìĸ´ì§ĢëĬĶ":9598,"Ġê±¸ìļĶ":9599,"Ġê±¸ìĹĪìĸ´":9600,"ê°ĻëĦ¤ìļĶ":9601,"ì¦Īë¥¼":9602,"ìĥĪë":9603,"Ġì£¼ìĽĮ":9604,"Ġì£¼ê¸¸":9605,"Ġì£¼ìłľë¥¼":9606,"Ġì£¼ìĿ¸ê³µ":9607,"ĠëĤĺë¦Ħ":9608,"ĠëĤĺëĭĪê¹Į":9609,"ĠëĤĺë¹´":9610,"ĠìĹ¬ìŀĲë¡ľ":9611,"ĠìĹ¬ìŀĲëĵ¤":9612,"ĠìĹ¬ìŀĲìĹĲê²Į":9613,"ìĬ¤ëħ¸":9614,"ĠíķĦìļĶê°Ģ":9615,"ĠíķĦìļĶëıĦ":9616,"ĠíķĦìļĶíķĺëĭ¤ë©´":9617,"ĠíķĦìļĶíĸĪìĿĦ":9618,"ëĤľëĭ¤ë©´":9619,"ëĤľëĭ¤ê³ł":9620,"Ġê·¸ì§Ģ":9621,"Ġê·¸ìĹĲê²Į":9622,"ĮĢëŀĺìļĶ":9623,"Ġìĭ¶ëĭ¤ë©´":9624,"ì¤ĳìĿ¸ëį°":9625,"ì¤ĳë¬¸":9626,"ì¤ĳêµŃ":9627,"ìĨįìĥģ":9628,"ĠëĤ¨ìŀĲëıĦ":9629,"ĠëĤ¨ìŀĲìĿĺ":9630,"ĠëĤ¨ìŀĲì¹ľêµ¬ë¥¼":9631,"ë¬¼ê°Ģê°Ģ":9632,"Ġê´ľì°®ì§Ģ":9633,"Ġê´ľì°®ëĭ¤":9634,"Ġê´ľì°®ê¸¸":9635,"Ġê´ľì°®ìĬµëĭĪëĭ¤":9636,"Ġëı¼ì§Ģ":9637,"Ġëı¼ìĦľ":9638,"ê³µë³µ":9639,"ê³µíĻ©":9640,"ê³µíľ´":9641,"ìł¸ë³´ìĦ¸ìļĶ":9642,"ĠìĹĨìĸ´ì¡Įìľ¼ë©´":9643,"Ġì¹ľêµ°":9644,"ĠëĮĢìĥģ":9645,"ĠëĮĢìļ°":9646,"ĠëĮĢëĭµ":9647,"ĠëĮĢíķĻ":9648,"ĠëĮĢíĻĶê°Ģ":9649,"ĠëĮĢìī¬":9650,"ìĿ´ìłľë¶ĢíĦ°":9651,"ìĺ¤ê²Į":9652,"ìĺ¤ë¥´ëĬĶ":9653,"ëħĦíķĺê³ł":9654,"ëħĦìłĦ":9655,"ëħĦë°ĺ":9656,"ëħĦëıĻìķĪ":9657,"ëħĦê°ĦìĿĺ":9658,"Ġëª¨ë¥´ê²łëĭ¤":9659,"Ġëª¨ë¥´ê²łì§Ģë§Į":9660,"ê´Ģìłģìľ¼ë¡ľ":9661,"ê¾¸ë¡ľ":9662,"ê²½ìĿ´":9663,"ê²½íĹĺ":9664,"ê²½ìŁģìĿ´":9665,"ĠìŀĬëĬĶê²Į":9666,"ìľłë¶ĢëħĢ":9667,"ĠëĪĮ":9668,"ìĭĿíķĺëĬĶ":9669,"ìĭĿìļķ":9670,"ëĭ¬íķł":9671,"ë°Ķìģĺë":9672,"ë°Ķëĭ¥":9673,"ë°ĶëĤĺëĤĺ":9674,"ë°Ķìģł":9675,"ë°Ķìģĺë©´":9676,"ê°ľìĿ¸ìĿĺ":9677,"Ġê°ĢëŁī":9678,"ì°¨ê²Į":9679,"ì°¨ë¡ľ":9680,"ì°¨ë³ĦìĿ´":9681,"ëĲĲ":9682,"ëĲ©ëĭĪëĭ¤":9683,"ëĦĪë¬´ëĦĪë¬´":9684,"Ġì°¾ìĿĢ":9685,"ì¡°ë³Ħ":9686,"ëįĶìĽĮìĦľ":9687,"ìĤ¬ëŀĮìĹĲ":9688,"ìĤ¬ëŀĮëĵ¤ìĿĢ":9689,"Ġë§ŀìĿ´":9690,"Ġë§ŀê²Į":9691,"Ġë§ŀëĤĺë´ĲìļĶ":9692,"Ġë§ŀì¶ľ":9693,"ĠìĿ¸ìĥģìĿ´":9694,"íĬ¸ì½Ķ":9695,"Ġë§ĮëĤĺìĭ¤":9696,"Ġë§ĮëĤĺìŀĲëĬĶ":9697,"íĹ·ê°Īë":9698,"ĠëĤłìĿ´ìĹĲìļĶ":9699,"Ġê°ĲëıĻ":9700,"Ġê°Ĳê°ģìĿ´":9701,"Ġë¬¼ì§ĪìĿ´":9702,"ì§ľìŀ¥ë©´":9703,"ĠíĸĪìĿĦ":9704,"ĠíĸĪëĤĺë´Ĳ":9705,"ĠíĸĪëĬĶì§Ģ":9706,"Ġìĭ«ìĿĢëį°":9707,"íĶĦìĤ¬":9708,"ì¹ĺê²Į":9709,"ì¹ĺíĤ¨":9710,"ĠìĹ°ìķłìĿ¸":9711,"ĠìĹ°ìķłìĿĺ":9712,"ĠìĹ°ìķłíķĺëĬĶëį°":9713,"Ġê´Ģì°°":9714,"Ġë°©ë¬¸":9715,"Ġë°©ìĭĿìĿ´":9716,"ĠìķĦëĭĪëĭĪ":9717,"ĠìķĦëĭĪê²łì§Ģ":9718,"ĠìķĦëĭĪìĹĪìĸ´":9719,"Ġìĺ¤ì£ł":9720,"Ġìĺ¤ë¥´ëĦ¤":9721,"Ġì¤ĳìļĶíķĺê²łì£ł":9722,"Ġì¤ĳìļĶíķĺëĭĪê¹ĮìļĶ":9723,"ìĦ±ìĿĦ":9724,"ìĦ±ìĹĲ":9725,"ìĦ±ìłģ":9726,"ìĦ±ìĪĻ":9727,"ëĭµìĿĢ":9728,"íķĻë²Į":9729,"íĥĢê¸°":9730,"Ġì§Ħìłķ":9731,"Ġì§Ħìĭ¤ë":9732,"Ġì§Ħìłķíķľ":9733,"Ġì°¨ìĿ¸":9734,"Ġì°¨ëĿ¼ë¦¬":9735,"Ġì°¨ìĺĢëĬĶëį°":9736,"ëĵľëĦ¤":9737,"Ġíķĺê²łì£ł":9738,"Ġíķĺê¸°ë¡ľ":9739,"Ġíķĺìĭľê³ł":9740,"Ġê¹°":9741,"Ġê¹į":9742,"ĠìĻľì¼Ģ":9743,"íŀĺëĵŃëĭĪëĭ¤":9744,"Ġëĭ¹ìŀ¥":9745,"Ġëĭ¹ëĭ¹":9746,"Ġëĭ¹ìĹ°íŀĪ":9747,"ë¹Ħìĺ¤ëĬĶ":9748,"ë¹ĦíĬ¸ì½Ķ":9749,"Ġì§ĿìĤ¬ëŀĳìĿ´":9750,"Ġì§ĿëħĢëŀĳ":9751,"ìŀĲìĭłìĿĢ":9752,"ìŀĲìĭłë§ĮìĿĺ":9753,"ĠëıĦìłĢíŀĪ":9754,"ì§ĿëĤ¨ìĿĢ":9755,"ì§ĿëĤ¨ìĹĲê²Į":9756,"Ġë¹Ħíķ´":9757,"Ġë¹Ħê°Ģ":9758,"Ġë¹Ħì¹ľ":9759,"Ġë¹Ħìłķìĥģ":9760,"Ġë¹ĦìĮĪ":9761,"ëĭ¨ëĳĺìĿ´":9762,"ëĭ¨ì¡°ìłĪ":9763,"Ġì°¾ìķĦê°Ķ":9764,"Ġì°¾ìķĦìĺ¤ëĦ¤":9765,"Ġìķłê¸°":9766,"ĠìķłìĿ¸":9767,"Ġìķłìłķ":9768,"Ġìķłë§¤":9769,"ĠìķłíĶĦíĦ°":9770,"Ġìĺ¤ëŀĺëĲľ":9771,"ê·¼íķĺì£ł":9772,"ê±¸ìĿ´":9773,"ĠëĬĲê¼Ī":9774,"ìĦłë°°":9775,"ìĦłìĿ´ìĹĪìĿĦ":9776,"ì§Ģê¸ĪìĿĺ":9777,"Ġë¶ĢìŀĲ":9778,"Ġë¶Ģì§Ī":9779,"Ġë¶Ģë¦¬ë©´":9780,"Ġë¶ĢìłķìłģìĿ¸":9781,"ì§ĳìķŀ":9782,"Ġëį°ëıĦ":9783,"ëģ¼ë¦¬":9784,"Ġì¤Ģë¹Ħíķł":9785,"Ġì¤Ģë¹ĦíķĺëĬĶëį°":9786,"Ġì¤Ģë¹ĦíķĺëĬĲëĿ¼":9787,"Ġì¤Ģë¹ĦëĲĺìĸ´ìķ¼":9788,"ì¹ľêµ¬ëĿ¼ë©´":9789,"ìĹ°ëĿ½íķĺëĬĶ":9790,"ë¬¸ìĿ´":9791,"ë¬¸ìĹĲ":9792,"Ġëħ¸ë":9793,"ĠíĿ¥":9794,"Ġíİ¸íķ´":9795,"Ġíİ¸íķĺê³ł":9796,"Ġíİ¸íķĺëĮĢ":9797,"Ġíİ¸íķĺëĭ¤ëĬĶ":9798,"ĠìŀĲìĭłìĹĲê²Į":9799,"Ġìłķë¦¬ìĹĲ":9800,"Ġìłķë¦¬íķĺê²Į":9801,"Ġìłķë¦¬íķĺê¸¸":9802,"Ġìłķë¦¬íķĺëł¤ê³ł":9803,"Ġìłķë¦¬íĸĪìĬµëĭĪëĭ¤":9804,"íķ´ìķ¼íķĺëĤĺ":9805,"Ġìłľë°ľ":9806,"ì¤ĺìĦľ":9807,"Ġë°©ë²ķìĿĢ":9808,"Ġë°©ë²ķëıĦ":9809,"Ġë°©ë²ķìĿ´ì£ł":9810,"ĠìĦłë¬¼íķ´ëıĦ":9811,"Ġìį¸ìĿ´":9812,"Ġìį¸ë§Į":9813,"Ġìį¸ìĿ¸":9814,"Ġì§ĳìķŀ":9815,"Ġëª°ëŀĲìĸ´":9816,"ëĭ¹ìĭłë§ĮìĿ´":9817,"ĠëĶ°ìł¸ë³´ìĦ¸ìļĶ":9818,"Ġê¸°ëĭ¤ë¦¬ê²Į":9819,"ëª¨ìŀĦ":9820,"ëª¨ì²ĺëŁ¼":9821,"ëª¨ìŀĲëĿ¼":9822,"íĨµìĿ´":9823,"íĨµê¸°íķľ":9824,"ìłĲìĿ´":9825,"ìļ©ìłģìĿ¸":9826,"ìļ©íĴĪ":9827,"ĠìľĦì¶ķ":9828,"ĠíĶ¼ë¶Ģ":9829,"ĠìĿ´ìķ¼ê¸°ëĬĶ":9830,"ĠìĿ´ìķ¼ê¸°íķł":9831,"ĠìĿ´ìķ¼ê¸°íķĺìĦ¸ìļĶ":9832,"ĠìĿ´ìķ¼ê¸°íķ´ìļĶ":9833,"ĠíĹ¹":9834,"ĠíĹĲ":9835,"Ġê³Ħìĭł":9836,"Ġê³Ħìķ½":9837,"Ġê³ĦìĤ°":9838,"Ġì°¸ìĿĦ":9839,"Ġì°¸ê²łìĸ´":9840,"Ġì¶Ķê°Ģ":9841,"Ġíĸīë³µíķĺë©´":9842,"Ġíĸīë³µíķ´ì§Ģ":9843,"Ġíĸīë³µíĸĪìľ¼ë©´":9844,"ĠíĥĢë©´":9845,"ì¼°":9846,"Ġíķĺì§ĢìļĶ":9847,"Ġíķĺì§Ģë§Ī":9848,"Ġì¤ĦëıĦ":9849,"Ġì¤ĦìĿ¼":9850,"ìĸ¸ìłľê°Ģ":9851,"íĶ¼íķ´ë¥¼":9852,"ë²ĪìĿĦ":9853,"ë²ĪìĿĺ":9854,"¯¸ê³ł":9855,"ë¹¼":9856,"Ġíķ´ìķ¼ê²łì£ł":9857,"Ġíķ´ìķ¼íķĺëĤĺ":9858,"ĠìĻĶëĤĺë´ħëĭĪëĭ¤":9859,"ì§ĿìĤ¬ëŀĳìĹĲìĦľ":9860,"ĠìĿ¼ìĿ´ëĭĪê¹ĮìļĶ":9861,"êµ°ìĿ¸":9862,"ìĽĶìļĶìĿ¼":9863,"Ġë³´ê³łë§Į":9864,"ĠìĭľìŀĳìĿĦ":9865,"ĠìĭľìŀĳíķĺëĬĶ":9866,"ìŀłìĿĢ":9867,"ĠëıĮëł¤":9868,"ĠëĲĺëĦ¤ìļĶ":9869,"Ġë§Įëĵ¤ì£ł":9870,"Ġë§Įëĵ¤ë©´":9871,"Ġë§Įëĵ¤ìĸ´ìĦľ":9872,"Ġë§Įëĵ¤ìĸ´ë´ĲìļĶ":9873,"ĠìĬ¤ì³Ĳ":9874,"ĠìĬ¤íĤ¤":9875,"ìŀ¡íķĺê²łìĸ´ìļĶ":9876,"ë³´ëĬĶê²ĥëıĦ":9877,"ĠìĺĪê³ł":9878,"ĠìĺĪìłķ":9879,"ĠìĺĪìłĦ":9880,"ĠìĺĪì¸":9881,"ĠìĺĪìĿĺë¥¼":9882,"ì¦ĿìĿĦ":9883,"íķĺëĭ¤ëĭĪ":9884,"Ġê³µìľł":9885,"Ġê³µíĨµ":9886,"Ġê³µê°ĲìĿ´":9887,"Ġê³łë¯¼ìĿĦ":9888,"Ġê³łë¯¼íķ´ë³´ìĦ¸ìļĶ":9889,"Ġê³łë¯¼ìĿ´ëĦ¤ìļĶ":9890,"íĮĮëıĦê°Ģ":9891,"íĤ¤ë©´":9892,"íİ¸ìĿ´":9893,"íİ¸ì§Ģ":9894,"íİ¸ìĹĲ":9895,"íİ¸ìľ¼ë¡ľ":9896,"íİ¸íķĺê²Į":9897,"íİ¸ìķĪ":9898,"íİ¸ì§ĢëıĦ":9899,"Ġìĭłì¤ĳ":9900,"Ġìĭłë°ľ":9901,"Ġìĭłë¢°":9902,"ë²Ħëł¤ìļĶ":9903,"Ġê³łë°±íķł":9904,"Ġê³łë°±íķĺê³ł":9905,"Ġê³łë°±íķĺìĦ¸ìļĶ":9906,"Ġê³łë°±íķ´ìķ¼":9907,"Ġê³łë°±íķłê¹ĮìļĶ":9908,"Ġê³łë°±ë°Ľìķĺìĸ´":9909,"Ġëĵ¤ìĸ´ë§ŀ":9910,"Ġëĵ¤ìĸ´ìĺ¤ë©´":9911,"ìŀĦê¸Ī":9912,"ìŀĦë§Ĳ":9913,"ê°ķìłľ":9914,"Ġêµ¬ë§":9915,"ë°°ëĭ¬":9916,"ë°°ë¶ĪëŁ¬":9917,"ìĸ´ëĸ¨":9918,"Ġëĸ¨ê³ł":9919,"Ġëĸ¨ìĸ´ëľ¨":9920,"Ġíŀĺëĵľìĭľê²łìĸ´ìļĶ":9921,"ìĹ°ìķłíķĺëĬĶ":9922,"ìĹ°ìķłìĿĺ":9923,"ìĹ°ìķłë¥¼":9924,"ìĹ°ìķłë¡ľ":9925,"ìĹ°ìķłíķłëķĮ":9926,"ìĹ°ìķłìĥģëĭ´":9927,"ìĹ°ìķłìĦ¸íı¬":9928,"ëĭ¤ëĬĶê±°":9929,"ëĭ¤ëĬĶê±¸":9930,"ëĭ¤ëĬĶê²ĥ":9931,"ìħ¨ìĸ´":9932,"ìħ¨ê²łìĸ´ìļĶ":9933,"ĠìķĮìķĦê°Ģ":9934,"ĠìķĮìķĦìķ¼":9935,"ê²°íĺ¼íķľì§Ģ":9936,"ìĤ´ëŀĳ":9937,"ìĤ´ëĭ¤ë³´ë©´":9938,"ìĻĶëĦ¤ìļĶ":9939,"ë¨¹ìľ¼ë©´ìĦľ":9940,"Ġì¡°ê¸ĪìĿ´ëĤĺë":9941,"ìĿ´ìĹĪëĬĶëį°":9942,"ìķĦë¬´ëłĩì§ĢëıĦ":9943,"íĻ©ëĭ¹":9944,"ìķĺëįĶëĭĪ":9945,"Ġë°°ìłķ":9946,"ëł¥ìĿĢ":9947,"ìĿ´íĬ¸ìĿ¼ê¹Į":9948,"Ġë³Ģíķĺê³ł":9949,"ĠëĨĢìŀĲ":9950,"ë©Ģ":9951,"íĴĭ":9952,"íĴĢìĿ´":9953,"Ġìĵ°ì§Ģ":9954,"Ġìĵ°ê²Į":9955,"Ġìĵ°ë©´":9956,"Ġìĵ°ë©´ìĦľ":9957,"ë§¤ìļ´":9958,"ë§¤ëĭ¬ë":9959,"ë³´ê³łìĭ¶ëĭ¤":9960,"ìĬ¤ëŁ¬ìĽł":9961,"ìī¬ìĸ´":9962,"ĠìĤ¬ë¡ľìŀ¡":9963,"ë¯¸íĮħ":9964,"ë¯¸ì¹ł":9965,"Ġì¹ľêµ¬ìĿĺ":9966,"Ġë²Ħë¦´":9967,"Ġë²Ħëł¸":9968,"íİĳ":9969,"íİĺìĿ´":9970,"íİĺë¶ģ":9971,"ìĪĺëĭ":9972,"ìĪĺë©´":9973,"ìĪĺë¡ľ":9974,"ìĪĺëĦ¤ìļĶ":9975,"ĠìłģìĿĦ":9976,"Ġìłģê²Į":9977,"ĠìłģìĿĢ":9978,"Ġê±±ìłķë§ĪìĦ¸ìļĶ":9979,"ì§ĿëħĢìĹĲê²Į":9980,"ìĿ´ë¤Ħ":9981,"¸ë¦¬ë":9982,"ĠìĤ¬ê·ĢìĦ¸ìļĶ":9983,"ĠìĤ¬ê·ĢëĬĶëį°":9984,"ĠìĤ¬ê·Ģê¸´":9985,"Ġìļ°ìĬµ":9986,"Ġìļ°ë¦¬ë":9987,"Ġìļ°ë¦¬ëĬĶ":9988,"ìĤ¬ë³ĳ":9989,"ĠìŀĺëĲĲ":9990,"ĠìŀĪìĹĪìĸ´ìļĶ":9991,"ĠìŀĪìĹĪëĤĺë´ħëĭĪëĭ¤":9992,"Ġê²°íĺ¼íķĺ":9993,"Ġê²°íĺ¼íķĺê¸°":9994,"Ġê²°íĺ¼ìłģëł¹":9995,"Ġê°ĲìłķìĹĲ":9996,"Ġê°ĲìłķëıĦ":9997,"Ġê°Ĳìłķê¸°":9998,"ìĺĢìĿĦê¹Į":9999,"ìĺĢëĬĶì§Ģ":10000,"ĠìĿ´ìĥģìĿĺ":10001,"ĠìĿ´ìĥģíķľê°Ģ":10002,"ĠíĶ¼íķĺê³ł":10003,"ĠíĶ¼íģ¬ëĭī":10004,"ë°©ìĹĲ":10005,"ë°©ê¸Ī":10006,"ë°©ìķĪ":10007,"ëĤ¨ìŀĲë¶Ħëĵ¤":10008,"ĠìŀłìĭĿ":10009,"Ġê·¸ëŁ´ë§Į":10010,"Ġê·¸ëŁ´ê¹ĮìļĶ":10011,"Ġê·¸ëŁ´ìĪĺëıĦ":10012,"ĠìĦľë¥ĺìĹĲìĦľ":10013,"Ġë¯¸ì¹ł":10014,"Ġë¯¸ìĦ¸ë¨¼":10015,"Ġë¯¸ìĨĮì§ĵ":10016,"Ġê´Ģìĭ¬ìĤ¬ìĹĲ":10017,"ëĦĪê°Ģ":10018,"ëĦĪíķľíħĮ":10019,"ëĦĪìĻĢ":10020,"ĠëĭµìĿ´":10021,"ĠëĭµìĿĦ":10022,"Ġëĭµìŀ¥ìĿĦ":10023,"ĠëĨĵì§Ģ":10024,"ĠëĨĵëĬĶ":10025,"ĠëĨĵì¹ĺì§Ģ":10026,"ëĭ¤ê°Ģê°ĢëĬĶ":10027,"ĠëĲĲìĬµëĭĪëĭ¤":10028,"ĠìĦ±ìłģ":10029,"¶Ģë¥¼":10030,"Ġ11":10031,"Ġ12":10032,"Ġëĵ¯íķľ":10033,"Ġê¿ĪìĿ´":10034,"ìĹ¬ëŁ¬":10035,"Ġê°ĦìĦŃ":10036,"Ġê°Ħì§Īê°Ħì§Ī":10037,"Ġë¯¿ê³ł":10038,"Ġë¯¿ìĿĮ":10039,"Ġë¯¿ìĹĪëĬĶëį°":10040,"Ġë¯¿ìĸ´ì£¼ìĦ¸ìļĶ":10041,"ĠìĨįì§Ģ":10042,"Ġíĺ¼ëĤ´":10043,"Ġìī¬ëĭ¤":10044,"ĠìłĢìŀ¥":10045,"ë°Ľìľ¼ë©´":10046,"Ġë¶Ħìĸĳ":10047,"Ġë¶ĦìĿ¸ê°Ģë´ĲìļĶ":10048,"ì¶ĶìĽĮ":10049,"Ġì¹ľêµ¬ëıĦ":10050,"ìĸĳìĿĦ":10051,"ĠëĬĲëĤĢëĭ¤ë©´":10052,"ëķĮë¥¼":10053,"Ġëĭ¹ìĭłìĹĲê²Į":10054,"Ġëĭ¹ìĭłìĿ´ëĦ¤ìļĶ":10055,"ëŃĲíķĺê³ł":10056,"ĠíĳľíĺĦíķĺìĦ¸ìļĶ":10057,"ĠíĳľíĺĦíķ´ì£¼ìĦ¸ìļĶ":10058,"Ġê¸°ìĸµìĿĢ":10059,"Ġê¸°ìĸµë§Į":10060,"ĠíĻĶëĤĺ":10061,"ĠíĻĶëĤľ":10062,"ĠíĻĶìĿ´íĬ¸ëį°":10063,"ë´¤ìĸ´":10064,"íĪŃ":10065,"íĪ¬ëĬĶ":10066,"ëĭ¬ëĿ¼ëĬĶ":10067,"ëĭ¬ëĿ¼ì§Ħê²Į":10068,"Ġë°ĺìĹĲ":10069,"Ġë°ĺìĹĲìĦľ":10070,"Ġë°ĺìĺģ":10071,"Ġë¶ĪíĥĢ":10072,"Ġë¶ĪìĪľ":10073,"Ġë¶Īê°ĢëĬ¥":10074,"Ġë¶Īíļ¨":10075,"ĠìĦłíĥĿíķł":10076,"ĠìĦłíĥĿìĿĺ":10077,"ĠìĦłíĥĿìľ¼ë¡ľ":10078,"íĿĳìĹŃ":10079,"ĠìĿ´íķ´ëĬĶ":10080,"ĠìĿ´íķ´ë¥¼":10081,"Ġìĺ¬ê²Į":10082,"ĠëķĮë¬¸ìĿ´ìĹĲìļĶ":10083,"ĠëķĮë¬¸ìĿ´ê²łì£ł":10084,"ëĪĪìĹĲìĦľ":10085,"ëĪĪêº¼":10086,"ëĪĪì¹ĺê°Ģ":10087,"íĭĪ":10088,"ìĺģìĸĳìłľ":10089,"Ġìĭ¶ìĿĢê²Į":10090,"Ġê°Ģê³łìĭ¶ëĭ¤":10091,"ĠëĪĦëĿ½":10092,"ĠëıĮìķĦìĻĢ":10093,"ĠëıĮìķĦê°ĢëĬĶ":10094,"ĠëıĮìķĦê°Ī":10095,"ĠëıĮìķĦìĺ¤ëĬĶ":10096,"ê°ĳìĬµëĭĪëĭ¤":10097,"ĠíĮģ":10098,"Ġìŀ¡ìķĺìĸ´":10099,"Ġìĭ¬ê²½":10100,"Ġìĭ¬ìŀ¥ìĿ´":10101,"Ġë³´ëĤ´ì§Ģ":10102,"Ġë³´ëĤ´ìĦ¸ìļĶ":10103,"Ġë³´ëĤ´ë³´ìĦ¸ìļĶ":10104,"ì²´ê°Ģ":10105,"ì²´ëł¥":10106,"ì²´ìľ¡ëĮĢíļĮ":10107,"ĠëŃĺê¹ĮìļĶ":10108,"ĠíĽĦíļĮëĬĶ":10109,"ĠíĽĦíļĮíķĺë©´":10110,"Ġíķĺë£¨ê°Ģ":10111,"Ġíķĺë£¨ëĬĶ":10112,"Ġíķĺë£¨ìĿ¼":10113,"íķĺëĤĺìļĶ":10114,"ìĭ¸ìĽĢ":10115,"ìĺ¬ê¹Į":10116,"Ġëĭ¤ê°Ģê°ĢëĬĶ":10117,"Ġìĸ´ëĶĶê°Ģ":10118,"Ġìĸ´ëĶĶê°Ģì§Ģ":10119,"Ġë²Īë§Į":10120,"ì·¨íĸ¥":10121,"Ġê²°ìłķíķĺëĬĶ":10122,"Ġê²°ìłķíķł":10123,"Ġê²°ìłķìĿ´ìĹĪ":10124,"Ġê³µë¶Ģíķłê¹Į":10125,"Ġê³µë¶Ģíķĺê¸°":10126,"Ġìĥī":10127,"Ġì·¨ìĨĮ":10128,"Ġì·¨íķ´ìĦľ":10129,"ë³ĢíĻĶ":10130,"ë³ĢíĻĶê°Ģ":10131,"ĠìķĦíĶĦì§Ģ":10132,"ĠìķĦíĶĦê¸°":10133,"ê·¸ëħĢëıĦ":10134,"ê·¸ëħĢìĹĲê²Į":10135,"ĠìŀħìĿĦê¹Į":10136,"Ġê¹¨ì§Ĳ":10137,"Ġê¹¨ì¡Įìĸ´":10138,"Ġìĸ¸ìłľê¹Įì§Ģ":10139,"Ġë´Ĳë³´ìĦ¸ìļĶ":10140,"Ġë´Ĳì£¼":10141,"Ġë´Ĳì£¼ìĦ¸ìļĶ":10142,"Ġë´Ĳë´ĲìļĶ":10143,"ì¹´íİĺë":10144,"ìĹ¬ìŀĲëĬĶ":10145,"íĤ¤ìļ°ê¸°":10146,"Ġíĺ¼ìŀĲìĦľ":10147,"Ġíĺ¼ìŀĲë§ĮìĿĺ":10148,"ĠìĦ¤ê³Ħ":10149,"ĠìĿĺì¡´":10150,"Ġìĺģíĸ¥ìĿĦ":10151,"íĻľìļ©":10152,"ìĪĻìłľ":10153,"ìĪĻì·¨":10154,"ì¶ķìłľ":10155,"ìĬ¤ëŁ½ëĦ¤":10156,"ë§ĿìĿ´ì§Ģ":10157,"Ġìľłë£Į":10158,"ĠìľłíĨµê¸°íķľ":10159,"ĠìµľëĮĢíķľ":10160,"ĠìµľìĦłìĿ´ìĹĪìĿĦ":10161,"ê¸°ëĭ¤ë¦¬":10162,"ê¸°ëĭ¤ë¦¼":10163,"ê¸°ëĭ¤ë¦¬ë©´":10164,"ĠìĥĿê°ģíķ´ë´ħëĭĪëĭ¤":10165,"ĠìĽĲíķ´":10166,"ĠìĽĲíķĺì§Ģ":10167,"ĠìĽĲíķľëĭ¤ë©´":10168,"Ġìĭ¸ìļ°ê³ł":10169,"ì§ģìłĳìłģìľ¼ë¡ľ":10170,"ëĲĺê³ł":10171,"ìķĮë©´":10172,"ìķĮì½©ëĭ¬ì½©":10173,"ìĹ¬íĸīì§Ģ":10174,"ìĹ¬íĸīìĿĦ":10175,"Ġê·¸ë§ĮëĳĲ":10176,"Ġê·¸ë§Įíģ¼":10177,"Ġìķ½ìłĲ":10178,"íķĺë£¨íķĺë£¨":10179,"íķĺë£¨íķĺë£¨ê°Ģ":10180,"ĠìķĦíĮĮìļĶ":10181,"ĠìķĦíĮĮíķĺê³ł":10182,"ĠìķĦíĮĮíķĺëĭ¤ê°Ģ":10183,"ĠíĴĢê³ł":10184,"ĠíĴĢìĸ´ìķ¼":10185,"Ġë§ĽëĤľ":10186,"Ġëĭ¬ëĿ¼ì§Ī":10187,"Ġëĭ¬ëĿ¼ì§ĢëĬĶ":10188,"ĠìĻĢìļĶ":10189,"Ġìļ´ìĿ´":10190,"íıŃë°ľ":10191,"ĠíĿĺëł":10192,"ĠíĿĺë¦¬ìĦ¸ìļĶ":10193,"Ġì±Ļê²¨ì£¼ìĦ¸ìļĶ":10194,"Ġë³Ħê±°":10195,"Ġì¶Ķì²ľëĵľëł¤ìļĶ":10196,"Ġê·¸ë¦¬ìļ¸":10197,"ê³µë¶ĢíķĺëĬĶ":10198,"ê³µë¶Ģíķĺê¸°":10199,"Ġë§ŀëĬĶê±°":10200,"Ġë¹łë¥¸":10201,"Ġì¦Ĳê²ģ":10202,"Ġì¦Ĳê±°ìļ¸":10203,"ë³¸ìĿ¸ìĿ´":10204,"Ġë§ĺìĿĦ":10205,"Ġë§ĺê°Ļì§Ģ":10206,"ĠìķĦë¬´ëĬĶ":10207,"ĠìķĦë¬´ë¦¬":10208,"ĠìķĦë¬´ëŀĺëıĦ":10209,"ëĳ¬ë":10210,"Ġê°Īê¶Ī":10211,"Ġëĭ¤ëıħìĹ¬":10212,"Ġë§Ĳíķ´ìķ¼ì§Ģ":10213,"Ġë§Ĳíķ´ë³´ëĬĶ":10214,"Ġê°Ģìł¸ì£¼ìĦ¸ìļĶ":10215,"Ġê°Ģìł¸ê°Ģë©´":10216,"Ġê°Ģìł¸ìĻĶëĭ¤":10217,"ìļ´ëıĻìĿĢ":10218,"íķĺë©´ìĦľëıĦ":10219,"ëª»íķľ":10220,"ëª»íķĺê³ł":10221,"Ġì£½ê²łìĸ´":10222,"ĠëĤ¨ìŀĲìķłëŀĳ":10223,"ĠìĦ¸ìĽĮ":10224,"ëª¸ìĹĲìĦľ":10225,"ëª¸ê³¼":10226,"ëª¸ìĤ´":10227,"Ġë´īìĤ¬íĻľëıĻ":10228,"ĠìŀĶìĨĮë¦¬":10229,"ìĬ¬íĶĶ":10230,"ìĬ¬ì©į":10231,"ĠìłĲìĭ¬":10232,"ëĤ¨ì¹ľìĿ´ëŀĳ":10233,"Ġê³¼ìĿ¼":10234,"ëŀĢëĭ¤":10235,"Ġíķľëĭ¬ìĿ´ìĹĲìļĶ":10236,"ĠëĦĺìĸ´":10237,"ĠëĦĺê²Į":10238,"ĠëĦĺìĿĢ":10239,"Ġìŀ¬ë¯¸ìĹĨ":10240,"ì²«ìĤ¬ëŀĳìĿ´":10241,"ĠëĤĺê°Ģì§Ģ":10242,"Ġê¸¸ìĿĦ":10243,"ĠìĤ´ê³łìĭ¶ìĸ´":10244,"ê±´ê°ķíķľ":10245,"ê±´ê°ķíķĺê²Į":10246,"ĠíĻķìĿ¸íķ´":10247,"ìķĪëĲ":10248,"ìķĪëĲľ":10249,"Ġìŀ¥ìłĲ":10250,"Ġìŀ¥ê±°ë¦¬":10251,"Ġìŀ¥ìłĲìĿĦ":10252,"ì£¼ëįĺ":10253,"íĸ¥ìĪĺ":10254,"Ġìĺ¤ëŀĺìĺ¤ëŀĺ":10255,"Ġê·Ģì°®ëĭ¤":10256,"Ġê·Ģì°®ê²Į":10257,"ëĭ¬ëŀĺ":10258,"ëĭ¬ëł¥":10259,"ëĭ¬ë¦¬ìĦ¸ìļĶ":10260,"ĠìĹ¬ìŀĲì¹ľêµ¬íķľíħĮ":10261,"ĠìĥģíĻ©ìĿ¼":10262,"íıīìĺ¨":10263,"ì²ĺìĿĮìĿ´":10264,"ê°Ķëĭ¤":10265,"ìŀħëĥĦìĥĪ":10266,"ìłģìĿ´ë©´":10267,"Ġìļ©ëŁī":10268,"ĠìĬ¬íĶĶ":10269,"ĠìĬ¬ì©į":10270,"ĠìŀĬìĸ´ë²Ħë¦¬ëĬĶ":10271,"Ġëĸ¨ìĸ´ì§Ĳ":10272,"ë°ĺê°ĳìĬµëĭĪëĭ¤":10273,"ìĥģëĮĢë°©ìĿĢ":10274,"Ġì§ĢëĤ´ìļĶ":10275,"ëª©ìĿĦ":10276,"ë¹łë¥¸":10277,"°Ľê³ł":10278,"Ġë§¤ëł¥ìĿĦ":10279,"ĠìĤ¬ëŀĮëĵ¤íķľíħĮ":10280,"ë¶Īê¸Ī":10281,"ë¶ĪíĥĢ":10282,"ĠìĹ°ìĬµíķ´":10283,"ĠìĹ°ìĬµíķĺê³ł":10284,"Ġì§Ģê¸ĪìĿ´ëĿ¼ëıĦ":10285,"ë¯¸ëł¨ìĿĢ":10286,"Ġì£¼ëł¤ê³ł":10287,"Ġê´Ģê³ĦëĬĶ":10288,"Ġê´Ģê³ĦëıĦ":10289,"ĠìĽĥê³ł":10290,"ĠìĽĥìĿĦ":10291,"ì¹ľêµ¬ëĵ¤ìĿĢ":10292,"Ġìĭłê²½ìĵ°ìĿ´ëĬĶ":10293,"Ġêµ¬ì²´ìłģìľ¼ë¡ľ":10294,"ìĸ´ëĸ»ê²Įëĵł":10295,"Ġë¬¸ìłľìĹĲ":10296,"Ġë¬¸ìłľìĿ¸ê°ĢìļĶ":10297,"Ġíĭ°ëĤĺëĤĺ":10298,"Ġì´ĿíļĮ":10299,"ëĤ¬ëįĶëĭĪ":10300,"ĠíŀĺìĿĢ":10301,"Ġíŀĺê²¨":10302,"Ġê°ĸìŀĲëĬĶ":10303,"Ġì¢ĭìķĦíķłê¹ĮìļĶ":10304,"ĠëģĬìĸ´":10305,"ĠëģĬëĬĶ":10306,"ĠëģĬê¸°":10307,"ĠëģĬëĬĶê²Į":10308,"ĠëģĬìĸ´ìķ¼":10309,"ĠëĲĺìĹĪëĬĶì§Ģ":10310,"ì´īíķĺëĬĶ":10311,"Ġë§Īìĭľê¸°":10312,"Ġê²ĥìĿ´ëĵł":10313,"Ġë³´ëĬĶê±´":10314,"ìĨĲìľ¼ë¡ľ":10315,"ìĨĲìŀ¡":10316,"ìĨĲê°ĢëĿ½":10317,"ìĨĲìĪĺê±´":10318,"íĹ¤ìĸ´ì§Ģê³łëĤĺìĦľ":10319,"Ġìĥģê´ĢìĹĨìĿ´":10320,"íı¬ê·¼íķľ":10321,"!!!":10322,"Ġë§Ŀíķľ":10323,"Ġì§ģíĽĦ":10324,"ìĽłëįĺ":10325,"ë¦¬ì§Ģë§ĪìĦ¸ìļĶ":10326,"ĠìłķëıĦìĹĲ":10327,"Ġëª¨ìĬµìľ¼ë¡ľ":10328,"íĹĪíĹĪ":10329,"Ġì§ĿëħĢë¥¼":10330,"Ġëĭµëĭµíķł":10331,"Ġëĭµëĭµíķłê±°ëĿ¼":10332,"Ġëĵ£ëĬĶ":10333,"Ġë³Ħë¡ľëĦ¤ìļĶ":10334,"Ġë³Ħë¡ľìŀĦ":10335,"Ġê¿°":10336,"Ġê¿Ķ":10337,"Ġê°ĶëĤĺ":10338,"Ġê°ĶëĬĶì§Ģ":10339,"ĠíĹ¤ìĸ´ì§ĢìĦ¸ìļĶ":10340,"ĠíĹ¤ìĸ´ì§ĢëĦ¤":10341,"ĠíĹ¤ìĸ´ì§ĢëĬĶê²Į":10342,"ĠìĿ¸ìłķíķĺëĬĶ":10343,"ĠìĿ¸ìłķíķĺìĦ¸ìļĶ":10344,"ĠìĿ¸ìłķíķ´ì£¼ìĦ¸ìļĶ":10345,"ê³łë°±ìĿĦ":10346,"ê³łë°±ìĿĢ":10347,"ê³łë°±íķľ":10348,"ĠíĤ¤ê°Ģ":10349,"ĠìĭĿìĿĢ":10350,"ĠìĭĿìĤ¬":10351,"ĠìĭĿíĺĢ":10352,"ĠìĭĿìĹĪìĸ´":10353,"Ġì§Ģì¼ľì£¼ìĦ¸ìļĶ":10354,"ĠìĤ´ìķĦê°ĢëĬĶ":10355,"ĠìĤ´ìķĦìķ¼ì£ł":10356,"ĠìłĦíĻĶíķ´ë³´ìĦ¸ìļĶ":10357,"ĠíĿĲëł¤":10358,"ĠíĿĲì§Ģë¶Ģì§Ģ":10359,"Ġê¸°ëĭ¤ëł¤ìķ¼":10360,"Ġë©ĭì§Ī":10361,"Ġëĭ¤ê°Ģê°ĢëıĦ":10362,"ìŀĶì¹ĺ":10363,"ë§ĺì²ĺëŁ¼":10364,"íķĺìĭľê²łìĸ´ìļĶ":10365,"ĠíŀĺëĤ´ì§Ģ":10366,"Ġê¸°ëĮĢëĬĶ":10367,"ĠíķĻê¸°":10368,"ĠíķĻìĥĿ":10369,"ĠìĹ¬ì¹ľìĹĲê²Į":10370,"ìļ°ë¦¬ì§ĳ":10371,"Ġë°ĽìķĦëĵ¤ìĿ´ìĦ¸ìļĶ":10372,"ĠëĦĪìĿĺ":10373,"ĠëĦĪìĹĲê²Į":10374,"íķĳê³Ħ":10375,"Ġë°ĺëĮĢë¡ľ":10376,"Ġë°ĺëħĦ":10377,"Ġë°ĺëĮĢëŀĺìļĶ":10378,"Ġì°įìĹĪëĦ¤":10379,"Ġì°įìĸ´ì£¼ìĦ¸ìļĶ":10380,"ĠëĲĺìĸ´ê°ĢëĦ¤":10381,"ĠëĲĺìĸ´ê°Ģê¸¸":10382,"ĠìŀĬíĺĢì§Īê¹Į":10383,"ì³¤ëĭ¤":10384,"Ġíģ¬ìĭľê²łìĸ´ìļĶ":10385,"Ġíģ¬ê¸°ë§Įíģ¼":10386,"ĭĪê¹ĮìļĶ":10387,"ìĦ¤ë§Ī":10388,"ìĦ¤ê³Ħ":10389,"ê·¹ìĿ´":10390,"ë§Īì§Ģë§īìĿ´":10391,"ë§Īì§Ģë§īìĿĦ":10392,"Ġíŀĺëĵ¤ìĹĪìĿĦíħĲëį°":10393,"ĠìĿ¸ìĥĿìĿĢ":10394,"ĠìĿ¸ìĥĿìĿĺ":10395,"ĠìĿ¸ìĥĿìĿ´ìĹĲìļĶ":10396,"Ġë³µìŀ¡íķł":10397,"Ġë³µìŀ¡íķľê°Ģë´ĲìļĶ":10398,"Ġë³µìŀ¡íķľê°ĢìļĶ":10399,"ìµľìķħ":10400,"ìµľìĦłìĿĺ":10401,"ìµľëĮĢíķľ":10402,"łĢìĸ´":10403,"Ġì¢ħì¢ħ":10404,"ĠëĳĶ":10405,"ëĭ¤ëĭĪëĬĶ":10406,"Ġì§ľìŀ¥ë©´":10407,"ìĿ¸ìĹ°ìĿ´ëĿ¼ë©´":10408,"ê·¸ë¶ĦìĹĲ":10409,"ê·¸ë¶ĦëıĦ":10410,"ìĤ¬ê·ĢëĬĶ":10411,"ĠëĬĲê»´ë³´ìĦ¸ìļĶ":10412,"ìķĦì¹¨ë§Īëĭ¤":10413,"Ġëª©ìłģ":10414,"Ġìĺ¨ìłĦíŀĪ":10415,"ĠìŀĲì²´ë¥¼":10416,"ĠìķĮê²ĮëĲĺë©´":10417,"íĹ¤ìĸ´ì§ĢìĦ¸ìļĶ":10418,"íĹ¤ìĸ´ì§ĢëĬĶê²Į":10419,"íĹ¤ìĸ´ì§ĢìŀĲëĬĶ":10420,"ĠíķĦìļĶíķľê°ĢìļĶ":10421,"íĺĦìĭ¤ê³¼":10422,"íķĦë¦Ħ":10423,"ìļķíĥķ":10424,"ê°Ģì¡±íķľíħĮ":10425,"ë§ĪëĶĶ":10426,"ë§Īë¬´ë¦¬":10427,"ĠìĿ´ê²¨ëĤ´ê³ł":10428,"Ġìłĳì´īíķĺëĬĶ":10429,"ë°¤ìĿ´":10430,"ë°¤ìĹĲ":10431,"ë°¤ë§Į":10432,"ë°¤ìĥĪ":10433,"ĠëĤĺìĺ¤ê³ł":10434,"ĠëĤĺìĺ¤ìĦ¸ìļĶ":10435,"ĠëĤĺìĺ¤ëĿ¼ê³ł":10436,"ìĸ¸ìłľëĵł":10437,"ì¹´íĨ¡íķł":10438,"ìłķìĭłê³¼":10439,"Ġëĭ¤ë¥¼ê±°ìĺĪìļĶ":10440,"ëıħíķĺê³ł":10441,"ĠìĤ¬ê·Ģëįĺ":10442,"ìĬ¤íĬ¸ëłĪìĬ¤ê°Ģ":10443,"ìĬ¤íĬ¸ëłĪìĬ¤ë¥¼":10444,"ë¯¿ëĬĶ":10445,"ë¯¿ìĿĮìĿĦ":10446,"ë¯¿ê¸°ì§Ģ":10447,"ê°ĲìłķìĿĺ":10448,"Ġìī¬ìĸ´ê°ĢëĬĶ":10449,"Ġìī¬ìĸ´ê°ĢìĦ¸ìļĶ":10450,"Ġìī¬ìĸ´ê°ĢëıĦ":10451,"ìĿ´ëĿ¼ê³łëĬĶ":10452,"ĠìŀĳìķĦì§Ģ":10453,"ë§ŀìķĦìļĶ":10454,"ë§ŀì¶°":10455,"ë§ŀì¶¤ë²ķ":10456,"Ġì°©íķľ":10457,"ĠìķĮë°ĶìĥĿìĿ´":10458,"ĠíĹ¤ìĸ´ì§ĲìĿ´":10459,"íķĻêµĲìĹĲ":10460,"ĠëıĦìĻĢì¤ĺìķ¼":10461,"ĠíĹ·ê°Īë¦¬":10462,"ĠíĹ·ê°Īëł¤":10463,"ĠíĺĦìĭ¤ìĿĺ":10464,"???":10465,"ìĿ¼ë°©":10466,"ìĿ¼ë¶Ģë¡ľ":10467,"ĠìĿ½ìĸ´":10468,"ĠìĿ½ìĶ¹":10469,"ĠìĿĺë¯¸ìĿ¼ê¹Į":10470,"ì¹ĺë£Į":10471,"ìĭłê²½ìĵ°ê³ł":10472,"ëħĲìĿĦ":10473,"Ġë¨¹ìľ¼ë©´ìĦľ":10474,"ĠìĥģëĮĢëĬĶ":10475,"ìĸ´ëĬĲìĥĪ":10476,"ĠëĵľëĬĶê±¸ë¡ľ":10477,"ëª¨ëĵłê²Į":10478,"ĠíĹĪìĥģìĿ¼":10479,"ë©Ķë¦¬":10480,"ĠíĿĺëłĢëĤĺë´ĲìļĶ":10481,"Ġì§ľì¦ĿëĤ¨":10482,"Ġì§ľì¦ĿëĤĺëĦ¤":10483,"ĠìķĦíĶĶìĿĦ":10484,"ĠìķĦíĶĶìĿĢ":10485,"ĠìķĦíĶĶëıĦ":10486,"Ġë§ĪìħĶìļĶ":10487,"Ġë§ĪìħĶë³´ìĦ¸ìļĶ":10488,"ĠìļĶë¦¬":10489,"ĠìļĶì²Ń":10490,"Ġì£¼ë§ĲìĹĲ":10491,"Ġì£¼ë§ĲìĿ´ëĦ¤ìļĶ":10492,"ìħĺìĿĢ":10493,"Ġê´Ģë¦¬íķĺëĬĶ":10494,"Ġë¶Ģì¡±íķľê°Ģë´ĲìļĶ":10495,"Ġë¶Ģì¡±íķľê°Ģ":10496,"ĠìķĪëĲĺê²łì£ł":10497,"ìĤ¬ëĬĶê²Į":10498,"ìĺ¤ëĬĺë¡ľ":10499,"ë´ĦìĿ´":10500,"ĠìĦ¤ëłĪëĬĶ":10501,"Ġë¶Ļìŀ¡ëĬĶ":10502,"ĠëĶ±ìĿ´ì£ł":10503,"ê¶ģê¸Īíķĺë©´":10504,"ê¶ģê¸Īíķľê²Į":10505,"ĠìĶ¨":10506,"ĠìĶģëĭĪëĭ¤":10507,"ê³łìĥĿíĸĪìĸ´ìļĶ":10508,"ìĽĥìľ¼ë©´":10509,"ìĽĥê²¨":10510,"Ġìĸ´ëłµì§Ģ":10511,"ìĻ¸êµŃìĸ´":10512,"ëħ¸ëĬĶ":10513,"ëħ¸ëł¥íķĺëĬĶ":10514,"ëħ¸ëł¥íķ´ëıĦ":10515,"íĹ¤ìĸ´ì§ĲìĿĦ":10516,"ĠìĨĶì§ģíķĺê³ł":10517,"ë¨¼ì§Ģê°Ģ":10518,"Ġê¹ĬìĹĪëĤĺë´ĲìļĶ":10519,"íĻķìĭ¤íŀĪ":10520,"ëĶ°ëľ»íķł":10521,"Ġì¡´ì¤ĳíķ©ëĭĪëĭ¤":10522,"Ġì¡´ì¤ĳíķ´ì¤¬ìľ¼ë©´":10523,"ìĿ´ë²Īëĭ¬":10524,"ĠìĿµìĪĻíķ´ìł¸":10525,"Ġë§ĲìĿ´ìĺĪìļĶ":10526,"ìĥģëĮĢìĹĲ":10527,"ë²łë¦¬":10528,"ë²łëŀĢëĭ¤":10529,"Ġìļ¸ê³ł":10530,"Ġìļ¸ìĸ´ëıĦ":10531,"Ġíķĺìħ¨ëĤĺë´ĲìļĶ":10532,"Ġìĭłê²½ìĿĦ":10533,"ìľĦë¡ľë¥¼":10534,"ĠëĪĦêµ¬ìķ¼":10535,"ëĵ¬":10536,"ìĿĺë³Ħ":10537,"ì§§ê²Į":10538,"ì§Īëł¤ê³ł":10539,"ê²ģíķľ":10540,"ê²ģëĭĪëĭ¤":10541,"íķ´ì¡ĮëĤĺë´ĲìļĶ":10542,"Ġíİ¸ë¦°":10543,"Ġíİĺë©Ķ":10544,"ĠìĹ´íĿĺ":10545,"íķľê±°ëĭĪ":10546,"ìĬµê´ĢìĿ´":10547,"Ġíĸ¥ìĪĺê°Ģ":10548,"íĳ¸":10549,"ìĹ¼íĥĲíķĺì§Ģ":10550,"íķ´ì¤Ħê²ĮìļĶ":10551,"ëĤĺìĿ´ìĹĲ":10552,"ĠëĤ¨ìŀĲì¹ľêµ¬ìĻĢ":10553,"ìĬ¤ìĬ¤ë¡ľìĹĲê²Į":10554,"Ġìłķìĭłìłģ":10555,"Ġìłķìĭłì°¨":10556,"Ġë²Ĺìĸ´":10557,"Ġë²Ĺê²¨":10558,"Ġëĸ¨ëł¤ìĦľ":10559,"ìį¸ëıĦ":10560,"ìį¸ëħĢëŀĳ":10561,"Ġë´¤ìĬµëĭĪëĭ¤":10562,"ì´Īê°Ģ":10563,"ì´ĪìĹĲ":10564,"Ġê¾¸ì£ł":10565,"íĩ´ê·¼íķĺê³ł":10566,"ĠìĮĵìĿ¸":10567,"ĠìĥĢëĭ¤":10568,"ĠìĥĢëĬĶëį°":10569,"íķľëĭ¤ëĬĶëį°":10570,"íķľëĭ¬ìĿ´":10571,"íķľëĭ¬íķĺê³ł":10572,"ĠìĥĿê¸°ê¸¸":10573,"ì£¼ë§ĲìĿ¸ëį°":10574,"ì£¼ë³ĢìĹĲ":10575,"ì£¼ë³ĢìĿĺ":10576,"ĠëĤĺìĺ¨ëĭ¤":10577,"ê·¸ëŁ¬ëĭĪê¹Į":10578,"íĹ¤ìĸ´ì¡ĮìĬµëĭĪëĭ¤":10579,"ì°¨ëĭ¨ëıĦ":10580,"ĠìĿ¸ìĹ°ìĹĲ":10581,"ĠìĿ¸ìĹ°ìĿ´ì£ł":10582,"Ġì°¨ëĭ¨íķĺìĦ¸ìļĶ":10583,"ĠëıĦìłĦìĿ´":10584,"ĠëıĦìłĦíķ´ë³´ìĦ¸ìļĶ":10585,"Ġì§ĳì°©íķĺê²Į":10586,"Ġë©Īì¶ľ":10587,"Ġë°ĽìķĦëĵ¤ìĿ¼":10588,"Ġë°ĽìķĦëĵ¤ìĹ¬ë³´ìĦ¸ìļĶ":10589,"ì²ŃìĨĮëĬĶ":10590,"Ġë°°ìĽĮë³¼ê¹Į":10591,"Ġë°°ìĽĮë³´ê³ł":10592,"Ġë°°ìĽĮê°ĢëĬĶ":10593,"ĠìĿ´ìĥģíĺķìĿ´":10594,"Ġì¦Ŀê±°":10595,"Ġì¦Ŀìĺ¤":10596,"ĠìĤŃìłľíķĺëĬĶ":10597,"ë¶Ģëª¨ëĭĺê»ĺ":10598,"ê¸°ëĮĢíķĺì§Ģ":10599,"ĠìĪ¨ë§ī":10600,"ìĿ¸ê±°ì£ł":10601,"Ġì¢ĭìķĦíķľëĮĢ":10602,"ìłķë¦¬íķĺëĬĶ":10603,"ìĥģíĻ©ìĹĲ":10604,"ëħ¸ëŀĺê°Ģ":10605,"Ġë¬´ìĹĩìĿĦ":10606,"ë°©íķĻìĿĢ":10607,"ĠìĦľìļ´íķĺëĭ¤ê³ł":10608,"Ġê¿ĪìĹĲëĤĺ":10609,"Ġíıīê°Ģ":10610,"ĠíıīìĥĿ":10611,"Ġíıīìĺ¨":10612,"ìŀ¬ë¯¸ìŀĪëĬĶ":10613,"ĠíĨ¡ìĿĦ":10614,"Ġìĸĺê¸°íķ´":10615,"Ġìĸĺê¸°íķĺì§Ģ":10616,"íĳľíĺĦíķĺì§Ģ":10617,"íļ¨ëıĦ":10618,"ĠëĮĢíĻĶíķ´ë³´ìĦ¸ìļĶ":10619,"ê²°ìłķíķł":10620,"ëģĶíķĺê²Į":10621,"ë©°ì¹ł":10622,"Ġë¶Īíİ¸íķľ":10623,"ì»¤íĶĮë§ģ":10624,"Ġì´Īì½ľë¦¿":10625,"Ġë°Ķê¿Ķìķ¼ì§Ģ":10626,"Ġë°Ķê¿Ķë³¼ê¹Į":10627,"ĠëĳĲëł¤ìĽĮíķĺì§Ģ":10628,"Ġê¹Įë¨¹ìĹĪìĸ´":10629,"Ġì²ĺìĿĮìĹĲ":10630,"ĠëĬĺìĸ´":10631,"ĠëĴ¤ìĹĲ":10632,"ĠëĴ¤ìĪŃìĪŃ":10633,"ìĺ·ìĿĢ":10634,"ìĺĪë¹Ħ":10635,"ìĺĪëŀĳ":10636,"íķłëķĮëĬĶ":10637,"Ġì¤ĺìķ¼":10638,"ìĥģì²ĺë¥¼":10639,"ìĹ°ìĺĪìĿ¸ëıĦ":10640,"ê±±ìłķëĲĺê²łìĸ´ìļĶ":10641,"Ġë¬´ëĦĪì¡Įìĸ´":10642,"íģ°ìĿ¼ìĿ´ëĦ¤ìļĶ":10643,"ê´Ģê³Ħë¥¼":10644,"Ġì°¨ìĿ´ìĿ¸":10645,"íĥĪê¹Į":10646,"íĥĪì¶ľ":10647,"ĠìĦ¤ëłĲ":10648,"ĠìĦ¤ëłľ":10649,"Ġìĸ´ìļ¸ë¦´ê¹Į":10650,"Ġê½Ŀ":10651,"ëĿ¼ëĦ¤":10652,"ìĭľìŀĳíķĺê¸°":10653,"ĠìĺĨìĹĲìĦľ":10654,"Ġë²łíĦ°ë¦¬ê°Ģ":10655,"Ġë¬´ìĦŃëĭ¤":10656,"Ġë¬´ìĦŃëĦ¤":10657,"Ġë¬´ëİĮì§Ī":10658,"Ġì¡°ìĸ¸ìĿ´":10659,"ĠíĽĦëł¨íķĺëĦ¤":10660,"íĹĽëĲľ":10661,"Ġëħ¸ìŀ¼":10662,"ĠìĤ¬ëĿ¼ì§Ħ":10663,"ìŀ¬ë°ĮëĬĶê±°":10664,"Ġë°ĶëĢĮìĸ´":10665,"Ġê´´ë¡Ńëĭ¤":10666,"ĠíĹĪìłĦíķł":10667,"ĠíĹĪìłĦíķĺê²łìĸ´ìļĶ":10668,"Ġë¬¸ëĵĿ":10669,"Ġíĳľì¶ľ":10670,"íķĺëĬĺìĿĦ":10671,"Ġê²łì§Ģ":10672,"ĠìĿ´ìļ©íķĺëĬĶ":10673,"ĠëªħìłĪ":10674,"ë©´ìłĳë§Į":10675,"Ġê·¸ëŁ¬ì§Ģ":10676,"ĠìĤ¬ìĭ¤ìĹĲ":10677,"ìĸ´ëĶĶìĹĲìĦľ":10678,"ĠëĤłìĶ¨ëıĦ":10679,"Ġë¹ĦìĬ·íķĺì£ł":10680,"ĠëĬĲëł¤ì¡Įìĸ´":10681,"Ġëª°ëŀĲìĸ´ìļĶ":10682,"ĠíĹĪë¦¬":10683,"ĠíĹĪëĿ½":10684,"íĶ¼ê³¤íķ´ìĦľ":10685,"ĠìķĪëĲĺëĤĺ":10686,"ĠìķĪëĲĺëĤĺë´ĲìļĶ":10687,"Ġë°°ëł¤íķ´ë³´ìĦ¸ìļĶ":10688,"Ġë°°ëł¤íķ´ìķ¼":10689,"Ġë°°ìļ°ìĦ¸ìļĶ":10690,"Ġë¶Ģëª¨ëĭĺìĿ´":10691,"Ġë¶Ģëª¨ëĭĺìĿĦ":10692,"Ġë²Ħëł¤ìķ¼ì§Ģ":10693,"ĠíĮĶìķĦë³´ìĦ¸ìļĶ":10694,"ê´ľì°®ìķĦì§Ī":10695,"ê´ľì°®ìķĦì§Ģê³ł":10696,"ĠìĬ¬íĶĦëĭ¤":10697,"ĠìĬ¬íĶĦëĦ¤ìļĶ":10698,"ëĸłëĤĺê°Ħ":10699,"ĠìĬ¤íĥĢìĿ¼ìĹĲ":10700,"²Ħëł¸ìĸ´":10701,"ìĿ´íķ´íķĺê¸°":10702,"ìķĦëĭĪê¸¸":10703,"ìķĦíĮĮíĬ¸":10704,"ë§¤ëĦĪ":10705,"ĠìķĬìķĺìĿĦ":10706,"Ġê¸°ìļ¸ìĹ¬ë³´ìĦ¸ìļĶ":10707,"Ġì§Ģì³ĲìļĶ":10708,"ĠìĿ¼ì£¼ìĿ¼ìĿ´ëĦ¤":10709,"Ġì¹Ńì°¬íķ´ë³´ìĦ¸ìļĶ":10710,"ë¬´ìĹĩìĿĦ":10711,"ĠìĥģíĥľìĿ¸":10712,"ìĸ´ëĳĲìĦ¸ìļĶ":10713,"íĶĦë¡ľíķĦ":10714,"Ġì°¨ë¶Ħíķĺê³ł":10715,"Ġì°¨ë¶Ħíķĺê²Į":10716,"ì§ĳìķĪìĿ¼ìĿĦ":10717,"Ġê°ĢëĬ¥íķłê¹ĮìļĶ":10718,"íĴĢìĿĺ":10719,"Ġê²¬ëİĮë´ĲìļĶ":10720,"ìį¸ëħĢíķľíħĮ":10721,"ìŀĺëª»ëĲľ":10722,"Ġìĩ¼íķĳíķĺê³ł":10723,"Ġìĩ¼íķĳëª°":10724,"ìķ¡ìħĺ":10725,"ìķĦëĭĲ":10726,"Ġê°Īëĵ±":10727,"ìŀĲì¡´ê°Ĳ":10728,"ë§ĮëĤĺê¸°ë§Į":10729,"Ġìĺ¬ëŀĲìĸ´":10730,"íķĺê³łìĭ¶ìĿĢëį°":10731,"Ġëĭ¤ëĭĪëĬĶ":10732,"Ġì°Įì§Īíķľ":10733,"ĠìŀĲì¡´ê°ĲìĿĦ":10734,"Ġë¹¼ìķĹ":10735,"ĠëĶ°ëľ»íķľ":10736,"Ġë¯¸ì¹ĺê²łëĦ¤":10737,"ìŀĬíĺĢìł¸":10738,"Ġì¹ľêµ¬ëĵ¤ìĿĦ":10739,"Ġì¹ľêµ¬ëĵ¤ìĿ´ëŀĳ":10740,"ĠëĪĦêµ¬ë³´ëĭ¤":10741,"ĠëıĮìķĦìĺ¤ì§Ģ":10742,"ĠìĦ¸ìĥģìĹĲ":10743,"ĠìĦ¸ìĥģìĹĲìĦľ":10744,"ĠìĦ¸ìĥģìĿ´ì£ł":10745,"ĠíĨµë³´íķĺëĬĶ":10746,"Ġëľ¨ëĬĶ":10747,"Ġì±ĦìĽĮë³´ìĦ¸ìļĶ":10748,"Ġì±ĦìĽĮì¤Ħê²ĮìļĶ":10749,"snsë¥¼":10750,"ëĮĦ":10751,"ĦëŁ¬ìĽĮ":10752,"ĠëĽ°ìĸ´":10753,"Ġê·¼êµĲ":10754,"íĺĶìĸ´":10755,"Ġê°Ģê¹ĮìĽĮì§Ī":10756,"ë¡ľìĽĮì§ĢìĦ¸ìļĶ":10757,"ìķłë§¤íķľ":10758,"ĠìŀĺìĥĿê²¨":10759,"ë§ĲìĶĢíķ´ì£¼ìĦ¸ìļĶ":10760,"ĠìĦłíĨ¡ìĿĦ":10761,"Ġì¶¥ê³ł":10762,"ĠìĽĶìļĶìĿ¼":10763,"ì½ľë¡Ŀ":10764,"Ġì±ħìĿĦ":10765,"Ġë¬¼ìĸ´ë³´ê±°ëĤĺ":10766,"Ġìĵ¸ìĵ¸":10767,"Ġëĥīë©´":10768,"Ġìĥģì²ĺë°Ľì§Ģ":10769,"Ġìĥģì²ĺë°Ľê²Į":10770,"ĠíĿĶëĵ¤ë¦¬ì§Ģ":10771,"ëĥīìŀ¥ê³łìĹĲ":10772,"ëĦĪë¥¼":10773,"Ġìª½":10774,"ĠìªĦ":10775,"Ġëį¥ëĭ¤":10776,"Ġëĵłëĵł":10777,"ìĿ´íĺ¼ìĿĦ":10778,"ìĸ´ìŀ¥ìĿ¸ê±°":10779,"ĠìķĦê»´ì£¼ìĦ¸ìļĶ":10780,"Ġë°Ķë¹łìĦľ":10781,"Ġìŀĺíķ´ì£¼ë©´":10782,"ëª°ëŀĺ":10783,"ĠëĤ´ëł¤ëĨĵê³ł":10784,"Ġì¤ĳê°ĦìĹĲ":10785,"ê·¸ê²ĥìĿ´":10786,"ê·¸ê²ĥë§Įíģ¼":10787,"Ġì¶©ìĭ¤":10788,"ĠìłĦë¶ĢëĬĶ":10789,"Ġì¡°ê¸īíķ´":10790,"ëįĶëĿ¼êµ¬ìļĶ":10791,"Ġì²´ìľ¡ëĮĢíļĮ":10792,"Ġëĭ¹ìĹ°íķ´ìļĶ":10793,"Ġëĭ¹ìĹ°íķĺì£ł":10794,"Ġìĭłì²Ńíķ´ë³´ìĦ¸ìļĶ":10795,"ë¯¸ìĦ¸ë¨¼ì§Ģê°Ģ":10796,"ìĿ´ëŁ¬ëĭ¤":10797,"ëĨĢìĿ´ê³µìĽĲ":10798,"ì±Ħê¸°":10799,"ĠëıĻìĥĿìĿ¸ëį°":10800,"Ġì·¨ë¯¸ìĥĿíĻľ":10801,"ĠìĿĺì§Ģíķ´ë³´ìĦ¸ìļĶ":10802,"ĠíĿĺëŁ¬ê°Ī":10803,"Ġë¹łë¥´ê²Į":10804,"Ġëĭ¤ëĲĺê°ĢëĦ¤":10805,"Ġëĭ¤ëĲĺìĸ´ê°ĢëĦ¤":10806,"ë¬¼ë¦¬ìłģìĿ¸":10807,"ì»´íĦ°ê°Ģ":10808,"ĠíļĮìĤ¬ìĹĲìĦľ":10809,"Ġëĭ´ë°°ë¥¼":10810,"Ġê°Ģì¹ĺê´ĢìĿ´":10811,"Ġê°Ģì¹ĺê´ĢìĹĲ":10812,"¥´ëª¬":10813,"ë¿ĲìĿ´":10814,"ì¿µ":10815,"ì¿ł":10816,"Ġë§¤ëª°":10817,"ĠëĤ¬ëĤĺë´Ĳ":10818,"ìĹ¬ê¸°ê¹Įì§ĢìĺĢìĿĦ":10819,"ìŀ¥ëĤľìĬ¤ëŁ¬ìļ´":10820,"ìĬ¤íĤ¤ìŀ¥":10821,"ë¯¸ëģĦëŁ¬":10822,"ëĮĢíĻĶë¡ľ":10823,"ĠíķĺëĤĺëĿ¼ëıĦ":10824,"ìķĪíĥĢê¹ĿëĦ¤ìļĶ":10825,"ĠìĥģëĮĢë°©ìĿĦ":10826,"ìĺ¤íķ´ê°Ģ":10827,"Ġíĺ¸ë¥´ëª¬":10828,"ì°¨ë¶Ħíķĺê²Į":10829,"ë¹¨ëŀĺ":10830,"ìŀĬì§Ģëª»":10831,"ê°ĳìŀĳìĬ¤ëŁ¬ìļ´":10832,"Ġì·¨ì§ģíķł":10833,"Ġë§ĮëĤ¬ëįĺ":10834,"Ġê¹¨ëĭ¬ìĿĮ":10835,"ĠìĿ¼ìĸ´ëĤĺìķ¼":10836,"ìĸ´ì©ĶìĪĺ":10837,"Ġë³ĢëįķìĬ¤ëŁ½ê²Į":10838,"ë¸Ķë£¨":10839,"ë¸ĶëŀĻ":10840,"ìŃī":10841,"Ġë¡ľë§¨":10842,"Ġë¦¬ìķ¡ìħĺ":10843,"ê³¼ë¥":10844,"ê³¼ë¥¼":10845,"Ġë°±ìĪĺ":10846,"ê°Ħëĭ¨íķĺê²Į":10847,"Ġë°Ķê¾¸ëĬĶ":10848,"Ġë°Ķê¾¸ìĦ¸ìļĶ":10849,"ìĭ¬ìĭ¬íķľëį°":10850,"Ġì¤ĳëıħìĿ¸ê°Ģë´Ĳ":10851,"Ġë¬´ëį¤ëį¤íķ´ì§ĢëĬĶ":10852,"ìļ¸ìłģíķľ":10853,"ĠìĨĮë¬¸ìĿ´":10854,"ĠìĽ¬ìĪĺëĦ¤ìļĶ":10855,"ë°©ë²ķìĿ´":10856,"Ġíķ¨ê»ĺë©´":10857,"ê¼¼ê¼¼":10858,"Ġê·¸ë¦¬ìļ´ê°Ģë´ĲìļĶ":10859,"Ġëķ¡ê¸´ëĭ¤":10860,"ë¨¸ë¦¿ìĨįìĿ´":10861,"ìĺģíĻĶê´ĢìĿ´ëĤĺ":10862,"ëĵ±ìĤ°":10863,"ĠíĹĪë¬´íķĺëĦ¤":10864,"ëĴ·íĨµìĪĺ":10865,"ĠìĽĶê¸īìĿĢ":10866,"Ġëĭ¤ëĭĲê¹Į":10867,"íĽĪ":10868,"íĽĶì³Ĳ":10869,"ìĸ´ì°Įíķ´ìķ¼":10870,"ë³´ëł¤êµ¬":10871,"Ġì¢ĭìķĺìĿĦíħĲëį°":10872,"Ġìĭ¬ë¦¬ìĿ¼ê¹ĮìļĶ":10873,"Ġëĭ¬ëł¤ìŀĪê²łì£ł":10874,"ìłľìŀĲë¦¬ìĹ¬ëıĦ":10875,"ĠìķĬìķĺëĦ¤ìļĶ":10876,"ĠìķĬìķĺëĭ¤ë©´":10877,"Ġëĭ¤ìĸĳíķľ":10878,"Ġì°Ķëł¤":10879,"ĠìĭľíĤ¤ìĦ¸ìļĶ":10880,"ĠìłķíĻķíķĺê²Į":10881,"Ġëª»íĸĪêµ°ìļĶ":10882,"ĠëģĪìĿĦ":10883,"ĠëģĮì§Ģ":10884,"ë¬´ìĭľëĭ¹íķĺëĬĶ":10885,"ëĭ¹ìĹ°íķľ":10886,"ëĳĲë²Īì§¸":10887,"ë¹ĽìĿ´":10888,"Ġê·ĢìĹ½ì£ł":10889,"Ġëĸłìĺ¤ë¥´ëĬĶ":10890,"ìľĦíĹĺíķľ":10891,"Ġë¶ĦìľĦê¸°ê°Ģ":10892,"ĠíıŃìĭĿ":10893,"ĠëıĮìķĦìĺ¬ê¹Į":10894,"ĠíĴĢëł¸ê¸¸":10895,"Ġë¹łìł¸ëĤĺìĺ¤ìĦ¸ìļĶ":10896,"ĠíĶĦë¡ľíķĦ":10897,"Ġìłĳìĸ´ëĳĲìħĶìļĶ":10898,"ĠìĺģíĻĶë³´ëŁ¬":10899,"Ġíĥľìĸ´ëĤ¬ìĿĦê¹Į":10900,"Ġêµ¬ë©įìĿ´":10901,"ê¹¨ëģĹìĿ´":10902,"íĨłëĭ¥íĨłëĭ¥":10903,"ë±ĥìĤ´":10904,"Ġìľłíļ¨ê¸°ê°ĦìĿ´":10905,"ëĬĲëĤĮ":10906,"ĠëłĪ":10907,"ĠëłĮ":10908,"ìĸ´ë¦°ìĿ´ì§ĳ":10909,"ì§Ģíķĺì²łìĹĲ":10910,"ê¸°ë³¸ìľ¼ë¡ľ":10911,"Ġê²©ëł¤":10912,"Ġíķ´ì£¼ë©´ìĦľ":10913,"ë°ĸìĹĲìĦľ":10914,"Ġê¸¸ëŁ¬ë³´ìĦ¸ìļĶ":10915,"Ġê¸¸ëŁ¬ë³¼ê¹Į":10916,"ìĹ¬ìļ°ê°ĻìĿĢ":10917,"ìĹ¬ìĤ¬ì¹ľìĿ´ëŀĳ":10918,"Ġì§ĢëĤ¬ìĸ´ìļĶ":10919,"ĠëĤ¨íİ¸ìĿ´ëĦ¤ìļĶ":10920,"Ġë¯¸ëģĦëŁ¬":10921,"ì¤ĳê³łë¡ľ":10922,"ê¾¸ëįĺ":10923,"Ġíĺ¼ëŀĢìĬ¤ëŁ¬ìĽĮ":10924,"ì¡°ìļ©íŀĪ":10925,"ĠìĿ¸ê¸°ìŀĪëĬĶ":10926,"ê²¨ìļ¸ìĹĲëĬĶ":10927,"íĹ¬ìĬ¤ìŀ¥ìĹĲ":10928,"Ġì°¨ë¡ĢìĺĪìļĶ":10929,"Ġë¹ĪìŀĲë¦¬":10930,"Ġíİ¸ìķĪíķ´ì§Ī":10931,"Ġì§ĳìķĪìĿ¼":10932,"Ġì§ĳìķĪìĿ¼ìĿĦ":10933,"Ġê°ĦìĤ¬íķĺì£ł":10934,"Ġë¶Ħëªħíķĺê²Į":10935,"Ġë¶Īê³µíıīíķ´":10936,"Ġë§ĮëĤ¬ìĿĦ":10937,"Ġë§¤ëĭ¬ëł¤":10938,"Ġì¶ķë³µê³¼":10939,"ĠëĤĺëĪĦëĬĶê²Į":10940,"ìĵ¸ëį°ìĹĨëĬĶ":10941,"ĠìĥĪì¶ľë°ľíķĺìĦ¸ìļĶ":10942,"Ġíģ´ëŁ½ìĿĦ":10943,"ë°°ê³łíĮĮìĦľ":10944,"íģ´ëŁ½ìĹĲìĦľ":10945,"ĠíĹĽíĹĽíķľê°Ģë´ĲìļĶ":10946,"Ġì§Ģê²¨ìĽĮì§Ħ":10947,"Ġì¥Ĳ":10948,"ĠìħĢíĶĦ":10949,"ì§Ģì¹łë§Į":10950,"ê°ĢìĬ¤ë¹Ħ":10951,"Ġìķ¡ìłķ":10952,"ĠìĹ®ìĹ¬":10953,"íķľìĪ¨ë§Į":10954,"Ġíķ´ì£¼ëĬĶê²Į":10955,"Ġê±¸ëł¸ìĸ´":10956,"Ġê°ĢëĿ¼ìķī":10957,"Ġëĭ¤ë¥¸ëį°":10958,"Ġë°ĶëĶĶë¡ľìħĺ":10959,"ì§Ħìĭ¤ëĲľ":10960,"Ġì§Ģê¸Īë¶ĢíĦ°":10961,"ë§ĪìĿĮìłķë¦¬íķĺìĦ¸ìļĶ":10962,"ê°ĲìĦ±ìłģìĿ´":10963,"ĠëĨįëĭ´":10964,"ĠìĥģìĿĺíķ´ë³´ìĦ¸ìļĶ":10965,"ìĸ´ëĳłìĹĲìĦľ":10966,"ĠëģĿìĿ¼ì¤Ħ":10967,"Ġìī¬ë©´ìĦľ":10968,"Ġê°ĢëĬłíķĺì§Ģ":10969,"ĠìĨĮë¹Ħë¥¼":10970,"ĠìĨĮëª¨ê°Ģ":10971,"ĠëıĦìĻĢëĵľ":10972,"ĠìķłêµĲê°Ģ":10973,"ê·ĢìĹ¬ìļ¸":10974,"ĠìłľìķĪíķ´ë³´ìĦ¸ìļĶ":10975,"Ġì¶Ķìļ´ê°ĢìļĶ":10976,"ĠíĥĦëĭ¤":10977,"Ġíĥĵíķĺì§Ģ":10978,"ĠëĳĲë²Īì§¸":10979,"ĠìĺĪìģĺëĭ¤":10980,"ë²Ħëł¸ìĬµëĭĪëĭ¤":10981,"ê°ķëł¬íķľ":10982,"íĥĪëª¨":10983,"Ġëĸ¨ì³Ĳë²Ħë¦¬ìĦ¸ìļĶ":10984,"Ġë³Ģíķ´ê°ĢëĬĶ":10985,"ĠìŀĺëĲĺëĭĪê¹Į":10986,"ĠìĦľíĪ´ëŁ¬":10987,"Ġë¯¸íĻĶëĲĺê¸°":10988,"Ġìĸ¸ìłłê°Ħ":10989,"Ġëĭ¤ê°Ģìĺ¤ê³ł":10990,"ĠìĿ´ëŁ´ê¹Į":10991,"ĠìľłíķĻìĿĦ":10992,"ìĪľìĪĺíķľ":10993,"Ġëĭ¨íĺ¸íķĺê²Į":10994,"Ġì´ĪëĿ¼":10995,"ĠìĿ´ìĸ´ëĤĺê°ĢëĬĶê²Į":10996,"ëħ¸íĽĦëĬĶ":10997,"íĩ´ê·¼ê¸¸ìĹĲ":10998,"ë°ĽìķĦëĵ¤ìĹ¬":10999,"íĹĪë¦¬ê°Ģ":11000,"ĠìĻ¸ë¡Ńê³ł":11001,"Ġìĺ¤ëŀľë§ĮìĹĲ":11002,"ĠìĽ¬ìĪĺìĺĪìļĶ":11003,"ĠìĿµìĪĻíķ´ì§Ģì§Ģê°Ģ":11004,"ĠìŁģì·¨íķĺëĬĶ":11005,"ì«Ħ":11006,"Ĩĵì§Ģ":11007,"ĪìĬ¤íħĮë¦¬":11008,"ĠìıŁìķĦ":11009,"Ġê¶Įíĥľê¸°ê°Ģ":11010,"ê°ĸì§Ģ":11011,"ê°Ģë³įê²Į":11012,"ê°Ģê¹Įìļ´":11013,"ĠíŀĪìĬ¤íħĮë¦¬":11014,"Ġíĩ´ê·¼":11015,"ê²ĮëĲĺëĦ¤":11016,"Ġë³¼ëķĮëĬĶ":11017,"ì¹ľì²Ļëĵ¤":11018,"ê±°ìłĪìĿĺ":11019,"íĺ¼ë°¥":11020,"ĠìĥĿê°ģëĤĺëĦ¤ìļĶ":11021,"ĠìĹ°ìĺĪìĿ¸":11022,"ĠìķĪíĥĢê¹Į":11023,"ĠìķĪíĥĢê¹ĿëĦ¤ìļĶ":11024,"ìķłíĭĭíķľ":11025,"ĠìķĮê²łìĸ´ìĦľ":11026,"Ġëª¨ìľ¼ëĬĶ":11027,"ë¬´ëª¨íķľ":11028,"ìŀĺìŀĲìļĶ":11029,"ëĭ¹ë¶Ħê°ĦìĿĢ":11030,"ĠëĨĢëŀĲê²łìĸ´ìļĶ":11031,"Ġìľ¡ìķĦ":11032,"ĠìĨĮë¦Ħëıĭ":11033,"Ġê¹ĢìĹĲ":11034,"ë¹ĦêµĲíķĺë©´":11035,"ê·ĢìĹ½ê²łëĦ¤ìļĶ":11036,"Ġìĺ¤ëĬĺë":11037,"ĠíĿ¬ìĥĿìĸĳìĿ´":11038,"ĠìłľìŀĲë¦¬ê±¸ìĿĮ":11039,"Ġë©°ì¹ł":11040,"ĠíĻķë¥łìĿ´":11041,"íĥĶìĸ´":11042,"ê²°íĺ¼ìłģëł¹ê¸°ê°Ģ":11043,"ĠìĨįë°ķìĹĲìĦľ":11044,"ì±ħìŀĦì§Ī":11045,"ëľ¨ëģĪ":11046,"ĠìĦ¤ëĵĿíķ´ë³´ìĦ¸ìļĶ":11047,"ì²«ìĿ¸ìĥģìĿĢ":11048,"Ġë°Ķê¿¨ìĸ´":11049,"ìµľìłĢìŀĦê¸Ī":11050,"Ġì¢ħì§Ģë¶Ģë¥¼":11051,"ê°Ģì¡±ëĵ¤ê³¼":11052,"ìĭłê²½ìĵ°ìĿ´ëĤĺë´ĲìļĶ":11053,"ë¶Ģëĭ´ìĬ¤ëŁ¬ìĽĮíķĺì§Ģ":11054,"ĠìĶ¹ìĸ´":11055,"Ġëĺĳëĺĳíķ´":11056,"ì§Īë»ĶíĸĪìĸ´":11057,"ìĬµê´Ģì²ĺëŁ¼ìĿĢ":11058,"ìĸ´ì©Įë©´":11059,"ĠìŀĲìľłë¡ľìĽĮì§Ī":11060,"ë°ĽìķĦëĵ¤ìĿ´ê¸°":11061,"Ġê¹İìķĦìķ¼ì§Ģ":11062,"ĠíĽĪíĽĪ":11063,"ê²¬ëĶĶê¸°":11064,"Ġíľĺëĳĺë":11065,"ë´īìĤ¬íĻľëıĻëıĦ":11066,"Ġë¸Įëŀľëĵľê°Ģ":11067,"Ġìĺ¤ì§Ģëŀĸ":11068,"įĺëį°ìļĶ":11069,"¡ë³¶ìĿ´":11070,"ëĩĮ":11071,"ĭëĳĲë¦¬":11072,"ĭì§Ģê¸ĭíķľ":11073,"ĺíĥĪìĿ´":11074,"ìĿ´íĶĮëĿ¼ìĽĮ":11075,"ìķĦëĤłë¡ľê·¸":11076,"ëıĦëĿ¼ìĿĺ":11077,"ë³´ëĥĪìľ¼ëĭĪ":11078,"ĠìĿĺëıĦëĬĶ":11079,"¼ëĸ¨ëĸ¨":11080,"ìĿ¼ì£¼ìĿ¼ìĿ´":11081,"ìĿ¼ìļĶìĿ¼ìĹĲ":11082,"Ġê²ĥë§Įìľ¼ë¡ľëıĦ":11083,"ĠìķĪìĺ¤ì§Ģ":11084,"ì§ĦíĨµìłľ":11085,"ĠìĭľëģĦëŁ¬ìĽĮ":11086,"Ġê·¸ë¦°ëĿ¼ìĿ´íĬ¸ìĿ¼ê¹Į":11087,"ĠìŀĲëıĻì°¨":11088,"ìķłìĻĦëıĻë¬¼":11089,"íĻĶìĿ´íĬ¸ëį°ìĿ´ìĹĲ":11090,"ĠëĤ´ë¦¬ëĬĶê²Į":11091,"ĠëĤ´ëĶĽ":11092,"Ġìĭľê°ĦëĤŃë¹Ħ":11093,"ìĪĺì²ľë²Ī":11094,"Ġê°ĢëŁīìĿĺ":11095,"ë¹Ħìĺ¤ëĬĶëĤł":11096,"ë¹ĦíĬ¸ì½ĶìĿ¸":11097,"Ġê³ĦìĤ°ìłģìĿ¸":11098,"ĠìĺĪì¸¡":11099,"Ġëĵ¤ìĸ´ë§ŀëĤĺë´ħëĭĪëĭ¤":11100,"Ġêµ¬ë§¤":11101,"Ġì¡°ê¸ĪìĿ´ëĤĺë§Ī":11102,"Ġê²°íĺ¼ìłģëł¹ê¸°ìĺĪìļĶ":11103,"Ġë¯¸ìĨĮì§ĵê²Į":11104,"ĠíĻĶìĿ´íĬ¸ëį°ìĿ´":11105,"ĠìľłíĨµê¸°íķľìĿ´":11106,"Ġëĭ¤ëıħìĹ¬ì£¼ìĦ¸ìļĶ":11107,"ìĨĲê°ĢëĿ½ìĿ´":11108,"íĽĶì³Ĳë³´ëĬĶ":11109,".!":11110,"14":11111,"15":11112,"?.":11113,"Aíĺķ":11114,"ABíĺķ":11115,"CC":11116,"Dì¹´ëĵľ":11117,"Oíĺķ":11118,"SDì¹´ëĵľ":11119,"go":11120,"¡ł":11121,"¡ì¡Įìĸ´":11122,"£°":11123,"£¸":11124,"£½ì§Ģ":11125,"£ë¶Ģë¥´":11126,"¤ëĭĪ":11127,"¤ë¦´":11128,"¤ìħĶ":11129,"¥ľ":11130,"¥ì£¼":11131,"¥íĥĢ":11132,"¥ì§ĢëıĦ":11133,"¥ì³Ĳ":11134,"¥íĹ¥":11135,"¦´":11136,"¦½ëĭĪëĭ¤":11137,"¦´ê¹Į":11138,"¦¿ë¹Ľ":11139,"§İ":11140,"§ŀ":11141,"§ë¬¼":11142,"§ê¹ĢìĹĲ":11143,"¨¸":11144,"¨Į":11145,"¨ìĿ´":11146,"¨ëĤĺë´ĲìļĶ":11147,"©Į":11148,"«ëĦ¤":11149,"¬ìķĦ":11150,"¬ê¹Į":11151,"¬ê¸Ī":11152,"®¤ëĭĪ":11153,"¯¸ë¦¬":11154,"¯¸ë¡ľ":11155,"°¤":11156,"°ľ":11157,"°ë¨¸ë¦¬":11158,"±ìĭł":11159,"±ìĭľëıĦ":11160,"²ħ":11161,"³¶":11162,"´ê³ł":11163,"´ê¸¸":11164,"´ë°±":11165,"¶ĢëŁ¬":11166,"·Ķ":11167,"¸ê¸°ê°Ģ":11168,"¹µ":11169,"¹ìĿĦ":11170,"¹ìĬ¤":11171,"¹íķĺëĦ¤":11172,"¹ê¸Ģ":11173,"¼ëĬĶ":11174,"¼ëĭ¤":11175,"¼ê¸Ī":11176,"¼íĬ¸":11177,"¼ìĨĲìŀ¡":11178,"½ķ":11179,"½Ģë":11180,"½ìĦľë¥¼":11181,"¿ħ":11182,"ê¶Į":11183,"ë£½ì§Ģ":11184,"ìĩ":11185,"ì¨Į":11186,"íī":11187,"íľ":11188,"Ġ!":11189,"Ġ,":11190,"Ġ?":11191,"Ġãħľãħľ":11192,"ĠâĢ¦":11193,"ĢìĿĦ":11194,"Ģê²Į":11195,"Ģì§Ħ":11196,"ĢìĿµ":11197,"ģ¼":11198,"ģĪ":11199,"ģíħ":11200,"Ĥ©":11201,"ĤìĿ´":11202,"ĥë§Į":11203,"Ħ¹":11204,"ħíķ´":11205,"ħíķĺê³ł":11206,"ħëĪ":11207,"ħë¹Ħ":11208,"ħ¸ëŀĺë°©":11209,"ĩ¨":11210,"ĩë°ĶíĢ":11211,"Īħ":11212,"ĪìĹĲ":11213,"ĪëıĦ":11214,"Īìĩ¼íķĳ":11215,"Īìķ¡":11216,"īëª¨ìĬµ":11217,"īíĬ¸ë¡ľ":11218,"Ĭĺë§Į":11219,"ĭ´":11220,"ĭ¹ìĿĦ":11221,"Įĵ":11222,"ĮĶ":11223,"Įìĸ´":11224,"įë¶Ģ":11225,"ıì»·":11226,"ı¼ëĦ¤":11227,"ĲìĹĲ":11228,"Ĳë³¼ê¹Į":11229,"Ĳê¹Ĳ":11230,"ĲĲëĬĶëį°":11231,"ĲëŁ¬ë":11232,"Ĳ¬ëĦ¤":11233,"ĳĶ":11234,"ĳ¤ìħĶ":11235,"ĴìĿĢ":11236,"ĴìĿ´ì£ł":11237,"ĵ£":11238,"ĵ¬":11239,"ĵë§Ĳ":11240,"Ķľ":11241,"ĶëŁ¬ë":11242,"Ķì£Ħ":11243,"ĶìĻĢìĦľ":11244,"ķì§Ģ":11245,"ķëıĦ":11246,"ķì½ķ":11247,"ĸìĹĲìĦľ":11248,"ĺìĸ´":11249,"ĺìĶ":11250,"ĺìĿĦê¹Į":11251,"ĺê»ĺ":11252,"ĻìĹ½":11253,"ļìĿĦ":11254,"Ľìĺ¤":11255,"ľëĶĶ":11256,"ľìĶ¨":11257,"Ŀł":11258,"ĿíĬ¸":11259,"łìľ¼ë¡ľ":11260,"łµëĭĪëĭ¤":11261,"łíĺķìĿ´":11262,"ŃìĿ´":11263,"Ńê·":11264,"Ńê¸¸":11265,"Ńë°ľ":11266,"Ġì¸":11267,"Ġìİ":11268,"Ġìį°":11269,"Ġì©Į":11270,"Ġìĳ¤ìħĶ":11271,"Ġë¥¼":11272,"ĠëĿ¼":11273,"ĠëĥĲ":11274,"Ġë½Ģë":11275,"ĠëĮĵ":11276,"ìĿĺëıĦ":11277,"íķĢ":11278,"íķ¸ëĵľ":11279,"ìļ¸ë¦¬ëĬĶ":11280,"ìļ¸ëķĮ":11281,"ìļĶê°Ģ":11282,"ìļĶë¦¬":11283,"ìļĶìĿ¼ìĿ´":11284,"Ġê¶ģ":11285,"Ġêº¼ë":11286,"ìĿ´íķľ":11287,"ìĿ´ìŀĲ":11288,"ìĿ´ëł":11289,"ìĿ´ë§Ī":11290,"ìĿ´ë¥¸":11291,"ìĿ´ìĪĺ":11292,"ìĿ´ìľł":11293,"ìĿ´ê²¨":11294,"ìĿ´ìĦ±":11295,"ìĿ´ì§Ģë§Į":11296,"ìĿ´ìļ©":11297,"ìĿ´ê²ĥ":11298,"ìĿ´ê¸°ê°Ģ":11299,"ìĿ´ë°ľ":11300,"ìĿ´ì§ĢìļĶ":11301,"ìĿ´ëĥĲ":11302,"ìĿ´ìĽĥ":11303,"ìĿ´ìĦ±ìĿ´":11304,"ìĿ´ìĤ¬ê°Ģ":11305,"ìĿ´ìĺĢìĸ´":11306,"ìĿ´ì§Ħì§Ģ":11307,"ìĿ´ë²¤":11308,"ìĿ´ìĻĢìļĶ":11309,"ìĿ´ëª¨íĭ°":11310,"ìĿ´ìĻķìĿ´ë©´":11311,"ìĿ´íķĢ":11312,"ĺëĮĢë¡ľ":11313,"ĺë£Į":11314,"ĺëĭ´":11315,"ìķĬìĿĢ":11316,"ê°ļìĿĦ":11317,"ì§łìľ¼ë¡ľ":11318,"ëĭĺëĵ¤":11319,"ĬĶì§Ģ":11320,"ìĦ¯":11321,"ìĦ¤ë":11322,"ìĦ¬ìľł":11323,"ìĦ¬ìľłìľłìĹ°ìłľ":11324,"ìĦ¹ìĬ¤":11325,"ìĸ´ì§Ħ":11326,"ìĸ´ë¥¸":11327,"ìĸ´ìł¸":11328,"ìĸ´ìĺ¤":11329,"ìĸ´ìłľê°Ģ":11330,"ìĸ´ê°ĢëĬĶ":11331,"ìĸ´íĶĮ":11332,"ìĸ´ìŀĪëĬĶ":11333,"ìĸ´ìķ¼ì£ł":11334,"ìĸ´ìł¸ìļĶ":11335,"ìĸ´ìĭ±":11336,"ìĸ´ë³´ìķĦìļĶ":11337,"ìĸ´ë¨¹ìĿĦ":11338,"ìĸ´ì¨Į":11339,"ìĸ´ìļ¸ë¦¬ëĬĶ":11340,"ê²ľ":11341,"ê²Ģì§Ħ":11342,"ìĹ¿":11343,"ìĹĪë":11344,"ìĹ¼ë":11345,"ìĹĪëĮĢ":11346,"ëĤ©ëĭĪëĭ¤":11347,"ëĤĻìĹ½":11348,"ì§Ģì¹ľ":11349,"ì§Ģìĥģ":11350,"ì§ĢìĽĮ":11351,"ì§Ģê²łì§Ģ":11352,"ì§ĢìĭĿ":11353,"ì§ĢëĤĺìļĶ":11354,"ì§Ģë¦Ħ":11355,"ì§Ģì¼ľ":11356,"ì§Ģë§Ŀ":11357,"ì§Ģê²¹":11358,"ì§ĢëŁ¬ìĽĮ":11359,"ì§Ģìķķ":11360,"ì§Ģê·¹íŀĪ":11361,"¬ë¡ľ":11362,"¬ëŁ¬":11363,"¬ëįľ":11364,"¬ë½ķ":11365,"íķ´ë³´":11366,"íķ´ëĭ¹":11367,"íķ´ìĦł":11368,"íķ´ë³´ê³ł":11369,"íķ´ì¡Įìĸ´":11370,"íķ´ì§Ģì§Ģ":11371,"íķ´ë³´ë©´":11372,"íķ´ìĺ¤ìĦ¸ìļĶ":11373,"íķ´ëĵľìĦ¸ìļĶ":11374,"íķ´ë´¤":11375,"íķ´ëĨĵ":11376,"ìŀĩ":11377,"Ġìŀ¤ë":11378,"Ġìŀĩëª¸":11379,"ìķĦëĬĶëį°":11380,"ìķĦì§Ī":11381,"ìķĦìĿ´ëĿ¼":11382,"ìķĦë¦´":11383,"ìķĦíľ´":11384,"ìķĦìĿ´ëĬĶ":11385,"ìķĦëł¨":11386,"ìķĦìĽĥ":11387,"ìķĦë³¼":11388,"ìķĦëĵ¤ìĿĦ":11389,"ìķĦìī½":11390,"ìķĦë¦Ħëĭµ":11391,"ìķĦìŀĪì§Ģ":11392,"ìķĦìĿ´ëĶĶ":11393,"ìķĦìļ¸ëłĽ":11394,"ê°ĢìĿĺ":11395,"ê°ĢìĽĮ":11396,"ê°ĢëĬĶê²Į":11397,"ê°Ģìļ¸":11398,"ê°Ģìķ¼ì§Ģ":11399,"ê°Ģì¹ĺ":11400,"ê°ĢìŀĲê³ł":11401,"ê°Ģì§Ģê³ł":11402,"ê°Ģì§Ĳ":11403,"ê°Ģë°©":11404,"ê°Ģì¶ľ":11405,"ê°Ģìŀħ":11406,"ê°Ģë¦¬ë©´":11407,"ê°ĢëĿ¼ëĬĶ":11408,"ê°Ģë§ĮíŀĪ":11409,"ìĦ¸ê°Ģ":11410,"ìĦ¸ê¸Ī":11411,"ìĦ¸ë¶Ģ":11412,"ìĦ¸ìĪĺ":11413,"ìĦ¸ëĭ¤ê³ł":11414,"ìĦ¸ê³Ħ":11415,"ìĦ¸ë±ĥ":11416,"ìĦ¸ìļ°ì§Ģ":11417,"ìĦ¸ëįĶëĿ¼êµ¬ìļĶ":11418,"ëĬĶê±°ìĺĪìļĶ":11419,"ëĬĶê²ĥ":11420,"ê³łëĬĶ":11421,"ê³łê¸°":11422,"ê³łëį°":11423,"ê³łë§Į":11424,"ê³łìŀ¥":11425,"ê³łêµ¬ë":11426,"ê³łìŀĳ":11427,"ê³łì§ĳ":11428,"ê³łë¬¸":11429,"ê³łíĨµ":11430,"ê³łìŀ¥ìĿ´":11431,"ê³łì¹ĺê³ł":11432,"ìĿĦê±°":11433,"ìĿĦìĪĺ":11434,"ìłĬ":11435,"ìłĿíĬ¸":11436,"ĠíĮĢ":11437,"ë³ķ":11438,"ë³¼ë":11439,"Ġë§ĺëıĦ":11440,"Ġë§¥ì£¼":11441,"Ġë§ĺëĮĢë¡ľ":11442,"ëĭ¤ë³´ìĦ¸ìļĶ":11443,"ëĭ¤ìĭł":11444,"ëĭ¤ëĬĶëį°":11445,"ëĭ¤íģ¬":11446,"ëĭ¤ìĿ´ìĸ´":11447,"ëĭ¤ìľ¡":11448,"ëĭ¤ì¹ĺì§Ģ":11449,"ëĭ¤ìłķíķľ":11450,"ëĭ¤ëĵ¬":11451,"Ġìķ±ìĿ´":11452,"ĠìķķëĭĪëĭ¤":11453,"íķĺëĤ´":11454,"íķĺë¥¼":11455,"íķĺëĵł":11456,"íķĺëĿ¼":11457,"íķĺëįĶëĿ¼":11458,"íķĺëĬĺë§Į":11459,"ê¸¸ëŁ¬ë":11460,"ìĭ¼ëį°":11461,"ë§¹":11462,"íķĺíķĺ":11463,"íķĺêµ¬":11464,"íķĺìĨĮ":11465,"íķĺìŀĲëĬĶ":11466,"íķĺíĴĪ":11467,"íķĺê°Ŀ":11468,"ìĹĲëĦĪ":11469,"Ġê°Ŀ":11470,"Ġê°ĴìĿ´ì£ł":11471,"ê²Įë¥¼":11472,"ê²ĮìĹĲìĦľ":11473,"ê²Įíĥķ":11474,"ê²ĮìĬ¤íĬ¸":11475,"ìĺĽ":11476,"ìĺĢëįĶëĿ¼":11477,"¸ëª¨":11478,"¸ë°ĺ":11479,"ìĿĢì§Ģ":11480,"ìĿĢíĸīìĹĲ":11481,"ëıĦíķ´":11482,"ëıĦíķĺìĦ¸ìļĶ":11483,"ëıĦíĶ¼":11484,"ëıĦë¦¬ëĬĶ":11485,"ëıĦë§Ŀ":11486,"ëıĦìĹ¼":11487,"ĠìĹĩê°Īë":11488,"ë³´ê¹Į":11489,"ë³´ëĬĶëį°":11490,"ë³´ê¸¸":11491,"ë³´íķĺìĦ¸ìļĶ":11492,"ë³´ìķĪ":11493,"ë³´ì¡°":11494,"ë³´íĹ":11495,"ë³´ëĭ¨":11496,"ë³´ì¦Ŀ":11497,"ë³´ìĿ´ëĦ¤":11498,"ë³´ìĿ¼ë":11499,"ë³´ê¸°ë§Į":11500,"ë³´ë¦Ħëĭ¬":11501,"ĠìŀĪëĭĪ":11502,"ĠìŀĪì§ĢëĬĶ":11503,"ĠìŀĪê²łì§ĢìļĶ":11504,"ĠìŀĪëĭ¤ëĭĪ":11505,"ĠìŀĪëĮĢìļĶ":11506,"ĠìŀĪìĸ´ëĵľë¦´ê²ĮìļĶ":11507,"ĠìŀĪìĹĪëįĺ":11508,"ĠìŀĪìľ¼ìĭł":11509,"ê¹ĥë§Į":11510,"ê¹ħíķĺê³ł":11511,"íķľìŀĲ":11512,"íķľìłģ":11513,"íķľë³µ":11514,"íķľìĤ¬ëŀĮ":11515,"íķľëĭ¤ëĬĶ":11516,"íķľê±¸ê¹Į":11517,"íķľë§Įíģ¼":11518,"íķľê±´ì§Ģ":11519,"íķľìĪľê°Ħ":11520,"íķľëķĮëĬĶ":11521,"íķľìª½":11522,"íķľì¼ł":11523,"Īëĵ¤":11524,"Ġì¢ĭê±°ëĤĺ":11525,"Ġì¢ĭìķĺìĸ´":11526,"Ġì¢ĭìķĺëįĺ":11527,"Ġì¢ĭê²łëĭ¤ê³ł":11528,"Ġì¢ĭëįĶëĿ¼ëıĦ":11529,"ê¹Įë¨¹":11530,"ê¹Įë¨¹ê³ł":11531,"ê¹Įìĺ·":11532,"ìŀĲìķĦ":11533,"ìŀĲëıĦ":11534,"ìŀĲíķľ":11535,"ìŀĲëĭĪ":11536,"ìŀĲìłľ":11537,"ìŀĲë©´":11538,"ìŀĲìĻĢ":11539,"ìŀĲìľł":11540,"ìŀĲê¸°ë¥¼":11541,"ìŀĲëĿ¼ëıĦ":11542,"ìŀĲë£Į":11543,"ìŀĲìŀ¥ë©´":11544,"ìŀĲì¡´ìĭ¬":11545,"ìŀĲìľ¨":11546,"ìŀĲìĿ´ëĦĪ":11547,"ìŀĲìĦ¸ê°Ģ":11548,"ĠëĤ©ëĭĪëĭ¤":11549,"ĠëĤ¬ìĸ´":11550,"ĠëĤ¬ìľ¼ë©´":11551,"ì£ĦëĬĶ":11552,"Ġê±°ìĬ":11553,"Ġê±°ë¦¬ë":11554,"Ġê±°ë¦´":11555,"Ġê±°ë¦¬ê°Ģ":11556,"Ġê±°ëĳ¬ë":11557,"Ġìĭ¬ë":11558,"Ġìĭ¸ë":11559,"Ġìĭ¸ë©´":11560,"ĠìĿ¸ëıĦ":11561,"ê¸°íķĺëĬĶ":11562,"ê¸°êµ¬":11563,"ê¸°ëĦ¤ìļĶ":11564,"ê¸°ìłķ":11565,"ê¸°ë©´":11566,"ê¸°ìļ°":11567,"ê¸°ë¶Ģ":11568,"ê¸°ì°¨":11569,"ê¸°ëĮĢë":11570,"ê¸°ìĪł":11571,"ê¸°ìģľ":11572,"ê¸°ì¹¨":11573,"ê¸°ì°¬":11574,"ê¸°ê²¬":11575,"ê¸°ëĬ¥":11576,"ê¸°íļį":11577,"ê¸°íĬ¹":11578,"ê¸°ìĪłìĿ´":11579,"ê¸°ìŀĲëŀĳ":11580,"ê¸°ì´ĪëĮĢ":11581,"ëĿ°":11582,"ëĭĪê³ł":11583,"ëĭĪëıĦ":11584,"ëĭĪìĿĺ":11585,"ëĭĪì¦ĺ":11586,"ëĭĪê¹Ĳ":11587,"¼ë¬´":11588,"¼ëįĺ":11589,"¼ë°Ľ":11590,"¼ëĨĵì§Ģ":11591,"ìĦľíŀĪ":11592,"ìĦľë¹Ħ":11593,"ìĦľìłĲ":11594,"ìĦľë¶ĢíĦ°":11595,"ìĦľíģ´":11596,"ìĦľìłĲìĹĲìĦľ":11597,"ìĦľíĪ´":11598,"ìĦľë¥ĺìĹĲìĦľ":11599,"êµ³ìĿ´":11600,"ëĦ¤ê°Ģ":11601,"ì¹¼":11602,"ì¹©ëĭĪëĭ¤":11603,"ìĺĪë³´":11604,"ìĺĪìģł":11605,"ìĺĪìĿĺëĬĶ":11606,"ĵ¤ì§Ģ":11607,"ĵ¤ìĿĦ":11608,"ëĤĺì£ł":11609,"ëĤĺìłĢ":11610,"ëĤĺìĻĢ":11611,"ëĤĺê¸´":11612,"ëĤĺìķ½":11613,"ëĤĺìģĺ":11614,"ëĤĺìĺ¬":11615,"ëĤĺê°ĢìĦ¸ìļĶ":11616,"Ġë°ī":11617,"Ġë°ĺìĿ´":11618,"Ġë°ķëıĦ":11619,"Ġë°ĸìĹĲìĦľ":11620,"¬´ë¦¬ê°Ģ":11621,"ëį°ìĿ´íĬ¸ë":11622,"ìķ¼íķľëĭ¤ëĬĶ":11623,"ê·¼ëį°":11624,"íķłê±°":11625,"íķłë§Ĳ":11626,"íķłì§ĢëıĦ":11627,"íķłìĪĺë¡Ŀ":11628,"íķłëķĲ":11629,"íķłë§Įíķľ":11630,"ĠìĤ¬ëŀĮë³´ëĭ¤":11631,"ĠìĤ¬ëŀĮìŀħëĭĪëĭ¤":11632,"ĠìĤ¬ëŀĮìĿ¸ê°Ģ":11633,"ĠìĤ¬ëŀĮìĿ¸ì§Ģ":11634,"ĠìĤ¬ëŀĮë§Īëĭ¤":11635,"Ġëĭ¥ì³Ĳ":11636,"ĠëĭŃë°ľ":11637,"ëłĪë¥¼":11638,"´Ĳë³´ìĦ¸ìļĶ":11639,"Ġì§°ìĸ´":11640,"Ġì§¬ë½ķ":11641,"ĠìĿ´ê²Į":11642,"ĠìĿ´ë¥¼":11643,"ĠìĿ´ëŀ":11644,"ĠìĿ´ê¸¸":11645,"ĠìĿ´íĽĦ":11646,"ĠìĿ´ì¹ĺ":11647,"ĠìĿ´ëĿ¼ê³ł":11648,"ĠìĿ´ë²Ī":11649,"ĠìĿ´ëĮĢë¡ľ":11650,"ĠìĿ´ëª¨íĭ°":11651,"ĠìĿ´ìĻķìĿ´ë©´":11652,"Ģëĵ¯":11653,"Ģë¯¸":11654,"Ģë¸Ķ":11655,"Ģë¹Ī":11656,"Ġê°Ļì£ł":11657,"Ġê°ĻìĿĦê¹Į":11658,"Ġê°Ļê¸°ëıĦ":11659,"Ġê°ĻìĿĮìĿĦ":11660,"ìĽ¹íĪ°":11661,"ĠìłĪë":11662,"ìĿĮë§Į":11663,"ìĿĮìĭĿ":11664,"ìĿĮìĿ´ì£ł":11665,"ìĿĮìĿ´ëĤĺ":11666,"ìĿĮë°¥":11667,"ìĿĮë£Į":11668,"ìĿĮìĭĿìĿĦ":11669,"ë§ĮíķĺëĬĶ":11670,"ë§ĮëĳĲ":11671,"ë§Įëĵ¤ìĸ´ìĦľ":11672,"Ġíķ´ì¤":11673,"Ġíķ´ëĨ":11674,"Ġíķ´ìĻ¸":11675,"Ġíķ´ë³´ëĬĶê²Į":11676,"Ġíķ´ëĵľìĦ¸ìļĶ":11677,"Ġíķ´ì¤¬ìĸ´":11678,"Ġíķ´ë´ĲëıĦ":11679,"Ġíķ´ëĤ¸":11680,"Ġíķ´ìķ¼ëĲ":11681,"Ġíķ´ë²Ħëł¸ëĦ¤":11682,"ëĤĺëĭĪ":11683,"ëĤĺëŀĢ":11684,"ëĤĺë°Ķ":11685,"ì¹ľíķĺê²Į":11686,"¤ë®¤ëĭĪ":11687,"ìĿ¸ìĿĢ":11688,"ìĿ¸ìĥģ":11689,"ìĿ¸ìĤ¬":11690,"ìĿ¸ìľ¼ë¡ľ":11691,"ìĿ¸ê±´":11692,"ìĿ¸ëĭ¤ê³ł":11693,"ìĿ¸ê±¸":11694,"ìĿ¸ë³´ëĭ¤":11695,"ìĿ¸ì§ĢëĬĶ":11696,"ìĿ¸ê¸°ê°Ģ":11697,"ìĿ¸ê°ķ":11698,"ìĿ¸ìĤ¬ë":11699,"ìĿ¸ì²Ļ":11700,"ìĿ¸ìĬ¤íĥĢ":11701,"ìĿ¸ìŀĲê°Ģ":11702,"ìĿ¸ë³µìĿ´":11703,"ŀĺëĿ¼":11704,"ŀĺëĭ¤":11705,"ŀĺë´¤":11706,"ê°ģíķľëį°":11707,"ĠìĥĿë¦¬íĨµ":11708,"ìĭľëĦ¤ìļĶ":11709,"ìĭľëĬĶëį°":11710,"ìĭľìĥĿ":11711,"ìĭľëĤĺë´ĲìļĶ":11712,"ìĭľíĬ¸":11713,"ìĭľëĿ¼ê³ł":11714,"ìĭľíĶ¼":11715,"ìĭľê¸°ê°Ģ":11716,"ìĭľëĪĦ":11717,"ìĭľê¸ī":11718,"ìĭľíĤ¤":11719,"ìĭľíĶ¼ë":11720,"ìĭľìŀĳìĿĢ":11721,"ìĭľê³¨":11722,"ìĭľìĥĿìĿ¸ëį°":11723,"ìĭľíĤ¬":11724,"ìĿĺíķ´":11725,"ìĿĺìŀĲ":11726,"ìĿĺìĿ¸ì§Ģ":11727,"ìĿĺìĻ¸ë¡ľ":11728,"ìĿĺíķľëĭ¤ë©´":11729,"ìĿĺìŀĲë¥¼":11730,"ë°ī":11731,"ë°ĳ":11732,"ë°Ńê¸¸":11733,"ĠìķĦìĦ¸ìļĶ":11734,"ĠìķĦìĺĪ":11735,"ĠìķĦìŀ¬":11736,"ĠìķĦìĭ¸":11737,"ĠìķĦìĿ´ëĭ¤":11738,"ĠìķĦìĿ´ìĬ¤":11739,"ĠìķĦì¤Į":11740,"ĠìķĦìĿ´ëĶĶ":11741,"ĠìķĦìļ¸ëłĽ":11742,"ĠìķĦìĭľëĦ¤ìļĶ":11743,"ĠìĹĨìĿĮ":11744,"ĠìĹĨìĹĪìĸ´":11745,"ĠìĹĨê±°ëĤĺ":11746,"ĠìĹĨìĹĪëĬĶëį°":11747,"ĠìĹĨìĹĪëįĺ":11748,"ĠìĹĨê±°ëĵł":11749,"ëĿ¼ëĭĪ":11750,"ëĿ¼êµ¬":11751,"Ġê·¤":11752,"Ġê·ľ":11753,"Ġê·¼ëį°":11754,"Ġê·łíĺķìĿ´":11755,"Ġê·¼ë¬´":11756,"ê±°ëĭ¤":11757,"ê±°ëĭĪ":11758,"ê±°ë¡ľ":11759,"ê±°ìĹĲìĦľ":11760,"ê±°ëĿ¼ê³ł":11761,"ê±°ë¦¬ëĬĶ":11762,"ê±°ìĽĮìļĶ":11763,"ê±°ë¦¬ê³ł":11764,"ê±°ëŀĢ":11765,"ê±°ì°½":11766,"ê±°ë¦ĦìĿ´":11767,"ê±°ê¾¸ë¡ľ":11768,"ê±°ë¦¬ì§Ģë§ĪìĦ¸ìļĶ":11769,"Ġì¢ĭìķĦíķĺì§Ģ":11770,"Ġì¢ĭìķĦì¡Į":11771,"Ġì¢ĭìķĦíķ´ìĦľ":11772,"Ġì¢ĭìķĦíķ´ì£¼ìĦ¸ìļĶ":11773,"Ġë§Īì¹ĺ":11774,"Ġë§Īì°¬":11775,"íĸĪë":11776,"íĸĪëĮĢ":11777,"ìĿ¼ìĸ´":11778,"ìĿ¼ì§Ģ":11779,"ìĿ¼ë§Į":11780,"ìĿ¼íķĺê³ł":11781,"ìĿ¼íķ´ìļĶ":11782,"ìĿ¼ìľ¼":11783,"ìĿ¼ìĿ´ìķ¼":11784,"ìĿ¼ìĹĲëĬĶ":11785,"ìĿ¼ìĿ´ëŀĳ":11786,"ìĿ¼ìĿ´ëĿ¼ëıĦ":11787,"ìĿ¼ìĿ´ëĦ¤":11788,"ìĿ¼êº¼":11789,"ìĿ¼ìĥģìĿĦ":11790,"ìĿ¼ìĪĺëıĦ":11791,"ìĿ¼ë§ģ":11792,"ìĿ¼ìļĶìĿ¼ìĿ´":11793,"ìĿ¼ìĿ¸ìŀĲê°Ģ":11794,"íĺĲ":11795,"íĺĢë":11796,"Ġìĭ¶ê³ł":11797,"Ġìĭ¶ìĿĦ":11798,"Ġìĭ¶ëĮĢ":11799,"Ġìĭ¶ìĹĪëĬĶëį°":11800,"Ġìĭ¶ìĹĪëįĺ":11801,"êµ¬ê°Ģ":11802,"êµ¬ëĭĪ":11803,"êµ¬ì£ł":11804,"êµ¬íķĺìĦ¸ìļĶ":11805,"êµ¬ì§Ī":11806,"êµ¬ì³Ĳ":11807,"êµ¬ìį¸ëĤ¨":11808,"êµ¬êº¼ë":11809,"ìłķëĵ¤":11810,"ìłķíķĺê²Į":11811,"ìłķë¦¬ë":11812,"ìłķìĪĺë":11813,"ìłķìĥī":11814,"ìłķë¦¬ë¥¼":11815,"ìłķê¸Ģ":11816,"ìłķíķ´ìł¸":11817,"ìłķìĦ±ìĿ´":11818,"ìłķëĭµìĿĦ":11819,"ìłķìłģìĿ´ê³ł":11820,"ë¦¬ìĺĪìļĶ":11821,"ë¦¬ìĭľê¸¸":11822,"ë¦¬ì¹´ëĵľ":11823,"ìĭłìĿĢ":11824,"ìĭłìĦł":11825,"ëĤ¨ìĿ´":11826,"ëĤ¨ë³´ëĭ¤":11827,"ëĤ¨ìŀĶ":11828,"ëĤ¨ëıĻìĥĿíķľíħĮ":11829,"ì°¢":11830,"ì°¹íķĺëĦ¤":11831,"ì°ĶëŁ¬ë":11832,"Ġê²ĥìĿ¼":11833,"Ġê²ĥê³¼":11834,"Ġê²ĥë¶ĢíĦ°":11835,"Ġê²ĥê°ĻìķĦ":11836,"Ġìĸ´ë¥¸":11837,"Ġìĸ´ìŀ¥ìĿĦ":11838,"ìłľíķĺëĬĶ":11839,"ìłľê¸¸":11840,"ìłľì°¨":11841,"ìłľì²ł":11842,"ì£¼ìłķ":11843,"ì£¼ëĬĶëį°":11844,"ì£¼ëĤĺë´ĲìļĶ":11845,"ì£¼ìĨĮ":11846,"ì£¼ê¸´":11847,"ì£¼ìľĦ":11848,"ì£¼ëĭ¤ê°Ģ":11849,"ì£¼ìĿ¼ì§¸":11850,"ì£¼ê°Ģì§Ģ":11851,"ì£¼ìłķëıĦ":11852,"ì£¼ìłľë¥¼":11853,"ì£¼íķłê±°ìķ¼":11854,"ì£¼ìĭľëĭ¤ëĭĪ":11855,"ì£¼ìĭ¤ê±°ìĺĪìļĶ":11856,"Ġìĺ®":11857,"ĠìĺµëĭĪëĭ¤":11858,"įĶêµ°":11859,"ĠìĥĿê°ģì§Ģ":11860,"ĠìĥĿê°ģíķ´ìķ¼":11861,"ĠìĥĿê°ģíķ´ì£¼ìĦ¸ìļĶ":11862,"ĠìĥĿê°ģíķĺê¸°":11863,"ĠìĥĿê°ģìŀħëĭĪëĭ¤":11864,"ĠìĥĿê°ģìĿ¸ì§Ģ":11865,"ĠìĥĿê°ģíĸĪìĸ´ìļĶ":11866,"ĠìĥĿê°ģëĵ¤ìĿĦ":11867,"ĠìĥĿê°ģíķľëĭ¤ë©´":11868,"ĠìĥĿê°ģëĤľëĭ¤":11869,"ĠìĥĿê°ģíķĺë©°":11870,"ĠìĥĿê°ģíĸĪëĤĺë´Ĳ":11871,"ĠìĥĿê°ģíķľëĭ¤ê³ł":11872,"ĠìĥĿê°ģëĤľëĭ¤ë©´":11873,"ëŀŃìĿ´":11874,"ëŀĢëĵ¯":11875,"íķĺê³łìŀĪìĸ´ìļĶ":11876,"ĠìķĬëĭ¤":11877,"ĠìķĬëĤĺ":11878,"ĠìķĬê²łì£ł":11879,"ĠìķĬëĭ¤ë©´":11880,"ĠìķĬëĭ¤ê³ł":11881,"ĠìķĬìĿĢëį°":11882,"ĠìĪĺê±´":11883,"ĠìĪĺìĪľ":11884,"ĠìĪĺìĹĨìĿ´":11885,"ĠìĪĺìļĶìĿ¼":11886,"ĠìĪĺíķĻìĹ¬íĸī":11887,"íĻĪìĩ¼íķĳ":11888,"Ġê±į":11889,"ê°Ħëĭ¹":11890,"ê°ĦìĭĿ":11891,"ê°Ħëĭ¤ê³ł":11892,"ê°Ħìłĳ":11893,"Ġë§Įë³´":11894,"Ġë§ĮìĿĺ":11895,"Ġë§Įìł¸":11896,"Ġë§Įíķĺì£ł":11897,"Ġë§ĮëĵľìĦ¸ìļĶ":11898,"Ġë³´ì£ł":11899,"Ġë³´ìŀ¥":11900,"Ġë³´ìĪĺ":11901,"Ġë³´ê´Ģ":11902,"Ġë³´ëĭµ":11903,"Ġë³´ëĿ¼ê³ł":11904,"Ġë³´ëŀĢ":11905,"Ġë³´ìĹ¬ë³´ìĦ¸ìļĶ":11906,"Ġë³´ê¸°ë§Į":11907,"Ġë³´ìĿ´ìĦ¸ìļĶ":11908,"Ġë³´ìħ¨ëĤĺë´ĲìļĶ":11909,"Ġë³´ìĺĢìľ¼ë©´":11910,"Ġë³´ìĹ¬ëıĦ":11911,"Ġë³´ë¦Ħëĭ¬":11912,"Ġë³´ëĤ¼ê¹Į":11913,"Ġë³´ìŀĲëĬĶëį°":11914,"Ġë³´ëŀĢëĵ¯":11915,"ë³ĦìĿĢ":11916,"ë³Ħë¡ľ":11917,"ë³Ħëĭ¤ë¥¸":11918,"ë³Ħíķĺì£ł":11919,"Ġë§Ĳì§Ģ":11920,"Ġë§Ĳíķĺê³ł":11921,"Ġë§Ĳëĵ¤":11922,"Ġë§Ĳë³´ëĭ¤":11923,"Ġë§ĲìŀĲê³ł":11924,"Ġë§ĲíķĺëĬĶê²Į":11925,"Ġë§ĲìĿ´ëĿ¼ëıĦ":11926,"Ġë§ĲíĪ¬":11927,"Ġë§ĲíĸĪìľ¼ë©´":11928,"Ġë§ĲìĿ¸ê°ĢìļĶ":11929,"Ġë§Ĳë³´ëĭ¤ëĬĶ":11930,"Ġë§ĲìķĺëĦ¤":11931,"Ġë§ĲëŀŃìĿ´":11932,"Ġê°ĢëĦ¤":11933,"Ġê°Ģì£ł":11934,"Ġê°ĢìĤ¬":11935,"Ġê°ĢìĬµ":11936,"Ġê°Ģë¥´":11937,"Ġê°ĢìĪĺ":11938,"Ġê°ĢëĭĪê¹ĮìļĶ":11939,"Ġê°ĢëĿ¼ê³ł":11940,"Ġê°Ģë³¼ê¹Į":11941,"Ġê°Ģë³´ëĬĶ":11942,"Ġê°Ģë¦¬ëĬĶ":11943,"Ġê°Ģìŀ¬":11944,"Ġê°Ģìķ¼ì£ł":11945,"Ġê°Ģìķ¼ê²łëĭ¤":11946,"Ġê°Ģìł¸ëıĦ":11947,"Ġê°Ģìł¸ë":11948,"Ġê°Ģê²ĮìĹĲìĦľ":11949,"ë©´ìĦ¸":11950,"ë©´ìĹĲ":11951,"ë©´ê³¼":11952,"ë©´íķĺê²łëĦ¤ìļĶ":11953,"Ġëĭ¤íķľ":11954,"Ġëĭ¤ë¦¬":11955,"Ġëĭ¤ìļ´":11956,"Ġëĭ¤ê·¸":11957,"Ġëĭ¤íĸĪëĬĶëį°":11958,"Ġëĭ¤ì³¤ìĸ´":11959,"Ġëĭ¤íĸĪëĭ¤ë©´":11960,"ĠìĹ°ê¸°":11961,"ĠìĹ°ìĹ°":11962,"ìĤ¬ëŀĳë§Į":11963,"ìĤ¬ëŀĳìĹĲìĦľ":11964,"ìĤ¬ëŀĳíķ´ìļĶ":11965,"ìĤ¬ëŀĳíķĺê²Į":11966,"ìĤ¬ëŀĳìĹĨìĿ´":11967,"ìĤ¬ëŀĳìĿ´ëĿ¼ëĬĶ":11968,"ìĤ¬ëŀĳë°Ľê³ł":11969,"ìĤ¬ëŀĳë§Įìľ¼ë¡ľ":11970,"ìĤ¬ëŀĳë°ĽëĬĶ":11971,"ìĤ¬ëŀĳìŀĲê²©ì¦Ŀ":11972,"ìĤ¬ëŀĳíķĺëĤĺë´ħëĭĪëĭ¤":11973,"ìĤ¬ëŀĳê¾¼":11974,"ìĤ¬ëŀĳìĿ´ìĹĪìľ¼ëĭĪê¹ĮìļĶ":11975,"ìĤ¬ëŀĳíĸĪìľ¼ëĭĪê¹ĮìļĶ":11976,"ëĤ´ìĦ¸ìļĶ":11977,"ëĤ´ê²Į":11978,"ëĤ´ë¡ľ":11979,"ëĤ´ê¸¸":11980,"Ġì¤¬":11981,"Ġì¤¬ìĸ´":11982,"ĠìķĪìĿ´":11983,"ĠìķĪìłĦ":11984,"ĠìķĪì¢ĭìķĦ":11985,"ĠìķĪëĤł":11986,"ĠìķĪíķ´ìĦľ":11987,"ĠìķĪíķ´ìķ¼":11988,"ĠìķĪíķĺê¸°":11989,"ĠìķĪíķĺëĬĶê²Į":11990,"ĠìķĪì£¼ë":11991,"ĠìķĪìķĦìĦľ":11992,"ĠìķĪë§ŀ":11993,"ĠìķĪíĸĪìľ¼ë©´":11994,"ĠìķĪíķĺëł¤":11995,"ĠìķĪìĹ´":11996,"ĠìķĪíķľëĭ¤":11997,"ĠìķĪìĺ¤ë©´":11998,"ĠìķĪìłķìĿĦ":11999,"ĠìķĪíĸĩ":12000,"ĠìķĪìłĦíķĺì§Ģ":12001,"ĠìķĪìĿ½ìĶ¹":12002,"ĠìķĪëĤĺëĤĺë´ĲìļĶ":12003,"ĵľë¦¬ê³ł":12004,"ì¢ĭê²łëĦ¤ìļĶ":12005,"ì¢ĭìĿĦê¹Į":12006,"ì¢ĭìķĺìľ¼ë©´":12007,"ì¢ĭìľ¼ë©´ìĦľ":12008,"ì¤įê²Į":12009,"ì¤ĢëĮĢ":12010,"ìĪıì»·":12011,"ĠëĤĺìķĦìļĶ":12012,"ĠëĤĺê¸¸":12013,"ĠëĤĺê°Ĳ":12014,"ĠëĤĺê°Ī":12015,"ĠëĤĺê°ĢìļĶ":12016,"ĠëĤĺìľ¼ìĦ¸ìļĶ":12017,"ĠëĤĺìģĺê²Į":12018,"ĠëĤĺìĺ´":12019,"ĠëĤĺìģ¨":12020,"Ġë§İëĤĺë´ĲìļĶ":12021,"Ġë§İê²łìĸ´ìļĶ":12022,"Ġë§İê²łëĦ¤ìļĶ":12023,"Ġë§İëĭ¤ê³ł":12024,"Ġë§İìķĺìľ¼ë©´":12025,"Ġë§İìĿĦê±°ìĺĪìļĶ":12026,"Ġë§İëį°ìļĶ":12027,"Ġê¸Īë¬¼":12028,"ëł¤ìķ¼":12029,"ëł¤ì¤¬ëĬĶëį°":12030,"ë¡ľë§Ŀ":12031,"ë¡ľë´ĩ":12032,"ìĥģìĹĲ":12033,"ìĥģíķľ":12034,"ìĥģíĻĶ":12035,"ìĥģìĹĲìĦľ":12036,"ìĥģëĮĢë":12037,"ìĥģìŀħëĭĪëĭ¤":12038,"ìĥģìĿ´ëĿ¼ê³ł":12039,"ìĥģê²¬ë":12040,"ìĥģìĤ¬ë³ĳ":12041,"ìĥģìĿĺëıĦ":12042,"ëĬĶëį°ë¡ľ":12043,"ìĹ¬ìĿĺ":12044,"ìĹ¬ê¸°ë§Į":12045,"ìĹ¬ì§Ģë¥¼":12046,"ìĹ¬ëĭ¤ë³´ìĦ¸ìļĶ":12047,"ì¡¸ëł¤":12048,"ìĻĵ":12049,"ìĻłì§Ģ":12050,"ìĻ¼ìĨĲìŀ¡":12051,"Ġì°¼ëįĺ":12052,"íķĺì§Ģê°Ģ":12053,"íķĺì§ĢìķĬ":12054,"Ġë°Ķìģĺê²Į":12055,"Ġë°Ķì§Ģê°Ģ":12056,"Ġë°Ķë¥´ìĦ¸ìļĶ":12057,"ëĵ¤ìļĶ":12058,"ëĵ¤ë§Į":12059,"ëĵ¤ìĹĪìĸ´":12060,"ì§Ħíķľ":12061,"ì§Ħíķ´ìļĶ":12062,"ì§Ħìĭ¬ìĿĦ":12063,"ê·¸ëıĦ":12064,"ê·¸ëĮĢ":12065,"ê·¸ëŀĢ":12066,"ê·¸ë¦¼":12067,"ê·¸ëķĮëĬĶ":12068,"ê·¸ëŀĺë´¤":12069,"íħĢë¸Ķ":12070,"ĠìĭľìĦł":12071,"Ġìĭľì²Ń":12072,"Ġìĭľê¸ī":12073,"Ġìĭľë¦°":12074,"ĠìĭľëŁ½":12075,"ĠìĭľëĮĢëĬĶ":12076,"ĠìĭľëıĦíķ´":12077,"Ġìĸ´ëĶĺ":12078,"ìĹĪëĭ¤ë©´":12079,"ìĹĪëĭ¤ê³ł":12080,"ìĹĪìĿĦê¹Į":12081,"ìĹĪëĤĺë´ħëĭĪëĭ¤":12082,"Ġê·¸ëŀ":12083,"Ġê·¸ëŁ¼":12084,"Ġê·¸ëıĻìķĪ":12085,"ĠëĦĪë¬´ëĦĪë¬´":12086,"ĠëĦĪë¬´íķĺëĬĶê²Į":12087,"ĠìŀĲìĦ¸ìļĶ":12088,"ĠìŀĲëĭ¤":12089,"ĠìŀĲê²Į":12090,"ĠìŀĲìķ¼":12091,"ĠìŀĲê¸Ī":12092,"ĠìŀĲì·¨":12093,"ĠìŀĲì±ħ":12094,"ĠìŀĲëĿ¼ëıĦ":12095,"ĠìŀĲë¥´ëĬĶ":12096,"ĠìŀĲìķ¼ê²łëĭ¤":12097,"ĠìŀĲìľłê°Ģ":12098,"ĠìŀĲìŀ¥ë©´":12099,"ĠìŀĲìĦ¸íŀĪ":12100,"ĠìŀĲê´´ê°Ĳ":12101,"ĠìŀĲê·¹ìĿ´":12102,"ìĨĶìĻĢìĦľ":12103,"ìĨľìĶ¨":12104,"ê¸ĪíĨµ":12105,"ê¸ĪìĿ´ë©´":12106,"ê¸Īê°Ĵ":12107,"ê¸ĪìĪĺìłĢë¡ľ":12108,"ìķłê¸°":12109,"ìķłëĭĪ":12110,"ìķłê·¸":12111,"ìķłê¸°ê°Ģ":12112,"ìķłêµŃ":12113,"ìķłìĿ¸ìĿ´":12114,"ìķłìłĪíķľ":12115,"ĠìĤ¬ëŀĳíķ´ë³´ìĦ¸ìļĶ":12116,"ĠìĤ¬ëŀĳíķ´ëıĦ":12117,"ĠìĤ¬ëŀĳìĿ´ìķ¼":12118,"ĠìĤ¬ëŀĳíķ©ëĭĪëĭ¤":12119,"ĠìĤ¬ëŀĳíķĺëĬĶê²Į":12120,"ĠìĤ¬ëŀĳìĿ¸ê°Ģ":12121,"ĠìĤ¬ëŀĳíķ´ì¤ĺ":12122,"ĠìĤ¬ëŀĳíķ´ì£¼ëĬĶ":12123,"ĠìĤ¬ëŀĳìĿ´ëĿ¼ëĬĶ":12124,"ĠìĤ¬ëŀĳíķĺëĤĺë´ĲìļĶ":12125,"ĠìĤ¬ëŀĳìĿ´ìķ¼ê¸°":12126,"ë²¨ìĿ´":12127,"ĠìŀĪìĿĦê±°ëĿ¼":12128,"ĠìŀĪìĿĦìĪĺëıĦ":12129,"ĠëįĶëĶĶ":12130,"ĠëįĶìĹĨìĿ´":12131,"ĠìĦŀ":12132,"ìĹ°íķĺ":12133,"ìĹ°ìĥģ":12134,"ìĹ°ê¸Ī":12135,"ìĹ°íķĺê²Į":12136,"ìĹ°íľ´ê°Ģ":12137,"¹Ħì§ĳ":12138,"ìļ´ê°Ģë´ĲìļĶ":12139,"ëħ¼ë¬¸":12140,"ìĽĮì§Ģê³ł":12141,"ìĽĮíģ¬":12142,"ìĽĮë³´ìĿ´ëĤĺ":12143,"Ġìŀĺê²Į":12144,"ĠìŀĺíķĺìĦ¸ìļĶ":12145,"Ġìŀĺíķ´ì£¼":12146,"ĠìŀĺíĸĪìĸ´ìļĶ":12147,"ĠìŀĺìĤ´ê³ł":12148,"Ġìŀĺì§ĢëĤ´ê³ł":12149,"Ġê¸°ê´Ģ":12150,"Ġê¸°ê³Ħ":12151,"Ġê¸°ëĮĢë":12152,"Ġê¸°ëĭĪê¹ĮìļĶ":12153,"Ġê¸°ë¦Ħ":12154,"Ġê¸°ëĮĢë¡ľ":12155,"Ġê¸°ëħĲ":12156,"Ġê¸°ìĪłìĿ´":12157,"Ġê¸°ëħĲìĿ¼":12158,"Ġê¸°ìĪĻìĤ¬":12159,"Ġê¸°ìłģìĿ´ì£ł":12160,"Ġê¸°ëĮĪ":12161,"Ġê¸°ë»Ĳ":12162,"Ġê¸°ìĸ´ìĺ¤":12163,"Ġê¸°ëĤĺê¸´":12164,"Ġíķ«íķľ":12165,"Ġë¨¸ë":12166,"Ġë¨¼ëį°":12167,"ê±¸ëłĪ":12168,"ĠëıĪë²":12169,"ìĸĺëĬĶ":12170,"ìĸ¸ë¶Ģ":12171,"ìĸ¼ëĸ¨ëĸ¨":12172,"ĠìĹ¬ìļ°":12173,"ĠìĹ¬ê¸°ëĭ¤":12174,"ĠìĹ¬ê¸°ëĬĶ":12175,"ĠìĹ¬ìĤ¬ì¹ľ":12176,"ìĭ¬íķĺì§Ģ":12177,"ìĭ¬ìŀ¥":12178,"ìĭ¬íķĺë©´":12179,"ìĭ¬íķĺëĦ¤":12180,"ìĭ¬íĶĮ":12181,"ìĭ¬ìŀ¥ìĿ´":12182,"ìĭ¬ìĭ¬íķ´":12183,"ë§ĲìĿĢ":12184,"ë§ĲìŀĲ":12185,"ë§Ĳíķł":12186,"ë§Ĳì¡°ìĭ¬íķĺìĦ¸ìļĶ":12187,"ë§Ĳë¬¸ìĿ´":12188,"ë§ĲíĪ¬ëĬĶ":12189,"ëıķëĬĶ":12190,"ìłĢìļĶ":12191,"ìłĢíĬ¸":12192,"ìłĢê²ĥ":12193,"ìłĢì²ĺëŁ¼":12194,"ìłĢëĿ¼ëıĦ":12195,"ìłĢìĻĢìĿĺ":12196,"ìłĢê¸ĪíĨµ":12197,"Ġì§Ģì¹ľ":12198,"Ġì§Ģì¹¨":12199,"Ġì§Ģê°ĳ":12200,"Ġì§Ģëł¤ê³ł":12201,"Ġì§Ģìļ°ëĬĶ":12202,"Ġì§ĢëĤ¬ìĸ´":12203,"Ġì§Ģì¹ĺê³ł":12204,"Ġì§ĢìĭĿìĿ´":12205,"Ġì§Ģìļ¸ê¹Į":12206,"Ġì§Ģì¹ĺë©´":12207,"Ġì§Ģìķķ":12208,"Ġì§ĢíĤ¤ê¸°":12209,"Ġì§Ģì¹ĺëĦ¤":12210,"Ġì§ĢìĽĲíķ´ë³´ìĦ¸ìļĶ":12211,"Ġì§Ģê·¹íŀĪ":12212,"Ġì§Ģì¹ĺê²Į":12213,"Ġì§ĢíĤ¤ë©´":12214,"Ġì§Ģì¹©ëĭĪëĭ¤":12215,"íĸĪëĭ¤ê°Ģ":12216,"íĸĪìĹĪëĬĶëį°":12217,"íĻĶìĦ¼íĦ°":12218,"íĻĶìĭĿë¬¼":12219,"ê¸¸ì§Ģ":12220,"ê¸¸ê±°ë¦¬":12221,"ìŀ¥ê°Ģ":12222,"ìŀ¥ìķł":12223,"ìŀ¥ìľ¼ë¡ľ":12224,"ìŀ¥ìĪĺ":12225,"ìŀ¥ëĭ¨":12226,"ìŀ¥íĮĲ":12227,"ìŀ¥ê¸°ìŀĲëŀĳ":12228,"ìŀ¥êµ¬ì³Ĳ":12229,"ĠìĹ°ëĿ½ëıĦ":12230,"ĠìĹ°ëĿ½íĸĪìĸ´":12231,"ĠìĹ°ëĿ½íķĺê¸°":12232,"ĠìĹ°ëĿ½ìĺ¬":12233,"ĠìĹ°ëĿ½ìĿ´ìĹĪê¸¸":12234,"ĠìĹ°ëĿ½íĸĪìĿĦê¹Į":12235,"ìĥĿìĹĲ":12236,"ìĥĿê¸´":12237,"ìĥĿê°ķ":12238,"Ġê´ľ":12239,"ìłĦíķľ":12240,"ìłĦìĿĺ":12241,"ìłĦìłģìĿ¸":12242,"ìłĦíĺĢ":12243,"ìłĦíĺķ":12244,"ìłĦíĻĶê°Ģ":12245,"ìłĦìĹ¬ìŀĲì¹ľêµ¬":12246,"ìłĦìĪľ":12247,"ìłĦíĻĺìĿ´":12248,"ìłĦìĥĿìĹĲ":12249,"íħĮê°Ģ":12250,"íħĮíģ¬":12251,"íŀĪì§Ģ":12252,"ĠìĻ¸ë¶Ģ":12253,"ĠìĻłì§Ģ":12254,"ĠëĤ¨ìĿĢ":12255,"ĠëĤ¨ìĿĺ":12256,"ĠëĤ¨ëĤĺë´ĲìļĶ":12257,"ĠëĤ¨ìĹĲê²Į":12258,"ĠëĤ¨ê²łì£ł":12259,"ĠëĤ¨ìĿ´ì£ł":12260,"ĠëĤ¨ìķĺìĸ´":12261,"ĠëĤ¨ìĿ´ëĿ¼ëĬĶ":12262,"ĠëĤ¨ìĤ¬ì¹ľ":12263,"ĠëĤ¨ìĿĢê±¸ê¹Į":12264,"ĠëĤ¨ì£¼ê¸´":12265,"ìĤ¬ê³ł":12266,"ìĤ¬íĪ":12267,"ìĤ¬ì£¼ë":12268,"ìĤ¬ìĿ´ê°Ģ":12269,"ìĤ¬ëĭ¤ë¦¬":12270,"ìĤ¬ìĪĺê°Ģ":12271,"ìĤ¬íĥķ":12272,"ìĤ¬ìĥĿíĻľìĿ´":12273,"ĠìĤ¬ì§Ģ":12274,"ĠìĤ¬ëĤĺë´ĲìļĶ":12275,"ĠìĤ¬ì£¼ìĦ¸ìļĶ":12276,"ĠìĤ¬ì¹ĺ":12277,"ĠìĤ¬ìĿ´ëĿ¼":12278,"ĠìĤ¬ì¤Ħ":12279,"ĠìĤ¬ëĤĺë´ħëĭĪëĭ¤":12280,"ĠìĤ¬ì¤Ħê¹Į":12281,"ĠìĤ¬ìĺ¤ìĦ¸ìļĶ":12282,"ĠìĤ¬ìķ¼ëı¼":12283,"ĠìĤ¬ìĨĮíķľ":12284,"ĠìĤ¬ê°Īê¹Į":12285,"ĠìĤ¬ê²¼ëĬĶëį°":12286,"ĠìĤ¬ìķ¼ê²łì§Ģ":12287,"ĠìĤ¬ìħĶìķ¼":12288,"ĠìĤ¬ìĥĿíĻľìĿ´":12289,"ĠìĤ¬ìķ¼ëĲĺëĬĶëį°":12290,"ĠìĤ¬ê³ĦìłĪ":12291,"ĠìĤ¬ëŀĮìĿ´ëĦ¤":12292,"ĠìĤ¬ëŀĮìĿ´ìĺĪìļĶ":12293,"ĠìĤ¬ëŀĮìĿ´ëĿ¼ê³ł":12294,"ĠìĤ¬ëŀĮìĿ´ìĹĪìĸ´":12295,"ĠìĤ¬ëŀĮìĿ´êµ°ìļĶ":12296,"ĠìĤ¬ëŀĮìĿ´ìĹĪëĬĶ":12297,"Ġíŀĺëĵ¤ë©´":12298,"Ġíŀĺëĵ¤ê²ĥ":12299,"Ġíŀĺëĵ¤ì¤Ħ":12300,"Ġíŀĺëĵ¤íħĲëį°":12301,"Ġíŀĺëĵ¤ëķĮ":12302,"ĠëķĮìĿĺ":12303,"ĠëķĮëĿ¼ê³ł":12304,"ĠëķĮìŀħëĭĪëĭ¤":12305,"ĠëķĮë¦¬ê³ł":12306,"ìľ¼ë¡ľë¶ĢíĦ°":12307,"ìĿ´ë³ĦìĹĲëıĦ":12308,"ìĿ´ë³Ħíķĺëł¤ê³ł":12309,"ìĿ´ë³ĦíĨµë³´":12310,"ìĿ´ë³Ħíķĺìĭł":12311,"ĠìķĮìķĦìļĶ":12312,"ĠìķĮìķĺ":12313,"ĠìķĮì§Ģë§Į":12314,"ĠìķĮê±°ìĺĪìļĶ":12315,"ĠìķĮìķĺìĸ´ìļĶ":12316,"ĠìķĮê²łìĬµëĭĪëĭ¤":12317,"ĠìķĮìķĺëĭ¤":12318,"ĠìķĮì½©ëĭ¬ì½©":12319,"ë¥´ëĤĺë´ĲìļĶ":12320,"Ġë§ĪìĿĮìĿ´ì£ł":12321,"Ġë§ĪìĿĮê°ĢëĬĶ":12322,"Ġë§ĪìĿĮê»ı":12323,"Ġë§ĪìĿĮê°Ģì§Ĳ":12324,"ĠìĿ¼ê¹Į":12325,"ĠìĿ¼ìĿ¸ê°Ģë´ĲìļĶ":12326,"ĠìĿ¼íķĺìĭľ":12327,"ĠìĿ¼ìłķìĿĦ":12328,"ĠìĿ¼íķĺëĵł":12329,"Ġíĸĩ":12330,"Ġì¹ĺëĬĶ":12331,"ĠëĤ´ëıĦ":12332,"ĠëĤ´ë©´":12333,"ĠëĤ´ê¸¸":12334,"ĠëĤ´ë´ĲìļĶ":12335,"ĠëĤ´ê±°ëĤĺ":12336,"ĠëĤ´ëĥĲ":12337,"ĠëĤ´ëł¤ìļĶ":12338,"ĠëĤ´ë§ĺ":12339,"ĠëĤ´ëł¤ë":12340,"ĠëĤ´ë¦¬ê¸°":12341,"ĠëĤ´ë¦¬ê¸¸":12342,"ĠëĤ´ëł¸ëĤĺë´ĲìļĶ":12343,"ìĬ¤íĬ":12344,"ìĬ¤íĤ¨":12345,"ìĬ¤ì¼Ģ":12346,"ìĬ¤ìĦ¼íĦ°":12347,"ë¯¸ë¦¬ë":12348,"ìłģìĿĦ":12349,"ìłģíķĺì§Ģ":12350,"ìłģì¶Ķ":12351,"ìłģìĿ¼ê¹Į":12352,"ìłģìĿĳ":12353,"ìłģê·¹":12354,"ìłģìĦ±ìĹĲ":12355,"ì¢ĭìķĦì§Ħ":12356,"ì¢ĭìķĦì§Ī":12357,"ì¢ĭìķĦíķĺìĭľ":12358,"ì¢ĭìķĦíķłê±°ìĺĪìļĶ":12359,"ì¢ĭìķĦë³´ìĿ´ëĦ¤ìļĶ":12360,"ìĺ¤ëĶĶìħĺ":12361,"Ġìłķìľ¼ë¡ľ":12362,"Ġìłķíķ´ìĦľ":12363,"Ġìłķë¦¬ëĬĶ":12364,"Ġìłķíķ´ìł¸":12365,"ĠìłķëĭµìĿ´":12366,"Ġì¢ĭìķĦíķĺëĬĶê±¸":12367,"Ġì¢ĭìķĦíķĺëĬĶê±´ê°Ģ":12368,"Ġëª¨ìĿĮ":12369,"Ġëª¨ìĿĺ":12370,"Ġëª¨ì§Ī":12371,"Ġëª¨ìŀĦ":12372,"Ġëª¨ìĸĳ":12373,"Ġëª¨ìŀĺë":12374,"Ġëª¨ìľ¼ìĭľ":12375,"Ġëª¨ë°ľìĿ´":12376,"ì§ģìĦ¤":12377,"ì§ģìŀ¥ìĿ´":12378,"ì§ģêµ¬ë¡ľ":12379,"ì§ģìĿ´ìĪĺ":12380,"ëĮĢíķĺëĬĶ":12381,"ëĮĢë§Į":12382,"ëĮĢìĹĲìĦľ":12383,"ëĮĢìĿ¸ë":12384,"ëĮĢíķĻìĽĲ":12385,"ëĮĢì¶©":12386,"ëĮĢì²ŃìĨĮë¥¼":12387,"Ġëª»ê°Ģ":12388,"Ġëª»íķĺê²Į":12389,"Ġëª»ìŀĲê³ł":12390,"Ġëª»íķĺì£ł":12391,"Ġëª»íķĺëĦ¤":12392,"Ġëª»ë°Ľ":12393,"Ġëª»ë¯¿":12394,"Ġëª»íķĺëĥĲ":12395,"Ġëª»ëĤľê±°":12396,"Ġëª»ì§Ģìļ°":12397,"ĠìŀĪìĸ´ìļĶëĿ¼ê³ł":12398,"Ġê³łìĻĢ":12399,"Ġê³łë¹Ħ":12400,"Ġê³łíĮĮ":12401,"Ġê³łì¹ł":12402,"Ġê³łì¹ĺë":12403,"Ġê³łì¹ĺë©´":12404,"Ġê³łë¥´ìĦ¸ìļĶ":12405,"Ġê³łëıħíķľ":12406,"Ġìĭ¶ìĸ´ì§Ģì£ł":12407,"Ġìĭ¶ìĸ´ìĦľìļĶ":12408,"Ġì£½ì§Ģ":12409,"ë§ĪìĿĮì²ĺëŁ¼":12410,"ë§ĪìĿĮìĹĲëıĦ":12411,"ë§ĪìĿĮìĹĲìĦľëıĦ":12412,"ë§ĪìĿĮë§ĮìĿĢ":12413,"íļĮìĿĺ":12414,"Ġë¨¹ëĭ¤":12415,"Ġë¨¹ê²Į":12416,"Ġë¨¹ìĸ´ìļĶ":12417,"Ġë¨¹ì£ł":12418,"Ġë¨¹ëĬĶê²Į":12419,"Ġë¨¹ëĵł":12420,"Ġë¨¹ë°©":12421,"Ġë¨¹ìĹĪëĭ¤":12422,"Ġë¨¹ìľ¼ëł¤ê³ł":12423,"Ġë¨¹ìľ¼ëĭĪê¹Į":12424,"Ġë¨¹ìĹĪìĬµëĭĪëĭ¤":12425,"Ġë¨¹ìĹ¬ì£¼":12426,"Ġë¨¹ìĹĪëĭĪ":12427,"ì¶ĺìĿ´":12428,"ì¶¥ì§ĢëıĦ":12429,"ê°ĢëĲĺ":12430,"ìļ°ê¸¸":12431,"ìļ°ë¦°":12432,"ìļ°ë¨¼":12433,"Ġê±´ëĦ¤":12434,"Ġê±´ëį°ìļĶ":12435,"ìį¸ìĿ¸":12436,"ìį¸ìľ¼ë¡ľ":12437,"ìį¸íĥĪë":12438,"ĺëıĦë¡Ŀ":12439,"Ġì¤ĳìĿ´":12440,"Ġì¤ĳìĿĺ":12441,"Ġì¤ĳìĿ´ìķ¼":12442,"Ġì¤ĳêµŃ":12443,"Ġì¤ĳìĿ¸ê±°":12444,"Ġì¤ĳìĿ´ëŀĺ":12445,"Ġìĭľê°Ħê³¼":12446,"Ġìĭľê°Ħëĵ¤ìĿ´":12447,"Ġìĭľê°ĦìĿ¸ê°Ģ":12448,"Ġìĭľê°Ħëĵ¤ìĿĦ":12449,"ĠëĲłìĪĺ":12450,"Ŀ¼íĨ":12451,"íķĺê²ĮëıĦ":12452,"Ġë°Ľê²Į":12453,"Ġë°ĽëĭĪ":12454,"Ġë°ĽìķĦìļĶ":12455,"Ġë°Ľê²łì§Ģ":12456,"Ġë°Ľìķĺ":12457,"Ġë°Ľì§ĢëıĦ":12458,"Ġë°ĽìĿĦê¹Į":12459,"Ġë°ĽìķĺëĬĶëį°":12460,"Ġë°Ľìķĺëĭ¤":12461,"Ġë°ĽìķĺìĬµëĭĪëĭ¤":12462,"Ġë°Ľìľ¼ìĭł":12463,"íĹ¤ìĸ´ì§Ī":12464,"íĹ¤ìĸ´ì¡Įìĸ´":12465,"íĹ¤ìĸ´ìł¸ëıĦ":12466,"ë¬´ìĸ¸":12467,"ë¬´ëĦĪ":12468,"ë¬´ë£Į":12469,"ë¬´ê´Ģìĭ¬":12470,"ë¬´ìĨĮìĿĮ":12471,"ë¬´ìŀĳìłķ":12472,"ë¬´ê´Ģìĭ¬ìĿ´":12473,"ë¬´íķľë¦¬íķĦ":12474,"ë¬´ì§Ħíķ´ìļĶ":12475,"ì¢ĭìķĦíķĺëĬĶì§Ģ":12476,"ì¢ĭìķĦíķĺëĬĶê±°":12477,"ê´Ģëħ":12478,"ê´ĺìĶ":12479,"ë¶Ħë§Į":12480,"ë¶Ħíķ´ìĦľ":12481,"ë¶ĦìĶ©":12482,"ë¶ĦìľĦ":12483,"ĠíķĺëĥĲ":12484,"ĠíķĺëĭĪê¹Į":12485,"ĠíķĺëĿ¼ëĬĶ":12486,"ĠíķĺëįĶëĿ¼ê³łìļĶ":12487,"Ġíķĺëįĺëį°ìļĶ":12488,"ìŀĺíķľ":12489,"ìŀĺíķ´ìķ¼":12490,"ìŀĺìĤ´":12491,"ìŀĺì°¸":12492,"ìŀĺê°ĢìļĶ":12493,"ìŀĺíķ´ì¤":12494,"ìŀĺíķĺëĭĪê¹Į":12495,"ìŀĺíķĺìĭ¤":12496,"ìŀĺì§ĢëĤ´ê³ł":12497,"ìŀĺíķ´ì¤Ģ":12498,"ë¶ĢìĤ°":12499,"ë¶Ģë¥´ê³ł":12500,"Ġë²Ķì£Ħ":12501,"ĠìĤ´ê²Į":12502,"ĠìĤ´ê¸°ê°Ģ":12503,"ĠìĤ´ìĤ´":12504,"ĠìĤ´ëĭ¤ë³´ë©´":12505,"ĠìĤ´ìķĺëĭ¤":12506,"ĠìĤ´ëł¤ëıĦ":12507,"ê°Ĳíķľ":12508,"ê°ĲíŀĪ":12509,"ê°ĲìĪĺ":12510,"ê°ĲìŀĪê²Į":12511,"ê°Ĳíķĺê²łìĸ´ìļĶ":12512,"ê°ĲìĥģìĿ´ëĿ¼ê³ł":12513,"Ġíķľì§Ģ":12514,"Ġíķľê³ł":12515,"Ġíķľê²°":12516,"ĠíķľëĪĪ":12517,"Ġíķľëª¸ìĿ´":12518,"Ġíķľë§ĪëĶĶ":12519,"Ġì¡¸ë¦¬":12520,"Ġì¡Įìĸ´":12521,"ëĭ¹êµ¬":12522,"ëĭ¹ìĿ´ìĹĲìļĶ":12523,"ëĭ¹ë²ĪìĿĦ":12524,"ĳĲë¡ľ":12525,"ĳĲíĨµ":12526,"ìķĪíķĺëĬĶ":12527,"ìķĪì£¼":12528,"ìķĪíĸĪëįĺ":12529,"ìķĪê°Īê±°ìĺĪìļĶ":12530,"ìķĪíķľëĭ¤ê³ł":12531,"ìķĪìłķìłģìĿ¸":12532,"ìķĪìłķìłģìĿ´ê³ł":12533,"ê³¼ìĹ°":12534,"ê³¼íķ´ëıĦ":12535,"ê³¼íķ¨":12536,"ê³¼íķĺì£ł":12537,"ê³¼ìĿ¼ìĿ´":12538,"ê³¼ìĻ¸ë":12539,"ê³¼ìłģìĿ¼ê¹Į":12540,"ĠëĲĺìļĶ":12541,"ĠëĲĺê²Į":12542,"ĠëĲĺê¸´":12543,
[...]
