{"<pad>":0,"<bos>":1,"<eos>":2,"<unk>":3,"<mask>":4,"!":5,"\"":6,"#":7,"$":8,"%":9,"&":10,"'":11,"(":12,")":13,"*":14,"+":15,",":16,"-":17,".":18,"/":19,"0":20,"1":21,"2":22,"3":23,"4":24,"5":25,"6":26,"7":27,"8":28,"9":29,":":30,";":31,"<":32,"=":33,">":34,"?":35,"@":36,"A":37,"B":38,"C":39,"D":40,"E":41,"F":42,"G":43,"H":44,"I":45,"J":46,"K":47,"L":48,"M":49,"N":50,"O":51,"P":52,"Q":53,"R":54,"S":55,"T":56,"U":57,"V":58,"W":59,"X":60,"Y":61,"Z":62,"[":63,"\\":64,"]":65,"^":66,"_":67,"`":68,"a":69,"b":70,"c":71,"d":72,"e":73,"f":74,"g":75,"h":76,"i":77,"j":78,"k":79,"l":80,"m":81,"n":82,"o":83,"p":84,"q":85,"r":86,"s":87,"t":88,"u":89,"v":90,"w":91,"x":92,"y":93,"z":94,"{":95,"|":96,"}":97,"~":98,"¡":99,"¢":100,"£":101,"¤":102,"¥":103,"¦":104,"§":105,"¨":106,"©":107,"ª":108,"«":109,"¬":110,"®":111,"¯":112,"°":113,"±":114,"²":115,"³":116,"´":117,"µ":118,"¶":119,"·":120,"¸":121,"¹":122,"º":123,"»":124,"¼":125,"½":126,"¾":127,"¿":128,"À":129,"Á":130,"Â":131,"Ã":132,"Ä":133,"Å":134,"Æ":135,"Ç":136,"È":137,"É":138,"Ê":139,"Ë":140,"Ì":141,"Í":142,"Î":143,"Ï":144,"Ð":145,"Ñ":146,"Ò":147,"Ó":148,"Ô":149,"Õ":150,"Ö":151,"×":152,"Ø":153,"Ù":154,"Ú":155,"Û":156,"Ü":157,"Ý":158,"Þ":159,"ß":160,"à":161,"á":162,"â":163,"ã":164,"ä":165,"å":166,"æ":167,"ç":168,"è":169,"é":170,"ê":171,"ë":172,"ì":173,"í":174,"î":175,"ï":176,"ð":177,"ñ":178,"ò":179,"ó":180,"ô":181,"õ":182,"ö":183,"÷":184,"ø":185,"ù":186,"ú":187,"û":188,"ü":189,"ý":190,"þ":191,"ÿ":192,"Ā":193,"ā":194,"Ă":195,"ă":196,"Ą":197,"ą":198,"Ć":199,"ć":200,"Ĉ":201,"ĉ":202,"Ċ":203,"ċ":204,"Č":205,"č":206,"Ď":207,"ď":208,"Đ":209,"đ":210,"Ē":211,"ē":212,"Ĕ":213,"ĕ":214,"Ė":215,"ė":216,"Ę":217,"ę":218,"Ě":219,"ě":220,"Ĝ":221,"ĝ":222,"Ğ":223,"ğ":224,"Ġ":225,"ġ":226,"Ģ":227,"ģ":228,"Ĥ":229,"ĥ":230,"Ħ":231,"ħ":232,"Ĩ":233,"ĩ":234,"Ī":235,"ī":236,"Ĭ":237,"ĭ":238,"Į":239,"į":240,"İ":241,"ı":242,"Ĳ":243,"ĳ":244,"Ĵ":245,"ĵ":246,"Ķ":247,"ķ":248,"ĸ":249,"Ĺ":250,"ĺ":251,"Ļ":252,"ļ":253,"Ľ":254,"ľ":255,"Ŀ":256,"ŀ":257,"Ł":258,"ł":259,"Ń":260,"Ġt":261,"Ġa":262,"he":263,"in":264,"re":265,"on":266,"Ġthe":267,"Ġs":268,"er":269,"Ġw":270,"an":271,"en":272,"or":273,"ed":274,"at":275,"Ġc":276,"Ġo":277,"it":278,"es":279,"Ġf":280,"ar":281,"is":282,"Ġp":283,"Ġb":284,"ing":285,"Ġin":286,"Ġto":287,"al":288,"Ġof":289,"Ġan":290,"ou":291,"Ġm":292,"Ġh":293,"as":294,"ic":295,"Ġd":296,"id":297,"il":298,"Ġand":299,"ion":300,"om":301,"le":302,"ent":303,"Ġth":304,"Ġre":305,"Ġn":306,"ay":307,"ro":308,"st":309,"ve":310,"Ġl":311,"Ġbe":312,"Ġe":313,"ĠS":314,"ut":315,"ad":316,"ol":317,"Ġg":318,"Ġon":319,"ter":320,"ur":321,"ac":322,"Ġfor":323,"Ġsa":324,"'s":325,"The":326,"ly":327,"im":328,"un":329,"ĠC":330,"am":331,"ig":332,"ot":333,"Ġsaid":334,"ec":335,"us":336,"ĠA":337,"et":338,"Ġst":339,"ill":340,"Ġhe":341,"ation":342,"ver":343,"ĠM":344,"ore":345,"ir":346,"el":347,"Ġthat":348,"ow":349,"Ġis":350,"ra":351,"th":352,"ith":353,"ĠP":354,"Ġwh":355,"ld":356,"Ġit":357,"ĠI":358,"ĠB":359,"ce":360,"Ġat":361,"Ġwas":362,"Ġwith":363,"Ġwe":364,"ts":365,"oun":366,"em":367,"ers":368,"ĠK":369,"res":370,"Ġas":371,"os":372,"ear":373,"Ġal":374,"ak":375,"day":376,"ĠT":377,"op":378,"Ġcon":379,"her":380,"ri":381,"rom":382,"est":383,"and":384,"ul":385,"..":386,"ĠN":387,"00":388,"Ġ1":389,"Ġpro":390,"ag":391,"ist":392,"ch":393,"Ġy":394,"ment":395,"ct":396,"ate":397,"ĠU":398,"Ġha":399,"Ġ\"":400,"Ġby":401,"ain":402,"pp":403,"Ġfrom":404,"igh":405,"Ġcom":406,"ĠW":407,"Ġr":408,"Ġde":409,"ew":410,"ial":411,"Ġv":412,"if":413,"art":414,"ort":415,"Ġhas":416,"ĠD":417,"ĠH":418,"ong":419,"ĠG":420,"ĠJ":421,"Ġhis":422,"Ġare":423,"ĠR":424,"ast":425,"Ġ2":426,"Ġex":427,"Ġhave":428,"Ġsh":429,"Ġle":430,"ity":431,"ĠF":432,"red":433,"um":434,"Ġwill":435,"ies":436,"ap":437,"Ġk":438,"Ġoff":439,"ice":440,"oc":441,"ack":442,"Ġch":443,"ould":444,",\"":445,"out":446,"Ġgo":447,"Ġsp":448,"end":449,"od":450,"iv":451,"our":452,"ud":453,"ess":454,"ident":455,"ĠL":456,"ive":457,"Ġsu":458,"Ġnot":459,"all":460,"ry":461,"Ġwere":462,"ian":463,"Ġun":464,"ĠKore":465,"ab":466,"ĠE":467,"Ġpl":468,"Ġse":469,"Ġor":470,"Ġab":471,"se":472,"Ġaf":473,"âĢ":474,"gh":475,"ary":476,"Ġag":477,"ia":478,"up":479,"qu":480,"ich":481,"ost":482,"Ġwho":483,"ok":484,"ight":485,"Ġrep":486,"ust":487,"ect":488,"Ġwor":489,"ĠO":490,"ĠCh":491,"ren":492,"Ġj":493,"ome":494,"Ġyear":495,"ep":496,"ther":497,"ound":498,"Ġafter":499,"Ġac":500,"...":501,"ard":502,"mer":503,"Ġhad":504,"Ġpe":505,"Ġwhe":506,"ide":507,"ge":508,"ant":509,"Ġpol":510,"Ġbeen":511,"Ġres":512,"uc":513,"Ġcl":514,"Ġits":515,"resident":516,"ine":517,"ord":518,"Ġthey":519,"Ġtheir":520,"Ġexp":521,"Ġsay":522,"wo":523,"ople":524,"Ġbut":525,"Ġar":526,"ign":527,"ell":528,"ber":529,"ated":530,"ime":531,"age":532,"Ġout":533,"ke":534,"Ġint":535,"Ġ(":536,"vern":537,"ans":538,"ount":539,"ions":540,"ks":541,"Ġpeople":542,"Ġabout":543,"Ġnew":544,"rou":545,"Ġthis":546,"Ġmore":547,"ff":548,"Ġne":549,"Ġoffic":550,"ĠSt":551,"so":552,"Ġad":553,"Ġper":554,"ie":555,"Ġinc":556,"Ġme":557,"ous":558,"Ġwhich":559,"Ġcomp":560,"ace":561,"iz":562,"ations":563,"ress":564,"old":565,"Ġtwo":566,"Ġgovern":567,"Ġup":568,"ters":569,"Ġwould":570,"lo":571,"Ġover":572,"esday":573,"cent":574,"ake":575,"Ġacc":576,"Ġdis":577,"ĠKorea":578,"ates":579,"Ġother":580,"ib":581,"Ġher":582,"ub":583,"ors":584,"one":585,"ip":586,"man":587,"Ġcont":588,"Ġthan":589,"Ġatt":590,"Ġall":591,"Ġgovernment":592,"orth":593,"ure":594,"own":595,"ational":596,"ue":597,"ang":598,"Ġalso":599,"Ġofficial":600,"ass":601,"Ġmil":602,"der":603,"ric":604,"ical":605,"rit":606,"Ġone":607,"ree":608,"Ġfir":609,"ark":610,"Ġ200":611,"use":612,"Ġtr":613,"Ġdo":614,"ĠUn":615,"ite":616,"ĠIn":617,"hed":618,"tern":619,"outh":620,"Ġpart":621,"Ġim":622,"Ġman":623,"Ġcount":624,"ond":625,"ire":626,"ile":627,"ose":628,"ited":629,"ish":630,"Ġsec":631,"In":632,"ence":633,"NN":634,"Ġ3":635,"raq":636,"Ġen":637,"ted":638,"Ġshe":639,"og":640,"illion":641,"ition":642,"ail":643,"Ġfirst":644,"av":645,"ek":646,"Ġlast":647,"ran":648,"ase":649,"Ġcan":650,"aw":651,"Ġlead":652,"ĠIraq":653,"ild":654,"lect":655,"Ġsc":656,"Ġro":657,"Ġinto":658,"Ġreport":659,"Ġapp":660,"ade":661,"lic":662,"Ġmilit":663,"ike":664,"Ġpre":665,"ĠNorth":666,"Ġwhen":667,"ĠY":668,"ind":669,"erv":670,"Ġinv":671,"ning":672,"ince":673,"ush":674,"act":675,"iss":676,"Ġbec":677,"It":678,"Ġmon":679,"Ġ19":680,"ee":681,"âĢĿ":682,"Ġday":683,"Ġtold":684,"ash":685,"ied":686,"enc":687,"ement":688,"Ġdec":689,"Ġqu":690,"ton":691,"Ġyears":692,"ove":693,"ama":694,"ally":695,"ame":696,"Ġkill":697,"Ġcomm":698,"'t":699,"Ġpercent":700,"ft":701,"ĠTh":702,"ned":703,"oin":704,"lear":705,"very":706,"He":707,"con":708,"amp":709,"vel":710,"ven":711,"Ġpr":712,"Ġop":713,"lud":714,"Ġwork":715,"Ġpolice":716,"orm":717,"ens":718,"ru":719,"ss":720,"oll":721,"ov":722,"ph":723,"we":724,"ĠChin":725,"ater":726,"Ġthem":727,"Ġsome":728,"ĠMon":729,"arg":730,"000":731,"Ġtime":732,"Ġte":733,"ording":734,"Ġlike":735,"Ġso":736,"Ġus":737,"Ġcould":738,"Ġmin":739,"Ġpresident":740,"row":741,"oh":742,"Ġcall":743,"orts":744,"ces":745,"ĠV":746,"Ġagain":747,"Ġam":748,"Ġ5":749,"Ġweek":750,"Ġfl":751,"ities":752,"ĠUnited":753,"Ġ$":754,"are":755,"ĠSouth":756,"oy":757,"ĠAf":758,"ach":759,"reat":760,"Ġcr":761,"fe":762,"Ġ4":763,"ets":764,"Ġact":765,"ough":766,"ons":767,"Ġinclud":768,"lin":769,"Ġmonth":770,"uring":771,"Th":772,"ĠKorean":773,"Ġthere":774,"But":775,"ne":776,"ese":777,"Ġear":778,"ĠSun":779,"Ġimp":780,"Ġsays":781,"ants":782,"ory":783,"meric":784,"ĠMonday":785,"ting":786,"vers":787,"ause":788,"urs":789,"ĠPresident":790,"ister":791,"Ġcountry":792,"bama":793,"Ġno":794,"Ġbet":795,"li":796,"Ġind":797,"Ġwar":798,"uesday":799,"ĠMin":800,"ected":801,"Ġco":802,"istan":803,"Ġrec":804,"Ġyou":805,"ĠTuesday":806,"Ġunder":807,"able":808,"Ġcar":809,"fore":810,"Ġofficials":811,"roup":812,"Ġfin":813,".\"":814,"Ġtak":815,"ings":816,"Ġmeet":817,"Ġthree":818,"ath":819,"Ġbl":820,"Ġmilitary":821,"Ġhim":822,"Ġtra":823,"Ġcons":824,"ble":825,"ital":826,"ublic":827,"Ġra":828,"ah":829,"Ġaccording":830,"Ġsur":831,"Ġworld":832,"ents":833,"Ġplan":834,"rough":835,"Ġkn":836,"edn":837,"ult":838,"ednesday":839,"ased":840,"ouse":841,"ĠIs":842,"led":843,"ict":844,"apan":845,"ious":846,"Ġsupp":847,"Ġattack":848,"ĠWednesday":849,"Ġfore":850,"rop":851,"ĠAmeric":852,"Ġspok":853,"ob":854,"leg":855,"conom":856,"ise":857,"Ġtal":858,"CNN":859,"Ġdown":860,"ix":861,"med":862,"Ġreg":863,"Ġmillion":864,"rat":865,"uclear":866,"ked":867,"land":868,"Ġbefore":869,"Ġend":870,"ved":871,"ĠNew":872,"Ġrem":873,"Ġany":874,"ency":875,"Ġjust":876,"Ġelect":877,"âĢľ":878,"Ġagainst":879,"Ġnews":880,"ĠSunday":881,"ced":882,"uss":883,"ists":884,"Ġwhere":885,"Ġnuclear":886,"Ġ6":887,"ook":888,"ĠObama":889,"eral":890,"Ġgroup":891,"eb":892,"ĠThe":893,"Ġshow":894,"An":895,"Ġwhat":896,"rest":897,"way":898,"Ġsince":899,"Ġbr":900,"ance":901,"Ġmost":902,"Ġreported":903,"Ġeconom":904,"Ġkilled":905,"Ġann":906,"Ġback":907,"gan":908,"ll":909,"Ġadd":910,"Ġter":911,"wn":912,"ursday":913,"Ġstat":914,"year":915,"Ġrel":916,"ĠThursday":917,"Ġserv":918,"ating":919,"pt":920,"Ġspokes":921,"other":922,"ank":923,"ĠJapan":924,"ween":925,"Ġmem":926,"Ġif":927,"Ġlaw":928,"ĠStates":929,"We":930,"gr":931,"anc":932,"Ġnear":933,"ĠSe":934,"Â´":935,"az":936,"son":937,"Ġbecause":938,"urity":939,"uth":940,"oss":941,"ai":942,"Ġbeing":943,"Ġbetween":944,"Ġinvest":945,"âĢĻ":946,"Ġonly":947,"und":948,"Ġnow":949,"du":950,"Ġret":951,"emoc":952,"duc":953,"ered":954,"les":955,"Ġdes":956,"Ġduring":957,"Ġcap":958,"Ġstate":959,"Ġprov":960,"ick":961,"ĠChina":962,"ution":963,"Ġmade":964,"rent":965,"omen":966,"Ġprot":967,"Ġget":968,"Ġcompan":969,"air":970,"ood":971,"Ġbu":972,"ral":973,"Ġins":974,"Ġair":975,"Ġthrough":976,"ĠAn":977,"Ġev":978,"ĠBush":979,"ork":980,"ink":981,"xt":982,"ward":983,"Ġstud":984,"Ġfour":985,"ops":986,"Ġfound":987,"ĠSh":988,"Ġmed":989,"ung":990,"me":991,"lp":992,"urn":993,"als":994,"itt":995,"ower":996,"Ġvi":997,"Ġinf":998,"Ġformer":999,"Ġ7":1000,"uthor":1001,"Ġrele":1002,"ared":1003,"ug":1004,"Ġ10":1005,"Ġbel":1006,"Ġass":1007,"Ġplay":1008,"Ġhelp":1009,"¡Â":1010,"Â¡Â":1011,"omb":1012,"Ġstatement":1013,"olog":1014,"Ġmay":1015,"Ġprom":1016,"Ġincluding":1017,"Ġvis":1018,"ternational":1019,"Ġconf":1020,"ret":1021,"ife":1022,"Ġtro":1023,"Ġset":1024,"Ġtri":1025,"Ġfam":1026,"Ġhost":1027,"Ġhead":1028,"min":1029,"Ġhigh":1030,"ily":1031,"Ġexpl":1032,"imes":1033,"cc":1034,"Ġchild":1035,"ĠBrit":1036,"Ġmark":1037,"Ġinter":1038,"Ġdid":1039,"Ġwhile":1040,"aj":1041,"Ġem":1042,"cer":1043,"ef":1044,"ech":1045,"ision":1046,"Ġwon":1047,"oth":1048,"ual":1049,"rid":1050,"Ġref":1051,"ands":1052,"Ġcamp":1053,"Ġfe":1054,"Ġcalled":1055,"Ġmany":1056,"Ġstr":1057,"Ġph":1058,"bers":1059,"Ġiss":1060,"yst":1061,"ction":1062,"ives":1063,"Ġwin":1064,"used":1065,"ivil":1066,"riv":1067,"Ġcent":1068,"emocrat":1069,"ms":1070,"ron":1071,"Ġhow":1072,"Ġresp":1073,"Ġdisc":1074,"Ġsix":1075,"Ġspokesman":1076,"ner":1077,"Ġtalks":1078,"ourt":1079,"Ġhome":1080,"ling":1081,"Ġannoun":1082,"Ġlong":1083,"Ġeff":1084,"ool":1085,"omm":1086,"Ġpolit":1087,"ized":1088,"Ġtake":1089,"iving":1090,"Ġopp":1091,"Ġdays":1092,"atur":1093,"Ġcity":1094,"Ġsm":1095,"Ġ20":1096,"Ġsecond":1097,"ĠCNN":1098,"rael":1099,"Ġsl":1100,"ures":1101,"ave":1102,"Ġnext":1103,"oul":1104,"Ġreports":1105,"io":1106,"Ġdep":1107,"ries":1108,"Ġcivil":1109,"ful":1110,"Ġnum":1111,"Ġke":1112,"Ġdeb":1113,"ics":1114,"ments":1115,"ief":1116,"ock":1117,"ex":1118,"Ġmake":1119,"per":1120,"ross":1121,"Ġmiss":1122,"Ġsecurity":1123,"Ġtroops":1124,"Ġour":1125,"alth":1126,"Ġagre":1127,"Ġneed":1128,"Ġsign":1129,"att":1130,"usp":1131,"ĠMar":1132,"ecut":1133,"Ġgr":1134,"ged":1135,"Ġway":1136,"aking":1137,"ĠNational":1138,"ense":1139,"ĠMinister":1140,"oci":1141,"Ġaround":1142,"Ġ'":1143,"Ġdem":1144,"They":1145,"Ġdeath":1146,"ange":1147,"ivers":1148,"te":1149,"Ġpublic":1150,"ĠAfric":1151,"oman":1152,"arty":1153,"Ġsusp":1154,"Ġaid":1155,"osed":1156,"uch":1157,"orn":1158,"Ġ8":1159,"hern":1160,"gram":1161,"Ġleast":1162,"irect":1163,"ollow":1164,"Ġwant":1165,"ible":1166,"au":1167,"ather":1168,"Ġfive":1169,"ady":1170,"Ġgu":1171,"Ġstill":1172,"ghan":1173,"Ġsuch":1174,"Ġstart":1175,"ened":1176,"Ġlikely":1177,"Ġthose":1178,"Ġrecent":1179,"erson":1180,"the":1181,"Ġbro":1182,"ĠDemocrat":1183,"ajor":1184,"to":1185,"Ġcontin":1186,"Ġtop":1187,"ean":1188,"Ġdef":1189,"ĠUS":1190,"Ġloc":1191,"istry":1192,"ient":1193,"sh":1194,"ĠSp":1195,"ody":1196,"Ġpar":1197,"Ġbo":1198,"Ġauthor":1199,"Ġfollow":1200,"ages":1201,"akistan":1202,"ior":1203,"ute":1204,"Ġinvestig":1205,"Ġbus":1206,"ĠAss":1207,"Ġvot":1208,"Ġrun":1209,"ĠInd":1210,"Ġprogram":1211,"Ġshould":1212,"ĠMc":1213,"Ġpoin":1214,"ember":1215,"pped":1216,"``":1217,"urop":1218,"ror":1219,"Ġser":1220,"ĠIran":1221,"ĠIsrael":1222,"osp":1223,"ty":1224,"Ġdet":1225,"Ġeven":1226,"osition":1227,"ights":1228,"ale":1229,"ĠAfghan":1230,"Ġparty":1231,"Ġlook":1232,"Ġleader":1233,"raft":1234,"Ġbillion":1235,"Ġcompany":1236,"oot":1237,"Ġbelie":1238,"hes":1239,"rib":1240,"ians":1241,"linton":1242,"Ġviol":1243,"gg":1244,"ĠAmerican":1245,"ular":1246,".âĢĿ":1247,"Ġfil":1248,"ashing":1249,"Ġbomb":1250,"ney":1251,"atch":1252,"aim":1253,"ĠQ":1254,"ĠPr":1255,"Ġsaying":1256,"Ġvisit":1257,"ohn":1258,"ility":1259,"aign":1260,"ative":1261,"Ġevery":1262,"ĠEn":1263,"ins":1264,"Ġmajor":1265,"ĠSec":1266,"ird":1267,"Ch":1268,"feren":1269,"ration":1270,"ĠEurop":1271,"Ġtrans":1272,"Ġdirect":1273,"ĠAr":1274,"Ġgen":1275,"Ġoper":1276,"ism":1277,"Ġcur":1278,"Ġsub":1279,"Ġsupport":1280,"ĠSeoul":1281,"Ġpass":1282,"vi":1283,"Ġthen":1284,"Ġexpected":1285,"ĠAl":1286,"Ġwell":1287,"line":1288,"Ġspec":1289,"aturday":1290,"chool":1291,"Ġdead":1292,"Ġext":1293,"Ġprep":1294,"lier":1295,"oo":1296,"ya":1297,"unt":1298,"Ġincre":1299,"Ġmov":1300,"ĠBar":1301,"Ġmembers":1302,"Ġknow":1303,"Ġbig":1304,"Ġvict":1305,"Ġarrest":1306,"ĠHouse":1307,"riday":1308,"Ġcampaign":1309,"ament":1310,"ĠSaturday":1311,"ax":1312,"ific":1313,"veral":1314,"Ġpresidential":1315,"hen":1316,"ĠSen":1317,"port":1318,"tain":1319,"ĠFriday":1320,"Ġvery":1321,"ĠPakistan":1322,"Ġchildren":1323,"duced":1324,"ull":1325,"ĠRuss":1326,"Ġ199":1327,"ier":1328,"Ġdou":1329,"Ġmonths":1330,"Â¡Â¯":1331,"ĠMich":1332,"elf":1333,"ashington":1334,"Ġdeal":1335,"ael":1336,"ison":1337,"Ġ...":1338,"Ġpower":1339,"Ġanother":1340,"gy":1341,"Ġent":1342,"rol":1343,"Ġnumber":1344,"ik":1345,"velop":1346,"Ġdied":1347,"Ġpolitical":1348,"Ġrest":1349,"Ġforces":1350,"Ġteam":1351,"Ġhum":1352,"Ġcountries":1353,"ĠYork":1354,"Ġown":1355,"ĠAm":1356,"earch":1357,"Ġleaders":1358,"ured":1359,"ator":1360,"Ġsold":1361,"ger":1362,"Ġsee":1363,"do":1364,"Ġhour":1365,"ĠBe":1366,"gency":1367,"ift":1368,"Ġleg":1369,"stit":1370,"Ġgood":1371,"ued":1372,"ĠZ":1373,"Ġcre":1374,"iness":1375,"Ġinj":1376,"Ġmain":1377,"Kore":1378,"Ġdif":1379,"iel":1380,"pr":1381,"Ġthink":1382,"Ġgoing":1383,"Ġused":1384,"Ġearly":1385,"20":1386,"Ġclaim":1387,"Ġclim":1388,"Ġsent":1389,"ester":1390,"oon":1391,"mit":1392,"Ġremain":1393,"ised":1394,"Ġcame":1395,"loy":1396,"orld":1397,"ues":1398,"Ġmy":1399,"Ġposs":1400,"ospital":1401,"Ġleft":1402,"Ġspe":1403,"rying":1404,"ĠClinton":1405,"Ġmeeting":1406,"ept":1407,"Ġnational":1408,"Ġca":1409,"Ġperson":1410,"Ġinternational":1411,"Ġest":1412,"Ġtook":1413,"ĠJohn":1414,"Ġcommun":1415,"This":1416,"Ġ9":1417,"artment":1418,"Ġmuch":1419,"ames":1420,"Ġdel":1421,"Ġhop":1422,"Ġbuild":1423,"Ġfamily":1424,"Ġnation":1425,"ck":1426,"hip":1427,"Ġrul":1428,"ĠMcC":1429,"Ġconcer":1430,"ched":1431,"'re":1432,"ĠWashington":1433,"Ġmar":1434,"Ġcrit":1435,"Ġago":1436,"ving":1437,"Ġmove":1438,"ĠHong":1439,"Ġcapital":1440,"alf":1441,"ĠBritish":1442,"Ġpop":1443,"ĠPal":1444,"ony":1445,"ness":1446,"Ġcharg":1447,"be":1448,"Ġput":1449,"Ġdon":1450,"com":1451,"ering":1452,"orters":1453,"oney":1454,"Ġforeign":1455,"ancial":1456,"retary":1457,"Ġoffice":1458,"view":1459,"ĠParty":1460,"Ġsite":1461,"Ġ15":1462,"Ġallow":1463,"bal":1464,"ystem":1465,"ina":1466,"cess":1467,"Ġcond":1468,"ests":1469,"ided":1470,"Ġnight":1471,"ĠKong":1472,"Ġannounced":1473,"Ġgrow":1474,"ĠChinese":1475,"Ġwomen":1476,"There":1477,"ĠAfrican":1478,"my":1479,"ones":1480,"Ġneg":1481,"Ġob":1482,"Ġboth":1483,"els":1484,"Ġalleg":1485,"Ġprev":1486,"ĠMichael":1487,"ĠComm":1488,"Ġseveral":1489,"leph":1490,"Ġfar":1491,"ĠIraqi":1492,"She":1493,"Ġmen":1494,"ĠAs":1495,"iversity":1496,"Ġcor":1497,"lying":1498,"tal":1499,"Ġpres":1500,"arge":1501,"Ġforec":1502,"Ġschool":1503,"Ġsit":1504,"Ġfire":1505,"ij":1506,"side":1507,"ars":1508,"ury":1509,"Ġlater":1510,"Ġterror":1511,"ĠRep":1512,"uck":1513,"rist":1514,"Ġcand":1515,"minist":1516,"ending":1517,"emp":1518,"Ġproble":1519,"ĠFran":1520,"And":1521,"Ġsame":1522,"ects":1523,"Ġinvol":1524,"ev":1525,"Ġche":1526,"Ġpast":1527,"Ġla":1528,"Ġtest":1529,"ired":1530,"Ġcol":1531,"urned":1532,"Ġheld":1533,"ference":1534,"ĠAust":1535,"Ġuse":1536,"ever":1537,"ĠWh":1538,"Ġfac":1539,"Ġcourt":1540,"Ġeconomic":1541,"Ġsystem":1542,"Ġdevelop":1543,"gin":1544,"pl":1545,"its":1546,"ention":1547,"ĠGe":1548,"Wh":1549,"Ġthreat":1550,"Ġamong":1551,"esterday":1552,"ified":1553,"Ġpress":1554,"til":1555,"alib":1556,"Ġlife":1557,"riend":1558,"Ġaff":1559,"mp":1560,"Ġtakes":1561,"Ġchief":1562,"Ġyesterday":1563,"iate":1564,"Ġhealth":1565,"Ġminister":1566,"ĠEng":1567,"Ġyour":1568,"Ġelection":1569,"Ġbusiness":1570,"Ġadv":1571,"ought":1572,"Ġbre":1573,"Ġmor":1574,"On":1575,"acy":1576,"ended":1577,"Ġfinancial":1578,"Ġcandid":1579,"aliban":1580,"lam":1581,"ize":1582,"olice":1583,"ĠJack":1584,"Ġflu":1585,"Ġexper":1586,"Ġce":1587,"Ġcash":1588,"ually":1589,"At":1590,"ason":1591,"Ġhospital":1592,"Ġregion":1593,"duct":1594,"Ġsum":1595,"Ġ30":1596,"ĠAssoci":1597,"ĠMinistry":1598,"ĠDemocratic":1599,"ys":1600,"omin":1601,"Ġrecord":1602,"Ġauthorities":1603,"icle":1604,"estin":1605,"ls":1606,"Ġhold":1607,"ĠWorld":1608,"Lee":1609,"ns":1610,"ished":1611,"Ġreleased":1612,"Ġdouble":1613,"Ġ11":1614,"Ġeconomy":1615,"Ġcut":1616,"Ġplace":1617,"''":1618,"Ġve":1619,"Ġexplain":1620,"iers":1621,"na":1622,"Ġpost":1623,"Ġstri":1624,"ĠGer":1625,"eth":1626,"Ġhit":1627,"Ġarea":1628,"Ġquest":1629,"asters":1630,"Ġ-":1631,"Ġfind":1632,"Ġhand":1633,"Ġearlier":1634,"Ġmarket":1635,"Ġrequ":1636,"uel":1637,"Ġsw":1638,"Ġjob":1639,"amed":1640,"earing":1641,"Ġtravel":1642,"Ġpeace":1643,"Ġwhether":1644,"ĠDep":1645,"Ġfew":1646,"ganiz":1647,"Ġsen":1648,"Ġright":1649,"Korea":1650,"Ġcase":1651,"aring":1652,"Ġur":1653,"ĠTaliban":1654,"Ġweap":1655,"ĠKim":1656,"Ġcome":1657,"Ġtaken":1658,"augh":1659,"enya":1660,"Ġmoney":1661,"Ġhom":1662,"Ġagency":1663,"Ġpolic":1664,"Ġopen":1665,"Ġmedia":1666,"ready":1667,"Ġdebut":1668,"ĠHe":1669,"Ġhuman":1670,"Ġwithout":1671,"Ġban":1672,"Ġpros":1673,"Ġattacks":1674,"Ġnegot":1675,"ĠJackson":1676,"ober":1677,"ene":1678,"usan":1679,"As":1680,"ĠJan":1681,"Ġuntil":1682,"Ġclose":1683,"ject":1684,"Ġrece":1685,"Ġdoes":1686,"head":1687,"Ġhours":1688,"by":1689,"alif":1690,"Ġreduced":1691,"Ġappro":1692,"Ġsout":1693,"ived":1694,"Ġopposition":1695,"Ġ12":1696,"eng":1697,"Ġlocal":1698,"Ġlate":1699,"Ġconfir":1700,"Ġcou":1701,"Ġglo":1702,"ĠLe":1703,"ministration":1704,"ten":1705,"Ġfight":1706,"Ġreturn":1707,"get":1708,"Ġhalf":1709,"Ġpromise":1710,"echn":1711,"Ġsets":1712,"ĠCD":1713,"ission":1714,"ology":1715,"Ġalready":1716,"Ġappe":1717,"Ġmorning":1718,"ators":1719,"Ġshift":1720,"ĠAustral":1721,"pe":1722,"Ġbeh":1723,"That":1724,"ves":1725,"Ġaway":1726,"une":1727,"Ġplans":1728,"Ġoil":1729,"Ġfree":1730,"ising":1731,"Ġbest":1732,"oung":1733,"Ġinform":1734,"ines":1735,"rem":1736,"Ġlaun":1737,"ĠLee":1738,"Ġkeep":1739,"Fl":1740,"ats":1741,"Ġbegan":1742,"Ġsour":1743,"go":1744,"Ġbank":1745,"Ġhapp":1746,"aper":1747,"Ġindust":1748,"ĠPrime":1749,"king":1750,"ĠAfghanistan":1751,"Ġsk":1752,"iting":1753,"ĠCol":1754,"ĠAb":1755,"ĠWhite":1756,"ium":1757,"less":1758,"ijing":1759,"Ġeleph":1760,"Ġsmall":1761,"Ġmiles":1762,"lev":1763,"olution":1764,"Ġstand":1765,"ongdo":1766,"Ġtrad":1767,"Al":1768,"ĠCent":1769,"Ġothers":1770,"Ġnegoti":1771,"Ġthird":1772,"Ġemer":1773,"Ġstop":1774,"Ġprof":1775,"Ban":1776,"If":1777,"ti":1778,"rench":1779,"eks":1780,"Ġfail":1781,"Ġtown":1782,"aker":1783,"Ġjoin":1784,"ounded":1785,"Ġcomple":1786,"Ġactiv":1787,"Ġ``":1788,"ĠPress":1789,"Ġsex":1790,"ield":1791,"raw":1792,"ĠWeb":1793,"ondon":1794,"Ġhist":1795,"Ġlet":1796,"liament":1797,"Ġdist":1798,"ump":1799,"Ġissue":1800,"hd":1801,"Ġthese":1802,"ĠCar":1803,"Ġ18":1804,"Ġcontrol":1805,"Ġhouse":1806,"Ġden":1807,"wart":1808,"Ġweeks":1809,"ĠUniversity":1810,"Glo":1811,"Women":1812,"ety":1813,"Ġvide":1814,"utes":1815,"ĠRepublic":1816,"iver":1817,"ides":1818,"ĠBoy":1819,"Ġagreement":1820,"ĠGeor":1821,"Ġorph":1822,"Ġalong":1823,"ience":1824,"Ġacross":1825,"ĠState":1826,"Ġworkers":1827,"Ġforecasters":1828,"reen":1829,"Ġthwart":1830,"Ġdecision":1831,"ĠJapanese":1832,"ying":1833,"idence":1834,"Ġshort":1835,"ple":1836,"akers":1837,"ĠMcCain":1838,"yong":1839,"Ġwater":1840,"ried":1841,"ront":1842,"Ġprison":1843,"Ġstrong":1844,"Ġfilm":1845,"Ġeach":1846,"President":1847,"Ġconv":1848,"lim":1849,"Ġcage":1850,"ession":1851,"Ġrelease":1852,"Ġland":1853,"ĠGerman":1854,"Ġorphan":1855,"50":1856,"Ġdr":1857,"Ġ50":1858,"Ġservants":1859,"ases":1860,"Ġnearly":1861,"Ġfund":1862,"ĠRe":1863,"cl":1864,"cil":1865,"Ġbecome":1866,"Ġarrested":1867,"ĠPalestin":1868,"Ġvo":1869,"ĠRoh":1870,"lood":1871,"Ġdiscuss":1872,"Ġorphanage":1873,"ĠBeijing":1874,"Ġpay":1875,"ĠMay":1876,"rain":1877,"rict":1878,"Ġbrunt":1879,"Ġpric":1880,"Ġtour":1881,"Flying":1882,"ices":1883,"Ġcurrent":1884,"Kenya":1885,"Ġknown":1886,"Ġtrain":1887,"ON":1888,"bearing":1889,"ĠIslam":1890,"Ġinterview":1891,"Ġclimat":1892,"Living":1893,"Susan":1894,"Ġmod":1895,"akey":1896,"ĠBoyle":1897,"Draft":1898,"Songdo":1899,"Ġstep":1900,"hers":1901,"Ġmeetin":1902,"Â¡Â¯...":1903,"ĠAma":1904,"Flakey":1905,"Ġelepha":1906,"Glove":1907,"yang":1908,"ĠChrist":1909,"Ġsom":1910,"Ġinst":1911,"Ġdam":1912,"Ġnort":1913,"Ġwoman":1914,"ales":1915,"ĠTimes":1916,"ained":1917,"for":1918,"Ġreal":1919,"aul":1920,"uary":1921,"ederal":1922,"Ġcoun":1923,"Ġpa":1924,"Ġvote":1925,"ĠDepartment":1926,"Ġtechn":1927,"Ġlarg":1928,"Ġtoday":1929,"Ġseen":1930,"Ġweapons":1931,"Ġface":1932,"Ġimport":1933,"ĠBarack":1934,"Ġmid":1935,"ĠGen":1936,"ousands":1937,"Ġsim":1938,"Ġgive":1939,"Ġclear":1940,"ittee":1941,"For":1942,"Ġes":1943,"cept":1944,"aghd":1945,"Ġkid":1946,"ternet":1947,"ĠLondon":1948,"ae":1949,"Ġcare":1950,"Ġfact":1951,"ĠBl":1952,"Ġenv":1953,"mediate":1954,"aghdad":1955,"ically":1956,"Ġfinal":1957,"Ġed":1958,"Ġinte":1959,"ffic":1960,"aliforn":1961,"ĠAir":1962,"Ġconference":1963,"bass":1964,"ially":1965,"Ġtaking":1966,"Ġcost":1967,"Ġold":1968,"ĠHill":1969,"Ġcris":1970,"Ġsoldiers":1971,"alifornia":1972,"Ġadded":1973,"Ġviolence":1974,"ĠSc":1975,"Ġgir":1976,"Ġmet":1977,"Ġ100":1978,"Af":1979,"Ġmight":1980,"ley":1981,"ĠFrench":1982,"Ġdemand":1983,"ĠPe":1984,"\"\"":1985,"Ġform":1986,"Ġlevel":1987,"Ġagreed":1988,"Ġglobal":1989,"St":1990,"ressed":1991,"ĠEuropean":1992,"Ġprices":1993,"co":1994,"Ġav":1995,"aged":1996,"estern":1997,"Ġbody":1998,"reet":1999,"Ġrelations":2000,"Ġwent":2001,"Ġmaking":2002,"ĠBaghdad":2003,"Ġpoints":2004,"Ġgas":2005,"Ġpat":2006,"Ġeas":2007,"Ġ13":2008,"Ġmilitants":2009,"Ġasked":2010,"abor":2011,"Ġkilling":2012,"rug":2013,"ittle":2014,"Ġfollowing":2015,"ĠJanuary":2016,"avy":2017,"undred":2018,"Ġfriend":2019,"Ġimmediate":2020,"Ġalleged":2021,"Ġ16":2022,"ĠJu":2023,"Ġexecut":2024,"Ġtrying":2025,"Ġap":2026,"Ġfood":2027,"rab":2028,"ĠPro":2029,"Ġident":2030,"Ġgot":2031,"lymp":2032,"Ġkey":2033,"Ġreb":2034,"yongyang":2035,"Ġcrisis":2036,"Ġpartic":2037,"Ġrights":2038,"Ġadministration":2039,"Ġnewsp":2040,"ored":2041,"ards":2042,"uge":2043,"Ġboy":2044,"Ġspace":2045,"ĠOlymp":2046,"Ġmeas":2047,"Ġappear":2048,"Ġbar":2049,"Ġlarge":2050,"Ġeight":2051,"Ġstudents":2052,"Ġaut":2053,"Ġbatt":2054,"Ġorganiz":2055,"order":2056,"Ġsouthern":2057,"most":2058,"Ġhard":2059,"Ġinformation":2060,"Ġtarg":2061,"ĠPh":2062,"ection":2063,"iam":2064,"rup":2065,"sc":2066,"ĠCalifornia":2067,"'ve":2068,"pite":2069,"Ġsugg":2070,"Ġoutside":2071,"ĠInternational":2072,"ĠInternet":2073,"off":2074,"Ġhere":2075,"Ġchange":2076,"Ġhig":2077,"ĠSecretary":2078,"Ġworking":2079,"Ġless":2080,"ulation":2081,"Ġprop":2082,"Ġprocess":2083,"Ġparliament":2084,"inc":2085,"Ġ40":2086,"Ġ2006":2087,"overed":2088,"Ġestim":2089,"Ġcharges":2090,"atic":2091,"Ġshot":2092,"Ġvictim":2093,"Ġtax":2094,"ĠCong":2095,"oreign":2096,"Ġ14":2097,"itions":2098,"lom":2099,"ĠDec":2100,"Ġinvestigation":2101,"Police":2102,"lor":2103,"Ġmust":2104,"aff":2105,"ract":2106,"Ġlist":2107,"Ġmus":2108,"ĠSept":2109,"ĠPar":2110,"Ġsucc":2111,"Ġdisp":2112,"hest":2113,"Ġlat":2114,"ĠRussia":2115,"app":2116,"Ġwrit":2117,"ĠMy":2118,"ĠTur":2119,"One":2120,"Ġnever":2121,"Ġstudy":2122,"ourn":2123,"Ġside":2124,"Ġaccused":2125,"Ġprovince":2126,"Ġpossible":2127,"Ġled":2128,"Ġstar":2129,"ĠGaz":2130,"Ġgroups":2131,"lish":2132,"ming":2133,"ole":2134,"ached":2135,"ĠJune":2136,"Ġcompanies":2137,"Ġbelieve":2138,"self":2139,"Ġfur":2140,"Ġquestion":2141,"Ġfall":2142,"ĠCon":2143,"AS":2144,"Ġahead":2145,"iven":2146,"Ġmat":2147,"Ġinterest":2148,"Ġtoward":2149,"Ġseven":2150,"Ġlargest":2151,"BC":2152,"Ġtoo":2153,"Ġlow":2154,"Ġtell":2155,"Ġbill":2156,"rew":2157,"Ġocc":2158,"Ġpriv":2159,"Ġmass":2160,"ĠPyongyang":2161,"Ġcritic":2162,"gress":2163,"Ġfut":2164,"ays":2165,"Ġlot":2166,"Ġ\"\"":2167,"inal":2168,"Ġname":2169,"Ġdri":2170,"ĠAt":2171,"Ġyoung":2172,"Ġsing":2173,"Ġgun":2174,"Ġjud":2175,"Ġdirector":2176,"Ġrespons":2177,"ĠIsraeli":2178,"Ġvideo":2179,"Ġsuccess":2180,"wh":2181,"Ġhot":2182,"ĠJuly":2183,"Ġtimes":2184,"Ġwithin":2185,"Ġart":2186,"Ġshowed":2187,"ĠFrance":2188,"Ġbreak":2189,"Ġdest":2190,"urch":2191,"ĠDav":2192,"Ġdecl":2193,"ĠAssociated":2194,"Ġlittle":2195,"ĠIl":2196,"ze":2197,"aster":2198,"Ġlatest":2199,"af":2200,"ults":2201,"After":2202,"ĠHam":2203,"ĠBritain":2204,"ĠMarch":2205,"now":2206,"eration":2207,"Ġfell":2208,"),":2209,"crib":2210,"ighb":2211,"iplom":2212,"Ġtelev":2213,"Ġweekend":2214,"Some":2215,"iron":2216,"Ġord":2217,"Ġ198":2218,"ida":2219,"Ġindic":2220,"Ġemp":2221,"How":2222,"Ġthousands":2223,"rown":2224,"Ġri":2225,"Ġreporters":2226,"Ġcontinue":2227,"Ġelections":2228,"ĠSeptember":2229,"hy":2230,"ring":2231,"eda":2232,"Ġdue":2233,"ĠHar":2234,"idents":2235,"Ġsuff":2236,"Ġcentral":2237,"Ġsouth":2238,"ann":2239,"raf":2240,"thing":2241,"Ġservice":2242,"duction":2243,"Ġbuilding":2244,"Ġprevious":2245,"ĠAmerica":2246,"12":2247,"ern":2248,"Ġevent":2249,"undreds":2250,"Ġgame":2251,"ott":2252,"Ġste":2253,"Ġscient":2254,"Ġcandidate":2255,"form":2256,"ËĿ":2257,"Ġroad":2258,"Ġphot":2259,"ĠEngland":2260,"Ġsenior":2261,"mon":2262,"over":2263,"akes":2264,"Ġneighb":2265,"ways":2266,"uation":2267,"Ġtreat":2268,"Ġnomin":2269,"Ġpolicy":2270,"icide":2271,"emb":2272,"ĠEurope":2273,"ane":2274,"ibility":2275,"Ġminutes":2276,"ournal":2277,"Ġgreat":2278,"urg":2279,"ĠMus":2280,"Ġ25":2281,"Ġfurther":2282,"ĠAd":2283,"ude":2284,"Ġemergency":2285,"aeda":2286,"tion":2287,"Ġcoll":2288,"Ġgeneral":2289,"ĠGaza":2290,"10":2291,"ada":2292,"Ġbetter":2293,"Ġbring":2294,"Ġefforts":2295,"run":2296,"Ġdeleg":2297,"onst":2298,"Ġreally":2299,"Ġstation":2300,"Ġcommit":2301,"ging":2302,"ari":2303,"aced":2304,"Ġforce":2305,"ĠGu":2306,"Ġmanag":2307,"Ġprime":2308,"Ġconsid":2309,"stitution":2310,"Ġcust":2311,"Ġdiplom":2312,"umb":2313,"Ġchang":2314,"Ġconfirmed":2315,"Ġbegin":2316,"ĠTr":2317,"Ġshut":2318,"epend":2319,"Ġspecial":2320,"ler":2321,"Ġwind":2322,"Ġeng":2323,"wan":2324,"Ġrace":2325,"Ġdeter":2326,"ĠForeign":2327,"Ġimportant":2328,"asing":2329,"Ġmember":2330,"ĠPalestinian":2331,"ĠAP":2332,"ĠItal":2333,"South":2334,"Ġdrug":2335,"Ġlost":2336,"Ġ17":2337,"Ġnorthern":2338,"Ġfront":2339,"Ġproblems":2340,"ĠCongress":2341,"ĠDecember":2342,"Ġanim":2343,"Ġsched":2344,"Ġvictory":2345,"ds":2346,"Ġlive":2347,"Ġdesign":2348,"ĠAng":2349,"Ġruling":2350,"woman":2351,"ĠBank":2352,"ago":2353,"Ġ&":2354,"Ġable":2355,"Ġtarget":2356,"mber":2357,"Ġfather":2358,"uty":2359,"ĠGr":2360,"ades":2361,"airman":2362,"Ġrole":2363,"Ġpoint":2364,"Ġfuture":2365,"iet":2366,"Ġnet":2367,"Ġris":2368,"efense":2369,"Ġstarted":2370,"pril":2371,"dle":2372,"Ġborder":2373,"Ġnorth":2374,"ague":2375,"Ġtrade":2376,"Ġbehind":2377,"Ġemploy":2378,"Ġproduc":2379,"ĠWar":2380,"Ġusing":2381,"Ġaction":2382,"Ġindustry":2383,"bab":2384,"Ġide":2385,"ĠFor":2386,"key":2387,"Ġground":2388,"though":2389,"ovember":2390,"Ġveh":2391,"Ġdoll":2392,"Ġmother":2393,"ili":2394,"oz":2395,"vey":2396,"Ġround":2397,"ĠFeb":2398,"ances":2399,"Ġcell":2400,"Ġanti":2401,"Ġstay":2402,"Ġseason":2403,"Ġpoll":2404,"Ġhomes":2405,"ening":2406,"Ġfoot":2407,"Ġanal":2408,"ĠAug":2409,"Ġorder":2410,"bo":2411,"ĠX":2412,"Ġwhose":2413,"Ġ24":2414,"Ġexplos":2415,"article":2416,"ĠOct":2417,"Ġinjured":2418,"Ġinvolved":2419,"When":2420,"iber":2421,"Ġfre":2422,"Ġstorm":2423,"Ġprim":2424,"Ġbroad":2425,"Ġhistory":2426,"oring":2427,"Ġbook":2428,"Ġmess":2429,"Ġequ":2430,"ĠAmericans":2431,"ĠGeorge":2432,"mar":2433,"ule":2434,"ert":2435,"Ġfull":2436,"ander":2437,"ĠNovember":2438,"pping":2439,"Ġenough":2440,"ferent":2441,"ĠCourt":2442,"resent":2443,"ĠCo":2444,"Ġcoming":2445,"Ġcomput":2446,"'m":2447,"makers":2448,"Ġline":2449,"ĠApril":2450,"Ġhaving":2451,"Ġsuicide":2452,"Ġnewspaper":2453,"ees":2454,"arter":2455,"par":2456,"read":2457,"ĠPen":2458,"ruction":2459,"Ġdescrib":2460,"Ġrad":2461,"itional":2462,"Ġcenter":2463,"Ġserious":2464,"ĠQaeda":2465,"Ġincrease":2466,"Ġgirl":2467,"ironment":2468,"Ġwounded":2469,"Ġfig":2470,"Ġheart":2471,"Ġer":2472,"Ġalmost":2473,"Ġinside":2474,"Ġview":2475,"Ġgiven":2476,"ĠCor":2477,"osing":2478,"His":2479,"ĠCity":2480,"ĠâĢľ":2481,"Ġsuggest":2482,"ham":2483,"ĠArab":2484,"ape":2485,"Ġdifferent":2486,"Ġ2005":2487,"itive":2488,"Ġcomes":2489,"Ġrate":2490,"Ġship":2491,"Un":2492,"Ġconsum":2493,"Ġplane":2494,"Ġfeel":2495,"Ġseries":2496,"Ġwants":2497,"Ġ60":2498,"Ġdemonst":2499,"Ġbelieved":2500,"Ġturn":2501,"Ġcred":2502,"arraf":2503,"Ġpub":2504,"ĠTV":2505,"ials":2506,"que":2507,"usharraf":2508,"ĠDavid":2509,"Ġonce":2510,"Ġdev":2511,"ĠRussian":2512,"ĠAugust":2513,"yo":2514,"Ġsearch":2515,"ertain":2516,"Ġdise":2517,"ĠâĢĿ":2518,"Ġ2004":2519,"Ġsoon":2520,"Ġsources":2521,"AT":2522,"ergy":2523,"Ġcrow":2524,"Ġbased":2525,"Ġmag":2526,"iding":2527,"let":2528,"ĠOr":2529,"Ġleading":2530,"Ġconduct":2531,"Ġareas":2532,"Ġclass":2533,"Ġrock":2534,"Ġdidn":2535,"Ġprivate":2536,"Ġtelevision":2537,"wide":2538,"Ġtoget":2539,"Ġtogether":2540,"Ġthought":2541,"ĠChe":2542,"amb":2543,"down":2544,"Ġcompet":2545,"ĠAsia":2546,"Ġindepend":2547,"Ab":2548,"chers":2549,"uses":2550,"ogra":2551,"illeg":2552,"ĠEast":2553,"ĠSecurity":2554,"Ġdiv":2555,"arent":2556,"using":2557,"ĠWe":2558,"ruary":2559,"Ġdoc":2560,"Ġchar":2561,"leb":2562,"uled":2563,"aps":2564,"Ġcouple":2565,"gest":2566,"here":2567,"Ġever":2568,"Ġproblem":2569,"Ġappeared":2570,"North":2571,"ĠSa":2572,"verage":2573,"ruct":2574,"Ġannounce":2575,"lished":2576,"ye":2577,"Ġloss":2578,"work":2579,"atives":2580,"ĠPark":2581,"ellig":2582,"30":2583,"Ġfuel":2584,"Ġgave":2585,"Ġgoal":2586,"aving":2587,"Ġevidence":2588,"Ġlooking":2589,"ĠRepublican":2590,"ĠOctober":2591,".,":2592,"based":2593,"Ġilleg":2594,"Ġwal":2595,"ĠCoun":2596,"Ġvictims":2597,"band":2598,"Ġz":2599,"Ġturned":2600,"Ġwife":2601,"Ġcour":2602,"Ġreact":2603,"Ġisland":2604,"Ġcomb":2605,"Ġcoast":2606,"ecutors":2607,"aughter":2608,"Acc":2609,"With":2610,"de":2611,"Ġaim":2612,"ĠSan":2613,"raz":2614,"Ġ2008":2615,"Ġcalls":2616,"Ġprotest":2617,"Ġtried":2618,"ething":2619,"Ġfighting":2620,"Ġstates":2621,"Ġimmediately":2622,"ature":2623,"Ġpen":2624,"Ġnations":2625,"Ġplanned":2626,"ĠCenter":2627,"reme":2628,"Ġbur":2629,"Ġinit":2630,"Ġshoot":2631,"ĠKoreans":2632,"Ġseek":2633,"Ġage":2634,"ĠFebruary":2635,"Ġfederal":2636,"Ġwithd":2637,"Ġjail":2638,"Ġamid":2639,"Ġspokeswoman":2640,"Ġwanted":2641,"arm":2642,").":2643,"More":2644,"Obama":2645,"Ġresearch":2646,"Ġarri":2647,"ĠAustralia":2648,"ĠAngel":2649,"Ġstre":2650,"Ġyet":2651,"Ġvol":2652,"Ġenergy":2653,"Ġsituation":2654,"Ġreceived":2655,"ĠCouncil":2656,"tle":2657,"Ġrev":2658,"Ġresign":2659,"Ġblack":2660,"Ġmarkets":2661,"cy":2662,"uk":2663,"yl":2664,"udd":2665,"Ġflight":2666,"Ġinclude":2667,"Ġmedical":2668,"Ġtrip":2669,"Ġdetail":2670,"ches":2671,"time":2672,"Ġson":2673,"Ġsell":2674,"Ġonline":2675,"Ġincident":2676,"Ġroom":2677,"ead":2678,"ots":2679,"oted":2680,"ears":2681,"ĠRes":2682,"Ġresc":2683,"Ġresults":2684,"Ġdoct":2685,"erve":2686,"Ġdro":2687,"ĠMan":2688,"oint":2689,"Ġdespite":2690,"ball":2691,"itiz":2692,"Ġmovie":2693,"orney":2694,"Ġpo":2695,"duce":2696,"Ġcrew":2697,"itz":2698,"Ġhundreds":2699,"stand":2700,"However":2701,"NG":2702,"ayed":2703,"Ġseem":2704,"Ġdeaths":2705,"ĠIndia":2706,"Ġdocu":2707,"fer":2708,"Ġben":2709,"Ġcaused":2710,"Ġnegotiations":2711,"According":2712,"'ll":2713,"Ġsaw":2714,"ĠPaul":2715,"Ġjournal":2716,"Ġsurv":2717,"Ġsomething":2718,"Ġattemp":2719,"oe":2720,"pect":2721,"Ġriv":2722,"Ġcause":2723,"Ġfoc":2724,"Ġchall":2725,"Ġrecently":2726,"Two":2727,"ither":2728,"Ġmom":2729,"Ġreach":2730,"ĠNations":2731,"anger":2732,"Ġbiggest":2733,"oid":2734,"esters":2735,"ĠSup":2736,"ris":2737,"Ġtry":2738,"Ġtotal":2739,"ĠDefense":2740,"Ġgetting":2741,"elligence":2742,"any":2743,"Ġmur":2744,"ask":2745,"Ġlo":2746,"ĠFlor":2747,"Ġdoing":2748,"fic":2749,"Ġthough":2750,"ĠCup":2751,"acked":2752,"Ġissues":2753,"Ġclaimed":2754,"gu":2755,"Ġdecided":2756,"Ġquick":2757,"eban":2758,"Ġairport":2759,"Ġsummit":2760,"Ġvoters":2761,"pec":2762,"Ġmot":2763,"change":2764,"Ġcoal":2765,"Ġmusic":2766,"Ġscheduled":2767,"yn":2768,"Ġval":2769,"Ġlawy":2770,"aut":2771,"Ġsol":2772,"Ġsoc":2773,"Ġlives":2774,"Ġconst":2775,"ĠUN":2776,"Ġvill":2777,"Ġbecame":2778,"Ġcharged":2779,"Ġceleb":2780,"Ġdestro":2781,"int":2782,"Ġport":2783,"ico":2784,"ĠSenate":2785,"ĠIslamic":2786,"Ġdisease":2787,"iled":2788,"ador":2789,"ĠMusharraf":2790,"Ġenvironment":2791,"Ġpot":2792,"elt":2793,"Ġclosed":2794,"Ġpressure":2795,"ĠFlorida":2796,"empt":2797,"ula":2798,"Ġnine":2799,"ĠAgency":2800,"ify":2801,"Ġ2003":2802,"Ġprovide":2803,"of":2804,"Ġsqu":2805,"ains":2806,"okyo":2807,"rents":2808,"ibet":2809,"Ġcapt":2810,"Ġneeded":2811,"While":2812,"not":2813,"Ġtit":2814,"Ġbid":2815,"ural":2816,"ode":2817,"Ġarmy":2818,"ĠNews":2819,"Ġphone":2820,"Ġstrike":2821,"Ġwa":2822,"ories":2823,"ĠWest":2824,"alled":2825,"Ġeffect":2826,"ĠOlympic":2827,"Ġcross":2828,"itness":2829,"Ġimpro":2830,"Ġpopular":2831,"hyun":2832,"embly":2833,"Ġlight":2834,"ams":2835,"Ġ22":2836,"Ġcho":2837,"Ġgrowth":2838,"zz":2839,"Ġhur":2840,"hu":2841,"sel":2842,"Ġwat":2843,"icted":2844,"ĠCl":2845,"ĠTe":2846,"Ġ27":2847,"Ġdoz":2848,"rought":2849,"Ġsupporters":2850,"ĠGermany":2851,"Ġesc":2852,"rel":2853,"Ġrepl":2854,"Ġissued":2855,"Ġmission":2856,"Ġfailed":2857,"Ġreached":2858,"Ġresult":2859,"Ġexpect":2860,"ĠUnion":2861,"ĠAnd":2862,"Ġinfl":2863,",''":2864,"Ġ_":2865,"Ġty":2866,"Ġapparent":2867,"ĠCorp":2868,"Ġsan":2869,"Ġcitiz":2870,"Ġpri":2871,"Ġvir":2872,"Ġprotect":2873,"Ġgrowing":2874,"Ġlaunched":2875,"Ġkidna":2876,"To":2877,"cel":2878,"Ġhol":2879,"oming":2880,"ĠAfrica":2881,"ana":2882,"Ġoffer":2883,"iana":2884,"men":2885,"ni":2886,"ata":2887,"Ġwarned":2888,"Se":2889,"Ġread":2890,"Ġlower":2891,"Ġkind":2892,"Ġsepar":2893,"ounding":2894,"Ġeffort":2895,"Ġmissing":2896,"arian":2897,"Ġkil":2898,"Ġwarning":2899,"Ġterm":2900,"exas":2901,"Ġdone":2902,"ential":2903,"ros":2904,"Ġheavy":2905,"Ġ21":2906,"Ġ23":2907,"Ġprice":2908,"Ġcondition":2909,"Ġscientists":2910,"ĠMuslim":2911,"AP":2912,"ires":2913,"ois":2914,"Ġfav":2915,"Ġpred":2916,"ĠInter":2917,"Ġaddress":2918,"mitted":2919,"Ġrequest":2920,"Ġmount":2921,"Ġnamed":2922,"Ġlin":2923,"Ġforced":2924,"ounds":2925,"Ġ2007":2926,"Ġprotesters":2927,"Ġspeech":2928,"Ġprevent":2929,"Ġsat":2930,"Ġball":2931,"ilar":2932,"ĠMoo":2933,"ampions":2934,"Ġministry":2935,"Ġhope":2936,"iod":2937,"Ġlim":2938,"Ġwatch":2939,"enn":2940,"amer":2941,"ĠEx":2942,"ĠEar":2943,"Ġmean":2944,"arkoz":2945,"aiwan":2946,"Ġdamage":2947,"Ġanalyst":2948,"Ġbab":2949,"ĠGo":2950,"lection":2951,"Ġel":2952,"ĠTexas":2953,"abin":2954,"emocr":2955,"airs":2956,"Ġcounter":2957,"Ġsales":2958,"Ġbad":2959,"Ġbase":2960,"ality":2961,"ĠMex":2962,"ĠLeban":2963,"arkozy":2964,"Ġdaughter":2965,"ĠCan":2966,"Ġproject":2967,"Ġcomment":2968,"Ġshare":2969,"udi":2970,"Ġlawmakers":2971,"Ġhigher":2972,"Ġpain":2973,"omp":2974,"illiam":2975,"earchers":2976,"Ġquarter":2977,"Ġopened":2978,"ĠAsian":2979,"ctions":2980,"Ġparties":2981,"Ġcontinued":2982,"ĠHamas":2983,"Sh":2984,"cast":2985,"Ġoften":2986,"Ġdanger":2987,"Ġhimself":2988,"Ġtechnology":2989,"Ġexecutive":2990,"Ġestimated":2991,"Ġhon":2992,"Ġnec":2993,"ume":2994,"ĠEm":2995,"Ġpolls":2996,"ensive":2997,"Ġshows":2998,"wards":2999,"ĠCommittee":3000,"ficult":3001,"Ġdestroy":3002,"Ġproduction":3003,"Ġran":3004,"ortun":3005,"Ġconserv":3006,"Ġprograms":3007,"Ġmeasures":3008,"emocracy":3009,"ona":3010,"Ġthings":3011,"irc":3012,"ĠKy":3013,"ĠTibet":3014,"Ġdeep":3015,"ĠEd":3016,"Ġrepresent":3017,"Ġ197":3018,"Ġprotests":3019,"Ġrespond":3020,"Ġsummer":3021,"ped":3022,"Ġbri":3023,"Ġmatch":3024,"Ġsuper":3025,"aily":3026,"Ġsend":3027,"Ġbrought":3028,"Ġmater":3029,"ĠMed":3030,"Ġalways":3031,"Ġleave":3032,"ival":3033,"Ġofficers":3034,"Ġenc":3035,"ĠShi":3036,"Ġtrial":3037,"You":3038,"Ġtw":3039,"aled":3040,"ĠSer":3041,"Ġperiod":3042,"Ġletter":3043,"aur":3044,"Ġhostages":3045,"Ġcommunity":3046,"Ġcomplete":3047,"Ġdenied":3048,"Ġbas":3049,"Ġred":3050,"aces":3051,"usband":3052,"essor":3053,"vernment":3054,"Ġcontro":3055,"Ġoperation":3056,"Ġarrived":3057,"500":3058,"AN":3059,"ares":3060,"ges":3061,"Ġfield":3062,"Ġstock":3063,"ocks":3064,"Ġpled":3065,"Ġdifficult":3066,"while":3067,"Is":3068,"Ġflood":3069,"Ġstory":3070,"Ġchairman":3071,"Ġpresent":3072,"Ġrisk":3073,"ID":3074,"Ġpos":3075,"ĠTokyo":3076,"Ġresolution":3077,"Ġcars":3078,"Ġdescribed":3079,"Ġaverage":3080,"ilt":3081,"uries":3082,"ĠMid":3083,"ĠKar":3084,"Ġaccess":3085,"Ġtalk":3086,"ATO":3087,"Ġcoalition":3088,"jected":3089,"ald":3090,"ately":3091,"ĠHol":3092,"Ġspent":3093,"Â¡Â°":3094,"Ġcivilians":3095,"Ġbattle":3096,"pro":3097,"ware":3098,"arks":3099,"ĠMad":3100,"ighters":3101,"Ġraised":3102,"Ġrunning":3103,"Ġidentified":3104,"Ġpublished":3105,"Ear":3106,"ners":3107,"rong":3108,"van":3109,"ĠMos":3110,"Ġboard":3111,"Ġcerem":3112,"Bush":3113,"ma":3114,"Ġhous":3115,"Ġgl":3116,"ĠKing":3117,"Ġdisapp":3118,"Ġparents":3119,"Ġsimilar":3120,"Ġcrowd":3121,"ĠAngeles":3122,"hut":3123,"hold":3124,"Ġfun":3125,"ĠSw":3126,"ĠLos":3127,"Ġcredit":3128,"hing":3129,"ination":3130,"Ġcle":3131,"ote":3132,"Ġorig":3133,"ĠSte":3134,"ĠVir":3135,"linois":3136,"Ġservices":3137,"obert":3138,"ĠParis":3139,"uf":3140,"Ġast":3141,"Ġbeat":3142,"utin":3143,"uted":3144,"Ġmeans":3145,"Ġurged":3146,"ĠAustralian":3147,"Ġmessage":3148,"All":3149,"Ġpict":3150,"road":3151,"Ġdog":3152,"Ġdefense":3153,"stitute":3154,"Ġdevelopment":3155,"ym":3156,"Ġtre":3157,"ashed":3158,"rugg":3159,"Ġincluded":3160,"Ġsmok":3161,"Ġmajority":3162,"Ġmill":3163,"Ġhusband":3164,"Ġresidents":3165,"Ġordered":3166,"Ġillegal":3167,"No":3168,"Ġcases":3169,"Ġren":3170,"ĠTaiwan":3171,"Ġofficer":3172,"Ġ2002":3173,"ences":3174,"Ġemb":3175,"Ġincreasing":3176,"Ġconcerns":3177,"heast":3178,"ilies":3179,"Ġcarrying":3180,"Ġsurvey":3181,"Ġlaws":3182,"ĠIranian":3183,"ĠArmy":3184,"Ġconditions":3185,"ĠLeague":3186,"ĠHillary":3187,"razil":3188,"Ġfle":3189,"Ġposition":3190,"iles":3191,"Ġnon":3192,"Ġrule":3193,"ĠEnglish":3194,"Ġbrief":3195,"isl":3196,"Ġstrugg":3197,"Ġdism":3198,"Ġparticip":3199,"Americ":3200,"ĠAll":3201,"Ġstaff":3202,"iant":3203,"Ġworst":3204,"Ġsuspected":3205,"Ġfollowed":3206,"What":3207,"Ġexperts":3208,"Ġorganization":3209,"noon":3210,"Ġhuge":3211,"ĠDe":3212,"riving":3213,"Ġpan":3214,"Ġple":3215,"ĠSch":3216,"iance":3217,"wood":3218,"Ġscene":3219,"Ġcommunist":3220,"Ġpopulation":3221,"Ġcourse":3222,"Ġwide":3223,"Ġpush":3224,"Ġcompl":3225,"Ġjobs":3226,"Ġprimary":3227,"abinet":3228,"Ġcertain":3229,"Ġpack":3230,"Ġafternoon":3231,"ĠStreet":3232,"Ġcalling":3233,"ĠAssociation":3234,"ĠColomb":3235,"hutto":3236,"Ġblood":3237,"Ġlif":3238,"Ġliving":3239,"ĠCount":3240,"ailable":3241,"Ġcarried":3242,"Ġplayed":3243,"Ġfamilies":3244,"Ġrefused":3245,"Ġneeds":3246,"Ġlaunch":3247,"Ġtens":3248,"erc":3249,"Ġcult":3250,"ara":3251,"icago":3252,"ional":3253,"Ġstore":3254,"Ġdoesn":3255,"going":3256,"mad":3257,"Ġtrou":3258,"atory":3259,"Ġfans":3260,"ĠServ":3261,"Ġsafe":3262,"ĠIt":3263,"Ġbuy":3264,"ĠCommission":3265,"Ġkilome":3266,"Mal":3267,"Ġlabor":3268,"ĠSm":3269,"Ġgra":3270,"irth":3271,"Ġrise":3272,"Ġattempt":3273,"Ġtrack":3274,"enced":3275,"Ġended":3276,"Ġreturned":3277,"Ġdeploy":3278,"Ġdebate":3279,"bassy":3280,"About":3281,"Last":3282,"che":3283,"inary":3284,"lement":3285,"ece":3286,"ĠBur":3287,"Ġcomments":3288,"odies":3289,"Ġexpressed":3290,"Ġearth":3291,"ĠPakistani":3292,"Ġoccur":3293,"Ġhotel":3294,"ĠGrand":3295,"Ġwithdraw":3296,"anmar":3297,"ĠSy":3298,"Ġproper":3299,"Ġcommittee":3300,"Ġmissile":3301,"engers":3302,"ĠGeneral":3303,"Ġstreets":3304,"ĠVirgin":3305,"Ġver":3306,"Ġrout":3307,"ĠRich":3308,"Ġmatter":3309,"lant":3310,"Ġpark":3311,"emy":3312,"ĠRice":3313,"ĠEl":3314,"Ġhowever":3315,"Ġcolle":3316,"Ġnomination":3317,"Ġcomputer":3318,"ograph":3319,"Ġsanctions":3320,"hood":3321,"aries":3322,"oud":3323,"Ġforward":3324,"ĠKh":3325,"ĠDow":3326,"Ġlear":3327,"Ġleaving":3328,"Ġbroke":3329,"Ġclaims":3330,"Ġallowed":3331,"Ġactivities":3332,"Ġjudge":3333,"ĠIllinois":3334,"AR":3335,"Japan":3336,"Ġ/":3337,"rial":3338,"rick":3339,"Ġreform":3340,"Ġsites":3341,"Ġcandidates":3342,"Ġavailable":3343,"Ġcitizens":3344,"onse":3345,"iff":3346,"Ġexc":3347,"Ġintelligence":3348,"Ġ($":3349,"Ġlegal":3350,"Ġsource":3351,"bassador":3352,"Ġeastern":3353,"Ġdelegates":3354,"Ġfavor":3355,"11":3356,"ecution":3357,"Ġwhite":3358,"Ġclub":3359,"Ġattorney":3360,"Ġcrime":3361,"Ġsurr":3362,"Ġhelped":3363,"come":3364,"Ġbodies":3365,"Ġparts":3366,"China":3367,"Ġhopes":3368,"Ġrelationship":3369,"erry":3370,"ĠMor":3371,"ĠRed":3372,"ĠRobert":3373,"istance":3374,"Ġsigned":3375,"party":3376,"Ġfired":3377,"Ġpil":3378,"Ġwhy":3379,"Ġresol":3380,"Ġaccident":3381,"aves":3382,"Ġcustom":3383,"Ġcontrovers":3384,"ients":3385,"Ġfem":3386,"Ġbit":3387,"Ġbirth":3388,"ĠShe":3389,"istic":3390,"ĠFed":3391,"Ġ500":3392,"Ġautom":3393,"ĠEarth":3394,"bed":3395,"Ġpul":3396,"add":3397,"Ġprogress":3398,"iki":3399,"Ġdetails":3400,"Ġaud":3401,"ilities":3402,"Ġsaf":3403,"Ġstage":3404,"ceed":3405,"Ġrally":3406,"Ġspread":3407,"Ġsure":3408,"Ġaccept":3409,"Ġsecretary":3410,"Ġcrash":3411,"Ġfeet":3412,"pted":3413,"Ġready":3414,"Ġclos":3415,"Ġaccount":3416,"Ġplayers":3417,"Ġdiscovered":3418,"Ġbenef":3419,"Sen":3420,"Ġsect":3421,"ani":3422,"Ġhands":3423,"Ġdata":3424,"Ġnom":3425,"ows":3426,"ĠNATO":3427,"oyal":3428,"Ġstruck":3429,"atural":3430,"Ġjoint":3431,"Ġannouncement":3432,"Ġmurder":3433,"selves":3434,"82":3435,"wa":3436,"alt":3437,"ria":3438,"isted":3439,"Ġworked":3440,"Ġopening":3441,"ĠTurkey":3442,"Ġkilometers":3443,"eg":3444,"rac":3445,"Ġcities":3446,"Ġchance":3447,"Ġthemselves":3448,"Ġfourth":3449,"ĠCarol":3450,"Ġmillions":3451,"house":3452,"Ġmakes":3453,"ĠMic":3454,"ĠPolice":3455,"ĠWilliam":3456,"ability":3457,"Ġquoted":3458,"Ġpassed":3459,"Ġconcern":3460,"ruption":3461,"Ġsafety":3462,"bit":3463,"Ġcontract":3464,"ĠDemocrats":3465,"ĠIndones":3466,"insula":3467,"Ġlegisl":3468,"Ġnomine":3469,"ray":3470,"erate":3471,"icles":3472,"Ġnorm":3473,"Ġalthough":3474,"Ġconc":3475,"Ġcharge":3476,"lines":3477,"ĠAssembly":3478,"Ġbanks":3479,"Ġfunds":3480,"Ġparticular":3481,"Ġnetwork":3482,"Ġrival":3483,",âĢĿ":3484,"jects":3485,"Ġsn":3486,"Ġmult":3487,"resp":3488,"Ġterrorist":3489,"Ġcheck":3490,"Ġmoment":3491,"So":3492,"bs":3493,"val":3494,"Ġtur":3495,"Ġcal":3496,"Ġmob":3497,"Ġthing":3498,"ĠBr":3499,"Ġ29":3500,"Ġworth":3501,"izing":3502,"Ġ196":3503,"Ġoperations":3504,"ification":3505,"bably":3506,"pecially":3507,"Sp":3508,"elect":3509,"Ġeither":3510,"ĠSarkozy":3511,"ĠBrown":3512,"Ġ26":3513,"Ġeduc":3514,"gen":3515,"uro":3516,"Ġ[":3517,"Ġill":3518,"Ġdraw":3519,"Ġreason":3520,"Ġspending":3521,"ological":3522,"Ġcreate":3523,"Ġsuffered":3524,"Ġfreed":3525,"US":3526,"Ġsle":3527,"Ġwitness":3528,"itude":3529,"ala":3530,"ateg":3531,"ĠOff":3532,"Ġimm":3533,"Ġresponse":3534,"Ġslow":3535,"Ġgrand":3536,"Ġbrother":3537,"ey":3538,"win":3539,"rage":3540,"ĠPol":3541,"Ġrepe":3542,"ĠChung":3543,"Ġteen":3544,"Ġblast":3545,"Ġlonger":3546,"Ġpassengers":3547,"ASA":3548,"Ġsocial":3549,"ĠMexico":3550,"Earlier":3551,"tt":3552,"anish":3553,"arp":3554,"ization":3555,"Ġdecades":3556,"Ġcoup":3557,"ĠShiite":3558,"Ġceremony":3559,"ao":3560,"ĠSu":3561,"amin":3562,"ope":3563,"ĠDay":3564,"apers":3565,"ĠOh":3566,"ĠChicago":3567,"Ġsurpr":3568,"Ġsignific":3569,"Ġremains":3570,"Ġdestroyed":3571,"Am":3572,"ING":3573,"mark":3574,"reg":3575,"aling":3576,"ĠNo":3577,"pple":3578,"Ġmoved":3579,"gypt":3580,"Ġestab":3581,"Ġpaid":3582,"NP":3583,"ding":3584,"ĠDr":3585,"Ġcannot":3586,"Ġincreased":3587,"ĠMyanmar":3588,"BA":3589,"NA":3590,"Ġunc":3591,"Ġanything":3592,"Ġevac":3593,"Ġdeclared":3594,"Ġidea":3595,"Ġaimed":3596,"Ġquickly":3597,"ĠOffice":3598,"Mean":3599,"ky":3600,"Ġcreat":3601,"astern":3602,"ently":3603,"imp":3604,"ĠMoh":3605,"ĠBrazil":3606,"Ġprobably":3607,"Ġnothing":3608,"Ġabove":3609,"Ġinsurg":3610,"Ġfeat":3611,"ĠHealth":3612,"Ġlevels":3613,"Ġneighbor":3614,"Ġtreatment":3615,"Many":3616,"Ġcirc":3617,"isters":3618,"olf":3619,"ĠWall":3620,"ĠMiddle":3621,"ĠCounty":3622,"Ġpun":3623,"ĠMal":3624,"Ġvice":3625,"oved":3626,"Ġcover":3627,"Ġinjuries":3628,"Ġtrading":3629,"Ġradio":3630,"22":3631,"kish":3632,"hel":3633,"Ġdrop":3634,"Ġ28":3635,"Ġspot":3636,"Ġsea":3637,"Ġ2001":3638,"erald":3639,"Ġrefuge":3640,"Ġcommunic":3641,"Ġholding":3642,"Ġsteps":3643,"Ġdiplomatic":3644,"Ġpotential":3645,"ault":3646,"light":3647,"like":3648,"ĠMil":3649,"Ġ70":3650,"Ġfriends":3651,"friend":3652,"uit":3653,"Ġcamer":3654,"Ġrain":3655,"Ġannual":3656,"Now":3657,"uing":3658,"room":3659,"Ġgames":3660,"Ġhelic":3661,"ĠKen":3662,"Ġrare":3663,"Ġpersonal":3664,"aught":3665,"Ġrebels":3666,"Ġsingle":3667,"Ġmanager":3668,"Maliki":3669,"Ġfemale":3670,"Meanwhile":3671,"Ġhelicop":3672,"Offic":3673,"Ġfr":3674,"pper":3675,"Ġunderstand":3676,"Ġplaying":3677,"sy":3678,"rote":3679,"ĠBen":3680,"aks":3681,"Ġconn":3682,"Ġrose":3683,"uthorities":3684,"Ġrespect":3685,"Ġadvis":3686,"Ġsexual":3687,"Ġlawyer":3688,"Ġ0":3689,"Ġmis":3690,"ĠII":3691,"ĠUK":3692,"ocked":3693,"Ġoverse":3694,"Ġattention":3695,"Ġcommander":3696,"Ġdoub":3697,"Ġposted":3698,"Ġprofessor":3699,"hua":3700,"Ġinflu":3701,"Be":3702,"vest":3703,"ĠMark":3704,"Ġkept":3705,"ĠEgypt":3706,"idered":3707,"Ġresearchers":3708,"Ġperfor":3709,"Ġadding":3710,"Ġterrit":3711,"Ġdistrict":3712,"Ġchanges":3713,"Ġvehicle":3714,"Ġrescue":3715,"TA":3716,"cing":3717,"cient":3718,"west":3719,"ushed":3720,"Ġcommission":3721,"Ġhistor":3722,"Ġcurrently":3723,"Ġhighest":3724,"Ġemployees":3725,"ĠCarolina":3726,"rs":3727,"ream":3728,"Ġbail":3729,"Ġdate":3730,"Ġnatural":3731,"Ġhear":3732,"Ġvac":3733,"ĠHy":3734,"Ġcrim":3735,"Ġinvestment":3736,"fully":3737,"Ġdetained":3738,"Ġschools":3739,"Ġquestions":3740,"ĠItalian":3741,"craft":3742,"maker":3743,"Ġwel":3744,"iter":3745,"Ġdi":3746,"eck":3747,"ĠBhutto":3748,"opp":3749,"Ġconstitution":3750,"Ġrising":3751,"Ġphys":3752,"Ġtransfer":3753,"Ġcorp":3754,"Ġprosecutors":3755,"Ġresponsible":3756,"Ġnecess":3757,"Ġsession":3758,"aded":3759,"Ġgiving":3760,"ively":3761,"quar":3762,"ĠChar":3763,"Ġdispl":3764,"Ġcommon":3765,"Ġconsidered":3766,"Ġespecially":3767,"Ġengine":3768,"ĠItaly":3769,"Âł":3770,"Ġbrain":3771,"Ġrob":3772,"Ġimpact":3773,"Ġworldwide":3774,"Ġnumbers":3775,"Ġterrorism":3776,"Ġdropped":3777,"Ġcelebr":3778,"Ġsatell":3779,"ĠSmith":3780,"Brit":3781,"Ġsides":3782,"ĠAh":3783,"Ġcommer":3784,"Ġplant":3785,"ĠOp":3786,"reng":3787,"Ġindex":3788,"Ġ80":3789,"ĠVirginia":3790,"Ġwild":3791,"Ġpur":3792,"Ġtoll":3793,"Ġbeg":3794,"ĠPat":3795,"lined":3796,"Ġadditional":3797,"ĠIndian":3798,"gery":3799,"Ġhappened":3800,"ĠSaudi":3801,"Ġtitle":3802,"25":3803,"pir":3804,"itor":3805,"Ġreview":3806,"ĠMe":3807,"ĠBut":3808,"ĠGroup":3809,"Ġ31":3810,"Ġ35":3811,"Ġmaintain":3812,"Ġ90":3813,"Ġapproved":3814,"ĠAbd":3815,"Ġwritten":3816,"Ġconsider":3817,"Ġdollars":3818,"Ġpoor":3819,"ban":3820,"back":3821,"nel":3822,"Ġreve":3823,"Ġlack":3824,"Ġlove":3825,"iger":3826,"Ġoffered":3827,"Ġjump":3828,"Ġ2000":3829,"ociety":3830,"Ġmassive":3831,"Ġcharac":3832,"Ġshooting":3833,"Ġsignificant":3834,"40":3835,"ken":3836,"ox":3837,"ett":3838,"Ġhearing":3839,"ĠWestern":3840,"Ġsoft":3841,"Ġperforman":3842,"vere":3843,"Ġdefe":3844,"ĠChief":3845,"ips":3846,"Ġactually":3847,"Ġregul":3848,"Ġremarks":3849,"Ġevening":3850,"Ġallegations":3851,"Ġthreatened":3852,"Ġanimals":3853,"Ġseeking":3854,"ylvan":3855,".-":3856,"DA":3857,"EO":3858,"mine":3859,"Ġsens":3860,"ĠBer":3861,"Ġweak":3862,"ĠDae":3863,"angu":3864,"Â¡Â±":3865,"Ġobs":3866,"nsylvan":3867,"Ġchallen":3868,"Ġearthqu":3869,".''":3870,"kes":3871,"uan":3872,"isco":3873,"Ġgreen":3874,"Ġwhom":3875,"Ġexchange":3876,"ogn":3877,"Ġnearby":3878,"Ġsuspended":3879,"Ġserve":3880,"ĠGeorg":3881,"Ġcosts":3882,"Ġcriticized":3883,"Ġresponsibility":3884,"ufact":3885,"Ġastron":3886,"Authorities":3887,"Pe":3888,"oard":3889,"ery":3890,"Ġcop":3891,"ali":3892,"Ġdom":3893,"lex":3894,"lywood":3895,"Ġstreng":3896,"Ġheard":3897,"ĠOsc":3898,"Ġadmitted":3899,"useum":3900,"Ġsomeone":3901,"Ġcrack":3902,"avez":3903,"Ġallegedly":3904,"ĠRichard":3905,"body":3906,"enez":3907,"yan":3908,"Ġvers":3909,"inhua":3910,"icked":3911,"Ġabs":3912,"Ġgovernor":3913,"Another":3914,"ption":3915,"ĠAtlant":3916,"Ġvehicles":3917,"Ġcombat":3918,"nsylvania":3919,"During":3920,"Her":3921,"bre":3922,"Ġwrote":3923,"Ġhar":3924,"owed":3925,"ĠPort":3926,"ĠKur":3927,"ivid":3928,"Ġattend":3929,"Ġcancer":3930,"Ġterms":3931,"month":3932,"Ġdollar":3933,"Ġdoctors":3934,"Ġholid":3935,"Ġbaby":3936,"New":3937,"OR":3938,"Ġpurs":3939,"rap":3940,"ulf":3941,"ibly":3942,"Ġsecret":3943,"ointed":3944,"Ġsuspect":3945,"Ġrules":3946,"Ġcondem":3947,"Ġconstruction":3948,"gent":3949,"Ġtemp":3950,"orter":3951,"roso":3952,"ĠJo":3953,"aped":3954,"ailand":3955,"Ġopt":3956,"Ġaircraft":3957,"Ġboost":3958,"Ġbuildings":3959,"Ġcritical":3960,"Ġtraining":3961,"BI":3962,"bas":3963,"athe":3964,"Ġflo":3965,"ises":3966,"acific":3967,"ĠCabinet":3968,"rag":3969,"ĠJones":3970,"Ġcontact":3971,"Ġfarm":3972,"Ġcorruption":3973,"Ġconvicted":3974,"Most":3975,"NE":3976,"hib":3977,"Ġeth":3978,"illed":3979,"resh":3980,"Ġfirm":3981,"ĠInstitute":3982,"Ġmanufact":3983,"Ġactor":3984,"Ġopportun":3985,"Ġavoid":3986,"Israel":3987,"Res":3988,"mail":3989,"Ġties":3990,"ino":3991,"Ġsnow":3992,"ider":3993,"Ġep":3994,"ado":3995,"Ġgiant":3996,"Ġstra":3997,"Ġsharp":3998,"uman":3999,"Ġincludes":4000,"Ġevents":4001,"ĠShar":4002,"Ġeverything":4003,"Ġenvoy":4004,"Ġfigures":4005,"Ġapparently":4006,"Ġoccurred":4007,"ker":4008,"overy":4009,"Ġlab":4010,"ĠPutin":4011,"agon":4012,"Ġrather":4013,"ĠDar":4014,"Ġsurgery":4015,"ancy":4016,"ĠShin":4017,"Ġmoving":4018,"ĠOlympics":4019,"Ġproducts":4020,"ĠPennsylvania":4021,"Ġconducted":4022,"ĠSupreme":4023,"Des":4024,"cow":4025,"Ġtests":4026,"Ġcas":4027,"itch":4028,"Ġbi":4029,"Ġrejected":4030,"Ġcoop":4031,"Ġsuspects":4032,"Ġextra":4033,"Ġ&#":4034,"Ġfigure":4035,"sych":4036,"enezuel":4037,"80":4038,"Other":4039,"den":4040,"right":4041,"uff":4042,"oned":4043,"Ġdaily":4044,"Ġgold":4045,"ĠCub":4046,"Ġitself":4047,"Ġarmed":4048,"Ġperform":4049,"Ġcontain":4050,"Ġwinning":4051,"Ġcommitted":4052,"8212":4053,"Ġcard":4054,"ender":4055,"Ġrelig":4056,"ĠSpain":4057,"Ġremained":4058,"Ġprisoners":4059,"Ġcareer":4060,"Ġproposed":4061,"Ġdispute":4062,"Ġmaterial":4063,"Ġinsurgents":4064,"Ġcommerc":4065,"hi":4066,"Ġpick":4067,"Ġbul":4068,"ĠMac":4069,"Ġintro":4070,"Ġ300":4071,"Ġelectric":4072,"Ġpolitic":4073,"Ġsigns":4074,"Ġinvolving":4075,"Ġsenator":4076,"ĠCentral":4077,"Ġinstead":4078,"ĠTurkish":4079,"Ġcustody":4080,"Ġdemonstr":4081,"Ġmagaz":4082,"long":4083,"Ġice":4084,"Ġwestern":4085,"Ġpaper":4086,"ĠBill":4087,"Ġshown":4088,"Ġchurch":4089,"Ġarm":4090,"Ġens":4091,"Ġaddition":4092,"Ġstarting":4093,"Ġvisitors":4094,"Ġmarri":4095,"Ġbeginning":4096,"Ġsuggested":4097,"Ġnominee":4098,"ĠOhio":4099,"Officials":4100,"iece":4101,"ined":4102,"Ġadop":4103,"Ġattacked":4104,"Ġbuilt":4105,"Ġgener":4106,"Ġprosecution":4107,"Ġconfirm":4108,"Ġpreviously":4109,"respond":4110,"Ġrepeated":4111,"IA":4112,"sp":4113,"Ġfighters":4114,"asts":4115,"uters":4116,"estic":4117,"Ġorgan":4118,"Ġcommand":4119,"Ġregard":4120,"Ġwinner":4121,"Ġvotes":4122,"Ġleadership":4123,"Ġcreated":4124,"force":4125,"Ġapolog":4126,"Ġbroadcast":4127,"Ġmountain":4128,"yle":4129,"ites":4130,"Ġbott":4131,"ĠMiss":4132,"ĠJe":4133,"ĠFin":4134,"rency":4135,"Ġarms":4136,"Ġraid":4137,"Ġtransport":4138,"Ġsentence":4139,"ĠService":4140,"Ġfat":4141,"Ġbird":4142,"Ġdriving":4143,"ĠNic":4144,"Ġambassador":4145,"ĠIsland":4146,"Ġmedic":4147,"Ġconflic":4148,"Ġmovement":4149,"Ġpropos":4150,"nowled":4151,"Ġimprove":4152,"American":4153,"Ġsleep":4154,"Both":4155,"cat":4156,"fire":4157,"asion":4158,"ĠSing":4159,"ĠBan":4160,"Ġalb":4161,"ĠRon":4162,"abe":4163,"ĠEU":4164,"ression":4165,"Ġ2009":4166,"Ġscand":4167,"Ġanyone":4168,"Ġinvestors":4169,"Ġstudent":4170,"Ġdeputy":4171,"Ġparliamentary":4172,"Ġcriticism":4173,"ĠHarry":4174,"Ġexplosion":4175,".ËĿ":4176,"200":4177,"Sec":4178,"lies":4179,"sw":4180,"ĠÂ":4181,"orate":4182,"asp":4183,"iling":4184,"rog":4185,"oting":4186,"ĠMary":4187,"ifth":4188,"Ġrow":4189,"Ġflights":4190,"Ġregime":4191,"Former":4192,"Ġfocus":4193,"ĠGeorgia":4194,"ĠÂ¡Â°":4195,"olic":4196,"ĠNASA":4197,"ĠElect":4198,"berg":4199,"Ġallies":4200,"Ġpract":4201,"Ġtraffic":4202,"Ġplanning":4203,"Ġshowing":4204,"Ġpatients":4205,"Ġpanel":4206,"rosoft":4207,"eal":4208,"Ġsize":4209,"Ġmind":4210,"Ġhy":4211,"Ġrates":4212,"ĠJames":4213,"Ġunf":4214,"Ġseats":4215,"Ġresume":4216,"Ġrefer":4217,"Ġruled":4218,"Ġmeasure":4219,"Ġencou":4220,"Ġearthquake":4221,"Mc":4222,"Ġunion":4223,"Ġworks":4224,"ĠVenezuel":4225,"Ġspoke":4226,"ĠSea":4227,"inking":4228,"Ġplayer":4229,"Ġoperating":4230,"ĠForce":4231,"Ġpers":4232,"Ġant":4233,"Ġrecon":4234,"ammed":4235,"ĠHerald":4236,"ĠJust":4237,"Ġscreen":4238,"Ġprec":4239,"ahoo":4240,"undai":4241,"Ġtourists":4242,"ĠXinhua":4243,"Ġreactor":4244,"Ġanalysts":4245,"Ġdangerous":4246,"Ġaward":4247,"ilty":4248,"Ġnames":4249,"Ġweather":4250,"istant":4251,"âĢ¦":4252,"Ġmeters":4253,"ĠVal":4254,"Ġcarry":4255,"Ġeveryone":4256,"Ġfaces":4257,"Ġdetermin":4258,"Ġdocuments":4259,"ĠInterior":4260,"quarters":4261,"Ġsatellite":4262,"100":4263,"bak":4264,"hour":4265,"Ġblo":4266,"Ġmort":4267,"Ġreduce":4268,"olit":4269,"imbab":4270,"unch":4271,"ota":4272,"ĠTour":4273,"ĠHen":4274,"Ġteac":4275,"Ġministers":4276,"Ġmeetings":4277,"Ġblamed":4278,"Ġcivilian":4279,"Ġbombing":4280,"coming":4281,"Ġaffected":4282,"Although":4283,"Ġdocument":4284,"Ġdozens":4285,"Ġcomplain":4286,"Ġevacu":4287,"imbabwe":4288,"19":4289,"gn":4290,"oes":4291,"reas":4292,"Ġciting":4293,"ounts":4294,"ĠLa":4295,"Ġteleph":4296,"Ġrecogn":4297,"Ġassoci":4298,"Ġowner":4299,"Korean":4300,"Ġmarried":4301,"ĠPeople":4302,"coh":4303,"een":4304,"knowled":4305,"Ġself":4306,"level":4307,"Ġisn":4308,"ĠBang":4309,"Ġsevere":4310,"Ġarch":4311,"ĠStar":4312,"Ġcompared":4313,"anging":4314,"Ġindivid":4315,"Ġraise":4316,"Ġways":4317,"Ġexperience":4318,"ĠHollywood":4319,"ĠPl":4320,"Ġwearing":4321,"ĠUri":4322,"apt":4323,"Ġacknowled":4324,"Ġ37":4325,"encies":4326,"oins":4327,"cont":4328,"Ġamount":4329,"Ġmostly":4330,"ĠPrince":4331,"Ġpowerful":4332,"Ġreceive":4333,"Ġbehav":4334,"Ġdrugs":4335,"Ġpositive":4336,"Ġpulled":4337,"Ġmagazine":4338,"Iraq":4339,"Ġfast":4340,"Ġfresh":4341,"Ġdig":4342,"Ġdemocracy":4343,"ĠPer":4344,"Ġwasn":4345,"ulated":4346,"Ġproduct":4347,"ĠFederal":4348,"Ġcontrib":4349,"Ġprovided":4350,"Ġfiled":4351,"Ġbombs":4352,"ullah":4353,"Ġmiddle":4354,"Ġlinked":4355,"Ar":4356,"fect":4357,"nn":4358,"ugh":4359,"ston":4360,"rian":4361,"ĠGh":4362,"Ġacce":4363,"ĠThailand":4364,"Ġusually":4365,"Ġminor":4366,"Ġguilty":4367,"Ġindustrial":4368,"ĠPhil":4369,"ĠMyung":4370,"Ġvillage":4371,"Ġnecessary":4372,"'d":4373,"nam":4374,"Ġcat":4375,"Ġfish":4376,"Ġpet":4377,"Ġtom":4378,"ends":4379,"ably":4380,"ĠChampions":4381,"keep":4382,"Ġprem":4383,"âĢĿ.":4384,"Ġrelated":4385,"Ġtroop":4386,"Ġdirectly":4387,"rupt":4388,"Ġnormal":4389,"Ġneighborhood":4390,"Ġperformance":4391,"athered":4392,"Pr":4393,"Ġsal":4394,"Ġsun":4395,"Ġongoing":4396,"ĠBBC":4397,"estival":4398,"anda":4399,"ĠHaw":4400,"Ġwords":4401,"Ġtrig":4402,"âĢĻâĢĻ":4403,"Ġinspect":4404,"Ġsubst":4405,"Ġrestaur":4406,"Ġconcerned":4407,"Ġpolicies":4408,"Ġconsumer":4409,"ĠMoscow":4410,"Ġeducation":4411,"Ġcommercial":4412,"IS":4413,"Since":4414,"TON":4415,"Ġsale":4416,"Ġsought":4417,"Ġcast":4418,"ica":4419,"oses":4420,"ully":4421,"ĠOs":4422,"Ġamb":4423,"Ġreportedly":4424,"Ġsuspic":4425,"Ġlooked":4426,"Ġpossibility":4427,"Ġmodel":4428,"Ġindependence":4429,"Ġhurt":4430,"iro":4431,"la":4432,"mas":4433,"rich":4434,"Ġcaught":4435,"Ġeast":4436,"ĠNort":4437,"ĠDon":4438,"Ġseat":4439,"ricane":4440,"Ġdeclined":4441,"rators":4442,"Ġcentury":4443,"Ġdepartment":4444,"Ġdamaged":4445,"Ġholiday":4446,"dog":4447,"Ãı":4448,"inion":4449,"Ġfears":4450,"arry":4451,"Ġexist":4452,"Ġplaced":4453,"ĠOl":4454,"mert":4455,"Ġtruck":4456,"Ġrecomm":4457,"Ġheadquarters":4458,"Ġoverseas":4459,"Ġtick":4460,"Ġcy":4461,"aration":4462,"arily":4463,"Ġpsych":4464,"ĠSant":4465,"Ġask":4466,"chie":4467,"ĠChavez":4468,"Ġalliance":4469,"Ġblock":4470,"Ġvoted":4471,"Ġremaining":4472,"Ġterrorists":4473,"Ġstopped":4474,"ĠPalestinians":4475,"Ġsomet":4476,"ĠOpen":4477,"Ġdomestic":4478,"Ġmarriage":4479,"15":4480,"BS":4481,"By":4482,"Ġfear":4483,"arant":4484,"omic":4485,"iment":4486,"ĠAlex":4487,"ĠMass":4488,"ĠDan":4489,"abil":4490,"ĠYong":4491,"Ġ45":4492,"Ġpromised":4493,"Ġbox":4494,"Ġfailure":4495,"clus":4496,"Under":4497,"ĠLebanon":4498,"Ġclean":4499,"ĠIndonesia":4500,"Ġsym":4501,"arious":4502,"Ġlines":4503,"aden":4504,"otal":4505,"Ġstreet":4506,"vert":4507,"Ġgoes":4508,"Ġund":4509,"Ġshel":4510,"Ġelected":4511,"Ġbrid":4512,"iversary":4513,"ĠSpanish":4514,"Ġviolent":4515,"Ġspeed":4516,"Ġcomplex":4517,"incip":4518,"Ġdesigned":4519,"En":4520,"rant":4521,"ties":4522,"Ġachie":4523,"ashes":4524,"ores":4525,"ĠWin":4526,"ĠJong":4527,"ĠRoyal":4528,"Ġexpand":4529,"Ġpartner":4530,"Ġminute":4531,"Ġsurf":4532,"Ġbelow":4533,"Ġfamous":4534,"ĠCommun":4535,"Ġregional":4536,"Ġappeal":4537,"Ġjoined":4538,"Ġactivity":4539,"Ġshortly":4540,"Ġcollaps":4541,"Ġindependent":4542,"ĠResearch":4543,"OS":4544,"fort":4545,"ta":4546,"Ġstem":4547,"Ġalcoh":4548,"ĠFBI":4549,"apore":4550,"sein":4551,"Ġmilitant":4552,"Ġentire":4553,"Ġspeak":4554,"Ġappears":4555,"Ġconsidering":4556,"Ġenvironmental":4557,"Ġconservative":4558,"Ġconclud":4559,"anguage":4560,"People":4561,"Despite":4562,"Ġtelephone":4563,"ES":4564,"atter":4565,"inger":4566,"Ġlay":4567,"adr":4568,"Ġheav":4569,"ĠMot":4570,"aging":4571,"apse":4572,"Ġrecession":4573,"Ġjustice":4574,"Ġhelping":4575,"Ġinvestigating":4576,"Ġvoting":4577,"ĠFranc":4578,"ĠAbbas":4579,"OND":4580,"Ġpledged":4581,"Ġcustomers":4582,"Ġastronaut":4583,"Ġfelt":4584,"Ġpal":4585,"icks":4586,"ĠAc":4587,"ĠRo":4588,"ĠRiver":4589,"Ġuniversity":4590,"Ġword":4591,"Ġanniversary":4592,"ologist":4593,"peaking":4594,"Ġvoice":4595,"Ġshuttle":4596,"Gen":4597,"My":4598,"Pro":4599,"dom":4600,"ademy":4601,"Ġgain":4602,"Ġgathered":4603,"ills":4604,"ĠMah":4605,"aki":4606,"Ġrestrict":4607,"Ġsentenced":4608,"Ġinvolve":4609,"Ġanimal":4610,"Ġlosses":4611,"Ġpackage":4612,"Ġcriminal":4613,"Ġsoftware":4614,"ien":4615,"uj":4616,"Ġtor":4617,"orial":4618,"orrow":4619,"Ġinn":4620,"adium":4621,"usal":4622,"illa":4623,"Ġshares":4624,"Ġwilling":4625,"Ġseized":4626,"Ġimages":4627,"Ġassass":4628,"Ġtells":4629,"itzer":4630,"Ġdismiss":4631,"ĠColombia":4632,"Ġstraight":4633,"ER":4634,"LOND":4635,"bled":4636,"can":4637,"night":4638,"yond":4639,"Ġfine":4640,"Ġmist":4641,"term":4642,"These":4643,"igan":4644,"irst":4645,"raud":4646,"ĠBay":4647,"Ġspl":4648,"Ind":4649,"ovo":4650,"Ġrap":4651,"Ġtalking":4652,"Ġconfidence":4653,"Ġclimate":4654,"onym":4655,"Ġpeaceful":4656,"ĠChristmas":4657,"Ġdrive":4658,"ĠIlbo":4659,"aska":4660,"Ġhonor":4661,"Ġtwice":4662,"Ġparticularly":4663,"Ġterritory":4664,"ĠKurd":4665,"LONDON":4666,"//":4667,"cher":4668,"Ġsending":4669,"Ġband":4670,"Ġmos":4671,"Ġalone":4672,"opher":4673,"ĠHow":4674,"ĠHigh":4675,"ĠLabor":4676,"Ġpregn":4677,"ashion":4678,"ĠSunni":4679,"Ġspecies":4680,"Ġcorrespond":4681,"Ġrocket":4682,"Ġmotor":4683,"Ġwaters":4684,"16":4685,"://":4686,"Clinton":4687,"rad":4688,"Ġbag":4689,"ĠSom":4690,"Ġgone":4691,"ĠMart":4692,"ĠPet":4693,"cean":4694,"ĠTim":4695,"Ġproduced":4696,"Ġvess":4697,"ĠGre":4698,"Ġplaces":4699,"ordon":4700,"Ġcrimes":4701,"ganization":4702,"Ġtraditional":4703,"Ġwinds":4704,"ilipp":4705,"Ġsurrounding":4706,"ttp":4707,"Ġestablish":4708,"Ġalbum":4709,"Iran":4710,"field":4711,"kn":4712,"Ġwrong":4713,"itation":4714,"Ġpow":4715,"utch":4716,"utions":4717,"amas":4718,"ĠPacific":4719,"Ġhair":4720,"ĠGames":4721,"Ġ36":4722,"Ġbecoming":4723,"Ġcrude":4724,"Ġknew":4725,"Ġsupply":4726,"Ġinsur":4727,"Ġthroughout":4728,"nergy":4729,"Ġfacilities":4730,"Ġkids":4731,"Ġlargely":4732,"Ġmobile":4733,"Ex":4734,"Kim":4735,"cnn":4736,"iqu":4737,"Ġfifth":4738,"ille":4739,"olas":4740,"amm":4741,"Ġweight":4742,"Ġaband":4743,"Ġcancel":4744,"Ġquake":4745,"Ġprincip":4746,"Ġflag":4747,"ugabe":4748,"Ġpolitics":4749,"ĠQue":4750,"Ġprepared":4751,"Ġdeliver":4752,"Ġobject":4753,"Ġprosecut":4754,"Ġgirls":4755,"ĠPeter":4756,"Ġsuffering":4757,"INGTON":4758,"ĠOscar":4759,"ein":4760,"han":4761,"Ġbin":4762,"Ġtourn":4763,"ĠBas":4764,"istrict":4765,"ĠGreen":4766,"Ġ32":4767,"range":4768,"Ġblue":4769,"Ġspeaking":4770,"Ġforecast":4771,"Ġfootball":4772,"Ġcontroversial":4773,"Ġcharacter":4774,"FA":4775,"Russ":4776,"ique":4777,"Ġwall":4778,"enger":4779,"Ġansw":4780,"ĠMer":4781,"irac":4782,"Ġitem":4783,"emper":4784,"ĠET":4785,"ĠEnergy":4786,"Ġclin":4787,"Ġtrue":4788,"iction":4789,"Ġpresence":4790,"Ġfacing":4791,"government":4792,"Ġactivists":4793,"Ġdetermine":4794,"Ġchoice":4795,"zza":4796,"Ġdozen":4797,"Ġsmoke":4798,"Ġdefeat":4799,"http":4800,"joy":4801,"Ġtight":4802,"Ġang":4803,"entagon":4804,"ĠCEO":4805,"Ġstars":4806,"Ġasking":4807,"ĠGlo":4808,"Ġjet":4809,"Ġdeadline":4810,"Ġdeveloping":4811,"Ġhappen":4812,"Ġmodern":4813,"Ġmanagement":4814,"Ġcompetition":4815,"Ġhouses":4816,"Ġopportunity":4817,"aid":4818,"hran":4819,"kin":4820,"Ġfraud":4821,"asons":4822,"Ġbeyond":4823,"ĠAri":4824,",\"\"":4825,"ube":4826,"Ġcoach":4827,"Ġcollect":4828,"Ġapproach":4829,"ASH":4830,"ĠOrganization":4831,"Ġjournalists":4832,"Ġfair":4833,"oma":4834,"ĠNob":4835,"ĠUk":4836,"ĠGold":4837,"Ġactions":4838,"Ġimplement":4839,"Ġforest":4840,"Ġcurrency":4841,"Ġdeveloped":4842,"Ġtraveling":4843,"Ġzone":4844,"Ġwaiting":4845,"Ġkidnapped":4846,"eckham":4847,"Ġchallenge":4848,"Ġcasual":4849,"reasury":4850,"code":4851,"ha":4852,"Ġu":4853,"Ġlosing":4854,"ĠNor":4855,"Ġrange":4856,"udan":4857,"Ġunless":4858,"ĠEconom":4859,"Ġarg":4860,"Ġcontest":4861,"Ġdoor":4862,"Ġapproval":4863,"Ġhappy":4864,"Ġdistrib":4865,"Ġbarrel":4866,"Ġcollapse":4867,"Ġtargeted":4868,"Ġprior":4869,"Ġseparate":4870,"ĠLebanese":4871,"Ġaudience":4872,"ĠCharles":4873,"NEW":4874,"Ġscandal":4875,"Ġbehavior":4876,"Our":4877,"bon":4878,"ny":4879,"town":4880,"heastern":4881,"Ġswe":4882,"itarian":4883,"Ġnar":4884,"Ġgre":4885,"Ġones":4886,"ĠApple":4887,"ĠBel":4888,"Ġvarious":4889,"Ġshr":4890,"ĠKoreas":4891,"ĠCho":4892,"Ġtext":4893,"Ġserved":4894,"Ġsettle":4895,"Ġfilms":4896,"ferences":4897,"Ġcuts":4898,"hester":4899,"Ġindicated":4900,"Ġphotos":4901,"Ġinitial":4902,"ĠSerb":4903,"ĠSteve":4904,"Ġhelicopter":4905,"Even":4906,"Go":4907,"Total":4908,"ko":4909,"nic":4910,"het":4911,"inated":4912,"inals":4913,"Ġborn":4914,"alty":4915,"ilater":4916,"ster":4917,"ĠRad":4918,"Ġplot":4919,"Ġwhole":4920,"ogue":4921,"Ġfinish":4922,"Ġregular":4923,"Ġheaded":4924,"Ġmissiles":4925,"Ġbelieves":4926,"Ġsoldier":4927,"Ġsystems":4928,"Ġrequired":4929,"Ġdemanding":4930,"Ġchanged":4931,"Ġmagn":4932,"Ġoriginal":4933,"Ġincreasingly":4934,"Ġalcohol":4935,"known":4936,"ASHINGTON":4937,"13":4938,"WASHINGTON":4939,"joins":4940,"point":4941,"vent":4942,"era":4943,"ici":4944,"icip":4945,"idel":4946,"Ġlands":4947,"Ġey":4948,"ussein":4949,"ĠKi":4950,"rip":4951,"ĠDistrict":4952,"Ġspir":4953,"anged":4954,"ondole":4955,"ogle":4956,"ension":4957,"Ġsupplies":4958,"Ġairline":4959,"Ġdemands":4960,"Ġbombings":4961,"Ġdelay":4962,"ĠChristian":4963,"Ġattempted":4964,"ĠEmbassy":4965,"ĠMicrosoft":4966,"Ġproposal":4967,"McC":4968,"ondolee":4969,"##":4970,"ram":4971,"war":4972,"Ġpurch":4973,"Ġanonym":4974,"ading":4975,"Ġonto":4976,"ĠRod":4977,"oded":4978,"Ġunve":4979,"Ġagencies":4980,"Ġcontent":4981,"Ġsecure":4982,"Ġremoved":4983,"ugg":4984,"Ġassault":4985,"Ġextreme":4986,"Ġinjury":4987,"ĠProv":4988,"Ġestimates":4989,"ĠAdministration":4990,"Ġdoctor":4991,"Ġvalue":4992,"ĠMadrid":4993,"ĠAhmad":4994,"ĠJustice":4995,"ondoleezza":4996,"haps":4997,"nation":4998,"wang":4999,"Ġign":5000,"Ġtemper":5001,"isc":5002,"Ġdial":5003,"ĠAff":5004,"osen":5005,"astic":5006,"Ġchampions":5007,"Ġdecade":5008,"Ġfinished":5009,"emocratic":5010,"Ġcells":5011,"Ġcollege":5012,"Among":5013,"Ġreligious":5014,"Ġsociety":5015,"oration":5016,"Ġow":5017,"isions":5018,"Ġlived":5019,"ĠPentagon":5020,"aked":5021,"Ġuns":5022,"anted":5023,"Ġmeant":5024,"Ġimage":5025,"Ġenjoy":5026,"ĠYou":5027,"Ġusers":5028,"Ġvisited":5029,"Ġcontinues":5030,"Ġ1998":5031,"ĠPhilipp":5032,"Ġchalleng":5033,"Ġimmig":5034,"ĠHyundai":5035,"Ġconflict":5036,"ĠSingapore":5037,"EC":5038,"foot":5039,"rec":5040,"rer":5041,"oral":5042,"Ġpounds":5043,"Ġmale":5044,"ami":5045,"ĠTs":5046,"ĠHan":5047,"Ġoverall":5048,"Ġattract":5049,"ĠInc":5050,"Ġslight":5051,"Ġguard":5052,"Ġteams":5053,"ĠTrade":5054,"Ġcomputers":5055,"Ġconsumers":5056,"ĠTehran":5057,"Ġsometimes":5058,"Ph":5059,"no":5060,"Ġir":5061,"Ġtank":5062,"isher":5063,"Ġdark":5064,"Ġgather":5065,"imum":5066,"ĠCondoleezza":5067,"rav":5068,"ulate":5069,"Ġproduce":5070,"Ġgoals":5071,"enders":5072,"ĠChurch":5073,"ĠYahoo":5074,"Ġphones":5075,"Ġ1999":5076,"Ġ150":5077,"Ġaffect":5078,"Ġrequire":5079,"Ġquestioned":5080,"Ġtelling":5081,"ĠCheney":5082,"Ġresignation":5083,"Ġseems":5084,"Ġvirt":5085,"Ġpicture":5086,"Ġwidely":5087,"Ġcamera":5088,"Ġbridge":5089,"ĠFrancisco":5090,"14":5091,"iation":5092,"western":5093,"Ġult":5094,"Ġsil":5095,"Ġmix":5096,"ĠBern":5097,"Ġwealth":5098,"ager":5099,"Ġspark":5100,"ĠLib":5101,"gered":5102,"Ġarriv":5103,"Ġargu":5104,"Ġgovernments":5105,"ĠYang":5106,"issions":5107,"Ġ400":5108,"Â´Â´":5109,"Ġsetting":5110,"Ġhostage":5111,"ronic":5112,"Ġdepart":5113,"Ġdeadly":5114,"Ġallowing":5115,"Ġoccup":5116,"Ġsinger":5117,"Ġtyp":5118,"ĠOlmert":5119,"Ad":5120,"rig":5121,"rill":5122,"ÃĢ":5123,"Ġi":5124,"Ġsense":5125,"Ġfully":5126,"Ġpull":5127,"ĠSol":5128,"irates":5129,"ĠPri":5130,"ĠHospital":5131,"ĠGordon":5132,"udget":5133,"Ġabuse":5134,"erved":5135,"Ġactress":5136,"Ġrail":5137,"Ġinvestigators":5138,"loyment":5139,"Ġobtain":5140,"Ġveter":5141,"ĠBlack":5142,"Ġerup":5143,"ĠCanada":5144,"Ġresolve":5145,"Ġcrackdown":5146,"Ġdetermined":5147,"Mar":5148,"cle":5149,"ford":5150,"Ġliber":5151,"ĠSudan":5152,"Ġally":5153,"ĠHussein":5154,"ĠGates":5155,"ĠJew":5156,"Ġexerc":5157,"Ġdisaster":5158,"Ġfled":5159,"Ġimposed":5160,"Ġfinally":5161,"Ġending":5162,"ground":5163,"Ġlooks":5164,"ĠZimbabwe":5165,"Ġbusinesses":5166,"Ġbanned":5167,"Ġsky":5168,"related":5169,"Ġpictures":5170,"ĠSyria":5171,"Ġproperty":5172,"racted":5173,"Ġpunish":5174,"ilateral":5175,"Rep":5176,"zona":5177,"Ġwest":5178,"orks":5179,"omber":5180,"Ġthin":5181,"ĠCamp":5182,"Ġrat":5183,"Ġdeg":5184,"Ġexamp":5185,"Ġacqu":5186,"Ġdiss":5187,"ova":5188,"Ġrecords":5189,"Ġweapon":5190,"Ġtaxes":5191,"Ġwalk":5192,"Ġaccepted":5193,"Pros":5194,"TV":5195,"ho":5196,"Ġinqu":5197,"Ġmuseum":5198,"ĠCross":5199,"rawn":5200,"ounced":5201,"ĠGod":5202,"ĠLaden":5203,"Ġmonit":5204,"oviet":5205,"Ġbelong":5206,"ship":5207,"Ġmovies":5208,"Ġforeigners":5209,"ĠReuters":5210,"Ġapartment":5211,"Ġrebel":5212,"ĠArabia":5213,"Ġfreedom":5214,"Ġpurp":5215,"Ġversion":5216,"ĠNobel":5217,"Pakistan":5218,"burg":5219,"called":5220,"mission":5221,"ports":5222,"set":5223,"Ġbal":5224,"Ġlic":5225,"Ġgang":5226,"Ġgets":5227,"imate":5228,"osovo":5229,"Ġalive":5230,"Ġprojects":5231,"ĠDi":5232,"ĠDNA":5233,"ĠGov":5234,"Ġunp":5235,"sea":5236,"Ġresort":5237,"elled":5238,"ternal":5239,"Ġsurge":5240,"obby":5241,"Ġserving":5242,"anchester":5243,"Ġgrad":5244,"Ġguarant":5245,"Ġentering":5246,"Ġcausing":5247,"Ġholds":5248,"Ġcompleted":5249,"Ġboyc":5250,"annel":5251,"Ġneighboring":5252,"ietnam":5253,"Ġdevice":5254,"Ġsquare":5255,"Ġstruggling":5256,"Ġinfluence":5257,"Ġdialogue":5258,"Speaking":5259,"ux":5260,"ilton":5261,"Ġeld":5262,"ĠCath":5263,"ĠTom":5264,"ĠWal":5265,"Ġseed":5266,"Ġoffices":5267,"look":5268,"nedy":5269,"Ġplanet":5270,"ĠSpace":5271,"ĠArgent":5272,"Ġdiscussions":5273,"Ġorganizations":5274,"ĠMalays":5275,"Ġbailout":5276,"Ġcollapsed":5277,"ĠAcademy":5278,"Ġmosque":5279,"27":5280,"fur":5281,"ipped":5282,"mosp":5283,"rated":5284,"uction":5285,"rey":5286,"Ġfix":5287,"Ġpicked":5288,"Ġbomber":5289,"Ġmeth":5290,"Ġfort":5291,"ĠTony":5292,"ighter":5293,"Ġsports":5294,"iano":5295,"Ġresident":5296,"Ġcler":5297,"awa":5298,"ĠVice":5299,"Those":5300,"Ġcouncil":5301,"Ġnewspapers":5302,"Ġ1980":5303,"ĠPeninsula":5304,"ructure":5305,"Ġattempts":5306,"ĠKyi":5307,"Ġroute":5308,"Ġadviser":5309,"Ġpoliticians":5310,"ĠAffairs":5311,"26":5312,"Bar":5313,"Just":5314,"John":5315,"Ġpiece":5316,"Ġtouch":5317,"lets":5318,"uset":5319,"oph":5320,"ources":5321,"abul":5322,"Ġ33":5323,"Ġ194":5324,"achuset":5325,"Ġproviding":5326,"Ġoppon":5327,"Ġ1997":5328,"Ġdemanded":5329,"Ġbooks":5330,"Ġpenalty":5331,"Ġvirus":5332,"Ġdeployment":5333,"ĠWilliams":5334,"Ġhistoric":5335,"ĠPortug":5336,"ĠArizona":5337,"achusetts":5338,"ki":5339,"life":5340,"rast":5341,"uild":5342,"onight":5343,"Ġdin":5344,"Ġdraft":5345,"eless":5346,"ĠDub":5347,"Ġexact":5348,"ivity":5349,"Ġscored":5350,"ĠVietnam":5351,"Ġblow":5352,"Ġremote":5353,"ĠShow":5354,"Ġheads":5355,"ĠMarine":5356,"Ġlocated":5357,"Ġpersonnel":5358,"ĠAirport":5359,"Ġappearance":5360,"incial":5361,"Ġbringing":5362,"ograp":5363,"ervez":5364,"addam":5365,"ĠCuba":5366,"Ġheavily":5367,"Every":5368,"vious":5369,"Ġpath":5370,"Ġbed":5371,"Ġancient":5372,"Ġdire":5373,"idency":5374,"ĠSchool":5375,"Ġstocks":5376,"rah":5377,"raine":5378,"ĠPervez":5379,"ĠJer":5380,"ĠJose":5381,"ĠChairman":5382,"Ġexports":5383,"Ġtrust":5384,"ropri":5385,"Ġregist":5386,"azir":5387,"Ġprotection":5388,"Ġinsp":5389,"minute":5390,"Ġdefend":5391,"Ġconcert":5392,"Ġkeeping":5393,"Ġprofession":5394,"ĠRepublicans":5395,"Ġsuggests":5396,"Ġcaptured":5397,"Ġwithdrawal":5398,"Ġpilot":5399,"Ġcloser":5400,"Ġcorporate":5401,"Ġensure":5402,"Ġitems":5403,"part":5404,"pool":5405,"Ġsem":5406,"Ġwed":5407,"Ġcited":5408,"Ġfly":5409,"Ġmer":5410,"Ġstood":5411,"ĠMugabe":5412,"rants":5413,"Ġscience":5414,"Ġdecide":5415,"Ġconspir":5416,"ancing":5417,"Ġexploded":5418,"Ġseeing":5419,"Ġpossibly":5420,"Ġtrouble":5421,"ĠBurma":5422,"egas":5423,"ĠMassachusetts":5424,"Ġrapid":5425,"eor":5426,"Ġten":5427,"Ġtons":5428,"anium":5429,"Ġtough":5430,"Ġreven":5431,"adian":5432,"urning":5433,"iri":5434,"eland":5435,"ĠNev":5436,"Ġunemp":5437,"Ġoutbre":5438,"Ġ38":5439,"Ġprin":5440,"Ang":5441,"Ġhighly":5442,"Ġenter":5443,"Ġhoped":5444,"Ġchem":5445,"amsung":5446,"ĠExchange":5447,"aksin":5448,",'":5449,"ga":5450,"Ġtim":5451,"Ġsolution":5452,"aro":5453,"ican":5454,"Ġdomin":5455,"ĠSar":5456,"Their":5457,"Ġprobe":5458,"agers":5459,"Ġvowed":5460,"ĠGl":5461,"ĠFer":5462,"ĠLas":5463,"epal":5464,"ĠYOR":5465,"Ġopinion":5466,"Ġtrib":5467,"Ġsupporting":5468,"Ġdelayed":5469,"Ġcritics":5470,"Ġuranium":5471,"ĠGuard":5472,"Ġjournalist":5473,"ĠKennedy":5474,"Ġdemonstrations":5475,"Ġrestrictions":5476,"ĠKurdish":5477,"ĠYORK":5478,",Â¡Â±":5479,"oen":5480,"Ġsong":5481,"Ġcart":5482,"Ġcents":5483,"ĠSoviet":5484,"urb":5485,"Ġsave":5486,"ĠCap":5487,"ecause":5488,"ĠMo":5489,"ĠDel":5490,"ĠHu":5491,"ĠGNP":5492,"Ġchamp":5493,"Ġpret":5494,"Ġcruc":5495,"Ġentered":5496,"Ġgoods":5497,"Ġadvant":5498,"Ġauto":5499,"Ġlawyers":5500,"Ġreplace":5501,"Ġwatching":5502,"ĠMahm":5503,"Ġinvolvement":5504,"Ġinnoc":5505,"Ġgreater":5506,"ĠProvince":5507,"comm":5508,"uals":5509,"zai":5510,"Ġmach":5511,"Ġhun":5512,"Ġeye":5513,"adal":5514,"Ġgall":5515,"otter":5516,"Ġstress":5517,"ategy":5518,"Ġspring":5519,"Ġnoted":5520,"rys":5521,"rend":5522,"Ġjury":5523,"elling":5524,"Ġadminist":5525,"Ġsurve":5526,"Ġrelative":5527,"Ġtribal":5528,"unta":5529,"ĠChristopher":5530,"Ġdeclaration":5531,"Ġeventually":5532,"Ġphotograph":5533,"Ġdemonstrators":5534,"ĠTibetan":5535,"ĠNicolas":5536,"Ġtorch":5537,"ĠHoward":5538,"Ġcorrespondent":5539,"Ġtournament":5540,"18":5541,"ias":5542,"rison":5543,"Ġaide":5544,"Ġpra":5545,"enty":5546,"Ġreasons":5547,"Ġlose":5548,"aming":5549,"ĠAli":5550,"Ġatmosp":5551,"ĠKosovo":5552,"Ġshopp":5553,"ĠLou":5554,"Ġunable":5555,"Ġ42":5556,"Three":5557,"Ġprovincial":5558,"Ġbuying":5559,"Ġ75":5560,"Ġopposed":5561,"Ġbroken":5562,"Ġvisiting":5563,"Ġowners":5564,"Ġexperi":5565,"Ġsmaller":5566,"Ġstandards":5567,"iverpool":5568,"ĠConstitution":5569,"Ġriver":5570,"Ġequip":5571,"Ġpeninsula":5572,"Ġinitially":5573,"ĠSuper":5574,"Ġkidnapping":5575,"Several":5576,"Ġhousing":5577,"Ġdogs":5578,"Ġtreated":5579,"Ġconnection":5580,"British":5581,"Ġprosecutor":5582,"Ġexample":5583,"tar":5584,"va":5585,"vention":5586,"zb":5587,"Ġtable":5588,"rect":5589,"Ġcold":5590,"Ġbought":5591,"ilit":5592,"ĠMur":5593,"ĠTreasury":5594,"agement":5595,"Ġhaven":5596,"ĠHall":5597,"ĠGar":5598,"ĠIraqis":5599,"ĠThai":5600,"Ġwarming":5601,"Ġrelief":5602,"Ġembassy":5603,"Ġstrategy":5604,"Ġdefin":5605,"Ġtransition":5606,"ĠAlaska":5607,"ĠMichigan":5608,"Ġhumans":5609,"Ġestate":5610,"Ġnationwide":5611,"remier":5612,"iamond":5613,"Ġdriver":5614,"Ġdelegation":5615,"Ġreaction":5616,"Ġfloor":5617,"Ġsplit":5618,"24":5619,"EL":5620,"IC":5621,"aug":5622,"mo":5623,"oning":5624,"state":5625,"aches":5626,"Ġisol":5627,"rier":5628,"atever":5629,"ĠGM":5630,"Ġunit":5631,"Ġaboard":5632,"ously":5633,"ricult":5634,"Ġtrillion":5635,"Ġapplic":5636,"Ġpray":5637,"ikh":5638,"Ġfinding":5639,"Ġswim":5640,"ĠBlair":5641,"Ġexecutives":5642,"Ġcommitment":5643,"Ġexplosives":5644,"udden":5645,"Ġprize":5646,"Today":5647,"Ġevacuated":5648,"Ġcanceled":5649,".'":5650,"Bl":5651,"Con":5652,"iat":5653,"lad":5654,"uz":5655,"anced":5656,"iti":5657,"stri":5658,"Ġstim":5659,"ĠNet":5660,"Ġrall":5661,"ĠRev":5662,"ums":5663,"Ġspons":5664,"Ġjunta":5665,"ellow":5666,"Ġintended":5667,"Ġperfect":5668,"Ġofficially":5669,"Ġcrashed":5670,"Ġrecall":5671,"lands":5672,"Ġheading":5673,"Ġ2010":5674,"Ġ1990":5675,"Ġpresidency":5676,"Ġthreats":5677,"Ġnegotiator":5678,"Ġeasy":5679,"Ġfrequ":5680,"Ġseriously":5681,"Ġsurviv":5682,"Ġtensions":5683,"Ġsurprise":5684,"Ġdisplay":5685,"Ġsymb":5686,"Ġnarrow":5687,"ipp":5688,"lig":5689,"sen":5690,"atah":5691,"Ġhor":5692,"ented":5693,"Then":5694,"under":5695,"owa":5696,"Ġring":5697,"ĠHur":5698,"ĠRoman":5699,"Ġspend":5700,"Ġresum":5701,"iego":5702,"ĠInt":5703,"ĠVegas":5704,"Ġactive":5705,"ĠAnn":5706,"Ġentertain":5707,"Ġfacility":5708,"ĠAbu":5709,"Ġfootage":5710,"Ġships":5711,"Ġorigin":5712,"Ġtempor":5713,"ĠJoong":5714,"Ġethnic":5715,"Prosecutors":5716,"Ġequipment":5717,"aith":5718,"cri":5719,"fall":5720,"sun":5721,"za":5722,"Ãģ":5723,"Ġauction":5724,"ita":5725,"Ġfro":5726,"Ġtoys":5727,"Ġmine":5728,"Ġbear":5729,"Ġsamp":5730,"Ġstations":5731,"ĠBro":5732,"Ġven":5733,"ĠDiana":5734,"Ġshock":5735,"ubble":5736,"Ġroy":5737,"Ġdecline":5738,"ollah":5739,"Ġraising":5740,"Ġwinter":5741,"Ġboat":5742,"Ġtravelers":5743,"Ġstanding":5744,"Ġideas":5745,"ĠSuu":5746,"ĠMilan":5747,"Ġdoubt":5748,"vestig":5749,"Ġcondemned":5750,"rysler":5751,"ply":5752,"zen":5753,"Ġwire":5754,"Ġgay":5755,"Ġgains":5756,"ĠCom":5757,"etic":5758,"Ġheat":5759,"eld":5760,"ĠBol":5761,"emen":5762,"ĠKenya":5763,"ĠNavy":5764,"ĠFil":5765,"Ġagent":5766,"usted":5767,"Ġkillings":5768,"Ġstatus":5769,"Ġauthority":5770,"Ġspeculation":5771,"Ġextrem":5772,"ĠParliament":5773,"Ġjailed":5774,"Ġselling":5775,"ĠGovern":5776,"ĠGoogle":5777,"Ġelse":5778,"Ġculture":5779,"Ġbenefits":5780,"Ġrevealed":5781,"Ġstrengthe":5782,"Ġcooperation":5783,"ĠQueen":5784,"Ġanswer":5785,"From":5786,"LA":5787,"put":5788,"iced":5789,"ĠSout":5790,"ĠCons":5791,"heriff":5792,"Ġrank":5793,"ĠJud":5794,"Ġking":5795,"Ġabduct":5796,"sequ":5797,"Ġclashes":5798,"Ġ34":5799,"Ġenforce":5800,"Ġroll":5801,"Ġdowntown":5802,"Ġendors":5803,"Ġretail":5804,"Ġassistance":5805,"Ġclaiming":5806,"Ġtested":5807,"Ġtesting":5808,"Ġconvention":5809,"Ġfellow":5810,"Ġwalked":5811,"Ġdismissed":5812,"McCain":5813,"Ġunemployment":5814,"Ġatmosphere":5815,"pread":5816,"rim":5817,"Ġtape":5818,"Ġsister":5819,"aldo":5820,"ental":5821,"ĠSaddam":5822,"ader":5823,"uri":5824,"ache":5825,"acing":5826,"otic":5827,"ĠManchester":5828,"osure":5829,"Ġcong":5830,"ĠNepal":5831,"Ġprove":5832,"Ġrough":5833,"ĠLone":5834,"Ġreporter":5835,"ucks":5836,"roud":5837,"Ġgoverning":5838,"ruise":5839,"Ġweekly":5840,"Ġsixth":5841,"Ġdifferences":5842,"evin":5843,"Ġfaced":5844,"Ġhanded":5845,"Ġskin":5846,"Ġprofit":5847,"idespread":5848,"Ġsimply":5849,"ĠTrans":5850,"yeong":5851,"Ġlearned":5852,"usalem":5853,"Ġangry":5854,"Ġcasualties":5855,"ĠNevada":5856,"Ġchampion":5857,"ĠMahmoud":5858,"Aust":5859,"De":5860,"Four":5861,"law":5862,"moon":5863,"iny":5864,"onz":5865,"orado":5866,"Ġbudget":5867,"Ġlanguage":5868,"Ġbeach":5869,"ĠSam":5870,"unk":5871,"ĠTor":5872,"uls":5873,"Ġoffensive":5874,"ĠLiber":5875,"Ġabroad":5876,"uster":5877,"orsese":5878,"Ġpartners":5879,"Ġquality":5880,"Ġrape":5881,"Also":5882,"ĠCont":5883,"Ġroads":5884,"Ġburied":5885,"Ġrooms":5886,"Ġwatched":5887,"Ġtype":5888,"Ġmeaning":5889,"ĠMedical":5890,"Ġpushing":5891,"Ġturning":5892,"impson":5893,"Ġjumped":5894,"Ġbirds":5895,"ĠDubai":5896,"Ġcrucial":5897,"MA":5898,"Of":5899,"da":5900,"well":5901,"xic":5902,"inese":5903,"Ġsudden":5904,"Ġpair":5905,"omas":5906,"ĠSoc":5907,"ĠAbe":5908,"Ġstake":5909,"Ġstadium":5910,"irt":5911,"ĠPan":5912,"ĠPremier":5913,"ersey":5914,"ĠKabul":5915,"Ġcomed":5916,"Ġsport":5917,"Ġselect":5918,"ibb":5919,"Ġlawmaker":5920,"Ġstudies":5921,"Ġassets":5922,"Ġextended":5923,"ucky":5924,"Ġcutting":5925,"Ġstrikes":5926,"Ġhumanitarian":5927,"Ġlowest":5928,"Ġdivor":5929,"Ġwalking":5930,"Ġcompletely":5931,"Ġintroduced":5932,"General":5933,"Ġanonymity":5934,"Ġadvantage":5935,"Re":5936,"Ġfashion":5937,"roc":5938,"unte":5939,"ĠCIA":5940,"ĠIowa":5941,"ĠBeckham":5942,"agn":5943,"aine":5944,"Ġvia":5945,"ĠDis":5946,"ĠLaw":5947,"ivered":5948,"iang":5949,"Ġupon":5950,"Ġattended":5951,"Ġ44":5952,"Ġ48":5953,"Ġcoord":5954,"Ġrelatives":5955,"Ġairstri":5956,"Ġeffects":5957,"Ġallows":5958,"Ġformal":5959,"Ġjudges":5960,"Ġphotograp":5961,"Ġrivals":5962,"prof":5963,"Ġfavorite":5964,"Ġwitnesses":5965,"Ġphysical":5966,"Ġeyes":5967,"ĠJerusalem":5968,"60":5969,"70":5970,"GH":5971,"ba":5972,"cks":5973,"Ġawa":5974,"inces":5975,"Ġwood":5976,"Ġlog":5977,"Ġformed":5978,"Ġconvers":5979,"ĠNBC":5980,"agan":5981,"ĠWolf":5982,"Ġrural":5983,"ĠRam":5984,"ĠFatah":5985,"Ġsuit":5986,"Ġunus":5987,"Ġaggress":5988,"quare":5989,"ĠOcean":5990,"Ġexpress":5991,"Ġperhaps":5992,"Ġinches":5993,"Ġappoint":5994,"Ġflow":5995,"Ġspecific":5996,"Ġputting":5997,"Ġhospitalized":5998,"Ġtradition":5999,"Ġlanding":6000,"Ġsuccessful":6001,"ĠMuslims":6002,"ĠMartin":6003,"ĠUkraine":6004,"Ġunveiled":6005,"Ġowned":6006,"Ġconspiracy":6007,"EA":6008,"GNP":6009,"has":6010,"hand":6011,"hist":6012,"pting":6013,"Ġ.":6014,"rell":6015,"Ġwake":6016,"anks":6017,"Ġcovered":6018,"Ġflying":6019,"Ġfestival":6020,"Ġburned":6021,"Ġmamm":6022,"ĠSamsung":6023,"ctic":6024,"Ġcomfort":6025,"ewhere":6026,"ĠRob":6027,"Ġexhib":6028,"Ġchances":6029,"Ġplants":6030,"Ġagree":6031,"vernight":6032,"Ġperman":6033,"ildren":6034,"Ġ55":6035,"Ġcarbon":6036,"Ġbacked":6037,"Ġmarked":6038,"Ġseconds":6039,"attle":6040,"ecutive":6041,"Ġruns":6042,"Ġdetain":6043,"Chinese":6044,"Ġsubs":6045,"Ġfewer":6046,"olutionary":6047,"Ġlanded":6048,"Ġapology":6049,"Ġinterests":6050,"Ġbasis":6051,"Ġcreating":6052,"Ġbegun":6053,"zbollah":6054,",âĢĻâĢĻ":6055,"EI":6056,"more":6057,"Ġath":6058,"atures":6059,"Ġcatch":6060,"Ġovernight":6061,"Ġfan":6062,"Ġmention":6063,"Ġstret":6064,"ĠMount":6065,"ĠIr":6066,"ĠTen":6067,"Ġcongress":6068,"rie":6069,"ĠNas":6070,"ĠHa":6071,"Ġworse":6072,"Ġadvert":6073,"Ġinvasion":6074,"argo":6075,"Ġrecovery":6076,"aze":6077,"Ġmayor":6078,"Ġdeton":6079,"ĠQu":6080,"Ġextin":6081,"ĠZeal":6082,"Ġhousehold":6083,"Ġmodels":6084,"Ġequal":6085,"ĠReserve":6086,"Ġfocused":6087,"Ġrefugees":6088,"Ġmortg":6089,"HO":6090,"Pal":6091,"Sadr":6092,"bl":6093,"uers":6094,"Ġfill":6095,"Ġharm":6096,"omes":6097,"Ġthrow":6098,"Ġrein":6099,"Ġlights":6100,"acted":6101,"ima":6102,"ĠMet":6103,"that":6104,"ĠPotter":6105,"ĠBa":6106,"ifying":6107,"orted":6108,"ĠDiego":6109,"Ġexcept":6110,"enda":6111,"Ġsuc":6112,"Ġresul":6113,"Ġarr":6114,"Ġadj":6115,"Ġleads":6116,"Ġmonks":6117,"Thousands":6118,"Ġcoff":6119,"Ġrelay":6120,"ducing":6121,"Ġinsisted":6122,"ologists":6123,"Ġknows":6124,"evich":6125,"Ġexpert":6126,"Ġtourism":6127,"Ġsimple":6128,"Ġdestruction":6129,"formation":6130,"Ġgirlfriend":6131,"Ġloans":6132,"Ġlimited":6133,"Ġcertainly":6134,"Ġunclear":6135,"Ġorganized":6136,"ĠVenezuela":6137,"Ġacknowledged":6138,"ĠDaniel":6139,"Ġachieve":6140,"ĠCommunist":6141,"Ġpowers":6142,"Ġinsurance":6143,"Don":6144,"IV":6145,"iest":6146,"uct":6147,"works":6148,"Ġwidespread":6149,"Ġfaith":6150,"stein":6151,"ĠSur":6152,"ĠKat":6153,"Ġproced":6154,"ĠDaily":6155,"Ġquite":6156,"Ġrecru":6157,"Ġunderw":6158,"Ġreturning":6159,"Ġprovinces":6160,"Ġdebt":6161,"ĠSenator":6162,"Ġhospitals":6163,"ength":6164,"Ġdevast":6165,"Ġzoo":6166,"Ġwarnings":6167,"Ġbabies":6168,"Ġdeployed":6169,"Ġtriggered":6170,"ĠNorthern":6171,"ropriate":6172,"bus":6173,"oor":6174,"torney":6175,"isa":6176,"oms":6177,"Ġgives":6178,"Ġgained":6179,"imately":6180,"ĠBroad":6181,"Ġaltern":6182,"ĠNiger":6183,"ĠGal":6184,"ĠJos":6185,"Ġagenda":6186,"oston":6187,"oke":6188,"Ġincome":6189,"Ġupcoming":6190,"Ġinvited":6191,"Ġtrail":6192,"ĠThey":6193,"icking":6194,"Ġpromote":6195,"Ġstrateg":6196,"Ġcontinuing":6197,"Ġsupported":6198,"Ġpassenger":6199,"Ġcauc":6200,"Ġdelivered":6201,"ĠFrank":6202,"Ġthreatening":6203,"Ġaffairs":6204,"Ġurging":6205,"ĠColumb":6206,"Ġeditor":6207,"Ġchoose":6208,"Ġcontroversy":6209,"Ġcalm":6210,"Ġwelcom":6211,"Ġfarmers":6212,"olitan":6213,"ĠSanta":6214,"Ġchallenges":6215,"Ġslightly":6216,"Hundreds":6217,"won":6218,"where":6219,"inn":6220,"Ġsound":6221,"erman":6222,"ervers":6223,"Ġwid":6224,"Ġpump":6225,"Ġinaug":6226,"Ġdie":6227,"entially":6228,"roll":6229,"oline":6230,"ĠMa":6231,"ĠNe":6232,"ĠWa":6233,"ĠDal":6234,"ĠHuman":6235,"ĠRio":6236,"Ġoffers":6237,"ocal":6238,"ĠStep":6239,"Ġoverw":6240,"Ġherself":6241,"ureau":6242,"overe":6243,"Ġpercentage":6244,"ĠMont":6245,"liest":6246,"Ġconfident":6247,"exp":6248,"Ġfollows":6249,"Ġinvestigate":6250,"ĠJohnson":6251,"ĠColorado":6252,"Ġstrongly":6253,"Ġdrinking":6254,"Ġinstall":6255,"Ġtargeting":6256,"Ġwait":6257,"ĠSwed":6258,"Ġrenew":6259,"Ġlawsuit":6260,"Ġelectricity":6261,"ĠPrize":6262,"ĠCatholic":6263,"ĠLouis":6264,"Austral":6265,"400":6266,"Che":6267,"book":6268,"ivery":6269,"Ġtonight":6270,"Ġcateg":6271,"Ġbra":6272,"Ġease":6273,"ĠSum":6274,"ĠAuthor":6275,"aka":6276,"ĠNadal":6277,"Ġproceed":6278,"ĠDutch":6279,"ĠHot":6280,"Ġoffering":6281,"ourney":6282,"Ġability":6283,"rence":6284,"Ġcomplic":6285,"Ġdisarm":6286,"ipe":6287,"Ġreporting":6288,"Ġ51":6289,"Ġ43":6290,"Ġtrapped":6291,"Ġlocation":6292,"Ġdetention":6293,"ĠQala":6294,"velopment":6295,"ĠPalin":6296,"Ġcolon":6297,"byon":6298,"Ġdiscussed":6299,"Ġreality":6300,"Ġtargets":6301,"Ġquestioning":6302,"Ġtreaty":6303,"Ġreaching":6304,"Ġsolar":6305,"Ġwelcome":6306,"Ġregulations":6307,"Ġsubstant":6308,"Ġconcluded":6309,"Ġvessel":6310,"Ġsparked":6311,"300":6312,"backed":6313,"erer":6314,"fl":6315,"ju":6316,"jevich":6317,"lsea":6318,"zing":6319,"ena":6320,"atin":6321,"Ġbilateral":6322,"Ġmaker":6323,"ols":6324,"Ġgar":6325,"ĠBah":6326,"Ġalert":6327,"ĠGulf":6328,"ĠRock":6329,"ĠFood":6330,"Ġexpects":6331,"Ġscr":6332,"Ġ52":6333,"Ġearned":6334,"Ġassistant":6335,"Ġfeed":6336,"Ġboats":6337,"Ġsubject":6338,"Ġstandoff":6339,"Ġdrama":6340,"Ġtourist":6341,"Ġolder":6342,"ĠScorsese":6343,"Ġpatient":6344,"Ġmatches":6345,"Ġneighbors":6346,"agojevich":6347,"Ġrockets":6348,"ĠChelsea":6349,"Ġmaterials":6350,"Ġmanufacture":6351,"Ġpractice":6352,"Ġextremely":6353,"ĠGovernor":6354,"ĠZealand":6355,"Ġsucceed":6356,"Do":6357,"bor":6358,"hap":6359,"hab":6360,"zed":6361,"Ġfires":6362,"Ġpage":6363,"Ġproud":6364,"outs":6365,"stead":6366,"osite":6367,"ĠWatch":6368,"Ġrich":6369,"ĠDong":6370,"Ġexam":6371,"Ġspac":6372,"ĠLi":6373,"ĠLiverpool":6374,"Ġunlike":6375,"ables":6376,"ĠElection":6377,"Ġclosing":6378,"Ġmanaged":6379,"Ġqualif":6380,"Ġblame":6381,"Ġplanes":6382,"Ġwins":6383,"Ġ1994":6384,"Ġnegative":6385,"Ġafford":6386,"Ġhealthy":6387,"ĠMayor":6388,"ĠPeace":6389,"Ġdiplomats":6390,"ĠForces":6391,"Ġvolunte":6392,"Ġsmoking":6393,"Ġstores":6394,"Ġlegislation":6395,"Israeli":6396,"ĠSharif":6397,"Ġassassination":6398,"Ġspirit":6399,"Ġarrival":6400,"Ġoutbreak":6401,"overeign":6402,"600":6403,"Because":6404,"Ne":6405,"Roh":6406,"Watch":6407,"fighters":6408,"lus":6409,"ville":6410,"Ġtear":6411,"Ġtied":6412,"Ġsick":6413,"Ġmand":6414,"Ġge":6415,"ĠCBS":6416,"ĠABC":6417,"iller":6418,"ĠPC":6419,"ĠRom":6420,"ĠFort":6421,"Ġnote":6422,"ordan":6423,"Ġcouldn":6424,"Ġcool":6425,"Ġremark":6426,"Ġreloc":6427,"Ġassess":6428,"Ġvisa":6429,"Ġemph":6430,"ĠSpe":6431,"Chung":6432,"Ġdelivery":6433,"Ġmusical":6434,"Ġdriven":6435,"Ġdrivers":6436,"Ġfeeling":6437,"Ġiniti":6438,"Ġpresented":6439,"Ġfuneral":6440,"Ġlifted":6441,"Ġcouples":6442,"Before":6443,"Ġstrength":6444,"ĠJeff":6445,"ĠMaryland":6446,"Ġtomorrow":6447,"ĠYongbyon":6448,"Ġchemical":6449,"Ġfrozen":6450,"75":6451,"Near":6452,"feld":6453,"Ġtort":6454,"Ġtack":6455,"Ġtall":6456,"rees":6457,"Ġwave":6458,"Ġwounding":6459,"Ġpushed":6460,"Ġmarg":6461,"Ġhole":6462,"Ġdemocratic":6463,"Ġthrew":6464,"Ġlobby":6465,"olute":6466,"terror":6467,"ĠAg":6468,"ĠMu":6469,"ĠHIV":6470,"astro":6471,"ĠFord":6472,"abad":6473,"Ġaccomp":6474,"Ġquit":6475,"ĠThis":6476,"Ġfinance":6477,"Ġretired":6478,"Ġstatements":6479,"Ġprompted":6480,"Ġemot":6481,"irector":6482,"Ġpreparing":6483,"Ġhoping":6484,"Ġfindings":6485,"Ġclearly":6486,"Ġpatrol":6487,"Ġapart":6488,"Ġfalling":6489,"Ġgunmen":6490,"Ġsearching":6491,"Ġdrove":6492,"Ġbench":6493,"Ġescaped":6494,"celona":6495,"Ġpredicted":6496,"IDS":6497,"Ġflew":6498,"Ġsector":6499,"ĠBerlin":6500,"Ġencoura":6501,"Ġdigital":6502,"Prime":6503,"Ġinspectors":6504,"Ġticket":6505,"45":6506,"Five":6507,"Le":6508,"OP":6509,"kok":6510,"Ġbatter":6511,"Ġinternal":6512,"leine":6513,"ola":6514,"Ġgrew":6515,"ĠMike":6516,"iring":6517,"ĠPel":6518,"ĠBoston":6519,"emic":6520,"Ġrid":6521,"Ġvast":6522,"ĠDen":6523,"Ġkm":6524,"ĠLt":6525,"Ġtru":6526,"rance":6527,"adeleine":6528,"ĠYear":6529,"oving":6530,"ĠVer":6531,"ĠVlad":6532,"Ġrecover":6533,"Ġremove":6534,"Ġelectronic":6535,"Ġmemory":6536,"Ġdifference":6537,"liminary":6538,"Ġnortheast":6539,"ĠCoast":6540,"Ġviews":6541,"Ġresigned":6542,"Seoul":6543,"Ġresponded":6544,"ĠMohammed":6545,"ĠDarfur":6546,"Ġreferring":6547,"Ġteachers":6548,"Ġexercise":6549,"Ġmethod":6550,"ĠAuthority":6551,"Hill":6552,"OC":6553,"Tur":6554,"UL":6555,"dney":6556,"hud":6557,"larg":6558,"Ġut":6559,"Ġsovereign":6560,"esus":6561,"Ġfate":6562,"strong":6563,"ĠMem":6564,"through":6565,"ĠId":6566,"esty":6567,"ĠHel":6568,"ĠGreat":6569,"ĠFound":6570,"ĠLama":6571,"abeth":6572,"ĠEr":6573,"Ġjourney":6574,"Ġenemy":6575,"Ġappointed":6576,"Ġ195":6577,"aret":6578,"Ġrecovered":6579,"ĠShan":6580,"Ġhighlight":6581,"Ġreflect":6582,"Ġaides":6583,"Ġ800":6584,"ĠSpears":6585,"Ġpresum":6586,"Ġfallen":6587,"Ġtowards":6588,"Ġgunman":6589,"Ġstaying":6590,"ĠKarzai":6591,"Ġstruggle":6592,"Ġdismant":6593,"Ġlearn":6594,"Ġfeatures":6595,"Ġrefugee":6596,"Ġoptions":6597,"Ġlabel":6598,"Ġindividuals":6599,"ĠEconomic":6600,"Ġcleric":6601,"ĠSarah":6602,"Ġinnocent":6603,"Ġstimul":6604,"Ġoverwhel":6605,"dro":6606,"had":6607,"pass":6608,"Ġawards":6609,"ero":6610,"atri":6611,"Ġfier":6612,"isf":6613,"Ġble":6614,"Ġlift":6615,"acity":6616,"ĠComp":6617,"ĠMel":6618,"raham":6619,"Ġvari":6620,"ĠJordan":6621,"ĠJesus":6622,"ĠFayed":6623,"Ġchosen":6624,"Ġspect":6625,"Ġsust":6626,"oking":6627,"Ġacting":6628,"Though":6629,"Ġconsult":6630,"Ġ65":6631,"Ġcaptain":6632,"Ġdiscl":6633,"Ġadvance":6634,"Ġrecorded":6635,"ĠAirlines":6636,"Ġroadside":6637,"Ġbasic":6638,"Ġgrave":6639,"Ġcircum":6640,"Ġfatal":6641,"ĠBangkok":6642,"Ġsurface":6643,"ĠHurricane":6644,"Ġroyal":6645,"Ġpermanent":6646,"90":6647,"SE":6648,"Tube":6649,"bing":6650,"gar":6651,"har":6652,"Ġtask":6653,"Ġpapers":6654,"Ġbreat":6655,"Ġdiver":6656,"Ġeuro":6657,"Ġgrab":6658,"ura":6659,"othes":6660,"ĠBig":6661,"ĠKe":6662,"Ġyouth":6663,"ĠRec":6664,"Ġshared":6665,"ĠOn":6666,"Ġresources":6667,"orders":6668,"Ġovert":6669,"Ġenrich":6670,"Ġdecisions":6671,"cons":6672,"Ġoption":6673,"ohan":6674,"Ġwarm":6675,"Ġregions":6676,"rative":6677,"Ġemissions":6678,"Ġhopef":6679,"Ġclosely":6680,"Ġlarger":6681,"Ġorders":6682,"Ġmessages":6683,"Ġillegally":6684,"Ġvolcan":6685,"Ġescal":6686,"ĠColombian":6687,"Ġcommunications":6688,"ĠAtlanta":6689,"Ġoptim":6690,"Ġrestaurant":6691,"Ġshopping":6692,"Ġathlet":6693,"ĠDalai":6694,"CO":6695,"Six":6696,"born":6697,"onna":6698,"onhap":6699,"Ġbran":6700,"Ġdict":6701,"ĠSquare":6702,"ĠCamb":6703,"Ġstability":6704,"Ġhero":6705,"third":6706,"ĠBudd":6707,"ounger":6708,"agues":6709,"iform":6710,"ĠJul":6711,"Ġaren":6712,"ĠRights":6713,"Ġspy":6714,"ĠOne":6715,"ardo":6716,"Ġexport":6717,"action":6718,"ĠThaksin":6719,"Ġsupposed":6720,"ĠSean":6721,"Ġcorner":6722,"ĠHezbollah":6723,"Ġbanking":6724,"Ġcontrolled":6725,"Ġvideos":6726,"Ġorganizers":6727,"Ġwriting":6728,"Ġphoto":6729,"Ġbroadc":6730,"standing":6731,"elta":6732,"Ġrequested":6733,"ĠDevelopment":6734,"Ġsurrounded":6735,"Ġrepeatedly":6736,"Ġbottom":6737,"Ġmedicine":6738,"Ġpregnant":6739,"Russia":6740,"17":6741,"Tw":6742,"chest":6743,"dd":6744,"hatt":6745,"jung":6746,"rate":6747,"tr":6748,"Ġtun":6749,"Ġtiny":6750,"Ġsight":6751,"ito":6752,"Ġmph":6753,"tery":6754,"Ġsail":6755,"otland":6756,"ĠTra":6757,"ĠJon":6758,"ĠJim":6759,"Ġexile":6760,"Ġadults":6761,"Ġmanip":6762,"aval":6763,"awi":6764,"ĠThomas":6765,"Ġknee":6766,"Ġairports":6767,"Ġassembly":6768,"ĠMars":6769,"shire":6770,"Ġmainly":6771,"Ġcease":6772,"Ġstronger":6773,"Ġconvoy":6774,"Ġfunding":6775,"Ġchanging":6776,"Ġengaged":6777,"Ġradical":6778,"Ġsurvived":6779,"Ġflooding":6780,"Ġverd":6781,"Ġbegins":6782,"DAD":6783,"Ġobservers":6784,"Ġboycott":6785,"ĠArgentina":6786,"Ġdirection":6787,"Ġprofessional":6788,"PP":6789,"vis":6790,"Ġ`":6791,"Ġfit":6792,"Ġinstit":6793,"alyst":6794,"ouri":6795,"Ġdump":6796,"Ġdiamond":6797,"Ġnor":6798,"struction":6799,"Ġlength":6800,"Ġgreet":6801,"urities":6802,"owell":6803,"ĠKu":6804,"ĠWood":6805,"Ġride":6806,"ĠJersey":6807,"Ġ250":6808,"Ġaccounts":6809,"Ġmilitia":6810,"Ġmilitias":6811,"Ġ54":6812,"Ġ46":6813,"ledge":6814,"obs":6815,"Ġbrand":6816,"Ġhighway":6817,"Ġwonder":6818,"Ġstandard":6819,"Ġfailing":6820,"ĠReal":6821,"Ġidentify":6822,"Ġseemed":6823,"Ġpledge":6824,"Ġpositions":6825,"ĠSteven":6826,"Ġcultural":6827,"ĠSydney":6828,"Ġbenefit":6829,"BAGH":6830,"Ġconstitutional":6831,"Ġcopy":6832,"Ġmagnitude":6833,"Ġpretty":6834,"vestigators":6835,"ĠFoundation":6836,"Ġcircumst":6837,"BAGHDAD":6838,"Let":6839,"Sc":6840,"Ġ)":6841,"Ġtsun":6842,"Ġsort":6843,"Ġfought":6844,"Ġburn":6845,"alia":6846,"Ġhalt":6847,"asc":6848,"Ġlie":6849,"ĠSim":6850,"Ġforum":6851,"imir":6852,"Ġstories":6853,"ĠBoe":6854,"ĠKa":6855,"istics":6856,"Ġyounger":6857,"ctors":6858,"Ġhabit":6859,"ĠHamp":6860,"ĠGonz":6861,"umi":6862,"ĠEhud":6863,"sex":6864,"ords":6865,"ella":6866,"bery":6867,"Ġintention":6868,"Ġcompens":6869,"ĠThat":6870,"week":6871,"legates":6872,"Ġguards":6873,"Ġdeliber":6874,"ĠRepresent":6875,"Ġbankrupt":6876,"ĠBlagojevich":6877,"ĠScott":6878,"Ġproducer":6879,"Ġsquad":6880,"Ġinflation":6881,"Ġ1970":6882,"Ġbirthday":6883,"winning":6884,"Ġperformed":6885,"ĠMacau":6886,"Ġsuspicion":6887,"Ġpalace":6888,"Ġlandsl":6889,"Ġerupted":6890,"Ġwedding":6891,"Ġsurvivors":6892,"Ġdisarmament":6893,"largest":6894,"700":6895,"aire":6896,"democracy":6897,"erous":6898,"Ġwr":6899,"Ġfal":6900,"Ġbound":6901,"alk":6902,"Ġreun":6903,"Ġreduction":6904,"Ġlik":6905,"Ġelev":6906,"ĠSal":6907,"uration":6908,"Ġstrain":6909,"ĠMag":6910,"rae":6911,"ĠTay":6912,"rif":6913,"isting":6914,"ĠHer":6915,"ĠRog":6916,"Ġexamin":6917,"ĠLife":6918,"Ġsup":6919,"oked":6920,"Ġintense":6921,"Ġfiring":6922,"Ġfirms":6923,"Ġtrains":6924,"Ġends":6925,"Ġmaybe":6926,"rete":6927,"Ġstring":6928,"Ġbigger":6929,"Ġcauses":6930,"Ġtraveled":6931,"Ġsoutheast":6932,"Ġdram":6933,"\"\".":6934,"Ġwrite":6935,"Ġarticle":6936,"Ġstepped":6937,"Ġattempting":6938,"ĠCanadian":6939,"Ġglass":6940,"Ġparticipate":6941,"Ġmultip":6942,"Ġillness":6943,"Britain":6944,"ĠAbdullah":6945,"Ġadopted":6946,"Ġopponents":6947,"Ġtsunami":6948,"Over":6949,"TO":6950,"ca":6951,"will":6952,"Ã¶":6953,"Ġtree":6954,"hem":6955,"Ġfilled":6956,"Ġmaster":6957,"Ġdrew":6958,"Ġdream":6959,"Ġdrag":6960,"illy":6961,"Ġgap":6962,"Ġforcing":6963,"osi":6964,"ulations":6965,"iffe":6966,"ĠDelta":6967,"ĠJournal":6968,"ĠJoe":6969,"Ġshout":6970,"Ġchannel":6971,"Ġaccusing":6972,"Ġscen":6973,"achment":6974,"Ġfounder":6975,"othing":6976,"Ġdiscovery":6977,"Ġguy":6978,"Ġgeneration":6979,"Ġmoves":6980,"Ġknowledge":6981,"hips":6982,"ĠDeputy":6983,"Ġformally":6984,"Ġnominations":6985,"ĠCoop":6986,"Ġdemonstration":6987,"Ġdivided":6988,"Ġcleared":6989,"Ġflee":6990,"Ġtroubled":6991,"Ġcolleagues":6992,"Ġreforms":6993,"Ġunderstanding":6994,"Ġepic":6995,"ĠGhaz":6996,"Ġastronauts":6997,"Ġtemperatures":6998,"ĠPhilippines":6999,"Ġvirtual":7000,"ĠMalaysia":7001,"Ġentertainment":7002,"Ġcomedy":7003,"Ġwelcomed":7004,"hattan":7005,"800":7006,"BEI":7007,"Scient":7008,"pet":7009,"page":7010,"arr":7011,"Ġanger":7012,"Ġdress":7013,"Ġdub":7014,"iliate":7015,"Ġnone":7016,"Ġlink":7017,"Ġbeating":7018,"Ġeat":7019,"oto":7020,"owitz":7021,"ĠIm":7022,"ĠJi":7023,"Ġintens":7024,"Ġcompound":7025,"izabeth":7026,"Instead":7027,"Investigators":7028,"Ġpreliminary":7029,"ements":7030,"Ġsole":7031,"rating":7032,"Ġcapacity":7033,"Ġcampus":7034,"Ġrunway":7035,"Ġdirecting":7036,"Ġdrink":7037,"Ġcounts":7038,"Ġedge":7039,"Ġboys":7040,"ĠAttorney":7041,"Ġbreakthrough":7042,"runner":7043,"ĠWeek":7044,"Ġcoastal":7045,"ĠManhattan":7046,"ĠEdwards":7047,"Ġhelicopters":7048,"Ġsharply":7049,"Ġencourage":7050,"Ġrecommend":7051,"Ġemphas":7052,"ĠVladimir":7053,"Scientists":7054,"UN":7055,"bar":7056,"free":7057,"kel":7058,"met":7059,"water":7060,"Ġpace":7061,"Ġmig":7062,"Ġhung":7063,"Ġdrawn":7064,"style":7065,"ĠSo":7066,"Ġstands":7067,"ĠMr":7068,"ĠMadeleine":7069,"rapped":7070,"ĠPost":7071,"Ġconce":7072,"ĠWen":7073,"Ġvan":7074,"Ġexit":7075,"ĠLyn":7076,"ghai":7077,"Ġages":7078,"Ġworried":7079,"ansas":7080,"Ġnewly":7081,"Ġblocked":7082,"Ġ64":7083,"Ġplays":7084,"Ġpublicly":7085,"Ġdealing":7086,"Ġpaying":7087,"ĠScotland":7088,"atican":7089,"Ġhotels":7090,"Ġsurvive":7091,"Ġsoccer":7092,"Ġvillages":7093,"Ġreplaced":7094,"Ġexpectations":7095,"Ġcounterpart":7096,"Ġneck":7097,"Ġdisappointed":7098,"Ġtrees":7099,"ĠServices":7100,"Japanese":7101,"ĠBenazir":7102,"ĠAtlantic":7103,"Ġindividual":7104,"ĠYouTube":7105,"Ġelder":7106,"Ġregistered":7107,"ĠIntelligence":7108,"28":7109,"29":7110,"World":7111,"brid":7112,"jad":7113,"km":7114,"los":7115,"pound":7116,"uate":7117,"upp":7118,"Ġrom":7119,"Ġess":7120,"ini":7121,"Ġcig":7122,"Ġcrop":7123,"esc":7124,"Ġhundred":7125,"icy":7126,"Ġreject":7127,"Ġnature":7128,"Ġlung":7129,"Ġliqu":7130,"illance":7131,"ĠBall":7132,"eman":7133,"Ġconclus":7134,"ĠWild":7135,"Ġrum":7136,"ĠHilton":7137,"Ġcha":7138,"ĠEve":7139,"ĠChrysler":7140,"Ġexpensive":7141,"Ġwouldn":7142,"Ġaccus":7143,"Ġaccord":7144,"Ġtruth":7145,"Ġflames":7146,"Ġ41":7147,"aii":7148,"Ġcapable":7149,"ĠAnton":7150,"Ġconfront":7151,"Ġcamps":7152,"ĠIndust":7153,"Ġdetect":7154,"Ġmarks":7155,"Once":7156,"Ġstriker":7157,"Ġdiscussion":7158,"ĠAtomic":7159,"Ġsuccessor":7160,"Ġlimit":7161,"Ġbeaten":7162,"ĠKhan":7163,"ĠMoham":7164,"Ġsensitive":7165,"Ġbloody":7166,"control":7167,"Ġrestaurants":7168,"ĠOsama":7169,"Ġupper":7170,"Ġargued":7171,"Ġenforcement":7172,"Ġunusual":7173,"Ġmortgage":7174,"ĠStephen":7175,"ĠShanghai":7176,"Ġcircumstances":7177,"DP":7178,"Tr":7179,"Washington":7180,"chen":7181,"pre":7182,"prom":7183,"Ãĩ":7184,"aters":7185,"icit":7186,"lege":7187,"Ġnove":7188,"Ġloved":7189,"Ġbeer":7190,"acts":7191,"Ġstun":7192,"Ġstressed":7193,"owing":7194,"Ġwear":7195,"chi":7196,"Ġramp":7197,"ĠFire":7198,"uma":7199,"ivic":7200,"Ġplung":7201,"ĠChirac":7202,"Ġacts":7203,"ĠStock":7204,"soo":7205,"ipel":7206,"Ġcontests":7207,"itely":7208,"Ġappl":7209,"ovic":7210,"Ġuses":7211,"Ġ58":7212,"Ġ47":7213,"Ġtalked":7214,"Ġ600":7215,"Ġbright":7216,"Ġinfected":7217,"Ġ78":7218,"echan":7219,"Ġ2012":7220,"Ġguild":7221,"Ġviolation":7222,"Ġdirected":7223,"Ġthinking":7224,"ĠReagan":7225,"ĠScience":7226,"Ġeasier":7227,"Ġtelevised":7228,"Ġnominated":7229,"ĠMusa":7230,"board":7231,"Ġlinks":7232,"Ġbriefly":7233,"Ġautomaker":7234,"Ġvacation":7235,"Ġteacher":7236,"Ġgathering":7237,"Ġlicense":7238,"oenix":7239,"Ġcoffee":7240,"ĠHampshire":7241,"raeus":7242,"MI":7243,"SA":7244,"but":7245,"pa":7246,"round":7247,"uy":7248,"Ġaware":7249,"Ġsand":7250,"Ġsli":7251,"erb":7252,"ori":7253,"Ġtoug":7254,"Ġmax":7255,"uton":7256,"olis":7257,"ĠKang":7258,"ĠNow":7259,"ĠNik":7260,"arta":7261,"ĠDet":7262,"ĠGood":7263,"ĠFund":7264,"Ġkiss":7265,"ĠEastern":7266,"Ġoutcome":7267,"Ġscale":7268,"Ġbecomes":7269,"phy":7270,"ĠVict":7271,"Ġearning":7272,"ropical":7273,"ronics":7274,"angered":7275,"Ġ1996":7276,"Ġrestore":7277,"Ġmarch":7278,"Asked":7279,"Ġsoutheastern":7280,"ĠProt":7281,"iami":7282,"Ġguns":7283,"Ġsouthwestern":7284,"ernand":7285,"Ġscientist":7286,"Ġdiplomat":7287,"Ġdevices":7288,"Ġcharity":7289,"Ġwatchdog":7290,"ĠElizabeth":7291,"Space":7292,"ĠAbdul":7293,"Ġabsolute":7294,"ĠFinancial":7295,"Ġtransportation":7296,"idelines":7297,"Ġobtained":7298,"ĠGMT":7299,"Ġoriginally":7300,"ĠFilm":7301,"Ġunlikely":7302,"ĠCambod":7303,"Dav":7304,"EFA":7305,"Harry":7306,"KK":7307,"Or":7308,"bur":7309,"col":7310,"cts":7311,"ka":7312,"Ġtent":7313,"Ġtend":7314,"anke":7315,"Ġfaster":7316,"stan":7317,"Ġlady":7318,"Ġbeef":7319,"acco":7320,"imony":7321,"ĠCro":7322,"Ġstance":7323,"ĠMatt":7324,"orest":7325,"Ġwaste":7326,"ighth":7327,"Ġvent":7328,"ĠDick":7329,"ĠGOP":7330,"Ġunn":7331,"Ġagricult":7332,"inejad":7333,"owned":7334,"reek":7335,"Ġscore":7336,"inding":7337,"erves":7338,"Ġ53":7339,"Ġimports":7340,"Ġelectoral":7341,"orkers":7342,"Ġdepression":7343,"attered":7344,"ĠBarb":7345,"ĠBarcelona":7346,"Ġ1995":7347,"Ġcommunities":7348,"Ġfirefighters":7349,"Ġcollection":7350,"place":7351,"Ġbreaking":7352,"Ġpeacekeep":7353,"Ġemerged":7354,"Ġpayments":7355,"ĠIslamabad":7356,"Ġfactory":7357,"State":7358,"Ġgasoline":7359,"Ġbills":7360,"Ġartist":7361,"Ġschedule":7362,"iliar":7363,"Ġera":7364,"Ġerror":7365,"Ġcrowds":7366,"Ġdivision":7367,"Ġmurd":7368,"Ġreading":7369,"ĠIndonesian":7370,"Ġregarding":7371,"ĠSerbia":7372,"Ġimmigration":7373,"ippi":7374,"ĠSocial":7375,"Ġsovereignty":7376,"ĠBoeing":7377,"FP":7378,"JING":7379,"Op":7380,"RO":7381,"Rice":7382,"aud":7383,"ios":7384,"made":7385,"nes":7386,"pan":7387,"person":7388,"Ġmechan":7389,"icon":7390,"ids":7391,"ĠSony":7392,"adel":7393,"ĠAz":7394,"Ġstable":7395,"ĠMiami":7396,"ĠIOC":7397,"ĠBoard":7398,"ppers":7399,"ĠDod":7400,"Ġleaves":7401,"ĠFre":7402,"essed":7403,"ĠLu":7404,"Ġunknown":7405,"Ġsees":7406,"eph":7407,"Ġ39":7408,"issippi":7409,"encing":7410,"Ġteens":7411,"ĠVi":7412,"Ġwarrant":7413,"ropolitan":7414,"Ġ62":7415,"Ġtermin":7416,"meida":7417,"Ġbombers":7418,"Ġlegs":7419,"Ġobvious":7420,"Ġoblig":7421,"Ġveto":7422,"Ġurban":7423,"Ġreceiving":7424,"Ġeasily":7425,"Ġrebuild":7426,"Ġwindow":7427,"Ġprimaries":7428,"ĠâĢĿâĢĿ":7429,"Ġrescued":7430,"Ġeffective":7431,"ĠKingdom":7432,"Ġdisappear":7433,"Ġroutine":7434,"ography":7435,"Ġestablished":7436,"ĠValley":7437,"ĠHawaii":7438,"Ġpunishment":7439,"Ġinquir":7440,"Ġrallies":7441,"ĠTransport":7442,"Ġdetonated":7443,"ĠHotel":7444,"Ġmargin":7445,"ĠMohammad":7446,"35":7447,"Foreign":7448,"Pl":7449,"eed":7450,"mates":7451,"zech":7452,"reck":7453,"oric":7454,"Ġtoxic":7455,"Ġmail":7456,"Ġhal":7457,"Ġliter":7458,"Ġeating":7459,"Ġelim":7460,"ĠSil":7461,"oles":7462,"eces":7463,"elly":7464,"ĠKo":7465,"ĠKevin":7466,"eart":7467,"Ġconcent":7468,"Ġyen":7469,"ĠWil":7470,"ĠRome":7471,"ĠFox":7472,"arden":7473,"Ġouts":7474,"Ġadult":7475,"aved":7476,"rank":7477,"Ġqueen":7478,"Ġpresidents":7479,"grim":7480,"Ġfeels":7481,"Ġsmugg":7482,"Ġslump":7483,"Ġspecif":7484,"Ġincreases":7485,"Ġmainland":7486,"ĠMcCann":7487,"Ġtestimony":7488,"Ġletters":7489,"ĠIslamist":7490,"Ġ130":7491,"Ġbattling":7492,"Ġburning":7493,"Ġparticipants":7494,"Ġcameras":7495,"Ġmanufacturing":7496,"Ġapologized":7497,"Ġexactly":7498,"Ġrapidly":7499,"Ġabducted":7500,"Ġdivorce":7501,"ĠDisney":7502,"Ġalternative":7503,"expected":7504,"Ġaccompan":7505,"Ġstimulus":7506,"Ġenrichment":7507,"BEIJING":7508,"95":7509,"?\"":7510,"AC":7511,"German":7512,"Me":7513,"VD":7514,"bes":7515,"uros":7516,"vironment":7517,"ont":7518,"Ġwing":7519,"arch":7520,"Ġpy":7521,"Ġhall":7522,"Ġhide":7523,"ĠSaf":7524,"ĠSimpson":7525,"Ġstalled":7526,"ĠMerc":7527,"oping":7528,"riers":7529,"Ġ120":7530,"ĠWind":7531,"Ġdeals":7532,"ĠHwang":7533,"Ġexclus":7534,"ĠLind":7535,"Ġplus":7536,"Ġplastic":7537,"Ġorbit":7538,"ĠChris":7539,"igned":7540,"eller":7541,"Ġcontained":7542,"Ġimag":7543,"ĠYoung":7544,"Ġ56":7545,"Ġ57":7546,"Ġremember":7547,"Ġbrut":7548,"Ġbacking":7549,"Ġ73":7550,"Ġdebris":7551,"Ġgranted":7552,"enedict":7553,"Ġlocations":7554,"Christ":7555,"Ġgrown":7556,"ĠAustria":7557,"Only":7558,"Ġstrip":7559,"Ġtechnical":7560,"Still":7561,"ĠPhoenix":7562,"Ġestimate":7563,"Ġgreatest":7564,"umbai":7565,"Ġvalues":7566,"Ġconservation":7567,"Ġfields":7568,"Ġfloods":7569,"ĠBrazilian":7570,"ĠBasra":7571,"Ġshrine":7572,"ĠJewish":7573,"Ġdegrees":7574,"ĠPortugal":7575,"ĠSouthern":7576,"Nearly":7577,"ĠBuddhist":7578,"Ġmultiple":7579,"National":7580,"eared":7581,"mile":7582,"inate":7583,"atist":7584,"itors":7585,"Ġpacked":7586,"Ġpirates":7587,"Ġmap":7588,"Ġmyst":7589,"omy":7590,"Ġreferen":7591,"Ġnut":7592,"Ġlux":7593,"otti":7594,"ĠAwards":7595,"ĠMuseum":7596,"irts":7597,"irty":7598,"ĠIA":7599,"akarta":7600,"ĠTo":7601,"ĠDiv":7602,"udson":7603,"ĠEth":7604,"Ġplat":7605,"ichuan":7606,"oster":7607,"antly":7608,"Ġclothes":7609,"izes":7610,"ibaki":7611,"Ġattitude":7612,"ĠYonhap":7613,"Ġ1950":7614,"Ġtele":7615,"ĠVatican":7616,"aching":7617,"Ġ61":7618,"Ġ66":7619,"Ġpromot":7620,"Ġfeared":7621,"Ġwinners":7622,"Ġcenters":7623,"Ġviolated":7624,"Ġeverybody":7625,"Ġlegit":7626,"Ġcolor":7627,"Ġswept":7628,"Ġprospect":7629,"Ġintegr":7630,"Ġidentity":7631,"Ġprivacy":7632,"Ġwindows":7633,"Ġarrive":7634,"ARC":7635,"Ġcommunication":7636,"Ġfrust":7637,"Ġvacc":7638,"Ġpersu":7639,"Ġmonitoring":7640,"Ġroughly":7641,"Ġsubsid":7642,"Ġcaucuses":7643,"Ġtackle":7644,"Comm":7645,"GA":7646,"cked":7647,"iya":7648,"pol":7649,"vang":7650,"zo":7651,"Ġtab":7652,"Ġtorn":7653,"Ġsection":7654,"Ġcabinet":7655,"armed":7656,"Ġpool":7657,"Ġtow":7658,"Ġmic":7659,"Ġhij":7660,"aser":7661,"icial":7662,"Ġder":7663,"Ġthr":7664,"uting":7665,"imal":7666,"ĠCzech":7667,"Ġstyle":7668,"Ġheight":7669,"ema":7670,"ĠKaz":7671,"akh":7672,"Ġconver":7673,"ĠNancy":7674,"Ġyellow":7675,"ĠGamb":7676,"Ġshop":7677,"ĠFl":7678,"Ġpluton":7679,"Ġworries":7680,"ĠChile":7681,"ordinary":7682,"Ġthanks":7683,"Ġamounts":7684,"Ġ49":7685,"ossible":7686,"ĠAntar":7687,"Ġfamiliar":7688,"certain":7689,"Ġboom":7690,"ĠIndiana":7691,"Ġ1991":7692,"Ġ1993":7693,"Ġpope":7694,"Ġsitting":7695,"Ġchest":7696,"Ġaffiliate":7697,"echnology":7698,"Ġsouthwest":7699,"Ġproducing":7700,"Ġsuggesting":7701,"Ġturns":7702,"delegates":7703,"Ġescape":7704,"Ġsharehold":7705,"ĠSwitzer":7706,"Ġtracks":7707,"ĠFederer":7708,"racts":7709,"Ġ1960":7710,"ĠEgyptian":7711,"ĠPatrick":7712,"ĠRonaldo":7713,"ĠGreece":7714,"ĠBelg":7715,"Ġmixed":7716,"Ġrelatively":7717,"Ġpraised":7718,"ĠControl":7719,"Ġappointment":7720,"Ġathletes":7721,"ĠGhazni":7722,"Ġplutonium":7723,"ĠSwitzerland":7724,"IT":7725,"wise":7726,"Ã¸":7727,"Ġsear":7728,"anes":7729,"oria":7730,"atched":7731,"Ġcivic":7732,"aly":7733,"Ġduty":7734,"star":7735,"Ġloyal":7736,"ĠSociety":7737,"ĠAIDS":7738,"Ġstaged":7739,"ĠMumbai":7740,"ĠPre":7741,"Ġwhales":7742,"Ġash":7743,"Ġaside":7744,"Ġrice":7745,"Ġhasn":7746,"Ġuncon":7747,"Ġunivers":7748,"Ġuniform":7749,"ĠOk":7750,"ails":7751,"Ġquiet":7752,"Ġ59":7753,"Ġimpe":7754,"Ġnumerous":7755,"Ġguests":7756,"Ġdefended":7757,"Ġ1992":7758,"Ġadvoc":7759,"Ġrequires":7760,"Ġtowns":7761,"Ġalongside":7762,"clone":7763,"Ġmidnight":7764,"Ġoldest":7765,"Ġmetal":7766,"Ġshots":7767,"Ġscientific":7768,"overty":7769,"Ġpainting":7770,"ĠSwiss":7771,"Ġcomplained":7772,"Ġfeaturing":7773,"Ġbullet":7774,"ĠMississippi":7775,"ĠFinance":7776,"Secretary":7777,"Ġanticip":7778,"ĠPeru":7779,"ĠDelhi":7780,"Ġsurveillance":7781,"Ġsamples":7782,"daq":7783,"Ġselected":7784,"Ġairstrike":7785,"Ġoverwhelming":7786,"ĠRepresentatives":7787,"Ġfalse":7788,"Ġmaximum":7789,"Sm":7790,"Sarkozy":7791,"des":7792,"ipping":7793,"member":7794,"new":7795,"Â½":7796,"ĠâĢ":7797,"Ġboss":7798,"icts":7799,"Ġdiet":7800,"Ġlying":7801,"Ġeuros":7802,"ĠSong":7803,"ecraft":7804,"Ġstro":7805,"ĠMir":7806,"Ġwhatever":7807,"ĠBon":7808,"ĠBond":7809,"ĠTy":7810,"anded":7811,"cho":7812,"ortion":7813,"ĠDVD":7814,"ĠLank":7815,"Ġsevent":7816,"eping":7817,"Ġincidents":7818,"Ġcomprom":7819,"Ġdisag":7820,"uez":7821,"angers":7822,"Ġsecular":7823,"Ġscores":7824,"Ġappropriate":7825,"Ġdecre":7826,"Ġopens":7827,"ormack":7828,"enses":7829,"Ġblank":7830,"Analyst":7831,"Ġprovides":7832,"Ġprompting":7833,"Ġinterrog":7834,"Ġfeature":7835,"Ġsuspend":7836,"nessee":7837,"Ġfactor":7838,"Ġlisted":7839,"Ġsolve":7840,"ĠGovernment":7841,"Ġbriefing":7842,"Ġnormally":7843,"Ġconcrete":7844,"Ġharsh":7845,"Ġdocumentary":7846,"ĠAlexander":7847,"Ġshelter":7848,"ĠMotors":7849,"Ġpriority":7850,"ĠRadio":7851,"Ġthinks":7852,"Ġmachine":7853,"ĠColumbia":7854,"ĠSpeaker":7855,"Ġverdict":7856,"Ġbankruptcy":7857,"Europ":7858,"Law":7859,"Mic":7860,"Rec":7861,"auty":7862,"bul":7863,"car":7864,"lades":7865,"nd":7866,"ui":7867,"heim":7868,"Ġsac":7869,"erted":7870,"Ġpose":7871,"Ġbases":7872,"Ġmakers":7873,"ads":7874,"acre":7875,"Ġsaved":7876,"ĠChen":7877,"amo":7878,"ĠAward":7879,"Ġstone":7880,"Ġconsequ":7881,"Ġrac":7882,"ĠDu":7883,"ĠDirector":7884,"ocol":7885,"Ġunrest":7886,"ello":7887,"ansion":7888,"Ġattending":7889,"Ġstudio":7890,"Ġinterven":7891,"Ġslaves":7892,"Ġmissed":7893,"Ġinvestigations":7894,"Ġbusy":7895,"Ġlegend":7896,"Ġbreed":7897,"Ġhitting":7898,"Ġfreeze":7899,"ciliation":7900,"Ġcounsel":7901,"ĠMexican":7902,"Ġranked":7903,"Ġfunction":7904,"ĠMorgan":7905,"Ġtransferred":7906,"Researchers":7907,"ĠVenezuelan":7908,"Ġrecognize":7909,"Ġarchae":7910,"Government":7911,"Ġpurposes":7912,"ĠJoseph":7913,"Ġinstitutions":7914,"Ġdubbed":7915,"Ġreferend":7916,"Ġplatform":7917,".âĢĻ":7918,"bi":7919,"election":7920,"ius":7921,"ieces":7922,"ua":7923,"vin":7924,"young":7925,"Ġaw":7926,"rels":7927,"Ġsons":7928,"Ġmal":7929,"Ġreiter":7930,"ĠSri":7931,"ĠCy":7932,"Ġstructure":7933,"irai":7934,"irls":7935,"ĠPublic":7936,"ĠKibaki":7937,"ĠTer":7938,"istent":7939,"ĠHun":7940,"ĠRaf":7941,"Ġexch":7942,"Ġshops":7943,"Ġshoes":7944,"ĠFestival":7945,"Ġchair":7946,"Ġspr":7947,"ĠLuc":7948,"Ġnotice":7949,"iani":7950,"Ġaged":7951,"ĠStaff":7952,"onda":7953,"awn":7954,"ervation":7955,"Ġworker":7956,"Ġ700":7957,"Ġpromin":7958,"Ġannouncing":7959,"Ġguer":7960,"Ġentry":7961,"Ġobjects":7962,"Ġstriking":7963,"Ġapproached":7964,"Ġglobe":7965,"Ġcontrols":7966,"ĠReg":7967,"cliffe":7968,"Ġbattles":7969,"Ġstarts":7970,"Ġmatters":7971,"Ġcompete":7972,"Ġcrossed":7973,"Ġhurricane":7974,"Ġbaseball":7975,"Ġrepresentative":7976,"Ġsignificantly":7977,"ĠMotor":7978,"Ġmistake":7979,"Ġbags":7980,"Ġpurchase":7981,"Ġdeparture":7982,"Ġveteran":7983,"Ġsymbol":7984,"Ġspacecraft":7985,"ĠIAEA":7986,"Ġseventh":7987,"47":7988,"Car":7989,"French":7990,"Mart":7991,"Us":7992,"mand":7993,"sur":7994,"held":7995,"rehen":7996,"Ġfed":7997,"Ġfile":7998,"Ġpit":7999,"Ġporn":8000,"Ġpoverty":8001,"Ġdistance":8002,"Ġnative":8003,"roit":8004,"olen":8005,"Ġstrict":8006,"ĠMit":8007,"ĠMajor":8008,"ĠBow":8009,"Ġrig":8010,"ĠHug":8011,"ĠJac":8012,"Ġexcess":8013,"Ġchol":8014,"Ġunions":8015,"Ġagents":8016,"inehouse":8017,"ĠInformation":8018,"Ġprefer":8019,"phia":8020,"phoon":8021,"Ġblasts":8022,"Ġ63":8023,"Ġ68":8024,"Ġauthorized":8025,"Ġpointed":8026,"ĠAlmeida":8027,"elfare":8028,"Ġdealers":8029,"Ġhandling":8030,"ĠCaribb":8031,"Ġinstruct":8032,"Ġfactors":8033,"Ġsuccessfully":8034,"Ġnetworks":8035,"Ġnorthwest":8036,"Ġimproved":8037,"ĠCorps":8038,"Ġpilgrim":8039,"Ġpulling":8040,"Ġspotted":8041,"Ġgenerally":8042,"Ġraids":8043,"Ġawarded":8044,"ĠHenry":8045,"Iraqi":8046,"Ġfishing":8047,"Ġtrigger":8048,"dogan":8049,"ĠPetraeus":8050,"ĠGolden":8051,"Ġoccupation":8052,"Ġexperienced":8053,"senal":8054,"Ġvenue":8055,"ĠTennessee":8056,"ĠPelosi":8057,"ĠAntonio":8058,"adelphia":8059,"vangirai":8060,"ĠCaribbean":8061,"23":8062,"Defense":8063,"Mich":8064,"Not":8065,"nesty":8066,"uese":8067,"world":8068,"xy":8069,"Â»":8070,"Ġ*":8071,"Ġtrend":8072,"Ġshed":8073,"atra":8074,"itol":8075,"Ġbath":8076,"Ġanthe":8077,"Ġhunt":8078,"Ġded":8079,"Ġlapt":8080,"uter":8081,"oli":8082,"ĠAthe":8083,"Ġweigh":8084,"osa":8085,"aint":8086,"Ġvital":8087,"ĠHo":8088,"Ġshape":8089,"ĠFARC":8090,"umer":8091,"Ġnotes":8092,"Ġunity":8093,"ques":8094,"Ġacres":8095,"mergency":8096,"ideo":8097,"ousand":8098,"Ġcontracts":8099,"Ġdoors":8100,"Ġsoil":8101,"Ġunderground":8102,"Ġcarrier":8103,"Ġendangered":8104,"Ġaddressed":8105,"Ġhosted":8106,"Ġtransl":8107,"Ġoperate":8108,"Ġsubmit":8109,"Ġprepare":8110,"Ġcampaigns":8111,"Ġcampaigning":8112,"ĠBeach":8113,"ielder":8114,"Ġcorrect":8115,"Ġaffili":8116,"Ġexperiment":8117,"Ġnegotiators":8118,"Ġdenuclear":8119,"ĠAirways":8120,"Ġrif":8121,"Ġstorms":8122,"Ġconducting":8123,"Ġwithdrew":8124,"Ġsolid":8125,"Ġcitizen":8126,"Ġattorneys":8127,"Ġsectarian":8128,"wait":8129,"ĠPoland":8130,"Ġcelebrity":8131,"Ġreferred":8132,"Ġexisting":8133,"Ġwalls":8134,"Ġuh":8135,"Ġliberal":8136,"Ġguarantee":8137,"Ġsemif":8138,"Ġphotographs":8139,"Ġtemporary":8140,"Ġadvertising":8141,"Ġvolunteers":8142,"Ġfierce":8143,"Ġcompensation":8144,"David":8145,"Ġreferendum":8146,"BO":8147,"LE":8148,"RA":8149,"iop":8150,"je":8151,"sized":8152,"Ġtum":8153,"reland":8154,"Ġsyn":8155,"Ġwounds":8156,"atically":8157,"Ġcargo":8158,"Ġmut":8159,"Ġhid":8160,"lements":8161,"Ġeighth":8162,"urrent":8163,"ĠAy":8164,"ĠPKK":8165,"ĠBob":8166,"ĠTwo":8167,"Ġconven":8168,"Ġconcess":8169,"ulner":8170,"Ġprohib":8171,"Ġriding":8172,"Ġrushed":8173,"ĠDo":8174,"ĠGi":8175,"ĠGore":8176,"Ġshield":8177,"Ġleague":8178,"ĠEuro":8179,"Ġexposure":8180,"Ġqual":8181,"ĠVan":8182,"ĠVen":8183,"Ġimprison":8184,"ĠThere":8185,"efin":8186,"Ġdepend":8187,"Ġsubur":8188,"Ġextend":8189,"ĠPalace":8190,"Ġadvice":8191,"ysis":8192,"Ġprofits":8193,"Ġedition":8194,"fficient":8195,"Ġindicted":8196,"Ġemployee":8197,"Ġloan":8198,"Ġcapture":8199,"Ġpopularity":8200,"ĠClub":8201,"Shar":8202,"ĠCommissioner":8203,"Ġslowdown":8204,"Ġsurprised":8205,"Ġdinner":8206,"Ġswimming":8207,"Ġconversation":8208,"Ġvariety":8209,"Ġanthem":8210,"ĠAthens":8211,"Cl":8212,"Co":8213,"Oil":8214,"kins":8215,"lif":8216,"oons":8217,"Ġtheater":8218,"Ġwaves":8219,"Ġcards":8220,"Ġfinger":8221,"Ġmouth":8222,"Ġhat":8223,"ĠIreland":8224,"ĠBet":8225,"ĠBenedict":8226,"ĠTech":8227,"ĠNaz":8228,"Ġrush":8229,"essing":8230,"ĠLarry":8231,"ĠLatin":8232,"Ġunits":8233,"ĠEduc":8234,"sey":8235,"ĠStan":8236,"log":8237,"Ġcontrast":8238,"Ġattrib":8239,"Ġcounty":8240,"ranking":8241,"ĠYous":8242,"Ġprince":8243,"Ġrecording":8244,"Ġrecalled":8245,"Ġsupports":8246,"Ġeconomist":8247,"Ġsignals":8248,"Ġdetected":8249,"ĠArmed":8250,"Ġarrests":8251,"Ġreturns":8252,"Ġappealed":8253,"ĠCollege":8254,"Ġmoderate":8255,"Ġbarrels":8256,"rupted":8257,"offs":8258,"Ġdisputed":8259,"Ġinterested":8260,"mont":8261,"Ġexplosive":8262,"ĠOrle":8263,"Ġburst":8264,"Ġshootings":8265,"ĠCorporation":8266,"Ġquarterf":8267,"Ġembry":8268,"Ġlegislative":8269,"dinga":8270,"Ġpursue":8271,"Ġcontaining":8272,"Security":8273,"âĢ¦âĢĿ":8274,"Ġcomplaint":8275,"ĠPhiladelphia":8276,"Ġpregnancy":8277,"ĠSomalia":8278,"Ġpurpose":8279,"Ġbalance":8280,"Ġgallon":8281,"Ġisolated":8282,"ĠJudge":8283,"ĠNasdaq":8284,"Palestin":8285,"Ġinauguration":8286,"thirds":8287,"ĠDetroit":8288,"Ġreiterated":8289,"53":8290,"Cap":8291,"Cons":8292,"Its":8293,"Musharraf":8294,"lah":8295,"pay":8296,"rd":8297,"tra":8298,"xual":8299,"incess":8300,"Ġsad":8301,"Ġwreck":8302,"Ġcow":8303,"Ġcoin":8304,"Ġped":8305,"Ġbars":8306,"Ġtoil":8307,"Ġtopped":8308,"alin":8309,"ĠSichuan":8310,"olk":8311,"imbled":8312,"ĠCase":8313,"ĠAct":8314,"Ġstops":8315,"Ġstabil":8316,"ĠMaj":8317,"oren":8318,"ela":8319,"elts":8320,"ĠKent":8321,"ĠKerry":8322,"resents":8323,"aken":8324,"herlands":8325,"Ġprob":8326,"ĠDou":8327,"ĠHind":8328,"ĠHicks":8329,"ĠJobs":8330,"acking":8331,"Ġchain":8332,"identified":8333,"ĠEric":8334,"ĠOld":8335,"ĠUnification":8336,"Ġapply":8337,"weight":8338,"achi":8339,"obile":8340,"Ġadds":8341,"azon":8342,"Ġdesert":8343,"ologies":8344,"Ġsubmitted":8345,"ĠAmbassador":8346,"lsewhere":8347,"Ġswitch":8348,"Ġhomeless":8349,"levision":8350,"Ġsexually":8351,"hdi":8352,"Ġshortages":8353,"ĠPros":8354,"scale":8355,"Ġordinary":8356,"Ġindicate":8357,"Ġdelegate":8358,"Ġvolunt":8359,"ĠAndrew":8360,"Ġglac":8361,"Ġpleaded":8362,"Ġautomakers":8363,"ĠBrad":8364,"Ġengineering":8365,"Ġcharacters":8366,"ĠRonald":8367,"olitical":8368,"ĠPlay":8369,"Ġpetition":8370,"keeper":8371,"Ġabandoned":8372,"Ġsettlement":8373,"ĠAhmadinejad":8374,"ĠCapitol":8375,"ĠNetherlands":8376,"profile":8377,"Ġbenchmark":8378,"Ġchaos":8379,"ladesh":8380,"ĠOrleans":8381,"imbledon":8382,"AA":8383,"CI":8384,"Par":8385,"Park":8386,"UR":8387,"gun":8388,"gment":8389,"making":8390,"with":8391,"Ġ,":8392,"hee":8393,"Ġtheory":8394,"Ġwish":8395,"itage":8396,"Ġfulf":8397,"Ġtouc":8398,"Ġmental":8399,"Ġdust":8400,"Ġdestin":8401,"ette":8402,"illing":8403,"ira":8404,"Ġatomic":8405,"opular":8406,"Ġconcept":8407,"ĠUt":8408,"ĠUEFA":8409,"ĠRh":8410,"ĠRel":8411,"Ġshif":8412,"apova":8413,"Ġkick":8414,"ĠLong":8415,"Ġrepresents":8416,"ections":8417,"ĠChad":8418,"Ġoutrage":8419,"Ġneither":8420,"dering":8421,"Ġsche":8422,"ĠYas":8423,"ĠYemen":8424,"Ġmonitor":8425,"Ġdeciding":8426,"Ġminers":8427,"Ġamend":8428,"Ġmonthly":8429,"Ġunderst":8430,"Ġfounded":8431,"Ġbelief":8432,"Ġpromoting":8433,"Ġslated":8434,"Ġpassport":8435,"Ġadvanced":8436,"Ġposts":8437,"Ġhandle":8438,"ĠAirbus":8439,"Ġpattern":8440,"Ġboyfriend":8441,"Ġoccasion":8442,"ĠGuant":8443,"Ġdeterior":8444,"Ġcourts":8445,"Ġpotentially":8446,"Ġimproving":8447,"Ġsatisf":8448,"Ġdeeply":8449,"Ġsafely":8450,"Ġbitter":8451,"ĠMichel":8452,"ĠMehdi":8453,"Ġadopt":8454,"Ġblog":8455,"Ġabandon":8456,"Ġdegree":8457,"Ġresumed":8458,"Analysts":8459,"\",":8460,"48":8461,"Air":8462,"Later":8463,"William":8464,"bell":8465,"gers":8466,"vard":8467,"wing":8468,"erious":8469,"Ġwart":8470,"anamo":8471,"Ġcable":8472,"itted":8473,"Ġtool":8474,"Ġmate":8475,"lects":8476,"Ġthousand":8477,"uties":8478,"usion":8479,"ĠAung":8480,"Ġstuff":8481,"Ġstolen":8482,"rait":8483,"raig":8484,"Ġproved":8485,"ĠWales":8486,"ĠWimbledon":8487,"ĠGreek":8488,"Ġleak":8489,"ĠLah":8490,"aby":8491,"ĠEv":8492,"Ġthank":8493,"Ġimplic":8494,"Ġconsecutive":8495,"ixon":8496,"ĠSpec":8497,"Ġrunoff":8498,"viation":8499,"ĠMcCormack":8500,"Ġhomeland":8501,"Ġbehalf":8502,"Ġhappening":8503,"Ġnegotiating":8504,"Ġfundament":8505,"Ġtrained":8506,"Ġinterviews":8507,"Ġnortheastern":8508,"Afghan":8509,"Ġfriendly":8510,"Ġexecuted":8511,"ĠProgram":8512,"Ġbillions":8513,"Ġdeclare":8514,"Ġsteel":8515,"Ġrisks":8516,"Ġpollution":8517,"Ġclassified":8518,"Ġmotiv":8519,"Ġtitles":8520,"casting":8521,"Ġrepresenting":8522,"Ġpleased":8523,"Ġgraph":8524,"Ġlearning":8525,"Ġresolved":8526,"ĠFederation":8527,"Ġmulti":8528,"Ġturmo":8529,"rahim":8530,"Ġtimet":8531,"Ġsuddenly":8532,"Ġcongressional":8533,"ĠMemorial":8534,"Ġsuperv":8535,"Ġconclusion":8536,"Ġaccusations":8537,"controlled":8538,"ĠGuantanamo":8539,"Ġturmoil":8540,"Brown":8541,"May":8542,"Te":8543,"bow":8544,"bacco":8545,"dy":8546,"found":8547,"lock":8548,"mond":8549,"ooth":8550,"pects":8551,"Ġ?":8552,"Ġtap":8553,"Ġsch":8554,"Ġousted":8555,"Ġposed":8556,"Ġtobacco":8557,"Ġdim":8558,"ompl":8559,"entions":8560,"ĠCrist":8561,"ĠCastro":8562,"aman":8563,"ĠAut":8564,"ĠMove":8565,"ĠMasters":8566,"elesc":8567,"owling":8568,"ĠBu":8569,"ĠBell":8570,"ĠTal":8571,"Ġconstit":8572,"ĠNuri":8573,"Ġprojected":8574,"ĠWill":8575,"Ġvulner":8576,"ĠGul":8577,"ĠGyeong":8578,"ĠRen":8579,"Ġshore":8580,"Ġchap":8581,"essions":8582,"quo":8583,"okes":8584,"Ġrepublic":8585,"ĠChun":8586,"Ġpolling":8587,"Ġreserved":8588,"Ġclash":8589,"Ġcloud":8590,"Ġclothing":8591,"Ġdisab":8592,"Ġattracted":8593,"Ġroof":8594,"active":8595,"âĢĿâĢĿ":8596,"Here":8597,"ensus":8598,"ollins":8599,"Ġacted":8600,"Ġactors":8601,"Ġimpossible":8602,"ahar":8603,"Ġ69":8604,"Ġeval":8605,"Ġsett":8606,"Ġfever":8607,"they":8608,"Ġviolations":8609,"Ġcaution":8610,"Ġcheap":8611,"Ġlaid":8612,"Ġnegotiate":8613,"Ġkeeps":8614,"ĠHamid":8615,"annes":8616,"Ġclassic":8617,"Ġislands":8618,"Ġcombined":8619,"Ġrescuers":8620,"Ġconstruct":8621,"Ġprevented":8622,"Ġconservatives":8623,"Ġsuperdelegates":8624,"Ġdisappeared":8625,"ĠAlliance":8626,"ĠMorning":8627,"Ġspreading":8628,"general":8629,"Ġteenage":8630,"Ġteenager":8631,"Ġcelebrate":8632,"ĠDonald":8633,"Ġtickets":8634,"ĠMoore":8635,"commun":8636,"cription":8637,"Ġextremists":8638,"Ġstretch":8639,"Ġrenewed":8640,"ĠLouisiana":8641,"Ġbroadcaster":8642,"burgh":8643,"Ġwartime":8644,"LOS":8645,"Mark":8646,"author":8647,"eter":8648,"spe":8649,"¦Â":8650,"Â¦Â":8651,"ÃĬ":8652,"ÃĻ":8653,"ĠÃģ":8654,"Ġaer":8655,"inced":8656,"rea":8657,"Ġsheriff":8658,"Ġcry":8659,"Ġcave":8660,"Ġhub":8661,"Ġegg":8662,"ĠSin":8663,"acter":8664,"amily":8665,"ĠANG":8666,"verse":8667,"ĠBor":8668,"ounter":8669,"Ġyes":8670,"ĠWis":8671,"ĠJae":8672,"ĠJoint":8673,"ĠLew":8674,"allas":8675,"Ġuncertain":8676,"Ġexplo":8677,"Ġarriving":8678,"keys":8679,"ĠStone":8680,"ĠStalin":8681,"Ġads":8682,"Ġadmit":8683,"Ġdisable":8684,"Ġusual":8685,"Ġminimum":8686,"Ġflat":8687,"Ġspoken":8688,"Ġairpl":8689,"Ġstudying":8690,"Ġembe":8691,"ridge":8692,"shot":8693,"Ġinvestigated":8694,"ootball":8695,"gger":8696,"Ġmembership":8697,"axy":8698,"Ġlegally":8699,"peace":8700,"Ġconvinced":8701,"Ġtechnologies":8702,"Ġ1989":8703,"Ġexplosions":8704,"ĠManagement":8705,"Ġreplac":8706,"Ġprotecting":8707,"ennis":8708,"Ġfleet":8709,"Ġdrawing":8710,"Ġgreenhouse":8711,"Ġcopies":8712,"ĠRichardson":8713,"ĠÂ¾":8714,"Ġreconciliation":8715,"ĠNortheast":8716,"ÃıÃģ":8717,"Eng":8718,"ĠSomali":8719,"Ġvessels":8720,"Ġprinciples":8721,"Ġrevenue":8722,"Ġadministrative":8723,"ĠConstitutional":8724,"ELES":8725,"ĠCommer":8726,"Ġaggressive":8727,"Ġthrowing":8728,"ĠSweden":8729,"ĠRomney":8730,"Ġtruce":8731,"ĠKuwait":8732,"Ġrumors":8733,"ÃĩÃıÃģ":8734,"Ġabsolutely":8735,"Ġluxury":8736,"Ã¸ÃĩÃıÃģ":8737,"ĠLanka":8738,"ĠHugo":8739,"Ġconcessions":8740,"Palestinian":8741,"Â¦Â°":8742,"ĠANGELES":8743,"Ġembezz":8744,"Ã¸ÃĩÃıÃģÃ¶":8745,"250":8746,"EB":8747,"Mus":8748,"Sy":8749,"bles":8750,"gi":8751,"have":8752,"rary":8753,"rations":8754,"rina":8755,"zi":8756,"Ġicon":8757,"Ġtie":8758,"eded":8759,"Ġcos":8760,"Ġcup":8761,"Ġcruise":8762,"Ġpir":8763,"Ġpitch":8764,"Ġpipel":8765,"Ġbol":8766,"Ġbones":8767,"Ġborders":8768,"Ġhits":8769,"Ġnaked":8770,"aying":8771,"Ġbeauty":8772,"ĠSir":8773,"ĠCamer":8774,"Ġstir":8775,"irk":8776,"than":8777,"uliani":8778,"ĠWorkers":8779,"Ġrans":8780,"Ġvit":8781,"Ġvig":8782,"arted":8783,"ĠJam":8784,"ĠJakarta":8785,"apolis":8786,"oca":8787,"Ġspur":8788,"odo":8789,"abee":8790,"Ġsequ":8791,"Ġorchest":8792,"Ġworry":8793,"Ġjung":8794,"Ġpeak":8795,"antic":8796,"Ġexposed":8797,"Ġmeat":8798,"Ġcontains":8799,"anges":8800,"ritics":8801,"Ġtraff":8802,"ancell":8803,"azing":8804,"airo":8805,"Ġretire":8806,"Ġ76":8807,"Ġempt":8808,"Ġmissions":8809,"attled":8810,"Ġdefect":8811,"Ġviolating":8812,"Ġvisits":8813,"ĠEnter":8814,"Char":8815,"Ġtranspl":8816,"Ġtransform":8817,"ĠAlber":8818,"Ġrestric":8819,"Ġinjuring":8820,"Ġsentiment":8821,"uckabee":8822,"plus":8823,"Ġpostp":8824,"Ġmarketing":8825,"Ġapprove":8826,"Ġinformed":8827,"Ġdenies":8828,"Ġagreements":8829,"Ġsteady":8830,"Ġstayed":8831,"Ġcrews":8832,"Ġmotion":8833,"Ġvillagers":8834,"Ġcounterfe":8835,"ortunately":8836,"Ġrepresentatives":8837,"cheon":8838,"Ġproperly":8839,"Ġparking":8840,"Ġnominees":8841,"Ġcalc":8842,"Ġbrothers":8843,"Ġengineers":8844,"Ġepis":8845,"Ġpolitician":8846,"ĠMissouri":8847,"ĠBangladesh":8848,"Ġsweet":8849,"iciary":8850,"riguez":8851,"ĠiPh":8852,"ĠJews":8853,"Ġdominated":8854,"Ġwireless":8855,"Ġstrengthen":8856,"Ġmammoth":8857,"Ġrelocation":8858,"Ġinitiative":8859,"Ġsailors":8860,"Ġdramatic":8861,"Ġcrops":8862,"ĠBarbara":8863,"Ġinquiry":8864,"%.":8865,"79":8866,"Bhutto":8867,"Eight":8868,"Geor":8869,"Hy":8870,"Pre":8871,"Per":8872,"ais":8873,"cu":8874,"cling":8875,"ez":8876,"hit":8877,"how":8878,"mun":8879,"Ġtech":8880,"onn":8881,"Ġsy":8882,"Ġsor":8883,"orse":8884,"iser":8885,"Ġpieces":8886,"Ġmud":8887,"ications":8888,"icient":8889,"Ġdressed":8890,"ila":8891,"enter":8892,"Ġlies":8893,"otics":8894,"etary":8895,"Ġwhale":8896,"ĠBul":8897,"Ġyuan":8898,"ĠHis":8899,"ĠHom":8900,"ĠJint":8901,"ĠFar":8902,"ĠFall":8903,"Ġchose":8904,"uda":8905,"Ġunac":8906,"abs":8907,"Ġrepro":8908,"ĠOper":8909,"Ġaftersh":8910,"Ġwheel":8911,"antas":8912,"rities":8913,"away":8914,"Ġapprec":8915,"Ġraided":8916,"Ġattacking":8917,"Ġdownlo":8918,"vedev":8919,"cedented":8920,"Ġeconomies":8921,"Ġrelax":8922,"Ġserves":8923,"Ġmemor":8924,"ĠSeattle":8925,"Ġassist":8926,"Ġphase":8927,"Ġcenturies":8928,"Ġslammed":8929,"ĠPrincess":8930,"ĠArt":8931,"Ġsuburb":8932,"Ġpassing":8933,"Ġextensive":8934,"Ġsentences":8935,"Ġdelays":8936,"Ġmarched":8937,"Ġsenators":8938,"ĠHeath":8939,"Ġjoining":8940,"ĠPhill":8941,"Ġindication":8942,"Ġcollabor":8943,"Ġviewers":8944,"Ġturnout":8945,"Ġclasses":8946,"Ġprotesting":8947,"intend":8948,"Ġeffectively":8949,"ĠCla":8950,"Ġexpecting":8951,"Ġpilots":8952,"alties":8953,"Ġmomentum":8954,"ĠMohamed":8955,"Ġcriminals":8956,"ĠCharl":8957,"Ġwildlife":8958,"ĠOscars":8959,"Ġpursuing":8960,"Ġextraordinary":8961,"Ġhybrid":8962,"Ġcomplaints":8963,"ÃıÃĢ":8964,"Ġrecommended":8965,"ienna":8966,"ĠGlobal":8967,"Ġultimately":8968,"ĠPortuguese":8969,"umsfeld":8970,"ĠMetropolitan":8971,"Ġdevastating":8972,"Ġsubstantial":8973,"Ġtorture":8974,"terrorism":8975,"Ġearnings":8976,"Ġdisappearance":8977,"ĠEthiop":8978,"lahoma":8979,"Ġscheme":8980,"BM":8981,"Each":8982,"di":8983,"ext":8984,"fast":8985,"fielder":8986,"oters":8987,"pts":8988,"uins":8989,"was":8990,"writ":8991,"Ġing":8992,"Ġtropical":8993,"orough":8994,"Ġcoc":8995,"itig":8996,"itting":8997,"Ġpand":8998,"Ġbacter":8999,"Ġmoon":9000,"icated":9001,"Ġdry":9002,"iders":9003,"Ġthrown":9004,"Ġreducing":9005,"Ġlists":9006,"olved":9007,"Ġgolf":9008,"una":9009,"unction":9010,"ĠCle":9011,"raquo":9012,"ĠPitt":9013,"ĠBy":9014,"ounce":9015,"ĠKate":9016,"ĠTa":9017,"ĠTime":9018,"ĠToy":9019,"open":9020,"ulating":9021,"ĠWomen":9022,"ĠRyan":9023,"ĠFirst":9024,"essors":9025,"Ġunidentified":9026,"Ġplum":9027,"Ġwors":9028,"ĠOffic":9029,"ĠChong":9030,"Ġclashed":9031,"Ġexpansion":9032,"ressive":9033,"Ġupset":9034,"Ġaccompl":9035,"Ġtrucks":9036,"Ġrocks":9037,"actions":9038,"Ġflown":9039,"Ġimpose":9040,"Ġcoverage":9041,"Ġblaze":9042,"Ġsurren":9043,"Ġregret":9044,"ptive":9045,"Ġfoundation":9046,"Ġmedal":9047,"Ġreleasing":9048,"Ġpromising":9049,"Ġdiscover":9050,"Ġgrass":9051,"Ġpublication":9052,"Ġinvestigator":9053,"Ġshoulder":9054,"ĠIsraelis":9055,"ribe":9056,"aimed":9057,"Ġgenetic":9058,"Ġdeadliest":9059,"ooter":9060,"Ġpossession":9061,"Ġtestified":9062,"Ġsummon":9063,"Ġswift":9064,"Ġhappens":9065,"Ġlandmark":9066,"Ġimportance":9067,"ĠBlue":9068,"ĠDavis":9069,"Ġindicates":9070,"Ġindicating":9071,"Ġdiseases":9072,"ĠPaulo":9073,"Ġmoments":9074,"Ġrespondents":9075,"Islam":9076,"Ġtension":9077,"Ġexcited":9078,"Ġuncovered":9079,"Ġhearts":9080,"Ġrobbery":9081,"Resc":9082,"Ġassociated":9083,"leveland":9084,"ĠPhilip":9085,"ĠTsvangirai":9086,"ĠLibya":9087,"Ġcongrat":9088,"ĠWolfowitz":9089,"ĠKatrina":9090,"ĠBroadcasting":9091,"Doctors":9092,"Ġspiritual":9093,"Ġblew":9094,"Ġgreeted":9095,"Ġliquid":9096,"Ġnovel":9097,"Ġplunged":9098,"Ġslipped":9099,"Ġtougher":9100,"ĠSafety":9101,"Ġtablo":9102,"Ġtimetable":9103,"ĠJintao":9104,"21":9105,"Bay":9106,"FL":9107,"GO":9108,"Har":9109,"Hong":9110,"Like":9111,"Qu":9112,"Taliban":9113,"Yet":9114,"bro":9115,"equ":9116,"ping":9117,"inth":9118,"inch":9119,"itts":9120,"ario":9121,"Ġbond":9122,"Ġbureau":9123,"Ġtot":9124,"ils":9125,"omers":9126,"Ġgri":9127,"Ġgross":9128,"ĠCleveland":9129,"amber":9130,"othe":9131,"Ġstages":9132,"ĠPower":9133,"Ġalt":9134,"Ġproof":9135,"Ġranging":9136,"ĠHuckabee":9137,"ĠJol":9138,"aste":9139,"ĠFI":9140,"ĠFront":9141,"ĠFernand":9142,"Ġchip":9143,"ĠLev":9144,"ĠLohan":9145,"Ġunexpected":9146,"abet":9147,"Ġorb":9148,"Ġabuses":9149,"Ġrepatri":9150,"Ġcloning":9151,"Ġupd":9152,"century":9153,"Ġotherwise":9154,"Ġscre":9155,"Ġsoaring":9156,"Ġearn":9157,"Ġcarries":9158,"Ġtraged":9159,"Ġrains":9160,"grade":9161,"Ġdesire":9162,"Ġmarking":9163,"Ġinterim":9164,"Ġstranded":9165,"perts":9166,"Ġsignal":9167,"Ġfollowers":9168,"Ġbuses":9169,"ĠEnvironment":9170,"Ġrestrain":9171,"ĠBeat":9172,"Ġ95":9173,"Ġveget":9174,"Ġski":9175,"Ġdenounced":9176,"Ġdiscussing":9177,"Ġparent":9178,"which":9179,"Ġ1987":9180,"Ġstationed":9181,"Ġdesigners":9182,"Ġdesignated":9183,"Ġrounds":9184,"Ġviewed":9185,"ĠArabic":9186,"Ġtrips":9187,"Ġpredict":9188,"Ġceremon":9189,"Ġlifting":9190,"Ġhistorical":9191,"Ġdiagn":9192,"Ġmaintained":9193,"ĠDarwin":9194,"Ġapologize":9195,"ravol":9196,"Ġtypes":9197,"Ġdefendants":9198,"Ġsponsors":9199,"cript":9200,"Ġendorsed":9201,"Ġdetainees":9202,"Ġextinction":9203,"Australia":9204,"Ġmanufacturers":9205,"Ġassessment":9206,"ĠErdogan":9207,"Ġsustained":9208,"Ġelderly":9209,"Ġspecifically":9210,"ĠDivision":9211,"Ġlegitimate":9212,"rehens":9213,"Michael":9214,"Ġdenuclearization":9215,"ĠCommerce":9216,"Ġempty":9217,"Cong":9218,"Det":9219,"GM":9220,"Local":9221,"NASA":9222,"Opp":9223,"border":9224,"brahim":9225,"din":9226,"frey":9227,"gl":9228,"gt":9229,"ras":9230,"she":9231,"uous":9232,"wind":9233,"Ġtiss":9234,"ati":9235,"Ġpending":9236,"Ġbare":9237,"Ġlaugh":9238,"Ġelement":9239,"olph":9240,"Ġforg":9241,"Ġforget":9242,"ĠAT":9243,"ĠAsh":9244,"ĠProp":9245,"ĠPope":9246,"Ġwhaling":9247,"ĠKansas":9248,"ĠTechnology":9249,"Ġprolong":9250,"ĠWith":9251,"ĠWright":9252,"iful":9253,"ĠHudson":9254,"Ġexecution":9255,"Ġshook":9256,"umn":9257,"odes":9258,"Ġunh":9259,"ĠEcu":9260,"Ġabol":9261,"ĠOP":9262,"reness":9263,"Ġresidence":9264,"Ġcompon":9265,"ibi":9266,"Ġattached":9267,"Ġpron":9268,"oya":9269,"neg":9270,"ĠSung":9271,"Ġundermine":9272,"Ġconsensus":9273,"Ġmemorial":9274,"Ġ77":9275,"iox":9276,"Ġ88":9277,"Ġdefending":9278,"ĠArk":9279,"ĠAlban":9280,"ĠZh":9281,"ĠZone":9282,"Ġmyself":9283,"Ġnationals":9284,"Ġpersonally":9285,"ĠCommand":9286,"Ġurge":9287,"Ġdeny":9288,"ĠChristians":9289,"Ġ160":9290,"appy":9291,"Ġsteep":9292,"Ġbroader":9293,"Ġmountains":9294,"chell":9295,"Ġteenagers":9296,"Ġcommissioner":9297,"Ġphysic":9298,"ĠChampionship":9299,"Ġunders":9300,"Russian":9301,"Ġvirtually":9302,"Ġinquest":9303,"Ġunpre":9304,"Ġresulted":9305,"Ġresulting":9306,"Ġcategory":9307,"ĠBahamas":9308,"Ġpresumptive":9309,"consin":9310,"Ġdictator":9311,"ĠTaylor":9312,"ĠWindows":9313,"Ġprominent":9314,"Ġtouched":9315,"ĠMovement":9316,"ĠWisconsin":9317,"\".":9318,"Col":9319,"Critics":9320,"Pyongyang":9321,"Som":9322,"bour":9323,"cus":9324,"ded":9325,"face":9326,"gus":9327,"high":9328,"iences":9329,"language":9330,"mor":9331,"mouth":9332,"math":9333,"ses":9334,"inks":9335,"erated":9336,"anim":9337,"atan":9338,"itter":9339,"ishes":9340,"Ġpard":9341,"Ġpages":9342,"Ġbes":9343,"Ġbene":9344,"ingly":9345,"Ġanx":9346,"Ġanch":9347,"Ġho":9348,"ication":9349,"Ġnice":9350,"Ġbears":9351,"Ġelsewhere":9352,"uts":9353,"Ġgro":9354,"ĠCivil":9355,"ĠCraig":9356,"ammy":9357,"ĠAI":9358,"ĠApp":9359,"elson":9360,"Ġrubble":9361,"ewel":9362,"ework":9363,"ĠFrom":9364,"ocide":9365,"acks":9366,"abel":9367,"ĠOdinga":9368,"Ġaftermath":9369,"ĠStadium":9370,"Ġcompar":9371,"izumi":9372,"Ġaccidents":9373,"osexual":9374,"ailed":9375,"Ġlasted":9376,"ampa":9377,"Ġtheme":9378,"ĠVienna":9379,"Ġknocked":9380,"Ġprotected":9381,"Ġinsists":9382,"Ġinfant":9383,"Ġvisible":9384,"Ġguidelines":9385,"ulls":9386,"esterol":9387,"Ġputs":9388,"ĠWhit":9389,"Ġadvent":9390,"ĠJane":9391,"Ġfilmmaker":9392,"iveness":9393,"Ġdeclaring":9394,"Ġstepping":9395,"overished":9396,"Ġproducers":9397,"ĠWarner":9398,"Ġrevolution":9399,"Ġdetailed":9400,"Ġpredec":9401,"ĠSeries":9402,"Ġflooded":9403,"ĠKhal":9404,"Ġcovering":9405,"iscovery":9406,"Ġabsence":9407,"Ġrecognized":9408,"Ġambitions":9409,"Ġsuspicious":9410,"Ġcyclone":9411,"ĠWinfrey":9412,"ĠTimor":9413,"Ġprinciple":9414,"ĠRadcliffe":9415,"Ġsongs":9416,"Ġfrequently":9417,"Ġtemporarily":9418,"Ġranking":9419,"Ġbattery":9420,"Ġspectac":9421,"Ġhopeful":9422,"Ġlengthy":9423,"ĠGonzales":9424,"Ġconfrontation":9425,"ĠTransportation":9426,"Ġtornado":9427,"ĠOklahoma":9428,"Ġconsequences":9429,"ĠUtah":9430,"Ġschol":9431,"speed":9432,"Ġtragedy":9433,"ĠEcuador":9434,"Ġbeneath":9435,"85":9436,"First":9437,"HA":9438,"Putin":9439,"Ron":9440,"Sa":9441,"care":9442,"cape":9443,"dem":9444,"haul":9445,"mir":9446,"mind":9447,"nect":9448,"poin":9449,"uh":9450,"zh":9451,"Ġiron":9452,"heel":9453,"ints":9454,"Ġwore":9455,"Ġwrap":9456,"Ġwrapped":9457,"orp":9458,"organ":9459,"Ġcul":9460,"Ġcode":9461,"Ġod":9462,"itime":9463,"arations":9464,"Ġpap":9465,"ouston":9466,"asure":9467,"Ġdign":9468,"Ġdates":9469,"Ġdating":9470,"Ġthick":9471,"Ġreward":9472,"Ġnurs":9473,"Ġec":9474,"ĠSher":9475,"ĠSheriff":9476,"Ġgor":9477,"Ġgest":9478,"Ġgren":9479,"urt":9480,"unes":9481,"ĠAC":9482,"ĠMore":9483,"ĠMoon":9484,"ĠNich":9485,"ĠUg":9486,"ĠFab":9487,"ĠFDA":9488,"ĠFootball":9489,"Ġchat":9490,"iants":9491,"ĠEmergency":9492,"ĠChildren":9493,"Ġresear":9494,"uccess":9495,"ells":9496,"Ġoutlook":9497,"Ġpermission":9498,"Ġovercome":9499,"ibilities":9500,"Ġcanc":9501,"Ġrot":9502,"Ġimpoverished":9503,"Ġeconomists":9504,"Ġreluct":9505,"Ġairlines":9506,"Ġhelps":9507,"Ġopposite":9508,"Ġ85":9509,"ĠAssistant":9510,"Ġeverywhere":9511,"ĠEnd":9512,"ĠSecurities":9513,"Ġpassion":9514,"Ġextrad":9515,"Ġseeks":9516,"Ġcreation":9517,"Ġcafe":9518,"Ġpersonality":9519,"cker":9520,"beat":9521,"White":9522,"Ġadvised":9523,"ĠLeader":9524,"ĠCarter":9525,"Ġprisoner":9526,"Ġinstant":9527,"Ġinstance":9528,"Ġrealized":9529,"Ġrealize":9530,"ception":9531,"Ġ1986":9532,"ĠHarvard":9533,"Ġdiplomacy":9534,"Ġshutdown":9535,"Ġrisen":9536,"Ġemployment":9537,"United":9538,"Ġpubl":9539,"ambling":9540,"Ġgoalkeeper":9541,"Ġvolat":9542,"Ġrevive":9543,"Ġconstant":9544,"Ġseparated":9545,"Ġbadly":9546,"ĠEmirates":9547,"Ġresponding":9548,"Ġembarr":9549,"Americans":9550,"Ġclubs":9551,"Ġfeatured":9552,"Ġcooperate":9553,"Ġreligion":9554,"Ġconfirmation":9555,"Ġunfair":9556,"Experts":9557,"Ġflags":9558,"rillas":9559,"Barack":9560,"rastructure":9561,"Ġinspired":9562,"ĠRevolutionary":9563,"Ġextinct":9564,"ĠSurvey":9565,"Ġprocedures":9566,"Ġcolonial":9567,"lusive":9568,"Ġmandatory":9569,"Ġremarkable":9570,"Ġemotional":9571,"Ġvolcano":9572,"Ġemphasized":9573,"Ġimpeachment":9574,"Ġstroke":9575,"heimer":9576,"ĠEducation":9577,"eltsin":9578,"Ġsurrender":9579,"Ġembarrass":9580,"Brazil":9581,"FK":9582,"Good":9583,"Mad":9584,"Part":9585,"Sun":9586,"Up":9587,"VI":9588,"eer":9589,"few":9590,"fering":9591,"net":9592,"race":9593,"sm":9594,"turn":9595,"zene":9596,"Ġtrick":9597,"Ġtelesc":9598,"inted":9599,"inho":9600,"rets":9601,"Ġsoph":9602,"eries":9603,"Ġwound":9604,"Ġocean":9605,"Ġfighter":9606,"Ġpill":9607,"Ġbarg":9608,"Ġhiding":9609,"icate":9610,"Ġda":9611,"Ġreference":9612,"Ġlending":9613,"ĠCard":9614,"igious":9615,"ĠAk":9616,"elro":9617,"ĠIbrahim":9618,"embers":9619,"ĠTw":9620,"rible":9621,"Ġhailed":9622,"ĠWay":9623,"ĠWinehouse":9624,"ĠDa":9625,"ĠDes":9626,"ĠGib":9627,"ĠGraham":9628,"ĠJerry":9629,"ĠFred":9630,"Ġnoticed":9631,"Ġagg":9632,"Ġjets":9633,"Ġclient":9634,"Ġoutstanding":9635,"Ġpermit":9636,"Ġincoming":9637,"angel":9638,"Ġpartly":9639,"indi":9640,"Ġquoting":9641,"Ġregister":9642,"meter":9643,"Ġ74":9644,"Ġvision":9645,"Ġlongtime":9646,"Ġefficient":9647,"ĠUSA":9648,"Ġoperated":9649,"Ġpolitically":9650,"Ġclimb":9651,"Ġobst":9652,"Why":9653,"Ġrequests":9654,"Ġinterviewed":9655,"ceptable":9656,"ĠHills":9657,"Star":9658,"Ġavo":9659,"Ġtaxpay":9660,"Ġwriters":9661,"Ġyoungest":9662,"umbling":9663,"Ġdescribe":9664,"Ġconsumption":9665,"Ġvolume":9666,"Ġdropping":9667,"Ġwaited":9668,"Ġwatchers":9669,"Seven":9670,"Ġmounting":9671,"Ġballistic":9672,"Ġmeanwhile":9673,"Ġelabor":9674,"ĠKarachi":9675,"ĠMosul":9676,"Ġrespectively":9677,"Beijing":9678,"Ġdisplaced":9679,"Ġcelebrated":9680,"Ġopportunities":9681,"Ġminds":9682,"ĠMerkel":9683,"Pakistani":9684,"Ġcomplicated":9685,"ĠFortune":9686,"Ġtunnel":9687,"ĠRoger":9688,"Ġhunger":9689,"Ġunnamed":9690,"Ġbrutal":9691,"ĠToday":9692,"Commun":9693,"Ġshareholders":9694,"Ġwreckage":9695,"Ġvulnerable":9696,"ĠiPhone":9697,"Ġunprecedented":9698,"!\"":9699,"99":9700,"Current":9701,"Follow":9702,"Mon":9703,"PAR":9704,"Rich":9705,"Such":9706,"cles":9707,"dick":9708,"mans":9709,"nut":9710,"post":9711,"press":9712,"tech":9713,"uo":9714,"Ġtact":9715,"Ġaired":9716,"onic":9717,"Ġwine":9718,"esh":9719,"Ġfer":9720,"Ġfran":9721,"Ġpig":9722,"oured":9723,"Ġmice":9724,"Ġmour":9725,"Ġham":9726,"Ġhang":9727,"asks":9728,"Ġthrill":9729,"rost":9730,"uten":9731,"Ġgift":9732,"Ġforth":9733,"Ġsav":9734,"ĠCr":9735,"otive":9736,"eta":9737,"ĠPoll":9738,"ĠPowell":9739,"ĠIf":9740,"ĠBureau":9741,"emies":9742,"ĠTown":9743,"Ġconced":9744,"rio":9745,"ĠNH":9746,"ĠNam":9747,"ĠNick":9748,"Ġshark":9749,"Ġshipping":9750,"ĠFuj":9751,"Ġspan":9752,"ĠLake":9753,"seat":9754,"Ġpolar":9755,"ĠStation":9756,"Ġincent":9757,"loom":9758,"Ġaccuse":9759,"rics":9760,"ishing":9761,"Ġshell":9762,"avar":9763,"awah":9764,"Ġpreced":9765,"erving":9766,"Ġ193":9767,"Ġcommem":9768,"luded":9769,"athon":9770,"Ġconsol":9771,"ĠShah":9772,"Ġassaul":9773,"Ġfees":9774,"Ġcentered":9775,"Ġlongest":9776,"Ġsuspension":9777,"ĠArctic":9778,"Ġgenerate":9779,"Ġcurb":9780,"Ġspeaker":9781,"Ġmarine":9782,"Ġmovements":9783,"Ġchecks":9784,"Ġuseful":9785,"Ġpressed":9786,"ĠLeon":9787,"ĠCarlos":9788,"Ġvideot":9789,"Ġconviction":9790,"Ġdisputes":9791,"Ġwriter":9792,"Ġartists":9793,"Ġconsiders":9794,"umbled":9795,"Ġengage":9796,"Ġdesigner":9797,"Ġcompeting":9798,"Ġpenalties":9799,"Ġcelebrities":9800,"ĠMadoff":9801,"Ġcrowded":9802,"Ġsurveyed":9803,"Ġlaunching":9804,"Ġexciting":9805,"ĠBrig":9806,"ĠShinzo":9807,"ĠCuban":9808,"Ġcommanders":9809,"ĠNicole":9810,"Ġambul":9811,"Ġpsychiat":9812,"ĠWinter":9813,"Ġexpanding":9814,"Ġmotorcy":9815,"Ġinsurgency":9816,"ramid":9817,"ĠAhmadi":9818,"Republic":9819,"ĠMurray":9820,"Ġcoordin":9821,"Ġadjust":9822,"Ġprocedure":9823,"Ġunderwent":9824,"Ġhabitat":9825,"Ġwrongdo":9826,"Ġelevator":9827,"Ġpersuade":9828,"Ġsearched":9829,"Ġcompromise":9830,"Ġdisagre":9831,"ĠMitchell":9832,"Ġpilgrims":9833,"xygen":9834,"Ġattributed":9835,"ĠKentucky":9836,"Ġreplacement":9837,"ancellor":9838,"Congress":9839,"ĠOPEC":9840,"PARIS":9841,"Abe":9842,"Bur":9843,"Comp":9844,"Dr":9845,"Federal":9846,"Man":9847,"Pacific":9848,"Yes":9849,"Zawah":9850,"domin":9851,"lers":9852,"tada":9853,"zy":9854,"zheimer":9855,"Ġtherap":9856,"erating":9857,"Ġphen":9858,"alp":9859,"Ġmun":9860,"Ġmood":9861,"stream":9862,"Ġlod":9863,"Ġlunch":9864,"ĠSang":9865,"Ġgal":9866,"Ġforms":9867,"iments":9868,"unich":9869,"ĠCruise":9870,"ĠMas":9871,"ĠMide":9872,"ĠMBC":9873,"ĠPu":9874,"ersh":9875,"ulu":9876,"ĠNov":9877,"ĠDak":9878,"ĠDrug":9879,"ĠDemocracy":9880,"ĠHad":9881,"ĠHoll":9882,"ĠHouston":9883,"ĠGren":9884,"ĠRumsfeld":9885,"ĠFel":9886,"Ġspill":9887,"Ġspraw":9888,"alling":9889,"abama":9890,"Ġseas":9891,"Ġrepair":9892,"Ġje":9893,"Ġclock":9894,"Ġoutput":9895,"Ġmere":9896,"Ġaccel":9897,"manuel":9898,"Ġscoring":9899,"ĠYi":9900,"Ġmonarch":9901,"Ġkiller":9902,"liner":9903,"lining":9904,"Ġwars":9905,"Ġfined":9906,"Ġremoving":9907,"Ġstatistics":9908,"anche":9909,"ĠSeung":9910,"Ġinvestments":9911,"Ġdesc":9912,"Ġinfrastructure":9913,"Ġreflects":9914,"Ġpharm":9915,"Ġsigning":9916,"Ġgray":9917,"Ġguest":9918,"ĠAlzheimer":9919,"ĠAmazon":9920,"Ġjobless":9921,"aughters":9922,"Ġemerging":9923,"Ġactivist":9924,"Ġmidfielder":9925,"ĠBlitzer":9926,"Ġbodygu":9927,"Ġlisten":9928,"ĠMySpace":9929,"who":9930,"hye":9931,"Ġnorthwestern":9932,"Ġanalysis":9933,"Until":9934,"Ġfocusing":9935,"Ġballot":9936,"Ġclosest":9937,"Ġsectors":9938,"Ġlegislature":9939,"regon":9940,"Ġrobot":9941,"Ġreconstruction":9942,"Ġassociation":9943,"Prot":9944,"Ġmistakes":9945,"Ġenjoyed":9946,"ĠAnnan":9947,"Ġawareness":9948,"Australian":9949,"Ġmethods":9950,"Turkey":9951,"ĠWoods":9952,"Ġpeacekeeping":9953,"Ġaccompanied":9954,"Ġuniversities":9955,"Ġguerrillas":9956,"ĠBowl":9957,"Ġcholesterol":9958,"ĠGiuliani":9959,"Ġfundamental":9960,"George":9961,"Ġcocaine":9962,"guson":9963,"ĠMideast":9964,"DC":9965,"EN":9966,"IN":9967,"Im":9968,"Min":9969,"Sur":9970,"Wal":9971,"Zimbabwe":9972,"boy":9973,"jamin":9974,"mother":9975,"qtada":9976,"rates":9977,"sl":9978,"vant":9979,"Ġtrem":9980,"real":9981,"Ġwider":9982,"Ġcore":9983,"Ġcub":9984,"Ġcru":9985,"Ġcert":9986,"Ġfract":9987,"arra":9988,"Ġpin":9989,"Ġmel":9990,"Ġhanging":9991,"Ġdre":9992,"Ġdying":9993,"Ġreh":9994,"ĠSadr":9995,"unal":9996,"ĠCat":9997,"igers":9998,"Ġstamp":9999,"emble":10000,"ĠKun":10001,"ĠKia":10002,"ĠKitt":10003,"Ġasyl":10004,"andahar":10005,"ĠNot":10006,"ĠWHO":10007,"ĠDomin":10008,"ĠHome":10009,"ĠRoma":10010,"Ġoffenders":10011,"Ġnoting":10012,"Ġunique":10013,"ĠEll":10014,"Ġplenty":10015,"Ġselection":10016,"rena":10017,"Ġexped":10018,"Ġoutdo":10019,"Ġmile":10020,"Ġenorm":10021,"Ġprest":10022,"Ġmonkey":10023,"Ġflame":10024,"Ġreclusive":10025,"Ġsupporter":10026,"Ġtale":10027,"Ġ67":10028,"Any":10029,"Ġrelie":10030,"anco":10031,"Ġretali":10032,"ĠShim":10033,"Ġinfection":10034,"Ġinfilt":10035,"Ġinterior":10036,"ĠMarines":10037,"Ġpublicist":10038,"Ġcontinent":10039,"Ġdeficit":10040,"Ġlocked":10041,"shaped":10042,"ĠSecond":10043,"ĠArm":10044,"ĠArsenal":10045,"Ġcurfew":10046,"ĠAlan":10047,"ĠAlabama":10048,"ĠSenna":10049,"prime":10050,"Ġrulers":10051,"Ġthreatens":10052,"Ġprosper":10053,"Ġskills":10054,"Ġdisturb":10055,"class":10056,"ĠPeters":10057,"Ġharder":10058,"scious":10059,"ĠGazprom":10060,"Ġrivers":10061,"ĠWarren":10062,"Ġgrounds":10063,"Ġanaly":10064,"Ġcombination":10065,"deep":10066,"Ġcrossing":10067,"itnesses":10068,"Ġkidnappers":10069,"Ġpreventing":10070,"ĠExecutive":10071,"ĠKyoto":10072,"ĠMedia":10073,"ĠMedvedev":10074,"ĠHoly":10075,"Ġflex":10076,"Ġrelationships":10077,"Ġsurprising":10078,"regular":10079,"Ġrarely":10080,"EOUL":10081,"Ġepid":10082,"Ġbottles":10083,"ĠIslands":10084,"Ġassociate":10085,"Ġsalmon":10086,"Ġdistribution":10087,"warzene":10088,"ĠYangon":10089,"Ġratings":10090,"Ġguarantees":10091,"Ġprincess":10092,"Ġsurveys":10093,"ilitary":10094,"ĠNigeria":10095,"Ġproceedings":10096,"Ġqualifying":10097,"ĠDenver":10098,"Ġbranch":10099,"Twenty":10100,"Ġlandslide":10101,"ĠCooperation":10102,"European":10103,"Ġsuburban":10104,"ravolta":10105,"ioxide":10106,"bourne":10107,"Ġphenomen":10108,"Ġasylum":10109,"warzenegger":10110,"Econom":10111,"Hamas":10112,"Il":10113,"Men":10114,"PS":10115,"Qaeda":10116,"SEOUL":10117,"Yahoo":10118,"bel":10119,"case":10120,"def":10121,"fight":10122,"iy":10123,"iors":10124,"mal":10125,"mate":10126,"norm":10127,"piece":10128,"inter":10129,"inder":10130,"onel":10131,"Ġcats":10132,"Ġfab":10133,"Ġfisher":10134,"arity":10135,"isive":10136,"Ġbow":10137,"Ġbone":10138,"Ġtoy":10139,"Ġdaughters":10140,"Ġdioxide":10141,"Ġreass":10142,"Ġreverse":10143,"sters":10144,"Ġbeaut":10145,"Ġecho":10146,"ĠSgt":10147,"utt":10148,"utious":10149,"ĠCold":10150,"otte":10151,"etime":10152,"Ġstick":10153,"ĠMong":10154,"raid":10155,"throw":10156,"ĠBear":10157,"ĠTre":10158,"rome":10159,"ulous":10160,"ĠNa":10161,"Ġprolif":10162,"ĠHit":10163,"ĠJav":10164,"ĠRaj":10165,"Ġexha":10166,"ĠForest":10167,"udge":10168,"Ġabduction":10169,"Ġreput":10170,"ĠOregon":10171,"Ġacid":10172,"Ġresistance":10173,"Ġintends":10174,"Ġincred":10175,"acebook":10176,"izer":10177,"ĠYoon":10178,"ĠThree":10179,"Ġflaw":10180,"Ġcrunch":10181,"Ġindefin":10182,"Ġfinancing":10183,"athy":10184,"Ġconsul":10185,"aza":10186,"Ġassum":10187,"Ġhostile":10188,"Ġ81":10189,"ĠIndex":10190,"Ġshouldn":10191,"Ġextension":10192,"Ġcautious":10193,"eva":10194,"Ġdevelopments":10195,"Ġfinds":10196,"Ġopenly":10197,"ĠCDC":10198,"Ġindustries":10199,"Ġskept":10200,"Ġ180":10201,"Ġstrongest":10202,"Ġconvince":10203,"ONG":10204,"Ġdispers":10205,"Ġfalls":10206,"Ġriot":10207,"ĠGuang":10208,"Ġmanagers":10209,"Ġequity":10210,"Ġclassroom":10211,"ĠSao":10212,"Ġaims":10213,"ĠTelevision":10214,"ographic":10215,"Ġdoubled":10216,"ĠAhmed":10217,"Ġpursued":10218,"Ġarchit":10219,"contin":10220,"Ġcollected":10221,"Ġargue":10222,"Ġargument":10223,"Ġtypically":10224,"Ġboycot":10225,"Ġopponent":10226,"Cheney":10227,"Ġoptimistic":10228,"Ġbranches":10229,"ĠEverest":10230,"Ġapplied":10231,"Ġmurders":10232,"Ġmicro":10233,"Ġanticipated":10234,"ĠProsecutors":10235,"Ġvigil":10236,"Ġtrafficking":10237,"Ġepisode":10238,"ĠToyota":10239,"Ġsophistic":10240,"Following":10241,",Â´Â´":10242,"64":10243,"Ah":10244,"Fire":10245,"Med":10246,"RI":10247,"Ro":10248,"Sup":10249,"Ste":10250,"Tokyo":10251,"Wall":10252,"father":10253,"front":10254,"giving":10255,"hus":10256,"kat":10257,"lan":10258,"tic":10259,"vili":10260,"Ġiv":10261,"Ġtanks":10262,"Ġtheft":10263,"Ġwrest":10264,"ano":10265,"aton":10266,"Ġfru":10267,"Ġtoler":10268,"ouch":10269,"Ġmum":10270,"Ġdorm":10271,"stone":10272,"story":10273,"ĠSand":10274,"olks":10275,"igible":10276,"eting":10277,"ĠMiller":10278,"orer":10279,"ĠPA":10280,"ĠKelly":10281,"ĠTan":10282,"riff":10283,"Ġprostitution":10284,"ĠWater":10285,"ĠDiscovery":10286,"Ġexceed":10287,"ĠFisher":10288,"ĠLine":10289,"Ġunanim":10290,"Ġafraid":10291,"Ġju":10292,"Ġjun":10293,"ardari":10294,"ĠStand":10295,"iev":10296,"Ġcontacted":10297,"Ġscar":10298,"Ġroles":10299,"ĠYun":10300,"luding":10301,"ruce":10302,"Ġflash":10303,"Ġactual":10304,"Ġtherefore":10305,"Ġundergoing":10306,"Ġblind":10307,"Ġblocks":10308,"Ġraped":10309,"Ġanywhere":10310,"Ġbackground":10311,"Ġcaps":10312,"Ġ72":10313,"Ġhosts":10314,"Ġinterpre":10315,"Ġrefusal":10316,"ĠMaria":10317,"ĠSpani":10318,"Ġtransactions":10319,"Ġoperator":10320,"Ġsubway":10321,"Ġentrance":10322,"iko":10323,"Ġowns":10324,"Ġclimbed":10325,"Ġcritically":10326,"Ġtestify":10327,"play":10328,"Ġyourself":10329,"Ġcourage":10330,"remlin":10331,"iverse":10332,"Ġinstru":10333,"Ġdamages":10334,"Ġtechnique":10335,"Stud":10336,"Stocks":10337,"ĠProject":10338,"Ġappearances":10339,"ĠCongo":10340,"ĠConference":10341,"Ġbreaks":10342,"Ġriots":10343,"Ġstead":10344,"Ġprimarily":10345,"Ġradar":10346,"Ġzero":10347,"Ġrevised":10348,"Ġvalid":10349,"Ġportion":10350,"Ġhonored":10351,"Ġstruggled":10352,"Ġparticipating":10353,"Ġplea":10354,"Ġtroubles":10355,"Ġbuyers":10356,"Ġblasted":10357,"News":10358,"Ġtemple":10359,"Ġregardless":10360,"Ġfastest":10361,"Prince":10362,"Ġexistence":10363,"uja":10364,"Ġclinic":10365,"Ġdistributed":10366,"hetoric":10367,"Ġignored":10368,"Ġtemperature":10369,"ĠDiy":10370,"Ġresidential":10371,"Ġhunting":10372,"Ġapplication":10373,"Ġarrang":10374,"Ġstrategic":10375,"ĠVictoria":10376,"ĠKoizumi":10377,"Ġinterrogation":10378,"founder":10379,"ĠLewis":10380,"ĠHomeland":10381,"Ġbacteria":10382,"Ġsummoned":10383,"ittsburgh":10384,"Ġtotally":10385,"ĠJolie":10386,"abetes":10387,"Ġconsolid":10388,".)":10389,"150":10390,"96":10391,"900":10392,"EF":10393,"gian":10394,"oi":10395,"parent":10396,"selling":10397,"uations":10398,"inos":10399,"Ġsounds":10400,"ora":10401,"esong":10402,"Ġfee":10403,"isan":10404,"Ġpion":10405,"Ġbon":10406,"Ġborrow":10407,"alle":10408,"Ġhorm":10409,"Ġhired":10410,"Ġdrow":10411,"Ġdyn":10412,"Ġlen":10413,"Ġeager":10414,"acc":10415,"igg":10416,"ĠMarg":10417,"elve":10418,"ĠIC":10419,"ĠBenn":10420,"osh":10421,"oshi":10422,"ĠTam":10423,"opard":10424,"andom":10425,"aining":10426,"ppled":10427,"Ġric":10428,"Ġrub":10429,"ifer":10430,"ĠDean":10431,"ĠDallas":10432,"ĠRay":10433,"ĠRail":10434,"ĠRosen":10435,"ĠFree":10436,"Ġkicked":10437,"ĠLim":10438,"Ġsealed":10439,"ĠOmar":10440,"ĠChange":10441,"ĠChannel":10442,"ĠChancellor":10443,"Ġjewel":10444,"kei":10445,"ĠStud":10446,"olds":10447,"Ġthanked":10448,"rition":10449,"Ġenh":10450,"Ġenemies":10451,"adei":10452,"Ġteeth":10453,"Ġcrush":10454,"ĠMinnes":10455,"Ġfinals":10456,"Ġconsc":10457,"ptoms":10458,"uthors":10459,"aired":10460,"Ġdesper":10461,"Ġinspir":10462,"Ġevil":10463,"Ġ71":10464,"Ġpromises":10465,"Ġhosting":10466,"minent":10467,"Ġsla":10468,"Ġdepth":10469,"Ġ82":10470,"gging":10471,"Ġgenocide":10472,"Ġpopulated":10473,"ĠGeun":10474,"Ġsworn":10475,"Ġlaundering":10476,"Ġshortage":10477,"ĠReid":10478,"Ġexecutions":10479,"Ġauton":10480,"Ġ140":10481,"ĠConf":10482,"Ġmassacre":10483,"umbent":10484,"Ġengagement":10485,"ozens":10486,"Ġequival":10487,"Ġfeelings":10488,"Ġcompetitive":10489,"Ġburial":10490,"Ġburden":10491,"ĠAngela":10492,"Ġpoison":10493,"Ġportray":10494,"Ġcontroll":10495,"Ġparticipation":10496,"ĠKenyan":10497,"Ġengineer":10498,"Ġreviewing":10499,"Ġreveal":10500,"Ġbottle":10501,"Ġtomb":10502,"Ġsubstance":10503,"Ġexpanded":10504,"Ġentirely":10505,"Ġimplemented":10506,"Ġregularly":10507,"ĠRodriguez":10508,"Ġsilence":10509,"ĠMalaysian":10510,"ĠFerguson":10511,"Ġapplications":10512,"Ġfrequent":10513,"ĠBrook":10514,"rocod":10515,"Ġphotographers":10516,"Ġcomfortable":10517,"Ġexhibit":10518,"Ġarranged":10519,"ĠIdol":10520,"ĠHelmand":10521,"Ġwonderful":10522,"ĠCambodia":10523,"stanbul":10524,"Ġagriculture":10525,"Ġobligations":10526,"Ġexclusive":10527,"Ġpaintings":10528,"ĠNazi":10529,"Ġcoinc":10530,"ĠLahore":10531,"Ġeggs":10532,"Ġpostponed":10533,"Ġcounterfeiting":10534,"Hyundai":10535,"Ġsymp":10536,"Ġsorry":10537,"itigroup":10538,"rehensive":10539,"Ġvolatile":10540,"Ġsprawling":10541,"Ġrehabil":10542,"Ġproliferation":10543,"ĠHitler":10544,"ĠMinnesota":10545,"31":10546,"380":10547,"44":10548,"67":10549,"98":10550,"Act":10551,"Apple":10552,"Beckham":10553,"Can":10554,"El":10555,"ME":10556,"NATO":10557,"Top":10558,"UC":10559,"aution":10560,"bian":10561,"dis":10562,"mese":10563,"nan":10564,"swe":10565,"ww":10566,"zes":10567,"Ġtip":10568,"Ġtears":10569,"inct":10570,"inson":10571,"onto":10572,"Ġsed":10573,"erto":10574,"eroid":10575,"orations":10576,"Ġfake":10577,"isen":10578,"Ġbans":10579,"Ġhill":10580,"icting":10581,"Ġdolph":10582,"Ġthro":10583,"Ġnaval":10584,"storm":10585,"Ġli":10586,"Ġlit":10587,"Ġlake":10588,"Ġlone":10589,"Ġlock":10590,"Ġloud":10591,"Ġlangu":10592,"Ġelements":10593,"ĠStern":10594,"ĠSnow":10595,"ĠSky":10596,"adona":10597,"olt":10598,"Ġgate":10599,"ighed":10600,"ĠAcc":10601,"ether":10602,"ĠMog":10603,"irl":10604,"irut":10605,"irmed":10606,"ĠPM":10607,"ĠBos":10608,"ĠTampa":10609,"opes":10610,"ested":10611,"estone":10612,"ules":10613,"ĠWoo":10614,"ĠDer":10615,"ĠDown":10616,"ĠGil":10617,"ĠGall":10618,"Ġlect":10619,"ĠFT":10620,"Ġoffense":10621,"Ġspray":10622,"oda":10623,"ouring":10624,"allah":10625,"Ġweren":10626,"Ġabortion":10627,"Ġaging":10628,"ĠObs":10629,"ĠChos":10630,"Ġacad":10631,"arded":10632,"Ġaccur":10633,"Ġdisrupt":10634,"hedral":10635,"Ġsecured":10636,"Inter":10637,"Ġwarrants":10638,"ahn":10639,"Ġsurged":10640,"ratt":10641,"Ġdesk":10642,"ugged":10643,"Ġintervention":10644,"Ġsmooth":10645,"Ġdepos":10646,"sha":10647,"Ġparks":10648,"Chavez":10649,"Ġdirectors":10650,"ĠArch":10651,"Ġoperational":10652,"Ġsubsequ":10653,"Ġenthus":10654,"ĠBeirut":10655,"Ġinvolves":10656,"Ġchiefs":10657,"Ġdrinks":10658,"rained":10659,"ĠGeneva":10660,"Ġkidney":10661,"cover":10662,"ĠProf":10663,"Ġbarriers":10664,"Ġautops":10665,"Ġdispatched":10666,"apping":10667,"Ġ1982":10668,"Ġsuffer":10669,"ĠGrammy":10670,"Ġpublish":10671,"ĠWeather":10672,"Ġwithdrawn":10673,"asket":10674,"Ġholy":10675,"Ġholes":10676,"Ġseparatist":10677,"Ġlined":10678,"Ġlimits":10679,"Ġelite":10680,"ompson":10681,"Ġrepresented":10682,"Ġ1979":10683,"ĠMedic":10684,"Ġasteroid":10685,"America":10686,"iffs":10687,"Ġresolving":10688,"Ġaudio":10689,"respons":10690,"BAD":10691,"Ġevacuation":10692,"ĠBenjamin":10693,"Ġconnected":10694,"Ġdiabetes":10695,"Ġmaintaining":10696,"Ġweakness":10697,"Ġversus":10698,"Ġbroadcasting":10699,"ĠSingh":10700,"Ġscandals":10701,"Ġantibi":10702,"Ġseverely":10703,"ĠPlan":10704,"Ġcontribute":10705,"Ġpremie":10706,"ISLA":10707,"Ġachieved":10708,"India":10709,"Ġclinch":10710,"governmental":10711,"ĠUkrain":10712,"ĠPhilippine":10713,"Ġunpopular":10714,"Ġgraduate":10715,"Ġtribunal":10716,"Ġmachines":10717,"Ġprayers":10718,"Ġrallied":10719,"Ġconglom":10720,"MABAD":10721,"ĠPanama":10722,"ĠVermont":10723,"Ġrecovering":10724,"Hillary":10725,"Ġdismantling":10726,"Ġmanipulation":10727,"ĠSimon":10728,"Ġlandslides":10729,"Ġdragged":10730,"Ġscenes":10731,"Ġfleeing":10732,"Ġrecommendations":10733,"ĠIndustrial":10734,"parency":10735,"ĠNowak":10736,"ĠNikkei":10737,"Opinion":10738,"Ġsmuggling":10739,"Ġpyramid":10740,"ĠGambari":10741,"ĠAntarctic":10742,"Microsoft":10743,"Ġhidden":10744,"Caprio":10745,"Ġprobation":10746,"ĠHindu":10747,"Maybe":10748,"Ġsettled":10749,"Ġairplane":10750,"Ġtabloid":10751,"Ġprolonged":10752,"Ġspectacular":10753,"Zawahiri":10754,"ISLAMABAD":10755,"87":10756,"California":10757,"France":10758,"KA":10759,"Oh":10760,"Vi":10761,"Well":10762,"Witnesses":10763,"YO":10764,"bu":10765,"bound":10766,"bits":10767,"dam":10768,"dec":10769,"from":10770,"fish":10771,"gic":10772,"name":10773,"ps":10774,"Ġware":10775,"aning":10776,"Ġcraft":10777,"itled":10778,"Ġfrag":10779,"Ġinstitution":10780,"icut":10781,"Ġrevers":10782,"adi":10783,"Ġgender":10784,"ĠClin":10785,"ĠMen":10786,"ĠPyeong":10787,"ĠIvan":10788,"ĠBrun":10789,"ĠTrib":10790,"ĠNBA":10791,"Ġproport":10792,"ĠWy":10793,"ĠWon":10794,"ifty":10795,"orta":10796,"ĠJenn":10797,"ĠRub":10798,"ĠFacebook":10799,"ackers":10800,"ĠLand":10801,"Ġseal":10802,"Ġorg":10803,"Ġresemb":10804,"Ġclues":10805,"Ġclients":10806,"Ġintent":10807,"Ġintim":10808,"Ġadmission":10809,"Ġmeets":10810,"ouses":10811,"Ġcomprehensive":10812,"Ġoverhaul":10813,"ibl":10814,"iped":10815,"Ġcontamin":10816,"iley":10817,"avor":10818,"awaz":10819,"Ġscan":10820,"Ġscrap":10821,"Ġappearing":10822,"Ġinvent":10823,"ensions":10824,"ollar":10825,"Ġuser":10826,"Ġmines":10827,"Ġamazing":10828,"Ġrecy":10829,"athan":10830,"ahr":10831,"rator":10832,"ossett":10833,"Ġasser":10834,"Ġassured":10835,"Ġconfessed":10836,"Ġsetback":10837,"Ġexplan":10838,"Ġinterfering":10839,"Ġoppose":10840,"Ġsmashed":10841,"Ġ2011":10842,"Ġgrant":10843,"Ġguide":10844,"Ġguys":10845,"Chirac":10846,"Ġsubprime":10847,"Ġpassage":10848,"Ġpreparations":10849,"ported":10850,"stitutes":10851,"Ġdonations":10852,"ĠGeological":10853,"Ġmoral":10854,"Ġexplained":10855,"Ġhandful":10856,"Ġswing":10857,"Ġswine":10858,"Ġpeacefully":10859,"Ġtradem":10860,"closed":10861,"Ġmeteor":10862,"Ġ1988":10863,"Ġcommitments":10864,"Ġanimated":10865,"parts":10866,"Ġdescribes":10867,"Ġprivately":10868,"ĠPaulson":10869,"Ġcelebrating":10870,"Ġpaint":10871,"Ġranks":10872,"Ġtwin":10873,"AND":10874,"Ġcheckpoint":10875,"Ġperformances":10876,"Ġchallenged":10877,"Others":10878,"Ġmountainous":10879,"Ġproposals":10880,"Second":10881,"ĠHenley":10882,"Ġpalm":10883,"ĠRooney":10884,"ĠNorwe":10885,"Ġchampionship":10886,"Ġchallenging":10887,"Ġimmigrants":10888,"Ġwealthy":10889,"Ġinspection":10890,"Ġtribute":10891,"Ġdefinitely":10892,"Ġkingdom":10893,"Ġphotographer":10894,"Ġwooden":10895,"ĠBroadway":10896,"Ġstrategist":10897,"Ġwidow":10898,"Ġencouraging":10899,"Ġshouted":10900,"Ġepicenter":10901,"Ġromantic":10902,"Ġpromotion":10903,"Ġvaccine":10904,"ĠKazakh":10905,"Using":10906,"Ġexcessive":10907,"Ġfingerpr":10908,"Ġtoilet":10909,"Ġransom":10910,"Ġvitamin":10911,"Ġjungle":10912,"ĠBeatles":10913,"Ġtissue":10914,"necticut":10915,"Ġodds":10916,"ĠUganda":10917,"Ġresearcher":10918,"ĠGrenada":10919,"Ġenormous":10920,"Ġivory":10921,"Ġequivalent":10922,"32":10923,"97":10924,"Ass":10925,"Jack":10926,"MF":10927,"Pat":10928,"Video":10929,"comb":10930,"court":10931,"ji":10932,"offic":10933,"pher":10934,"prop":10935,"suk":10936,"wen":10937,"zard":10938,"Âº":10939,"oner":10940,"Ġtheaters":10941,"Ġwelfare":10942,"atoes":10943,"Ġcrocod":10944,"Ġoxygen":10945,"itable":10946,"Ġfault":10947,"Ġpeng":10948,"Ġbat":10949,"Ġtodd":10950,"Ġmir":10951,"Ġmall":10952,"Ġdies":10953,"Ġdawn":10954,"leep":10955,"Ġnavy":10956,"Ġlun":10957,"Ġlav":10958,"Ġgear":10959,"Ġgases":10960,"aments":10961,"otten":10962,"ĠAst":10963,"Ġstal":10964,"Ġstated":10965,"eline":10966,"ĠPittsburgh":10967,"ĠIstanbul":10968,"ĠBloom":10969,"Ġweighed":10970,"ĠKandahar":10971,"charg":10972,"children":10973,"Ġyield":10974,"ĠWi":10975,"Ġrhetoric":10976,"Ġrandom":10977,"ĠDem":10978,"ĠHold":10979,"ĠGame":10980,"ĠRaw":10981,"ĠRah":10982,"ĠRudd":10983,"asty":10984,"Ġshoe":10985,"Ġshocked":10986,"ĠFour":10987,"ĠFTA":10988,"umph":10989,"Ġchick":10990,"ĠLP":10991,"ĠLo":10992,"ĠLenn":10993,"ĠEst":10994,"Ġabusing":10995,"Ġexpelled":10996,"Ġincumbent":10997,"loved":10998,"Ġdisorder":10999,"Ġcontenders":11000,"Ġengin":11001,"ranked":11002,"aware":11003,"ĠYe":11004,"achs":11005,"Ġimper":11006,"Ġimpressive":11007,"Ġretrie":11008,"Ġslush":11009,"sharing":11010,"ships":11011,"ĠIndepend":11012,"ĠAlf":11013,"ĠAlger":11014,"Ġleftist":11015,"comfort":11016,"Ġchecked":11017,"Ġpressing":11018,"Ġbusinessman":11019,"ductions":11020,"Ġposting":11021,"Ġapprox":11022,"Ġtraded":11023,"Ġprofessors":11024,"Ġdrunk":11025,"club":11026,"Ġvoiced":11027,"Ġcarefully":11028,"Ġfactories":11029,"Ġlots":11030,"cribed":11031,"ructuring":11032,"Without":11033,"Ġaiming":11034,"Ġsquee":11035,"Ġtitled":11036,"Ġchoices":11037,"ĠAnderson":11038,"celand":11039,"Ġkinds":11040,"Ġballots":11041,"ĠKyodo":11042,"ĠMosque":11043,"ĠAllen":11044,"Ġlaboratory":11045,"ĠBurmese":11046,"Ġcustomer":11047,"ĠSheikh":11048,"Ġclosure":11049,"Ġaccounting":11050,"bitious":11051,"Ġchecking":11052,"friendly":11053,"Ġconnect":11054,"vestment":11055,"Ġmaintains":11056,"ĠSharapova":11057,"Ġperforming":11058,"Ġcardi":11059,"Ġpicking":11060,"Ġmedication":11061,"ĠElectronics":11062,"Ġpremier":11063,"ĠOsaka":11064,"Ġboxes":11065,"Ġsymptoms":11066,"Add":11067,"Ġownership":11068,"ĠLiberal":11069,"Ġmentioned":11070,"ĠAgricult":11071,"Ġhighlighted":11072,"Ġdumped":11073,"ĠKaesong":11074,"Ġreunited":11075,"ĠCooper":11076,"ĠProtection":11077,"ĠWilson":11078,"ĠMercury":11079,"ĠBelgium":11080,"ĠPrevention":11081,"Ġdecrease":11082,"Ġintervene":11083,"ĠRafael":11084,"surge":11085,"ĠMichelle":11086,"Ġunacceptable":11087,"ĠOfficer":11088,"ĠFIFA":11089,"Ġceremonies":11090,"Opposition":11091,"Ġpronounced":11092,"Ġgesture":11093,"Ġelaborate":11094,"Communist":11095,"Ġmotorcycle":11096,"Ġwrongdoing":11097,"ĠDakota":11098,"Ġfabric":11099,"Ġreputation":11100,"Ġengines":11101,"55":11102,"86":11103,"BER":11104,"Cor":11105,"Dan":11106,"Dozens":11107,"KYO":11108,"LC":11109,"Mil":11110,"PA":11111,"Public":11112,"bil":11113,"die":11114,"fare":11115,"fires":11116,"ipper":11117,"jin":11118,"just":11119,"kirts":11120,"mers":11121,"mod":11122,"rising":11123,"rams":11124,"sa":11125,"san":11126,"torn":11127,"uzz":11128,"Ã¦":11129,"hether":11130,"rep":11131,"rez":11132,"reated":11133,"Ġsadd":11134,"orous":11135,"orious":11136,"eding":11137,"itar":11138,"aroid":11139,"Ġinh":11140,"Ġinhab":11141,"Ġinmates":11142,"Ġduties":11143,"Ġnod":11144,"Ġloot":11145,"ĠSor":11146,"utral":11147,"oln":11148,"acom":11149,"ĠCannes":11150,"oty":11151,"usive":11152,"ĠMs":11153,"ĠMaur":11154,"Ġislets":11155,"ĠPres":11156,"ĠBase":11157,"ĠKnight":11158,"ĠKremlin":11159,"ĠTemp":11160,"ĠTiger":11161,"Ġconvey":11162,"ĠNat":11163,"agger":11164,"Ġcomeb":11165,"ĠDeb":11166,"ĠHubble":11167,"ĠJr":11168,"ĠJay":11169,"ĠRays":11170,"ĠRowling":11171,"Ġshake":11172,"Ġchart":11173,"Ġchamber":11174,"ours":11175,"ourse":11176,"ĠLy":11177,"ĠLive":11178,"Ġsued":11179,"Ġplate":11180,"quarter":11181,"ĠOut":11182,"ĠChi":11183,"Ġjur":11184,"ĠStrip":11185,"soon":11186,"Ġadm":11187,"Ġadapt":11188,"Ġincurs":11189,"Ġcomply":11190,"Ġcounted":11191,"ailing":11192,"awatra":11193,"lick":11194,"ĠYeltsin":11195,"ushkin":11196,"Ġquar":11197,"Ġquot":11198,"ointing":11199,"ĠVill":11200,"Ġambitious":11201,"Ġnoon":11202,"Ġcovers":11203,"Ġremov":11204,"Ġanybody":11205,"Ġelectronics":11206,"Ġbuzz":11207,"Ġinsist":11208,"Ġmedi":11209,"Ġformerly":11210,"Ġreleases":11211,"Ġtriumph":11212,"Ġfamed":11213,"Ġrefin":11214,"Ġrefusing":11215,"Ġdiscrim":11216,"shine":11217,"ificial":11218,"ikes":11219,"ĠFranco":11220,"Ġbread":11221,"Ġbanner":11222,"Ġ125":11223,"Ġappeals":11224,"Ġfreezing":11225,"lessly":11226,"Ġdistress":11227,"Ġstronghold":11228,"Ġimported":11229,"ĠScient":11230,"ĠSciences":11231,"Ġcriticizing":11232,"Ġgenerals":11233,"ĠGuild":11234,"Ġmanaging":11235,"ĠForum":11236,"Ġstream":11237,"ĠTele":11238,"Ġviruses":11239,"Ġcounterparts":11240,"ĠKyung":11241,"ĠShiites":11242,"Ġdifficulties":11243,"ĠTaiwanese":11244,"ĠSchwarzenegger":11245,"Ġgrandmother":11246,"Ġinsurgent":11247,"Ġcommunicate":11248,"Ġhearings":11249,"Ġsatellites":11250,"Ġdefeated":11251,"Ġabsent":11252,"ĠShinawatra":11253,"Ġintroduce":11254,"Ġcontributed":11255,"Ġcyber":11256,"Ġpsychology":11257,"OSCO":11258,"Ġwillingness":11259,"Ġforests":11260,"Ġsweeping":11261,"Ġlandscape":11262,"iscal":11263,"Ġunsuccess":11264,"Ġtanker":11265,"ĠBernanke":11266,"ĠLibyan":11267,"Ġarguing":11268,"Reports":11269,"Ġbelonged":11270,"Ġairstrikes":11271,"Ġexhibition":11272,"ĠHaiti":11273,"Ġhouseholds":11274,"Ġrecruit":11275,"droe":11276,"Ġdisclose":11277,"TOKYO":11278,"ĠWildlife":11279,"Ġstunning":11280,"Ġrampage":11281,"Ġobviously":11282,"Ġhalted":11283,"Ġoutskirts":11284,"Ġimagine":11285,"Ġsacrif":11286,"vinen":11287,"ĠJacques":11288,"Ġmutual":11289,"ĠCasey":11290,"Ġtransplant":11291,"ĠHeathrow":11292,"Ġpredecessor":11293,"points":11294,"Ġphenomenon":11295,"Ġlanguages":11296,"ĠLPGA":11297,"Ġcomeback":11298,"46":11299,"84":11300,"AM":11301,"Ben":11302,"DR":11303,"Horta":11304,"London":11305,"Pod":11306,"Simpson":11307,"Ten":11308,"Tra":11309,"bid":11310,"half":11311,"lights":11312,"oft":11313,"rand":11314,"vy":11315,"Ġumb":11316,"Ġtips":11317,"Ġsna":11318,"orb":11319,"Ġcin":11320,"itary":11321,"Ġfame":11322,"Ġfert":11323,"isons":11324,"Ġpact":11325,"Ġbio":11326,"alition":11327,"Ġanth":11328,"Ġmad":11329,"Ġhamp":11330,"icious":11331,"role":11332,"Ġlucky":11333,"ĠeBay":11334,"ĠSlo":11335,"olence":11336,"Ġglim":11337,"Ġgonna":11338,"acher":11339,"Ġsaving":11340,"ĠClo":11341,"ĠCult":11342,"etown":11343,"illas":11344,"ĠMP":11345,"ĠMod":11346,"three":11347,"ĠPa":11348,"ĠIBM":11349,"ĠBA":11350,"Ġwebs":11351,"ĠKEB":11352,"ĠTerry":11353,"ĠTrip":11354,"ĠTravolta":11355,"rific":11356,"ĠNap":11357,"agu":11358,"ewart":11359,"ortium":11360,"ĠDun":11361,"ĠDana":11362,"ĠHass":11363,"ĠHung":11364,"ĠJoh":11365,"ĠRoc":11366,"Ġshirt":11367,"Ġchimp":11368,"Ġspots":11369,"Ġspaces":11370,"Ġunited":11371,"Ġuniverse":11372,"Ġjack":11373,"Ġoutf":11374,"iza":11375,"Ġcontemp":11376,"ishu":11377,"avour":11378,"Ġroots":11379,"ĠThompson":11380,"Ġsoared":11381,"ĠVin":11382,"Ġindeed":11383,"Ġsurpass":11384,"ultane":11385,"Ġattackers":11386,"Ġremind":11387,"Ġbrings":11388,"Ġinvestor":11389,"ĠAna":11390,"Ġtopic":11391,"ĠUSS":11392,"ĠIndians":11393,"alez":11394,"Ġrestored":11395,"Ġlegacy":11396,"ĠJohndroe":11397,"Ġfarms":11398,"Who":11399,"ĠEngine":11400,"Ġcandidacy":11401,"Ġhandled":11402,"Ġurgent":11403,"Ġhometown":11404,"Ġpoliceman":11405,"headed":11406,"Ġtraders":11407,"Ġfilming":11408,"Ġmidst":11409,"Ġforming":11410,"Ġbarred":11411,"ĠConnecticut":11412,"Ġbreakfast":11413,"running":11414,"yeon":11415,"Ġcaptors":11416,"Ġescorted":11417,"Ġhonest":11418,"Ġtracking":11419,"Ġslowed":11420,"Ġregarded":11421,"Ġscreening":11422,"Ġminority":11423,"Ġshelters":11424,"Indones":11425,"Ġprincipal":11426,"ĠSerbian":11427,"Ġarguments":11428,"Ġoccupied":11429,"Ġrailway":11430,"ĠSudanese":11431,"ĠArgentine":11432,"Ġfixed":11433,"uilding":11434,"Ġregistration":11435,"ICEF":11436,"Ġvenues":11437,"ĠSoutheast":11438,"ĠConsumer":11439,"Ġendorsement":11440,"Ġretailers":11441,"ibbons":11442,"rella":11443,"Donald":11444,"ĠMontana":11445,"Ġscrutin":11446,"Ġbatteries":11447,"Ġbreathing":11448,"Ġdiverse":11449,"ĠDodi":11450,"ĠâĢķ":11451,"Ġbathroom":11452,"Ġdedicated":11453,"Ġrestricted":11454,"Ġplummet":11455,"Ġobstac":11456,"Ġmourning":11457,"avarotti":11458,"Ġprestigious":11459,"Ġretaliation":11460,"Ġbeautiful":11461,"ĠBosn":11462,"Ġautopsy":11463,"Ġintimid":11464,"ĠNorwegian":11465,"05":11466,"33":11467,"Dep":11468,"Democrat":11469,"Democratic":11470,"East":11471,"FO":11472,"Fed":11473,"Gu":11474,"Kar":11475,"Rod":11476,"Tom":11477,"Tuesday":11478,"Tony":11479,"War":11480,"bling":11481,"dong":11482,"drop":11483,"hol":11484,"hry":11485,"kara":11486,"lled":11487,"pret":11488,"rors":11489,"uits":11490,"Ġtired":11491,"hew":11492,"anol":11493,"orage":11494,"Ġours":11495,"itan":11496,"Ġfare":11497,"araz":11498,"Ġpist":11499,"Ġbrib":11500,"Ġinstitute":11501,"Ġmelt":11502,"Ġthus":11503,"Ġnose":11504,"Ġninth":11505,"rock":11506,"ĠSac":11507,"ĠSome":11508,"adow":11509,"adishu":11510,"ĠCam":11511,"ĠCIT":11512,"iga":11513,"Ġhel":11514,"ĠMill":11515,"ĠMach":11516,"irm":11517,"elves":11518,"threat":11519,"ĠPusan":11520,"ĠID":11521,"ĠBrian":11522,"ouncing":11523,"ĠKan":11524,"ĠKam":11525,"ĠTok":11526,"ĠTae":11527,"opy":11528,"anding":11529,"agged":11530,"Ġrating":11531,"Ġraces":11532,"ĠDanish":11533,"ĠRy":11534,"ĠRight":11535,"ĠFo":11536,"ĠLove":11537,"abi":11538,"about":11539,"ichushkin":11540,"ĠOx":11541,"ĠChang":11542,"Ġbutton":11543,"izar":11544,"ishop":11545,"Ġsecurities":11546,"venue":11547,"Ġpride":11548,"ensed":11549,"rows":11550,"fere":11551,"Thaksin":11552,"Ġindict":11553,"Ġwarn":11554,"Ġundergo":11555,"forest":11556,"Ġconsistent":11557,"Ġplanets":11558,"Ġknock":11559,"Ġattacker":11560,"ankovic":11561,"ancourt":11562,"ĠSev":11563,"Ġcapability":11564,"Ġprovoc":11565,"Ġstudied":11566,"Ġvisual":11567,"Ġslip":11568,"Ġdepending":11569,"teen":11570,"Ġguess":11571,"Ġlocals":11572,"Ġparaly":11573,"Ġfiles":11574,"Ġtransit":11575,"Ġpasses":11576,"Ġdeadlock":11577,"Ġrestructuring":11578,"ĠAmy":11579,"Ġ93":11580,"Ġconcerning":11581,"bala":11582,"Ġallegation":11583,"Ġfacts":11584,"Ġthreaten":11585,"Ġbreach":11586,"Ġpolicemen":11587,"Ġhumanity":11588,"ĠChristie":11589,"incoln":11590,"Ġmuscle":11591,"Ġsinging":11592,"Ġgunshot":11593,"after":11594,"ĠAdvis":11595,"Ġmothers":11596,"Ġdevoted":11597,"deavour":11598,"Ġthoughts":11599,"Ġmusicians":11600,"ĠClass":11601,"Ġfavorable":11602,"Ġcustoms":11603,"ĠFeder":11604,"Senate":11605,"Senna":11606,"Ġwitnessed":11607,"ĠPolicy":11608,"Ġadvisers":11609,"Ġterritorial":11610,"ĠOprah":11611,"Ġastronomers":11612,"ĠAtlantis":11613,"Ġholidays":11614,"Ġgolden":11615,"Ġdemonstrated":11616,"Ġprecaution":11617,"Ġmortar":11618,"Ġevacuate":11619,"Ġcontribution":11620,"Ġsuspicions":11621,"Ġgaining":11622,"ĠHighway":11623,"ĠGreens":11624,"ĠBernard":11625,"Ġtypical":11626,"Ġmonitors":11627,"ĠDiCaprio":11628,"Ġgradu":11629,"Ġfortified":11630,"Ġbedroom":11631,"Ġcartoon":11632,"Ġpraise":11633,"ĠBrother":11634,"ĠBolton":11635,"Ġencouraged":11636,"Ġoverturned":11637,"Ġlieuten":11638,"Ġessential":11639,"Ġventure":11640,"Ġagricultural":11641,"ĠSocialist":11642,"audhry":11643,"ĠFreed":11644,"Ġterminal":11645,"Christopher":11646,"Ġmystery":11647,"Ġlaptop":11648,"Ġstabilize":11649,"Ġcautioned":11650,"ĠAlberto":11651,"Ġaccomplish":11652,"Rescuers":11653,"Ġundersc":11654,"Ġadventure":11655,"Ġpublisher":11656,"ĠHolland":11657,"ĠMogadishu":11658,"ĠFTSE":11659,"Ġcrocodile":11660,"Ġremoval":11661,"%,":11662,"59":11663,"BN":11664,"Com":11665,"Gates":11666,"High":11667,"Kang":11668,"Ma":11669,"OK":11670,"Poll":11671,"Political":11672,"TS":11673,"Tibet":11674,"Wednesday":11675,"big":11676,"bie":11677,"cest":11678,"cia":11679,"count":11680,"fin":11681,"lav":11682,"po":11683,"top":11684,"try":11685,"uine":11686,"onia":11687,"onte":11688,"Ġsessions":11689,"Ġwings":11690,"orig":11691,"orated":11692,"ato":11693,"Ġcrying":11694,"itis":11695,"itivity":11696,"arn":11697,"arms":11698,"Ġpound":11699,"Ġpants":11700,"Ġbasket":11701,"Ġtoss":11702,"Ġtours":11703,"Ġank":11704,"Ġhate":11705,"Ġhip":11706,"Ġhike":11707,"lein":11708,"Ġthorough":11709,"Ġrely":11710,"Ġrevel":11711,"Ġnerv":11712,"Ġlob":11713,"Ġlaser":11714,"Ġbeloved":11715,"ĠSusan":11716,"uran":11717,"ĠCitigroup":11718,"ĠAN":11719,"Ġstuck":11720,"Ġstruct":11721,"ĠMao":11722,"eling":11723,"raged":11724,"ĠPPP":11725,"ĠBo":11726,"ĠBad":11727,"ĠKC":11728,"ĠKl":11729,"ulpt":11730,"ĠNawaz":11731,"ĠWol":11732,"artney":11733,"ĠDise":11734,"ĠHist":11735,"ĠHang":11736,"ĠHeart":11737,"ĠGriff":11738,"Ġshooter":11739,"Ġlets":11740,"ĠFair":11741,"Ġnotorious":11742,"abao":11743,"ĠEston":11744,"ghans":11745,"ĠOrange":11746,"ĠChap":11747,"Ġexpense":11748,"bert":11749,"Ġmeals":11750,"Ġdisrupted":11751,"Ġallied":11752,"Ġimminent":11753,"Ġmanner":11754,"Ġcounties":11755,"Ġsecrets":11756,"ogether":11757,"illionaire":11758,"ĠYoo":11759,"ervative":11760,"Ġmonkeys":11761,"âĢĿ,":11762,"ashvili":11763,"Ġdeclining":11764,"Ġquant":11765,"Heavy":11766,"ruz":11767,"sson":11768,"olla":11769,"ĠVol":11770,"Ġundert":11771,"Ġtragic":11772,"Ġconsent":11773,"Ġraw":11774,"Ġdownturn":11775,"Ġinsisting":11776,"ĠSha":11777,"Ġmedics":11778,"Ġassert":11779,"Ġprompt":11780,"Ġconfron":11781,"Ġdiscount":11782,"Ġdiscip":11783,"Ġtakeover":11784,"iversal":11785,"Cho":11786,"Chicago":11787,"Chrysler":11788,"Ġtransparent":11789,"Ġextent":11790,"Ġextending":11791,"prise":11792,"Ġmarry":11793,"Ġnightclub":11794,"Ġlaure":11795,"Ġexperiments":11796,"Ġsket":11797,"Ġelephant":11798,"Ġstopping":11799,"Ġsomewhere":11800,"Ġinstalled":11801,"Ġfactions":11802,"Ġkeynot":11803,"Ġbattled":11804,"Ġpropag":11805,"Ġlottery":11806,"Ġjudicial":11807,"ĠMusic":11808,"Ġspecialist":11809,"Ġdescribing":11810,"Ġcredits":11811,"ĠCheong":11812,"Ġprotested":11813,"Ġsurvival":11814,"Ġcaptives":11815,"Ġlighting":11816,"Ġpredomin":11817,"ĠEarly":11818,"Ġeligible":11819,"Ġranch":11820,"Ġencounter":11821,"producing":11822,"ĠMadonna":11823,"Ġplease":11824,"Ġroutes":11825,"Ġcolleague":11826,"Ġcitizenship":11827,"Ġlegislators":11828,"Ġmultim":11829,"USA":11830,"Ġslowly":11831,"Ġcreature":11832,"quarium":11833,"Ġregulators":11834,"Ġadoption":11835,"Ġgenerated":11836,"ĠÂ¢":11837,"Ġhydro":11838,"ĠHenin":11839,"ĠPerino":11840,"Ġinspections":11841,"ĠEconomy":11842,"iciency":11843,"icipal":11844,"Ġpurchased":11845,"ĠCampbell":11846,"Ġ1949":11847,"viously":11848,"Ġrevenge":11849,"ĠGlas":11850,"ĠMurphy":11851,"ĠToronto":11852,"Ġcoordinated":11853,"anksgiving":11854,"ĠGalaxy":11855,"ĠSwedish":11856,"Ġburns":11857,"ĠGonzalez":11858,"ĠJiabao":11859,"Ġtower":11860,"Ġpornography":11861,"Ġrifle":11862,"Ġsemifinal":11863,"Ġtumor":11864,"Ġqualified":11865,"Sharif":11866,"Ġretirement":11867,"Ġelementary":11868,"ĠAIG":11869,"Ronaldo":11870,"zhou":11871,"Ġpaparaz":11872,"Ġtelescope":11873,"alpindi":11874,"Ġsophisticated":11875,"Ġjunior":11876,"ĠDiyala":11877,"ĠMedicine":11878,"ĠJennifer":11879,"Ġorgans":11880,"ĠBloomberg":11881,"ĠRawalpindi":11882,"Ġincursion":11883,"37":11884,"App":11885,"Bad":11886,"Dis":11887,"Late":11888,"Pet":11889,"Paul":11890,"SP":11891,"Sing":11892,"Sch":11893,"Taiwan":11894,"aunch":11895,"fax":11896,"iency":11897,"jiang":11898,"low":11899,"nap":11900,"oir":11901,"pow":11902,"rard":11903,"say":11904,"sec":11905,"uels":11906,"viv":11907,"wai":11908,"yard":11909,"Ġid":11910,"Ġaudi":11911,"heit":11912,"reb":11913,"erg":11914,"atem":11915,"atross":11916,"Ġcab":11917,"Ġoath":11918,"Ġfo":11919,"Ġfest":11920,"Ġfoss":11921,"Ġfiscal":11922,"arming":11923,"Ġbout":11924,"Ġanswe":11925,"ouf":11926,"oum":11927,"Ġhood":11928,"icides":11929,"oment":11930,"Ġreacted":11931,"roft":11932,"ĠSab":11933,"olo":11934,"Ġgarden":11935,"ĠCur":11936,"ĠCirc":11937,"amework":11938,"Ġheated":11939,"ĠMans":11940,"ĠMitt":11941,"ĠIT":11942,"ĠBalt":11943,"ĠBruce":11944,"Ġatroc":11945,"osis":11946,"estyle":11947,"ĠNeb":11948,"agles":11949,"ista":11950,"Ġyards":11951,"ĠWazir":11952,"ĠGun":11953,"ĠJung":11954,"ĠRoy":11955,"Ġexiled":11956,"Ġshattered":11957,"umes":11958,"aping":11959,"ĠLG":11960,"ĠLisa":11961,"iane":11962,"Ġunw":11963,"see":11964,"ups":11965,"ĠChild":11966,"ignment":11967,"Ġintr":11968,"ressing":11969,"Ġaccuses":11970,"Ġheritage":11971,"orses":11972,"asses":11973,"Ġtrash":11974,"ĠInvestment":11975,"onduct":11976,"Ġ350":11977,"ranean":11978,"Ġcanal":11979,"Ġrolled":11980,"ĠYanke":11981,"conf":11982,"Ġsomebody":11983,"Ġtea":11984,"Ġteaching":11985,"Ġminim":11986,"ĠAfghans":11987,"Ġearliest":11988,"Ġconsortium":11989,"lando":11990,"cedes":11991,"ancer":11992,"Ġinterfere":11993,"Ġrefuse":11994,"Ġ86":11995,"Ġ87":11996,"Ġbroker":11997,"ĠSpr":11998,"Ġpointing":11999,"Ġknowing":12000,"heng":12001,"ierra":12002,"Ġdealt":12003,"Ġmaritime":12004,"Ġdonor":12005,"Ġfarmer":12006,"Ġcolumn":12007,"Ġministerial":12008,"Ġappealing":12009,"limate":12010,"Ġpayment":12011,"Ġbattered":12012,"Ġinteresting":12013,"Ġfutures":12014,"Ġartificial":12015,"Ġ1981":12016,"Ġtreating":12017,"ĠTrin":12018,"Ġshutting":12019,"Ġ170":12020,"ĠArabs":12021,"ĠOrlando":12022,"Ġrevision":12023,"uki":12024,"ĠManuel":12025,"itzg":12026,"Ġloaded":12027,"Ġmotive":12028,"ofi":12029,"ĠClark":12030,"Ġpainful":12031,"Ġdeeper":12032,"ĠEdward":12033,"Early":12034,"Ġverify":12035,"ĠMoroc":12036,"Ġsnap":12037,"Ġeducational":12038,"Ġgrandfather":12039,"ĠPolaroid":12040,"opez":12041,"Ġframework":12042,"Ġdoubts":12043,"Ġinfluential":12044,"Ġpurported":12045,"breaking":12046,"Ġbiological":12047,"ĠÂ£":12048,"Ġlayoffs":12049,"Ġassassinated":12050,"Ġclinical":12051,"Ġtextbook":12052,"Ġplotting":12053,"Ġfinishing":12054,"Ġchampionships":12055,"Ġacquitted":12056,"Ġelders":12057,"Ġmerch":12058,"Ġmerger":12059,"Ġrevenues":12060,"Ġisolation":12061,"Ġtraditionally":12062,"Ġharmful":12063,"Ġreinforce":12064,"Ġdevastated":12065,"Ġtrails":12066,"ĠSummer":12067,"arette":12068,"ĠCompany":12069,"Ġoptimism":12070,"Ġlikes":12071,"Ġshouting":12072,"Ġmurdered":12073,"ĠLuis":12074,"Ġsubsidi":12075,"Ġuniforms":12076,"Recent":12077,"Ġexchanges":12078,"Ġsynd":12079,"Ġquarterfinal":12080,"Ġglaciers":12081,"Ġunderstood":12082,"Ġpatterns":12083,"ĠSpecial":12084,"Ġdisabled":12085,"ocaust":12086,"ĠPhillies":12087,"glas":12088,"morning":12089,"Ġaggrav":12090,"Currently":12091,"Richard":12092,"Republican":12093,"ĠPuerto":12094,"ĠStandard":12095,"Ġenhance":12096,"Ġrehabilitation":12097,"responsible":12098,"Ġantibiotics":12099,"Ġtrademark":12100,"ĠLennon":12101,"ĠAgriculture":12102,"roleum":12103,"ĠTripoli":12104,"ĠDisease":12105,"Ġkeynote":12106,"Ġanswered":12107,".Â´Â´":12108,"76":12109,"BUR":12110,"Elect":12111,"FTA":12112,"HS":12113,"House":12114,"Human":12115,"Je":12116,"Lead":12117,"MS":12118,"Members":12119,"OL":12120,"Pass":12121,"San":12122,"auc":12123,"cross":12124,"hart":12125,"host":12126,"kind":12127,"mons":12128,"sight":12129,"yip":12130,"Ġtiger":12131,"Ġtaste":12132,"Ġsisters":12133,"Ġcorn":12134,"Ġfet":12135,"Ġpac":12136,"Ġpure":12137,"Ġinternet":12138,"Ġtools":12139,"Ġangered":12140,"Ġancest":12141,"icians":12142,"Ġdug":12143,"ilm":12144,"ilia":12145,"aya":12146,"Ġbell":12147,"ĠSachs":12148,"adh":12149,"Ġgad":12150,"ĠCas":12151,"ĠCast":12152,"ĠCole":12153,"usen":12154,"usiness":12155,"ĠAmin":12156,"Ġstrange":12157,"illiant":12158,"illery":12159,"ĠMission":12160,"ĠMats":12161,"ĠMaine":12162,"rave":12163,"thur":12164,"ĠBry":12165,"emi":12166,"ĠKash":12167,"Ġasks":12168,"Ġalarm":12169,"Ġalien":12170,"akashvili":12171,"ĠNixon":12172,"ĠNFL":12173,"ctica":12174,"Ġvocal":12175,"ĠGang":12176,"ĠRose":12177,"ĠRef":12178,"Ġshame":12179,"Ġsharing":12180,"Ġsharks":12181,"ĠFut":12182,"umber":12183,"udes":12184,"ĠLight":12185,"ĠLau":12186,"ĠLaur":12187,"ĠLincoln":12188,"Ġsuits":12189,"Ġunch":12190,"abani":12191,"ĠEs":12192,"ĠOkin":12193,"renheit":12194,"Ġjoy":12195,"antile":12196,"Ġpolled":12197,"Ġclay":12198,"Ġintensive":12199,"Ġneutral":12200,"Ġperception":12201,"Ġincorp":12202,"Ġcompiled":12203,"Ġaccomm":12204,"Ġconting":12205,"International":12206,"ervations":12207,"eered":12208,"atern":12209,"Ġactively":12210,"Thirty":12211,"Ġnobody":12212,"Ġcarpet":12213,"ahrenheit":12214,"Ġknife":12215,"ussels":12216,"Ġbrilliant":12217,"Ġannually":12218,"Ġspokesperson":12219,"Ġretreat":12220,"ĠAnth":12221,"ittees":12222,"Ġinfring":12223,"Ġ103":12224,"Ġhighlights":12225,"Ġslide":12226,"Ġrunner":12227,"Ġbillionaire":12228,"porting":12229,"tainment":12230,"Ġentitled":12231,"Ġclimbing":12232,"loyd":12233,"Ġinternationally":12234,"Ġmarred":12235,"Ġpopulations":12236,"Ġcheering":12237,"Ġcheaper":12238,"Ġaffair":12239,"Ġhanding":12240,"ĠLeg":12241,"Ġdistinct":12242,"plete":12243,"Ġfunded":12244,"claimed":12245,"Ġdamaging":12246,"Ġtechnically":12247,"Ġsimultane":12248,"Ġesp":12249,"Ġcareful":12250,"Ġpatience":12251,"Ġfoods":12252,"Ġdispatch":12253,"Ġlowered":12254,"Ġgunfire":12255,"Ġjudgment":12256,"Ġripped":12257,"Ġcollision":12258,"ĠCongressional":12259,"Ġemployed":12260,"Ġproduces":12261,"Ġideal":12262,"Ġshipments":12263,"Ġconsumed":12264,"Ġindependents":12265,"Ġdivide":12266,"pecified":12267,"Ġdestroying":12268,"Ġportr":12269,"Ġcaptivity":12270,"ĠInterpol":12271,"Short":12272,"Ġhonors":12273,"ortunate":12274,"Ġpresentation":12275,"Ġembrace":12276,"Ġgrav":12277,"ricket":12278,"aniya":12279,"Ġjointly":12280,"Ġcontractors":12281,"ĠBrand":12282,"ĠPolit":12283,"Ġcreative":12284,"iterranean":12285,"ĠChiefs":12286,"ĠJoan":12287,"Residents":12288,"Ġsleeping":12289,"Ġalbatross":12290,"ĠElectric":12291,"Ġdetermination":12292,"Ġneighborhoods":12293,"Ġblockb":12294,"Ġundis":12295,"Myanmar":12296,"ĠKurdistan":12297,"ĠGreenpeace":12298,"ĠGlobe":12299,"Ġfairly":12300,"Ġirregular":12301,"Ġdissidents":12302,"Ġbelongs":12303,"furt":12304,"Everyone":12305,"Ġsponsor":12306,"Ġhorse":12307,"Ġaggression":12308,"Ġmammals":12309,"ĠIrbil":12310,"rolling":12311,"Ġmanufacturer":12312,"borne":12313,"Ġexamination":12314,"Ġmandate":12315,"ĠMuqtada":12316,"Ġutility":12317,"ĠMelbourne":12318,"Ġfatalities":12319,"Ġbreath":12320,"Ġyouths":12321,"ĠTravel":12322,"ĠTayyip":12323,"Ġintensified":12324,"ĠCambodian":12325,"Ġtentative":12326,"Ġslumped":12327,"ĠMercantile":12328,"Ġthrone":12329,"ocolate":12330,"Ġlegendary":12331,"Ġaffiliates":12332,"ĠBetancourt":12333,"Ġimplications":12334,"Ġpipeline":12335,"Ġbolster":12336,"munition":12337,"ĠEthiopian":12338,"Ġorbiting":12339,"Ġdiagnosed":12340,"Details":12341,"Ġunhappy":12342,"minded":12343,"ĠWayne":12344,"Protesters":12345,"Ġdreams":12346,"Ġepidemic":12347,"Ġechoed":12348,"ĠMargaret":12349,"ĠBennett":12350,"Ġwarehouse":12351,"ĠBruni":12352,"pherd":12353,"ĠSevilla":12354,"Ġankle":12355,"Ġaccommod":12356,"39":12357,"42":12358,"52":12359,"65":12360,"AX":12361,"Ber":12362,"Back":12363,"BUL":12364,"CC":12365,"Dem":12366,"Fin":12367,"Get":12368,"Hen":12369,"Imp":12370,"Never":12371,"RC":12372,"Rad":12373,"Spec":12374,"bage":12375,"fortunately":12376,"gow":12377,"gree":12378,"gets":12379,"hs":12380,"hop":12381,"iated":12382,"ja":12383,"jan":12384,"mi":12385,"nold":12386,"pot":12387,"rine":12388,"raska":12389,"speaking":12390,"two":12391,"uis":12392,"uum":12393,"voc":12394,"Ġtire":12395,"Ġtennis":12396,"only":12397,"Ġsank":12398,"Ġwaged":12399,"atab":12400,"Ġfolks":12401,"Ġpock":12402,"Ġbun":12403,"ouge":12404,"ouds":12405,"Ġma":12406,"asse":12407,"Ġdated":12408,"iden":12409,"omon":12410,"omet":12411,"lem":12412,"Ġreaff":12413,"Ġnaming":12414,"step":12415,"Ġling":12416,"Ġbeaches":12417,"ĠSystem":12418,"olences":12419,"tering":12420,"acas":12421,"Ġsafer":12422,"imon":12423,"ĠCal":12424,"amine":12425,"usma":12426,"ĠAK":12427,"ellect":12428,"ĠPrest":12429,"ĠIMF":12430,"ĠIceland":12431,"ĠBal":12432,"ĠBrow":12433,"Ġaspects":12434,"earns":12435,"ĠTut":12436,"ĠTaj":12437,"eston":12438,"andro":12439,"Ġprostitutes":12440,"agh":12441,"ags":12442,"ching":12443,"ateur":12444,"ĠWars":12445,"ifts":12446,"ĠDri":12447,"ĠDream":12448,"ĠJin":12449,"ĠRaul":12450,"Ġchips":12451,"odox":12452,"ĠLab":12453,"ĠEld":12454,"Ġabst":12455,"quba":12456,"ĠOther":12457,"Ġpoly":12458,"Ġreserves":12459,"Ġclar":12460,"Ġoutlaw":12461,"Ġadequ":12462,"Ġperpet":12463,"Ġcompass":12464,"mann":12465,"Ġcontracted":12466,"ĠInf":12467,"Ġsculpt":12468,"Ġroot":12469,"ĠYale":12470,"Ġinvitation":12471,"ĠMonetary":12472,"Ġammunition":12473,"Ġcrater":12474,"Ġindec":12475,"aha":12476,"Ġsurrog":12477,"Ġjustices":12478,"Ġmemories":12479,"ĠAnne":12480,"ĠAnkara":12481,"Ġevangel":12482,"Ġstudios":12483,"ĠShip":12484,"Ġasset":12485,"Ġtrials":12486,"Ġheadlines":12487,"othy":12488,"Ġcentre":12489,"Ġslam":12490,"Ġguided":12491,"Ġbrothe":12492,"eanor":12493,"Ġdefender":12494,"Ġgenet":12495,"Ġvictories":12496,"Ġhumili":12497,"ĠAmnesty":12498,"ĠZah":12499,"ĠPalm":12500,"Ġdonors":12501,"Ġcondolences":12502,"Ġpreserve":12503,"Ġforecasts":12504,"ĠAustrian":12505,"Ġswall":12506,"Ġtravels":12507,"heads":12508,"ĠCenters":12509,"Ġfundra":12510,"forced":12511,"Ġkidnap":12512,"Ġpatri":12513,"Ġfriendship":12514,"Ġgotten":12515,"Ġrebu":12516,"Ġbarrier":12517,"Ġhardest":12518,"Ġstarred":12519,"ĠConvention":12520,"Ġartillery":12521,"ĠHarrison":12522,"Ġconsideration":12523,"Ġengaging":12524,"ĠXVI":12525,"Ġstormed":12526,"Ġmagic":12527,"elligent":12528,"degree":12529,"ĠManila":12530,"Ġloose":12531,"Ġsolutions":12532,"Ġtyphoon":12533,"Ġaddressing":12534,"Ġ1973":12535,"Ġ1975":12536,"ĠHolocaust":12537,"Ġembattled":12538,"Ġparked":12539,"ARS":12540,"ĠBrussels":12541,"Amid":12542,"ĠMilitary":12543,"Ġterritories":12544,"Ġcelebrations":12545,"Ġweakened":12546,"Ġmedicines":12547,"Ġpractices":12548,"Ġcomplaining":12549,"Ġrecognition":12550,"Ġambush":12551,"iques":12552,"Ġcharacterized":12553,"ĠMercedes":12554,"ĠGlobes":12555,"Ġimplementation":12556,"ĠNorway":12557,"Ġunspecified":12558,"Ġultimate":12559,"Ġveterans":12560,"Ġtenure":12561,"Ġtribes":12562,"Blair":12563,"ĠNetwork":12564,"Ġrankings":12565,"ĠFrankfurt":12566,"Ġeditorial":12567,"Next":12568,"Ġtruly":12569,"Ġlungs":12570,"colored":12571,"ĠCroat":12572,"Ġpeacekeepers":12573,"Ġmechanical":12574,"Germany":12575,"ĠAntarctica":12576,"Ġashore":12577,"Ġunconscious":12578,"Ġoverwhelmingly":12579,"Ġsemifinals":12580,"Ġfulfill":12581,"Ġdestination":12582,"Ġamendment":12583,"ĠGyeonggi":12584,"Ġpiracy":12585,"Ġdefectors":12586,"Ġrelaxed":12587,"Ġpandas":12588,"Ġgorillas":12589,"Ġbargain":12590,"Ġtactics":12591,"Ġcertific":12592,"Ġoutdoor":12593,"normal":12594,"Ġfishermen":12595,"Ġexhaust":12596,"Super":12597,"Ġdrowned":12598,"ĠObserv":12599,"Ġconglomerate":12600,"Ġapproximately":12601,"Ġnervous":12602,"Ġpredominantly":12603,"ĠGlasgow":12604,"powered":12605,"ĠNebraska":12606,"ĠWaziristan":12607,"ĠOkinawa":12608,"usmao":12609,"\")":12610,"43":12611,"Equ":12612,"Jones":12613,"Ken":12614,"KAR":12615,"Little":12616,"Moh":12617,"Nine":12618,"Out":12619,"RAN":12620,"Robert":12621,"Supp":12622,"Ts":12623,"Treasury":12624,"Tunes":12625,"UV":12626,"WC":12627,"Whether":12628,"YA":12629,"bot":12630,"four":12631,"first":12632,"garian":12633,"hag":12634,"hwan":12635,"kil":12636,"power":12637,"spec":12638,"yans":12639,"Ġaviation":12640,"Ġauthors":12641,"inating":12642,"Ġther":12643,"Ġster":12644,"erie":12645,"Ġwaving":12646,"enza":12647,"org":12648,"oro":12649,"atisf":12650,"Ġcous":12651,"Ġcrown":12652,"Ġodd":12653,"itated":12654,"Ġfoster":12655,"Ġfoment":12656,"Ġpod":12657,"Ġbru":12658,"Ġbrick":12659,"Ġhinted":12660,"Ġdense":12661,"Ġdoping":12662,"idd":12663,"Ġnick":12664,"ayy":12665,"ayan":12666,"stal":12667,"Ġles":12668,"adic":12669,"Ġgiants":12670,"urance":12671,"acon":12672,"imori":12673,"ĠCollins":12674,"ĠAle":12675,"ĠAFP":12676,"Ġstab":12677,"Ġstones":12678,"ĠMDC":12679,"eli":12680,"tha":12681,"ĠPad":12682,"ĠPop":12683,"Ġwhis":12684,"ĠIR":12685,"ĠBible":12686,"ĠKum":12687,"ĠKwang":12688,"ĠKofi":12689,"opper":12690,"andy":12691,"ĠNature":12692,"ĠNelson":12693,"ĠUribe":12694,"ĠUFO":12695,"Ġracing":12696,"ĠDok":12697,"ĠDev":12698,"ĠHos":12699,"ĠGra":12700,"ĠGary":12701,"ĠGPS":12702,"ĠJa":12703,"ĠJama":12704,"ĠJiang":12705,"ĠRoss":12706,"ĠRick":12707,"ĠRouge":12708,"Ġshaking":12709,"ĠFashion":12710,"ĠFossett":12711,"aph":12712,"Ġkit":12713,"Ġchann":12714,"Ġspin":12715,"ĠLady":12716,"oken":12717,"ighted":12718,"ective":12719,"ĠOd":12720,"renc":12721,"Ġafterward":12722,"Ġoutlets":12723,"Ġoutpost":12724,"anson":12725,"ĠStatist":12726,"ĠStearns":12727,"Ġpermitted":12728,"Ġdisgr":12729,"Ġcontents":12730,"ricts":12731,"Ġmanage":12732,"Ġsecuring":12733,"Ġsheets":12734,"Ġscream":12735,"erviel":12736,"Ġdeclines":12737,"Ġcommittees":12738,"ĠThanksgiving":12739,"arett":12740,"Ġ450":12741,"Ġears":12742,"Ġimposing":12743,"Ġunderway":12744,"Ġjustify":12745,"ĠTheater":12746,"Ġstatue":12747,"Ġprovision":12748,"Ġinsul":12749,"Ġinflam":12750,"Ġrelevant":12751,"Ġtries":12752,"Ġissuing":12753,"Ġslaughter":12754,"Ġkeen":12755,"Ġgrim":12756,"Ġ83":12757,"Ġ84":12758,"iented":12759,"shad":12760,"ĠSports":12761,"ĠSpring":12762,"Ġparade":12763,"Ġfiling":12764,"Ġbombed":12765,"Ġtransmission":12766,"Ġoperators":12767,"Ġpreparation":12768,"ĠRussell":12769,"Ġrestart":12770,"Ġcrem":12771,"Ġcreates":12772,"Ġconcerts":12773,"Ġmarathon":12774,"Ġaffects":12775,"Asian":12776,"Ġhappiness":12777,"Ġnegotiated":12778,"Ġdistricts":12779,"Ġdenial":12780,"Ġdenying":12781,"Ġformation":12782,"ĠJuan":12783,"Ġmeasured":12784,"Ġstarring":12785,"Ġartif":12786,"ĠGuatem":12787,"Ġemployers":12788,"ĠFormer":12789,"Ġbroadband":12790,"Ġbooked":12791,"Ġsurviving":12792,"Ġcelebration":12793,"Ġprizes":12794,"ĠExpress":12795,"ĠMediterranean":12796,"Ġdifficulty":12797,"ĠKarbala":12798,"Ġbuyer":12799,"Ġwithdrawing":12800,"Ġverification":12801,"Ġexcav":12802,"Spain":12803,"Ġreasonable":12804,"Ġcreatures":12805,"Ġfright":12806,"Ġweaken":12807,"ĠPortland":12808,"Ġsecretive":12809,"Ġboosted":12810,"Ġbiologist":12811,"Ġelectrical":12812,"Ġconflicts":12813,"ĠTourism":12814,"fecture":12815,"ught":12816,"Ġshelves":12817,"Ġconclude":12818,"Ġinnov":12819,"Ġestablishing":12820,"Iranian":12821,"ĠGreenland":12822,"ĠGoldman":12823,"Google":12824,"Ġanonymous":12825,"ĠRoddick":12826,"ĠiPod":12827,"looking":12828,"Baradei":12829,"Ġcartoons":12830,"Ġhunters":12831,"Ġshoppers":12832,"Ġexperiences":12833,"Ġapplicants":12834,"Cont":12835,"Ġsymbolic":12836,"ĠBoliv":12837,"riminal":12838,"ĠSamarra":12839,"ulsion":12840,"profit":12841,"Ġconversations":12842,"ipei":12843,"Ġriders":12844,"Turkish":12845,"Ġdismantle":12846,"Ġgrabbed":12847,"ĠKeith":12848,"ĠRecords":12849,"Ġdiamonds":12850,"Ġromance":12851,"Ġcigarette":12852,"Ġstunned":12853,"ĠCrocker":12854,"ĠViacom":12855,"Ġblanket":12856,"Ġracial":12857,"Ġlaptops":12858,"Ġimprisoned":12859,"Ġquarterfinals":12860,"ĠDouglas":12861,"Ġvoluntary":12862,"Ġdimin":12863,"Ġchapter":12864,"communications":12865,"Ġembezzlement":12866,"Syrian":12867,"ĠTaipei":12868,"ĠArkansas":12869,"Ġpardon":12870,"ĠJaneiro":12871,"Ġdignity":12872,"Ġgrenades":12873,"Ġfranch":12874,"Ġthriller":12875,"Ġincentives":12876,"Ġmunicipal":12877,"Ġexpedition":12878,"ĠJava":12879,"Ġunanimously":12880,"Ġpioneer":12881,"Ġhormone":12882,"Ġdynam":12883,"ĠChosun":12884,"Ġenthusi":12885,"Ġexplanation":12886,"Ġpenguins":12887,"Ġmirror":12888,"Ġsaddened":12889,"Ġsacrifice":12890,"ĠHassan":12891,"ĠCITY":12892,"izarre":12893,"Ġindictment":12894,"Ġpropaganda":12895,"itzgerald":12896,"Ġundisclosed":12897,"Ġchannels":12898,"ĠStatistical":12899,"arettes":12900,"08":12901,"89":12902,"Bet":12903,"CR":12904,"ED":12905,"Ed":12906,"Em":12907,"FC":12908,"Fifty":12909,"Gun":12910,"Haw":12911,"James":12912,"King":12913,"MP":12914,"Mer":12915,"Miss":12916,"Mugabe":12917,"Nor":12918,"PF":12919,"PI":12920,"Port":12921,"Sex":12922,"bek":12923,"bucks":12924,"cr":12925,"five":12926,"great":12927,"his":12928,"ih":12929,"iens":12930,"jo":12931,"mat":12932,"million":12933,"pes":12934,"ranging":12935,"some":12936,"tun":12937,"ument":12938,"vo":12939,"would":12940,"wheel":12941,"you":12942,"Ġug":12943,"Ġtaught":12944,"Ġsie":12945,"Ġwage":12946,"Ġwages":12947,"Ġcabin":12948,"Ġcoins":12949,"Ġfant":12950,"Ġpiano":12951,"Ġinner":12952,"Ġmo":12953,"Ġmac":12954,"asy":12955,"iche":12956,"Ġdivers":12957,"Ġdangers":12958,"lete":12959,"Ġreli":12960,"Ġreductions":12961,"Ġlib":12962,"Ġbees":12963,"Ġerect":12964,"ĠSix":12965,"oland":12966,"olics":12967,"Ġgym":12968,"imchi":12969,"ĠCO":12970,"ĠCost":12971,"ĠCape":12972,"amy":12973,"eches":12974,"ĠMrs":12975,"orers":12976,"irga":12977,"raib":12978,"this":12979,"thodox":12980,"ithner":12981,"ĠPed":12982,"ĠPers":12983,"ĠPoor":12984,"ĠBB":12985,"ĠBi":12986,"ĠBridge":12987,"ĠTurn":12988,"andra":12989,"chan":12990,"chair":12991,"ĠUs":12992,"ĠWat":12993,"ĠWhen":12994,"Ġru":12995,"Ġrings":12996,"artet":12997,"ĠHans":12998,"ĠGa":12999,"ĠRos":13000,"ĠRoll":13001,"Ġkang":13002,"Ġcharter":13003,"Ġchanted":13004,"Ġchocolate":13005,"Ġspell":13006,"ĠLes":13007,"ĠLevin":13008,"iances":13009,"Ġseiz":13010,"Ġabused":13011,"quality":13012,"ucked":13013,"Ġcloned":13014,"Ġarson":13015,"anski":13016,"ĠStrait":13017,"ĠStewart":13018,"Ġcompos":13019,"Ġuprising":13020,"angling":13021,"Ġmilk":13022,"ricks":13023,"riched":13024,"aws":13025,"ĠYan":13026,"ĠThan":13027,"Ġprisons":13028,"ovie":13029,"Ġmining":13030,"Thailand":13031,"Ġreck":13032,"Ġundermin":13033,"Ġfines":13034,"Ġfinances":13035,"Ġblessing":13036,"ictions":13037,"ĠSeok":13038,"ĠAnt":13039,"ĠShia":13040,"Ġ750":13041,"Ġpromoted":13042,"Ġhighways":13043,"Ġintercept":13044,"Ġphil":13045,"Ġopposing":13046,"Ġsmart":13047,"Ġ2014":13048,"Ġslugg":13049,"riests":13050,"Ġdebts":13051,"peror":13052,"percent":13053,"Ġaiding":13054,"there":13055,"toff":13056,"ĠPrim":13057,"ĠArnold":13058,"ĠRussians":13059,"ĠZardari":13060,"Ġfarming":13061,"Ġcourtroom":13062,"Ġpressures":13063,"Ġ110":13064,"Ġstripped":13065,"ganizers":13066,"Ġhomosexual":13067,"Ġconfirms":13068,"Ġinformal":13069,"ĠCentre":13070,"Ġvoter":13071,"Ġpricing":13072,"Ġmodest":13073,"Ġidentification":13074,"Ġprocession":13075,"Ġtaxi":13076,"Ġdispos":13077,"ĠConstruction":13078,"Ġresponses":13079,"Ġresponsibilities":13080,"afi":13081,"Ġ1984":13082,"rafat":13083,"Ġspecialists":13084,"box":13085,"Ġequally":13086,"Ġsuggestion":13087,"Unlike":13088,"ĠParker":13089,"deed":13090,"Ġpoised":13091,"Ġportrait":13092,"Ġchoosing":13093,"Ġreplacing":13094,"ĠInterfax":13095,"Ġprojections":13096,"Ġ1978":13097,"Ġsends":13098,"ĠSerge":13099,"Ġpledges":13100,"Ġposes":13101,"Ġpanic":13102,"Ġlifetime":13103,"addy":13104,"Ġcontracting":13105,"Ġnetworking":13106,"market":13107,"kyu":13108,"Ġdisplayed":13109,"Ġrobust":13110,"Ġreviewed":13111,"Ġsensitivity":13112,"ĠKurds":13113,"Ġfloating":13114,"mails":13115,"Ġintroduction":13116,"spons":13117,"Ġpersons":13118,"ĠLaure":13119,"Ġassociates":13120,"ĠGhraib":13121,"Ġaccepting":13122,"Ġsometime":13123,"Indiana":13124,"Ġsweep":13125,"Ġignore":13126,"Ġultra":13127,"Ġsilent":13128,"ĠiTunes":13129,"Ġobtaining":13130,"Ġeruption":13131,"Ġfortune":13132,"Ġprayer":13133,"Black":13134,"uznet":13135,"ĠRevolution":13136,"Ġsurvivor":13137,"Ġresumption":13138,"Ġstrengthening":13139,"Ġsporting":13140,"Ġdivorced":13141,"ĠRamos":13142,"ĠMountain":13143,"ĠIrish":13144,"ĠBaquba":13145,"ĠNigerian":13146,"Ġinaugural":13147,"Ġvolunteer":13148,"Neither":13149,"Ġapartments":13150,"Ġdisclosed":13151,"Ġdeliberate":13152,"Ġexamining":13153,"Ġscenario":13154,"ĠLynch":13155,"Ġcigarettes":13156,"Ġaccordance":13157,"ĠLinda":13158,"Ġmysterious":13159,"ĠBelgian":13160,"ĠDuke":13161,"ĠMajority":13162,"Ġpreferred":13163,"Ġaffiliated":13164,"Ġimprisonment":13165,"ĠYousuf":13166,"Ġembryonic":13167,"ĠRelations":13168,"Ġaftershocks":13169,"Ġingred":13170,"Ġworsening":13171,"ĠFernando":13172,"Ġcomponent":13173,"Saudi":13174,"Ġextradition":13175,"Sunday":13176,"Ġtaxpayers":13177,"Ġambulance":13178,"ershbow":13179,"Ġmerely":13180,"oneliness":13181,"Ġindefinitely":13182,"Ġdolphin":13183,"Ġlecture":13184,"Ġcontaminated":13185,"ĠKazakhstan":13186,"Ġquarters":13187,"Ġquotes":13188,"Ġunsuccessful":13189,"Ġumbrella":13190,"ĠClooney":13191,"Ġwebsite":13192,"Ġourselves":13193,"Ġbribes":13194,"Ġlaureate":13195,"Ġpaparazzi":13196,"ĠYankees":13197,"ĠAnthony":13198,"ellectual":13199,"ĠShipman":13200,"Ġsiege":13201,"Ġsluggish":13202,"uznetso":13203,"62":13204,"GS":13205,"Han":13206,"Mas":13207,"Mex":13208,"Much":13209,"Morgan":13210,"Rel":13211,"Sl":13212,"cade":13213,"croft":13214,"dri":13215,"hard":13216,"ihad":13217,"lary":13218,"lie":13219,"lied":13220,"rada":13221,"tes":13222,"wed":13223,"Ġrib":13224,"Ġta":13225,"Ġtatt":13226,"iner":13227,"inis":13228,"inions":13229,"Ġsid":13230,"Ġward":13231,"oriented":13232,"edger":13233,"atman":13234,"Ġcri":13235,"Ġcock":13236,"Ġcattle":13237,"iture":13238,"itudes":13239,"Ġfitness":13240,"Ġpets":13241,"Ġpension":13242,"Ġbull":13243,"Ġbrown":13244,"Ġment":13245,"Ġhoney":13246,"Ġhorses":13247,"Ġdent":13248,"ionage":13249,"Ġreign":13250,"rov":13251,"Ġlenders":13252,"ĠSul":13253,"ĠSierra":13254,"ĠSUV":13255,"uther":13256,"utical":13257,"Ġsaga":13258,"unge":13259,"ĠCairo":13260,"otion":13261,"ĠAge":13262,"ĠAvenue":13263,"Ġstom":13264,"Ġstays":13265,"Ġstaunch":13266,"illions":13267,"ĠMost":13268,"ĠMullah":13269,"ĠMwai":13270,"irming":13271,"elman":13272,"raph":13273,"thal":13274,"ĠPic":13275,"ĠPear":13276,"ĠPak":13277,"ĠPart":13278,"ĠBest":13279,"ĠBand":13280,"ĠBook":13281,"ĠBali":13282,"Ġalerted":13283,"ĠNight":13284,"ĠNine":13285,"ĠNairo":13286,"istice":13287,"chon":13288,"ainted":13289,"ppling":13290,"Ġrugged":13291,"Ġdeem":13292,"ĠHonda":13293,"ĠGarden":13294,"ĠGirls":13295,"ĠRober":13296,"Ġshall":13297,"Ġleap":13298,"Ġleaked":13299,"ĠFA":13300,"ummer":13301,"apes":13302,"Ġkimchi":13303,"Ġchant":13304,"Ġchase":13305,"Ġchairs":13306,"odd":13307,"uds":13308,"ĠLen":13309,"ĠLittle":13310,"ĠEaster":13311,"seeded":13312,"ĠOK":13313,"ĠChaudhry":13314,"Ġpean":13315,"Ġpeers":13316,"Ġresisted":13317,"Ġclip":13318,"Ġnewest":13319,"Ġincon":13320,"Ġoverweight":13321,"Ġdisruption":13322,"uba":13323,"Ġcontacts":13324,"Ġmild":13325,"ĠIncheon":13326,"Ġscared":13327,"ĠYu":13328,"asha":13329,"Ġquell":13330,"Ġcommod":13331,"Ġcommands":13332,"amps":13333,"Ġopinions":13334,"ĠVanc":13335,"ĠAfter":13336,"neapolis":13337,"Ġimplant":13338,"Ġcountryside":13339,"Ġsurplus":13340,"ĠIsmail":13341,"leground":13342,"Ġrememb":13343,"Ġterrible":13344,"ĠSeg":13345,"Ġfounding":13346,"Ġinflic":13347,"Ġassume":13348,"rives":13349,"Ġrespir":13350,"Ġslim":13351,"oulos":13352,"Ġdebates":13353,"Ġagrees":13354,"Ġshoulders":13355,"ĠQass":13356,"ĠPrice":13357,"Ġgenuine":13358,"ĠBarry":13359,"Ġhumor":13360,"ĠZap":13361,"Ġspeaks":13362,"Ġnationally":13363,"Ġcaf":13364,"ĠJohnston":13365,"Ġsits":13366,"Ġcolors":13367,"Ġadvances":13368,"ĠGerrard":13369,"Ġswap":13370,"goers":13371,"Ġskull":13372,"Ġnegotiation":13373,"Ġprofile":13374,"umping":13375,"bassies":13376,"\"\",":13377,"Ġbattleground":13378,"screen":13379,"Ġprocessing":13380,"Ġlistening":13381,"Ġfallout":13382,"Ġjudiciary":13383,"Howard":13384,"Ġeventual":13385,"Ġtreats":13386,"Ġordering":13387,"ĠPenn":13388,"Ġradiation":13389,"Ġsooner":13390,"Ġindependently":13391,"ĠEastwood":13392,"ĠSuperv":13393,"Ġpriest":13394,"Shares":13395,"Ġrepresentation":13396,"Ġstockp":13397,"Ġparticipated":13398,"Ġpackages":13399,"Malays":13400,"ĠSyrian":13401,"Ġproperties":13402,"Ġsections":13403,"Ġcheckpoints":13404,"Ġrepeat":13405,"Ġvacuum":13406,"Ġcorporations":13407,"Ġwildfires":13408,"Ġreviews":13409,"Ġweakening":13410,"Ġpursuit":13411,"Ġcondemn":13412,"Ġdemonstrate":13413,"ĠJeong":13414,"Ġimprovement":13415,"Ġunfortunate":13416,"Ġprecise":13417,"Ġacknowledge":13418,"Ġtomatoes":13419,"ĠHawass":13420,"Ġsubstances":13421,"laud":13422,"Ġundec":13423,"ĠRoom":13424,"Prof":13425,"Ġobjective":13426,"Ġtournaments":13427,"Ġanswers":13428,"aidi":13429,"Ġsilver":13430,"Ġgangs":13431,"Ġoutbreaks":13432,"Ġtiming":13433,"Ġextremism":13434,"Ġawaiting":13435,"Ġfilling":13436,"Ġcaucus":13437,"Ġconfidential":13438,"Ġcategories":13439,"Ġbrave":13440,"Ġexamine":13441,"ĠLiu":13442,"ĠPCs":13443,"Ġchemicals":13444,"ĠDenmark":13445,"Ġlabeling":13446,"ĠRecep":13447,"ĠHeritage":13448,"Ġexamined":13449,"Ġdramatically":13450,"Ġmigrant":13451,"Ġrebuilding":13452,"osterone":13453,"Ġtelecom":13454,"Ġconverted":13455,"ĠTyphoon":13456,"Lawmakers":13457,"Ġhatred":13458,"Ġsatisfied":13459,"Ġmotivated":13460,"Ġgraphic":13461,"ĠCristiano":13462,"Ġorchestra":13463,"ĠFalluja":13464,"ĠOperation":13465,"Ġanchor":13466,"Ġreluctant":13467,"beaten":13468,"dominated":13469,"ĠKitty":13470,"Ġprosperity":13471,"Ġsalmonella":13472,"Ahmad":13473,"Ġmummy":13474,"Ġconscious":13475,"Ġslavery":13476,"Ġglimp":13477,"Ġatrocities":13478,"ĠLaura":13479,"Ġespionage":13480,"Ġirregularities":13481,"ĠPreston":13482,"Ġscreaming":13483,"Ġfantastic":13484,"ĠNairobi":13485,"09":13486,"49":13487,"51":13488,"71":13489,"Camp":13490,"Dream":13491,"GB":13492,"HI":13493,"Ke":13494,"Kh":13495,"Light":13496,"LAN":13497,"Red":13498,"Ret":13499,"SC":13500,"Time":13501,"Vis":13502,"Zulu":13503,"bec":13504,"dr":13505,"dale":13506,"dollar":13507,"eu":13508,"gue":13509,"hill":13510,"oos":13511,"pat":13512,"sign":13513,"serious":13514,"turned":13515,"wak":13516,"worth":13517,"wife":13518,"zer":13519,"Ġtong":13520,"Ġtally":13521,"Ġtense":13522,"Ġtumbled":13523,"Ġsounded":13524,"Ġwaved":13525,"eness":13526,"orary":13527,"Ġcens":13528,"itual":13529,"itched":13530,"Ġfearing":13531,"Ġferry":13532,"isition":13533,"Ġpel":13534,"Ġpanc":13535,"Ġpink":13536,"Ġpoured":13537,"Ġbold":13538,"Ġbump":13539,"Ġburg":13540,"Ġbicy":13541,"Ġmales":13542,"Ġhills":13543,"asm":13544,"Ġdot":13545,"Ġdement":13546,"Ġdwind":13547,"ido":13548,"ilder":13549,"omous":13550,"Ġreop":13551,"still":13552,"Ġly":13553,"Ġbearing":13554,"Ġeased":13555,"ĠSk":13556,"oly":13557,"Ġgifts":13558,"urther":13559,"urches":13560,"acute":13561,"unken":13562,"amount":13563,"Ġsty":13564,"Ġstaging":13565,"illon":13566,"verly":13567,"ĠMess":13568,"ĠMikh":13569,"ĠBart":13570,"ĠBusan":13571,"ĠBae":13572,"ĠBros":13573,"ĠBMI":13574,"ĠBanco":13575,"ĠBiden":13576,"emate":13577,"ĠKay":13578,"oped":13579,"child":13580,"charge":13581,"ĠUl":13582,"Ġhabits":13583,"Ġrats":13584,"Ġrhy":13585,"ĠDell":13586,"ĠDave":13587,"ĠHD":13588,"ĠHas":13589,"ĠHank":13590,"ĠGard":13591,"ĠGran":13592,"ĠRa":13593,"ĠRan":13594,"ĠRain":13595,"Ġshipped":13596,"Ġlean":13597,"ĠFe":13598,"ĠFuk":13599,"ĠFamily":13600,"Ġoffsh":13601,"Ġspate":13602,"Ġspare":13603,"ĠLord":13604,"ĠLhas":13605,"ĠLopez":13606,"abilities":13607,"ĠOb":13608,"Ġjihad":13609,"Ġacademy":13610,"Ġpeer":13611,"Ġwheels":13612,"Ġreserve":13613,"Ġbutter":13614,"berra":13615,"Ġoutgoing":13616,"Ġintact":13617,"Ġincar":13618,"aceutical":13619,"olding":13620,"Ġdisband":13621,"Ġcontender":13622,"Ġmilestone":13623,"Init":13624,"Ġencl":13625,"Ġenriched":13626,"Ġrocked":13627,"Ġdecisive":13628,"oves":13629,"ovich":13630,"wealth":13631,"ĠMonica":13632,"Ġminus":13633,"neider":13634,"Ġnoise":13635,"Ġrav":13636,"Ġraises":13637,"Ġrazed":13638,"aho":13639,"Ġanymore":13640,"Ġbride":13641,"Ġbrands":13642,"Ġeconomics":13643,"Ġbacks":13644,"ossip":13645,"Ġprototy":13646,"ĠAnbar":13647,"itten":13648,"Ġassigned":13649,"Ġconfusion":13650,"rett":13651,"oolmer":13652,"Ġopposes":13653,"aturally":13654,"Ġsmiling":13655,"attray":13656,"ĠUSFK":13657,"shirt":13658,"ĠSpratt":13659,"Ġprogramming":13660,"ĠIranians":13661,"Ġeveryday":13662,"Chief":13663,"Ġgenes":13664,"ĠAlb":13665,"ĠBarak":13666,"ĠPakistanis":13667,"Koreans":13668,"Ġsentencing":13669,"Ġspeeches":13670,"Ġ900":13671,"ĠMcCartney":13672,"Ġalleging":13673,"Ġfireworks":13674,"ĠReport":13675,"Ġdevelopers":13676,"Whatever":13677,"ductive":13678,"ĠGermans":13679,"Ġhandgun":13680,"ĠDeparted":13681,"Ġbanning":13682,"Along":13683,"Ġemerge":13684,"Ġdistant":13685,"ĠCaracas":13686,"Ġdrunken":13687,"Ġtechniques":13688,"Ġformat":13689,"Ġeasing":13690,"Ġauthen":13691,"Ġorganizing":13692,"income":13693,"incinn":13694,"loria":13695,"appropriate":13696,"Ġsuccessive":13697,"afood":13698,"Ġrioting":13699,"ĠHariri":13700,"Ġcollided":13701,"ĠTrust":13702,"Ġ240":13703,"Unfortunately":13704,"ĠOrder":13705,"ĠOrchest":13706,"ĠOrthodox":13707,"ointment":13708,"Ġholed":13709,"Ġreaders":13710,"Ġseparat":13711,"ennium":13712,"ĠExpl":13713,"castle":13714,"Ġbasement":13715,"Ġrisky":13716,"ĠMidwest":13717,"ĠSchneider":13718,"ĠElBaradei":13719,"ĠKhmer":13720,"Ġmobil":13721,"Ġimmune":13722,"Ġspotlight":13723,"Ġmisdem":13724,"Ġoversee":13725,"ĠMarket":13726,"Ġcorps":13727,"Ġnecessarily":13728,"ĠPatrol":13729,"Ġsensors":13730,"Ġearthquakes":13731,"Ġpremature":13732,"Ġambushed":13733,"richton":13734,"Ġirrit":13735,"Ġaffecting":13736,"Ġbelonging":13737,"Justice":13738,"Ġsponsored":13739,"ĠRomania":13740,"Death":13741,"ĠLiberation":13742,"Ġpartnership":13743,"Ġphotographed":13744,"Ġflowers":13745,"Ġfaithful":13746,"Ġbrains":13747,"Ġgarage":13748,"Ġtortured":13749,"Ġsustain":13750,"garia":13751,"Ġgrabs":13752,"Twelve":13753,"ĠTraff":13754,"ĠKaren":13755,"ĠScottish":13756,"Ġstrained":13757,"ĠRogge":13758,"ĠIndustry":13759,"Ġapplause":13760,"Ġ787":13761,"Organizers":13762,"ĠAziz":13763,"Ġliterally":13764,"ĠSilva":13765,"Ġconcentrated":13766,"Ġaccompanying":13767,"Ġfrustrated":13768,"Ġheightened":13769,"ĠGamba":13770,"ĠBonito":13771,"Ġbreeding":13772,"ĠStanley":13773,"logans":13774,"ĠRhode":13775,"Ġtapes":13776,"ĠAutom":13777,"Ġaerial":13778,"Charts":13779,"ĠBulgarian":13780,"Ġaftershock":13781,"Ġdownload":13782,"intendo":13783,"intendent":13784,"ĠFrontier":13785,"Ġbarely":13786,"ĠProphet":13787,"Ġscholar":13788,"Ġvideotape":13789,"Ġbodyguards":13790,"Ġtremend":13791,"Ġinfiltrated":13792,"ĠPetersburg":13793,"Ġflexible":13794,"Ġarchitect":13795,"ĠSpaniard":13796,"Ġarrangements":13797,"Ġbonuses":13798,"Ġleniency":13799,"Ġrichest":13800,"Ġjewelry":13801,"Ġdesperate":13802,"Ġcontrolling":13803,"Ġacademic":13804,"Ġpremiere":13805,"ĠUkrainian":13806,"Jackson":13807,"official":13808,"Daniel":13809,"Ġinhabit":13810,"ĠTemple":13811,"Indonesia":13812,"Ġfarewell":13813,"threatening":13814,"ĠFoley":13815,"ĠFreedom":13816,"Ġstructures":13817,"Ġfestiv":13818,"Ġsubsidiary":13819,"Ġunchanged":13820,"atabase":13821,"Ġbrothels":13822,"ĠDokdo":13823,"Ġundecided":13824,"Ġdementia":13825,"ĠMikhail":13826,"ĠLhasa":13827,"incinnati":13828,"ĠOrchestra":13829,"36":13830,"91":13831,"Big":13832,"Clear":13833,"Far":13834,"Ford":13835,"Free":13836,"Given":13837,"JER":13838,"Look":13839,"MW":13840,"Mur":13841,"MOSCO":13842,"NC":13843,"Reg":13844,"Sam":13845,"TE":13846,"Tim":13847,"Vice":13848,"Zaidi":13849,"course":13850,"dig":13851,"ders":13852,"dep":13853,"fi":13854,"fers":13855,"fired":13856,"hun":13857,"hum":13858,"hift":13859,"jud":13860,"kers":13861,"koo":13862,"magn":13863,"oell":13864,"rament":13865,"sub":13866,"sung":13867,"school":13868,"vation":13869,"word":13870,"Ġtail":13871,"Ġtires":13872,"Ġtasks":13873,"Ġailing":13874,"inational":13875,"oni":13876,"Ġsew":13877,"Ġsoul":13878,"Ġsidelines":13879,"Ġslogans":13880,"Ġwives":13881,"enos":13882,"orf":13883,"atar":13884,"Ġfence":13885,"Ġfog":13886,"Ġfurn":13887,"Ġfrog":13888,"Ġfasc":13889,"Ġfantas":13890,"aria":13891,"isms":13892,"Ġposing":13893,"Ġbands":13894,"Ġinning":13895,"Ġtoured":13896,"Ġdil":13897,"Ġdra":13898,"omed":13899,"lee":13900,"royo":13901,"studd":13902,"vered":13903,"Ġlinking":13904,"Ġeve":13905,"ĠSide":13906,"adies":13907,"Ġgossip":13908,"imore":13909,"uni":13910,"ĠCateg":13911,"ĠCAC":13912,"ĠCincinnati":13913,"amon":13914,"ushes":13915,"ĠAer":13916,"ĠAires":13917,"ete":13918,"Ġstole":13919,"ĠMat":13920,"ĠMes":13921,"ĠMax":13922,"ĠPavarotti":13923,"ĠPichushkin":13924,"ĠBron":13925,"ĠBobby":13926,"ĠBilly":13927,"ceived":13928,"ĠKas":13929,"ĠKid":13930,"ĠKath":13931,"ĠKean":13932,"ĠTian":13933,"ĠTigers":13934,"oper":13935,"riott":13936,"ĠNist":13937,"chum":13938,"chang":13939,"Ġhazard":13940,"ĠWang":13941,"ĠWells":13942,"Ġvest":13943,"ifies":13944,"ĠDad":13945,"ĠHal":13946,"ĠHart":13947,"ĠGay":13948,"ĠGusmao":13949,"ĠGloria":13950,"ĠJean":13951,"ĠJason":13952,"ĠJunich":13953,"ĠRash":13954,"ĠRove":13955,"ĠFle":13956,"ĠFly":13957,"ĠForm":13958,"ĠFitzgerald":13959,"umin":13960,"ocated":13961,"ĠLat":13962,"Ġsufficient":13963,"ĠEvery":13964,"ĠEmp":13965,"Ġabrupt":13966,"quities":13967,"Ġhadn":13968,"Ġwheat":13969,"Ġclouds":13970,"Ġexpires":13971,"Ġoutsp":13972,"Ġintend":13973,"Ġintellectual":13974,"Ġmeg":13975,"Ġupgr":13976,"Ġoverrun":13977,"iband":13978,"Ġcontrad":13979,"ritz":13980,"ĠUnder":13981,"ĠIngr":13982,"ĠIniti":13983,"Ġpartial":13984,"Ġcann":13985,"Ġscra":13986,"Ġscri":13987,"actor":13988,"Ġ1930":13989,"Ġworkforce":13990,"Ġmini":13991,"Ġimpression":13992,"ĠMinneapolis":13993,"Ġcarriers":13994,"Ġbloc":13995,"Ġblaming":13996,"Ġconsist":13997,"Ġtalent":13998,"Ġanyway":13999,"Ġshowdown":14000,"Ġbrush":14001,"Ġbackers":14002,"Ġrelation":14003,"Ġretain":14004,"Ġproviders":14005,"Ġprotein":14006,"Ġtrophy":14007,"ĠBritney":14008,"Ġembassies":14009,"Ġsmile":14010,"Ġslain":14011,"Ġdeport":14012,"ĠMarsh":14013,"Ġdemol":14014,"Ġguitar":14015,"theless":14016,"Ġfilmed":14017,"ĠQari":14018,"ĠEndeavour":14019,"ĠArthur":14020,"Ġdealer":14021,"ika":14022,"iking":14023,"prises":14024,"Ġ99":14025,"being":14026,"Ġneglig":14027,"Ġobsc":14028,"ucking":14029,"Ġcheer":14030,"Ġcheers":14031,"Ġchess":14032,"Ġpastor":14033,"Ġfacilit":14034,"lamour":14035,"Ġprospects":14036,"ĠLeh":14037,"ĠLeone":14038,"ĠAbraham":14039,"ĠAborig":14040,"Ġprofound":14041,"ĠCarl":14042,"Ġmidday":14043,"Station":14044,"Ġidentities":14045,"Ġhardware":14046,"office":14047,"Ġoccas":14048,"Ġ1983":14049,"Ġempire":14050,"Ġnominating":14051,"Ġgreatly":14052,"ĠAdams":14053,"Ġcommitting":14054,"Ġfrontier":14055,"Ġequipped":14056,"Ġcredited":14057,"Ġcrowned":14058,"ructive":14059,"Ġzones":14060,"Ġstreak":14061,"Ġseemingly":14062,"Ġvalued":14063,"emptive":14064,"Ġsquid":14065,"Ġaddresses":14066,
[...]
