#version: 0.2 - Trained by `huggingface/tokenizers`
Ġ ì
ì Ŀ
Ġ ë
í ķ
ë ĭ
Ġ ê
ëĭ ¤
ì Ĺ
ê ³
ìĿ ´
Ġ í
ìĹ Ĳ
ë Ĭ
ëĬ Ķ
ê °
ê³ ł
ìĿ ĺ
ìĿ Ħ
ì Ħ
Ī ëĭ¤
ì ŀ
Ġì Ŀ
§ Ģ
ë ¡
Ġì ŀ
ë ¥
ì ł
ìĿ Ģ
íķ ľ
í ĸ
íķ ĺ
ë¡ ľ
ë ĵ
Ĥ ¬
ë ¦
ì ĭ
ì ķ
ì §Ģ
ì ľ
ê° Ģ
Ġë °
ê µ
ì Ĭ
Į Ģ
ë¥ ¼
¸ °
Ġì ł
Ġê ²
â Ģ
ìĦ ľ
Ġì ķ
´ ë
íĸ Īëĭ¤
ë¦ ¬
Ŀ ¼
ê ²
ìĿ ¸
ëĵ ¤
ë ı
ë §
íķ ´
ë ł
ìĬ ¤
Ġë §
Ġê °
ë Ŀ¼
ì Ľ
¶ Ģ
ê ¸°
ì ļ
Ī ĺ
ë Ĥ
ìĹĲ ìĦľ
ìľ ¼
Ġì Ĺ
Ġë ĮĢ
ìŀ Ĳ
êµ Ń
ì Ĥ¬
ìĭ ľ
ë °
£ ¼
ë ©
í ĺ
ĠìĿ ´
ì ĸ
· ¸
ì ĥ
Ġì ĺ
Ġì ĭ
Ġê ³
ë ª
Ġì Ĥ¬
Ġì Ħ
¯ ¸
Ġë Ĥ
ë Ł
ë Ĳ
ë ³
ë ¬
ëı Ħ
Ġì ľ
ìŀ ¥
Ġë ³
Ġê² ĥ
ìľ¼ ë¡ľ
ìĿ ¼
ìĽ Ĳ
Ġë ĭ
ë ¶Ģ
Ġ 1
Ġì §Ģ
ì ĺ
ìķ Ħ
ë ŀ
ê³ ¼
Ġì Īĺ
ì §
Ġê µ
Ġìł Ħ
í Ļ
ì Ļ
Ġ âĢ
ì ¹
´ Ģ
Ġìŀ Ī
ëª ħ
ë ħ
í ĥ
ë© °
Ġë ª
¹ Ħ
âĢ Ŀ
Ġ 2
ëĤ ĺ
ìĥ ģ
Ġì ĥ
ì Ĩ
Ġë ı
ë ²
¤ ĳ
ìł ķ
ê² Į
Ġìŀ Īëĭ¤
ìĸ ´
ê ·¸
í Ĭ
ĠâĢ ľ
ļ Į
ìĻ Ģ
Ĩ µ
ëŁ ¬
ë ĮĢ
ë į
ìł ģ
ëĵ ľ
ì £¼
Ġë ¯¸
¡ °
0 0
Ġìķ Ħ
Ġ íķ
ĠìĿ ´ë
íĬ ¸
Ġê° Ģ
Ġì £¼
ë§ Į
ê° Ħ
ìł ľ
Ġìľ Ħ
Ġë§ Ĳ
ì ²
Ġê ¸°
íķĺ ëĬĶ
Ġìĭ ľ
í Ķ
ì Īĺ
Ġê² ½
í Ħ
ì °
Ġë ²
Ġìł ķ
Ġê ·¸
Ġë ¶
Ġì ļ
Ķ ëĭ¤
íĻ Ķ
íķĺ ê³ł
Ġë° Ŀ
Ġë ¬
Ġì ¤ĳ
Ġí ĺ
ëħ Ħ
íķ ł
Ġë³ ´
ĠìĿ ¸
ìł Ħ
ëĿ¼ ê³ł
Ġìŀ Ĳ
Ġ íķľ
Ġì Ĩ
í ģ
Ľ Ħ
Ġë°Ŀ íĺ
Ġí ı
ê ±
êµ ¬
ë¬ ¸
ì¹ ĺ
ê ¸
ë³ ´
Ġë° ľ
íĦ °
Ġí Ļ
ìĦ ±
ìĭ ł
Ġì ĸ
í Ĩµ
í ļĮ
Ġë ¶Ģ
Ġì §
ë§ Ī
Ġê³ µ
ëĤ ľ
Ġí Į
Ġë°Ŀíĺ Ķëĭ¤
ĠìĿ ¼
ëĭ Ī
Ġê ´Ģ
Ġì Ĭ
ê³ Ħ
Ġì °
ë ¶
ëĵ¤ ìĿ´
ìľ Ħ
ê ´Ģ
ëı Ļ
íģ ¬
ìķ Ī
Ġê²ĥ ìĿ´
ëĵ¤ ìĿĢ
ëĭ¤ ê³ł
í Į
Ġë§Ĳ íĸĪëĭ¤
Ġë į
Ġì ¶
ëł ¹
ìļ °
ĠìĨ Į
Ġí Ķ
Ġìķ Ĭ
Ġêµ Ń
Ġëĭ ¤
Ġë ¹Ħ
ë ¯¸
ëĭ ¹
íĸ ī
ìļ ©
Ġì ²
íĸ Ī
ëĲ ľ
Ġìĺ ¤
Ġìľ ł
í ı
ë ¹Ħ
Ġê ±
ĠìĹ ¬
ëĭ Īëĭ¤
ìĹ Īëĭ¤
ĠìĿ ĺ
ë¥ ´
Ġìĥ ģ
ĳ ľ
ìĨ Į
ë© ´
ĠìŀĪ ëĬĶ
Ġë Ĳ
íĶ Ħ
ëĲ ĺ
Ġì ´
Ġì ¡°
ì§ Ħ
ìĦ ł
Ġì ¹
ë Ķ
í Ĥ
Ġë¯¸ êµŃ
¯ ¼
ë° Ķ
Ġìł ľ
µ ľ
ì ¶
Ġ 3
ĠëĤ ĺ
Ġë ĵ
ì Ĥ
ìĦ ¸
ìľ ł
ì ¡
ĠìĹ °
íĨµ ëł¹
ëį ĺ
ëł Ī
ë £
ìĥ Ŀ
Ġ íķĺ
ì ¡°
Ġëª ¨
Ġí ĥ
íĥ Ģ
ìļ Ķ
Ġë§ Ī
ìĽ Ķ
Ġí ĸ
Ġëı Ļ
í ĳľ
ĠìĦ ł
ìľ¼ ë©°
Ġë ħ
Ġì Ļ
Ġìĺ ģ
ë Ħ
ëł ¥
ìĹĲ ê²Į
ë¬ ´
ì ½
Ġì Ľ
íĺ Ħ
ĠëĮĢ íĨµëł¹
ê± °
íĤ ¤
ê ·
Ġìĺ Ī
ëł ¤
Ġê³ ł
ìķ ¼
Ġì µľ
ìĺ ¤
êµ °
í İ
í ĭ
ì² ´
ë¦ °
ìĬ µ
ìķ ĺ
ê² ½
¹ Į
ëĭ ¨
ìĹ ¬
ìĺ ģ
ìĭ Ŀ
ìĹ Ń
ë° ©
í ŀ
ĳ Ĳ
ĠìľĦ íķ´
Â ł
í ĽĦ
Ġë° Ľ
ĠìĬ ¤
Ġí ĽĦ
ê° ľ
Ġë° ©
âĢ Ļ
ê² ©
ëŀ Į
ì° °
ĠëĮĢ íķľ
ì ¦
ìĨ į
Ġì§Ģ ëĤľ
ê³ µ
Ġìļ °
ìŀ ¬
ìĭľ ê°Ħ
Ġê° ľ
ê·¸ ëĬĶ
Ġëĭ ¹
ĠìĹ Ĩ
Ġìķ Į
Ġê² °
ëĲ Ĳ
Ġ íķ´
Ġìĥ Ŀ
ë° ĺ
Ġì Ĥ
ìĹ ħ
Ġí ļĮ
Ġë° Ķ
ĠìĦ ¸
ìĭ ¤
Ġëı Ħ
ĠìĦ ±
ħ Į
ì§Ģ ë§Į
ì ¼
ìĿ´ ëĭ¤
Ġìŀ ¥
ìĺ Ģ
Ĩ ł
Ġì´ Ŀ
Ġ 4
Ġê ¸
ĠíĮ Į
ë ¯¼
ĠëĤ ¨
ë¬ ¼
ë¥ ¸
Ġë¬ ´
íĺ ¸
Ġí Ĩµ
íı ¬
ìĤ °
ĺ Ĳ
ê¸ Ī
ìŀ Ħ
íĺĦ ì§Ģ
¸ Į
ĠìłĦ íĸĪëĭ¤
Ġ 6
Ġêµ ¬
Ġí ģ
ë§ Ŀ
Ġë¶ ģ
Ġëħ ¸
Ġ 5
íķ Ļ
ì° ¨
íŀ Ī
ìłģ ìĿ¸
ìĬµ ëĭĪëĭ¤
íĮ Į
Ġìłķ ë¶Ģ
Ġìĭ ł
ê ¹Į
ìļ ´
ë¶ Ħ
íķĺ ê¸°
ĠëĮĢ íķ´
ķ Į
¶ Į
Ġë¶ Ī
ëĭ ¬
íĸĪëĭ¤ ê³ł
íĺĦì§Ģ ìĭľê°Ħ
Ġê³ Ħ
ìŀ ĳ
ì ¤ĳ
ìĿ´ ëĿ¼ê³ł
êµ Ĳ
ì¹ ´
Ġê± °
ìĹ °
ë³ Ģ
´ë ı
ëĶ Ķ
ì ¸
ëŀ ĺ
ê° ģ
Ġìĭ ¤
ĠìĹ Ĳ
Ī ¬
Ġë§ Į
ë¦¬ ëĬĶ
ê± ´
íĥ Ħ
Ġë° ĺ
ĠëĤ ´
ì§ ģ
ëĵ¤ ìĿĦ
2 00
ìĿ Į
ìĹ Ī
Ġê° Ĳ
Ġìŀ ħ
Ġê° ķ
ëªħ ìĿ´
ë¡ Ŀ
ĠìĤ¬ ëŀĮ
íĭ °
ë° ľ
Ġíı ¬
Ġë ķĮ
Ġë ĺĲ
ëª ¨
Ġ2 00
ĠíĶ Ħ
ĠíĶ ¼
ê¹Į ì§Ģ
ì¶ ľ
í Ĵ
Ġì° ¨
ë² ķ
í Ĺ
Ġë¬ ¸
ĠâĢ ĺ
Ġë§ ¤
ëĵ¤ ìĿĺ
ìķ ½
Ġìŀ ¬
ĠìĿ´ë ²
Ġê²ĥ ìľ¼ë¡ľ
ĠìĦ ľ
Ġê²ĥìĿ´ ëĿ¼ê³ł
Ġì ¦
Ġìĺ ¬
¢ ħ
íķĺ ì§Ģ
ì½ Ķ
ĠìĿ´ë² Ī
Ġê ·
Ġíı Ń
ì¦ Ī
Ġëį Ķ
ì¡ Į
ë² Ī
íİ ¸
íķľ ëĭ¤
Ġê²ĥ ìĿĦ
Âł Ġ
Ġìļ Ķ
Ġíĺ Ħ
í Ĩł
ì§ Ī
ĠìŀĪëĭ¤ ê³ł
Ġìķ Ī
ëł ¨
ê ¶Į
ìŀ ħ
Ġì§ Ħ
ĠìĿ´ë Ŀ¼
ĠìŀĲ ìĭł
Ġêµ Ĳ
ëį °
Ġë ©
ê· ¼
ë§ ¤
ëŁ¬ ëĤĺ
ê² ¬
i n
Ġ "
ìĦ ¤
ĠìĿ´ëĿ¼ íģ¬
ì Ī
Ġìŀ ĳ
ìķĺ ëĭ¤
íĥ ľ
ê² °
´ëı Ħ
ìĺĢ ëĭ¤
Ġì¶ Ķ
íķ ©
Ġìķ ½
ìłģ ìľ¼ë¡ľ
ë¡ ł
Ġì¶ ľ
Ġëĭ ¬
´ë ł
ë³ ¸
Ġë Ĩ
Ġí Ĺ
ë² Ħ
ë ĳĲ
ìĹ ĺ
´ ë¦°
ĠíĻ ķ
ĠìĻ ¸
Ġë ¡
ë ¸Į
ëĭ ´
ĠìĤ¬ ë§Ŀ
Ġì£¼ ìŀ¥
Ġí İ
ë¶Ģ íĦ°
o n
ë£ Į
ĠìĽ Ĳ
Ġì ½
ĠìĬ ¹
íķĺ ê²Į
ë£ ¨
ìĹĲ ëĬĶ
ëĲĲ ëĭ¤
Ġ1 9
Ġë§ İ
Ġëĵ ±
Ġë°ľ ìĥĿ
ê·¸ ëŁ¬ëĤĺ
ëŀ Ģ
Ġê²½ ì°°
íĶ ¼
ëĦ ¤
. .
ìĦ Ŀ
ìĿ¸ ìĿĢ
ë² ł
Ġëª ħ
ë¥ ´ë
ëĵ ł
ê¸ ī
ìĸ µ
Ġ 7
ìĭ ¬
ëªħ ìĿĺ
e r
íĴ Ī
Ġì Ī
Ġíĸ ī
a n
ì ´
Ġë² ł
ë°Ķ ë§Ī
Ļ ìĿĢ
Ŀ ½
Ġë¶ģ íķľ
ìĭľ ìķĦ
ìĸ ĳ
ī ´
ê° Ĳ
o r
Ġë Ħ
Ġë Ķ
Ġì¦ Ŀ
Ġëĭ¤ ë¥¸
Ġêµ °
ìĸ ´ë
ëĤ ´
ìĸ ¸
Ġì§Ģ ìĹŃ
ì¼ Ģ
ĠìĺĪ ìłķ
Ġì¤ĳ êµŃ
ê¸° ë¥¼
ħĮ ëŁ¬
Ġë¬¸ ìłľ
ìŀ¥ ìĿĢ
ìĬ ¨
ĠëĲ ĺ
ìĬ ¹
ìĤ¬ ëĬĶ
ë Ŀ½
íķ ¨
Ġíĺ ¸
Ġë² Į
Ġì ¤
± ħ
ìĿ´ ëĿ¼
Ġ 8
Ġë°ľ íĳľ
Ġ1 0
Ġëį °
Ġë¶ Ħ
Ġê´Ģ ê³Ħ
ëħ Ģ
ë¦¬ ë¥¼
ë¦¬ ìķĦ
Ġì§ ĳ
Ġë¡ ľ
Ġ t
Ġë ¹
Ġí Ī¬
Ġë ¦
ĠìĦ ¤
Ġíķľ êµŃ
Ġí Ĭ
Ġë ¯¼
ĠëĮĢ ë³Ģ
ëŁ ī
ìĨ ¡
ëį Ķ
ëħ ¸
Ġë Ŀ¼
¨ ¸
ëŁ °
Ġë ĳĲ
ëĶ °
ëĵ¤ ìĹĲê²Į
Ġí Ŀ
Ġëĭ ¨
ì »
Ġë² ķ
ì² Ń
ì² ĺ
Ġëª ©
ëŀ ĳ
Ġíĥ Ģ
ì¡ ±
íĦ ´
Ġëĵ ¤
Ġë³ ´ëıĦ
Ġë° °
t i
Ġìĥ Ī
Ġíķ ł
a r
Ġëª »
ì¡Į ëĭ¤
ì ¢ħ
Ġ 9
í ļ
Ġë¦ ¬
íķľ íİ¸
ĠìľĦ íķľ
Ġì° ¸
ë©´ ìĦľ
ìĹĲ ëĶ°
Ġê¸ Ī
ëı ħ
ë¯¸ êµŃ
ëĭ¤ ëĬĶ
ì ¤
íĹ ĺ
į ¼
ìŀĲ ëĬĶ
ë ĥ
ì ħ
Ġê´Ģ ëł¨
ĠìĤ ´
Ł ģ
Ġì² ĺ
ëĬ ¥
Ġ '
ĠíĽĦ ë³´
ìĪ ł
ëĲ ł
íĮ Ĳ
íķ Ń
ĠíĻ Ķ
ĠíĨµ íķ´
ìł Ĳ
ĠíĮ Ĳ
Ġìķ ¼
Ġìĭ ¬
ì Łģ
ĠìĹ¬ ìĦ±
Ġìĺģ êµŃ
Ġê³ ¼
ĠëıĻ ìķĪ
Ġëı ħ
ĠìĿ´ íĽĦ
íķĺ ë©°
Ġì¹ ĺ
Ġ C
ìĹĲìĦľ ëĬĶ
Ġìł ģ
ìŀĲ ê°Ģ
Ġíĸ Īëĭ¤
e s
´ ĳ
Ġë³ ĳ
ĠêµŃ ê°Ģ
ìĤ¬ ë¥¼
Ġíķ µ
e n
ë¦¬ ê³ł
Ġ íķĺëĬĶ
Ġê² Ģ
ë¦ ½
ìĬ¤ íĬ¸
Ġíı ī
Ġê²ĥìĿ´ ëĭ¤
Ġìĺģ íĻĶ
Ġë§İ ìĿĢ
Ġì² ´
íļ į
ĠìĦ¸ ê³Ħ
ĠëĮĢíĨµëł¹ ìĿĢ
ê° Ŀ
Ġíĺ ĳ
Ġë ĸ
ĠìĿ Į
Ġìĸ ¸
ê´Ģ ìĿĢ
ìķ ħ
Ġë³ Ģ
Ġê°Ģ ìŀ¥
ì¸ ¡
Ġìĺ¤ ë°Ķë§Ī
Ġê° ĻìĿĢ
Ġìķ ŀ
ìĬ¤ íĥĦ
Ġìĭľ ìŀĳ
ë¬¸ ìĹĲ
ë¦¬ ê°Ģ
ìĬ¤ ëĬĶ
íĸĪ ìľ¼ë©°
Ġë¬ ¼
· ¨
Ġí ŀ
ë© Ķ
Ġíķ ©
ëĿ¼ ëĬĶ
ëªħ ìĿĦ
º Ĳ
ë¶ ģ
Ĳ ìĿĺ
ìĽĲ ìĿĺ
ĠëĲ ł
a l
Ġë ł
ĠìĿ´ ìĥģ
Ġê³µ ê²©
Ġê²½ ìłľ
Ġìł Ģ
Ġë ģ
íĻ ©
ìĤ ´
¸ Ķ
Ġíķ Ħ
ìł Ģ
ìĿ´ íĬ¸
ĠìĤ¬ ê±´
¨ ìĸ´
ë³ ĳ
ĠëĮĢë³Ģ ìĿ¸ìĿĢ
Ġ A
Ġë Ł
Ġë Ĵ
ĠëĲ ľ
ĠìĤ¬ ìļ©
Ġì§ ģ
h e
Ġí ħĮëŁ¬
Ġíķ Ń
íĺ ķ
Ġìĸ ´ë
ìĽ Į
ì¶ Ķ
Ġëł Ī
Ġë² Ħ
ìĺ ¨
Ġë ī´
ìŀĲ ëĵ¤ìĿĢ
ëĵ¤ ê³¼
Ġíģ ¬
ĠìĤ °
ëĭ¬ ëŁ¬
Ġê³Ħ íļį
Ġì ¡
Ġíķ Ļ
ĠíĶ¼ íķ´
ëŀ ľ
ĠìĿ¼ ë³¸
íĻ ľ
ìĬ ¬
âĢ ľ
íİ ĺ
ĠìĹ Ń
Ġê²ĥ ìĿĢ
ĠìĹ° êµ¬
ÂłĠ ÂłĠ
Ġìŀ Ħ
ì§Ģ ëĬĶ
© ´
Ġì ¢
ëıĦ ë¡Ŀ
Ġíķľ ëĭ¤
Ġì´ Ī
ìł ¸
Ġ1 2
ì ³
ë¥ ĺ
ê »
ĠìĥĿ ê°ģ
Ġìµľ ê³ł
ë¦ ¼
´ëł ¤
ìļ ¸
Ġìĸ ĳ
ĠìĹ ´
í į¼
00 0
Ġ2 0
Ġë³´ ê³ł
ĠëĴ ¤
ëĲĺ ëĬĶ
ìĥģ ìĿĦ
ë ·
ì ±ħ
í ħ
ìĹ Ķ
Ġíķ ¨
Ġê³Ħ ìĨį
ìĿ´ ë²Ī
íķĺ ëĭ¤
ìĬ¤ ëĿ¼
Ġì¡° ìĤ¬
Ġëı Į
Ġë°ľ ê²¬
Ġê·¸ ìĿĺ
ê² ł
ĠìĿ¸ íĦ°
ë¶ Ļ
Ġì½ Ķ
Ġíı¬ íķ¨
ĠìķĦ ìĿ´
Ġì£¼ìŀ¥ íĸĪëĭ¤
ëŁ ½
± Ħ
Ġì¹ ´
¿ ł
ëĿ¼ ìĿ´
Ġíĺ ĲìĿĺ
Ġê²½ ê¸°
ìľ¼ ëĤĺ
ìĹĪëĭ¤ ê³ł
ê° ķ
ĠìŀĲìĭł ìĿĺ
ĠìĦł ê±°
ê» ĺ
Ġì§Ģ ì§Ģ
í Ī¬
§ ë¶Ļ
Ġë³ ´ë
Ġë³´ëıĦ íĸĪëĭ¤
Ġëį §ë¶Ļ
ë° °
ìłķ ë¶Ģ
ì¸ ł
ìĬ¤ëĿ¼ ìĹĺ
Ġì »
Ġê± ´
íĸ ¥
ìļĶ ìĿ¼
Ġë Ĭ
Ġê²½ ìļ°
ëł¥ ìĿĦ
ĠìķĬ ìķĺëĭ¤
Ġì ·¨
ĠìķĦ íĶĦ
Ġëį§ë¶Ļ ìĺĢëĭ¤
Ġì¡ ´
íĺ ĳ
ìĽĲ ìĿĢ
ĠíĬ ¹
ë¦¬ ìĬ¤
Ġ (
ìĥ ī
ëĮĢ ë¡ľ
íĥ Ŀ
ĠìĿ´ë ŀ
ëłĪ ìĿ´
ë¡ľ ìļ´
ĠìĤ¬ ìĭ¤
´ë ¶Ģ
ĠíĻ ĺ
ë¡ Ģ
íĻ ĺ
Âł 200
ëĤ ł
Ġ1 1
ë§ Ĳ
ì§ ¸
Ġê²° ìłķ
ìŀ¥ ìĿĦ
ì ĩ
ë° ķ
ĠíĶĦ ë¡ľ
ĠìļĶ êµ¬
Ġë ¸Į
Ġë° ķ
l e
ìŀĲ ëĵ¤ìĿ´
Ġí ľ
ĠìĦ¤ ëªħ
Ġê ¹
Ĳ ëĭ¤
ìļ ķ
Ġì§Ģ ëıĦ
ë¥´ë ©´
Ġë© Ķ
ĠíļĮ ëĭ´
ë¦ Ħ
ìĺ Ī
ëłĪ ìĬ¤
Ġë° ı
ë³ µ
ìķ ł
´ë į
êµŃ ìĿĢ
ĠêµŃ ìłľ
Ġíķ¨ ê»ĺ
í ħĮ
Ġë³ µ
Ġ T
Ġëª¨ ëĵł
ĠìĿ´ ìľł
ì² ľ
Ġë¯¼ ì£¼
Ġë°© ë¬¸
Ġí Ĩł
âĢ ¦
ĠíĻ ľ
ëĦ Ī
ĠìĿ¼ ë¶Ģ
Ġë¹Ħ ëĤľ
Ġì¤ Ħ
ì¤ Ģ
Ġë¶Ģ ìĭľ
ëĭĪ ìķĦ
Ī Ħ
ìĿ´ ëĬĶ
ìĤ¬ ê°Ģ
ë³´ ëĭ¤
Ġê°Ģ ëĬ¥
ì£¼ ìĿĺ
Ġ S
Ġìļ ´
ìĿ¸ ìĿ´
íķ´ ìķ¼
Ġê²° ê³¼
Ġìĭľ ìľĦ
ì µľ
ë ¨¸
ĠëķĮ ë¬¸ìĹĲ
Ġí ĳľ
ë° ±
i s
.. .
ëŀĳ ìĬ¤
ĠëĨ Ĵ
Ġê·¸ ëĬĶ
ìĽ Ģ
íĸĪ ëįĺ
íĸĪ ìĬµëĭĪëĭ¤
ìĸ´ë Ĥ
Ġíĥ ľ
ì§ ĳ
Ġë¯¸ êµ°
ëŁ ¼
ìĹĲëĶ° ë¥´ë©´
ì £
ëĲĺ ê³ł
Ġëħ ¼
Ġì ¢ħ
Ġëª ĩ
ìł Ī
ìĽĲ íļĮ
íĤ¤ ìĬ¤íĥĦ
ìĽĲ ìĿ´
ì§Ģ ë¥¼
ìĺ ¬
ëı Į
Ġê° Ħ
Ġê± ¸
Ġ1 5
ĠìĺĪìłķ ìĿ´ëĭ¤
ìĭľ íĤ¤
Ġê· ¼
Ġë§ ŀ
ĠíĺĦ ìŀ¬
ìĻ ¸
Ġíĥ Ī
ìŀĲ ìĿ¸
į ¨
Ķ ¨
Ġê² Į
Ġì§Ģ ìĽĲ
ĠìĪĺ ëıĦ
ì° ©
Ġìµľ ê·¼
ìĬ¤ íĦ°
ĠìĿ´ëŀ Ģ
. âĢĿ
ĠíķĦ ìļĶ
ì ºĲ
Ġìĸ ´
Ġíİ ĺ
ìŀ Ī
ĠìŀĪ ìľ¼ë©°
íĥ Ī
¨ ìĿĦ
ìĦľ ëĬĶ
ĠëĮĢ ìĦł
) âĢĻ
ë ĳ
a t
Ġëª¨ ëĳĲ
ê¸° ê°Ģ
Ġì¹ ľ
ìŀħ ëĭĪëĭ¤
Ġì¶ ©
B C
ĠíĹ Ī
ìŀ¥ ìĿ´
ĠìĦ¤ëªħ íĸĪëĭ¤
ìĹĲ ëıĦ
r e
ì§Ģ ê³ł
ëĥ Ĳ
Ġê° ĸ
ĠëŁ ¬
ì§Ģ ëĤľ
ë² Ķ
ì į¨
Ġ o
ì¦ Ŀ
ĠìĦ Ŀ
Ġê¸° ë¡Ŀ
Ġëĵ ľ
¸ ëĭ¤
Ġìł Ĳ
Ġì° ¾
´ëį °
ê² ĥ
Ġ3 0
Ġì ±Ħ
Ġìĸ´ë ĸ
Ġëĭ¬ ëŁ¬
ĠìĿ´ ìĬ¤ëĿ¼ìĹĺ
Ġì²ĺ ìĿĮ
ĠìŀĪ ìĹĪëĭ¤
Ġìłķ ì¹ĺ
ì¡ ´
í Ŀ
ĠìĥĪ ë¡ľìļ´
ëŀľ ëĵľ
ĠìķĬ ëĬĶ
N N
Ġ s
Ġì¢ ĭ
ê¸ ¸
íļĮ ìĿĺ
Ġìķ ł
Ġëĭ¹ ìĭľ
Ġê· ľ
ĠìķĬ ìķĺ
i t
´ë¦° íĦ´
ĠìķĮ ëł¤
ĠìĹ ´ë¦°
ìĩ Ħ
ê ´ĳ
Ġì ¼
ĠìķĬ ìĿĦ
ê²½ ì°°
Ġê°Ĳ ëıħ
Ġíģ °
ĠìĹĨ ëĭ¤
íķ© ëĭĪëĭ¤
ĠëĤ ´ë
ì¹ĺ ë¥¼
ì´ Ī
Ġëĸ ¨ìĸ´
Ġëĵ¤ ìĸ´
ë ¹
ĠìŀĪ ìĬµëĭĪëĭ¤
ìķĪ ìĿĦ
ĠëĤĺ íĥĢ
Ġìļ ©
Ġìĥģ íĻ©
íĶ Į
ê¸ Ģ
ĠìĤ¬ ìĿ´
ĠëĺĲ íķľ
Ġê¸° ìŀĲ
Ġì º
ìĦ ¼
Ġìĺ ¨
Ġì§ Ī
ĠìķĦ ëĭĪ
Ġ íķĺê³ł
ĠíĮ Ķ
ĠëĤ ´ëł¤
ì£ Ħ
ê¸° ìĤ¬
ti on
ë Ĥ¬
Ġë³ ¸
ê¸° ìĹĲ
Ġí Ħ
ì¶ ķ
i c
íĭ Ģ
o u
o m
ĠëĮĢ íĳľ
ì´ Ŀ
ìĽĲ ë¬¸
Ġìĭľ ê°Ħ
Ġì¤ Ģ
ìĪĺ ëĬĶ
Ġì² ł
ĠìĥĿ íĻľ
ìĿ´ ë©°
Ġê³ ³
ë¦¬ ìĿĺ
ĠìŀĪ ìĿĦ
ĠìĨ Ĳ
íı Ń
ëĲĺ ìĸ´
ëĤ ¨
ĠìķĦ ì§ģ
ë¶ Ī
Ġìĥģ ìĽĲìĿĺ
ì½ ©
Ġíķ© ìĿĺ
ª ½
ë³´ ê¸°
ë¶Ģ ë¶Ħ
£ ¨
ê·¸ ëŀ
ê±° ëĤĺ
ĠìĪ ¨
ĠëĮĢíĨµëł¹ ìĿ´
ìĺģ ìĥģ
ì¹ ľ
íĮ ¨
Ġìĭ Ŀ
ĠëĤ ł
íĻĶ ë¥¼
Ġ F
Ġìļ° ì£¼
ìĬ¤ ìĿĺ
ĠìĻ Ħ
ĠìĤ¬ ê³ł
ĠìŀĪëĭ¤ ëĬĶ
ĠíĻķ ìĿ¸
Ġìł ĳ
Ġì§Ħ íĸī
Ġt he
Ġì² Ń
ĠëĶ Ķ
Ġë² Ī
ìľ µ
ìĿ´ ê³ł
ĠìĿ Ģ
ëĲľ ëĭ¤
Ġo f
e d
Ġ1 6
Ġê ¶Į
ìĿ´ ëĤĺ
Ġê°Ģ ì¡±
0 8
ëĬ ĺ
Ġì´Ŀ ë¦¬ëĬĶ
ìłĦ ìĿĦ
Ġë¹Ħ íĸī
ĠíĶĦ ëŀĳìĬ¤
ìŀĲ ë¥¼
ĠìĨ į
ìĬ¤ ê°Ģ
Ġë°Ľ ê³ł
Ġë ¸Ķ
ĠíıŃ íĥĦ
Ġì²´ íı¬
Ġëģ Ŀ
´ë Ĳ
ĠìŀĪ ìĹĪ
ìĦ± ìĿ´
ìĻ Ķëĭ¤
Ġë¬´ ìŀ¥
Ġ M
ëĵ ±
Ġë° ±
Ġ P
į ì½©
ê³¼ ìĿĺ
ĠëŁ¬ ìĭľìķĦ
ĠëĮĢ íķĻ
íĶ ½
Ġìłķë¶Ģ ëĬĶ
ĠëĶ °
Ġìĸ »
´ ī
ì ª½
´ë Ŀ¼
Ġë§Į ëĵ¤
ì» ¤
ĠìĿ´ë Ĥ
ĠêµŃ ë¯¼
Ġë°ľíĳľ íĸĪëĭ¤
Ġìŀ ĺ
Ġê³µ ê°ľ
ìĽ ¨
ĠìĽ Ķ
Ġ I
Ġìķ ķ
ĠìľĦ ì¹ĺ
Ġ1 8
Ġ W
Ġ2 5
ĠíĶ Į
Ġìľł ëŁ½
ë§ ī
Ġë°ľìĥĿ íķľ
ĠìĿ¸ ëıĦ
Ġì¹ ¨
ìķ Į
Ġë² Ķ
Ġ N
ì§ ķ
íķĺ ë©´ìĦľ
ê· ¹
ìŀĲ ìĿĺ
íĺ ¼
ë³ Ħ
ĠìĪ ľ
ë ĺĲ
ìĿ´ ìĬ¤
íı ī
Ġëĭ¤ ìĭľ
Ġ f
ĳ ¸
ê³ ³
Ġì² «
Ġë²ł ëĦ¤
Ġê ´ĳ
ëıĻ ì°¨
íķĺ ìĹ¬
Ġì£¼ ë¯¼
ëłĪ ë°ĺ
ì§Ģ ìĹŃ
ĠíĮ ¨
ĩ ´
ĺ ë¦¬
ìľĦ ìĽĲíļĮ
ìĥ ¤
ĠìĿ´ ìļ©
ê°Ħ ìĿĺ
ĠìĿ´ë ¯¸
Ġì¦Ŀ ê°Ģ
ĠëĲ Ĳëĭ¤
Ġë¶Ģ ìĥģ
ĠìĻ ķ
ìļ ´ëį°
ĠíĮĮ íĤ¤ìĬ¤íĥĦ
ê¸°ìĤ¬ ë³´ê¸°
ê ´
Ġë¹ ł
ĠëĲľ ëĭ¤
Ġë¯¼ì£¼ ëĭ¹
í ĮĢ
Ġ B
ĠëĤ Ļ
in g
Ġì ¿ł
Ġì£¼ ìļĶ
ë· °
ë¹Ħ ìķĦ
ĠëĤ ľ
Ġ1 3
Ġê°Ģ ìļ´ëį°
ëł ¬
ëıĻ ë¬¼
ëĦ ·
ìĦ± ìĿĦ
Ġì¶ ķ
ĠíĦ °
ìĤ¬ ìĿĺ
Ġë¯¸êµŃ ìĹĲìĦľ
ìĹĺ ëĿ¼
Ġì¼ Ģ
í Ĩ
ĠíĻ Ī
ĠìĨĮ ìĭĿ
ĠìĬ¹ ë¦¬ë¥¼
Ġt o
ìĦ¸ ê³Ħ
ì²ĺ ëŁ¼
ìĹĲëĶ° ëĿ¼
Ġ19 9
íķĺ ë©´
Ġëĭ ´
ìłķ ìĿĦ
Ġì¤ĳ ëĭ¨
ëª ©
Ġìľł ìĹĶ
Ġíĸ Ī
Ġëī´ ìļķ
íģ ´
ĠìĨĮ ëħĢ
ë¶ģ íķľ
ë ģ
Ġì £
Ġë°ĺ ëĮĢ
ĠìĤ¬ëŀĮ ëĵ¤ìĿ´
ìĻĢ ìĿĺ
Ġì§ĢëĤľ íķ´
ĠëĤ´ ìļ©
ë ī´
Ġ a
Ġíı Ĳ
ĠíĶĦë¡ľ ê·¸ëŀ
Ġê¸° ìĥģ
Ġê·¸ ë¦¬ê³ł
ëĭ¨ ì²´
Ġë°© ìĨ¡
Ġìŀħ ê³ł
Ġìĺ¬ íķ´
ĠëĦ ĺ
ĠíĬ ¸
ĠìķĬ ìĿĢ
ìĪĺ ìĹĺëĿ¼
Ġíķ´ ê²°
ëı ¼
Ġê° ģ
ìĭľ ì¼
ĠìĺĪ ìĥģ
ê² ¨
´ëı Ļ
ìĽĲ ìĿĦ
Ġëĭ¹ ìĦł
ìĿ¸ ìĿĦ
ì½ ľ
Ġ1 4
ë ¸Ķ
Ń ìĬ¨
Ġë°Ŀíĺ Ģ
ĠìĿĺ íķ´
Ġ c
ìŀ Ķ
ĠìĿ¸íĦ° ë·°
íĮĮ íĬ¸
ĠíĿ ¬
Ġì ĵ
íĻĶ ìĿĺ
ë¦ ´
° ëĭ¤
ĠíķŃ ê³µ
Ġë§Ĳ íķĺëĬĶ
Ġí Ĵ
Ġìĥģ íĥľ
ëĲĲ ëĭ¤ê³ł
Ġíģ ´ë¦°íĦ´
Ġê²½ ë§¤
ë¡ľ ë¶ĢíĦ°
ì Ķ¨
ĠìĿ¸ íķ´
Ġëĭ¤ ìĿĮ
ì³ Ĳ
ëĤĺ ëĬĶ
ëĵ¤ ìĹĲ
íĥĢ ìĿ¸
Ġì¤ĳ ìļĶ
Ġë³´ë Ĥ
Ġë²łëĦ¤ ìĪĺìĹĺëĿ¼
Ġí ĭ
ë¬´ ìŀ¥
ê¸Ī ìĿĦ
Ġë¯¸êµŃ ìĿĺ
ë¦¼ íĶ½
í ħĮëŁ¬
Ġ K
Ġí Ľ
Ġìĭ¤ ìĭľ
ĠìĿ´ëĤ ł
Ġì°¨ ëŁī
ì¹ ¨
Ġìķ¼ ìĥĿ
Ġí ħĮ
ìĬ¤ ë¥¼
Ġë§ ī
ĠíĺĲìĿĺ ë¡ľ
ìľ ¡
Ġëħ¸ ì¶ľ
ëĵľ ëĬĶ
Ġìłķ ë³´
Ġìłķë¶Ģ ê°Ģ
ĠìļĶ ì²Ń
ìĬ¬ ëŀĮ
¨ ¼
´ë ¬
Ġ D
ì³ ¤
ĠìķĦ íĮĮíĬ¸
ìħ ĺ
Ġë £¨
ĠìĿĺ íļĮ
íķĺ ëł¤
êµŃ ìĿĺ
ĠíĻľ ëıĻ
Ġìĸ¸ ê¸ī
Ġ p
i l
ìŀ¥ ìĹĲìĦľ
ìĺ¤ ë°Ķë§Ī
Ġí Ĥ
Ġë°Ľ ìķĦ
ĠìĿĮ ë°ĺ
ĠëĦ ¤
ĠëıĮ ìķĦ
ĠìłĦ ë¬¸
ëª ¸
ìĽĲë¬¸ ê¸°ìĤ¬ë³´ê¸°
ê° ĳ
Ġìł Ī
Ġì ±ħ
ĠìĦł ìĪĺ
ê· ľ
Ġìķ Ķ
Ġíĺ ķ
ĠíĶ¼íķ´ ìŀĲ
Ġì§Ģ ìłģ
ĠëıĦ ìĭľ
´ë ĮĢ
ĠëĮĢ ë¶Ģë¶Ħ
ĠíĪ¬ íĳľ
Ġ L
Ġê¸Ī ìľµ
íħ Ķ
Ġëªħ ìĿĺ
Ġë° Ģ
ìĿ´ëĿ¼ íģ¬
Ġì¶Ķ ê°Ģ
Ġê° Ļ
Ġë³ĳ ìĽĲ
ë° Ģ
ì¼Ģ ìĿ¸
ëĲĺ ì§Ģ
ìĹ ¼
Ġ U
ëĶĶ ìĺ¤
ëĬĶ ëį°
a s
ĠìĹ ħ
Ġë ĪĦ
Ġíķĺ ëĿ½
ê¸° ë¡ľ
ĠìŀĲ ëıĻì°¨
Ġìļ° ëł¤
ĠíĮĲ ë§¤
Ġ1 7
ĠìĤ¬ ì§Ħ
ìľĦ ë¥¼
ĠìĻ¸ êµĲ
Ġì´ ī
ë²Ī ì§¸
ĠìĨĮ ìĨį
ĠìĹ¬ ëŁ¬
Ġìŀ ¡
ê¸° ëĬĶ
ĠìķĦíĶĦ ê°Ħ
Ġìłľ ê³µ
ê°ľ ìĽĶ
íķľ ëĭ¤ê³ł
ê² Ģ
ë¦¬ ìĹĲ
Ġê·¸ ê°Ģ
Ġë°Ľ ìķĺëĭ¤
Ġìĸ ¼
Ġíĸ ¥
Ġë°© ë²ķ
Ġê¹ Ģ
ĠT V
ê°Ģ ëĬĶ
ìºĲ ìĬ¤íĦ°
ëª¸ ìľ¼ë¡ľ
r o
Ġë³Ģ íĺ¸
Ġë ¨¸
Ġê¸°ìĥģ ìºĲìĬ¤íĦ°
íĻ įì½©
en t
ĠíĥĪ ëłĪë°ĺ
k m
ĠìłĦ ìŁģ
ĠìķĬ ê³ł
ĠëĤ ©
Ġíķľ ëĭ¤ê³ł
Ġê³µ íĻĶ
ĠìĹĨ ëĬĶ
ëıĦ ë¡ľ
ê²© ìĿĦ
ĠëĮĢíĨµëł¹ ìĿĺ
Ġê¸ ī
ìł ĳ
ìŀĲ ë¡ľ
êµŃ ìĿ´
ë¶Ģ ìĭľ
ĠìĨĮ ìŀ¥
Ġ in
ìĭ ±
ìŀĦ ìĿĦ
ĠìĹĲ ìĦľ
ĠëĨ į
íķĺ ì§Ģë§Į
Ġìĸ¸ ë¡ł
ĠìľĦì¹ĺ íķľ
´ë ³
ë¬ ´ë¶Ģ
Ġë³´ ìĿ¼
Ġê°ľ ë°ľ
ë· Ķ
ĠìŀĪ ìĸ´
Ġì£¼ ì§Ģ
Ġë³´ ìĹ¬
ĠìĬ¤ ë¦¬
Ġì ¸
Ġìłķ ìĥģ
Ġìĥģ ìĬ¹
Ġëĭ¨ ì²´
´ë¬ ¼
ìĿ´ ì§Ģ
Ġìķ ħ
Ġê°ķ ì¡°
or e
ìĿ´ ìĹĪëĭ¤
ìľ ¨
Ġì°¸ ìĦĿ
Ġê¸° ìĽĲ
ì¼Ģ ëĥĲ
a tion
ê ¹
ëł Į
Ġëį° ë·Ķ
Ī °
ëªħ ìĿĢ
ê´Ģ ìĿ´
ĠìĤ¬ìĭ¤ ìĿĦ
ìĿ µ
ĠíıŃ ë°ľ
ĠìĦ± ê³µ
ìĿ ĳ
Ġëĸ ł
ê° Ī
ĠìĹ¬ íĸī
Ġëª¨ ìĬµ
Ġì£ ½
ìĤ¬ íĥľ
Ġë§¤ ìļ°
ìĿ´ëĿ¼ ë©°
ëłĪìĬ¤ íĥĢìĿ¸
Ġë²Į ìį¨
Ġ E
ìķ ķ
Ġìķ¼ìĥĿ ëıĻë¬¼
ëį ¸
ĠìĺĪ ìķ½
ĠìĪĺ ìĥģ
ĠìľĦ íĹĺ
Ġíŀ Ĳ
ëĤ¬ ëĭ¤
Ġí ļ
ĠìĿ´ë Ł
ìĪĺ ê°Ģ
ìŀ¥ ìĹĲ
ìłĦ ìĹĲ
íĽĦ ë³Ģ
ë¶Ģ ëĬĶ
Ġ1 200
Ġíıī íĻĶ
ìĹ ´
Ġì½ ľ
ìŀ ŃìĬ¨
Ġëĭ Ń
íĸĪ ê³ł
ĠìĽ Į
ĠìĥĿ ìĤ°
ĠìĿ´ ìĸ´
ĠëĤ¨ ë¶Ģ
Ġêµ° ìĤ¬
Ġê³ł ìķĦ
ĠíķĻ ìĥĿ
íĻ ķ
ĠêµŃ ë°©
ĠìĿ´ ë¥¼
Ġìĺģ íĸ¥
Ġìŀ¥ ê°ĳ
Ġíŀ ĺ
Ġë³´ ìķĦ
ê²½ì°° ìĿĢ
ĠíĻĪ ëŁ°
ê²ł ëĭ¤ê³ł
ìŀĪ ëĬĶ
íĤ¤ ëĭĪ
ëĮĢ ë¥¼
Ġ5 0
ĠìĬ¹ ë¦¬
ëıĻ ìĺģìĥģ
Ġê¸° ìĪł
ìĿ´ ìĹĲ
íļĮ ëĭ´
ìĸ Ģ
ĠìľĦ íĺĳ
Ġíķĺ ì§Ģ
ĠìĦĿ ë°©
ìĭ Ń
ë¦¬ ì¹´
Ġ2 4
ì ¿ł
ĠìĨĮìŀ¥ íĴĪ
í Ĥ¬
Ġë³ ¼
ĠìĿ¸ ìłķ
Ġíĥ Ħ
ĠíĹ ¤
ëĵ Ŀ
ĠìĹ° ë°©
ìĹħ ìĿĦ
Ġìµľê³ł ê°Ģ
Ġìļ° ë¦¬
Ġìĵ °
Ġê³łìķĦ ìĽĲ
ê¸° íĽĦë³Ģ
ìĪĺ ìŀĶ
Ġë³´ íĺ¸
Ġì² ľ
ë¥´ ëĬĶ
ë¥ ł
Ġê°ľ ëıĦ
Ġíĺ¸ ì£¼
ìĺ¨ ëª¸ìľ¼ë¡ľ
d e
ìĻ ķ
Ġë¹Ħ íĤ¤ëĭĪ
t h
æ Ī°
ĠëĤ´ëł¤ ìķ¼
C NN
Ġë°Ľ ìĿĢ
´ë °
ëł¥ ìĿ´
Ġëį° ìĿ´
Ġê°ľëıĦ êµŃ
ì£¼ ë¬¸
Ġê´Ģ ë¦¬
ìĤ¬ ìĿ¸
Ġìŀĳ ëł¬
ĠìĿ´ ìĬ¬ëŀĮ
ìĭł ìĪĺ
íĭ ´
1 0
W BC
ëŀĺ ìļĶ
ìĽĲ ëĮĢë¡ľ
íĬ ¼
ìľĦ ëŀĺìļĶ
ê²½ ìľł
ì¶Ķ ìĭłìĪĺ
Ġë²łëĦ¤ìĪĺìĹĺëĿ¼ æĪ°
ĠìĬ¤ë¦¬ ëŁ°
Ġê¸°ìĽĲ íķ©ëĭĪëĭ¤
ĠìĺĪìķ½ ì£¼ë¬¸
ĠëĭŃ ìŀ¥
ê¸°íĽĦë³Ģ íĻĶìĿĺ
ĠìĿ¸íĦ° ëĦ·
ĠìĤ¬ ë¬´
íĸĪ ì§Ģë§Į
Ġê´Ģê³Ħ ìŀĲëĬĶ
Ġê±´ ê°ķ
Ġìĺ¬ ë¦¼íĶ½
ìĹĪ ëįĺ
an d
Ġëıħ ìĿ¼
Ġì ºĲ
ì§Ģ ìĹĲ
ë° Ľ
Ġì§Ģìłģ íĸĪëĭ¤
ì¹ĺ ëĬĶ
ìĹ Ħ
ëł ¸ëĭ¤
ìĹĲìĦľ ìĿĺ
Ġ2 2
ëĲĺ ìĹĪëĭ¤
ê¶Į ìĿĦ
Ġì¸ ¡
Ġ2 7
Ġíĭ °
Ġíĺĳ ìĥģ
ì¤ĳ êµŃ
ĵ ¨
ëĭ¹ ìĿĺ
êµ° ìĿĢ
Ġìŀ ł
íĤ ¨
Ġëħ¼ ìĿĺ
Ġë³´ ìĿ¸
ĠìĿ¸ ê·¼
ĠìĿĺ ìĽĲ
ìŀ Īëĭ¤
Ġìłķ ì±ħ
Ġê³ ¨
Ġê²½ ê³ł
ĠìĹĨ ëĭ¤ê³ł
ëĳ Ķ
í ľ
Ġ2 1
Ġì´Ŀ ë¦¬
Ġìµľ ìĨĮ
Ġíİ ¸
Ġíľ ´
ì º
Ġ w
ìķ Ļ
¿ Ĳ
ĠìĿ¸íĦ°ë·° ìĹĲìĦľ
Ġë ĳ
ëĮĢ ìĿĺ
Ġ H
ĠìĿ´ ìĹĲ
ĠìĿ´ë ģ
ĠìĽ ¹
Ġì¤Ģ ë¹Ħ
ëĺĲ íķľ
Ġë³´ ìķĪ
o l
Ġ2 3
Ġê°Ģ ì§Ħ
ëĦ Ĳ
Ġìĭ ¶
âĢ ĺ
ìĿ¸ íĬ¸
Ġìĸ´ëĸ ¤
Ġê¸ ´
Ġ b
ĠìĿ´ ë¦Ħ
Ġê± ´ë¬¼
ĠìĤ´ íķ´
ìŀĲ ëĵ¤ìĿĦ
ê°ľ ìĿĺ
í ĵ¨
ĠíĶĦë¡ľê·¸ëŀ ¨
Ġ1 00
Ġìłľ ìŀĳ
Ġë°Ľ ìķĺ
Ġë²ł ìĿ´
Ġìļ© ìĿĺ
ìĺģ êµŃ
Ġëª °
ĠìĿĢ íĸī
êµ° ìĿ´
íķĺê¸° ë¡ľ
ĠìŀĪ ëıĦë¡Ŀ
ĠìĿ¸ ì§Ī
Ġìĸ ´ë¦°
Ġê´Ģ íķľ
r a
´ íĵ¨
Ġë ŀ
´íĵ¨ íĦ°
ĠìŀĪ ëįĺ
ìĭĿ ìĿĦ
íİĺ ìĿ¸
ë¶Ģ ë¥¼
Ġìĺ¤ íĽĦ
ìĤ¬ ìĹĲ
íķĺëĬĶ ëį°
Ġê³µ ìĭĿ
Ġê³µ íķŃ
ìĿĮ ìĿĦ
Ġê´Ģ ê´ĳ
Ġì° ©
ëħĢ ëĬĶ
ĠíĤ ¤
I N
Ġëħ¸ ëıĻ
íĴ į
Ġì§Ģ ê¸Ī
ĠíĮĶ ëłĪìĬ¤íĥĢìĿ¸
ìĦ¸ ë¥¼
ĠìĦ± ëªħ
Ġê²ĥ ìĹĲ
ë¬¸ ìĿĦ
Ġêµ¬ ì¡°
ti c
ì ¢
íķ Ħ
ìĭł ìĿĢ
Ġì» ¤
Âł200 5
ìĭ± íĦ´
ëıĦ ë¥¼
ê´Ģ ê³Ħ
ì¸ µ
ĠìķĪ ìłĦ
Ġì¶ľ ìĭł
Ġ' '
ëĮĢ ê°Ģ
Ġì° ½
Ġìľł ëªħ
Ġ G
ìŀ¥ ìĿĺ
ì§Ģ ê°Ģ
ë§ ¹
Ġê³ł ìľĦ
ĠëıĦ ì°©
ë£Į ë¥¼
ì§Ģ ë§ī
ìŀĲ ìĻĢ
Ġëħ¸ ëł¥
íļĮ ê²¬
Ġ /
ìĦľ ë¥¼
ëĿ¼ ìļ´
Ġì¡° ì§ģ
íĥĪ ë¦¬ìķĦ
1 9
ëĭ¤ ëĵľ
´ë Ł
ìĪĺ ë¥¼
Ġ200 6
Ġê°ĸ ê³ł
ĠëĤ© ì¹ĺ
Ġë° ĸ
ĠëıĦ ìĽĢ
Ġì´ī êµ¬
ë ĪĦ
ê° ĻìĿĢ
Ġê² ©
ìĿ´ëĿ¼ ëĬĶ
ë¦ Ń
ìĤ¬ ìĿ´íĬ¸
ìļ° ë¦¬ëĬĶ
íı °
ìĦł ìĿĦ
ìĸ´ëĤ ĺ
ìĸĢ ë§Ī
Ġìĺ¤ ëĬĶ
Ġíķĺ ëĤĺ
íĨ ¤
ê°Ģ ëĵ¤ìĿĢ
Ġê· ¹
u s
ë¡ ¬
ì§Ģ ì§Ģ
ëĮĢ íķľ
ëıĻ ìķĪ
Ġê¸ ¸
Ġë¬¸ìłľ ë¥¼
Ġê³µ ëıĻ
ĠìĬ¤ íĥĢ
ë Ĩ
Ġí ĮĢ
ĠìŀĲ ìľł
Ī Ī
Ġì§Ģ êµ¬
ë² Į
Ġì°¨ ì§Ģ
c e
Ġì ĩ
ìŀ ¡
êµŃ ìĿ¸
Ġ4 0
i g
° ëįĺ
ê¸ ´
Ġë°ľ ìĸ¸
ë¥ Ļ
Ġ R
Ġë§ ¥
íļĮ ë¥¼
Ġê±° ìĿĺ
ĠëĨ ĵ
ë ķĮ
íķ µ
ëħ Ĳ
ê·¸ ëĭ¤ëĵľ
ëħĦ ê°Ħ
Ġëª© íĳľ
Ġëĸ¨ìĸ´ ì§Ħ
ìķĦ íĶĦ
Ġì ī
íı¬ ëĭĪìķĦ
ĠëĬ Ĳ
Ġê°ķì¡° íĸĪëĭ¤
Ġê²½ ìŁģ
ìłĦ íŀĪ
ë²ł ìĿ´
ìķħ ê´Ģ
íĸĪ ìľ¼ëĤĺ
Ġ &
Ġ2 6
Ġì¶ľ ìĹ°
Ġê³¼ íķĻ
ëģ ¼
Ġí ħ
íĺ Ģ
ìĹħ ì²´
ë ´ī
ìĬ¤ íĥĢ
Ġê²½ì°° ìĿĢ
ĺë¦¬ íı¬ëĭĪìķĦ
íķĺ ëĭ¤ê³ł
ìĿ¼ ë³¸
ëħ ¼
ĠìŀĲ ìĤ´
Ġë¯¸êµŃ ìĿ´
íĺĦ ìŀ¬
Ġìłķë¶Ģ ìĿĺ
ê°Ģ ì§Ģ
ĠìĹ¬ ë¡ł
Ġê±° ëŀĺ
ìĭ¬ ìĿĦ
Ġë°ķ ìĤ¬ëĬĶ
ë§Ī ìĬ¤
ĠëıĻ ë¬¼
Ġìļ° ìĬ¹
Ġë§İ ìĿ´
Ġì¶© ëıĮ
Ġê¸°ìŀĲ íļĮê²¬
Ġìĺ¤ ìłĦ
J O
Ġë§Ī ìĿ´
ĠìĻ Ģ
Ġ m
Ġëı Ī
Ġíģ¬ ë¦¬ìĬ¤
ìĹĲìĦľ ëıĦ
Ġíĺ ¼
Ġì¡° ì§Ģ
1 1
íķĺ ëıĦë¡Ŀ
Ġê°Ģ ê²©
Ġìĺ¤ ëĬĺ
Ġë§Ī ì§Ģë§ī
ì¹´ ìĹĲ
Ġì°¸ ìĹ¬
Ġì» ´íĵ¨íĦ°
ĠìķĬëĬĶ ëĭ¤
Ġê·ľ ëª¨
Ġë¶ģ ë¶Ģ
í ĳ¸
Ġìĭľ ë¯¼
Ġë²Ķ ì£Ħ
ìĨ Ĳ
íŀ Į
ëĵ¤ ëıĦ
Ġë¶Ī ë²ķ
200 5
Ġìŀ¬ íĮĲ
ìĿĺ ë¥¼
ê· ł
ĠíķĻ êµĲ
5 0
í ĩ´
ĠìĤ¬ íĥľ
Ġ2 9
ĠìĦľ ìļ¸
ĠìŀĲìĭł ìĿ´
Ġë¹ĦëĤľ íĸĪëĭ¤
ľ »
ĠìĤ¬ íļĮ
Ġê²° íĺ¼
IN S
ĠìĹ° ìĦ¤
Ġíĸī ëıĻ
Ġìļ´ ìĺģ
ê²ĥ ìĿĢ
JO INS
Ġìŀ ĥ
Ġë° ¤
íĸĪ ìĹĪëĭ¤
ì¡° ìĤ¬
Ġìŀ¥ ê´ĢìĿĢ
Ġì°¸ ê°Ģ
u r
ĠìĿ´ ëĬĶ
Ġë§Ī ìĿĦ
Ġëª» íĸĪëĭ¤
ê¸° ëıĦ
Ġë¶Ģ ìĿ¸
ëĭĪ ëĬĶ
Ġê²½ì°° ìĿ´
ĠëŁ °ëįĺ
1 2
ĠìŀĪ ì§Ģë§Į
Ġì²ĺìĿĮ ìľ¼ë¡ľ
Ġê³µíĻĶ ëĭ¹
ëĤĺ ëĿ¼
Ġê°Ĳ ìĨĮ
e t
ë² ¨
Ġì¦ ī
Ġê¸Ī ì§Ģ
ĠìĿ´ ìķ¼
ĠìĪĺ ê°Ĳ
ĠìĿ¸ ìĩĦ
ëĲĺ ìĹĪ
ìľ¼ë¡ľ ë¶ĢíĦ°
Ġë°Ŀ íŀĪ
ĠìķĦ ìĭľìķĦ
Ġìľł ì§Ģ
Ġìĭ¬ ê°ģ
Ġê±° ë¶Ģ
Ġë§Į ìĹĲ
ĠíĥĢ ìŀĦ
ìĥ¤ ëĿ¼
ë³ ¼
Ġë°Ŀíĺ Ķ
ìĿ´ ëŀĢ
ĠíĮĲ ê²°
Ġì¢ĭ ìĿĢ
ë¹ Ī
ìĤ¬ ìĿ¼
Ġì¹ľ êµ¬
Į ë¦¬
Ġ2 8
ìĿ´ ë¥¼
Ġê³µ ê¸ī
ê· Ģ
ì¼ ĵ
Ġë¶Ī êµ¬
ë¯¼ ì£¼
ĠíĦ° íĤ¤
Ġìļ ´ëıĻ
ì¹ĺ ê°Ģ
ê´ ´
íĸĪëĭ¤ ëĬĶ
ìłľ ë¥¼
ĠìĤ ¼
Ġ200 5
Ġëıħ íķ´
u n
ìĬ Ī
ìĿ´ ìĻĢ
ìĤ¬ íļĮ
ĠìĿ´ìĥģ ìĿĺ
ëŀ į
ĠìĹĨ ìĿ´
Ġìķ½ ìĨį
Ġë¯¼ ê°Ħ
ĠìĽ¹ ìĤ¬ìĿ´íĬ¸
Ġê¸° ìĹħ
Ġì¹ ´ë
Ġë¶ģíķľ ìĿĺ
Ġì¤ĳìļĶ íķľ
Ġë ĪĪ
ĠíĨµ ê³¼
Ġìķŀ ìĦľ
ì§Ģ êµ¬
Ġë§ ¡
ëŁ ´
íĽĦ ë³´
Ġë³´ëĤ ´
Ġìķŀ ìľ¼ë¡ľ
ê·ľ ëª¨
Ġëĭ¹ êµŃìĿĢ
ê°Ĳ ìĿĦ
ì¢ Į
ìĿ´ ê°Ģ
ë¡ ¤
ĠìłĦ ìĹĲ
ĠíĪ¬ ìŀĲ
ì³¤ ëĭ¤
ĠìĦ±ëªħ ìĹĲìĦľ
ìĦ¤ ëªħ
ì¤ Ħ
e l
ëĭ Į
ìĿ¸ ìĿĺ
ĠìĪĺ ë°±
ëĵľ ìĿĺ
ĠêµŃ ê²½
Ġë°Ķ ê·¸ëĭ¤ëĵľ
Ġë¶ģíķľ ìĿ´
ìĤ¬ ìĻĢ
ìĥ Ī
ì¹ ł
Ġë¶Ģ ì¡±
¨ ¹
ëĭĪ ìĬ¤íĥĦ
ĠìĨĮ ë¹Ħ
Ġíĺ¸ íħĶ
Ġë³´ìĿ¸ ëĭ¤
e c
Ë Ŀ
ê³ ¨
Ġëĭ Ī
Ġëıħíķ´ ìĦ¤ëªħ
ì¹´ìĹĲ ëĭ¤
i d
ĠëĮĢ ìĥģ
ìŀĲ ëĵ¤ìĿĺ
ëª ¬
ĠëĤ ®
ĠìĽ Ģ
ĠC NN
t er
ĠìĿ´ë £
ĠìĿ¼ ìľ¼
Ġë¹ Ī
Ġê²Ģ ì°°
ĩ Į
Ġì£¼ ëĳĶ
ë£ ¹
ĠìĤ¬ëŀĮ ëĵ¤ìĿĢ
ĠíĻĺ ê²½
Ġë²łìĿ´ ì§ķ
ĠìĿ´ ëĵ¤
ĠíĻ į
Ġf or
Ġì§Ģ ë°©
ëł ¸
ĠìłĦ ë§Ŀ
íĬ¸ ëĬĶ
Ġì§ ķ
ĠëĤ¨ ìĦ±
ĠíĹ ¬
ĠíĻķ ìĭ¤
ìĽĲ ëĵ¤ìĿ´
ĠìĤ¬ë§Ŀ íĸĪëĭ¤
ëĬ Ĳ
Ġêµ¬ ìĦ±
Ġë© ´
íħ ľ
8 0
Ġê¸° ëĮĢ
ĠìķĮ ê³ł
ĠíĺĦ ì§Ģ
ìĥ¤ëĿ¼ íĶĦ
© Ķ
ë ¨¼
íķľ êµŃ
ì£¼ ëĬĶ
S A
ê°Ģ ë¥¼
ëĿ¼ ìĿ¸
Ġê¸° ìĨĮ
ìĿ¸ ëĵ¤ìĿ´
ĠìĹŃ íķł
ëħĦ ìĹĲ
íĤ ¹
ĠíļĮ ìĤ¬
Ġ200 8
ĠK ore
ìĿĢ íĸī
ìķĪ ìĹĲ
Ġëª ¸
ĠìĽĢ ì§ģ
Ġìµľ ì´Ī
ì°¨ ë¡Ģ
Ġë°± ìķħê´Ģ
Ġê ¹Į
ĠìĹ Ħ
ë§Į ëĭ¬ëŁ¬
Ġë¹Ħ ìļ©
ì¡Į ëĭ¤ê³ł
ĠëĲĺ ëĬĶ
ìµľ ê·¼
ëŀ µ
Ġê·¸ ë¥¼
ĠíıŃ ëł¥
a m
o t
r es
ê°Ģ ê°Ģ
ĠëĿ¼ ìĿ´
¬ íķľ
ëŁ¬ ë¦¬
Ġê²ĥìĿ´ ë©°
ĠìĦ± ëªħìĿĦ
ĠìĦľ ë¹Ħ
İ ìĿĢ
ê°Ģ ëĭĪìĬ¤íĥĦ
ê¸° ìĿĺ
Ġë¯¸ ìĤ¬ìĿ¼
¤ Ħ
ìĻ Ħ
ĠíļĮëĭ´ ìĿĦ
ëĭ¤ ë¥¸
ĠëĦ Ī
Ġê³µê²© ìĿĦ
ĠìłĦ íĪ¬
ĠìĹ° íķ©
Ġë§¤ ì¼ĢìĿ¸
Ġê· Ģ
ĠìĤ¬ë§Ŀ íĸĪëĭ¤ê³ł
ë§ ģ
ê¸° êµ¬
Ġíķĺ ë£¨
ĠëĨ Ģ
íķĺ ìŀĲ
ë§ İìĿĢ
Ġê° Ī
ĠìķĦ ëĭĪëĭ¤
Ġë§Ĳ ìĿĦ
Ġë°ĺ êµ°
ëĥ Īëĭ¤
Ġë²Ī ì§¸
ĠíĿ¬ ìĥĿ
Ģ ë¡ľ
ìĿ´ ëŁ¬
ë§ ¨
ìĽĲ ìĹĲ
ìĽĲ ëĵ¤ìĿĢ
Ġìłķ ëıĦ
íĸĪ ìĿĦ
ìĦ¸ ìĿĺ
ĠìĽĲ ë¬¸
Ġì§ģ ìłĳ
íĿ Ĳ
Ġìĺģíĸ¥ ìĿĦ
ì ī
ëĿ¼ ëıĦ
ìŀĲ ëĵ¤ìĹĲê²Į
ì¸¡ ìĿĢ
Ġë ¹Į
íĬ¸ ë¥¼
Ġê²ĥìĿ´ ëĿ¼ëĬĶ
ìĪ ľ
ĠìĽĮ ìĭ±íĦ´
Ġìĩ ¼
Ġë¶Īêµ¬ íķĺê³ł
Ġë¬¸ìłľ ê°Ģ
íĺ ¹
Ġì¡° ì¹ĺë¥¼
ìĺĢ ëįĺ
íı¬ ìĿ¸íĬ¸
ìĬ¤ íħľ
ĠíĹ Į
Ġëª¨ìĬµ ìĿĦ
ĠìĨĮ ìľł
ĠëĶ ¸
ĠíĬ¹ ë³Ħ
ĠëĨĴ ìĿĢ
ĠìĿĺ ê²¬
ar tic
Ġê°ĢëĬ¥ ìĦ±ìĿ´
Ġí į¼
ë¥´ ì½Ķ
Ġìŀ¥ ê´Ģ
íķĺ ëįĺ
ìļ ±
ĠìĿ¸ ìļ©
ìłĲ ìĿĦ
artic le
N A
Ĭ ìĿĢ
ê·¸ ëĵ¤ìĿĢ
Ġë¯¸ ìĸĢë§Ī
Ġê¸° ê°Ħ
íı ´
Ġìĭł ë¬¸
ĠìĹŃ ìĤ¬
ĠëĬ ĺ
ĠìķĮëł¤ ì¡Įëĭ¤
ìĹ Ĩ
ĠìĿ¸ íķľ
ì ±Ħ
ĠìķĦ ë²Ħ
Ġê·¸ ëħĢ
íŀ Ĳ
Ġë¬ ´ë
Ġë°Ľ ìĿĦ
ĠìĤ¬ë§Ŀ íķľ
Ġì§Ģ ëĤĺ
Ġë³Ģ íĻĶ
Ġìº ĺë¦¬íı¬ëĭĪìķĦ
Ġì Ķ¨
Ġë ´ī
ĠìĿ ĳ
ëĲĲ ìľ¼ë©°
Ġì§ĢìĹŃ ìĹĲìĦľ
ìĿ´ ìĸ´
ìķ ŀ
Ġìķ ¤
ìĤ¬ ê´Ģ
ĠìĿ´ íĥĪë¦¬ìķĦ
Ġìĥ ¤
ì° ¸
Ġë°ľ ìĤ¬
Ġê°ľ ìĿ¸
ì ·¨
Ġ h
ìĭľ ì½Ķ
ë¶Ģ ê°Ģ
ìĺ¤ ëĬĶ
ħ Ħ
Ġë ¿Ĳ
ë¦¬ ëĭ¤
ëĿ¼ ë©°
ê·¸ ìĿĺ
ê·¸ ëħĢëĬĶ
ëĮĢ ìĹĲ
Ġê°ķ ëł¥
Ġíķµ ë¬´
a y
íķ´ ìĦľ
ì¦Ī ëĬĶ
Ġë ľ»
ë¦¬ ìĹĲìĦľ
Ġë³ Ħ
Ġë§Ī ëł¨
Ġì½ ĺ
Ġë°ľìĥĿ íĸĪëĭ¤
Ġê²ĥ ìŀħëĭĪëĭ¤
Ġì¤ĳ ìĭ¬
ìĭł ìĿ´
ë¹Ħ ëĵľ
Ġìµľ ëĮĢ
Ġê°ľ ìµľ
Ġíİ ¼
Ġë²Į ìĸ´
Ġê³¼ ìłķ
ìĤ¬ ìłĦ
ëĮĢ ëĬĶ
ĠëĲ Ĳ
Ġ6 0
Ġê°ķ íĻĶ
ì» µ
Ġí ĳ¸
ìĽĲ ìĹĲìĦľ
ĠìŀĪ ê³ł
ëĮĢ íĨµëł¹
ìĭł ìĿĦ
Ġë ¨¹
êµ ´
ëĵľ ë¦¬
Ġë§Ĳ íĸĪìĬµëĭĪëĭ¤
Ġìĸ ´ëł¤
ĠëĮĢíĨµëł¹ ê³¼
Ġì¶Ķ ìłķ
Ġëıħ ë¦½
ĠìłĦ ì²´
ìĻ Ķ
ĠíĮ ¬
a d
Ī ëł¨
Ġí ĩ´
ĠìĤ¬ ìļ°
Ġìľł ê¶Į
ĠìķĬìķĺ ëĭ¤ê³ł
ķ ìĭľì½Ķ
ê° Ķëĭ¤
ê·¸ ë¦¬ê³ł
Ġì§ĢëĤľ ëĭ¬
ĠìĹĨ ìĹĪëĭ¤
íĴĪ ìĿĦ
T he
Ġë ¯
ëĵľ ê°Ģ
íĮ Ķ
âĢĻ âĢĻ
ĠíļĮ ìĿĺ
ë²ł íĬ¸
ĠíıĲ ìĩĦ
ê² ¼
ë§ ¥
Ġìłľ ì¡°
Ġë¬¸ìłľ ìĹĲ
ìĭľ íĤ¬
ĠìĿ¼ ë°ĺ
ĠìĹ¬ ìŀĲ
Ġì¶ľ ìłĦ
Ġì§ĢìĹŃ ìĹĲ
Ġê´Ģëł¨ ëĲľ
Ġê³Ħíļį ìĿĦ
ĥ Īëĭ¤
ìĿ¸ ëıĦ
ìĬ¤ ìĻĢ
ìħ Ķ
Ġê°Ģ ìŀĲ
ĠìĦł ê³ł
ĠìĻ Ķëĭ¤
ĠíĺĲìĿĺ ë¥¼
Ġìº ł
íľ ĺ
ëĭ µ
Ġê² ª
ìĬ¤ ì¹´
ë¹Ħ íĸī
ĠëĤĺ ëĿ¼
âĢĻ (
ĠìķĮ ì¹´ìĹĲëĭ¤
Ġì´Ŀ ë¦¬ê°Ģ
ĠìĿ´ëŁ ¬íķľ
ëł ĩ
íļĮ ìĹĲìĦľ
ĠìĦł íĥĿ
ì» ´
Ġë²Ħ ëĿ½
ëĿ¼ìĿ´ ëĤĺ
Ġê±´ ìĦ¤
c om
s t
ë¬¼ ìĿĦ
ĠìĹ´ ë¦¬ëĬĶ
ìĿ´ ìŀĲ
ĠìĹ° ê¸°
ìĦ¼ íĬ¸
Ġíļ ¨
Ġì§Ģ ì§Ħ
ëį ´
Ġì£¼ íĥĿ
ĠìĬ Ī
ĠìĪĺ íĸī
ĠìŀĪ ê²Į
) ,
ìłľ ë¡ľ
Ġë³´ ëĭ¤
Ġìłľ ìķĪ
ĠíĥĢ ê³ł
íķ ĳ
ìłĦ ìĹĲìĦľ
ë°Ķ ëħ¼
íĹ Ī
ĠíķĦìļĶ íķľ
Ġëĭ´ ëĭ¹
ìĭľì¼ °ëĭ¤
Ġë¯ ¿
ìĹ° êµ¬
íķľëĭ¤ ëĬĶ
Ġë³´ê³ł ìĦľ
ĠìĪĺ ì²ľ
ĠìĿĺ íķĺë©´
Ġìŀħ ìŀ¥ìĿĦ
Ġìĺ¬ ëĿ¼
ĠêµĲ ìĪĺëĬĶ
ĠëĤ´ë ħĦ
ìĦ¼ íĦ°
ì ģ
íĺ ģ
ĠìĦł ìĸ¸
Ġ200 4
ĠëįĶ ìļ±
Ġìķ¼ ëĭ¹
Ġê¸°ìŀĲíļĮê²¬ ìĹĲìĦľ
Ģ ëĭ¤
Ġì ±
ĠìłĦ ìĦ¸ê³Ħ
Ġìĭľ ëıĦ
Ġìŀ¬ ê°ľ
c h
ìĿ´ ëĵ¤ìĿĢ
Ġëĭ¤ ìĿ´
Ġë ĩĮ
ìŀĲ ëĵ¤
ëŀ Ĳëĭ¤
ĠìŀĪ ìĹĪëĭ¤ê³ł
ìľĦ ìĹĲ
ë¬´ ë¥¼
ìĹĪ ìľ¼ë©°
Ġì¦Ŀ ê±°
¨ ë¦¬
ìĿ´ ë¡ľ
íķĺ ê²łëĭ¤ê³ł
´ë ŀ
ëħĦ ê¹Įì§Ģ
ĠëĤ¨ ìķĦ
ĠëķĮ ë¬¸
Ġë¶Ħ ìĦĿ
» ê²Į
ì ¿
ëĬĶ ì§Ģ
ë¡ Ń
ë¡ľ ë¥¼
ĠìĪĺ ì¤Ģ
ĠìĿ´ë£ ¨ìĸ´
Ġ and
íĥ ķ
Ġê²½ ìĦł
ìļ° ì£¼
Ġ3 1
íķĻ êµĲ
ìĹ° íķ©
Ķ Ķ
ìĽ ł
Ġì£¼ ë³Ģ
ìĨĮ ë¥¼
ì¦ Į
´ëĲ ľ
Ġë§Įëĵ¤ ìĸ´
ì Ķ
ìĬ¤ ìĹĲ
ìĬ¤ ì½Ķ
ĠíĻķ ë³´
v er
ì¹ ¸
ë§Į ìĹĲ
ĠíĸĪëĭ¤ ê³ł
ìĿ¸ ëĵ¤ìĿĢ
ĠìĬ¤ íİĺìĿ¸
Ġê±° ì£¼
ìĸ´ëĤ ľ
Ġì¹ ¼
ìķł ëĤĺ
ĠëĤ¨ ìŀĲ
ìĿ¼ ë¶Ģ
Ġíı ´
Ġì¡° ìĤ¬ë¥¼
Ġíķ´ ìĻ¸
ĠìĤ¬ëŀĮ ìĿ´
ĠíĻĶ ìŀ¬
Ġ n
ëĿ¼ ì§Ī
ĠìľĦ ìĽĲíļĮ
íĮĮ íĤ¤ìĬ¤íĥĦ
ĠìĿ´ë ¤Ħ
ĠìĿĺ ë£Į
íĶĦ ëĬĶ
ëĳĲ ê³ł
Ġë°° ìļ°
Ġì°¾ ìķĦ
į ìĤ¬
ìĿ´ ìĬ¤ëĿ¼ìĹĺ
Ġë§ ¨
ĠìĿ´ ê³³
ĠìķĪ ë³´
ë¡¬ ë¹ĦìķĦ
i m
ë ¹Į
ĠìĹĲ ëĦĪ
Ġì¦ Ĳ
Ġëģ Į
ë§Į ìĿ´
Ġìĭľ ìĦ¤
ĠìŀĲ ê¸Ī
ĠíĻ ©
ĠëĤ¨ íİ¸
o p
ĠìĿ´ë ı
ĠìĹ¬ ê°Ŀ
ìĬ¤ íģ¬
ĠìĦ ¼
ìļ° ë¦¬
ĠêµĲ ìľ¡
ĠìĿĮ ìķħ
ĠíĶ¼íķ´ ë¥¼
h t
Ġë ´
ìłģ ìĿ´
íģ ¼
ĠìĿĺ ë¯¸
ĠíļĮ ë³µ
Ġìĸ´ëĸ »ê²Į
3 0
Ġì ħ
´ë Ĥ
ìļ ´ëıĻ
ĠìķĦ ì¹¨
ĠìĤ¬ê±´ ìĹĲ
ĠëĮĢìĦł íĽĦë³´
ĠíĽ Īëł¨
Ġê¹Į ì§Ģ
ĠìĿ´ëı Ļ
ëĬĶ ëĭ¤
ĠìĤ¬ ìĥģ
ìłķ ìĹĲ
Ġíķ ´ë³
Ġëªħ ìĿ´
ĠìĺĪìłķ ìĿ´ëĿ¼ê³ł
ĠíĴ Ģ
Ġìłķë³´ ë¥¼
Ġëĳ ĺ
ĠìĹ Ķ
ĠìłĦ ëĭ¬
ìłĦ ìĿ´
ĠìĿ¼ ìĿĦ
íĹ ¤
ëį° ìĿ´
ìĬ¨ ìĿĢ
ĠìĿ´ìľł ë¡ľ
Ġê²Į ìŀĦ
Įë¦¬ ìĹĦ
ìĤ¬ ê±´
Ġìĭľ ìĬ¤íħľ
ì° ¬
ë²Ħ íĬ¸
ĠíıŃíĥĦ íħĮëŁ¬
ĠìĿ´ëģ Į
ëĭ¹ êµŃìĿĢ
Ġë¯¸êµŃ ê³¼
ĠìĽ ¨
ĠìĦĿ ìľł
ëĤĺ ëĭ¤
ë¦¬ ëħ¸
ĠëĤ ´ëł
Ġëĭ µ
ë¶Ģ ìĿĺ
ëĵľ ë¡ľ
Ġì° ¬
Ġìłľ ê¸°
ìĦ¸ ëł¥
Ġíĥ ĳ
ĠìľĦ ìĽĲ
Ġë³´ ìĺĢëĭ¤
ìĸµ ëĭ¬ëŁ¬
Ġìĭľìŀĳ íĸĪëĭ¤
ëĳ ĺ
Ġìŀĳ ìĹħ
Ġíľ ´ëĮĢ
2 0
A P
Ġìĭľ ìŀ¥
Ġê´Ģ íķł
Ġì±ħ ìŀĦ
Ġ 0
íķĺ ìĿ´
ì¼ ľ
ĠíĶĦ ë¦¬
íĶ¼ ìĸ¸
ĠìķĦíĶĦ ê°ĢëĭĪìĬ¤íĥĦ
ĠìĿ´ ìłĦ
íĶĦ íĬ¸
ë¬´ íĺĦ
ìĺģ íĻĶ
ĠëĺĲ ëĬĶ
Ġì¹ĺ ë£Į
ì§Ģ ìĿĺ
êµŃ ìłľ
ĠìĪĺ ìĪł
ìĸ´ ê°Ģ
Ġíķ´ ìķĪ
Ġ19 8
ĠìĹŃ ìĭľ
Ġì§ĢëıĦ ìŀĲ
Ġìĸ´ë¦° ìĿ´
Ġìŀ Ķ
íĬ¸ ë¡ľ
ĠìĿ¸ ê¶Į
Ġìĸ µ
Ġë¬´ ìĥ¤ëĿ¼íĶĦ
ĠìŀĲìĭł ëĵ¤ìĿĺ
Ġìĸ¼ ë§Ī
o w
Ġ d
ĠìłĦ íĻĶ
ì¹ĺ ê³ł
íĹ Į
ìĸµ ìĽĲ
ìĤ¬ ê³ł
ëħĦ ëĮĢ
Ġìłľ ì¶ľ
Ġê°Ĳ ìĹ¼
ĠìĤ´ ê³ł
ĠìĥģìĽĲìĿĺ ìĽĲ
ìĶ¨ ëĬĶ
ë¡ľ ë¦¬ëĭ¤
ìŀĲ íļĮëĭ´
ìĭľ ëĬĶ
Ġìĭ ¸
ëĦ¤ ìĭľìķĦ
ĠìĤ° ìĹħ
Ġì²ł ìĪĺ
ê¹ Ģ
v e
Ġ J
ìķ ¡
ìľ¼ ë©´
Ġìľ ¡
ìĿ¼ ìĿĦ
Ġìłľ ìĭľ
Ġíĥ Ĳ
Ġë°Ķ ë¡ľ
) '
ëªħ ê³¼
êµ° ìĿĺ
Ġíĸī ìĤ¬
Ġê´Ģê´ĳ ê°Ŀ
¶ ģ
Ġë§ Ŀ
ëĵľ ë¥¼
Ġìłľ ìŀ¬
Ġìĭ¤ ì¢ħ
ĠìķĪ ìĹĲ
i r
ĠìķĦ ëĭĮ
ëĭ¹ ìĿĢ
ëĭ¨ ìĿĢ
Ġíĸī ìłķë¶Ģ
ĠìĽĶ ëĵľ
ëĵ¤ ë¡ľ
ìĬ¤ ë¡ľ
ìĸ ¼
ĠìĪĺ ìļ©
Ġëį ĺ
Ġíı¬íķ¨ íķľ
íıŃ íĥĦ
ë ´
ë§Į ìĽĲ
ìĦ± ìĹĲ
Ġë¹Ħ ìĥģ
íķĻ ìĥĿ
Ġì¤ĳêµŃ ìĿĺ
ì§ ľ
ìĪĺ ë¡ľ
Ġë¶Ģ ëª¨
Ġì§ Ĳ
Ġì¡° ì¹ĺ
ìĽĶ ìĹĲ
ĠìĦł ìłķ
íķ Ģ
ìĬ¤ íĦ´
ĠìĿ¼ ìĿ´
ĠëłĪ ìĿ´
¬ ìĺģ
² Ħ
Ħ Ī
ĠìĤ¬ ìĹħ
Ġìĭľ ìķĦ
Ġìĭ¤ íĮ¨
íĺķ ìĿĦ
ê²ł ëĭ¤ëĬĶ
Ķ íĶ¼ìĸ¸
ìĿ´ ëĵ¤
ìĪĺ ì§Ģ
Ġë¶Ģ ë¶Ħ
ìĨĮ ìĹĲìĦľ
Ġ re
íĺ Ī
Ġë¶Ģ íĨµëł¹
Ġ200 3
ĠìĨĮìĭĿ íĨµ
Ġ O
Ġë Ľ
Ġê¸° ëħĲ
ëıĻ ìĿĦ
íĶĦ ë¡ľ
ìľł ëŁ½
Ġëħ ¹
Ġìŀħ ìĿĢ
Ġìĺ¨ ëĿ¼ìĿ¸
íķĺëł¤ ëĬĶ
Ġê³ §
Ġì£¼ ìĭĿ
Ġìļ ¸
ëĭ¹ íķľ
Ġëĭ¹ êµŃ
ìĺĢ ëĭ¤ê³ł
ìķ½ ìĿĦ
ĠìĥĿê°ģ íķľëĭ¤
Ġíŀ Ī
Ġì§ģ ìĽĲ
Ġìĸ´ ìłľ
Ġìłķì¹ĺ ìłģ
ìª½ ìľ¼ë¡ľ
ë§Į ìĿĦ
Ġë¶ Ļ
Ġì¶ķ êµ¬
ĠìĹħ ì²´
ĠëĦĪ ë¬´
ìĹ ĩ
ë¡ ¯
íĶ Ī
Ġë² Ĺ
ĠìķĬ ëĭ¤
ĠêµŃ ë¬´ë¶Ģ
Ġëª¨ ëį¸
Ġìŀĳ íĴĪ
u t
¢ °
ĠëĮĢ ìĭł
ì² ł
ì° ½
ìĦ± ìĿĢ
ĠìĿĺ ìĽĲìĿĢ
ĠìķĦëĭĪ ëĿ¼
ë ¢°
ìķĦ ìĿ´
ìĭ¤ ìĿĦ
ĠíĻķ ìĤ°
Ġë©Ķ ìĭľ
ìī ¬
Ġìłķ íĻķ
Ġë¹Ħ ëĶĶìĺ¤
Ġë¶Ī ê°Ģ
ĠëĤĺíĥĢ ëĤ¬ëĭ¤
Ġìĭ¬ê°ģ íķľ
ĠìĹŃíķł ìĿĦ
ĠìĪĺ ìĭŃ
ëŁ¬ ìĭľìķĦ
Ġì¤ĳ ìĿ¸
Ġë¶Ģ ìĥģìĿĦ
Ġì´Ŀ ìĦł
ĠëĮĢ íĶ¼
ĠëĮĢ ê·ľëª¨
ë© ĺ
ë°© ìĨ¡
ë²ł ìĬ¤
ê ¾
Ġìķ ¨
ĠìĤ¬ ê³¼
Ġì£¼ ë§Ĳ
ë°Ķ ë¸Į
ëĭ¨ ìĿĦ
Ġìŀ¥ ë©´
ĠíĨµ ìĭł
Ġëª© ê²©
a c
ëıĦ ê°Ģ
Ġê¸° ëĭ¤
Ġì´ ¬ìĺģ
ĠëıĻ ìĺģìĥģ
Ġê³ł ëł¤
Ġê²½ê¸° ìĹĲìĦľ
Ġëĵľ ëŁ¬
ëł ī
ìĿ¼ ìĹĲ
ĠìĪĺ ìŀħ
ë² ½
ìĺ¤ë°Ķë§Ī ëĬĶ
ìĿ¸ ì§Ģ
Ġì£¼ ëıĦ
Ġë¬´ ê¸°
ìĹĪ ìĬµëĭĪëĭ¤
Ġëį°ìĿ´ ë¹Ħëĵľ
ĠKore a
ë°Ķë¸Į ìĽ¨
ĠìłĦ ìĭľ
Ġë¹Ħ íĮĲ
Ġëħ Ħ
ĠìĤ¬ë§Ŀ íķĺê³ł
ĠëĮĢ ìĿĺ
Ġê°Ģ ì§Ģê³ł
Ġë¶ ķ
Ġì¤ĳ ëıĻ
íĸī ìĿĦ
Ġìĺ¤ ë¥¸
ĠëıĦ ë¡ľ
Ġêµ¬ íĺ¸
ĠêµĲ íĨµ
ĠA P
Ġì§ĢìĽĲ ìĿĦ
ëī´ ìļķ
ĠìĿ´ëŁ °
ĠìĹĲëĦĪ ì§Ģ
a p
r i
ĠìłĦ íķ´
Ġíķľ ëĭ¤ëĬĶ
Ġíķľ ëĤĺëĿ¼
Ġë¶Ģ ìłķ
ë¥´ ê³ł
Ġìŀĳ ìĿĢ
ĠíĨł ë¡ł
ĠíĿ¬ ë§Ŀ
ĠíĴ į
ë¬´ìŀ¥ ê´ĢìĿĢ
ë¦¬ íĬ¸
êµŃ ê°Ģ
Ġê²½ ê¸°ë¥¼
ĠíĮĮ ë³ĳ
Ġìķ½ ìĸ´
ĠíķľêµŃ ìĿĺ
íĿ ¬
ìĿ¼ íķľ
ëªħ ìĹĲ
ĠìĿ¸ êµ¬
íļĮ ìĹĲ
Ġëĭ¤ ìĸĳ
Ġì§ĢëĤľ ì£¼
Ġê°Ĳëıħ ìĿĢ
ĠìŀĪìĹĪ ëįĺ
ª ħ
Ġ g
ĠìĤ¬ ëĬĶ
ìĸ´ ë¥¼
Ġê°Ģ ê¹Į
Ġìłľ íĴĪ
Ġê²° êµŃ
Ġë§Į ëĤĺ
Ġê°Ĳ ìĭľ
Ġìķ½ìĸ´ íĳľ
ë¦¬ ê·¸
Ġìĭľ ì¦Į
ìĦł ê±°
Ġëĭ¹ êµŃìĿ´
Ġíıī ê°Ģ
ĠëĤ´ìļ© ìĿĦ
Ļ ìĿ´
ëŁ Ń
íı Ĳ
ìĨĮ ìĹĲ
Ġë°ĺ ìĿĳ
Ġíı¬ ê¸°
ĠëĲĺ ìĸ´
ìŀ¥ ìľ¼ë¡ľ
Ġìķŀ ëĳĲê³ł
ĠìĿ´ìĥģ ìĿ´
ìļĶìĿ¼ ìĹĲ
ĠíĬ¹ íŀĪ
7 0
Ġë ¨¼
ìĭ ¸
ë¶Ģ ìĹĲ
ë³´ ê³ł
ìķĪ ìĿ´
Ġë¹Ħ ë¡¯
Ġìļ° ë¦¬ëĬĶ
Ġíĺĳ ëł¥
ë¬´ìŀ¥ ê´Ģ
Ġì± ĶíĶ¼ìĸ¸
F A
u m
ĠìĤ¬ ëĿ¼
Ġì§Ģ ìĨį
íģ ´ë¦°íĦ´
ë³´ ëĬĶ
ĠìĹĨ ìĿĦ
Ġ200 0
Ġì¶Ķ ëĿ½
ĠëĽ °
Ħ ëĬĶ
ê³ ¤
ìĬ¤ ìĹĲìĦľ
ìŀ¥ ê´ĢìĿĢ
ĠìĪĺ ì¶ľ
Ġê°Ģ ìł¸
Ġê²½ ìĺģ
Ġë¶Ģ íĨł
ê²½ ìłľ
Ġìĭ¬ ìŀ¥
ìĽĢ ìĿĦ
ĠíŀĲ ëŁ¬ë¦¬
ìķŀ ìĦľ
Ġë³´ ìľł
ĠíļĮ ìŀ¥ìĿĢ
Ġê¸ Ģ
ì¹´ ê³ł
ìĹĪ ê³ł
´ëł Ī
ĠìĻ¸ êµŃìĿ¸
ĠìĦ¤ ì¹ĺ
ê²ł ëĭ¤
ìĭľíĤ¤ ëĬĶ
ĠìłĦë¬¸ ê°Ģ
Ġíĭ° ë²łíĬ¸
Ġíĥĳ ìĬ¹
m ent
ëª °
ëª ĩ
Ġì§Ģ ë¶Ī
Ġë¯¸êµŃ ìĿ¸
Ġë¶ģíķľ ìĿĢ
Ġê´Ģê³Ħ ë¥¼
Ġìļ´ ìłĦ
ĠìķĦ ë¬
ëĭ¨ ìĿ´
íĴ Ģ
Ġë°ľíĳľ íķľ
ĠëĿ¼ ëĶĶìĺ¤
ĠìĤ´ ìķĦ
Ġì´īêµ¬ íĸĪëĭ¤
2 2
ì§Ģ ëıĦ
Ġë§Ĳ íķľëĭ¤
Ġë°Ŀ íŀĮ
ìľł ìĹĶ
ìĭľì¼ ľ
ìĿ´ ëĤł
ìľ¼ë¡ľ ìį¨
ìĥģ ìĿ´
Ġëı ¼
Ġêµ¬ ìĨį
ĠíĿ ĳ
T A
ëĿ¼ ë§Ī
íĥ ģ
ëħĦ ìĿ´
Ġë¹Ħ íķ´
ìĺ¤ ëĬĺ
Ġìĭ¤ íĹĺ
ĠìĿ´ë¦Ħ ìĿĦ
Ġê² ¨
Ġê³µ ìĹ°
ĠìĹ¬ ìłĦíŀĪ
Ġê´ĳ ê³ł
ĠìĿ´ ìłľ
ìĺ ¥
Ġê²½ íĹĺ
ê³Ħ ë¥¼
ì¶ ĺ
Ġíķĺ ê¸°
ì¡° ì§Ģ
Ġê°ľ ìĦł
Ġì½ľ ë¡¬ë¹ĦìķĦ
ĠíĹĮ ë²ķ
ê³ ¡
íķĺ ê±°ëĤĺ
ìĬ¤ ëŁ¬
ĠìķĦ ë§Ī
Ġìĭľ íĹĺ
ëħĦ ë¶ĢíĦ°
ĠìĨ ¡
ĠëĦ £
ìĸ´ë Ĥ¬
Ġì§ĢìĹŃ ìĿĺ
ĠíĽĦë³´ ê°Ģ
ĠëłĪ ë°Ķëħ¼
ĠìķĦíĶĦ ë¦¬ì¹´
g e
Ġ on
íĬ ľ
ìĪĺ ìĿĺ
Ġìłķ ê¶Į
ĠêµŃ ìĺģ
Ġë§Ī ê°Ĳ
Ġë© ķìĭľì½Ķ
Ġíİ ľ
ĠìłĢ ì§Ģ
Ġê°ĢìŀĲ ì§Ģêµ¬
ìĦ °ëĭ¤
íķ´ ë¥¼
Ġê·¸ ë£¹
Ġì¤ĳ ìķĻ
Ġê´Ģ íķ´
Ġìłľ íķľ
ĠëıĻ ë§¹
Ġìµľ ì¢ħ
Ġë°Ľ ëĬĶ
ĠìĦ± ìŀ¥
Ġ5 00
Ġì°¨ ë¡Ģ
ĠìĤ¬ë§Ŀ ìŀĲ
ĠìĪ ł
Ġì¢ Į
ĠL A
ĠìĭľìķĦ íĮĮ
ìľ Ī
ĠìłĦ ë°ĺ
Ġìłķ ìĭł
Ġê²° ìĬ¹
ìĪ Ļ
er s
ĠíĥĢ ìĿ´
Ġìłĳ ê·¼
įìĤ¬ ìĬ¤
ë¦¬ ìĬ¤íĬ¸
ìĭľ ìĦ¤
ëŀ Ħ
Ġë¯¸êµŃ ìĿĢ
ì½ ĺ
Ġêµ¬ ìłľ
Ġì·¨ ìĨĮ
ĠíĶĮ ë¡ľë¦¬ëĭ¤
Ġê²½ê³ł íĸĪëĭ¤
Ġê³µ ìĬµ
ëĶ ©
ê²½ ê¸°
200 6
is t
ìĭľíĤ¤ ê³ł
at e
Ġìī ½
ì§Ģ ë¡ľ
ë¦¬ ìļ°
ĠìłĦ íĨµ
ìłķ íķľ
ĠêµŃ ëĤ´
ĠìĬ¹ ê°Ŀ
ĠìļĶêµ¬ íĸĪëĭ¤
´ëĲ ĺ
Ġìķħ íĻĶ
ëĭ ¥
ìĿ´ ì¦Ī
ë¡ľ ìĿ´
Ġê²ĥ ê³¼
Ġìĥģ ëĮĢ
ì§Ħ ìĿĢ
ĠìĹ´ ì°¨
ìłķë¶Ģ ëĬĶ
Ġê²°ê³¼ ë¥¼
ĠíĻľëıĻ ìĿĦ
0 6
i on
ìĿ´ íĶĦ
ĠìĤ¬ ìŀĦ
ĠìĦ ¬
ĠìĹ¬ ë¦Ħ
Ġê´Ģê³Ħ ìŀĲê°Ģ
ĠíķŃ ìĿĺ
ì±ħ ìĿĦ
Ġì¶© ë¶Ħ
Ġìĥ Į
ëĮĢ íĳľ
Ġë°ľ ìłĦ
Ġê´Ģ ìĭ¬ìĿĦ
ĠìķĬ ìķĦ
ìļ´ íĭ°
ĠìĥģíĻ© ìĿĦ
ĠëĶ° ëĿ¼
ĠíĶĦë¡ľê·¸ëŀ ¨ìĿĦ
Ġë°ĿíĺĢ ì¡Įëĭ¤
5 00
I A
© °
ê³¼ íķĻ
ĠìĪĺ ìĦĿ
íĶĦ ëŀĳìĬ¤
ëª »
ìĿ¼ ê¹Įì§Ģ
Ġìłķ ëĭ¹
Ġê·¸ ëŁ¬ëĤĺ
ëħĦ ìĿĺ
ë¥´ ê²Į
ë°Ķ ìĿ´
ĠëıĻ ë£Į
ĠìĬ¤ íĭ°
ĠìĬ¹ ìĿ¸
Ġíĸī ìľĦ
il l
ì§Ģ ìĹĲìĦľ
ìķĪ ìĿĢ
Ġëªħ ëł¹
¨¸ ëĭĪ
Ġë°° ì¹ĺ
ìħ Ģ
ĠëĤľ ë¯¼
ìķ Ķ
ìĤ¬ ëĵ¤ìĿ´
ì§ Ĳ
ìĸ´ ëĵ¤
ëĭ¹ ìĭľ
ĠëıĻ ìĿĺ
Ġê²° ìĿĺ
ë¯¸êµŃ ìĿĢ
ĠìĤ¬ê±´ ìĿĦ
ìĩ ¼
ê²ĥ ìĿ´
ìĿ¸ ìĿ¸
ëŀ «
ĠìĪĺ ê°Ģ
ĠìŀĪ ê¸°
ê±° ëŀĺ
Ġìĭł ìļ©
ĠìĤ¬ë¬´ ì´Ŀ
ëĭ ī
Ġê² ¬
ìĿ¼ ê°Ħ
ì¹ ´ëį°
ìłģ ìĿĦ
ì§Ħ ìĿ´
ĠíļĮ ìĽĲ
Ġë°Ķ ëŀĢ
Ġêµ¬ ë§¤
Ġì§ĳ íĸī
Ġê°Ļ ìĿ´
Ġíķµë¬´ ê¸°
ľ ¨
ìł Ŀ
ìĤ¬ ë¡ľ
ìŀ¥ ìĿ¸
Ġì§Ģ ëªħ
ê´Ģ ë¦¬
ĠëĤĺ ìĺ¨
Ġìĭł ê³ł
Ġì§Ħ ìķķ
ĠíĿ Ķ
´ëŁ ½
Ġìł ĬìĿĢ
ìĭľ íĤ¨
ìŀ¥ ê³¼
ĠìŀĲ ì²´
ĠìĬ ¬
ë¥´ íĬ¸
Ġìļ° ë¦¬ê°Ģ
Ġì¶Ķ ì§Ħ
Ġê²Ģ ìĥī
Ġì¢ħ êµĲ
ìĤ¬ ëŀĮ
ĠìĿ´ ìĪĺì§Ģ
ĠìĤ¬ ëł¹
ĠìľĦ ë°ĺ
íİ ł
Ġë¬´ ìĤ¬
Ġ200 2
ì´ ī
Ġì§ĳ ì¤ĳ
Ġë°ĸ ìĹĲ
ĠìĦ¼ íĦ°
o c
ìŀĲ ìĿ´
Ġê³ ¤
ĠìĪĺ ëĬĶ
ìłķ ìĿ´
Ġê·¸ ëłĩ
Ġì¤ĳ ìĹĲ
íļĮ ëĬĶ
ĠêµŃ ë¦½
ì¤ĳ ìĿ¸
200 7
ĠíĿ ¥
Ġì¢ĭ ìķĦ
ĠìķĦëĭĪ ëĿ¼ê³ł
a k
ìŀĲ ëĵ¤ê³¼
ìĿ¼ ë¶ĢíĦ°
Ġê°Ģ ì§Ģ
ĠëĤĺ ìĺ¤
Ġ200 7
íĹ ¨
ëĥ ¥
Ġíıī ê·ł
Ġëĭ¬ëŁ¬ ìĿĺ
ì¹´ëį° ë¯¸
ìŀ ī
ê¸° ê°Ħ
ìĤ¬ ëĵ¤ìĿĢ
ĠìĪĺ ìĤ¬
Ġì·¨ ìŀĦ
Ġëħ¼ ìŁģ
Ġíĺ¼ ëŀĢ
ë¦¬ íĤ¤
ìĸ ´ëıĦ
ĠìĨĮ ìĨ¡
ëł¤ ëĬĶ
ìĤ° ìĿĦ
ĠìĤ¬ëŀĮ ëĵ¤ìĿĦ
ĠíķľêµŃ ìĿ¸
ĠìĭľìľĦ ë¥¼
ìĺ¬ íķ´
ĠìĭĿ ëŁī
ĠëıĪ ìĿĦ
Ġë¯¼ê°Ħ ìĿ¸
6 0
ĠìłĦ ìĹŃ
ĠìĦł ì¶ľ
ĠëķĮ ê¹Įì§Ģ
ĠêµĲ ëıĦ
ĠëĲĺ ê³ł
Ġì¹ĺ ëŁ¬
Ġëī´ ìĬ¤
Âł200 7
ĠíĹĪ ìļ©
e w
o in
Ġ e
´ë §
ë¦¬ ìĻĢ
ê¸° ìĻĢ
ĠëĮĢ ìĿĳ
Ġì§Ģ íķĺ
ëªħ ìľ¼ë¡ľ
Ġê·¸ ëĵ¤ìĿĺ
íļĮ ê°Ģ
Ġë¹Ħ ë°Ģ
Ġë°Ķ ìĿ´ëŁ¬
ĠíĶĦ ëĿ¼ìĿ´
ĠìĦľ ë¡ľ
ĠìĦ¤ ë¦½
ĠëĮĢë³Ģ ìĿ¸ìĿ´
ĠìķĮëł¤ ì§Ħ
ë¶ģíķľ ìĿĢ
ë¦¬ëħ¸ ìĿ´
ë¡ľ ëĬĶ
ë¦¬ ìŀĲ
íĻĶ ê°Ģ
ëĭĪ ìĬ¤
Ġë°Ľ ì§Ģ
Ġë¬´ ìĹŃ
Ġê²½ì°° ìĹĲ
Ġê±¸ ì³Ĳ
ĠëĮĢ ë¹Ħ
ëĵľ ìĹĲìĦľ
ĠëĮĢíĨµëł¹ ìĿĦ
ĠíĻĺ ìĺģ
Ġë³µ ê·Ģ
Ġê³¼ìłķ ìĹĲìĦľ
o o
ĠìĿ´ ìĻĢ
ĠìĤ¬ ë¥´ì½Ķ
Ġìľ Įë¦¬ìĹĦ
ĠìĪĺ ìĥī
íĬ ¹
Ġê³¼ ê±°
ĠëĤ´ë ¬
Ġë¸Ķ ë¡ľ
¬ ëĭ¤
ĠëĤĺ íĨł
ìĦ¸ ìĿ¸
Ġê°ľ íĺģ
Ġë³ĳ ëł¥
Ġê¸°ë¡Ŀ íĸĪëĭ¤
ì§Ģ ëĭĪìķĦ
ìĽ ĥ
ĠìĿ¼ ìĸ´ëĤĺ
ìŀĦ ìĬ¤
ĠìĤ¬ìĿ´ ìĹĲ
ĠìĥģìĽĲìĿĺ ìĽĲìĿĢ
ĠëĮĢìĥģ ìľ¼ë¡ľ
Ġíļ¨ ê³¼
ì ĵ
ëĭ Ŀ
ĠìĹ ĺ
ì§ ĵ
ìĸ´ ëĬĶ
Ġì£¼ ìŀ¬
ëĲĺ ê¸°
ĠëıĻ ë¶Ģ
Ġìŀ¬ ìłķ
Ġë¶Ħ ëªħ
Ġë°ľê²¬ ëĲľ
Ġíľ ĺ
Ġê°ģ ê°ģ
¸ Ĳ
ìŀĲ ìĹĲê²Į
ĠìĿ´ ê°ĻìĿĢ
Ġê·¸ ë¦°
Ġë³´ ìĪĺ
ìłĦ ë¬¸
ìľĦ ìĽĲ
ë¹Ħ ë¥¼
Ġìĥģ ìĽĲ
ìĨĮ ìĿĺ
Ġíķ´ ìķ¼
Ġë¬´ ìĹĩ
Ġìłģ ìĿ´
Ġíĳľ íĺĦ
ì§ĳ íĬ¸
ĠëıĦìĽĢ ìĿ´
ë¦¬ ì§Ģ
ĠìĤ¬ ëŀĳ
êµ° ê³¼
Ġíķ´ ë¦¬
Ġìłķë¶Ģ ìĹĲ
ĠìĦľ ë¶Ģ
ĠíĽĦë³´ ëĬĶ
ĠëĬ ¥
Ġë³Ģíĺ¸ ìĤ¬ëĬĶ
ë ¸Ĳ
ĠìĿ µ
ĠìĤ¬ íĩ´
Ġì§Ģ ì¼ľ
ë§Į ëªħìĿĺ
íĦ° íĤ¤
ê´Ģ ìĿĦ
ì§Ħ ìĿĦ
ĠëıĻ ìĦ±
Ġê³ł íĨµ
ĠìľĦíķ´ ìĦľëĬĶ
Ġë°Ľ ê²Į
ĠíĨµ ìłľ
ĠìĻ¸ êµŃ
Ġì§Ģì§Ģ ë¥¼
ìĿ´ ìħĺ
ë¦¬ ì¦Ī
Ġìĺ ®
ĠìŀĲ ëħĢ
Ġë§Ī ë¬´
Ġë¶Ħ ìķ¼
íĪ¬ íĳľ
Ġê°Ļ ëĭ¤
ĠìĤ¬ìļ° ëĶĶ
) /
Ġ de
Ġë ĥ
ë¦¬ íķĢ
ĠìłĦ êµŃ
Ġë¯¸ ëŀĺ
ĠìĹ° ë£Į
ĠìĬ¤ ë¯¸
ĠìĦ± íıŃ
Ġêµ¬ ì²´
ĠíĻķ ìĭł
Ġìĸ´ë ¨¸ëĭĪ
ìĽĮ ëĵľ
ìĭĿ ìĿ´
ĠëĮĢíķ´ ìĦľëĬĶ
Ġì½Ķ ë¦¬ìķĦ
Ġê°ķëł¥ íķľ
ìł ¤
ë° ĸ
ëŀ Ĳ
ìĥģ ìĿĺ
Ġìĭľ íĸī
íĨµ ìĭłìĿĢ
Ġ8 0
íķŃ ê³µ
ĠìŀĦ ëªħ
ìĭľíĤ¤ ê¸°
ĠìĥģìĽĲìĿĺ ìĽĲìĿ´
ĠëĮĢë¶Ģë¶Ħ ìĿĺ
Ġëĭ¤ìĸĳ íķľ
ëĤĺ ìĿ´
ë§Ī ìĿ´
Ġê³ł ìļ©
Ġì§Ħ ìĪł
Ġê²½ì°° ìĦľ
ĠìĤ¬ê±´ ìĿ´
ĠìŀĦ ìĭľ
ĠíĶĦë¡ľ ìłĿ
ĠëĨĴ ìķĦ
Ġë°©ë²ķ ìĿĦ
Ġì ı
ì§Ģ ê¸Ī
ëıĦ ìĿĺ
Ġë³´ ì¢Į
ĠìĿ¸ ë¬¼
Ġì¡° ê±´
ĠíĮĮ ê²¬
Ġê²Ģ íĨł
ĠëıĦìĽĢ ìĿĦ
ëĬ Ħ
ìĦ ¬
ì§Ģ ìĿ¸
ĠìķĦ ëĤ´
Ġë² ¨
ìĭĿ ìĹĲ
Ġìŀħ ìĽĲ
ĠìĤ¬ëŀĮ ìĿĢ
Ġëĵ± ìĿĦ
Ġ9 0
ĠìłĢ ìŀ¥
ì¹ľ êµ¬
ĠìĻĦ ìłĦíŀĪ
Ġë¹Ħíĸī ê¸°
ìķĦíĶĦ ë¦¬ì¹´
ë¯¼ì£¼ ëĭ¹
Ġëľ» ìĿĦ
ĠëĮĢ ë§Į
ìĥģ ìĹĲ
ĠìĿ¸ ê°Ħ
ìľĦ ë¡ľ
íģ¬ ë¡ľ
Ġìľł ì£Ħ
ĠëĤĺ ëĬĶ
Ġì´Ŀ ê²©
200 8
ì¡Į ìľ¼ë©°
Ġë¡ľ ì¼ĵ
Ġíģ¬ ê²Į
Ġë¸Į ëĿ¼ìļ´
ĠìłĦë¬¸ ê°Ģëĵ¤ìĿĢ
Ġì¹´ë ©Ķ
s e
Ġìŀ ī
ĠëĮĢ ë²ķ
Ġê´Ģ ìĭ¬
ĠìĦł íı¬
ĠìĺĪ ì¸¡
ĠíĻĶ ìļĶìĿ¼
íį¼ ìĦ¼íĬ¸
ĠìĿ´ëŀ ĺ
ê²Ģ ì°°
Ġì£¼ì§Ģ ìĤ¬ëĬĶ
4 0
ê°Ģ ê³ł
ĠìķĦ ì¹´ëį°ë¯¸
íĮ ħ
ë¹Ħ ì¹ĺ
ê³µ íĻĶ
ĠìĥĿ ì¡´
Ġë²Į ìĺĢëĭ¤
Ġë¶Ħ ìŁģ
Ġëª» íķľ
ĠìļĶì²Ń íĸĪëĭ¤
ķ ħ
Ġì Į
ë¦¬ ë¡ľ
ĠìĹ ĺë¦¬
ìŀĲ ìĹĲ
Ġìĥģ ëĮĢë¡ľ
Ġì¹ĺ ë£Įë¥¼
Ġê·¼ ì²ĺ
ĠìĿ´ëģ ĦëĬĶ
Ġë°ĿíŀĪ ì§Ģ
ĠëĮĢ ìĤ¬ê´Ģ
ìĭľ ìĹĲ
ĠìĤ¬ ìĿ´íĬ¸
ëĮĢ ìĻĢ
ĠêµŃ íļĮìĿĺ
Ġì´Ŀ ë¦¬ìĿĺ
íĺ¸ ì£¼
Ġë²Į ìĿ´ê³ł
ĠìĿ¼ë³¸ ìĿĺ
Âł200 6
ĠëĦĺ ìĸ´
Ġë§ĪìĿ´ íģ´
ĵ ê³ł
Ġê° ĳ
ĠëĮĢ ì¤ĳ
ì¹ ´ë
ì¶ ©
ĠìĹ° ê²°
Ġìµľ ìķħ
Ġìĺ¬ ëŀĲëĭ¤
es t
Ġë°ľê²¬ íĸĪëĭ¤
Ġë³´ë ĥĪëĭ¤
Ġê²°ìłķ ìĿĦ
Ġê¹ ¨
ĠìĿ´ëŀĢ ìĿĺ
Ġì§ķ ìĹŃ
¥ Ĳ
ìķ ¤
ëĲĲ ëįĺ
ë°ĺ ë©´
Ġë§Į ëĵł
Ġë¬¸ íĻĶ
ĠìŀĲìĭł ìĿĦ
Ġëĵ± ìĿĺ
Ġë¶ģíķľ ìĹĲ
ĠëĳĲ ê³ł
Ġs t
I D
Ġê ´
Ġê º
ĠìĿ´ ëĵ¤ìĿĢ
ĠìĪĺ ìĿµ
ì² Ļ
Ġì° į
Ġíķĺ ë©°
ëĭ¨ ìĿĺ
ĠëĲĺ ì§Ģ
íķŃ ìĿĦ
ĠìĹ¬ë¡ł ì¡°ìĤ¬
T V
® ¤
ìĬ¤ íĤ¤
ìĬ¤ íħĮ
ìĽ ħ
ëŀ Ļ
Ġë³´ ê±´
íģ¬ ëĬĶ
ë¥´ ëĵľ
ĠëĤĺ ìĻĶëĭ¤
ìĥĿ íĻľ
íı¬ ì¸ł
ĠìĿ´ëĿ¼íģ¬ ìĹĲìĦľ
ë²Ħ ê·¸
Ġë³ĳ ëł¥ìĿĦ
Ġíŀĺ ëĵ¤
T O
i a
ê°Ģ ë¡ľ
ìĬ¤ ëŁ½
Ġë§ º
ë³ ´ë
Ġì§Ģ ë°°
íĬ¸ ìĿĺ
ìłľ ê°Ģ
íļĮ ìĤ¬
Âł Ċ
ÂłĠÂłĠ ÂłĊ
Ġì» ¨
ĠëĶ° ë¥¸
ĠìĪľ ê°Ħ
Ġë¹ł ìł¸
Ġë³ĳìĽĲ ìĹĲ
B S
ë¦¬ ê¸°
ìĭľ ê°Ģ
ĠìĿ´ íķ´
Ġìľ Ī
ìĥģ ìĿĢ
Ġ3 5
ëł¤ ê³ł
Ġìłķë¶Ģ ìĻĢ
Ġëª» íķĺê³ł
ĠìĿ´ëŀĢ ìĿ´
Ġë¬´ë ĦĪ
Ġì§Ģ íľĺ
ìĦ± ìĿĺ
Ġëĭ¨ ê³Ħ
al l
ìĹĨ ìĿ´
ìĿ´ ì¸ł
ëĿ¼ ìĬ¤
ĠëĤ ´ë¶Ģ
ëį ľ
Ġìĭľ ì¹´ê³ł
Ġë² ¤
ĠìĤ¬ëŀĮ ëĵ¤ìĿĺ
íĶ¼ ìķĦ
Ġë¡ľ ë§Ī
ìłĲ ìĹĲìĦľ
ĠìĤ¬ìĭ¤ ìĿ´
Ġì²Ń ìĨĮ
Ġë°ĽìķĦ ëĵ¤
ĠìºĲ ëĤĺëĭ¤
Ġìľłëªħ íķľ
j oin
Ġ l
íķ´ ìĻĶëĭ¤
Ġê·¸ ëĵ¤ìĿ´
ĠíĻ įì½©
Ġê³ł ê°Ŀ
ì°¨ ë¥¼
Ġìŀĳ ìĹħìĿĦ
Ġ7 0
Ġíķ© ëĭĪëĭ¤
Ġê³Ħíļį ìĿ´ëĭ¤
ê¸Ģ ëŀľëĵľ
Ġê¸´ ê¸ī
ĠëĭĪ ì½ľ
ì¿ Ħ
Ġê ¼
Ġë° Ķëĭ¤
ìĿ¸ ê³¼
Ġìĭ ±
ĠìĤ¬ íĺķ
ëıĦ ìĹĲ
ìĥģ íĥľ
ĠìķĦ ëŀį
íĬ¸ ë¦¬
ë¥´ë ¹Ħ
Ġë¡ľ ë²ĦíĬ¸
ĠëĿ¼ ìĿ´ìĬ¤
Ġê´Ģëł¨ íķ´
Ġì²ĺ ë¦¬
Ġìµľê³ł ìĿĺ
Ġì§Ī ë¬¸ìĹĲ
Ġë¬´ìŀ¥ ëĭ¨ì²´
ìľĦìĽĲíļĮ ëĬĶ
Ġê°Ģ ìĬ¤
Ġê¸° ê´Ģ
Ġì§Ħ ì¶ľ
Ġê³µê²© ìľ¼ë¡ľ
íħ Ĳ
Ġê·¼ ê±°
ĠìĥģíĻ© ìĿ´
ĠI n
ĠìĿ¸ëıĦ ëĦ¤ìĭľìķĦ
Ġë°ĿíĺĶ ìĬµëĭĪëĭ¤
P P
ĠìŀĪëĭ¤ ë©°
ĠìĨĮ ìŀ¬
ëĲľ ëĭ¤ê³ł
Ġìľł ìĿ¼íķľ
Ġëħ¸ ì¡°
íķĺê¸° ëıĦ
Ġë§Į íģ¼
Ġê°ķ íķľ
Ġìĺ¤ë°Ķë§Ī ê°Ģ
ë©Ķ ëĵľ
Ġìĸ´ ëĬĲ
ĠìĤ¬ì§Ħ ìĿĦ
ê²¼ ëĭ¤
u l
ł íķľ
ëĤ ©
ëĤ ¸
ĠìĿ´ íĭĢ
ìķĦ ëĭĪ
ìĭł ìĿĺ
ĠìĨĮ ë°©
ë¥´ íĥĢ
Ġë¶ģ íķµ
ìĹĪ ì§Ģë§Į
ĠìĤ¬ëŀĮ ëĵ¤ìĹĲê²Į
ĠìĬ¹ ë¬´
ĠìķĦì§ģ ê¹Įì§Ģ
ĠíĸĪ ëįĺ
ĠìĿ´ìķ¼ ê¸°
2 5
ëı Ī
Ġìĭ Ń
ĠìĪĺ ë§İìĿĢ
Ġê·¸ ëĵ¤ìĿĢ
ĠìĿ¼ ìŀĲ
Ġì° °
Ġì¡° ì¢ħ
ĠëĤĺ ë
Ġë°ĺ ë©´
Ġëĭ¬ íķĺëĬĶ
Ġë¶Ħ ë¦¬
Ġëĳ Ķ
ĠíıŃëł¥ ìĤ¬íĥľ
ĠëĤ´ëł ¸ëĭ¤
ĠìłĦ ëŀµ
ëŁ¬ ëĬĶ
Ġì£¼ ìĿĺ
Ġìłķ ëıĦë¡ľ
ëĲĺ ë©´ìĦľ
Ġë°Ľìķĺ ëĭ¤ê³ł
e m
ë§ Īëĭ¤
ìĽ ¨ìĸ´
ĠìłĦ ìŀĲ
ì£¼ ìĿ¼
ĠìĿ¸ ìĪĺ
ë¯¸ êµ°
Ġìĺ¤ ëŀĺ
ìĦ¸ ê°Ģ
ĠìĦł ëĳĲ
ìĹ¬ ëªħìĿ´
ìĹŃ ìĿĦ
Ġë© ¸
ë¯¸êµŃ ìĿĺ
Ġëĭ¬ëŁ¬ ë¥¼
Ġíĸ¥ íķ´
Ġì°© ë¥Ļ
ë¦¬ ì¼ĢìĿ¸
Ġ1 000
ĠìŀĪ ì§Ģ
ë§Į ìķ½
Ġê¸° ì¤Ģ
Ġìĭľ ë¦¬ìķĦ
ĠìĨ Ķ
Ġëĭ¤ ë¥´
Ġë¹Ħ êµĲ
Ġìłľ ìĻ¸
íĭ ±
ìĺĢ ìľ¼ë©°
ĠíĮĮ ìĹħ
ì§ģ ìĿĦ
Ġë§¤ ëħĦ
ĠìĿ´ëĿ¼íģ¬ ìĹĲ
Ġë¯¼ ë³ĳ
Ġë¯¼ì£¼ ì£¼ìĿĺ
Ġê°ĢëĬ¥ íķľ
ĠëĪĦ êµ¬
ĠíĥĢìŀĦ ì¦Ī
Ġëĳĺ ëŁ¬
Ġí Ĩ
ë¡ľ ìĬ¤
ìĬ ·
ĠìĿ´ ì§ĳíĬ¸
ìĨĮ ê°Ģ
Ġ3 00
Ġê³ł ìĨį
ìĺĢ ìĬµëĭĪëĭ¤
Ġìķ½ ë¬¼
ìĸ´ë ²Ħ
Ġì§ĳ ê¶Į
ì» ¬
ĠìĹ¬ìĦ± ìĿ´
ĠC h
ìºĲ ë¡¤
Ġê·ľ ìłķ
Ġìĭľê°Ħ ìĿĦ
Ġë§ī ê¸°
0 9
E O
ì§Ģ ëĮĢ
ë³´ ë¥¼
Ġë¶Ģ ê·¼
ì¶ °
ĠëĤĺ ë¨¸
Ġì£¼ìŀ¥ íķĺê³ł
ì´ Į
ou n
´ë° °
Ġìĭ¶ ìĸ´
Ġíľ´ëĮĢ íı°
ìĿ´ ì§Ģë§Į
íķĺ ëĭ¤ëĬĶ
ê°Ģ ìĬ¤
Ġìĺ ·
ìľ¼ë¡ľ ìĦľ
Ġì§Ģ ìĭľ
íĻĶ ìĹĲ
ê°ľ ë°ľ
Ġëħ¸ ë¬´íĺĦ
íķĺì§Ģ ëĬĶ
ì½Ķ ë¦¬ìķĦ
íļ ¨
Ġìĺ¤ë°Ķë§Ī ëĬĶ
ĠíķŃ ìĥģ
Ġë¬´ìŀ¥ ìĦ¸ëł¥
Ġìĸ¸ê¸ī íĸĪëĭ¤
join s
. "
íķ´ ì§Ħ
ìĬ¤ íĭ°
ìĤ¬ íķľ
Ġëı ķ
Ġë¶Ģ ë¬¸
ĠíĽĦ ìĹĲ
Ġê°ķ ìłľ
íĭ° ëĤĺ
ë²ķ ìĿĦ
ar t
ĠëĬ ¦
Ġíĥľ êµŃ
ĠìķĬìķĺ ì§Ģë§Į
Ġìłĳ ì´ī
Ġìķķ ë°ķ
íķĺìĿ´ ìĺ¤
Ġì§Ĳ ë°Ķë¸ĮìĽ¨
ìł ł
íķľ ìĿĦ
ìľ ¨ìĿĦ
Ġì£¼ ìĿ¸
ë§Į ëªħìĿ´
Ġìĭľ ìĥģ
ĠìĿ¼ ë¦¬ëħ¸ìĿ´
ëĭ¹ ìĿ´
Ġìłľ ê±°
Ġëª¨ ë¥¸
ĠëıĻ ìĽĲ
ëĦ ¬
ĠìĬ¤ íĬ¸
ĠíĮĮ ê´
ê¸Ī ìľµ
ĠíĺĦ ëĮĢ
ĠíĪ¬ ìŀħ
ĠíĽĦë³´ ë¥¼
Ġê²°ìłķ íĸĪëĭ¤
it y
ig ht
E A
u c
íĸ Ħ
íķĺ ëĿ¼ê³ł
ê·¸ ê°Ģ
Ġìĭľ ì²Ń
íĶĦ ë¦¬
Ġëĵ Ŀ
ĠìĦł ë°ķ
ê²½ ìĿĦ
ĠìĤ ¶
Ġê³Ħ ìķ½
ĠëĤ´ ê°Ģ
Ġì¶ľ ë°ľ
Ġìķ¼ íĽĦ
ëŀ« ëıĻìķĪ
ĠíĶĦëĿ¼ìĿ´ ë¨¸
e e
² ł
ë ¿Ĳ
ê° ĻìĿ´
ê¸° ì§Ģ
Ġê¸° ìĸµ
ĠíĻ Ģ
ìļ° ìĬ¤
Ġëĵ ¯
Ġíķ´ ëĭ¹
Ġìłķë¶Ģ ë¥¼
ĠìĦľ ëªħ
ĠìĤ¬ê±´ ìĿĢ
Ġíħ įìĤ¬ìĬ¤
ĠíĻķìĭ¤ íŀĪ
Ġë¸Ķë¡ľ ê·¸
c o
ë ¯
ĠìĿ´ ìĨ¡
ìķĦ ìĭľìķĦ
ëį ķ
Ġìłķ ë§Ĳ
ëħĦ ìĿĦ
Ġëĭ¤ ìļ°
Ġë¹Ħ ìĬ·
Ġë§Ī ëĵľë¦¬
Ġíģ ´
Ġë¶Ī ìķĪ
íķľëĭ¤ ë©´
ê²° ìĿĦ
Ġì§ĢìĹŃ ìĿĦ
ĠëĲĺ ìĹĪëĭ¤
Ġê´Ģê³Ħ ìŀĲëĵ¤ìĿĢ
ì¸¡ ìĿ´
Ġë¹ĦëĤľ ìĿĦ
Ġëħ¼ ëŀĢ
Ġíķ©ìĿĺ íĸĪëĭ¤
ĠíĻķìĿ¸ íĸĪëĭ¤
ĠìĽĢì§ģ ìŀĦ
ìĬ¤ëŁ¬ ìļ´
B I
m er
ê¸° ìĹħ
Ġê²ĥ ìĿ¸
ĠìĪĺ ëĭ¨
ëĵľ ìĻĢ
Ġë¬ ĺ
ĠìĻ ľ
ĠìķĮ ê²Į
Ġìĭ¤ ìłľ
Ġëª© ìĨĮ
Ġìĸĳ êµŃ
Ġì¡´ ìŀ¬
ĠìĪ¨ ì§Ģê³ł
íıī ìĸĳ
ìĶ ©
ë°ĸ ìĹĲ
5 000
R C
í Ģ
Ġë ¥
ìĿ´ ê¸°
Ġê·¸ ëŀĺ
Ġíķľ ë°ĺ
ĠìĦ¸ ê¸Ī
Ġíĺĳ ìĥģìĿĦ
ĠìĺĪìĥģ ëĲľëĭ¤
Ġê·ľëª¨ ìĿĺ
ĠìĦľë¹Ħ ìĬ¤
ĠìĿĺê²¬ ìĿĦ
íķĺ ìĺĢëĭ¤
ĠìľĦ ê¸°
ì¹ĺ ìĿĺ
ĠìĹ¬ ë¶Ģë¥¼
ĠìĿĺ ìĭ¬
ìĽĶ ë¶ĢíĦ°
Ġìµľ ìĭł
íİ ľ
Ġì¢ Ģ
íĺĳ íļĮ
ĠìķĶ ìĤ´
ë¡Ń ê²Į
© ëĭĪëĭ¤
ë¦¬ íĶĦ
ìĬ¤ íĨł
Ġë¬ »
ĠìĬ µ
Ġê± ±
ĠìĿĺ ìĤ¬
Ġë¯¸êµŃ ìĿĦ
Ġê³ł ëĵ±
ê°ľ ë¥¼
ĠìĥĿ ë¬¼
íı¬ ë¥´
ì¦Ī ëĭĪ
ĠìłĢ íķŃ
ë§Ĳ ë¦¬ìķĦ
Ġë¸Į ëĿ¼ì§Ī
Ġì£¼ë¯¼ ëĵ¤ìĿ´
Ġìłķìĥģ íļĮëĭ´
ìľ¨ ìĿ´
´ëŁ °
íıŃíĥĦ íħĮëŁ¬
ĠëĤ´ë¬ ´ë¶Ģ
ìĿ´ ëŁ°
Ġìŀ ĩ
ì§Ģ ìĻĢ
ê°Ģ ìĿ¸
ìĿ¸ íĦ°
ëĵ¤ ìĸ´
ĠëĮĢ íļĮ
ìŀ¥ ê´Ģ
ìĸ´ ë¡ľ
ëĮĢ ë¶Ģë¶Ħ
Ġë§Ĳ íķĺê³ł
Ġê³µ ê³µ
ìĨĮ ëĬĶ
ë°Ķ ëĬĶ
Ġì§ĳ ëĭ¨
ëŁī ìĿĺ
ĠìĤ´ ìĿ¸
ë°° ìļ°
Ġë¯¸êµ° ìĿ´
ì§ĢëĤľ íķ´
Ġìĸ´ëĸ łíķľ
Ġìĭľê°Ħ ìĿ´
ĠëģĿ ìĹĲ
Ġìŀĺ ëª»
ĠíĮ¨ ë°°
ĠëĬĲ ëģ¼
Ġë©¸ ì¢ħ
1 8
Ġ Y
ê³ ¨ìĿĦ
ëĵľ ìĹĲ
ìłľ ëĬĶ
Ġê·¸ ëŁ°
êµ¬ ë¥¼
ĠìĿĺ ìĽĲìĿ´
Ġëĵ £
Ġíķĺ ì§Ģë§Į
Ġë§Ī ìķ½
E C
n n
ìĦľ ë¶Ģ
Ġê°Ģ ì¡Įëĭ¤
ìłĦ ìľ¼ë¡ľ
ìľĦ ê°Ģ
ëĲĺ ìĹĪëĭ¤ê³ł
Ġíķĺ ë§ĪìĬ¤
ëĭ¨ íķľ
ĠìĬ¤ íĶ¼
Ġë°© ìķĪìĿĦ
Ġê±° ìłĪ
Ġë°ľìĥĿ íĸĪëĭ¤ê³ł
ëŁī ìĿĦ
Ġëª© ìĪ
Ġê²Ģ ìĤ¬
ëī´ ìĬ¤
Ġìłķì±ħ ìĿĦ
ĠëĬĲ ëĤ
Ġíĳ¸ íĭ´
ĠìĽĶëĵľ ì»µ
Ġë§Īë¬´ ë¦¬
ìķĦëĭĪ ëĿ¼
ìĿ´ ìłĦ
ì¹ Ń
Ġë¬ ´ëł
ĠìŀĲ ìĹ°
Ġë¶Ģ íĮ¨
Ġê°ľ ìĿĺ
íĺ¸ ë¥¼
ĠíĶĮ ëłĪìĿ´
D A
E U
Ġê ¿
ëĭ¤ ë©´
ìĿ´ ìĿĺ
íģ¬ ëĿ¼ìĿ´ëĤĺ
ĠìĬ¤ íı¬ì¸ł
ìĤ° ìĹħ
Ġíģ ´ëŁ½
Ġëĵ¤ ê³ł
ĠíĽĦë³´ ìĹĲ
Ġê°Ħ ìĿĺ
Ġëĸł ëĤĺ
ìº Ķ
ëĭ ĺ
ëħ ģ
ìĪĺ ëıĦ
Ġê²ĥìĿ´ ëĿ¼
ìļ° ê³ł
ĠìĿĺ íĺ¹
ĠìĹ° ìĨį
ĠìĹĨ ìĸ´
ĠìĤ Ń
Ġìŀ¥ ê¸°
Ġìĭł ë¢°
Ġë°ľìĥĿ íķ´
Ġë¶ģíķľ ìĿĦ
ëŁī ìĿ´
ĠíĿ ¡
ê²ł ì§Ģë§Į
Ġëĭ¤ìĿĮ ëĭ¬
ĠìĤ¬ë¬´ ìĭ¤
ĠìĦ±íıŃ íĸī
í Ľ
ë¡ ±
ì§Ģ ìĪĺëĬĶ
ëıĦ ìĭľ
ĠìĪĺ ëĭĪ
ê·¸ ë£¹
ë§Į ìķĦëĭĪëĿ¼
Ġê³µ ìĤ°
ëıĻ ë¶Ģ
íĶĦ ëĿ¼
ë°Ķ ìĬ¤
ì¼ Ī
Ġë³ĳ ìĤ¬
ĠìłĲ ìĿĦ
ì§ĢìĹŃ ìĹĲìĦľ
ìĿ´ìĹĲ ìķŀìĦľ
ìĽł ëĭ¤
i f
ê² Ĳ
Ġê°Ģ ì§Ī
Ġì£¼ ëĬĶ
ë§Į ìĿĺ
ĠìŀĲ ì£¼
ĠìŀĲ ê¸ĪìĿĦ
Ġë¶Ģ ëıĻ
ĠìĿ¼ ê°Ħ
ìĦ¸ ë¡ľ
Ġëĵ± ë¡Ŀ
ì¼Ģ ìĿ¸ìĿĢ
ì²ĺ ëĵľ
Ġìłģ ìļ©
Ġìłģ ìłĪ
Ġì¹´ ìļ´íĭ°
Ġê·¼ ë¬´
ĠëĦĺ ëĬĶ
Ġì¦ī ê°ģ
Ġìĸ¼ë§Ī ëĤĺ
ĠìķĦë¬ ´ëŁ°
0 1
Ń íĤ¹
ĠìĹ¬ ìĻķ
ĠëĤĺ ìĻĢ
Ġê°ľ ë´ī
ĠëĤ¨ ë¶ģ
ë¬¼ ìĿ´
ëıħ ìĿ¼
Ġëģ Ĭ
ĠëĮĢíĳľ ëĬĶ
ĠìĽĶ ìļĶìĿ¼
Ġì¼Ģ ìĿ´
ĠU S
Ġìļ°ëł¤ ë¥¼
Ġë³´ìĹ¬ ì£¼
ation al
ë¥ł ìĿ´
ëĨ į
Ġíİľ ìĭ¤
ìºĲë¡¤ ëĿ¼ìĿ´ëĤĺ
ê ¶ģ
ê¸° ê³ł
ĠëĤ ¸
ìĿ¼ ë¦°
Ġë³´ ìĿ´ëĬĶ
ìľĦ ëĬĶ
ĠëĤĺ ê°Ģ
Ġíķĺ ìĽĲìĿĺ
Ġ200 1
ê²° ê³¼
Ġì¶ľ ë§Ī
Ġì¦Ŀ ìĸ¸
Ġì§ĢëıĦ ìŀĲìĿ¸
Ġìī ¬
Ġìµľìķħ ìĿĺ
ë¡ľ ìĦľ
ëĵ¤ ë¡ľë¶ĢíĦ°
êµŃ ìĿĦ
ì£¼ ìĹĲìĦľ
ĠìķĦ ëĵ¤
Ġë§Ī íģ¬
ĠìĻ Ķ
ìķĺ ëĭ¤ê³ł
Ġë°Ķ ëŀĮ
ĠìĦ¸ ëł¥
ìĭ¤ íĹĺ
Ġìŀ¥ ëĤľ
ĠëĤ¨ íķľ
Ġìŀĳ ìĦ±
Ġ19 7
ìĦĿ ìĿĦ
Ġë³´ê³ł ìĦľëĬĶ
ìĺ¬ ë¦¼íĶ½
ì¶ķ êµ¬
Ġì¿ł ë°Ķ
Ġëĭ¹ìĦł ìĿ¸ìĿĢ
Ġì¦ī ìĭľ
Ġë°ĶëŀĢ ëĭ¤
Ġëĥ ī
' s
Ġë Ń
ìĽĲ ìľ¼ë¡ľ
ìĸ´ ìķ¼
ĠìķĦ ì£¼
íĬ¸ ê°Ģ
íĬ¸ ìĹĲìĦľ
íģ¬ ë¦¬ìĬ¤
Ġì¹ ¸
Ġë¯¸êµŃ ìĹĲ
Ġíķ´ êµ°
Ġëħ¸ ëŀĺ
ĠëĮĢíķ´ ìĦľ
ĠìĹĲ ëĵľ
Ġìŀħ ìĹĪëĭ¤
Ġíİ ł
or t
Ġì¡ ¸
Ġë°©ë¬¸ íķľ
ou th
Ġê³³ ìĹĲ
Ġì¿ł ë¥´ëĵľ
íľ ´
Ġëª©ìĪ ¨ìĿĦ
a in
ëĿ¼ ë¹ĦìķĦ
ĠìĪĺ ì¹ĺ
ĠìľĦ ìĦ±
ë¯¸ ëĶĶ
ĠìķĮ ë¦¬
ë¶Ħ ìĿ´
ĠêµĲ ìĪĺ
Ġëĵ± ìĿ´
ëŀĢ ëĵľ
Ġë²ķ ìķĪìĿĦ
ì¤ ¬ëĭ¤
Ġëģ ¼
ĠìĻĦ íĻĶ
Ġë°ĺëĮĢ íķĺëĬĶ
ìĭľì¼ °
Ġëª©íĳľ ë¡ľ
k s
Ġë Į
ëĭ Ĳ
ìĿ¼ ëŀľëĵľ
ĠìłĦ ê¹Įì§Ģ
ê·¸ ê²ĥìĿĢ
Ġì£¼ ìµľ
Ġë³´ ìŀ¥
ĠìŀĲ ë£Į
íĨµ ìĭł
ĠìĿ¼ ìĸ´ëĤľ
ëĭĪ ê°Ģ
ĠëıĻ ê²°
ĠíıŃ íĴį
ĠS t
ĠìĤ¬ê³ł ë¡ľ
ĠíĬ¸ ëŁŃ
ĠêµŃë°© ë¶Ģ
ĠíĮĲê²° ìĿĦ
Ġê·¸ëħĢ ìĿĺ
Ġì¹´ë©Ķ ëĿ¼
1 6
íķĺ ê¸¸
Ġê²ĥ ëıĦ
ĠìĿ¸ ìĥģ
Ġìĺ¤ íĶĪ
ìĦ¸ ê¸°
ëª¨ ëĵł
ĠíĻķ ëĮĢ
ar y
ĠìĹ´ ë¦´
Ġë°ķ ë¬¼
ĠíĻľ ìļ©
ĠíķĦìļĶ ê°Ģ
íĳ¸ ë¥´
ĠìĹ°ìĦ¤ ìĿĦ
ĠìĿ´ìķ¼ ê¸°ë¥¼
´ëĤ ĺ
ë Ĵ
Ġìķ ī
ìĬ¤ ìºĲë¡¤ëĿ¼ìĿ´ëĤĺ
ĠìŀĲ ì¹ĺ
Ġìĺ¤ íķĺìĿ´ìĺ¤
Ġìľł ë¡ľ
Ġìľł ìłĦ
Ġìĥģ ì§ķ
ìĨĮ ë¡ľ
Ġì¡° ìłķ
ë°Ķ ë¡ľ
íĤ¤ ëĬĶ
ìĭĿ ìľ¼ë¡ľ
Ġíķ´ ìłľ
Ġ4 5
Ġë¶Ī ëŁ¬
ë¥´ë ²ł
Ġìłģ ìĸ´ëıĦ
Ġìĭľìŀĳ ëĲľ
ĠìłĢ ëħģ
Ġê³³ ìĹĲìĦľ
Ġì¶ķ íķĺ
Ġë¨¸ ë¬¼
¤ ëĭ¤
Ġë ķħ
íķĺ ë§Ī
Ġì§Ģ ìĹ°
ĠìłĦ íĺĢ
ĠìķĦ ë¬´
ĠìĿ¸ ê¸°
ë¬¸ ìĿ´
Ġëĭ¤ ëĭĪ
ëĭ¹ ìĿ¸
ëĲĺ ë©°
ĠìĺĪ ìĪł
Ġì´Ŀ ìŀ¬
Ġë¶Ħ ëħ¸
Ġë°ľê²¬ ëĲĲëĭ¤
ëłĪìĿ´ ìĭľìķĦ
Ġê·¼ ë¡ľ
it h
Ġëĸ¨ìĸ´ ìł¸
íĶĮ ë£¨
ou r
ĠíĴ Ī
Ġë°ľìĸ¸ ìĿĦ
ĠìĹ°ìĦ¤ ìĹĲìĦľ
Ġìµľì´Ī ìĿĺ
a ce
Ĩ ĵ
ìĦ Ń
ëıĦ ëĬĶ
ë§Į ëªħ
Ġë§Ĳ íķľ
íĦ ¸
Ġë² ½
ìľĦ ìĿĺ
Ġìłľ ìŀĦìĬ¤
ĠìĺĪ ë°©
ìŀ¬ íĮĲ
ĠëıĦ ì¤ĳ
íĨł ëĭĪ
Ġë²ķ ë¥ł
Ġê²½ìłľ ìłģ
Ġì§ģ ë©´
ĠìĤ¬ìĿ´ íģ´
ĠìĪ¨ ì§Ħ
ĠìĻķ ìĦ¸
Ġë³´ëĤ ¸
ĠE U
ĠëĤ® ìĿĢ
Ġíķ´ë³ ĳ
ĠëĤĺë¨¸ ì§Ģ
c nn
o s
Ġ is
ìĭľ ìĿĺ
ĠìĿ´ë ªħ
Ġê¸° íļĮë¥¼
Ġê²½ ë¹Ħ
Ġê·¸ ìĹĲê²Į
Ġìĺ¤ ëŀ«ëıĻìķĪ
ë¥´ ê¸°
Ġê³ł ëŀĺ
íı¬ íĦ°
ĠìĿ´ëĿ¼íģ¬ ìĿĺ
Ġì¤ĳêµŃ ìĿ´
íĥĪ ëłĪë°ĺ
ĠëĤĺíĥĢ ëĥĪëĭ¤
ĠëĮĢíĳľ íĮĢ
Ġë°ĿíĺĢ ì§Ģì§Ģ
Ġb e
Ġê²ª ê³ł
ë¹Ħíĸī ê¸°
ĠìĿ´ëªħ ë°ķ
1 3
ê ¿
ĠìĿ´ ëĵ¤ìĿĦ
ĠìĿ´ íĺ¼
íĻ Ģ
ëĵľ ë¥´
ì² ¨
ĠìĹ° ë£¨
ìĹ¬ ëªħìĿĺ
Ġê°ľ ìŀħ
Ġìĭł ì²Ń
Ġë¶Ī ê³¼
ĠìĻ¸ ë¬´ë¶Ģ
ë¥´ë Ĥ
Ġë¬¸ìłľ ë¡ľ
Âł200 8
Ġìķł ìĻĦ
ĠìĤ¬ê³ł ê°Ģ
ĠU N
Ġìĸ¼ êµ´
ĠëĨĵ ê³ł
ë¥´ë¹Ħ ìķĦ
ìŀ ĺ
ëł Ģëĭ¤
ìĬ¤ íĨ¤
ĠëĮĢ íĺķ
ê·¸ ëŀĺ
ëĮĢ íķĻ
Ġì£¼ íķľ
ĠìľĦ ê¸°ìĹĲ
êµ° ìĿĦ
Ġë°© íĸ¥
ĠìĹĨ ëĭ¤ëĬĶ
ĠìķĮ ìķĦ
ìĹ° ë§¹
Ġìĭ¤ ìĹħ
Ġë§¤ ìĿ¼
Ġìĺ¤ë°Ķë§Ī ìĿĺ
Ġë¬¼ ì§Ī
Ġê°ĢëĬ¥ ìĦ±ìĿĦ
Ġê²°ê³¼ ê°Ģ
ëĳ ¥
ĠìĿ´ìļ© íķ´
ê¾ ¸
ĠëıĻìĦ± ìķł
ĠìŀĪ ìĿĮìĿĦ
íģ Ĳ
ìĦł ìĹĲ
ìĺģ íķľ
Ġìļ° ë¦¬ìĿĺ
ìĹ° ë°©
Ġ200 9
Ġë¡ ł
Ġë²Ħ ì§ĢëĭĪìķĦ
ĠìľĦíĹĺ íķľ
ê´Ģê³Ħ ë¥¼
Ġë¶ķ ê´´
Ġë¨¼ ìłĢ
u p
¼ Ī
ìĿ´ ëĵľ
ìĹĲ ìĦł
ĠìĹ° ìŀ¥
ì¡° ì§ģ
Ġëª¨ ìĹ¬
ìĽĶ ê¹Įì§Ģ
Ġê³ł ìĸĳ
ìķĺ ëįĺ
Ġê°ľ ìłķ
Ġìŀ¥ ìķł
ĠíĮĮ ìĨĲ
Ġêµ¬ ìŀħ
Ġëħ¸ ëł¥ìĿĦ
Ġì°¨ ê¸°
íĨł íį¼
Ġêµ° ìĿ¸
Ġë¦¬ ë²Ħ
Ġê²Ģ ìĤ¬ë¥¼
ĠíļĮëĭ´ ìĹĲìĦľ
ĠìĨį ìĹĲ
Ġë¹ł ë¥¸
Ġì¼Ģ ëĥĲ
Ġc on
Ġì£½ ìĿĮ
ìģ ĺ
ìģ ľ
Ġìķ¨ ë²Ķ
1 5
ì ¯
ê° Ķ
ìĭ ¼
ê°Ģ ë²ł
ë¦¬ íķĻ
ì² ¼
Ġìĺ¤ ëŀľ
íĥĢ ìŀĦ
ê°ľ êµŃ
Ġê²° ë¡ł
ĠëıĦ ì¿Ħ
ë²Ħ ëĿ½
Ġì£¼ìŀ¥ ìĿĦ
ëĤ´ ê°Ģ
Ġë¹ Ļ
Ġëª© ìłģ
ĠìĺģíĻĶ ë¥¼
ì¦Ŀ ìĿĦ
ĠìĪ¨ ì¡Įëĭ¤
ĠìĨĮìĭĿ ìĿĦ
ĠíķľëĤĺëĿ¼ ëĭ¹
ë¦¬ìļ° ëĵľ
ª ¨
Ġê ¾
ĠìĿ´ íĸī
ĠìĿ´ ëĭ¬
ĠìĪĺ ìłķ
ĠìķĦ ê¸°
Ġì£¼ ë¡ľ
Ġê¸° ë°ĺ
Ġê¸° ë³¸
Ġê¸° ëĬ¥
ĠìŀĲ ìĦ¸
ë³´ ê°Ģ
ë³´ íĺ¸
ĠìĿ¼ ìļĶìĿ¼
íĸĪ ëĬĶëį°
ëĶ ķ
Ġíķĺ ë§Ī
ĠëıĻ ìĭľ
ĠíĮĮ ê´´
ĠìĤ¬ëŀĮ ëĵ¤
Ġë© °
ëĤ´ ëĬĶ
Ġì§ĳ ìĹĲìĦľ
ì» ·
ë©Ķ ë¥´íĬ¸
ĠíħĮëŁ¬ ë¥¼
ĠìŀĦ ë¬´
Ġê³ĦìĨį íķ´ìĦľ
Ġëĵ¤ìĸ´ ê°Ģ
ĠìłĪ ë°ĺ
Ġì±ħ ìŀĦìĿĦ
ëĲĺìĹĪ ìĬµëĭĪëĭ¤
ĠìĶ¨ ëĬĶ
ĠíĿĳ ìĿ¸
Ġê±± ìłķ
Ġê° ¤
ĠëĤ ³
Ġë³´ ìĿ´ê³ł
ë§Ī ìĿ¼
ë¯¸ íĦ°
Ġíķĺ ê²Į
ì²´ ë¥¼
ë°© ìĿĦ
ì¤ĳ êµŃìĿĢ
Ġì¦Ŀ ëªħ
ĠëĳĲ ëł¤
ì» ¨
Ġíĥľ ìĸĳ
ìº ł
Ġíķ´ë³ Ģ
ìĿ´ ê²ĥìĿĢ
ĠëĮĢ ì²ĺ
Ġê²ĥ ì²ĺëŁ¼
Ġì§Ģ ì¶ľ
Ġìĥ ī
Ġë³´ ê¸°
ë¥´ íģ¬
ë¥´ íĹ¨
Ġìµľ ìłĢ
ì²´ ìĬ¤íĦ°
Ġë¶ģ ê·¹
Ġê°ķ íĥĢ
ĠìķĪ ìłķ
Ġì§ĳ ê³Ħ
ë©Ķ ë¦¬
Ġì§ģ íĽĦ
ì¤Ģ ëĭ¤
Ġë¶Ģìĥģ íĸĪëĭ¤ê³ł
Ġì¶ľìĭł ìĿĺ
Ġì°¨ì§Ģ íĸĪëĭ¤
ìķĦíĶĦ ê°Ħ
Ġì£¼ìĿ¸ ê³µ
¹ ìĿĢ
ë¥ ´ëıĦ
íķĺ ê²łëĭ¤ëĬĶ
ĠëĮĢ íĻĶ
ìŀĲ ê¸Ī
ĠìĪĺ ìļĶìĿ¼
ì¹ ¼
ì¹ Ļ
Ġê·¸ ëħĢëĬĶ
ê± ¸
Ġë¶Ģ ëĮĢ
ĠëĤ¨ ìĦ±ìĿ´
Ġë°ľíĳľ íķł
ĠìŀĦ ë¬´ë¥¼
Ġê²½ê¸° ìĹĲ
ë³µ ìĿĦ
Ġë§ŀ ìķĦ
ĠíĹĪ ê°Ģ
Ġp ro
Ġíĺķ íĥľ
Ġë¹Ħìĥģ ìĤ¬íĥľ
Ġë©Ķìĭľ ì§Ģë¥¼
ĠëĮĢìĿĺ ìĽĲ
Ġë¸Ķë¡ľê·¸ ìĹĲ
ë ľ¨
ìĿ´ ìĬ¬ëŀĮ
ĠìĤ¬ íķŃ
ìĸ´ ìĬ¤
íĬ¸ ìĹĲ
Ġì£¼ ê³ł
Ġìĭľ ìŀ¥ìĿĢ
Ġì¤ĳ ìĿ´ëĭ¤
ì¹ĺ ë¡ľ
ìķĪ ë³´
ĠëĤĺ ë¬´
íı¬ ë¥¼
Ġìĭ¤ ë§Ŀ
Ġê°Ĳ ì¶ķ
ĠêµĲ íĻ©
ìĬ¹ ìĿĦ
Ġë²ķ ìłķ
Ġíķµ ìĭ¬
ĠìĤ¬ìļ© íķĺëĬĶ
ĠìĦłê±° ìļ´ëıĻ
ìĸ´ëĤ ł
ĠíĹĪ ë¦¬ì¼ĢìĿ¸
Ġê¸°ë¡Ŀ ìĿĦ
ĠìłĲ ëł¹
Ġìķķ ëĳĺ
Ġìĭ¤ìĭľ ëĲľ
Ġì¶Ķê°Ģ ë¡ľ
Ġë³ĳìĽĲ ìľ¼ë¡ľ
Ġìī½ ê²Į
ĠìĤ¬ë¥´ì½Ķ ì§Ģ
ì§Ģ ê²Į
ĠìĹ ¼
ĠìĪĺ ë°ĺ
ĠìĿ´ë ¯¼
êµ¬ ì¡°
ĠìĿĺ íķľ
íĶĦ ëŀĢ
Ġìļ° íģ¬ëĿ¼ìĿ´ëĤĺ
Ġë¶Ħ ìľĦ
Ġì²ĺ ë²Į
ìłĲ ìĹĲ
ĠìĨĲ ìĿĦ
ĠìĪ¨ ì¡Įëĭ¤ê³ł
ĠëģĿ ëĤĺ
ìĽ¨ ìĿ´
ĠíĮ¨ ìħĺ
ĠíĸīëıĻ ìĿĦ
ĠìľĦìĽĲ ìŀ¥ìĿĢ
Ġìĸµ ë¥ĺ
ĠìĹ ´ëł
ìłķ ë³´
ì£¼ ë¡ľ
Ġë§Ĳ ë¦¬íĤ¤
Ġíĺ Ī
ĠìĿ¸ ìĤ¬
ĠìĿ¼ ìĸ´ëĤ¬
Ġì¡° ìŀĳ
ëĶ ĺ
Ġ3 2
ìľł ê°Ģ
Ġì´Ŀ ê²©ìĿĦ
ë¶Ħ ìĿĦ
Ġì§Ħ ìŀħ
ĠìĽĲ ì¡°
Ġë¹ Ľ
Ġìĸ¸ ìłľ
ĠìĤ¬ìļ© íķł
Ġíĳľ ëªħ
Ġì£¼ë¯¼ ëĵ¤ìĿĢ
Ġíļ į
ĠìĦľë¹Ħ ìĬ¤ë¥¼
íĶĦíĬ¸ ìĽ¨ìĸ´
Ġì°° ìĬ¤
2 7
e ar
į ìłķ
ëĭ ·
íķ´ ë¦¬
ëł Ľ
ìĭľ íĭ°
ĠìĿ´ ëĵ¤ìĿĺ
Ġê¸° êµ¬
Ġì¡° ê¸Ī
ì²´ ê°Ģ
Ġìĭł ìĨį
Ġë© ĭ
Ġìŀĳ ìłĦ
Ġì£¼ìŀ¥ íķĺëĬĶ
Ġë°ľìĥĿ íķł
Ġëª© ìļĶìĿ¼
ìĬ¬ ëŁ¬
ĠìĥĿê°ģ íķĺê³ł
ìĺĪ ë¥¼
Ġ15 0
Ġì°¸ìĦĿ íķľ
19 9
ìĦľ ìļ¸
ĠëĮĢ ë¶ģ
ĠëĮĢ íĻĶë¥¼
ìĤ¬ ìĹĲìĦľ
Ġì§Ģ ê¸ī
ëĤĺ ìĿĺ
ëĤĺ ìĻĢ
Ġê¸° ìŀĲëĬĶ
Ġìľł ëĮĢ
Ġíķĺ ìĿ´
Ġë°Ķ ìĿ´
ĠíĶ¼ íĦ°
an s
ĠìĺĪìłķ ìĿ´ë©°
ìĬ¨ ìĿ´
Ġë¦ °
ĠíĽĦë³´ ìĿĺ
ĠíĽĦë³´ ë¡ľ
ĠìĤ° ë¶Ī
ĠìĦłê±° ìĹĲìĦľ
íĻĺ ìĿĦ
Ġìķł íĶĮ
ĠìĥģíĻ© ìĹĲ
ĠìķĦì§ģ ëıĦ
ì§ĢìĹŃ ìĹĲ
Ġë³ĳìĽĲ ìĹĲìĦľ
ĠìĹ¬íĸī ìĿĦ
ë´ ĩ
B A
Ģ ëĵľ
ê³ł ë¥¼
Ġëĭ ´ë°°
ì£¼ êµĲ
Ġê°Ģ ìłķ
ĠìĿ¼ ìłķ
ë©´ ìĿĦ
íĳľ ë¥¼
ĠìĬ¤ íħĮ
Ġì´Ŀ ìĿĦ
Ġìĭł ì¢ħ
ë¶Ħ ê¸°
ëĶĶ ìķĦ
in e
an t
Ġì¦Ŀ ê¶Į
ĠìĤ´ íķ
Ġíı¬íķ¨ íķ´
Ġíľ ©
ë¹ ł
ĠëĤĺíĥĢ ëĤĺ
ĠëĮĢíķĻ ìĿĺ
ĠíķĺëĿ½ íĸĪëĭ¤
Ġëŀ ŃíĤ¹
ig n
ë²łìĿ´ ëĭĪìķĦ
Ġìĩ¼ íķĳ
ìĵ °
Ġìŀī ê¸Ģëŀľëĵľ
k g
ìĦ ¯
íķĺ ëĿ¼ëĬĶ
íķĺ ë©Ķëĵľ
ëĿ¼ ìĿĺ
Ġë¬ ´ëĮĢ
Ġíĺ ģ
ĠëĮĢíĨµëł¹ ìĹĲ
ê²© ìĿ´
Ġì´Ŀ ê¸°
Ġ4 00
ĠíĨµ íķ©
Ġê±° ëĮĢíķľ
Ġì°¨ ê´Ģ
ëĦ¤ ìĿ´
ĠìĪ Ļ
Ġìĭľìŀĳ ëĲĲëĭ¤
Ġìĸ» ìĿĢ
ĠN A
Ġì£ Ħ
Ġìĸ¸ë¡ł ìĿĢ
ĠëĲĲ ëĭ¤ê³ł
ĠìĤ¬ë¬´ì´Ŀ ìŀ¥ìĿĢ
ëĤĺìĿ´ íĭ°
a b
ë Ģ
Ġë ī
ì§Ģ ë©´ìĦľ
ëĿ¼ íģ¬
Ġì§Ģ íĤ¤
ìķĦ ëª¬
ìłķ ì±ħ
ì° į
ê³Ħ ìĹĲ
íĮ ¬
ë¥´ ì§Ģ
ĠìŀĪëĬĶ ëį°
ëŀĺ ìĬ¤ì¹´
Ġë§Į ëĵľëĬĶ
íĭ° ìķĦ
ĠìĤ¬ë§Ŀ íĸĪìľ¼ë©°
Ġ19 6
Ġë²ł ì»´
ìĸ´ë ĸ
Ġë¹ ¨ë¦¬
ĠíħĮëŁ¬ ë¦¬ìĬ¤íĬ¸
ì³¤ ëĭ¤ê³ł
Ġë¨¸ ë¦¬
ĠíĻį ë³´
íģ´ë¦°íĦ´ ìĿĢ
Ġê³łìĨį ëıĦë¡ľ
Ġìĭľìĥģ ìĭĿ
ĠìĪĺëĭĪ íĮĮ
l d
Ġê ¶ģ
ìĿ´ ë¯¸
ìĿ¸ ëĵ¤ìĿĺ
ĠìĤ¬ ë¡Ģ
ëĮĢ ìĽĲ
ë§Į íķľ
Ġë³´ íĹĺ
Ġíķľ ìĺģ
Ġìĸ ´ëł
ê³Ħ ìĿĺ
Ġìĥģ ëĭ¹
ĠìŀĪëĬĶ ì§Ģ
Ġë§Ī ìĿĮ
Ġë¬´ ìĭľ
íĭ° ëĬĶ
Ġëĭ¬ ëĿ¼
Ġë°° ëŁ´
Ġëª» íķł
Ġíıī ìĸĳ
ĠìŀĦ ìĭł
Ġê°Ģê²© ìĿ´
Ġë¶ĢìĿ¸ íĸĪëĭ¤
ìĿ´ëŁ¬ íķľ
ĠìĬĪ íį¼
ìĺģíķľ ìĤ¬ìłĦ
Ġíķľìĺģ ìĤ¬ìłĦ
ëĵ¤ ë¦°
ĠëĮĢ ëĭµ
ìŀĲ ëıĻì°¨
êµŃ ë¯¼
ĠìłĦ ëł¥
Ġë³´ ìĿ´ì§Ģ
íģ ´ëĿ¼
Ġê³µ êµ°
ëĲĺ ë©´
ìĦł ìĿ´
ĠëĮĢíĨµëł¹ ìĹĲê²Į
ĠìķĮ ëłī
ĠìĦ± íĻĶ
Ġìŀ¥ ë¡Ģ
Ġìŀħ ìŀ¥
ĠìĽĲ ìŀĲë¡ľ
Ġë¬¸ìłľ ëĬĶ
ĠëĲĺ ë©´
Ġë¹ ħ
ìłĲ ìĿ´
Ġíĳľ ìĭľ
Ġë¯¸êµ° ìĿĺ
Ġì§Ī ë³ĳ
Ġê¸°ìĪł ìĿĦ
ĠìĹĦ ë§Ī
2 4
2 6
U S
° Ķ
´ ëĭ¤
ê³ł íķľ
ìĿ¸ ìľ¼ë¡ľ
ëł Ģ
ë° Ķëĭ¤
ëŀ Ń
ìĥģ ìľ¼ë¡ľ
Ġëĭ¤ ê°Ģ
ë¹Ħ ê°Ģ
ëłĪ ìĸ´
ĠìľĦíķ´ ìĦľ
ĠíĽĦ ë°ĺ
Ġëĭ¹ íķľ
Ġë°Ķ ëĢ
Ġìŀ¥ ìķħ
Ġë¶Ī ë§ĮìĿĦ
ĠëĤ´ ê°ģ
Ġìŀĳ ëħĦ
ar d
Ġì¤Ħ ìĸ´ëĵ¤
ĠìķĬëĬĶ ëĭ¤ê³ł
ĠìĥģíĻ© ìĹĲìĦľ
ic e
íıī íĻĶ
íĮĢ ìĿĢ
Ġìĭ¤ìĭľ íķľ
íĬ¼ ìĿĢ
ĠìłĦë§Ŀ ìĿ´ëĭ¤
NA SA
/ /
1 4
t p
t r
ī ìĿĢ
ë¦¬ ë©°
ê¸° ê´Ģ
ê¸° ìĪł
Ġê³ ¡
Ġê²ĥ ë³´ëĭ¤
ìĨ Ķ
Ġê°Ģ ëĬĶ
Ġê²½ íĺ¸
Ġë³´ ìĿ´
ìļ° ëĬĶ
ĠìĨĮ ê°ľ
ìĦł ìĪĺ
Ġíĥ ģ
ë¬´ ìĹŃ
ĠìĺĪ ë¹Ħ
ĠíĮĮ ìķħ
ì²Ń ìĿĢ
ëıħ êµĲ
ìħ Ģë¡ľ
ĠíĮĲ ìĤ¬ëĬĶ
Ġë³Ģ íĻĶë¥¼
Ġì¡°ìĤ¬ íķĺê³ł
ëıĮ ë¦¬ìŀĲ
ĠìķĮëł¤ ìł¸
íĶĮ ëłĪìĿ´
ĠìŀĪìĹĪ ìľ¼ë©°
ĠìĿĺíļĮ ê°Ģ
Ġìķ½ìĨį íĸĪëĭ¤
: //
ç ¾
ĠëĮĢ ì¶ľ
ë° ¤
ìĸ Ħ
Ġìĺ Ĩ
ìĽĲ ìłľ
Ġê¸° ìļ¸
ĠìķĬ ëĭ¤ê³ł
ĠìķĬ ëıĦë¡Ŀ
Ġê¸ įìłķ
ìļ´ ëĵľ
ë¶Ħ ìĿĺ
ĠëĤ´ ë¦°
Ġê°ķ íķĺê²Į
ĠìŀĲìĭł ëĵ¤ìĿ´
ëįĶ ëĿ¼ëıĦ
ĠìĥĪ ë¡ľ
ĠìĿĮ ìĭĿ
ĠëĮĢìĦłíĽĦë³´ ìĿ¸
ĠìĪĺìĪł ìĿĦ
ĠìĨĮìĭĿíĨµ ìĿĢ
ë¥´íĹ¨ íĭ°ëĤĺ
O C
c at
ìĿ¸ íķĺ
ì£¼ ê°Ħ
ìłľ ìĹĲ
Ġê¸° íĽĦ
Ġê¸° ìŀĲê°Ģ
ĠìĨĮ íĶĦíĬ¸ìĽ¨ìĸ´
ĠëĤĺ ìĦ°ëĭ¤
Ġë¬´ ë¦
Ġíĸī ìľĦë¥¼
or th
ì²ĺ ë¥¼
Ġê³Ħíļį ìĿ´
ìłķë¶Ģ ê°Ģ
Ġë¸Į ë¦¬
Ġë³µ ìļ©
Ġì²´íı¬ ëĲľ
Ġêµ¬ìĦ± ëĲľ
ht tp
Ġì°¬ ìĦ±
Ġê°Ģê¹Į ìļ´
Ġê·¸ëłĩ ê²Į
Ġë¹ĦìĬ· íķľ
2 9
T ot
¶ Ī
Ġê ½
ê°Ģ ìĿĺ
ĠìĿ´ ë¡ľ
ĠìķĬ ìľ¼ë©´
ë¯¸ ìĸĢë§Ī
Ġì¡° ê°ģ
ĠìĹĨ ìĹĪëĭ¤ê³ł
ĠíĻķ ìłķ
íķ¨ ìľ¼ë¡ľìį¨
Ġíĺĳ ì¡°
ĠíķĦ ë¦¬íķĢ
ĠíħĮëŁ¬ ë¡ľ
íĻĺ ìľ¼ë¡ľ
ê²ĥ ìĿĦ
ĠìĨį ìĹĲìĦľ
ĠìĦĿë°© ìĿĦ
Ġê¸´ ìŀ¥
Ġëª° ìķĦ
ìĶ ¬
Ġì²ŃìĨĮ ëħĦ
co de
Tot al
# #
å ·
ìĿ´ ìĹĪëįĺ
ê°Ģ ì¡±
ë¦¬ ì¡°
ë¦¬ ìĺ¤
ë² ¤
Ġê°Ģ ìĪĺ
Ġê¸° íĥĢ
ìľĦ ìĬ¤
Ġëį ¸
Ġì¹ ´ëĿ¼
Ġ3 6
ĠìĹ° ëĿ½
Ġíķĺ ìĽĲ
Ġë°© íķ´
ìĸ¸ ë¡ł
Ġë¹ ¼
as p
Ġì¤Ģë¹Ħ ê°Ģ
Ġì°© ìĪĺ
ĠëĤĺë Ī
ç¾ İ
l y
¾ Į
ê° Ĵ
ìŀĲ ëł¥
ìŀĲ ëĵ¤ìĹĲ
íĺ Ķëĭ¤
ì£¼ ë¯¼
ê°Ħ ëĭ¤
Ġê·¸ ë¦¬ìĬ¤
ìłĦ ìĿĺ
ĠêµŃ ìĻķ
ë¥´ íĨł
ĠìĹĨ ìĬµëĭĪëĭ¤
íĺ¸ ê°Ģ
Ġê°ķ ê²½
ë°ľ ìĿĦ
ëĦ¤ ëĶĶ
Ġì§ĳ ìĿĦ
ĠìĺģêµŃ ìĿĺ
es s
ĠíļĮëĭ´ ìĿĢ
Ġìļ´ íĸī
Ġê°ĸ ì¶Ķ
Ġìķķ ëł¥ìĿĦ
ĠìĹ¬íĸī ê°Ŀ
Ġw ith
Ġë¶Īê°Ģ ëĬ¥
ê¾ ¼
Ġë¬´ëł ¥
å· ŀ
¼ ë¡ľ
Ġë ½
ìĿ´ íģ¬
ĠëĮĢ ê¸°
ĠëĮĢ ìĤ¬
ìŀĲ ê¸°
êµŃ ìľ¼ë¡ľ
ìĭľ ìĬ¤ì½Ķ
ĠìĪĺ ìĺģ
ìłģ ìĿ´ê³ł
ì£¼ ë¥¼
íĬ¸ ìĽĮ
íĻĶ íĨµìĭłìĿĢ
ê³Ħ ê°Ģ
ëł¹ ìĿĦ
ĠìĿĺ ìŀ¥ìĿĢ
Ġê³ł ë¬¸
ĠìĬ¤ ìĬ¤ë¡ľ
ê²© ìľ¼ë¡ľ
ĠìĦ± íĸ¥
ìĤ° ìĿ´
ĠìĹĲ ìĿ´ì¦Ī
ĠëĤ´ ìĹĲ
Ġë© Ģ
ë¸Į ë¦¬
Ġê²½ì°° ê³¼
Ġë²Į ìĿ¸
ëħ¸ ëıĻ
Ġì¹ĺ ìķĪ
Ġìłģ ê·¹
ĠìĤ¬ê±´ ìĿĺ
ĠìļĶêµ¬ ë¥¼
ĠìĿ¼ë¶Ģ ëĬĶ
Ġì°¾ ê¸°
ĠìĪĺìĥģ íĸĪëĭ¤
ĠìĤ´íķ´ íķľ
Ġíģ¬ë¦¬ìĬ¤ ë§ĪìĬ¤
ĠìĽ¹ìĤ¬ìĿ´íĬ¸ ìĹĲ
ĠìĬ¤ë¯¸ ìĬ¤
Ġêµ¬ì²´ ìłģìĿ¸
Ġê¾ ¸
D C
q u
ëĿ¼ ëĬĦ
ìĿ¼ ìĿĺ
ĠìĿ´ë ł
ĠìĿ¸ ì¢ħ
ĠìŀĲ íĥĿ
ĠêµŃ íļĮ
ìĹĪ ìĿĦ
íĪ¬ ê°Ī
ë¨¸ ëĭĪ
Ġì°¨ëŁī ìĿĦ
ĠìĿ¸ìłķ íĸĪëĭ¤
ĠìĨĮë¹Ħ ìŀĲ
res s
Ġëĭ¤ìĿ´ ìķłëĤĺ
Ġêº ¾
ë¥´ë²ł ì¦Ī
" "
Ġë ¿
Ġí Ģ
íķĺ ëĿ¼
ìĬ¤ íĶ¼
ĠìĿ´ ìłĦìĹĲ
Ġì§Ģ ìĪĺëĬĶ
ĠìłĦ ê¸°
ëªħ íķľ
Ġìĭľ ë¦¬ì¦Ī
Ġê´Ģ ë¦¬ëĬĶ
ê³Ħ íļį
ĠìĨĮ ì§Ģ
ë£ ¬
ĠìĽ ĥ
ë¶Ħ ìĹĲ
ĠìĤ¬ëŀĮ ìĿĺ
ëħ¸ ë¬´íĺĦ
Ġëĭ¨ ì§Ģ
ĠêµŃê°Ģ ìĿĺ
Ġë³Ģ ê²½
Ġë¬¼ ë¡ł
Ġì§Ģì§Ģ íķĺëĬĶ
Ġë³´ë ©´
ĠíķĦìļĶ íķĺëĭ¤
Ġìłķì¹ĺ ìłģìĿ¸
ê¸Ģ ëĿ¼
ĠëģĿ ëĤľ
íķĺëł¤ ê³ł
Ġë°ĽìķĦ ëĵ¤ìĿ´
ĠìłĦìŁģ ìĿĦ
Ġì²ľ ìĹ°
Ġë¶ĢëıĻ ìĤ°
i al
ë ĸ
Ġ r
ħ ¸
ê°Ģ íı¬ë¥´
Ġë° ´
ĠìĤ¬ ê¸°
ë¶Ģ ìĻĢ
ĠìķĦ ëŀĺ
ë§Ī ë¦¬
íĸī íķľ
ĠìĿĺ ìĤ¬ë¥¼
ì§Ħ ëĭ¤
Ġ3 7
Ġíķĺ ëĭ¤
ê³µ íķŃ
Ġìĺ¬ ëŀĲ
Ġìķ½ ê°Ħ
ëĤ´ ê³ł
Ġíĺ¸ ìĨĮ
Ġëª» íĸĪëĭ¤ê³ł
Ġë³´ê³ł ìĦľë¥¼
íĻĺ ê²½
Ġëĵľ ëĿ¼ë§Ī
Ġì¢ĭ ì§Ģ
´ëĲ Ĳ
ĠíĤ ¹
ĠíĪ¬íĳľ ë¥¼
Ġë³´ìĹ¬ ì£¼ëĬĶ
ĠìľĦíĺĳ ìĿĦ
ĠìłķíĻķ íķľ
ĠíĿĶ ëĵ¤
ê³ł ëŀĺ
ë¡ľ ëĵľ
Ġë° ĳ
ëĿ¼ ê°Ģ
ìķĦ ì§ģ
ìĪĺ íķľ
ì¹ĺ ìĹĲ
ĠìĨĮ ë§Ĳë¦¬ìķĦ
Ġìľł íĺĪ
ëĭ¨ ìĹĲ
ì¦ ĺ
Ġëħ¸ ë²¨
Ġë¶Ī ì°¸
ĠíĶ¼ ëŀį
ĠìĿ´ë²Ī ìĿ´
íķ¨ ìĿĦ
Ġë²ķ ìłģ
Ġë²ķ ìķĪ
ìĽĮ ìĭ±íĦ´
Ġê³Ħíļį ìĹĲ
ì´Ŀ ë¦¬ëĬĶ
Ġì²ł íļĮ
ĠëĮĢë¶Ģë¶Ħ ìĿĢ
ĠíļĮìĽĲ êµŃ
ì¯ ¤
Ġ v
ê³ ½
ê°Ģ ìĹĲ
ë¦¬ ìĸ¸
ìĬ¤ íİĺìĿ¸
ĠëĮĢ ì²´
ë° į
íĺ ĲìĿĺ
ĠìĤ¬ ê°ģ
íĬ¸ ë¦Ń
Ġê°Ģ ëĵĿ
Ġíķľ ë²Ī
ìĺ¤ ìĻĢ
Ġë¬´ ê¸°ë¥¼
Ġìĭ¤ ìłľë¡ľ
Ġë§Į ì¡±
ì§Ī ëŀľëĵľ
Ġì¶Ķ ë°©
ë¸Į ëĿ¼
Ġëĵ¤ ìĹĪëĭ¤
ëĥ Ī
ë¥ĺ ìĿĺ
ĠìļĶêµ¬ íķľ
ĠìļĶêµ¬ íķĺëĬĶ
ĠìļĶêµ¬ íķĺê³ł
Ġê°Ĳëıħ ìĿ´
Ġë°Ģ ëŀĢ
Ġê´Ģë¦¬ ëĵ¤ìĿĢ
ĠìµľìĨĮ íķľ
ĠìŀĲìĤ´ íıŃíĥĦíħĮëŁ¬
Ġìļ°ìĬ¹ ìĿĦ
ìĹĨ ëĬĶ
Ġê¿ Ī
H O
Ġìŀ ŃìĬ¨
íķľ ìĿ´
ĠëĮĢ ë¦¬
ĠìĿ´ ìĽĥ
Ġë³´ ìĦĿ
Ġíķľ ë¯¸
íĦ° ë¥¼
ë¹Ħ ìĬ¤
ê±° ë¦¬
ìĹĪ ìľ¼ëĤĺ
íĭ° ëª¨
ë²ķ ìĽĲìĿĢ
ĠìĦľ ìĭĿ
ĠíĺĦ ìŀ¥ìĹĲ
´ëł ĺ
ĠìĻ¸ íĻĺ
Ġíĸī ìłķ
ĠìĺģíĻĶ ëĬĶ
ì¸¡ ìĹĲ
ĠìķĦìĿ´ ëĶĶ
ëĿ¼ìĿ´ ìĬ¤
ĠíĥĪ ì¶ľ
íĿ ¡
Ġë¸Ķ ëŀĻ
ĠíĸĪ ìľ¼ë©°
Ġíķ´ê²° íķĺê¸°
Ġë°©ë²ķ ìľ¼ë¡ľ
Ġë³´ì¢Į ê´Ģ
Ġê´ ´
¨ ìĶ¬
ëĭ¤ ìļ°
ìĿ´ ë°ĸìĹĲ
ìĭľ ìŀ¥
ìĿ¼ ìĿ´
íĻ į
ê°Ħ ìĹĲ
Ġìĭľ ê¸°
Ġìĭľ ìłĪ
Ġì¤ĳ ìĹĲëĬĶ
Ġíĺ ľ
Ġë³´ ì¡°
ĠìĿ¸ íķĺ
ë¯¸ ë¥´
Ġìľł ìĦ¸
ë¹Ħ ëĬĶ
ë¥´ ëĭ¨
ìĨĮ ë³´
Ġ3 8
Ġìĺģ ìĸ´
ĠìĬ¤ ì½ľ
Ġë°Ķ ê¾¸
ĠìĤ¬ëŀĮ ìĿĦ
ìĪ Ń
ĠC EO
ĠìķĦìĿ´ ë¥¼
Ġê²°ìłķ ìĿĢ
Ġìĸ» ìĹĪëĭ¤
Ġ199 9
íģ´ ë¦¬
ĠíĽ ¨ìĶ¬
Ġìŀł ìŀ¬
ĠìĿĳ ëĭµ
ì§ľ ë¦¬
ĠìĬ¤íĭ° ë¸Ĳ
Ġì ¥Ĳ
ĠëĮĢ ìĤ¬ëĬĶ
ìĤ¬ ìĿ´
ìĤ¬ íļĮìĿĺ
ìŀ¥ íķľ
ëĮĢ ìĹĲìĦľ
Ġíķ ´ë
Ġì£¼ ëª©
Ġìĸ ĺ
Ġëĵ ł
íĥĢ ëĤĺ
ĠëıĦ ìłĦ
Ġì¶Ķ ìĤ°
Ġë¹ ¨
Ġë¦¬ ì²ĺëĵľ
ì¸¡ ìĿĺ
ĠíħĮëŁ¬ ê°Ģ
Ġë°©ë¬¸ íķł
ë°± ë§Į
Ġì°¾ ëĬĶ
ĠìĪľ ì°°
ĠíĹ¤ ëŁ´
´ë° Ģ
Ġíİ¸ ì§ĳ
Ġìºł íĶĦ
Ġë©° ì¹ł
Ġë¬´ë¦ İ
Ġ at
ìĿ´ ëįĺ
ë¦ ¿
ëĿ¼ ë¯¸
ĠìĿ´ íķĺ
ĠìĤ¬ ìĤ´
ìĿ¼ ë¡ľ
ê³¼ ëĬĶ
ĠìŀĪ ìľ¼ëĤĺ
ëĤĺ ê°Ģ
ĠìĿ´ë £¨
ë§Į íģ¼
Ġê¸° ëıħêµĲ
ì¹ĺ ì§Ģ
Ġê³µ ì¤ĳ
ĠêµŃ ë¬´ìŀ¥ê´ĢìĿĢ
Ġì¡° íķ©
Ġëª¨ ìĿ¸
ì½ ¤
Ġíķ´ ìĤ°
ĠìĦ¸ ë¥´ë¹ĦìķĦ
Ġíģ ´ëĿ¼
Ġìŀħ ìĹĪëĭ¤ê³ł
Ġì¤ĳêµŃ ìĿĢ
Ġê´Ģê³Ħ ê°Ģ
ĠíĻĶ íķĻ
Ġëªĩ ëªĩ
ĠëĤ´ë Ĩĵ
Ġì§Ī ë¬¸
ĠF A
ê³³ ìĹĲìĦľ
ĠìĿ¸íĦ°ë·° ë¥¼
ĠD NA
Ġíĺķ ìĦ±
Ġíŀĺ ëĵł
ra q
íŀĲ ëŁ¬ë¦¬
Ġëĭ¤ìĿ´ ìķĦëª¬
ĠëĤ´ëł ¸
Ġë²Ĺ ìĸ´ëĤĺ
ĠìĨĮìĨ¡ ìĿĦ
ê²Ģì°° ìĿĢ
Ġíķľë°ĺ ëıĦ
ìĿ¸íĦ° ëĦ·
íĶĦëŀĢ ìĭľìĬ¤ì½Ķ
a g
u b
¼ ìĨĲ
ìĿ´ ìĥģ
êµŃ ìĹĲ
ìĽĲ ìĿ¸
ĠìŀĪëĭ¤ ë©´
Ġê°Ģ ìŀħ
ë§Ī ëĬĶ
ĠìĿ¼ ìĿĢ
Ġê´Ģ ìĹ¬
ëĲĲ ì§Ģë§Į
Ġíķ´ ìłģ
ĠíĶĦ ëłĪ
ĠíĺĦ ìŀ¥ìĹĲìĦľ
Ġë© ľ
Ġì§ĳ ìĹĲ
Ġt h
ĠëĿ¼ ìĬ¤
ĠíĥĢ ê²©ìĿĦ
ĠëłĪ ëĵľ
Ġíı¬íķ¨ ëĲĺìĸ´
ì¸ł ëĬĶ
Ġì¡´ ì¤ĳ
ĠíļĮëĭ´ ìĹĲ
íĭĢ ëŀľëĵľ
Ġìłĳ ìĨį
Ġì²Ń ìĻĢ
Ġê¶Į ê³ł
Ġ25 0
ë¶ģíķľ ìĿ´
Ġë°ľìĸ¸ ìĿĢ
Ġê²Ģì°° ìĿĢ
ĠìĽ¨ ìĬ¤íĬ¸
Ġë¶ķ ê´
Ġìĸ´ëł µ
c m
£ Į
Ġ V
ìĿ´ íĥĪë¦¬ìķĦ
íķ´ ì¡Įëĭ¤
ĠìĿ´ ë¥´ëĬĶ
ë³ ´ë¶Ģ
Ġìľ ¤
Ġìľ ¼ë¡ľ
ëĮĢ ìłĦ
Ġì£¼ ìĹĲìĦľ
Ġë³´ ê´Ģ
êµ¬ ê°Ģ
Ġê´Ģ ê°Ŀ
Ġëį ®
Ġìľł ëĤĺìĿ´íĭ°
ìĤ ¼
ìĤ ´ëłĺ
ĠíĽĦ ìĦ¸ìĿ¸
ê°ľ ê°Ģ
Ġë°© ìĸ´
Ġë°Ķ ê¿
ĠëıĦ ëĭ¬
Ġìŀ¥ ê´ĢìĿ´
ìŀĳ ìĹħ
Ġìĺ¬ ë©Ķë¥´íĬ¸
Ġìŀĳ ê°Ģ
ë¸Į ëĬĶ
ìĬ¤íĬ¸ ë¦¬ìķĦ
ĠìĿĮ ëª¨
ĠëĲľ ëĭ¤ê³ł
Ġë³´ê³ł íĸĪëĭ¤
Ġì¡°ìĤ¬ ìĹĲìĦľ
ê·¸ëŀ ¨
Ġìļ°ì£¼ ë¹Ħíĸī
Ġê¶Į ë¦¬ë¥¼
ìĶ¨ ê°Ģ
Ġì°© ìļ©
ĠíĹ¬ ê¸°
ĠíĬ¹ë³Ħ íķľ
Ġê·¸ëħĢ ê°Ģ
íĮĶ ëłĪìĬ¤íĥĢìĿ¸
ĠìłľìķĪ íĸĪëĭ¤
Ġíİľìĭ¤ ë²łìĿ´ëĭĪìķĦ
íĶĮë£¨ ìĿĺ
ëĭ· ì»´
Ġìĭłì¢ħ íĶĮë£¨ìĿĺ
ĠìĤ¬ê°ģ ì§ĢëĮĢ
ê ¼
ëĭ¤ ìĭľ
ê¸° ë¬¸
íĺ ľ
ĠìĿ´ ëĵ¤ìĿ´
ĠìłĦ ë©´
íĬ¸ ëĦĪ
Ġìĭľ ìĭł
Ġì¤ĳ ìĿ´ëĿ¼ê³ł
ëħĦ ìĹĲëĬĶ
ë§Ī ë¥´
ê´Ģ ëł¨
ëıĻ ìĿ´
ĠìĹ° ì£¼
Ġëª¨ ìĸĳ
ĠìĬ¤ ì½Ķ
ĠíļĮ ìĤ¬ìĿ¸
Ġë¬´ ê°Ģë²ł
Ġê±° ì§ĵ
ĠìĹĲ ëıĦ
ê±´ ìĿĦ
Ġë¬¸ ìĿĦ
ì¦Ī ë³¼
Ġë¡ľ ë´ĩ
ĠíħĮëŁ¬ ë²Ķ
Âł200 9
ĠíļĮëĭ´ ìĿ´
ìª½ ìĹĲ
ĠìĺĪìĥģ íĸĪëĭ¤
Ġë°ĸ ìĹĲìĦľ
Ġë¯¿ ê³ł
ĠëķĮë¬¸ ìĿ´ëĭ¤
Ġë¹Ħë¡¯ íķľ
Ġë°ķë¬¼ ê´Ģ
Ġíļį ëĵĿ
Ġë½ ĳ
o ver
íķľ êµŃìĿĢ
Ġìķ ¡
ìĽ °
Ġìľ Į
ìŀ¥ ëĲľ
íĥ Ĳ
ìĥģ ìĹĲìĦľ
Ġë³´ ëĬĶ
Ġë¹Ħ ìŀĲ
Ġì² ¼
Ġìĺ¤ ë¸Į
Ġì¹ Ń
Ġìĺģ íĨł
ìĺģ ìĥģìĿĦ
íŀ ĺ
Ġë°Ķ ëĿ¼
ĠìĦ± ê³¼
ì¤ĳ ìķĻ
ëĶĶ ìĹĲ
ë¸Į ëĿ¼ì§Ī
on g
Ġìĭ¬ íķľ
Ġíķµ ìĭ¤íĹĺ
Ġíĺĳ ìĿĺ
Ġíķ© ë¥ĺ
ĠìĿ´ìĥģ ìĿĦ
Ġì´Ī ê¸°
Ġë°ľê²¬ íĸĪëĭ¤ê³ł
Ġê¹ Ĭ
Ġê°ĢëĬ¥ ìĦ±
Ġê²Į ìĿ´ì¸ł
Ġëĸ¨ìĸ´ ì¡Įëĭ¤
Ġìº Ħ
Ġ199 8
Ġê¹Ģ ìłķ
ĠìľĦíĹĺ ìĿ´
ĠíķĻìĥĿ ëĵ¤ìĿ´
Ġê³µìĭĿ ìłģìľ¼ë¡ľ
Ġëıħë¦½ ìĿĦ
ĠëģĮ ìĸ´
Ġë§Ŀ ëªħ
ìłĦë¬¸ ê°Ģëĵ¤ìĿĢ
0 2
ëĭ¤ ìĿ´
ë¥ Ń
ëĵ ¯
ë¦ ´ëĿ¼
ê°Ģ ìŀ¥
ìĤ¬ ë¥´ì½Ķ
ĠìĪĺ ì§ĳ
Ġìĭľ íĭ°
ĠìŀĲ ë¦¬ë¥¼
Ġì¹ ł
ìĽĶ ëĵľ
ĠíļĮ ìŀ¥ìĿ´
ĠíĨµ ìĭłìĿĢ
êµĲ ëıĦ
Ġìĭ¤ íĸī
Ġë§Į íķľ
Ġì°¨ ë²łìĬ¤
Ġìĺ¬ ëł¸ëĭ¤
ĠìĽĲ ìľł
ë£¨ ìĤ´ëłĺ
an ce
ë¯¸êµŃ ê³¼
en d
Ġìĭľìŀĳ íķľ
ĠìĹ°êµ¬ ë¥¼
ĠìĥĿê°ģ ìĿĦ
ĠìķĬìķĺ ìľ¼ë©°
Ġìĺ¨ ëĤľ
ĠìĻĦ ìłĦ
Ġë§Įëĵ¤ ìĹĪëĭ¤
Ġê³µê°ľ íĸĪëĭ¤
Ġëĭ´ ê¸´
ĠëĦ¤ íĬ¸ìĽĮ
Ġì£¼ì§Ģ ìĤ¬
Ġì£¼ì§Ģ ìĤ¬ê°Ģ
res id
ĠìĹŃìĤ¬ ìĥģ
Ġì½ĺ ìĦľ
Ġìħ °
ĠíĥĲ ìĤ¬
Ġë°ĺìĿĳ ìĿĦ
Ġê´Ģìĭ¬ ìĿ´
ìĬ¤ëŁ½ ê²Į
ë©Ķë¦¬ ì¹¸
l l
ëĵ Ń
ìĬ ´
ìĭľ ìľĦ
ìľ¼ë¡ľ ëĬĶ
ìĽĲ ê³¼
ĠìłĦ ê°ľ
ëĤĺ ë¯¸
Ġê°Ģ íĥĿ
ĠìĿ¸ ëĶĶ
ëĿ¼ê³ł ìĺĪ
ë¯¸ êµ°ìĿĢ
ĠìĹ¬ ê¸°
ìĦ¸ ì¸ł
Ġëª¨ ë¥´
ìĹĲê²Į ëĬĶ
ëĲĲ ê³ł
ê±´ ìĿĺ
ì¦Ī ê°Ģ
ëĭ´ ìĿĦ
ĠíĮĲ ëĭ¨
ìłĢ ëĬĶ
ĠìĤ¬ê±´ ê³¼
Ġíģ¬ ë¡ľ
Ġê±¸ ìĸ´
ëĤ¬ ëĭ¤ê³ł
ĠìĥĿíĻľ ìĿĦ
Ġê³³ ìľ¼ë¡ľ
Ġìļ°ëł¤ ê°Ģ
Ġíļ ¡
Ġìļ©ìĿĺ ìŀĲ
2 3
p p
s s
Ł ìķĦ
íķ´ ì§Ī
ëĿ¼ ìĹĲìĦľ
Ġëª ¬
ì£¼ ìĹĲ
ì£¼ ê°Ģ
Ġê·¸ ìĻĢ
Ġì¤ĳ ìŀ¬
ĠìĨĮ ìļĶ
ĠìĨĮ íĥķ
Ġìľł ë¦¬
ìĦł ìĿĺ
Ġìłľ ìķĪìĿĦ
Ġë§Ī ì¹ĺ
ë¬´ ìĥ¤ëĿ¼íĶĦ
ĠíļĮ ìĤ¬ìĿĺ
ĠìĦ± ìĿ¸
ì¼ °ëĭ¤
Ġ4 4
íı¬ ëĵľ
Ġíģ ´ëłĪ
Ġíı¬ ë¥´
Ġëĭ¬ ë¦¬
ĠìĻ¸ ê³½
Ġê²½ì°° ê´Ģ
Ġëªħ ìĿĢ
ĠìķĦìĿ´ ëĵ¤ìĿĦ
ĠìĦłê±° ë¥¼
Ġë¸Į ë£¨
Ġíĥľ íĴį
ĠìłĲ ìłĲ
ìĭŃ ìŀĲ
ìº ĺë¦¬íı¬ëĭĪìķĦ
Ġíķµë¬´ ê¸°ë¥¼
Ġë²Įìĸ´ ì§Ħ
ìĿ¸ëıĦ ëĦ¤ìĭľìķĦ
Ġëĭµ ë³Ģ
Ġìŀ¥ë©´ ìĿĦ
ĠìĬ¤íĭ° ë¸Į
Ġë¦¬ë²Ħ íĴĢ
Ġë ®¤
ëĭ¤ ìĿĮ
ìĭľ ê°ģ
ĠìĿ´ ìĤ¬
Ġì§Ģ ëª©
ĠìłĦ íĻĶë¥¼
ĠìĿ´ë ©Ķ
Ġì£¼ ê°Ħ
ìłľ ëıĦ
Ġë§Ĳ íķ´
ìĪĺ ìĤ¬
íļĮ ìĤ¬ìĿ¸
íĶĦ ëłĪ
ĠëĤĺ ìĿ´
ĠëĤĺ ìģľ
Ġíķĺ ìĽĮëĵľ
Ġíķ´ ê³ł
Ġë°Ķ ë¥´
ĠëıĦ ìĻĢ
Ġ4 2
ì°¨ ê°Ģ
Ġìĭł ê²½
Ġë¶Ī ë¦¬ëĬĶ
ĠëĤ´ ìłķ
200 9
ë°ľ ìľł
Ġë§¤ ëĵ¤ë¦°
ë¸Į ëĿ¼ìļ´
Ġê²½ì°° ìĿĺ
ëŀĳ ì¹´
Ġìłģ ìĿĢ
Ġë¬¼ ë¦¬
ĠìĤ¬ê±´ ìľ¼ë¡ľ
ë¥ĺ ë¥¼
Ġì¡°ìĤ¬ ìĹĲ
Ġì·¨ íķł
Ġë©Ķ ìĿ´
Ġë§ŀ ìĦľ
Ġìķł íĭĢ
ìĽ¨ ëį´
Ġìĸ¸ê¸ī íķĺì§Ģ
Ġëª¨ìĬµ ìĿ´
ĠìĿĺìĽĲ ëĵ¤ìĿĢ
ëķĮ ë¬¸ìĹĲ
mer ic
ìĸ´ëĸ ¤
i es
Ġ ##
ë§Į ìĿĢ
Ġë³´ íĨµ
Ġê´Ģ ë¦¬ê°Ģ
íĸĪ ê¸°
Ġìĥģ ìĹħ
ìľł ë¡ľ
ĠìĹ° ê´Ģ
ê²© íķľ
Ġìļ° ëĿ¼ëĬĦ
Ġë°Ķ ëĿ¼ê³ł
ìĭ¤ ìĹĲ
ìĭ¤ ìĹĲìĦľ
ĠìĦ± ìłģ
ĠíĮĮ ë¦¬
Ġë°ĺ ë°ľ
Ġìŀħ ìĸĳ
Ġì¶Ķ ì¸¡
on s
Ġë°ľíĳľ ëĲľ
ĠíĪ¬ ìĸ´
ĠëĮĢë³Ģ ìĿ¸ìĿ¸
ĠíĿ ī
ĠíĻĶ ìŀ¥
Ġê³µê²© ìĿ´
ë³ĳ ìĿĦ
ëĭ¬ëŁ¬ ìĹĲ
Ġë³µ ìłľ
Ġíİĺ ìĿ¼ë¦°
Ġì°¾ ê³ł
Ġ199 7
ĠëĤ´ìļ© ìĿ´
ĠëĦ¤ ëįľ
Ġëĭ¨ì²´ ëĬĶ
Ġì´Ŀë¦¬ ìĻĢ
Ġìĭ¶ ëĭ¤
ĠìĤ¼ ìĦ±
Ġì´ĿìĦł ìĹĲìĦľ
´ë§ Ī
ĠíĨ °
1 7
E FA
o d
ĠìĿ´ ë¥¸
ëıĦ ë¥´
ìĿ¼ ìĿĢ
ìĿ¼ ê°ĦìĿĺ
ĠìĪĺ ìļĶ
ìłľ ìŀ¬
ìķĪ ìłĦ
ĠìķĬ ì§Ģë§Į
ĠêµŃ ë¬´
Ġë§Ī ë¥´
Ġê¸ Ģë¡ľ
ĠíĮĮ íĥĢ
Ġê±° ëĴ
Ġì¶Ķ ìłģ
ĠìĽĲ íķĺëĬĶ
ìĬ¨ ìĿĺ
Ġë¹ ļ
Ġê´Ģëł¨ ìĿ´
Ġë¬¼ ëŁ¬
ë©Ķ ë¦¬ì¹´
Âł200 80
ì£ ½
ĠíĹĪ ëĿ½
ĠìķĮëł¤ ì§Ģì§Ģ
ĠíĬ¸ ë¦¬
ĠìĿĺíļĮ ìĹĲ
ĠëĮĢë¶Ģë¶Ħ ìĿ´
ĠKore an
ĠìĹ¬ìŀĲ ì¹ľêµ¬
Ġì§Ģì§Ħ ìľ¼ë¡ľ
Ġë´ Ħ
L A
f f
u e
ĠëĮĢ ëĭ¤
ĠìĿ´ ìŀ¬
ĠìĿ´ ìĿµ
ëĮĢ ì¤ĳ
ëį ©
Ġë§Ĳ ëłĪìĿ´ìĭľìķĦ
Ġê·¸ ëłĪ
ë§Ī ìĿĺ
ĠìĨĮ ìĦ¤
ĠìĦł ë¬¼
ì½ §
ê¸Ī ìĿ´
Ġëĭ¬ ìĦ±
Ġ19 4
íĶ¼ íķ´
íķ¨ ìĹĲëĶ°ëĿ¼
ĠëĮĢë³Ģ ìĿ¸
Ġëĭ¨ ìĪľ
Ġëª» íķĺëĬĶ
ĠìĺģêµŃ ìĹĲìĦľ
Ġê³Ħíļį ìĿĢ
Ġ20 10
Ġê³ĦìĨį ëĲĺê³ł
ĠëıĮ ëł¤
Ġì½Ķ ë¯¸ëĶĶ
Ġê²Į ìŀĦìĿĦ
Ġì¼Ģ ëĦ¤ëĶĶ
Ġíĺĳìĥģ ìĿ´
Ġë°ĸ ìľ¼ë¡ľ
ĠìĪĺì²ľ ëªħìĿĺ
Ġê²½ìĦł ìĹĲìĦľ
Ġì¶©ë¶Ħ íķľ
oo d
ĠìĮ į
Ġìķī ìķĦ
2 8
o st
Ġ an
Į ë¥Ń
Ġê³ ¨ìĿĦ
ĠìĤ¬ ë²ķ
ëĮĢ íļĮ
ĠìľĦ ê¸°ë¥¼
Ġê¸° ì¡´
Ġìĭľ ìŀ¥ìĹĲìĦľ
ĠìĿ¸ ìĭĿ
ĠëĤĺ ëĪĦ
Ġëª¨ ìĬ¤íģ¬
ĠëıĻ ìĺģìĥģìĿĦ
ëĦ ¨
êµ° ìĹĲ
ë¦° ëĭ¤
ĠìĦ¸ ìĽĮ
ì°¨ ë¡ľ
ëĶĶ ëĬĶ
ĠíıŃ ëĿ½
Ġ" "
Ġìŀĳ ëıĻ
Ġë¡ Ŀ
Ġëªħ íĻķ
ì¼Ģ ìĿ´
ĠíĿ Ĳ
Ġë¦¬ ì½ľ
ìħ ī
íĮĲ ìĿĦ
Ġíķ© ë²ķ
Ġê±¸ ë¦´
Ġì§Ħíĸī ëĲľ
Ġì²´íı¬ ëĲĲëĭ¤
Ġì¹¨ íķ´
ĠB BC
ĠíıĲ ê¸°
Ġp l
Ġìłľê³µ íķĺëĬĶ
Ġë³Ģíĺ¸ ìĤ¬
Ġê³µíĻĶ ëĭ¹ìĿĺ
ĠëıĦì°© íĸĪëĭ¤
ìĹħì²´ ìĿ¸
ĠíĥĢìŀĦ ì¦ĪëĬĶ
Ġìĸ´ëł¤ ìļ´
Ġê±°ì£¼ íķĺëĬĶ
ëĿ¼ê³łìĺĪ ë¹Ħì¹ĺ
0 5
i e
p l
± Ģ
íķ ´ë³
ìĤ¬ ì¶Ķ
ĠìĤ¬ ëĥ¥
ìĸ´ ì§Ħ
ëĵľ ëĭĪ
ĠìķĦ ë¶Ģ
ìłĦ ìŁģ
ĠêµŃ ë¬´ìŀ¥ê´Ģ
ëĲĺ ìŀĲ
ìĦł ìĿĢ
ĠìĬ¤ íĤ¤
Ġìļ° ìĦł
ĠìĹĨ ìľ¼ë©°
ĠíļĮ ê²¬
Ġ4 8
Ġêµ¬ ê¸Ī
Ġë§Į ëĤľ
ì¡Į ëįĺ
ar e
Ġìķ¼ ê¸°
en c
en ce
ìĬ¤íĬ¸ ë¡ľ
Ġê²½ìłľ ìĹĲ
ĠìĤ¬ìļ© íķľ
Ġìĸ´ë ĶĶ
ĠS outh
ĠíķĦìļĶ íķĺëĭ¤ê³ł
ì§ĢëĤľ ì£¼
ĠI raq
ĠíĸĪ ì§Ģë§Į
Ġíķ´ê²° ìĿĦ
ë²Īì§¸ ë¡ľ
Ġëħ¼ìĿĺ íķł
Ġìµľì´Ī ë¡ľ
ĠìķĦë²Ħ ì§Ģ
ëĮĢíĨµëł¹ ìĿĢ
Ġìĸ´ëł¤ ìĽĢìĿĦ
Ġëªħëł¹ ìĿĦ
Ġìĺ® ê²¨
ĠìĮ ĵ
Ġëª¨ë¥¸ ëĭ¤
ĠíĿ¡ ìĹ°
Ġë©ĭ ì§Ħ
3 1
I n
ĺ ĳ
ľ ëĵľ
ì§Ģ ìĪĺ
ë¦¬ ê²Į
ëĤ ´ë
ìľ¼ ë©´ìĦľ
ìĭľ ë¥¼
ĠìĦ Ń
ë¶Ģ íĨł
íĬ¸ ëĿ¼
Ġë§Ĳ íķ©ëĭĪëĭ¤
ĠìŀĲ ë¦¬
Ġê³µ ìľł
ìļ° ë¦¬ê°Ģ
ĠìĨĮ íĸī
Ġìĺ¤ ìĤ¬
ì²´ ìĿĺ
Ġë°Ľ ê¸°
ĠíĽĦ ìŀĦ
Ġëĭ¹ íĸĪëĭ¤
ĠìķĮ ëŀĺìĬ¤ì¹´
Ġìŀ¥ ì°©
ĠëĤ¨ ìŀĲê°Ģ
ĠìĦľ íķľ
Ġì§Ħ ìłķ
ĠêµĲ ì²´
Ġë© Ī
ëĭ´ ëĭ¹
Ġë¶ģíķľ ê³¼
Ġë²ķ ìĽĲ
Ġì²´ ê²°
Ġê²½ìłľ ê°Ģ
ĠëĴ ·
Ġíģ¬ ë£¨
ìł¸ ìķ¼
Ġë³´ë ³
ê¸Ģ ë¡ľ
Ġë¹ł ë¥´ê²Į
íĨ ¨
ĠíķŃê³µ ìĤ¬
ĠíħĮ ìĿ´íĶĦ
ë¶Ģìĭľ ëĬĶ
ìĿ´ì§Ģ ë¦¬ìķĦ
Ġìŀł ìĭľ
ìĥĪ ë¡ľìļ´
Ġì¶Ķìłķ ëĲĺëĬĶ
Ġìłľìŀ¬ ë¥¼
Ġëħ¹ ìĿĮ
Ġê°ĳ ìŀĲê¸°
ë¯ Ģë¡ľ
ĠìłģìłĪ íķľ
í Ī
ìĿ¼ ë¦¬
ĠìĪĺ íį¼
Ġë¯¸ ìĭľ
ĠìķĦ ë¥´íĹ¨íĭ°ëĤĺ
Ġê²½ ê³Ħ
Ġê·¸ ì¤ĳ
íķĺê³ł ìŀĲ
Ġì¤ĳ ëıħ
Ġì§ §
Ġê´Ģ ëŀĮ
Ġê²ĥìĿ´ ê³ł
Ġìľł ìĤ¬íķľ
ĠìĹ¬ íķĻìĥĿ
ĠëĤĺ ìķĦ
Ġë§Ī ë¦¬
ĠëıĻ ë°ĺ
ì½ ¸
ĠìĺĪ ìĤ°
ĠìĬ¤ íĥ
ĠíļĮ ìĿĺë¥¼
Ġìŀ¥ ìĿĦ
Ġë§Į ëĤł
Ġë°ĺ ìłķë¶Ģ
Ġê°Ĳ íĸī
Ġê°ķ ìļĶ
ĠíıŃ ìļ°
ĠìļĶ ë¥´ëĭ¨
ì§Ī ìĿĦ
ëį° íĥĢ
ĠëĿ¼ ê³ł
ĠíĿ ĺ
ĠìĹ¬ìĦ± ìĿĺ
ĠìĹ¬ìĦ± ìĿĢ
Ġì²´ ëĭĪ
Ġì·¨ ìŀ¬
ĠìĿ´ìĬ¤ëĿ¼ìĹĺ ìĿĺ
Ġì²ĺìĿĮ ìĿ´ëĭ¤
ĠìĭĿ íĴĪ
ë¬´ìŀ¥ ê´ĢìĿ´
Ġíĸ¥ íĽĦ
Ġê³¨ íĶĦ
Ġíģ¬ë¦¬ìĬ¤ íĨłíį¼
ĠìĤ¬íĥľ ê°Ģ
Ġê¸°ëĮĢ íķĺê³ł
ĠìĽĲë¬¸ ê¸°ìĤ¬ë³´ê¸°
Ġë¬´ìĤ¬ ì½¸
ìĤ¬ì¶Ķ ìĦ¸ì¸ł
2 1
a ge
o g
u d
Ġë ļ
ìĿ´ ìłľ
ìĿ´ ìĹĪëĭ¤ê³ł
ê³ł íķĻ
ĠëĮĢ ëŁī
êµŃ ìłģ
êµŃ ìŀ¥ìĿĢ
ĠìĤ¬ ì°°
ìłķ ìĿĢ
ìĸ´ ìĿĺ
ê·¸ ëŁ¬
ìłľ ìĿĺ
Ġìĭľ ìĭłìĿĦ
Ġê·¸ ëĵ¤ìĿĦ
Ġê·¸ ê²ĥìĿĢ
íĻĶ ëĬĶ
ĠìŀĲ ê¸°
ë³´ ëĭ¤ëĬĶ
íĨµ ìĥģ
Ġê²ĥìĿ´ ëĿ¼ë©°
Ġ3 9
ëĭ¬ ìĿĦ
ëĭ¬ ëĿ¼ê³ł
êµĲ íĻ©
ë§¤ ìļ°
ë¥´ë ©°
Ġì¤ĳêµŃ ìĹĲ
ĠìĦ¤ ëĵĿ
ĠìķĦìĿ´ ëĵ¤ìĿ´
Ġì±Ħ íĥĿ
Ġëĭ¬ëŁ¬ ìĹĲ
ê²½ì°° ìĿ´
Ġë¯¼ì£¼ëĭ¹ ìĿĺ
ĠëĨį ì¶ķ
Ġì¸¡ ê·¼
Ġì¡°ì§Ģ ìķĦ
ĠìĹĦ ì²Ń
Ġë´ ¤
Ġìľ¡ êµ°
ĠìĹĺë¦¬ ìŀĲ
0 7
R B
i b
ëĭ¤ ê°Ģ
ì§Ģ ê¸°
ëĤ ¼
ĠìĪĺ ìĤ¬ë¥¼
Ġêµ ´
íĻĶ ë¡ľ
ëħĦ ê³¼
êµ¬ ìĿĺ
Ġë°ľ êµ´
ĠìĿ¼ íĻĺìľ¼ë¡ľ
ĠìĨĮ íĻĺ
ìļ© ìĿĦ
Ġìľł ëł¥
ĠìĿĺ íķĻ
ĠëĤĺ ë¥¼
ĠëĤĺ ìĺ¬
Ġíķĺ ë©´
Ġë§Ī ì¹´
Ġìĺģ ë³Ģ
ì½ ķ
íĭ ¸
ĠëıĦ ìŀħ
Ġìŀ¥ ìĭĿ
ĠíĮĮ ìĤ°
ĠíĮĮ íĬ¸ëĦĪ
Ġìĭ¤ ë¬´
Ġë§¤ ê°ģ
Ġìŀĳ ìłĦìĿĦ
Ġë¡ ¤
Ġ19 80
Ġëª© ìłģìľ¼ë¡ľ
Ġì¹ĺ ëªħ
Ġì´Ī ëĮĢ
ĠìĥĿê°ģ íķĺëĬĶ
Ġì¹´ íİĺ
ĠíĬ¹ íĮĮ
ĠìĿ´ìľł ëĬĶ
ìĸ´ëĤ ´
Ġê±¸ ì¹ľ
Ġë§ŀ ìĿ´
ĠìĭĿ ëĭ¹
ĠF TA
ĠìŀĪìĹĪ ê³ł
ĠìľłëŁ½ ìĹ°íķ©
ĠíķŃê³µ ê¸°
ĠëıĮìķĦ ê°Ģ
Ġëħ¸ëł¥ íķĺê³ł
ĠìĤ¬íĥľ ë¥¼
Ġë§¨ ì²´ìĬ¤íĦ°
Ġëĭµ íĸĪëĭ¤
ĠëĵľëŁ¬ ëĤ¬ëĭ¤
ë¦¬ì¡° ëĤĺ
% ,
G A
I C
r om
ë ľ»
ìĬ¤ ë¦¬ê·¸
ë¶Ģ ìĹĲìĦľ
ìĥģ íĻ©
Ġìĥ ĺ
ìłķ ì¹ĺ
ëĵľ ìĭľ
ìĪĺ ìĿ¸
Ġê·¸ ë¦¼
ĠìĿ¸ ê³µ
ìłĦ ìĿĢ
Ġë°ľ ê°Ħ
íģ¬ ê°Ģ
Ġìĺ¤ ìĹ¼
Ġìľł ëĭĪ
ĠìĹ¬ ê²¨
ĠìĿĺ íļĮìĿĺ
ĠëĤĺ ìĦľ
ĠëĤĺ ê°Ī
Ġë§Ī ìĭľ
ĠìĦł ë³´
Ġê°ľ ë§ī
Ġ4 3
Ġìŀ¬ ë°°
Ġìĺ¬ ë¦°
ĠíıŃ íĸī
ê¶Į ìĹĲ
ĠìĤ¬ë§Ŀ ìŀĲê°Ģ
Ġì½ ©
ĠëĲĺ ê¸°
ĠíĻĶ ìĦ±
ĠíĻĶ ìĤ°
ìłĲ ìľ¼ë¡ľ
ĠìĺģíĻĶ ìĿĺ
Ġê³µê²© ìĹĲ
ĠíķĻ ìĤ´
ĠìĦłê±° ìºł
is s
Ġê°ĸ ê²Į
ĠíĦ ¸
ĠìĨĮìĭĿ ìĿ´
ĠíĽ ¼ìĨĲ
ê°ľìĽĶ ê°Ħ
Ġëħ¼ìĿĺ ë¥¼
Ġì»¤ íĶ¼
Ġë¡ł ìĬ¤íĥĢ
Ġíĺľ íĥĿ
resid ent
F P
ì§Ģ ìĸ´
ĠìłĦ ëĭ¹
Ġê°Ģ ë¥´
Ġì£¼ ìĦĿ
ëħĦ ê°ĦìĿĺ
Ġì¡° ì¹ĺê°Ģ
ìĦ¸ íı¬
ëłĪ ë°Ķëħ¼
íĽĦ ëĵľ
ĠìĬ¤ íĮĮ
ĠìĥĿ ê¸´
Ġêµ¬ ê¸Ģ
Ġë¶Ī ìĿĦ
Ġê³Ħ ìķ½ìĿĦ
Ġê±° ëĵŃ
ĠëĤ´ ë¦´
ìĿĮ ìĹĲëıĦ
Ġë¬¸ ìĦľ
Ġê· ł
ĠìķĪ ìĹĲìĦľ
ë¥´ë °Ķ
ì´ ¨
Ġë²ł ë¥¼
ĠëĶ ľ
Ġì¤ĳêµŃ ê³¼
Ġëĭ¨ ìĨį
Ġíķł ë¦¬ìļ°ëĵľ
ìĽĮ ì¦Ī
ĠìĿ¼ë³¸ ìĿ´
Ġë³µ ìŀ¡
ĠëĤ´ìļ© ìĿĺ
ĠíĽ Įë¥Ń
ĠìĹħ ë¬´
Ġìĸ¸ë¡ł ìĿ´
ìľ¨ ìĿĢ
ê¹ ¨
Ġíħ Ķ
Ġê±°ëŀĺ ë¥¼
Ġê¸°ìŀĲíļĮê²¬ ìĿĦ
Ġë°ĿíŀĪ ê³ł
ĶĶ ìķĦ
ĠíĴĢ ëł¤
ë³´ê³ł ìĦľëĬĶ
Ġê²¨ ìļ¸
ìŀĲìĿ´ ëĦĪ
ìĥĿíĻľ ìĿĦ
Ġë°ĶëĢ Į
e p
ì ·
ìĬ Ĳ
ìĿ¸ ìĹĲ
ëĿ¼ ëį´
ĠëĮĢ íķŃ
ì§ Ŀ
ê·¸ ëŁ°
ĠìķĦ ë²ł
Ġì£¼ ê°Ģ
Ġìĭľ ìĿ¸
Ġìłķ ê¸°
Ġë¶ īìĿĢ
ĠìŀĲ êµŃ
Ġë¶Ģ ê³¼
ë¯¸ ìĸ´
Ġìľł ì¹ĺ
íĶĦ ìĿĺ
ĠëĤĺ ìĺ¤ëĬĶ
ë£ ¸
Ġíĥ Ŀ
ĠìĬ¤ íĶĦ
ĠíĮĮ íĭ°
íĺĦì§Ģ ìĭľê°ģ
ìŀĳ ìĹħìĿĦ
Ġìŀ¬ ë¯¸
Ġëĵ± ìŀ¥
Ġ7 5
Ġíĸī ë³µ
ĠC IA
ĠC BS
Ġíķµ ìĭľìĦ¤
ĠìĦ¸ê³Ħ ëĮĢìłĦ
ĠíĬ¹ ìłķ
ĠìĿ´ìľł ë¥¼
ìŀĪ ìĹĪëĭ¤
ë¶Ī ìĸ´
ĠìĻĦ ë²½
Ġë¸Ķ ëłĪìĸ´
´ëĲ Ĳëĭ¤
ĠëĦ¤ íĮĶ
ĠíĶĦë¡ľê·¸ëŀ¨ ìĹĲ
Ġê¸¸ ìĿĦ
Ġê³¼íķĻ ìŀĲëĵ¤ìĿĢ
Ġìļ´ìĺģ íķĺëĬĶ
ìĿ´ëŀĢ ìĿĢ
Ġë¹Ħìļ© ìĿ´
Ġë¬´ë £Į
Ġê°ķëł¥ íŀĪ
ĠìĭľìĦ¤ ìĿĦ
ĠìĹ¬ê°Ŀ ê¸°
ĠíĽĪëł¨ ìĿĦ
ac k
Ġì¶©ë¶Ħ íŀĪ
ĠìĤ¬ëł¹ ê´Ģ
ĠìĿ´ëł ĩ
i re
u re
¶ ¤
ë Į
ì ¾Į
ĠìĿ ½
ìľ Įë¦¬ìĹĦ
ëĿ¼ ëĶĶ
ĠëĮĢ ëĭ¨íķľ
ĠìĿ´ ìĬ¬
ëª ½
Ġì§Ģ ìłķ
ìķĦ ë§Ī
ìĻĢ ìĿ´
ĠìķĦ ë¦Ħ
ìĪĺ ìĹĲ
Ġë¶Ģ ìĹ¬
íģ¬ ë¥¼
Ġë¹Ħ ìĦľ
Ġ3 4
ì°¨ ëĵľ
Ġë°ĺ ëĵľìĭľ
Ġìŀ¬ ìĤ°
Ġì¶ľ ìĭľ
Ġì¶ľ íĮĲ
Ġë²ķ ìĽĲìĿĢ
Ġëª» íķĺê²Į
Ġê²Ģ ê±°
ĠíĻĺ ìŀĲ
Ġê²°ìłķ ìĹĲ
Ġê¹ ĬìĿĢ
ĠìĿ¼ë¶Ģ ë¥¼
Ġìļ´ ìĨ¡
ì£ ł
ëĥĲ ëĬĶ
ë²Ķ ì£Ħ
ì¡´ ìĬ¤
Ġê¶Į ëł¥
ê³³ ìĹĲ
Ġë¶Ģìĥģ íĸĪëĭ¤
Ġì¿ł ëį°íĥĢ
Ġa g
Ġíģ´ë¦°íĦ´ ìĿĢ
Ġë°ĽìķĦ ìķ¼
Ġì¤Ģë¹Ħ ë¥¼
ĠíķĺëĤĺ ìĿĺ
un d
ec t
Ġì¦Ŀê±° ë¥¼
ĠíĻĶìŀ¬ ê°Ģ
ĠìłķíĻķ íŀĪ
ĠëĬ¥ ëł¥ìĿĦ
ĠìĪĺìĿµ ìĿĦ
ĠìĬ¹ë¬´ ìĽĲ
ĠìĿ¼ìŀĲ ë¦¬ë¥¼
Ġê³łëĵ± íķĻêµĲ
1 00
C h
K ore
P A
U N
o b
Ġ le
Ġìķ ĵê³ł
ĠëĮĢ ì±ħ
ĠìĤ¬ ìŀ¥ìĿĢ
ĠìĪĺ ìĨ¡
ìłķ ìĥģ
Ġê°Ģ ë¡ľ
Ġê°Ģ ìĺ¥
ì° ¾
ĠìŀĲ ìĿ´
Ġíı ´ëŀ
ìĭł íĻĶíĨµìĭłìĿĢ
Ġë¶Ģ ìĤ¬
ìľĦ ê¸°
Ġëĭ¤ íģĲ
Ġìĥģ ìĿĦ
ĠëĲ ©ëĭĪëĭ¤
ĠëĤĺ ìĿ´íĬ¸
Ġë§Ī íĭ´
Ġê³ł ëĮĢ
ĠíĽĦ ìĽĲ
Ġë°© ì¹¨
Ġìļ° ìļ¸
ĠëĤ¨ ìĿĢ
ĠíĨµ ì¹ĺ
Ġë§¤ ì¼Ģ
Ġìŀ¬ ê²Ģ
ĠìĿ´ëĿ¼íģ¬ ë¥¼
on e
Ġë¡ľ ë¹Ħ
Ġë°° ì¶ľ
ĠêµŃê°Ģ ë¥¼
ìĬ¤íĬ¸ ëĿ¼
Ġíĺĳ ë°ķ
ë©Ķ ìĿ´
Ġê²½ìłľ íķĻ
ëĭ¬ëŁ¬ ë¥¼
Ġë°©ë¬¸ íĸĪëĭ¤
ĠëĮĢíķĻ êµĲ
Ġì¦Ŀê°Ģ íķĺê³ł
ëģ Ħ
ĠíıĲ ì§Ģ
ĠìĻ¸êµĲ ë¶Ģ
ĠìĦ±ê³µ íĸĪëĭ¤
Ġì½ľ ë¡ľ
ĠíĹ¤ ì¦Īë³¼
Ġì¸¡ ìłķ
Ġìŀĥ ìĿĢ
ëł¸ ëĭ¤ê³ł
Ġê¸°ëĭ¤ ë¦¬ê³ł
ap an
Ġìŀ¥ëĤľ ê°Ĳ
ĠìĤ¬ìĿ´íģ´ ë¡ł
0 3
ë ®¤
íķĺ ìĺĢ
ìķ ĻìĿĢ
ì§Ģ ë¥´
ìĬ¤ íĮĮ
ìĬ¤ íĭ´
ĠìĿ´ ê²ĥìĿ´
ĠìĤ¬ ëĵľë¥´
ĠìĦ ¹
ê·¸ ëłĩ
Ġê°Ģ ì¹ĺê°Ģ
ĠìľĦ ìķĪ
Ġê¸° ìģĺ
Ġë¬ µ
ĠìŀĲ ìĽĲ
Ġê´Ģ ì°°
Ġê± ´ë
Ġìĥģ ê³µ
Ġì¡° ìĦ±
Ġíķĺ ëįĺ
ìĭ¤ ìĿ´
ĠíĨµ íĻĶ
Ġ6 00
ë¶Ħ ê°Ħ
Ġë§¤ ìŀ¥
ĠìĦľ ë°©
ë²Ī ìĿĺ
ĠêµĲ ì°©
Ġì¦Ŀ ìĭľ
Ġì§ĢìĹŃ ìľ¼ë¡ľ
Ġëª© ë¡Ŀ
Ġë¦¬ ë¹ĦìķĦ
Ġíķ© ëıĻ
ëĿ¼ìĿ´ ìĸ¸
Ġê°ĢëĬ¥ ìĦ±ìĹĲ
ĠíĺĦìŀ¬ ìĿĺ
ì§ĢëĤľ ëĭ¬
Ġì§Ī ë¬¸ìĿĦ
ĠìĨĲ ìĥģ
ë¶ģíķľ ìĿĺ
Ġíĭ Ģ
ĠìłĪ ëĮĢ
ĠìĥģìĬ¹ íĸĪëĭ¤
ìķĦíĶĦ ê°ĢëĭĪìĬ¤íĥĦ
Ġë¹Ħìļ© ìĿĦ
Ġê·Ģ êµŃ
Ġë³ĢíĻĶ ê°Ģ
Ġë´ī ìĩĦ
Ġê³µìĹ° ìĿĦ
ì§Ĳ ë°Ķë¸ĮìĽ¨
Ġê³łíĨµ ìĿĦ
ë³´ë ĶĶìķĦ
ê¸ĢëĿ¼ ëį°
Ġíı¬ë¥´ íĪ¬ê°Ī
3 7
ìĬ¤ ëĭ¥
ĠëĮĢ ê°Ģë¡ľ
ë© ľ
Ġê²ĥ ìĿ¸ì§Ģ
ĠìłĦ ëĤł
ì£¼ ê³ł
Ġë§Ĳ ê¹Įì§Ģ
Ġë¬ ¶
ĠìŀĲ ë£Įë¥¼
ë¶ ķ
Ġëĭ¤ ë£¨
Ġì² Ļ
ĠìĿĺ ìŀ¥
ë¥´ ìĿĺ
Ġìĥģ íĴĪ
ìĤ ´ëĲľ
Ġëª¨ ìĥī
Ġê³ł ì¡°
Ġë°© ìĺģ
êµĲ ìľ¡
Ġìŀħ ì¦Ŀ
ĠêµĲ íĻĺ
in a
ĠìĻ¸ ë¬´
ĠìĪ «
ĠëĦ ĵ
Ġë¯¼ ì¡±
ĠìĥĪ ëģ¼
Ġì²´ ì¤ĳ
Ġíŀ ī
ĠìĤ° íĥĢ
ĠíĨł ìļĶìĿ¼
Ġëª¨ëĳĲ ê°Ģ
ĠëĶĶ ìŀĲìĿ¸
íĮĢ ìĿ´
Ġ199 0
ëģ Ķ
Ġìĺ¬íķ´ ìĿĺ
Ġë³´ëĤ ¼
ation s
Ġë³´ìĿ¸ ëĭ¤ê³ł
Ġë³´ëĤ´ ëĬĶ
ĠìĿ¼ìľ¼ íĤ¤
ĠìĭľìĬ¤íħľ ìĿĦ
íĶĦë¡ľ ê·¸ëŀ¨
Ġì¹ĺëŁ¬ ì§Ħ
Ġëĭ¤ë¥´ íĳ¸ë¥´
ĠìĿ¼ë¦¬ëħ¸ìĿ´ ì£¼
ĠìĤ¶ ìĿĦ
ìĿ´ íĽĦ
íķľ êµŃìĿĺ
ëł ´
ìŀĲ ìĿ´ìŀĲ
Ġìĺ ¥
ìķĦ ë²Ħ
ĠìĪĺ ë¥¼
ëĤĺ ìļ°
Ġìĭľ ìĤ¬
Ġìĭľ ìŀ¥ìĹĲ
ĠìŀĲ ê·¹
ĠìĨĮ ìŀ¥ìĿĢ
Ġíķĺ ëĬĺ
Ġë§Ī ì¹ĺê³ł
ĠìĦł ë°ľ
ĠìĬ¤ íĬľ
ĠíĮĮ ìĺĪ
Ġ5 1
Ġìĭł ìĽĲìĿĦ
ì§ģ ìŀĲ
ĠíĶ¼ ëĤľ
ĠëįĶ ë¶Īìĸ´
ê¶Į ìĿ´
Ġëĭ¬ ëł¤
Ġë°ľìĥĿ íĸĪìľ¼ë©°
ëĦ¤ ìĬ¤
an c
Ġê´Ģê³Ħ ìŀĲëĵ¤ìĿ´
Ġë¯¼ ê°Ĳ
Ġëĵ¤ ìĹ¬
Ġìłģ íķ©
íİĺ ìĿ´ì§Ģ
Ġíĥľ íıīìĸĳ
Ġë§ŀ ì¶°
ĠëĮĢìĦł ìĹĲìĦľ
ĠìĿ´ìĬ¤ëĿ¼ìĹĺ ìĿ´
ĠìĿ´ìĬ¤ëĿ¼ìĹĺ ê³¼
ĠëĶĶ ì§Ģ
ĠëĶĶ ìŀĲìĿ´ëĦĪ
ĠìŀĪìĹĪ ì§Ģë§Į
Ġìĸ» ê¸°
Ġì¦Ŀê°Ģ íĸĪëĭ¤
Ġë¹ł ì§Ħ
Ġëĭ¹ìĦł ìĿ¸ìĿĺ
Ġìĸ¼ ìĿĮ
Ġìĸ¸ë¡ł ìĹĲ
Ġìĵ° ëŁ¬
ë²łìĿ´ ê±°
Ġìŀ¬íĮĲ ìĿĦ
el l
Ġì±ħìŀĦ ìĿ´
ĠìŀĶ íķ´
Ġê°Ģê¹Į ìĿ´
ê³¼íķĻ ìŀĲëĵ¤ìĿĢ
Ġìĺ· ìĿĦ
over n
Ġê¹Ģìłķ ìĿ¼
o y
Ġì «
Ġë Ŀ
Ġë ¼Ī
ëĬĶ ì§ĢëĬĶ
ìĦ °
Ġìķ Ļ
ë© ¸
ĠìĿ´ ì£¼
ìĿ¼ ëŁ¬
ìķĦ ëĬĶ
íĥ ĳ
ê·¸ ëĵ¤ìĿ´
ĠìķĦ ìĿ¼ëŀľëĵľ
Ġê°Ģ ê²©ìĿĦ
íĻĶ ëĲľ
ĠìŀĲ ë³¸
ĠìŀĲ ë¦¬ìĹĲìĦľ
íĦ° ëĬĶ
Ġê³µ ìŀ¥
Ġê³µ ë¬´
ëł¹ ìĿĢ
Ġìĺ¤ ìĬ¤íĬ¸ë¦¬ìķĦ
Ġê± ·
ë¥´ ëĭ¤
ìĦł ìĹĲìĦľ
ìĦł ìĸ¸
ë°Ķ ëĿ¼
ĠìĹĨ ì§Ģë§Į
ì¼ Ħ
íĺ¸ ëĬĶ
ĠíĨµ íķľ
Ġêµ¬ ëĭ¨
Ġìŀ¬ íĻľ
ĠêµĲ íļĮ
Ġë© ¤
Ġì¶Ķ êµ¬
ĠíķľêµŃ ê³¼
ëĶ° ëĿ¼
Ġë°° ìĭ¬
Ġë¦¬ ê·¸
ë¯¸êµŃ ìĿ´
ĠíĸĪëĭ¤ ëĬĶ
Ġë²Ħ ìĬ¤
ëĵ¤ê³¼ ìĿĺ
ĠìĤ° ìķħ
ĠíĶ¼íķ´ ê°Ģ
ìĬ¬ ë¦¼
ĠìĥĿê°ģ ìĿ´
ĠëĴ¤ ìĹĲ
ĠìķĦìĿ´ ìĿĺ
ĠìĦłê±° ìĹĲ
Ġê±´ ì¶ķ
Ġ( =
ĠìĭľìľĦ ëĮĢ
Ġs h
íļĮìĿĺ ìĹĲìĦľ
ë¹ Ļ
ĠM S
ĠN orth
ëª© ê²©
Ġìļ°ëł¤ íķĺê³ł
Ġë³´ìĹ¬ ì¤¬ëĭ¤
ê¹ Ŀ
ìĹ´ íķľ
Ġíľ´ ìłĦ
Ġìļ´ëıĻ ìĿĦ
Ġê³µìĬµ ìľ¼ë¡ľ
Ġíģ´ ë¦¬
Ġëĭ¤ëĭĪ ìĹĺ
6 6
r y
ì ¥Ĳ
íķľ ë²Ī
ì§Ģ ë©°
ìľ ¤
ëł Ĳ
ìĤ¬ ìļ°
ëªħ ëıĦ
Ġê¸° íļĮ
Ġíĺ ¹ìĿĢ
Ġë³´ ì§Ģ
Ġë°ľ ë³ĳ
ë§Ī ë¦¬ê°Ģ
ĠìĿ¼ íķĺëĬĶ
ëĭĪ ìĿĺ
Ġìĺ¤ íĨł
Ġì¡° ê¸°
Ġ3 3
Ġê³ł ëĵł
ĠíļĮ ìĤ¬ê°Ģ
Ġë¶Ī ëĬ¥
Ġê°Ĳ ê¸Ī
ëª¨ ë¦¬
Ġì¶ľ ëıĻ
Ġì¶ľ ìĦĿ
ĠìĬ¹ ìĿ¸ìĿĦ
an g
ĠëĲĺ ì°¾
íķ¨ ìĿ´
Ġì§ĳ ìľ¼ë¡ľ
ĠìŀĦ ê¸°
Ġì½Ķ ìĨĮë³´
Ġë°©ë¬¸ ìĿĦ
Ġê²°ê³¼ ìĹĲ
Ġê²°ê³¼ ëĬĶ
ĠìĭľìľĦ ìĹĲ
ĠìĭľìľĦ ëĮĢê°Ģ
Ġìµľê·¼ ìĿĺ
Ġíİĺ ëįĶ
Ġê¸°ë¡Ŀ íķľ
Ġê·ľ ìłľ
it s
íĭĢ ëŁ¬
om m
ĠF BI
Ġì²Ń ë¬¸
ĠìĿĢ íĩ´
ĠëĶ° ëľ»
Ġì£¼ë¯¼ ëĵ¤ìĹĲê²Į
il d
as e
ĠìłĦìŁģ ìĹĲ
Ġê¸ī ìĨį
Ġíŀĺ ìĿĦ
Ġw ill
Ġê³µíķŃ ìĹĲìĦľ
Ġìķ½ìĨį ìĿĦ
ter n
Ġë¿Ĳ ë§ĮìķĦëĭĪëĿ¼
ĠìĦłìĸ¸ íĸĪëĭ¤
ì°¬ ê°Ģì§Ģ
ĠìĥĮ íĶĦëŀĢìĭľìĬ¤ì½Ķ
Ġíľĺ ë°ľìľł
Ġìĭ± ê°Ģíı¬ë¥´
ĠNA SA
ĠìĬ¤ì½ľ ìĦ¸
Ġë³´ë³ µ
Ġë £
ë¡ľ ìĿĺ
ë¡ľ ìĭľ
ì§Ģ ìŀĲ
ìĦľ ìĹĲ
´ë ª¨
ë¦¬ ëĤĺ
ìľ¼ ëł¤
êµŃ ë°©
ĠìĿ´ ìĤ°
ë³ ´ëıĦ
ìķĦ ìķ¼
ê·¸ ëħĢ
ĠìķĦ ê¸°ë¥¼
ĠìķĦ ë°ĶìĬ¤
ĠìľĦ ì¡°
Ġì¤ĳ ìĪľ
íĦ° ë¦¬
ĠìĿ¼ ìłķìĿĦ
ê´Ģ ìĹĲ
ĠìĨĮ ìĪĺ
Ġë¹Ħ íĭĢ
Ġíķ´ ìĸĳ
Ġê±° ëĳĲ
ìĹ° ê¸Ī
Ġë°ĺ êµ°ìĿ´
Ġê°ķ ëıĦ
Ġíı¬ ê²½
Ġì°¨ ë¥¼
ë§¤ ì¼ĢìĿ¸ìĿĢ
Ġë²Į ê¸ĪìĿĦ
ĠíķľêµŃ ìĿĢ
ĠìĿ´íĽĦ ë¡ľ
ĠìĺģíĻĶ ìłľ
ìķħ ê´ĢìĿĢ
Ġíģ¬ ëĿ¼ìĿ´
Ġê³Ħíļį ìĿ´ëĿ¼ê³ł
ĠìĿ¼ë³¸ ìĿĢ
le c
le d
ĠìĿ¼ë¶Ģ ê°Ģ
ĠìĭľìľĦ ê°Ģ
Ġìļ© ëĤ©
ĠìĿĢ ìĭł
ĠN BC
ĠëĤ´ìļ© ìĿĢ
Ġë£¨ ìĿ´ìĬ¤
ĠíŀĲ ëŁ¬
Ġì»¤ íĶĮ
Ġë§¡ ìĿĢ
Ġë´ī ìĤ¬
ĠìĿ´ê³³ ìĹĲìĦľ
Ġìĭ¸ ìĽĢ
ĠìķĦë¬ ´ëıĦ
Ġë¶Ģê·¼ ìĹĲìĦľ
Ġì¼ĢìĿ´ ë¸Ķ
ĠìĿ´ìŀ¬ ë¯¼
5 3
A S
F BI
K K
e x
ëĭ¤ ëĭĪ
ìĹĲ ë§Į
ê°Ģ ìĹĲìĦľ
ìĬ¤ ëŁ°
ĠëĤ Ń
ëªħ ìĹĲê²Į
Ġì£¼ ë¬¸
ìĭł ë¬¸
ìľĦ ìĿ¸
Ġëĭ¤ ì³¤ëĭ¤ê³ł
ĠìĹ¬ ë¶ĢëĬĶ
ĠìĿĺ ì¡´
ĠëĤĺ ëĭ¬
ì¡° íķ©
ìĹ¬ ë¡ł
Ġìĭł ìŀĦ
Ġë¶Ī íİ¸
Ġê±° ë¦¬
Ġìŀħ êµŃ
ĠíĶĦ ëłĪìĬ¤
ì½Ķ ìĺ¬
ĠìĿ´ë²Ī ì£¼
ì¡Į ê³ł
ì¡Į ìĬµëĭĪëĭ¤
ĠìĻ¸ ë¬´ìŀ¥ê´ĢìĿĢ
Ġë°ľìĥĿ íķĺëĬĶ
Ġì¦Ŀ ìĭľëĬĶ
ìĸ´ë ³
ĠíĮĲ ìĤ¬
ĠìĹ¬ìĦ± ìĿĦ
ĠêµŃê°Ģ ê°Ģ
Ġëī´ ì§Īëŀľëĵľ
íİĺ ìĿ¸ìĿĦ
ĠìĥĿê°ģ íĸĪëĭ¤
ì¤Ģ ë¹Ħ
Ġê·¼ ë³¸
Ġì°¾ ìĿĦ
ĠëĤł ìĶ¨
Ġì²´íı¬ íĸĪëĭ¤
ĠíĬ¸ ëłĪ
Ġíķ´ê²° íķł
Ġìĥģíĥľ ìĹĲ
ĠëĪĦ êµ°
ĠìĬ¹ë¦¬ íķľ
ol d
Ġê²© ëł¬
Ġê·¹ ë³µ
Ġìĩ ł
ĠìĹ¬ë¡ł ì¡°
ĠìĪĺë°± ë§Į
Ġë°Ķê·¸ëĭ¤ëĵľ ìĹĲìĦľ
Ġíĺ¸íħĶ ìĹĲìĦľ
ĠìĿ¼ìľ¼ íĤ¨
ĠëĨĢ ëĿ¼
Ġìľłê¶Į ìŀĲ
Ġì§Ģì§Ħ ìĿ´
Ġë³´ê³łìĦľ ìĹĲìĦľ
ĠíıŃíĥĦíħĮëŁ¬ ê°Ģ
Ġì±ĶíĶ¼ìĸ¸ ìĬ¤ë¦¬ê·¸
ë§ĪìĿ´ íģ´
ĠëĮĢë²ķ ìĽĲ
Ġëª¨ìĬ¤íģ¬ ë°Ķ
ĠìĹĺë¦¬ìŀĲ ë²łìĬ¤
ë ĩ
ìĦľ ìĿĺ
Ġê° ĩ
ĠìĿ´ ìĸĳ
ë¶Ģ ìĸĳ
ìĻĢ ëĬĶ
Ġìĭľ ê°ģ
Ġìĭľ ìŀ¥ìĿ´
Ġê·¸ ëıĻìķĪ
ë¯¸ ëĭĪ
íĸĪ ëĬĶì§Ģ
Ġìĥģ ê´Ģ
Ġìĥģ ëĭ¹íķľ
ìľł ì§Ģ
ĠìĹ° ìĺĪ
Ġë§Ī ì°¬ê°Ģì§Ģ
ĠìĺĪ ë£¨ìĤ´ëłĺ
ì²´ ìĹĲ
Ġë°© ì§Ģ
Ġìŀ¥ ìĨĮ
Ġ4 9
ĠëĤ¨ ìķĦíĶĦë¦¬ì¹´
Ġêµ¬ ì¶ľ
Ġë¶ģ ë¯¸
Ġëħ¸ ìĺĪ
ëĶĶ ìĽĢ
Ġë§¤ ì¶ĺ
ĠìĦľ ë¸Į
Ġëªħ ìĺĪ
Ġëªħ ë°±
ë¥´ë į
ê°Ĳ ëıħ
or ld
Ġêµ° ë¶Ģ
ëĤ´ ê¸°
Ġì¤ĳêµŃ ìĹĲìĦľ
Ġê²½ìłľ ë¥¼
ĠìłĢ ì§Ī
Ġì½Ķ ì»¤
Ġì¡´ ìĬ¤
ĠìĤ¬ìĭ¤ ìĥģ
íħĮ ëĦ¤
Ġë³µ êµ¬
Ġìļ´ íķŃ
ë°± ìķħê´Ģ
Ġíĥľ ìĸ´ëĤľ
Ġì§Ħíĸī ëĲĺê³ł
Ġê¶Į ëł¥ìĿĦ
ĠëŁ¬ìĭľìķĦ ìĿĺ
Ġíģ´ë¦°íĦ´ ìĿ´
ĠíıŃë°ľ ë¡ľ
Ġëŀ ľ
ë´ī ìĨ¡
Ġê±°ë¶Ģ íĸĪëĭ¤
ê´´ íķľ
ĠêµŃê²½ ìĿĦ
ĠíĿ¬ìĥĿ ìŀĲ
´ëŀ ľëĵľ
Ġíıīê°Ģ íĸĪëĭ¤
íĬľ ë¸Į
Ġë§Īê°Ĳ íĸĪëĭ¤
Ġìı ŁìķĦ
ĠëĵĿ íĳľ
´ë§Ī íģ¬
' (
7 5
I V
O R
i an
ëĭ¤ ìļ´
Ġìŀ Ĭ
ì§Ģ ìĽĲ
Ġê° Ĵ
ê¸° ìĹĲìĦľ
ìĭľ íĶ¼
ĠìĿ´ ë¡ł
ìĺ ¹
ëĤĺ ë§Ī
ìłķ ê±°
íĬ¸ ëĤ¨
Ġì£¼ ìĹ°
ĠìľĦ ìĹĲ
ì² ¸
Ġê¸° ìĤ¬
ìĪĺ ë¡Ŀ
Ġê·¸ ë¦¬
Ġì¤ĳ ì§Ģ
ëħĦ ë§ĮìĹĲ
ĠìŀĲ ìĦł
ìĦ± ê³¼
ë§Ī íģ¬
ĠìĨĮ ëħĦ
ìĦ¸ ëł¥ìĿ´
ëłĪ ìĬ¤íĬ¸
íĥĢ ìĿ´
Ġìĺģ ìĹħ
Ġê³ł ë¦½
Ġê³ł íĸ¥
ëĭ¨ ìĹĲìĦľ
ìĺģ êµŃìĿĺ
Ġë°© ìķĪ
ëĲĲ ìĿĦ
ĠëıĦ ë§Ŀ
Ġì´Ŀ ìŀ¥ìĿĢ
Ġë¬´ ì£Ħ
Ġ5 5
ì¤ĳ íķľ
Ġë§¤ ëĭĪ
ì¦Ī ìĿĺ
Ġì¶ľ ìĤ°
ĠìĽĲ ìĪŃ
Ġë°ľìĥĿ íķĺì§Ģ
or s
Ġì¦Ŀ ê°ķ
Ġë¬¸ìłľ ìĿĺ
ĠíĿ °
Ġë³´ëıĦ ë¥¼
Ġë°° ìłľ
ar k
Ġë¦¬ ì¡°
ĠìĿĮ ì£¼
ë©Ķ ìĿ´ëĭ¤
ĠëłĪ ìķĮ
ĠíĺĲìĿĺ ìĹĲ
ĠëĤł ìķĦ
Ġë¸Ķ ëĿ¼ê³łìĺĪë¹Ħì¹ĺ
ĠíıŃíĥĦ ìĿ´
ĠêµŃë¯¼ ëĵ¤ìĿĢ
Ġì¤ĳìļĶ íķĺëĭ¤
ĠìĿĺíļĮ ìĹĲìĦľ
Ġê°Ļ ëĭ¤ê³ł
Ġì°¸ìĦĿ íĸĪëĭ¤
ĠíŀĲ íĬ¼
ĠìĬ¹ë¦¬ íĸĪëĭ¤
Ġìĵ° ëĤĺë¯¸
Ġë³´íĺ¸ íķĺê¸°
ë¥ł ìĿĢ
Ġíħ Ĳ
Ġê°Ģê²© ìĿĢ
ĠìĽ¹ìĤ¬ìĿ´íĬ¸ ë¥¼
ìķŀ ìľ¼ë¡ľ
Ġë§¨ ìľł
Ġìħ Ģ
Ġìĭ¤íĮ¨ íĸĪëĭ¤
Ġêµ¬ìłľ ê¸Īìľµ
Ġë¶Ħëªħ íŀĪ
Ġìĺ¤ëŀĺ ëĲľ
ĠìĹ°ë£¨ ëĲľ
ĠíħĶ ëłĪ
Ġëĭ¤íģĲ ë©ĺ
v es
íķľ ëĤĺëĿ¼
ìĿ¸ ëĵ¤ìĿĦ
Ġê° Ķëĭ¤
ê¸° ìŀĲ
ê¸° ë¡Ŀ
ĠìĤ¬ ìĽĲ
Ġê°Ģ ëŁī
Ġì£¼ ì°¨
Ġê¸° ì§Ģ
Ġìĭľ ê¸°ìĹĲ
Ġìĭľ ìŀ¥ìĿĺ
Ġìĭľ ëĵľëĭĪ
Ġê·¸ ìĹĲ
Ġê·¸ ëŁ¬
Ġê³µ ìłķ
Ġë§ĲíĸĪëĭ¤ ê³ł
Ġìĥģ ìłĲ
ë°Ķ íĤ¤
ĠìĹ° ê·¹
ì¡° ìĽĲ
ìĽĶ ìĿĺ
Ġê³ł ë°ľ
Ġê³ł ê³łíķĻ
Ġê²° ìĦł
Ġíķ´ ìĦľ
ìĺĢ ì§Ģë§Į
íķĺê¸° ë¥¼
Ġê±° ì³Ĳ
ë³Ģ ìĿ¸ìĿĢ
íĥĦ ìĿĦ
íĭ° ìĬ¤
ĠíĶĦ ëŀĳ
íĥľ êµŃ
ëĦ¤ ìŀĲ
Ġì§ĢìĹŃ ìĿĢ
ëŁ° ëįĺ
Ġë²ķ ìĿĦ
Ġë²ķ ìĽĲìĹĲ
Ġíıī íĻĶë¥¼
Ġìĭľìŀĳ íķł
íİĺ ìĿ´ìĬ¤
Ġë°ľê²¬ ëĲĲëĭ¤ê³ł
ĠíĺĲìĿĺ ê°Ģ
Ġì§ĢëıĦ ìŀĲëĵ¤ìĿĢ
ĠêµŃìłľ ìłģ
Ġê°Ħ ì£¼
Ġì¼ Ħ
íĮ¨ ë¥¼
ìĻĶëĭ¤ ê³ł
ìľĦìĽĲíļĮ ìĿĺ
ìľĦìĽĲíļĮ ê°Ģ
ëłĮ ìĬ¤
ĠìĪĺìĥģ íķľ
ĠêµŃë°© ìŀ¥ê´ĢìĿĢ
ë°Ľ ê³ł
Ġë§ĪìĿ´ íģ¬ë¡ľ
Ġë²łìĿ´ì§ķ ìĹĲìĦľ
ĠëħĦ ê°Ħ
oc i
Ġë¬ĺ ìĤ¬
ĠìĤŃ ìłľ
ë¥´ëĤ ľ
ĠìķłìĻĦ ê²¬
ĠìĿ´ëłĩ ê²Į
S C
Ġ res
Ġë ĺĳ
Ġê ¶¤
íķĺ ìĹĲ
ìĦľ ê°Ģ
ìĦľ ìĸĳ
ìĿ¸ ê¶Į
Ġê° ±
Ġê° Ŀ
ĠìĿ´ ì¤ĳ
íĬ¸ ëłĪìĿ´
Ġê°Ģ ìĬ´
ĠìľĦ ë¡ľ
Ġê¸° ëıĦ
Ġê¸° ë¶Ģ
Ġìĭľ ëĤ´
Ġê·¸ ê²ĥìĿ´
Ġìļ ķ
íĨµ ìłľ
Ġê´Ģ ì¸¡
ê´Ģ ê´ĳ
Ġë¯¸êµŃ ê³¼ìĿĺ
Ġ3 000
ë£ ©
Ġëª¨ ê¸°ì§Ģ
íĳľ ê°Ģ
Ġê°ľ ë°©
ëĲĲ ìľ¼ëĤĺ
Ġì´Ŀ ë¦¬ë¥¼
Ġ4 6
ë¬¼ ìĹĲ
Ġë¬´ ìĦł
Ġ6 4
Ġê³Ħ ìĹ´
Ġìĺ¬ ëł¤
ĠìķĪ ìłĦìĿĦ
ĠìĿ´ëĿ¼íģ¬ ìłĦ
Ġìŀĳ ìļ©
Ġêµ° ì¤ĳ
ìĪł ìĿĦ
Ġê³¼ ìłķìĿĦ
Ġê²Ģ ìĤ¬ëĬĶ
Ġì¹´ ë¥´
Ġì¤Ħ ê¸°
Ġì²ł ìłĢ
Ġê³³ ìĿĦ
Ġì§Ħíĸī ëĲĺëĬĶ
Ġìĸ» ìĿĦ
íĨ °
ëĭ¨ì²´ ëĬĶ
ëĭ¨ì²´ ê°Ģ
ĠìķĪìłĦ íķľ
Ġê·¹ ëĭ¨
ĠíĻį ìĪĺ
Ġíİ¼ ì³Ĳ
ĠíļĮìĿĺ ìĹĲìĦľ
Ġë§Įëĵ¤ìĸ´ ì§Ħ
Ġì£¼ìĭĿ ìĭľ
Ġë³´ìľł íķĺê³ł
Ġê²¨ ëĥ¥
ì· Ħ
4 7
i p
l and
¥ ìĿĦ
ìĿ´ ëĵ¤ìĿĺ
ê°Ģ ëĵ¤ìĿ´
Ġë§ ¹
ëĿ¼ ìļ°
Ġìĺ ¹
ìĿ¼ ê³¼
ëŀ ¨
ĠìłĦ íĸĪìĬµëĭĪëĭ¤
ìĥģ ê³¼
ëĵľ ëĿ¼
ì£¼ ì§Ģ
Ġë§Ĳ íķĺë©°
ĠìĿ¸ ìĥĿ
Ġê³µ ëª¨
ĠìĿĺ ìĤ¬ê°Ģ
ìĨĮ íķľ
íĶĦ ë¡¬
íĶĦ ìħĶ
Ġì¡° ë¥ĺ
ĠëĤĺ ìĿĢ
ĠìĹ° íĸī
ëłĪ ëĤĺ
íĥĢ ëĬĶ
ëł¥ ìĹĲ
ìĹ¬ ìĦ±
ëĲĲ ìĹĪëĭ¤
ĠìĦ¸ ê¸ĪìĿĦ
Ġë¶ģ ëıĻë¶Ģ
Ġìŀ¬ ê±´
ĠìŀĲìĭł ìĿĢ
ê²° ìĬ¹
Ġì£¼ìŀ¥ íķľ
Ġë²ł íĬ¸ëĤ¨
ĠìĺģíĻĶ ìĹĲ
Ġìķŀ ìĹĲ
ĠA C
Ġì´Ī ëŀĺ
Ġ20 12
Ġê±¸ ëł¤
ĠìĿ´ëŀĢ ìĹĲ
ë²Ķ ìľĦ
ĠìĹ´ë¦° ìļ°ë¦¬
ë¹ Ľ
Ġê³µê°ľ ìłģìľ¼ë¡ľ
Ġ199 4
Ġê°ģ ë£Į
Ġìĵ ´
Ġìĥģíĥľ ìĿ´ëĭ¤
Ġë§ī ìĿĦ
as t
Ġê¸ī ëĵ±
ĠìľĦíĹĺ ìĹĲ
´ë° Ķ
ĠìºĲ ë¦Ń
Ġì¸¡ ìĿĢ
Ġë°Ľìķĺ ìľ¼ë©°
Ġëª° ëł¤
ëĨ Ģ
Ġê³¼íķĻ ìŀĲëĵ¤ìĿ´
íĳ¸ íĭ´
ĠíĻķìĭ¤ íķľ
ìĻĶ ëįĺ
im e
Ġíľ´ëĮĢ ìłĦ
Ġë¹ĦíĮĲ íĸĪëĭ¤
ĠíĥĢìĿ´ íĭĢ
ĠìłĦìĹŃ ìĹĲ
Ġë°ĶìĿ´ëŁ¬ ìĬ¤
ĠìĿ´ìĻĢ ê°ĻìĿĢ
ëĮĢë¶Ģë¶Ħ ìĿĺ
3 6
r ic
ë ĩĮ
Ġ `
Ħ ¤
Ġì ³
ì§Ģ ë°©
íķ´ ì¤Ħ
ëĿ¼ ëį¸
ë° ´
ë© į
ĠìĪĺ ìĿĺ
ĠìĪĺ ë¹Ħ
ĠìłĦ ìĤ¬
ëŁ¬ ìĬ¤
ì£¼ ëħĦ
ĠìŀĲ ìĤ°
Ġë¶Ģ ìĸĳ
Ġê³µ ìĿĦ
ìľĦ íķ´
ê´Ģ ìĿĺ
Ġìľł ë°ľ
Ġìĥģ íĺ¸
Ġì¡° ìĦł
Ġë§Ī ì³¤ëĭ¤
íĤ¤ íį¼
ĠìĺĪ ìĦł
Ġìµľ ìļ°
ìĹ¬ ëŁ¬
Ġìĭ¤ ì§Ī
Ġë§Į ìķ½
Ġê°Ĳ ì§Ģ
Ġê°ķ íĴį
ĠíĶ¼ ê³ł
ĠíĶ¼ ëĿ¼ë¯¸
Ġì£¼ìŀ¥ ìĹĲ
or k
Ġë²ķ ìĽĲìĿ´
ìħ °
Ġê²Ģ ë¬¸
ĠëłĪ ìĿ´ìĬ¤
ĠìĹ°êµ¬ ëĬĶ
Ġíĥľ ëıĦë¥¼
ĠìłĲ ì°¨
ëĲĺìĸ´ ìķ¼
ĠíıŃíĥĦ ìĿĦ
´ëĲ ł
ĠìĿ´ëĤ ´
Ġ13 0
ĠíĸĪ ìĬµëĭĪëĭ¤
ĠìĨĮëħĢ ìĿĺ
ĠE n
Ġë³´ìķĪ ê´ĢìĿĢ
´ëŁ ¬
Ġë°ľìĸ¸ ìĹĲ
Ġì°¸ìĹ¬ íķľ
Ġìĭľë¯¼ ëĵ¤ìĿ´
Ġë¹Ī ê³¤
am a
Ġìĭłë¬¸ ìĿĢ
ĠíĿ¥ ë¯¸
Ġê·¼ì²ĺ ìĹĲìĦľ
ĠìĦłëĳĲ ë¥¼
ĠëĬ¦ ê²Į
ĠìķĮëłī ìĤ°
Ġê±°ëĴ Ģëĭ¤
Ġë²łë¥¼ ë¦°
a il
i z
Ĥ ´
íķĺ ê²łëĭ¤
ë¡ľ ê°Ģ
ëĵ Ģ
ì§Ģ ì»¬
ĠëĮĢ ê²°
ĠëĮĢ ë¥Ļ
ĠëĮĢ íļĮìĹĲìĦľ
ìŀĲ ìľł
Ġì§Ģ ì§Ī
ëĤĺ ì§Ģë¥´
íĬ¸ ìĻĢ
Ġê·¸ ëĮĢë¡ľ
Ġë¶Ģ ëĭ´
Ġë¶Ģ ì±Ħ
ë§Ī ë¦¬ìĿĺ
ìļ© ìľ¼ë¡ľ
Ġìľł ì¶ľ
Ġìĥģ ë°ĺ
Ġìłľ ëĮĢë¡ľ
ĠëĤĺ ìĹĲê²Į
ì¡° ì°¨
Ġëª¨ íķĺë©Ķëĵľ
Ġë§Ī íĿĲ
ì½ °
ĠìĬ¤ ìºĶ
Ġë°© ìĭĿìľ¼ë¡ľ
Ġë°Ķ ëĭ¥
Ġìĭł ì²´
200 0
ĠìĬ¹ ëł¤
Ġë§İ ëĭ¤
Ġ8 00
Ġê´Ģê³Ħ ìŀĲ
Ġë¡ľ ìĿ´
Ġë¡ľ ìĬ¤
ĠìłĢ ëĬĶ
ìĤ´ ìĿĺ
ĠíķĦ ë¦½
ĠA I
ĠëĲľ ëĭ¤ëĬĶ
ĠëłĪ ìĬ¤íĨł
Ġë¸Į ëŀľëĵľ
Ġì§ĢëıĦ ìŀĲê°Ģ
ĠíĨł ëĭĪ
ĠëĨĴ ëĭ¤
Ġë¯¸êµ° ìĿĦ
ĠíĺĦìŀ¬ ê¹Įì§Ģ
Ġê°ĸ ì¶ĺ
ĠëĤ´ë Ĥ´
Ġê¸°ìŀĲ ëĵ¤ìĹĲê²Į
Ġíķ©ìĿĺ ë¥¼
ĠìĿ´ë¯¸ ì§Ģë¥¼
Ġì°¨ëŁī ìĿ´
ĠìĿĺíļĮ ëĬĶ
Ġì£½ ìĿĢ
ìĤ¬íĥľ ê°Ģ
ĠíĥĦ íķµ
Ġì²ľ ì£¼êµĲ
ĠëĤ©ì¹ĺ ëĲľ
ĠìĬ¤íĥĢ ëĶĶìĽĢ
ĠìŀĲìľł ë¥¼
Ġëª©íĳľ ë¥¼
Ġì¶ľìĹ° íķľ
Ġë§Īì§Ģë§ī ìľ¼ë¡ľ
ìĤ¬íļĮ ëĬĶ
Ġìķ¼ëĭ¹ ìĿ¸
Ġì¦Ŀê±° ê°Ģ
ĠíıŃíĥĦíħĮëŁ¬ ë¡ľ
Ġê²Ģìĥī ìĸ´ê°Ģ
ĠìĤ¬ëł¹ ê´ĢìĿĢ
ê³µíĻĶ êµŃ
íĽ Ī
ĠëĳĲëł¤ ìĽĮ
Ġíľ© ìĭ¸
Ġë°°ëŁ´ ëĭ¹
ìĿ¸íķĺ ìļ°
ĠëĦ¤ëįľ ëŀĢëĵľ
ĠìĹĦì²Ń ëĤľ
8 7
¨ ëĭ¤
ï ¼
ĥ Ī
ê³ °
ìĹĲ ëĵľ
ìĿĺ íļĮ
ë¦¬ ë²Ħ
Ġë§ Ľ
ë© ķìĭľì½Ķ
ìłķ ëıĦ
ĠìķĦ ëıĻ
Ġê°Ģ ì¹ĺ
Ġì¤ĳ ëĮĢíķľ
Ġë³´ ìĥģ
Ġë¶Ģ ë¶Ģ
Ġëį ķ
ĠìĨĮ ë§¤
Ġë¹Ħ ê³µ
ìļ© ìĿĺ
ë¹Ħ ë¡ľ
ĠìĿĺ ìķ½
ë°Ķ ë¦¬
ĠëĤĺ ìĿĺ
ĠìĹ° ìĩĦ
ëłĪ ìĿ¸
ìĥĿ ë¬¼
ì¡° ì¹ĺë¥¼
ĠìķĮ ì½Ķìĺ¬
Ġíķ´ ìĪĺ
ĠìĥĿ ëªħ
ìĭ¤ ìĿĢ
Ġì°¨ ìĿ´ê°Ģ
Ġì¶Ķ ëª¨
ĠìĽĲ ìĿ¸ìĿĦ
ĠìĺĪìłķ ëĲľ
ĠíķľêµŃ ìĿ´
Ġëª» íķ´
Ġë¦¬ íŀĪ
íĮĲ ìĿ´
Ġëıħ ìŀ¬
ìłĢ ìŀ¥ëĲľ
ĠìĹ°êµ¬ ìĹĲ
ĠíĬ¹ ì§ķ
Ġê°ĢëĬ¥ ìĦ±ìĿĢ
Ġíĳľ íĸĪëĭ¤
Ġëħ¼ íıī
Ġíİĺ ë¥´ë²łì¦Ī
Ġëĵ¤ìĸ´ ê°Ķëĭ¤
Ġì§Ī íĻĺ
Ġíķ©ìĿĺ íĸĪëĭ¤ê³ł
Ġë¹Ħíĸī ê¸°ë¥¼
ëĵ± ìĿĦ
ĠêµŃë¯¼ ëĵ¤ìĿĺ
Ġì¹¨ ìŀħ
ĠìĪľ ë°©
Ġê´ĳ ìĤ°
Ġë¶Ģìĥģ ìľ¼ë¡ľ
Ġëĭ¹ìĦł ìĿ¸ìĿ´
Ġc h
Ġìĥģíĥľ ë¡ľ
Ġìĥģíĥľ ê°Ģ
ĠìĦłìĪĺ ê°Ģ
Ġìŀ¡ ê³ł
Ġê¸ī ì¦Ŀ
íĻķ ìĭ¤
ë¥ł ìĿĦ
ĠìĿ¸ê·¼ ìĹĲ
Ġê³¨ íĤ¤íį¼
Ġì¶©ëıĮ ìĿ´
Ġìŀĥ ìĹĪëĭ¤
Ġëª¸ ìĿĦ
Ġìķ¤ ëĵľ
ĠìĿ¼ë°ĺ ìłģìľ¼ë¡ľ
ĠìĿĺë¯¸ íķľëĭ¤
ak e
ĠìĬ¤íĶ¼ ìĸ´
ìĭľì¼° ëĭ¤ê³ł
ĠìŀĲìĦ¸ íķľ
Ġì²ŃìĻĢ ëĮĢ
ĠìºĦ ë³´ëĶĶìķĦ
ìķĻìĿĢ íĸī
ĠëĶĶì§Ģ íĦ¸
ĠëłĪìĬ¤íĨł ëŀĳ
A C
p ort
Ġ :
ë¡ľ ë²ĦíĬ¸
ìķ Ĺ
ëł ĺ
ìĽĲ ìŀĲëł¥
ĠìłĦ ë¶ĢíĦ°
Ġë§Ĳ ëĿ¼
Ġìĭľ ëĭ¬
ëħĦ ìĹĲìĦľ
íĦ° ê°Ģ
ĠìĿ¼ ì°į
ëĭĪ ìĸ´
Ġê´Ģ ì¤ĳ
ëĭ¹ êµŃìĿ´
ëĲĺ ìĹĪëįĺ
ëĶ ľ
Ġíķĺ ë©´ìĦľ
Ġìĺģ ìĽħ
ìĺ¤ íĶĪ
ìĹ¬ íĸī
ê¸Ī ìľ¼ë¡ľ
íŀĪ ëł¤
Ġê±° ë¦¬ìĹĲ
ëĶĶ ëĦ¤ìŀĲ
ĠìĤ¬ëŀĮ ìĹĲê²Į
ĠíĺĦ ìĭ¤
ĠíĺĦ ìŀ¥ìĿĦ
ê²° êµŃ
ĠíĹ ¨ë¦¬
ìĦĿ ìĿ´
ĠëĿ¼ ìĿ´íĬ¸
Ġë°° ê²½
Ġê¸Ī ìļĶìĿ¼
Ġëĸ ¨
Ġë¬¼ ìĹĲ
Ġíķ© ë³ĳ
Ġê³µê²© ìĿĢ
ĠA BC
Ġ12 0
ĠëĴ¤ ë¥¼
ĠëıĮ íĮĮ
ëĤł ëĳĲ
Ġì¶© ê²©
Ġìĺ¨ ëª¸ìľ¼ë¡ľ
Ġì²Ń êµ¬
Ġê°Ģì¡± ìĿ´
Ġë§Įëĵ¤ ê³ł
ì»¤ ëĬĶ
Ġë°©ìĨ¡ ìĿĢ
Ġìĵ ¸
ĠëıĦìĭľ ìĹĲìĦľ
ĠìĻ¸êµĲ íĨµìĥģ
Ġì´ī ì§Ħ
ol l
Ġë§ĪìĿ´ íģ¬
ë¹Ī ëĿ¼ëį´
Ġë§¡ ê³ł
ĠìĿĳ ê¸ī
Ġì½ĺ ëıĮë¦¬ìŀĲ
ĠëĤ¨ìķĦ ê³µ
ĠìłĢì§Ģ ë¥¸
Ġe x
Ġêº ¼
ë¿Ĳ ë§ĮìķĦëĭĪëĿ¼
Ġì°¨ê´Ģ ë³´ëĬĶ
Ġëĭ¬ëĿ¼ ìĿ´ëĿ¼
íĶĮëłĪìĿ´ ìħĺ
ĠìĿ¸ëĶĶ ìķłëĤĺ
ìĿ´ ëĵ¤ìĿ´
ê³ł ê¸°
íķľ ì§Ģ
ë¡ľ ë¯¸íĦ°
ê°Ģ ìŀĲ
ìĤ¬ ë§Ŀ
ĠìĿ´ ìĭĿ
ĠìłĦ ìļ©
ĠìłĦ ì§ģ
ìłģ ìĿ´ëĭ¤
Ġê°Ģ ìĥģ
Ġê°Ģ ëĤľ
ì² «
Ġê¸° ë°Ģ
Ġê·¸ ë£¨
Ġì¤ĳ ê°Ħ
ĠìĿ¸ ë¥ĺ
ĠìŀĲ ë¬¸
ë³´ ìķĪ
ìĦ± ìŀ¥
ë§Ī ë¦¬ë¥¼
ê³Ħ ëĬĶ
ĠìĨĮ ì§ĳ
ĠìķĬ ê¸°
ĠìķĬ ê²Į
Ġë¹Ħ íķµ
ëĭ¹ ê³¼
ìĨĮ ìĨį
ë°Ķ ë¥´
ìĦ¸ ìĹĲ
íĥĢ ìĿĺ
íĥĢ ë¯¼
Ġê³ł ìĨĮ
ĠìĬ¤ íģ¬
ĠìĬ¤ ìĽ¨ëį´
ëĶĶ ìĬ¤
ëĶĶ ìĸ´
Ġê°Ĳ ìĤ¬
ì¦Ī íĶĦë¡¬
Ġì§Ħ ìĺģ
Ġì¶ľ ìŀħ
ë¥´ë ħ¸
ëĤ´ ì§Ģ
en s
ìĬ¤íĬ¸ ë¦¬íĬ¸
Ġë¬¼ ìĿĦ
ĠìĤ° ë¦¼
ë§Ĳ ìĿĦ
Ġë¹ĦëĤľ íķĺê³ł
Ġë§ŀ ì¶Ķ
at h
Ġì²ł ëıĦ
Ġì²´íı¬ íĸĪëĭ¤ê³ł
ĠP C
ĠëĮĢíķĻ ìĥĿ
ĠêµŃë¯¼ ëĵ¤ìĿ´
ĠI A
Ġëĭ¤ìĭľ íķľë²Ī
Ġì¦Ŀê°Ģ íĸĪëĭ¤ê³ł
Ġë¶Ģìĥģ ìŀĲ
ĠíĮĮíĤ¤ìĬ¤íĥĦ ìĿĺ
ĠíĬ¸ ëłĪìĿ´
ê²¨ ì§Ħ
Ġì°¨ëŁī ìĹĲ
ĠìłĪ ì°¨
ĠìĻ¸êµĲ ìłģ
Ġë³Ģíĺ¸ ìĤ¬ê°Ģ
ĠëĨį ë¯¼
´ë³ ´
ĠìŀĪìĸ´ ìĦľ
ìĿ´ëŀĢ ìĿ´
Ġìºĺë¦¬íı¬ëĭĪìķĦ ì£¼
Ġì§Ģíķĺ ì²ł
Ġê¼ Ń
Ġê·¼ê±° ë¡ľ
Ġëħ¼ëŀĢ ìĿ´
ê·¸ëŀĺ ìĦľ
Ġë¹Ļ íķĺ
Ġë¹ĦìĥģìĤ¬íĥľ ë¥¼
Ġìķķëĳĺ ëĿ¼
ĠìĦ±íĻĶ ë´īìĨ¡
Ġíĥģ ìĭł
ĠëĿ¼ìĬ¤ ë²łìĿ´ê±°
ĠìĦŃ ì·¨
Ġë§Īì¹´ ìĺ¤
overn ment
4 5
4 8
B M
a w
i de
Ġì ¿
ë¦ ´ëŀľëĵľ
Ġê² ¸
ĠìĹ ĳ
ĠìĹ ´ëĮĢ
ìĭľ ë¦¬ì¦Ī
ĠìĿ´ ê°ĻìĿ´
ë¬ ĺ
ĠìłĦ ìĿ¸
ĠìłĦ ìĹ¼
ìłģ ìĿ´ë©°
Ġë¯¸ ìĪł
Ġë¯¸ ì¹ł
ĠìĿ´ë ¸Į
Ġë¶Ģ ë¶Ģê°Ģ
íģ¬ ëĿ¼ìĿ´
ĠìĨĮ íĺķ
ĠìĨĮ ëĵĿ
ë©´ ìĹĲ
íĶĦ ê°Ģ
Ġìłľ ëª©
ê±° ìļ´
ìķĺ ìľ¼ë©°
ìĭĿ ìĹĲìĦľ
Ġë°© ì½ķ
Ġê°ľ ì²´
Ġëĭ¹ ìĭłìĿ´
Ġì´Ŀ ìĦłìĿĦ
Ġêµ¬ ì¶ķ
Ġ5 3
ì¹´ ë¥´íĥĢ
ĠìĤ¬ëŀĮ ëĵ¤ê³¼
Ġíı¬ ëŁ¼
Ġìŀ¬ ë¬´ë¶Ģ
Ġì£¼ìŀ¥ íķĺë©°
ëĲĲëĭ¤ ëĬĶ
ê°Ĳ ìĿ´
Ġë°ľíĳľ ë¥¼
ĠíķľêµŃ ìĹĲ
Ġë°° íĽĦ
ĠíĻĶ ë¬¼
Ġê³¼ ê²©
Ġê²Ģ ìĿĢ
ê°Ŀ ëĵ¤ìĿĢ
Ġíŀ Į
ë©Ķ ë¥´
ĠìĤ¬ìļ© íķ´
ĠìĤ¬ìļ© ëĲł
Ġìĸĳ ìĦ±
ĠìķĦìĿ´ ìĺ¤ìĻĢ
Ġê²½ê¸° ë¶Ģìĸĳ
Ġê²Į ìŀ¬
Ġìķķ ìĪĺ
Ġì´ī ë°ľ
Ġë°©ë²ķ ìĿ´
Ġìĵ° ëłĪ
Ġìłľìŀĳ íķľ
íķĦ ëĵľ
ìĤ¬íļĮ ê°Ģ
Ġìłľì¡° ìĹħì²´
ìħĶ ëĦĲ
ĠíĻĶìŀ¬ ë¡ľ
ĠìľĦìĽĲíļĮ ëĬĶ
´ëĤ ´
ĠíĶĦë¦¬ ë¯¸ìĸ´
Ġë¶Ļ ìŀ¡
ìĤ¬ëŀĮ ëĵ¤ìĿ´
ìĽħ ìĤ°
ĠëĳĺëŁ¬ ìĭ¸
íĢ ´
Ġíļ¡ ëł¹
Ġë°Ķë¥´ ìħĢë¡ľ
ëĿ¼ëĶĶ ë¯¸ë¥´
Ġì½ľë¡ľ ëĿ¼ëıĦ
ê¸ĢëĿ¼ëį° ìĭľ
ĠìĿ´ìĤ° íĻĶ
ëĿ¼ëį¸ íĶ¼ìķĦ
3 5
G M
O N
f t
i ti
o h
ë »
Ġ k
ìĿ´ ê³³
´ë ²Ħ
ê² Ķ
ëıĦ ìĹĲìĦľ
ëıĦ ìļ°
Ġì§Ģ ìĥģ
ìķĦ ëĿ¼ë¹ĦìķĦ
ê·¸ ë¦°
Ġìłķ êµĲ
Ġì¤ĳ ë¶Ģ
Ġë³´ ìŀī
ë§Ī ë¹ĪëĿ¼ëį´
Ġê³µ ê°Ħ
ë¹Ħ ìĻĢ
Ġì¡° ì¹ĺëĬĶ
ìĤ Ń
ìĦ¸ ìĿ´
ĠìĺĪ ìłĦ
ê³µ ê²©
Ġëĭ¹ êµŃìĿĺ
ĠìķĮ ë©ĶìĿ´ëĭ¤
ĠíļĮ ìŀ¥
ì¤ĳ ìĹĲ
ê°ģ ìĿĦ
ĠìĹĲ ëĬĶ
Ġìŀħ ìĿĦ
ë°ľ ìłĦ
in is
Ġ19 70
íĴĪ ìĿ´
ĠìĺĪìłķ ìĿ¸
ĠìĺĪìłķ ìŀħëĭĪëĭ¤
Ġë¬¸ìłľ ìĻĢ
Ġê´Ģê³Ħ ìĹĲ
Ġë²ķ ìķĪìĿ´
ì²ĺ ìĿĮ
Ġê¸Ī ìĹ°
ìħ ĭ
ìħ ľ
Ġê³¼ ëıĦ
ĠìĿĮ ìĭĿìĿĦ
ĠíķŃ êµ¬
íĻľ ëıĻìĿĦ
Ġìĸĳ ìľ¡
Ġì¡°ìĤ¬ íķľ
Ġì¡°ìĤ¬ ê°Ģ
ĠëıĮ ìŀħ
ì¸ł ë¥¼
Ġì§ĢëıĦ ìŀĲëĵ¤ìĿ´
ìķł íĭĢ
ĠS h
ìĻ¸ êµĲ
íĿ ¥
Ġì¼ Ī
ë¹ Ĺ
ĠìķĦëĭĪ ë©´
ou t
ĠìĨĲ ìĭ¤ìĿĦ
Ġê°Ģì¡± ìĿĦ
Ġê°Ģì¡± ìĿĢ
Ġìķķ ëıĦ
ĠíĶĮ ë£¨
Ġì¶ķ ìłľ
Ġa c
ì½ľ ë¡¬ë¹ĦìķĦ
Ġë¨¸ ë¦¬ë¥¼
íĻķ ìĿ¸
Ġê³µíķŃ ìĹĲ
Ġëħ¸ëıĻ ìŀĲ
us h
ĠíĮĢ ìĿ´
ĠìķĬëĬĶëĭ¤ ë©´
ĠëŁ°ëįĺ ìĹĲìĦľ
Ġì¹´ë ¶Ī
Ġë¹Ī ë¯¼
ĠëĿ¼ìĿ´ ë²Į
ìļ°ì£¼ êµŃ
Ġíĸīìłķë¶Ģ ê°Ģ
ĠìķĦë§Ī ëıĦ
ĠìĥģëĮĢ ë°©
ĠìĪĺìĦĿ ëĮĢíĳľ
Ġê²°ìĿĺ ìķĪìĿĦ
ĠìĥĿë¬¼ íķĻ
Ġë¨¸ë¬¼ ê³ł
ĠìĻķìĦ¸ ìŀĲ
Ġê²°ë¡ł ìĿĦ
Ġê¸įìłķ ìłģìĿ¸
ëģĦ ëŁ¬
ëĩ ¨
M S
ë ¤Ħ
ìŀ ł
´ë ªħ
ëĿ¼ íĨ¤
ê¸° ìĥģ
ìĥ Į
ë¶Ģ íĻľ
Ġìĭľ ìĨį
Ġìłķ ì°©
Ġë³´ ê²Į
ë³´ íĹĺ
ë³´ ìŀ¥ìĿ´
Ġë¶Ģ ëĶ
Ġë¶Ģ ë¶ĢëĬĶ
ĠìĨĮ ë¦¬
Ġìłľ ìĿ´
ì¡° ë¥¼
ĠìĻ ¼
ìķ¼ íĽĦ
ìĭĿ ìĿĺ
Ġìļ° ë¦¬ë¥¼
ĠìĦ± ê´Ģê³Ħë¥¼
Ġíģ ´ëŀ
Ġëħ¸ ìĬ¤ìºĲë¡¤ëĿ¼ìĿ´ëĤĺ
ì°¨ ë³Ħ
Ġë°ĺ ìĺģ
Ġìŀ¬ ëĤľ
ì½Ķ ë§¥
ì¦Ī ë¥¼
ĠìŀĲìĭł ìĹĲê²Į
ìĦ¤ ìĿĦ
Ġì¶ľ ìĥĿ
Ġì¶ľ ëĳĲ
ë²Ħ ì§ĢëĭĪìķĦ
on t
Ġë²Į ìĹ¬
ëįĶ ëĬĶ
Ġê²Ģ ì¦Ŀ
ĠìĦ¸ê³Ħ ìłģìľ¼ë¡ľ
ĠíķŃ ìĨĮ
íĻľ ëıĻ
ì±ħ ìŀĦ
íħ įìĤ¬ìĬ¤
Ġê³ĦìĨį ëĲĺëĬĶ
ìłķë¶Ģ ìĿĺ
Ġë©Ķ ë¥´
ĠíļĮëĭ´ ìĿĺ
Ġê°Ĳëıħ ìĿĺ
ë¹ ħ
Ġìº Ķ
Ġê°Ģì¡± ê³¼
ìĽ¨ ìĿ´íĬ¸
Ġì¦Ŀê°Ģ íķľ
ĠíĽ Ķ
ĠíħĮ ìĬ¤íĬ¸
ìŀĪëĭ¤ ê³ł
ĠìķĪìłĦ íķĺê²Į
ĠíķĺëĤĺ ìĿ¸
ëĨ Ī
Ġì°¨ì§Ģ íķĺê³ł
ë²łìĿ´ ì§ķ
Ġì¶©ëıĮ ë¡ľ
ĠìĤ¬íļĮ ìłģ
ĠìĪĺë°± ëªħìĿĺ
ĠìĽĢì§ģ ìŀĦìĿĦ
ĠìĹŃìĤ¬ ìłģ
Ġíİ¼ ì³¤ëĭ¤
ìĹ°êµ¬ ì§ĦìĿĢ
Ġìłľê¸° íĸĪëĭ¤
Ġìĭ¤ì¢ħ ëĲľ
ìĸ¼ ë¦¬
ë´ ¤ëĭ¤
ĠëĽ° ìĸ´
Ġê¸Ģ ìĿĦ
ĠìĪł ìĿĦ
IA EA
ĠíĿ¥ ë¶Ħ
ĠëĳĺëŁ¬ ìĭ¼
Ġì¦īê°ģ ìłģìĿ¸
Ġì¡¸ ìĹħ
íĥĢëĤĺ ëª¨
ĠFA RC
ĠíĺľíĥĿ ìĿĦ
Ġì« ĵ
Ġë©¤ ë²Ħ
0 4
A N
i ve
Ġ X
Ġë ĥĪëĭ¤
ìĿ´ íķľ
ìĭľ ìĬ¤íħľ
ĠìĤ¬ ìĹħìĿĦ
ĠëĤ ¼
ëĲ ©ëĭĪëĭ¤
Ġëĭ ī
ìķĦ ìĿ¼ëŀľëĵľ
ĠìłĦ íĻĺ
ĠìķĦ ìĬ¤
ĠìķĦ ë°Ķ
ĠìĿ¸ ëªħ
ĠìĿ¼ ìłľ
ĠìĿ¼ ìĿ´ëĭ¤
ĠêµŃ ìłķ
ĠêµŃ ìŀ¥ìĿĢ
Ġë¹Ħ ê·¹
ëĭ¹ êµŃ
ë¹Ħ ìĿĺ
ë¹Ħ ìĥģ
ĠëĤĺ ìĬ¤ëĭ¥
Ġê²° ì½Ķ
ĠíļĮ ìĤ¬ëĬĶ
ì¼ °
ê¸Ī ì§Ģ
Ġ5 6
íĮĮ ë¡ľ
êµĲ íĨµ
ì¹´ ìļ´íĭ°
ëŀĺ ëĵľ
Ġìĭ¤ ë¦°
ë²ķ ìĽĲ
Ġë§İ ìķĦ
íĶ¼ íĬ¸
ë²ł ëĭĪìķĦ
Ġëªħ ìĿĦ
Ġê¸Ī ë¦¬
ĠìĿ¼ë³¸ ìĹĲìĦľ
Ġì´Ī ë°ĺ
Ġê²½ê¸° ê°Ģ
Ġì§Ģì§Ģ ìŀĲëĵ¤ìĿĢ
íĺĳ ìłķ
ëłĪìĿ´ íģ¬
ìķł ë¯¸
Ġë¯¼ì£¼ íĻĶ
ëĦĪ ëĬĶ
ĠS p
Ġíĳľ ë¥¼
Ġíĳľ ì¤Ģ
Ġì¢ħ íķ©
ĠìĿ´ëŀĢ ìĿĢ
Ġìĸ´ ê¹¨
ĠìķĬìķĺ ëįĺ
ĠëĤł ì§ľ
Ġof f
ĠêµŃë¯¼ ëĵ¤ìĹĲê²Į
ĠìľłëŁ½ ìĿĺ
Ġì²« ë²Īì§¸
Ġìĭ¤ìĭľ ëĲĺëĬĶ
ĠëĦ¤ ë°Ķëĭ¤
as s
ĠíıŃë°ľ ìĿ´
ĠìĦ±ê³µ ìĿĦ
Ġìłķì±ħ ìĹĲ
Ġìļ©ìĿĺ ìŀĲê°Ģ
ì¢ ĭ
ëĿ¼ìļ´ ëĵľ
ĠëĨĵ ìĹ¬
Ġê·ľëª¨ ê°Ģ
ĠëĪĪ ìĹĲ
Ġë¯¸ìĤ¬ìĿ¼ ìĿĦ
ĠìłķëıĦ ìĿĺ
ĠìĹŃìĤ¬ ìłģìĿ¸
ĠìĤ¬ìļ° ìĬ¤
ĠìĹ¬ê°Ŀ ê¸°ê°Ģ
ëį°ìĿ´ ë¹Ħëĵľ
Ġëĭ¹êµŃ ìĹĲ
Ġìŀ¥ë©´ ìĿ´
ĠìĿ¸êµ¬ ê°Ģ
ìĵ ¸
Ġë°ĽìķĦëĵ¤ ìĿ¼
Ġì¡°ì¢ħ ìĤ¬
ĠìĿĺíĺ¹ ìĿĦ
ì²¨ ëĭ¨
ìŀĺ ëłĪìĬ¤
Ġì§§ ìĿĢ
Ġìĥĺ íĶĮ
Ġìĺ¹ íĺ¸
. )
4 00
7 000
9 0
a v
º ¼
ê º¼
Ġ he
íķ ´ëıĦ
ì§Ģ ìĪĺê°Ģ
ĠëĮĢ ì¹ĺ
ĠëĮĢ ë¦½
ìŀĲ ë£Į
ìĽĲ ëĵ¤ìĿĺ
Ġëĭ ¥
ë¶Ģ ë¡ľ
ë² ħ
ìĸ´ ìŀ¥
Ġê°Ģ íĸĪëĭ¤
Ġë§Ĳ íķł
Ġê¸° íļĮê°Ģ
Ġìłķ íķ´
Ġíķľ ëķĮ
ë§Ī ê°Ģ
ë§Ī ìŀĲ
ĠìĿ¼ ìĹĲ
Ġëĭ¤ êµŃìłģ
ĠìĿĺ ë¬´
ìĨĮ ìĻĢ
ìĦ¸ ëĬĶ
ë£ °
Ġíĥ ±
íĥĢ ë¥´
Ġìĺģ ìĸĳ
ìĭĿ ìĿĢ
Ġë°Ľ ìľ¼ë©°
Ġíķ´ ìŀĦ
ĠìĦ¸ íı¬
ĠëĤ¨ ëıĻ
ë§Ŀ ìĿĦ
Ġë¶ģ ëıĻ
ĠëĺĲ ëĭ¤ìĭľ
ë²ķ ìĿĢ
ĠíıŃ ê²©
ëł¨ ìĿĺ
ĠìĽĲ ì¹Ļ
Ġ7 00
er al
Ġì¤ĳêµŃ ìĿĦ
Ġë¶Ħ ë¥ĺ
Ġì§ĳ íļĮë¥¼
Ġë¡ľ ëĵľ
ĠëĿ¼ íĮĮ
Ġê´Ģëł¨ íķľ
Ġìĭ¬ ë¦¬
Ġìĭ¬ ìĤ¬
Ġìłģ ëĮĢ
Ġë°ľê²¬ íķľ
ĠìķĦìĿ´ íı°
ĠìĤ¬ìĭ¤ ìĿĢ
le ar
Ġë³µ ë¬´
Ġê·¼ ìľ¡
ê¸Ģ ëī´ìĬ¤
Ġë¸Ķ ë£¨
Ġê³µê°ľ ëĲľ
ê³³ ìĿĦ
Ġìłľê³µ íķł
´ë° ©
ĠëıħìĿ¼ ìĿĺ
Ġëŀ ĺ
ê´Ģê³Ħ ìŀĲëĬĶ
ëĨ ĵ
Ġì»´íĵ¨íĦ° ë¥¼
ĠìĤ¬íĥľ ìĹĲ
ëĲĺìĹĪ ìľ¼ë©°
Ġë°ĿíĺĶ ì§Ģë§Į
Ġë§¡ ìķĺëĭ¤
ĠìĽĮìĭ±íĦ´ ìĹĲìĦľ
Ġë´ī ìĨ¡
Ġìĥ¤ ë¦¬íĶĦ
ay s
ìĻĶ ìľ¼ë©°
Ġê²½íĹĺ ìĿ´
ĠëıĻë§¹ êµŃ
Ġíĺ¼ëŀĢ ìĿĦ
Ġì§ĦìĪł íĸĪëĭ¤
Ġëĵ£ ê³ł
ëĶĶìĹĲ ìĿ´ê³ł
ĠíĽĮë¥Ń íķľ
W HO
a h
Ġ ~
Ġí Ĥ¬
ëĿ¼ ìĹĲ
ê¸° ëĿ¼ìĿ´
ìĤ¬ ë¬´
ìĭľ ìĺ¤
ĠìĿ´ ìłģ
ĠìĤ¬ ë§ī
ìķĦ ë²ł
ëªħ ìĿ¸
ĠìķĦ ëĬĶ
Ġíķ ´ëıĦ
Ġê°Ģ ëĭ´
ë§Į ìĿ¼
ìłľ ìĿ´
Ġê¸° ê°ģ
ìĪĺ ìĻĢ
Ġë¬ ´ëį
íģ ´ëŁ½
êµ¬ ê¸Ģ
ë¬¸ ìĹĲìĦľ
ĠìĿ¼ ìĸ´ëĤł
Ġë¹Ħ íıī
Ġìĥģ ìĥģ
Ġìĥģ ìĺģ
íĶĦ ë¥¼
Ġì¡° ìļ©
Ġë¯¸êµŃ ìľ¼ë¡ľ
Ġëĵ Ģ
íĥĢ ìĺ¤
ê· Ħ
Ġìµľ ë£¨
ĠìĦ¸ ìļ°
Ġë¬´ ê²Į
Ġ6 5
Ġë¶ģ ìª½
Ġëħ¸ ìĬ¤
ìŀĳ ìłĦìĿĦ
Ġê±° ë¦¬ë¥¼
ì§ģ ìĹĲ
Ġì°¨ ëĭ¨
Ġë§¤ ì¼ĢìĿ¸ìĿĢ
ĠíıŃ íĮĮ
ë§¤ ì¼ĢìĿ¸
ë£Į íĴĪ
Ġëĵ± ìĹĲ
or d
Ġë³´ëıĦ ìĹĲëĶ°ë¥´ë©´
ti t
Ġëª» íķĺëıĦë¡Ŀ
ĠíĽĦë³´ ìĿ¸
ĠêµŃê°Ģ ëĵ¤ìĿ´
Ġë¬¼ ìĿ´
Ġì§ģ ìĽĲìĿ´
Ġì´Ī ìłĲìĿĦ
Ġíı¬íķ¨ ëı¼
Ġê²°ìłķ íķł
ĠêµŃìłľ ê³µíķŃ
Ġì§ĢìĽĲ íķĺëĬĶ
Ġì§ĢìĽĲ íķĺê³ł
Ġíİĺ ë£¨
Ġìķł ëĭĪ
om e
ĠíĶĦëŀĳìĬ¤ ìĿĺ
ĠìŀĪìĹĪ ìľ¼ëĤĺ
Ġëĭ´ ê²¨
Ġë°©ìĨ¡ ìĿĦ
ĠíķĺëĿ½ íķľ
Ġë°©ë²ķ ìĿĢ
Ġìĵ° ì´¨
ĠìĿ¸íĦ°ëĦ· ìĿĦ
Ġê³µìĭĿ ìłģìĿ¸
ĠìĦľìļ¸ ìĹĲìĦľ
Ġìļ´ìĺģ íķĺê³ł
ĠëĮĢìĥģ ìĿ´
íĺ¹ íķľ
íı´ ë¦¬
ĠìĿ´ë£¨ìĸ´ ì¡Įëĭ¤
ĠêµĲìľ¡ ìĿĦ
ĠêµĲíĨµ ìĤ¬ê³ł
ĠíĿ¬ë§Ŀ ìĿĦ
ĠìĨ¡ íĻĺ
ìĤ¬ëŀĮ ëĵ¤ìĿĢ
ĠëĤĺìĺ¤ ì§Ģ
PP P
Ġìķķë°ķ ìĿĦ
íĸĦ íĶĦìħĶ
Ġë§Īëĵľë¦¬ ëĵľ
ĠìĬ¤ì½Ķ íĭĢëŀľëĵľ
ĠìĻĦìłĦ íķľ
ĠìķłíĭĢ ëŀľ
Ġì½© ê³ł
Ġê²°ìĦł íĪ¬íĳľ
ĠIA EA
inis ter
3 2
4 6
Ġì ĮĢ
Ġì ª½
Ġë Ĥ¬
ìĦľ ìĹĲìĦľ
ëĿ¼ ë¥¼
ìĭľ ëĮĢ
ĠìĤ¬ ìľ¡
ĠìłĦ ìĦ¤
ë² ³
ĠìķĦ ëĵ¤ìĿ´
Ġë§Ĳ ìĹĲ
íĻĶ íķľ
íĻĶ ìĻĢ
ĠìĿ¸ íĶĮëłĪìĿ´ìħĺ
ì¹ĺ ê²Į
ë³´ ê±´
Ġì§ ĵ
ëĭ¹ ìĹĲìĦľ
Ġì² ¨
ë©´ ìĹĲìĦľ
ì¡ ¸
ĠìĹ° ì¶ľ
Ġë§Ī ì¹ľ
ìķ¼ ëĬĶ
Ġê°ľ ìĭľ
ĠìĹĨ ê²Į
ĠíļĮ ìŀ¥ìĿĺ
ĠëĤ¨ ë¶ģíķľ
ĠëĤ¨ ëıĻë¶Ģ
íĺ¸ ìĿĺ
Ġë¶ģ ìĦľë¶Ģ
Ġ5 8
Ġë¶Ī ì¾Į
ĠìĹĲ ìĸ´
ê±´ ìĿ´
ê±´ ìĿĢ
Ġë°ĺ ë°ķ
ĠìĿ´ëĿ¼íģ¬ ìĻĢ
ĠíĹ Ĳ
ĠìĪ ²
an k
ĠëĶ ķ
Ġë°ľíĳľ íķĺê³ł
ĠëĳĲ ë°ĶìĿ´
ì» ´íĵ¨íĦ°
ëĥ ī
Ġìłģ ë°ľ
Ġì¢ ģ
Ġì´Ī ì²Ń
ë¦Ħ ìĿĦ
ĠêµŃìłľ ìĤ¬íļĮìĿĺ
Ġê²°ê³¼ ë¡ľ
Ġë¯¸êµ° ìĿĢ
Ġê±¸ ë¦°
ìŀĪ ëįĺ
Ġì°¾ ìĿĢ
ĠìĿ´ìĬ¤ëĿ¼ìĹĺ ìĹĲ
ĠìĨĲ ìĹĲ
ëĤ¨ ë¯¸
Ġê°Ģì¡± ëĵ¤ìĿ´
ĠI OC
Ġì¹¨ ëª°
íĮĢ ìĿĦ
íģ´ ë¡ľ
Ġìĥģíĥľ ë¥¼
ĠìļĶì²Ń ìĿĦ
ĠíĪ¬íĳľ ìĹĲìĦľ
Ġê¸ī ëĿ½
ĠìŀĪìĸ´ ìķ¼
Ġëĭ¨ì²´ ê°Ģ
Ġìĺģíĸ¥ ëł¥ìĿĦ
ĠìľĦíĺĳ ìĿ´
ë°Ľ ìķĺëĭ¤
Ġëħ¼ìĿĺ íķĺê¸°
Ġíľ´ ê°Ģë¥¼
ĠìĿĢíĸī ìĹĲ
ĠìĿ¸ì§Ī ë¡ľ
Ġì§Ģê¸Ī ìĿĢ
ë´ī ìĤ¬
ĠëĪĪ ìĿ´
ĠCNN ê³¼ìĿĺ
ĠëĤ¨ìĦ± ìĿĢ
ĠìĿ´ê³³ ìĹĲ
ĠJ apan
ew s
Ġê°ľíĺģ ìĿĦ
ĠìĤ¬ìļ°ëĶĶ ìķĦëĿ¼ë¹ĦìķĦ
oun d
uc lear
ee k
Ġìŀĺëª» ëĲľ
ĠëŃ Ħ
Ġë¿ Į
ĠìĻ¸íĻĺ ìĿĢíĸī
ĠìĬ¤íĥ ł
3 3
5 6
6 000
E W
T S
p e
íķľ ìĿĢ
ĠìĿ´ ë¥Ļ
ĠìĤ¬ ìłĦ
ë³ ´ëĿ¼
ëĤĺ ë¬´
ĠìĿ´ë ³
Ġì£¼ ìĹĪëĭ¤
ì² ©
Ġê²½ íĸ¥
Ġê·¸ ëŀľëĵľ
Ġê·¸ ê²ĥìĿĦ
íķł ì§Ģ
ĠìĿ¸ ê¸°ë¥¼
ĠìŀĲ ìłľ
ì¹ĺ ë©°
ĠìĿ¼ ìĭľ
Ġê´Ģ ìĺģ
ìķĪ ìĹĲìĦľ
ëĭ¹ íĸĪëĭ¤
ĠìĿĺ ìĽĲìĿĺ
ë°Ķ ê·¸ëĭ¤ëĵľ
Ġìµľ ì²¨ëĭ¨
Ġë°© ìĤ¬
Ġëĭ¹ íĻ©
Ġ4 7
Ġ4 000
ĠëĤ¨ ìĦľë¶Ģ
Ġêµ¬ ë©į
Ġë¶ģ ìª½ìľ¼ë¡ľ
êµĲ ë¥¼
ìĿĮ ìķħ
Ġì°¨ ë³Ħ
ĠìķĪ íĥĢ
ë²ł ëłĪìĬ¤íĬ¸
er v
Ġë²Į ìĿ´ëĬĶ
ëįĶ ìĬ¤
ĠíĻĶ ëł¤
Ġìĭ¬ ì§Ģìĸ´
Ġê³¼ ë°ĺ
Ġìĺ¤ë°Ķë§Ī ìĹĲ
Ġì½Ķ ëģ¼
ë³µ ìĦł
ĠíĨł ë§ĪìĬ¤
ĠíĻľ ì£¼ë¡ľ
Ġë¶Ģìĭľ ìĿĺ
ĠëĨĴ ìĿ´
Ġ15 00
Ġê²Į ìĭľ
ĠìłĲ ê±°
ĠìķĬëĬĶ ëĭ¤ëĬĶ
Ġê·ľ ìłķìĿĦ
ĠìķĬìķĺ ê³ł
Ġìĺ¨ ìĭ¤
Ġê³³ ìĿ´ëĭ¤
ĠëĶĶ ìĬ¤
Ġì¹¨ ì²´
Ġf rom
ĠíĮ¨ íĬ¸ë¦Ń
ĠëĤľ ìĤ¬
Ġê°ľë°ľ ìĿĦ
ìľ¨ ë¡ľ
ĠíĥĦ ìķķ
ĠH IV
íķĦ ë¦¬íķĢ
ĠìŀĲìľł ë¬´ìĹŃ
Ġíħ įìĤ¬
ëĲĺìĹĪ ê³ł
ĠëĤ® ì¶Ķ
ëĵľë¦¬ ê²Į
ĠìĤ¬ìļ° ìĬ¤ìºĲë¡¤ëĿ¼ìĿ´ëĤĺ
ĠìĪĺì¤Ģ ìľ¼ë¡ľ
ĠíĴĢ ìĸ´
ĠìŀĳìĹħ ìĹĲ
Ġì±ĶíĶ¼ìĸ¸ ìĭŃ
Ġë¬´ìĤ¬ íŀĪ
Ġëıķ ê¸°
Ġë¥ ´
Ġê³łìĸĳ ìĿ´
ĠíĢ ¸
ĠìĮį ëĳ¥
Ġë°°ìĭ¬ ìĽĲ
Ġë¶ĢëĶ ª
B O
C I
Ķ ë¸Ķ
íĸĪëĭ¤ ë©°
ë¦¬ ëĵľ
ìĿ¸ ìĪĺ
íķ´ ìĺ¨
ìĭľ ì¹´ê³ł
Ġìĺ Ĳ
ìŀ¥ ê´ĢìĿ´
Ġë³ ¸ëĭ¤
ìĿ¼ íķĺê²Į
ëªħ ìĹĲìĦľ
ë² ¼
ëĮĢ ë³ĢìĿ¸ìĿĢ
Ġê°Ģ íķ´
Ġê°Ģ ê²Į
Ġì£¼ ìĹĲ
ë§Į ìŀ¥
Ġìĭľ ëĿ¼íģ¬
ĠìŀĲ ë¦¬ìĹĲ
ê± ´ë¶Ģ
ìĦ± íĻĶ
Ġë°ĿíĺĶëĭ¤ ê³ł
ëĭĪ ìĹĲ
Ġê²ĥìĿ´ ìĹĪëĭ¤
Ġëĭ¤ ë¦¬
Ġìĺ¤ íŀĪëł¤
ë¹Ħ ìĹĲ
Ġìĥģ ëĭ¹ìĿĺ
ìĨĮ íĶĦíĬ¸
Ġì¡° ìĸ¸
Ġë¯¸êµŃ ìĿ¸ëĵ¤ìĿ´
ìĦ¸ ìĻĢ
Ġëª¨ ëŀĺ
ĠëıĻ ìĿ¼íķľ
ëĭ¨ íŀĪ
ĠìĬ¤ ìľĦìĬ¤
Ġê°ľ íĹĮ
ĠìĹĨ ê³ł
ë¯¼ ì¡±
ë¬¼ ìĿĺ
Ġëħ¸ ë¥´
íĮĮ ìļ´ëĵľ
Ġìĭł ëıĦ
ëĭ¬ ëĿ¼
ì¹´ ë¥´
Ġê±° ëĮĢ
ĠìĹĲ ìĸ´ë²Ħ
ì§ģ ìĹĲìĦľ
Ġìŀħ ìĪĺ
Ġìŀ¬ ìŀĦ
ĠìĦľ ìĸĳ
ì§Ī ìĿ´
íĥľ íıīìĸĳ
Ġì¦Ŀ ìĭľê°Ģ
ĠëĲĺ ëıĮ
ĠìĥĪ ë²½
Ġê¸Ī ë©Ķ
ĠìĹ¬ìĦ± ê³¼
Ġì¹ĺ ìĹ´íķľ
es e
ĠìĦ¸ê³Ħ ìĿĺ
ĠìĿĮ ìĦ±
ë©Ķ ìĿ´íĬ¸
ĠíķĦ ëĿ¼ëį¸íĶ¼ìķĦ
ìłĢ ì§Ģ
Ġì¹´ ìĬ¤íĬ¸ë¡ľ
ĠíĬ¹ ìĪĺ
ì£¼ìĿĺ ìŀĲ
Ġì§ĢìĽĲ íķł
ĠëĤĺíĥĢ ëĤľ
Ġë³¸ ë¶Ģ
ou s
ĠìĤ¬ê³ł ë¥¼
ìĽ¨ ìĬ¤íĬ¸
Ġì¶ķ ìĨĮ
Ġëĭ´ ìĿĢ
Ġì¤ĳëĭ¨ íķł
Ġëī´ìļķ ìĹĲìĦľ
Ġìĥģíĥľ ëĭ¤
Ġì±ħ ìĿĦ
ĠëĪĦ ê°Ģ
km ìĿĺ
Ġë³´ìĹ¬ ì¤Ģëĭ¤
ĠìĦ±ê³µ ìłģìľ¼ë¡ľ
ĠìĬ¹ë¦¬ ë¡ľ
ĠìĬ¹ë¦¬ íķł
ĠìĹ°ë°© ì¤Ģë¹Ħ
ë°Ľ ìĿĦ
ĠìĿ¸ì§Ī ìĿĦ
ig h
ĠìĿ¼ìľ¼ íĤ¬
ĠíĻį ìĪĺë¡ľ
Ġíķĺë£¨ ìĹĲ
Ġìŀ¥ê´Ģ ìĿĺ
Ġë³Ħ ëĭ¤ë¥¸
ĠëĤĺëĿ¼ ìĿĺ
ĠìłĦìĦ¸ê³Ħ ìłģìľ¼ë¡ľ
Ġê°ĲìĹ¼ ëĲľ
ĠìĨĮìĭĿíĨµ ìĿ´
Ġë¶Īê°Ģ íĶ¼
ëĿ¼ë§Ī ë°Ķ
ëĭī ìĬ¤
´ë§ Į
ĠìĿµ ëªħìĿĺ
ĠêµŃíļĮìĿĺ ìĽĲ
Ġë°ĽìķĦëĵ¤ ìĹ¬
ì¶ķêµ¬ ìĹ°ë§¹
Ġíĳľëªħ íĸĪëĭ¤
Ġì²ľìĹ° ê°ĢìĬ¤
Ġë®¤ ì§Ģì»¬
meric an
Ġê·¸ëŁ¬ íķľ
3 9
B BC
T h
Ĳ ë¦¬
ìĿ´ ì»¤
ìĽ ¬
ìĤ¬ íķŃ
ìĭľ ìĻĢ
ĠìĿ´ ëĵĿ
Ġìĭ «
Ġê³ °
ìĽĲ ëĵ¤ìĿĦ
ĠìĪĺ ë¦½
ìłģ ìĿ´ëĿ¼ê³ł
Ġë¯¸ ì¹ĺëĬĶ
íĬ¸ ë¶ģ
Ġê°Ģ ì¦ĪëĭĪ
Ġê¸° ìĹ¬
Ġê¸° ìĺ¨
Ġìłķ ìĿĺ
Ġìłķ ì°°
ë¬¸ íķĻ
íĨµ ìĿĢ
ëıĻ ë§¹
íģ¬ ìĿĺ
ĠìķĬ ê²łëĭ¤ê³ł
ë¹Ħ ë¡Ŀ
ì§Ħ ê³¼
ì§Ħ íĥĢìĺ¤
ĠìĹ° ê¸°ë¥¼
ë£ ¡
Ġë§Ī ìĿĮìĿĦ
Ġê³ł ìķĪ
Ġìµľ ëĮĢìĿĺ
ìĺ¤ ê³ł
ëĭ¨ ìĸ´ìŀ¥
ĠìĬ¤ ìľĦ
Ġë°Ķ ìĬ¤ëĿ¼
ĠìĦ¸ ëł¥ìĿ´
ë¬¼ ë¡ł
Ġë¬´ ìĬ¬ë¦¼
ĠíĨµ ìĭłìĿ´
Ġë¶Ī ê¸¸
Ġìĭ¤ ìĪĺë¥¼
Ġë§¤ ëĭ¬
íİ¸ ìĿ´
ĠìŀĲìĭł ê³¼
ë²Ħ ë¦¬
Ġíİ Ń
Ġë°ľìĥĿ íķĺê³ł
ìĭ¬ ìĿ´
or n
ĠìĺĪìłķ ìĿ´ìĹĪëĭ¤
ĠíĪ¬ ìŁģ
ì¢ħ ìĿĺ
ĠìĹ¬ìĦ± ëĵ¤ìĿ´
Ġíĺĳ ìłķ
ĠìĿ¼ë³¸ ìĹĲ
Ġê³ĦìĨį ëĲł
Ġì¡°ìĤ¬ ìĹĲëĶ°ë¥´ë©´
ìĩ ł
Ġë¹ĦëĤľ íķĺëĬĶ
Ġíĥľ ìļ´
ìĺ¬ ë¦¬ìĸ¸
ĠìĿ´ëŀĢ ê³¼
Ġì¶© ê²©ìĿĦ
Ġo ver
Ġìķł ë¦¬ì¡°ëĤĺ
ĠëĤ´ë ³
ĠíĻķìĿ¸ íķł
ĠëĶĶ ì¦ĪëĭĪ
ĠìĨį ëıĦë¡ľ
ĠëĮĢíķĻ ìĹĲìĦľ
ĠëĶ° ëıĮ
Ġë§Įëĵ¤ ê¸°
Ġ199 6
Ġa s
Ġìĸ¸ê¸ī ìĿĦ
ĠìłĪ ì°¨ë¥¼
ĠìĨĮìĨį ìĿĺ
ìłĳ íķľ
ì¿ł ë°Ķ
Ġìĵ° ê³ł
Ġê´Ģë¦¬ ëĵ¤ìĿ´
Ġê±´ê°ķ ìĿ´
Ġìĭ¬ê°ģ íķĺê²Į
ec on
ëª¬ íĬ¸
íı´ ë¦¬ìĬ¤
Ġìºł íİĺìĿ¸ìĿĦ
Ġíļ¨ ìľ¨
ĠíĥĲ íĹĺ
Ġë¶ĢíĨµëł¹ ìĿĢ
Ġëª¨ëį¸ ìĿĦ
ĠìĪł ì§ĳ
íİł ëĵľ
ĠëĭĪì½ľ ëĿ¼
Ġë³´ìĹ¬ì£¼ ê³ł
ĠìŀĲì¹ĺ ìłķë¶Ģ
Ġê°ĸì¶Ķ ê³ł
Ġì¹ł ëłĪ
Âł20080 6
enc y
Ġë¯¸ìĭľ ìĭľíĶ¼
Ġë¹ĦìĦľ ìĭ¤
Ġìŀ¬ê²Ģ íĨł
ĠìĿ´ìĤ°íĻĶ íĥĦ
1 000
5 9
M F
V D
e g
© ìĸ´
ë ľ
ìĭľ ìĹĲìĦľ
Ġê²ĥ ìŀĦìĿĦ
ìķĦ ëħ¸
ìĻ Ī
Ġë¯¸ ìĦ±
ĠìķĦ ë©Ķë¦¬ì¹´
Ġê°Ģ ì¹ĺë¥¼
Ġê°Ģ ë²¼
Ġì£¼ ìĿĺë¥¼
ĠìľĦ ëĮĢíķľ
Ġë§Ĳ ìĿ´
Ġìļ ´ëªħ
ìłĦ ìĦ¸ê³Ħ
Ġíķľ íİ¸
ĠìĿ¼ ì£¼ìĿ¼
Ġê´Ģ íĥĢëĤĺëª¨
ìľĦ ì¸ł
ìķĪ ìĿĺ
ĠìĨĮ ê·ľëª¨
ë¯¸ ëĵľ
Ġìĺ¤ ì¼Ģ
Ġìľł ê°Ĳ
Ġìłľ íĬ¸
ĠëĤĺ ìĿ´ê°Ģ
ĠëĤĺ ìĿ´ì§Ģë¦¬ìķĦ
Ġíĸ Ħ
ĠëıĻ íĭ°ëª¨
ëł¤ ì§Ħ
ìĹŃ ìĹĲ
Ġëĭ¹ ë¶Ģ
ĠìķĮ ë°Ķ
Ġë°Ķ ëĿ¼ëĬĶ
ĠìĦ± ê²©
ĠìĦ± ì¶Ķ
Ġ5 2
Ġ5 4
Ġìĭł ë°ľ
ì¤ĳ êµŃìĿĺ
Ġë°ĺ ë³µ
ëª¨ ëĳĲ
ì¦Ī ìĻĢ
ĠìķĪ ìłķìĿĦ
Ġì§Ħ íĻĶ
Ġë¡ ¬
ë¸Į ë¥¼
ê¸ī ìĿĦ
ĠìĪ Ģ
Ġêµ° ìĿĢ
Ġíĺ¸ ëĤĺìļ°
Ġë²Į ê¸Ī
Ġë¡ľ ìłĢ
ĠíĪ¬ ìŀĲê°Ģ
ĠëĿ¼ ëį´
Ġë°° ê°Ģ
Ġë¦¬ ëĵľ
ĠíĽĦë³´ ìĻĢ
íĮĲ ìĹĲ
ìłĲ ìĿĢ
Ġë³ĳ ëł¥ìĿ´
ë¦½ ëĭĪëĭ¤
ĠìĦ¸ê³Ħ ìłģ
Ġìĺ¤ë°Ķë§Ī ë¥¼
ĠA T
ĠìĤ¬ìļ© íķĺì§Ģ
ĠìŀĦ ê¸Ī
Ġë³´ë ĥĪ
Ġë°©ë¬¸ íķĺëĬĶ
Ġì¢ħ ë¥ĺìĿĺ
ì°© ë¥Ļ
it e
ic al
ĠìĥģìĽĲìĿĺ ìĽĲìĿĺ
Ġíķ©ìĿĺ íķľ
Ġë¹Ħíĸī ê¸°ê°Ģ
ĠëģĿ ëĤł
Ġìĸ» ê³ł
Ġ25 00
íıī ê·ł
ĠìĿ´ìļ© íķĺëĬĶ
ĠìĿ´ìļ© íķł
ĠìĻķ ìŀĲê°Ģ
ĠíĬ¸ ëĿ¼
Ġëĭ¤ìĿĮ ëĤł
Ġì°¸ìĦĿ íķł
Ġëĸł ëĤ¬ëĭ¤
Ġê±´ê°ķ ìĹĲ
Ġê³¨ ëĵľ
ëĦĲ ëĵľ
Ġëª° ê³ł
Ġë§ĪìĿĦ ìĹĲìĦľ
Ġìľłì§Ģ íķĺê³ł
Ġë²Īì§¸ ë¡ľ
ĠìĨĮìľł íķĺê³ł
Ġh is
Ġìĸ´ëł¤ ìĽĢ
Ġn uclear
Ġìłľìĭľ íĸĪëĭ¤
ĠìĪĺìŀħ ìĿĦ
Ġì£¼ëıĦ íķľ
ĠíĥĳìĬ¹ ê°Ŀ
Ġê²½ì°°ìĦľ ìŀ¥ìĿĢ
ëĿ¼ìĬ¤ íĭ±
ĠíĮ¨ë°° ë¥¼
Ġê³µìĤ° ëĭ¹
Ġê¸°ëĬ¥ ìĿĦ
Ġë²ķìłķ ìĹĲìĦľ
ìĽĲìŀĲëł¥ ê¸°êµ¬
ëĶĶëĦ¤ìŀĲ ëĵľ
' '
5 2
S t
ª ¬
ë ¤
Ġ ËĿ
Ġì į¼
ìĿ´ ê°ĻìĿĢ
ê°Ģ ìĻĢ
ê² ģ
ìĿ¸ ëĵ¤ìĹĲê²Į
Ġë§ ģ
ìĤ¬ ìĹħ
Ġìĺ Ľ
ĠìĤ¬ ëĭ´
ĠìĪĺ ë¦¬
ĠìĪĺ ìĹ¬
ĠìłĦ ë³µ
ì¹ ´ëĿ¼
ê²Į ìĿ´ì¸ł
ĠìķĦ ìĽħìĤ°
Ġê°Ģ ìĿĦ
Ġê°Ģ ìĨį
ë§Į ìľ¼ë¡ľ
Ġìĭľ ìĭłìĿ´
Ġë³´ ìĬ¤íĦ´
ë¬¸ ìłľ
Ġë°ľ íı¬
íĨµ ìĿĦ
ê´Ģ ìĹĲìĦľ
ëıĻ ìĦ±
íģ¬ ìĩ¼
Ġëĭ¤ ë£¬
ĠìĹ¬ ìĤ¬ëĬĶ
Ġìĥģ ìĸ´
ìĦ¸ ëĮĢ
ìľł ëĬĶ
ìļĶ íķľ
Ġë§Ī ë¹Ħ
Ġë§Ī ë¦¬ìķĦ
Ġë§Ī ëĿ¼íĨ¤
ĠëıĻ ìĥĿ
ì½ ¥
Ġê³ł ê¸ī
ê²½ ìĹĲ
ìĹŃ ìĹĲìĦľ
ĠíĽĦ ìĦ¸
ĠìĦ¸ ë¶Ģ
ĠëıĦ ë¡ľë¥¼
ĠíĨµ ê³Ħ
ìŀĦ ìĿ´
Ġ5 7
Ġìĭł íĻĶ
ìĹ° íŀĪ
ê±´ ê°ķ
Ġê°Ĳ ìĺ¥
Ġëĭ¬ ë¦¬ê³ł
ĠìĻ¸ ê³Ħ
Ġì£¼ìŀ¥ íķľëĭ¤
Ġ8 8
Ġë¦¬ ì°¨ëĵľ
Ġì²´ ì½Ķ
Ġìĺ¤ë°Ķë§Ī ìĻĢ
Ġë¬¼ ëŁ¬ëĤĺ
ĠìĹ°êµ¬ ìĹĲìĦľ
ĠìĹ°êµ¬ ì§ĦìĿĢ
Ġìĸĳ ìĿĺ
ĠìĹ´ ê³ł
ĠìĹ´ ìĸ´
ê²ł ìĬµëĭĪëĭ¤
ĠìķĦìĿ´ ê°Ģ
Ġì§ĢëıĦ ìŀĲëĬĶ
ìķł íĶĮ
Ġë³µ ìĹŃ
Ġì¤Ħ ë¦¬ìķĦ
Ġì¢ħ ë£Į
ìŀĪ ìľ¼ë©°
re e
re t
re at
ĠëŁ¬ ëĭĿ
Ġëĭ¬ëŁ¬ ê°Ģ
ĠìĭĿ ë£ĮíĴĪ
Ġì²´íı¬ ëĲĲëĭ¤ê³ł
Ġë¬´ìŀ¥ ê´´íķľ
ĠìĪľ ë¡Ģ
Ġê´ĳ ë²ĶìľĦ
ĠìĻķ ìĭ¤
Ġ199 3
ĠíĸĪ ìĹĪëĭ¤
ĠíĸĪ ìľ¼ëĤĺ
ĠëıĮìķĦ ìĺ¤
ĠU n
ĠìĹħ ê³Ħ
ĠTV ëĬĶ
ĠìĬ¤ë¦¬ ëŀĳì¹´
Ġëĭ¨ì²´ ìĿĺ
ìĤ¬íĥľ ë¥¼
ĠêµŃë°© ë¶Ģê°Ģ
Ġê±´ê°ķ íķľ
ë°Ľ ìĿĢ
ĠìĿ¸ê·¼ ìĹĲìĦľ
ĠìĿ´ë¦Ħ ìĿ´
Ġì¶ľìĭł ìĿ¸
Ġì°½ ì¶ľ
Ġíĺ¼ ìŀĲ
ĠíķĻêµĲ ìĹĲ
Ġê²Ģì°° ìĿ´
ĠìĽĲë¬¸ ê¸°ìĤ¬
ĠìĿ¸ìļ© íķ´
ĠëĬĺ ìĸ´ëĤĺ
Ġì´¬ìĺģ íķľ
Ġê³µìĬµ ìĿĦ
ë¡ľìĿ´ ëĵľ
Ġíļ¨ê³¼ ê°Ģ
ê³µíĻĶ ëĭ¹
Ġê°ĳ ìŀĳ
ĠìĬ¤íĬ¸ ëłĪìĬ¤
ĠëĬĲëĤ Ħ
if e
ĠëĤ¸ ìĭľ
íķ´ë¦¬ íı¬íĦ°
Ġìĸĺ ê¸°
Ġë¹¨ ê°Ħ
Ġëĭ¤ìĿ´ìķĦëª¬ ëĵľ
íĪ ¼
ĠìĿ´ìĬ¬ ëĿ¼ë§Īë°Ķ
Ġê¸°ìģĺ ëĭ¤
Ķë¸Ķ ëįĺ
' ,
E S
a i
e y
r ou
v en
ë ļ
ì ±
ìĿ´ ìĿµ
ìĹĲ ë¯¸
ĠìĿ´ ìŀĲ
ìĿ¼ ìľ¼
Ġëĭ «
ìķĦ ë©Ķë¦¬ì¹¸
ìłľ íĴĪ
Ġìĭľ ëĮĢ
ĠìŀĲ ëıĻ
ĠìŀĲ ëŀĳ
Ġë°ľ íľĺ
ë§Ī ë¥¼
ĠìĿ¼ ìĿ´ëĿ¼ê³ł
ëĭĪ ìĻĢ
ìľĦ ìĹĲìĦľ
Ġìľł íĬľë¸Į
Ġìĥģ ë¥Ļ
ìĦ¸ íķľ
Ġíķĺ ìĹĲ
Ġëª¨ ëĭĪ
Ġë§Ī ìĬ¤íĦ°
ĠìĦł ìłľ
ĠìĦł íĺ¸
ë¬´ ëĵľ
ê²½ ê¸°ë¥¼
ĠíļĮ ìĤ¬ë¥¼
ĠìĦ¸ ìĿ¸íĬ¸
ìĭ¤ ë¡ľ
ìĺĢ ê³ł
ĠëĤ¨ ê²¨
íĺ¸ ìĹĲ
Ġëħ¸ ëĮĢíĨµëł¹
Ġ5 9
íĮĮ ëĿ¼
Ġìĭł ì¡°
Ġìĭł ì¤ĳ
ìĹ° íķľ
ĠìĹĲ ë²łëłĪìĬ¤íĬ¸
Ġìŀħ ë²ķ
íĭ° ê°Ģ
Ġíı¬ ì°©
ĠíĶĦ ëŀŃ
íĹ ¬
ì½Ķ ëĬĶ
íĨł ìĿĺ
íĨł ëĬĦ
Ġì§Ħ ìłķíķľ
ëį° ìĬ¤
in d
íķ© ìĿĺ
Ġëĭ¬ ë¦°
ĠìĻ¸ ë¶Ģ
ĠìĽĲ ìŀĲ
íĶ¼ ìĬ¤
Ġ7 000
Ġíĸī ìľĦìĹĲ
Ġì§ĢìĹŃ ìĹĲìĦľëĬĶ
ìĬ¨ ê³¼
ĠëĲĺ ë©°
ĠëĲĺ ê¸¸
Ġíĺ¸ ëŀĳ
ĠíķľêµŃ ìĹĲìĦľ
Ġëĭ¨ ëıħ
ti ve
Ġì²ĺ íķľ
Ġì²ĺ íķ´
Ġìĭ¬ ë¦¬íķĻ
ĠìĺģêµŃ ìĿ¸
ĠC ent
Ġìłģ ìĭŃìŀĲ
ĠìĦ¸ê³Ħ ìłģìĿ¸
ĠíħĮëŁ¬ ìĹĲ
íİĺ ìĿ´
Ġì¹´ ë¥¼
ĠìĤ¬ìĭ¤ ìĹĲ
ë§Ĳ ëĿ¼
ĠT he
Ġì±Ħ ëĦĲ
ĠëĤĺíĥĢ ëĤ´ëĬĶ
ĠìĥģíĻ© ìĿĢ
ĠìĻĦ ë£Į
Ġì¹¨ ê³µ
Ġê´ĳ ë¶Ģ
Ġì¦Ŀê°Ģ íķł
ĠëĤĻ ê´Ģ
Ġì¿ł íį¼
Ġíĸ¥ ìĥģ
´ë³ µ
Ġëĭ¨ì²´ ìĿ¸
ìĿ´ì§Ģ ìķłëĤĺ
Ġêµ°ìĤ¬ ìłģ
ĠíķĻìĥĿ ëĵ¤ìĿĢ
Ġê³¨ ëĵł
Ġê¸¸ ìĿ´
Ġëª©íĳľ ëĬĶ
ĠìĻĢ ìĿ´
ĠëĪĪ ìĿĦ
ĠëĤ¨ìŀĲ ì¹ľêµ¬
ĠìĿ´ëģĮ ê³ł
ĠìŀĳìĹħ ìĿ´
ĠëĮĢìĿĺ ìĽĲìĿĦ
Ġìĭ¬ìŀ¥ ë§Ī
ĠìłĦë¬¸ê°Ģ ëĵ¤ìĿ´
Ġê²½íĹĺ ìĿĦ
Ġì¢Į ìłĪ
ĠëĤľë¯¼ ì´Į
Ġì¢ĭìķĦ íķĺëĬĶ
Ġë¯¼ë³ĳ ëĮĢ
art y
ĠíĶĦëĿ¼ìĿ´ë¨¸ ë¦¬
ĠY OR
Ġë¶ĪëŁ¬ ìĿ¼ìľ¼
Ġíĺģ ëªħ
Ġìĥģëĭ¹ íŀĪ
ĠìĦ±íĸ¥ ìĿĺ
Ġíĺ¸ìĨĮ íĸĪëĭ¤
Ġìļ°ìļ¸ ì¦Ŀ
Ġê±´ë ĦĪ
Ġê°ĩ íĺĢ
ĠYOR K
I OC
P C
l ic
t o
ë ¨¹
´ë ¨¼
ë¬ ´ëĤĺ
ëıĦ ìĻĢ
Ġì§Ģ ìłĲìĹĲìĦľ
ĠìĪĺ ë°°
ì¹ ¨ìĿĦ
ëĤĺ ë¥¼
ëĤĺ ìĹĲìĦľ
ì£¼ íķľ
ì£¼ íĥĿ
Ġê·¸ ëĵ¤
êµ¬ ìĹĲ
íĨµ íķ©
Ġë¶Ģ ì´Ŀ
Ġëĭ¤ ìļ´
Ġëĭ¤ ë¦¬ë¥¼
Ġëĭ¤ ìĦ¯
Ġë¹Ħ ì¹ĺ
ëĭ¹ ìĿĦ
ìļ© ìĿ´
íĸĪ ìĿĮìĿĦ
Ġìłľ ì¹ĺê³ł
ìĦ¸ ìĹĲìĦľ
ì²´ ìłľ
Ġë°© ì¶ľ
ĠìķĮ ëł¸ëĭ¤
ĠìĥĿ ëªħìĿĦ
ë¬¼ ë¡ľ
Ġë¶Ī ìĹĲ
Ġë¶Ī íĻ©
Ġê³Ħ ì¢Į
Ġë§Į ëĤ¬ëĭ¤
íĭ° ìĺ¤
Ġíı¬ ìĿ¸íĬ¸
ĠíĶĦ ë¦°
ĠíıŃ ìĦ¤
Ġìŀĳ íĴĪìĿĦ
ĠìĻ¸ ë¬´ìŀ¥ê´Ģ
ĠìĽĲ ì£¼ë¯¼
Ġëĵ± ìľ¼ë¡ľ
Ġíĸī ìĤ¬ë¥¼
Ġë²ł ìĬ¤íĬ¸
Ġëį° ìĹĲ
ëħ¸ ìĬ¤
ëħ¸ ì¡°
Ġë²ķ ë¬´ë¶Ģ
Ġíķł ë¨¸ëĭĪ
Ġë¦¬ ëįĶ
ì¤ ¬
Ġê³µê²© íķľ
ë³ĳ ìĽĲ
Ġíı¬íķ¨ ëĲĲëĭ¤
Ġì¹´ íĬ¸ë¦¬
íĺĳ ëł¥
ë§Ĳ ë¦¬íĤ¤
´ëį ¸
ì²ľ ë§Į
Ġë°©ë¬¸ ê°Ŀ
ì£¼ìĿĺ ìłģ
Ġì¢ħ ê²°
Ġê°Ħ ìĹĲ
Ġê°ĸ ëĬĶ
ĠìķĦëĭĪ ìĹĪëĭ¤
Ġë°± ìĿ¸
Ġìĸ» ìĸ´
ĠìĻķ ìŀĲìĿĺ
íĨ ¡
ĠìĨĮìĭĿ ìĿĢ
Ġ199 5
Ġë°ĿíĺĢ ì§Ħ
Ġìĥģíĥľ ìĹĲìĦľ
ĠìĥģìĬ¹ íķľ
ore ign
ĠëĤ¨ë¶Ģ ìĹĲìĦľ
ĠëıĦì°© íķľ
Ġê²°íĺ¼ ìĿĦ
ĠìĪĺê°Ĳ ìŀĲ
ĠíĹ¬ ê¸°ê°Ģ
Ġë¹Į ëĶ©
ĠìķĮì¹´ìĹĲëĭ¤ ìĻĢ
Ġì¦Ĳ ê¸°
ĠìĤ¬ìĥģ ìŀĲ
Ġíķ´ìķĪ ìĹĲìĦľ
Ġìĺ¤ë¥¸ ìª½
Ġë°ĶëŀĢ ëĭ¤ê³ł
Ġëħ¼ìŁģ ìĿĦ
ĠìĿ¼ìĸ´ëĤĺ ëĬĶ
Ġë¹łìł¸ ëĤĺ
Ġê¼ ¬
ëĦ¬ ëĿ¼
ĠìĬµ ê²©
Ġìŀĩ ëĬĶ
Ġì´Ŀìŀ¬ ëĬĶ
íĨłëĭĪ ìĺ¤
Ġë°©íĸ¥ ìľ¼ë¡ľ
Ġì²ĺë²Į ìĿĦ
tern ational
Ġê²©ëł¬ íķľ
ì½° ëıĦë¥´
ĠìĬ¤íĥĢëĶĶìĽĢ ìĹĲìĦľ
ĠìĻ¸êµĲíĨµìĥģ ë¶Ģ
ĠìĻ¼ ìª½
5 4
I FA
U EFA
a ve
b ama
i v
i tion
m e
s h
u tion
Ġì į¨
Ġì§Ģ ë¶ķ
Ġêµ ī
Ġì£¼ ì£¼
Ġì£¼ ë¦½
ìłľ ëĦ¤
Ġìĭľ ìĹĲ
Ġìłķ ê¶ĮìĿĦ
ĠìĿ¸ ê°ĦìĿĺ
Ġë¶Ģ ìłģ
Ġë¶Ģ íĥģ
Ġê³µ íı¬
Ġê³µ ìķ½
ĠìĿ¼ ìĥģ
ëĭĪ ê¹Į
Ġëį ´ë§Īíģ¬
ĠìķĬ ê¸°ë¡ľ
ì§Ħ ìľ¼ë¡ľ
ì§Ħ ìķķ
Ġíķĺ ê±°ëĤĺ
íĥĢ ë¥¼
ìĭľê°Ħ ìĿĦ
Ġê°ľ ìŀ¥
ĠëĤ¨ íķĻìĥĿ
Ġëħ¸ ìĿ¸
Ġëħ¸ ëł¥ìĿ´
Ġìłķë¶Ģ ìĹĲìĦľ
ë¶Ħ ë§ĮìĹĲ
ì¹´ íĬ¸
Ġìŀ¬ ì§ģ
íĨł ëĬĶ
ĠìĽĲ ìĿ¸ìĿ´
Ġ7 3
Ġíĸī ì§Ħ
Ġë²ł ëĤĺì§Ģë¥´
Ġêµ° ìĿ´
Ġíĺ¸ íĿ¡
Ġë°ľíĳľ ëĲĲëĭ¤
Ġì°¸ ëª¨
Ġê¸Ī ìķ¡
Ġì²ĺ ë°©
ĠíĻĶ ìĿ´íĬ¸
Ġì¹ĺ ë§¤
ĠêµŃê°Ģ ë¡ľ
ĠêµŃê°Ģ ëĵ¤ìĿĢ
ĠìĺģíĻĶ ê°Ģ
Ġíĺĳ íļĮ
Ġìķŀ ëĳĶ
ĠìĤ¬ìļ© íķĺê³ł
Ġì§ģ ìłĦ
Ġì§ģ ìĹħ
Ġíı¬íķ¨ ëĲľ
Ġë©Ķ ëĶĶ
Ġë¹ĦëĤľ íķĺë©°
Ġì¤Ħ ìĿ¼
Ġì¤Ħ ìĸ´
ĠìĭľìľĦ ëĮĢëĬĶ
Ġì¢ħ ì¢ħ
Ġê²Į ë¦´ëĿ¼
)âĢĻ ,
ĠìŀĪìĹĪëĭ¤ ëĬĶ
íļĮìĿĺ ë¥¼
ou se
íıŃ ë°ľ
Ġìļ°ì£¼ ìĦł
ëĲľëĭ¤ ë©´
ìķĮ ì¹´ìĹĲëĭ¤
ê´ Ħ
Ġì¶ķ ì¶ľ
Ġìĭ¤ìĭľ íķł
ĠìķĶ ì»·
Ġë³Ģíĺ¸ ìĤ¬ìĿ¸
Ġëĸł ëĤľ
ĠëĤ¨ë¶Ģ ìĹĲ
Ġíĺĳìĥģ ìĹĲ
ol og
ĠìķĪìłĦ ë³´ìŀ¥ìĿ´
ĠíķĺëĤĺ ë¡ľ
Ġë§ĪìĿ´ ìķłë¯¸
Ġì°¸ìĹ¬ íķł
Ġë°ĿíĺĶ ìľ¼ë©°
Ġì£¼ëĳĶ íķĺê³ł
ĠëĤ¨ìĦ± ìĿĺ
ëĬĲ ëĥĲ
ĠëĨĢ ëĿ¼ìļ´
ĠìĿĺê²¬ ìĿ´
ĠíĮ¬ ëĵ¤ìĿĢ
ĠìĿĮìķħ ìĿĦ
ĠìĿ´ëģĮ ìĸ´
Ġë¶Ģëª¨ ê°Ģ
Ġìłķìĭł ìłģ
Ġê²°ìĬ¹ ìłĦìĹĲìĦľ
ìŀī ê¸Ģëŀľëĵľ
íĬ¹ íŀĪ
ĠìłľìĻ¸ íķľ
Ġíķ´ëĭ¹ íķĺëĬĶ
ĠìłĢíķŃ ìĦ¸ëł¥
ĠìĹ´ëł ¸ëĭ¤
ìĸ¸ë¡ł ìĿĢ
ĠìŀĲíĥĿ ìĹĲìĦľ
Ġë³µìŀ¡ íķľ
ĠìĻĦë²½ íķľ
Ġíı´ëŀ Ģ
Ġë¯¼ê°Ĳ íķľ
Ġì¹´ë¥´ ìŀĲìĿ´
Ġë¦¬íŀĪ íĦ°
4 000
6 00
7 9
I S
m b
p h
t s
Ġì Ķ
´ë ©´
ìĬ¤ íħĶ
êµŃ ìĹĲìĦľ
ĠìĤ¬ íķŃìĿĦ
ĠìĪĺ ë©´
ìĻ ĵ
ĠìķĦ íĿĲ
ìłľ ë¦¬
ìłľ ìŀĳ
ĠìľĦ ìĥĿ
Ġíĺ ¹
ĠìĿ¸ ë¯¼
Ġë¶Ģ ìĦľ
Ġë¶Ģ ìĨį
ĠíĮ Ŀ
ĠìĿ¼ ì¶ķ
ê´Ģ ëĵ¤ìĿĢ
ĠìķĬ ìľ¼ë©°
íĸī ìľĦ
ë¹Ħ íķľ
ĠìĹ¬ ë¶ĢìĹĲ
ĠìĿĺ ë¬¸ìĿĦ
Ġìłľ íĴĪìĿĦ
ìľł ê°Ģê°Ģ
ĠìĹ° ê³Ħ
ìĥĿ ìĤ°
ì¡° íķľ
ì¡° ìłķ
Ġëª¨ ë¥´ëĬĶ
ë¦° ìĿĢ
ê²½ ìĿĢ
ê²½ ìĺģ
ĠìĬ¤ íĦ´
ê²© íŀĪ
ë°ĺ ê¸°ë¬¸
ĠíĮĮ ìĹħìĿĦ
Ġëħ¸ íĬ¸ë¶ģ
ì°¨ ëŁī
ĠëķĮ ëĬĶ
ĠëĺĲ ëĭ¤ë¥¸
Ġì°¨ ëĵľ
ë§¤ ë§¤
ĠíĹ ¨
Ġë²ķ ìķĪìĿĢ
Ġ9 5
ĠìĦ¸ê³Ħ ìĿĢíĸī
ë³ĳ ìĿ´
ì±ħ ìĿ´
Ġì§Ģì§Ģ ìŀĲëĵ¤ìĿ´
íĸ¥ ìĿĦ
ìĥī ìĿĦ
ĠíĻĺ íĺ¸
ĠìļĶêµ¬ íĸĪëĭ¤ê³ł
Ġë°ķ íĥĪ
ĠíĨł íģ¬ìĩ¼
ĠíĻľ ìķ½
íķ´ìķ¼ ë§Į
Ġë§ŀ ëĬĶ
Ġs p
it t
Ġê³³ ìĿĢ
ĠìĥģìĽĲìĿĺ ìĽĲìĿĦ
Ġê°Ģì¡± ìĿĺ
ĠìĽĶ ìļĶìĿ¼ìĹĲ
Ġìķķ ëł¥
ĠíĶĮ ëŀĺ
Ġ199 1
ĠíĻľëıĻ ìĹĲ
ĠíĪ¬íĳľ ìĹĲ
Ġìŀ¡ ìķĦ
Ġë°©ë²ķ ìĹĲ
Ġëĸł ìĺ¤
Ġëĸł ìĺ¬
ĠìľĦíĹĺ ìĿĦ
ĠêµŃë°© ìŀ¥ê´Ģ
ĠìĿ¸íĦ°ëĦ· ìĹĲ
Ġê±´ë¬¼ ìĿ´
Ġë°ĺêµ° ìĿĺ
ìī ½
Ġê±°ì£¼ íķĺê³ł
ĠìľĦìĽĲ ìŀ¥ìĿ´
Ġë¶Ģë¶Ħ ìĿĦ
Ġë¶Ģìłķ ìłģìĿ¸
Ġê¸Ģ ëŀĺ
Ġê´ĳê³ł ë¥¼
Ġìłķê¶Į ìĿ´
Ġë¯¸ëŀĺ ìĹĲ
ĠíĶĦë¡ľìłĿ íĬ¸
Ġì¡°ê±´ ìľ¼ë¡ľ
ì¹´ë Ŀ½
ĠìĹ¬ë¡łì¡°ìĤ¬ ìĹĲìĦľ
Ġë¹ħ íĨł
Ġëª¨ìĸĳ ìĿĺ
ĠëĦ¤íĬ¸ìĽĮ íģ¬
Ġìĺ¤ìĤ¬ ë§Īë¹ĪëĿ¼ëį´
ĠìķĦë¦Ħ ëĭ¤ìļ´
Ġë§¤ì¼Ģ ìĿ¸ìĿ´
´ëª¨ ëĦ¬ëĿ¼
Ġë§¤ëĭĪ ìłĢ
ĠíİŃ ê·Ħ
ĠíĬ¸ëĿ¼ ë³¼
r is
Ġìŀ Ń
íķĺ ë¥´
ìķ ¨
Ġìķ µ
ìĬ¤ ì¿ł
ê¸° ê¸Ī
ĠëĮĢ ëĮĢ
ìĤ¬ ìĭ¤
ë¶Ģ ëª¨
ĠìĪĺ ìĤ¬ê´Ģ
ëĮĢ ìĽĲëĵ¤ìĿ´
ĠìķĦ ëĵ¤ìĿĦ
Ġê°Ģ ì§ľ
Ġì£¼ ê¸°
Ġê¸° ê³Ħ
Ġë³´ ìĿ´ë©°
íģ ´ëłĪ
Ġíı °
íĦ° ìĬ¤
ëĭĪ ì½ľ
Ġë¹Ħ íĥĢë¯¼
Ġìľł ëıĦ
Ġìľł íĸī
ĠìĿĺ ë¢°
Ġì¡° ìłĪ
ĠìĹ° ê¸Ī
Ġë§Ī ìĤ¬
ĠìĦł ìŀĦ
ê±° ìĬ¨
ì²´ ë¡ľ
Ġëĭ¹ ìĭł
Ġë°Ķ ëĤĺ
ĠëıĦ ì²Ń
ĠìĦ± ìŀ¥ìĿĦ
Ġìŀ¥ ëł¤
Ġìŀ¥ êµ°ìĿĢ
Ġ4 1
ĠíĮĮ ëĿ¼
ĠëĤ¨ ìĦ±ìĿĦ
ë¬¼ ìĿĢ
Ġ6 1
ì°¨ ëĬĶ
Ġìĭł ë¶Ħ
Ġìĭł ê·ľ
Ġë¶Ī íĻķìĭ¤
ìŀĳ ìłĦ
ì¤ĳ íķ´
ì¹´ ëĵľ
ĠëĤ´ ê³ł
Ġíı¬ ìĬ¤íĬ¸
ëª¨ ìĬ¤
ĠíĶĦ ëĿ¼
ĠíĶ¼ ì¸ł
ê¹Įì§Ģ ëĬĶ
ĠìļĶ ìĽĲ
Ġìķ½ íĥĪ
ëŀĢ ìĿĦ
ìĦĿ ìĹĲ
ë²ł ëį°
Ġ7 7
ìĭ¬ íķľ
ĠìĪ ¨ìĿĦ
Ġíĺ¸ ìĦ¸
ëŁ° ìĬ¤
Ġë³´ëıĦ ê°Ģ
íĮĲ ê²°ìĿĦ
ĠëıĻìķĪ ìĿĺ
ĠìĺģíĻĶ ë°°ìļ°
Ġìĸ´ë ĳĲ
ĠìĹ°êµ¬ ìĨĮ
ê» ´
Ġê³ĦìĨį ëĲľ
Ġì§Ģì§Ģ íķĺê³ł
Ġì·¨ íķľ
ë¦Ħ ìĿ´
ĠíĨł ëĦ¤ìĿ´
ĠìłĲ ê²Ģ
Ġëĵ¤ìĸ´ ê°Ħ
ĠëĤ´ëł¤ ì§Ħ
Ġë³¸ ê²©
Ġì²ł ìĪĺë¥¼
ĠíĶĮ ëĿ¼ìĬ¤íĭ±
Ġì¹¨ ëŀµ
ì§ĢìĹŃ ìĿĦ
ĠìĻķ ìŀĲëĬĶ
Ġë¹ł ì§Ī
Ġë¯¼ì£¼ëĭ¹ ìĿ´
ĠìĨĮìĭĿ ìĹĲ
Ġ199 2
ëĭ¨ì²´ ìĿ¸
ĠD VD
Ġíĺķ ìłľ
ĠëıĦìĭľ ìĿĺ
ĠëıĦìĭľ ìĿ¸
as h
ĠìĤ¬ì§Ħ ìĿ´
Ġìĸ¸ë¡ł ìĿĺ
ĠìĥĿìĤ° ìĿĦ
ĠíĥĦ ìĥĿ
Ġìļ°ë¦¬ ìĹĲê²Į
Ġìļ°ë¦¬ ëĤĺëĿ¼
Ġëį°ìĿ´ íĦ°
ĠìĿĢíĸī ìĿĺ
ĠìĿ¸ì§Ī ëĵ¤ìĿĦ
ĠëıĦì°© íķł
ĠëĤ® ìķĦ
Ġì§ķ íĽĦ
ĠëĿ¼ìĿ´ ìĸ¸
Ġì§ģìłĳ ìłģìĿ¸
ĠëĲĲ ìľ¼ë©°
Ġìľłê¶Į ìŀĲëĵ¤ìĿ´
ĠíĻ© ê¸Ī
ĠìĥģìĽĲìĿĺìĽĲ ê³¼
Ġíĸīìłķë¶Ģ ìĿĺ
ĠìĤ¬ê³¼ ë¥¼
ĠëĵľëŁ¬ ëĥĪëĭ¤
íĴĢ ìĿ´
ì½ĺ ëıĮë¦¬ìŀĲ
Ġì·¨ìĨĮ íĸĪëĭ¤
ĠìłĦíĨµ ìłģìĿ¸
Ġìĭłê³ł ë¥¼
ĠêµŃë¦½ ê³µ
ìľĦìĽĲ ìŀ¥ìĿĢ
ĠìľĪ ëıĦìļ°
Ġë¹ĦêµĲ ìłģ
Ġì§Ģìĭľ íĸĪëĭ¤
Ġê²ĥìĿ¸ ê°Ģ
Ġíľ© ìĵ¸
´ëĲĲ ëĭ¤ê³ł
Ġê°ĢíĥĿ ìĹ°ê¸Ī
ss oci
ëĶ°ëĿ¼ ìĦľ
ĠëŃĦ ë°ĶìĿ´
Ġë¯¸ìĦ± ëħĦ
5 8
8 00
M L
c i
d uc
g h
ë ĪĪ
Ġ ÂłĠÂłĠ
ĺ ìĸ´
Ġë ±Ģ
ë¡ľ ë¡ľ
íķ´ ì§Ģê³ł
ëıĦ ìĥģ
ìķĦ ìĿĺ
Ġêµ ³
ìĸ´ ë¦°
ê·¸ ë¡ľ
Ġë¯¸ ìĬ¤
Ġì£¼ ìĸ´
Ġì£¼ ìľł
Ġê¸° ê¸Ī
Ġìĭľ ëĤĺ
Ġìĭľ ìŀ¥ìĿĦ
ì° ®
ëħĦ ìłĦ
ê± ´ë¬¼
ì¹ĺ ìĻĢ
Ġë°ľ íĸī
Ġë¶Ģ íĻľ
Ġê´Ģ ë£Į
íĸī ìľĦë¥¼
Ġìľł ìĿ¸
ĠìĹ¬ ì§Ģê°Ģ
ĠìĿĺ ë¬¸
ìĨĮ ë¹Ħ
ëĲĺ ê±°ëĤĺ
ĠëĤĺ ìĦł
Ġíķĺ ìŀĲ
ì¡° ìĦł
Ġë§Ī ëıĪ
ìĽĶ ìĹĲëĬĶ
ĠëıĻ ê³Ħ
ì¦ ī
Ġê°ľ ë¥¼
Ġëĭ¹ ìĤ¬
Ġëĭ¹ ìĭłìĿĺ
ĠìķĮ ì§Ģ
ĠìĦ¸ íĥģ
ĠëĤ¨ ìŀĲëĬĶ
ĠëĤ¨ ê·¹
Ġ5 000
íĮĮ ìļ¸
Ġë§¤ ìĤ¬ì¶ĶìĦ¸ì¸ł
Ġìŀ¬ ë²Į
ĠìĦľ ìŀ¥ìĿĢ
íİ¸ ìĿĺ
ìŀħ ìĸ´
Ġì§Ħ ìłĦ
ĠêµĲ ìĦŃ
Ġìķ½ íĻĶ
ĠìĽĲ íķĺê³ł
Ġëį° ëł¤
Ġt al
Ġëª© ìĤ¬ëĬĶ
Ġë¦¬ ìĺ¤
Ġê²½ìłľ ìĿĺ
ìĬ¬ ë¦¬
ĠìĥĿê°ģ íķĺì§Ģ
Ġíķ¨ ìľł
ĠìķĦìĿ´ ëĵ¤ìĿĺ
Ġê²½ê¸° ì¹¨
ê°ķ ìłĦìĹĲìĦľ
Ġì» µ
ìĥī ìĿĺ
Ġìµľê·¼ ìĹĲ
ìºĲ ëĤĺëĭ¤
at es
ĠìķĬìķĺ ìľ¼ëĤĺ
ĠìķĦëĭĪ ì§Ģë§Į
ĠëĮĢíĳľ ê°Ģ
Ġì¤Ģ ê²°ìĬ¹
Ġì²ł êµ°
Ġ16 0
ĠíĮ¨ ëĦĲ
Ġë°©ìĨ¡ ìĹĲ
il it
ĠìĦłìĪĺ ë¡ľ
ê²Ģ ìĤ¬
ĠíıīíĻĶ ìľłì§Ģ
ĠêµŃë°© ë¶ĢëĬĶ
Ġíŀĺ ìŀħìĸ´
Ġìĺ¬ë¦¼íĶ½ ìĿĦ
ĠH e
Ġìĭ¶ ì§Ģ
Ġë°Ľìķĺ ëįĺ
Ġìļ©ìĿĺ ìŀĲë¡ľ
Ġìľłëªħ ìĿ¸
Ġê³łìľĦ ê´Ģ
Ġê²½ìŁģ ìĿĦ
ĠìĻĢ ìĿ¸íķĺìļ°
Ġë¶ģë¶Ģ ìĹĲ
Ġìŀ¬íĮĲ ìĿ´
ĠíĸīëıĻ ìĹĲ
ĠCNN ìĿĺ
Ġë°±ìķħê´Ģ ìĹĲìĦľ
Ġê·Ģ íĻĺ
Ġê°ľìĿ¸ ìłģìĿ¸
Ġì¶Ķìłķ ëĲľëĭ¤
ĠíĮ¬ ëĵ¤ìĿ´
ĠìĦłê³ł íĸĪëĭ¤
Ġìºł íİĺìĿ¸
Ġë³´ê³łìĦľ ìĹĲëĶ°ë¥´ë©´
ĠëĮĢìĦłíĽĦë³´ ë¡ľ
íĬ¸ë¡ľ ìĿ´íĬ¸
ow n
ĠíĴį ë¶Ģ
Ġg overnment
ìľłìĹĶ ìĿĢ
ĠìłĦë°ĺ ìłģìĿ¸
Ġê·¸ëłĩ ì§Ģ
Ġëħ¼ìŁģ ìĿ´
ĠêµĲëıĦ ìĨĮìĹĲ
Ġë¬´ìĹĩ ë³´ëĭ¤
ĠìĦłíı¬ íĸĪëĭ¤
ìĥģíĥľ ìĹĲ
ĠíĮĮê´ ´ëĲĺ
Ġëħ¸ëŀĺ ë¥¼
ĠìĹĲëĵľ ìĽĮì¦Ī
Ġë¶ĦìľĦ ê¸°ë¥¼
ĠìĽĲìŀĲë¡ľ ë¥¼
Ġìłģê·¹ ìłģìľ¼ë¡ľ
íĺĲìĿĺ ë¡ľ
íĨ¨ ë¦Ń
Ġì¹ĺëªħ ìłģìĿ¸
3 00
F L
F RB
e op
o v
¤ ¾
§ Ī
¹ ìĬ¤
Â ·
ç ¤¾
Ķ ìĿĦ
Ġë ľ¨
ìĹ ĳ
Ġë° ¥
ìĬ¤ ìľĦìĬ¤
ëĿ¼ ëĵľ
ĠëĮĢ ë¡ľ
ĠëĮĢ ì±ħìĿĦ
ìŀĲ ê¸ĪìĿĦ
ìĤ¬ ëł¹
ìĭľ ë¡ľ
ĠìĿ´ ê²ĥìĿĢ
ĠìĿ´ ìĬĪ
ìĿ¼ ìĹĲëĬĶ
ìķĦ ê°Ģ
ê²Į ìŀĦ
ê·¸ ë¦¬ìĬ¤
ì£¼ ëħĦìĿĦ
Ġê°Ģ ê³ł
ìĪĺ ê°Ĳ
Ġìłķ ë¦¬
Ġìłķ ê±°
Ġê·¸ ê²ĥ
Ġë³´ ê¸ī
ĠìŀĲ ëŀĳìĬ¤
Ġë°ľ ë§¤
íĨµ ìĭłìĿ´
Ġë¶Ģ ëŁ¬
Ġë¶Ģ ìľł
ĠìĿ¼ íķĺê³ł
ëĭĪ íĭ°
ëĵ¤ìĿ´ ëĭ¤
ê´Ģ ìĿ¸
Ġê²ĥìĿ´ ê¸°
ĠìĨĮ ìľĦ
Ġìľł ê°Ģ
ĠìĿĺ ëıĦ
Ġìĥģ ì²ĺë¥¼
ëĲĺ ê¸¸
Ġë¯¸êµŃ ì¸¡
ë°Ķ ìĺ¤
ìľł ìĿĺ
Ġëª¨ ìĿĺ
íĺĦ ëĮĢ
ĠëĮĢíĨµëł¹ ìľ¼ë¡ľ
ì²´ ëĬĶ
ìķĺ ì§Ģë§Į
ĠìĬ¤ ì¹´
Ġëĭ¹ íĸĪëĭ¤ê³ł
Ġë°Ķ íĥķ
íĮĮ ê°Ģ
Ġìĭ¤ íĺĦ
Ġë°ĺ ê¸°ë¬¸
Ġê°Ĳ ìĤ¬ìĿĺ
Ġê°Ĳ ìłķìĿĦ
íĭ° ìĭľ
Ġíı¬ íĦ°
Ġì°¨ ìĿ´ë¡ľ
ë²ķ ìĿ´
Ġë§¤ ì¶ľ
ĠìĽĲ ìĿ¸
ĠìĽĲ ì¹ĺ
Ġ19 60
Ġê²½ì°° ì²Ń
ë¥´ë ª¬
Ġíĸī ìĤ¬ìĹĲ
ĠíĪ¬ ìŀĲë¥¼
Ġë²ķ ìĽĲìĹĲìĦľ
ì¢ħ ìĿĦ
Ġë¬¼ ê³ł
Ġëī´ ìĺ¬ë¦¬ìĸ¸
ĠìĿ¼ë³¸ ìĿ¸
ĠìĹŃ ìŀĦ
ĠìĹ°êµ¬ ìĨĮìĿĺ
ĠìĹ´ ìĭ¬
Ġì¡°ìĤ¬ íķł
ĠëıĮ ê³łëŀĺ
Ġì½Ķ ì¹´
ëĿ¼ìĿ´ ë¸Į
Ġì§Ģì§Ģ ìŀĲ
íĪ¬ ìŀĲ
Ġì¡´ ìĬ¨
Ġê¹ ĥ
ĠìĭľìľĦ ëĬĶ
Ġê²Į ìĿ´
ĠíķĦìļĶ ë¡ľ
Ġíİĺ ìĿ´ìĬ¤
Ġíİĺ ìĿ´ì§Ģ
Ġíİĺ ë¥´ëĤľ
Ġëĵ¤ìĸ´ ê°Ī
ĠìķĦëĭĪ ëĿ¼ëĬĶ
Ġë³¸ íĨł
Ġì¤Ģ ìĪĺ
ĠìĨĲ ëĭĺ
ĠìĻĦ ìĦ±
Ġë²Ī ìĿĺ
Ġìĸ» ê²Į
Ġê³µê°ľ ëĲĲëĭ¤
ĠìľĦì¹ĺ íķĺê³ł
ĠìľłëŁ½ ìĹĲìĦľ
ĠìĿ´ìļ© íķľ
ĠíĻĪ íİĺìĿ´ì§Ģ
ĠíĸĪ ê³ł
Ġa b
ëı¼ ìķ¼
Ġìĸ¸ê¸ī íķĺë©°
ĠìĦłìĪĺ ëĵ¤ìĿ´
Ġê¸Īìľµ ìłľìŀ¬
Ġì£½ ìĿĮìĿĦ
ĠíıīíĻĶ ìĻĢ
ĠìľĦíĺĳ íķĺê³ł
Ġë³´íĺ¸ ë¥¼
ĠìºĲ ë¡¤
Ġê³łìľĦ ê¸ī
us t
ĠíĮĢ ìĿĺ
ĠíĮĢ ìĿĦ
Ġì§Ģêµ¬ ìĹĲ
ìĿ¼ë³¸ ìĿĺ
ê³¨ ë¡ľ
ĠìłĦë§Ŀ íĸĪëĭ¤
Ġê¸°ìĨĮ ëĲĲëĭ¤
ĠëĶ¸ ìĿ´
ĠìķĦë²Ħ ì§Ģê°Ģ
Ġê·¸ëħĢ ë¥¼
ìĻĶ ìĬµëĭĪëĭ¤
ĠìĪĺíĸī íķł
ìĿ´ë¡ľ ìį¨
Ġìħ Ķ
Ġìłľìĭľ íķľ
ĠíĻķìĤ° ëĲĺê³ł
Ġê³łëł¤ íķĺê³ł
Ġìī½ ì§Ģ
Ġê³¤ ìŀĺëłĪìĬ¤
ĠìŀĲëħĢ ë¥¼
ìł¤ ëłĪìĬ¤
Ġì¢Ģ ëįĶ
ĠìĭłìĨį íŀĪ
ĠìĤ´íķ ´ëĲľ
ĠìĭľìĥģìĭĿ ìĹĲìĦľ
Ġv is
ĠìľłëĤĺìĿ´íĭ° ëĵľ
ëĭ¤ìĿ´ ìķłëĤĺ
Ġìłģíķ© íķľ
íĭ°ìĺ¤ íĶ¼ìķĦ
? âĢĿ
N ational
N EW
P GA
a ch
Ġ un
Ġë ®
ê³ł ëĵł
ìĿĺ ë£Į
ë¥ ľ
ì§Ģ ëĭ¤
ìĬ¤ ë¯¸
ĠìĤ¬ ìĦ¤
ëĲ ¨
ĠìĪĺ ì¹ĺëĬĶ
ĠìłĦ ë²Ķ
ëĵľ íı°
ĠìķĦ ë¹ł
ĠìķĦ íħĮëĦ¤
Ġíķ ¸
ĠìĿ´ë °
Ġê¸° ì°¨
Ġìĭľ ëĵľìĿĺ
Ġìłķ ì§Ģ
íļĮ ìĤ¬ëĬĶ
Ġëĭ¤ ëĭĪëĬĶ
Ġëĭ¤ ì³¤ëĭ¤
Ġëĭ¤ ìľĪ
Ġìľł ê¸°
Ġìľł ìĤ¬
Ġìľł ìĿ¼íķĺê²Į
ĠìĿĺ ìŀ¥ìĿ´
ë¥´ ê°Ģ
Ġìĥģ íķĺìĿ´
ìĨĮ ìĭĿ
ìĨĮ ë°©
ìĨĮ ë§Ĳë¦¬ìķĦ
Ġì¡° ìĤ¬ëĬĶ
ì§Ħ ìĿĺ
ëĶ ¸
ë°Ķ ìĹĲ
Ġìłľ ìķķ
ĠëĤĺ ìĦ¤
ìĦ¸ íĬ¸
Ġë§Ī ì¼Ģ
ĠìĦł ìłĦ
Ġìµľ ìĦłìĿĦ
ìĺ¤ ê°Ģ
ìķĺ ìĿĦ
ìķĺ ìĬµëĭĪëĭ¤
ìĹ¬ ê¸°
Ġë°© ìľĦ
Ġëĭ¹ ìĭłìĿĢ
ĠìķĮ ë¦¬ëĬĶ
ĠìĥĿ ë°©ìĨ¡
ĠìĤ ´ëª¨ëĦ¬ëĿ¼
ĠíļĮ ê³Ħ
ĠíĨµ ìĿ¼ë¶Ģ
Ġ6 6
Ġë¶ģ ìĦľ
íķĻ ê³¼
ë¶Ħ ìķ¼
ë¶Ħ ê»ĺ
ì¹´ ëĬĶ
ìĹ° ìĿĦ
íĭ° ë²łíĬ¸
Ġíı¬ ëĵľ
ë²ķ ìĹĲ
Ġë§¤ ë¨¸
Ġì§Ħ ìĭ¤
ĠìĽĲ ìĿ¸ìĿĢ
Ġì§ĢìĹŃ ìĿ¸
±ħ íģ¬
ìĨ¡ ìĻĦ
ĠíĻĶ íķ©
Ġëĸ ¼
ë©Ķ ìĿ´ìħĺ
ĠìĤ° ë§¥
íİĺ ìĿ¼ë¦°
Ġíı¬íķ¨ íķĺìĹ¬
ĠìķĦìĿ´ ëĵ¤ìĿĢ
ë§Ĳ ëłĪìĿ´ìĭľìķĦ
Ġê²°ìłķ íĸĪëĭ¤ê³ł
ĠìļĶêµ¬ íķĺë©°
ìļķ ìĿĦ
ĠíĥĪ ëĿ½
ĠíĥĪ ë¶ģ
ĠíĹĪ ì»¤
Ġëĵľ ëĬĶ
Ġì±Ħ ì·¨
íĶĮ ë¡ľë¦¬ëĭ¤
ou l
Ġíķ©ìĿĺ ìĹĲ
ĠìĭĿ ë¯¼
ĠìĤ¬ê³ł ëĬĶ
ĠìŀĪìĹĪ ìĬµëĭĪëĭ¤
Ġì¼Ģ ìĿ´íĬ¸
Ġì¤ĳëĭ¨ íĸĪëĭ¤
Ġë§ī ëĮĢíķľ
ĠíĻľëıĻ ìĿ´
Ġë°Ģ ëł¤
ìĿ´ëĿ¼íģ¬ ëĬĶ
Ġìŀ¡ íĺĢ
ĠìķĦíĶĦê°Ħ ìĹĲìĦľ
Ġëĸł ëĤł
Ġì½ľ ë¦°
ĠìĿĺìĽĲ ëĵ¤ìĿ´
Ġê±´ë¬¼ ìĿĦ
Ġì¶ľìĹ° íĸĪëĭ¤
ìĿ¼ë³¸ ìĿĢ
Ġë§ĪìĿĦ ìĿĦ
Ġë©´ ëĭ´
ë¨¼ ìĿĢ
ë¨¼ íĬ¸
Ġë¹Ħìļ© ìĿĢ
ĠëĶ¸ ìĿĦ
Ġë¨¹ ëĬĶ
Ġíĩ´ ìĽĲ
ìŀĲëĵ¤ ë¡ľë¶ĢíĦ°
ĠëķĮë¬¸ ìĿ´ëĿ¼ê³ł
Ġë¶ĦìĦĿ íĸĪëĭ¤
Ġì¦Ĳ ê¸¸
AP ìĿĺ
ĠìķĦíĶĦê°ĢëĭĪìĬ¤íĥĦ ìĹĲìĦľ
Ġìłľì¶ľ íķľ
Ġë§Ŀ ìĽĲ
Ġë¶Ļ ìĹ¬
ut e
ĠíĹĮë²ķ ìŀ¬íĮĲ
ìĿ´ì¦Ī ë¯¸
Ġíļ¨ê³¼ ë¥¼
Ġìı ĺ
ĠíıŃëł¥ìĤ¬íĥľ ê°Ģ
Ġëª¨ë¥¸ ëĭ¤ê³ł
Ġëĭ¤ìļ° ì¡´ìĬ¤
Ġëª©ìĨĮ ë¦¬ë¥¼
ĠìłķìĥģíļĮëĭ´ ìĿĦ
ĠëģĬ ìŀĦ
Ġíİł ë¡ľìĭľ
ĠëĮ Ħ
íķĺë§Ī ëĵľ
Ġë¸Įë¦¬ íķĳ
ëĸ ¼
Ġê´´ íķľ
ĠìŀĲë¦¬ ìŀ¡
Ġìľłëł¥ íķľ
Kore a
ĠìŀĲìĽĲ ë´īìĤ¬
ê·¸ëħĢ ìĿĺ
Ġê·¸ë£¨ ì§Ģ
ĠíĶĦë¦¬ë¯¸ìĸ´ ë¦¬ê·¸
ìĨ¡ìĻĦ ìĺģ
P EC
m an
t on
ã ģ
Ġë »
ê³ł ê°Ģ
íķľ ê¸Ģëī´ìĬ¤
ìķ Ĭ
Ġê² ģ
ë¦¬ ì½Ķ
ë¦¬ ë¸Į
ëĵ¤ ìĿ¸
ëĿ¼ íı¬
êµŃ ìĺģ
ĠìĤ¬ ìłĪ
ìķĦ ìĸĦ
ĠìĪĺ íķĺ
ĠìłĦ íķĺê³ł
ëĮĢ ìĭł
Ġíķ Ģ
íĬ¸ ë§¨
Ġê°Ģ ì£½
Ġê°Ģ ëģĶ
ë§Į ëħĦ
ìĪĺ ì¹ĺ
Ġìłķ ìłĦ
Ġì¤ĳ ìĿ´ëįĺ
ëħĦ ìľ¼ë¡ľ
Ġë³´ ìŀħëĭĪëĭ¤
ìĦ± ìĹĲìĦľ
ìĦ± ê·¼
íĨµ ìĿ´
Ġë¶Ģ ìĤ°
Ġê³µ ìĽĲ
ĠìĿ¼ ì¹ĺ
Ġì¶ ¤
Ġì² ©
Ġìľł íĨµ
ĠìĹ¬ ê¶Į
ĠìĹ¬ ìĦ¯
ìĦ¸ íĶĦ
ìľł ë¥¼
íĥĢ ëĭ¤
ìĹĲê²Į ëıĦ
ëĭ¨ ê³Ħ
ĠìĬ¤ íĨł
ê°ľ ë¡ľ
Ġê°ľ íİ¸
Ġëĭ¹ íķ´
ĠìĦ¸ ëł¥ìĿĦ
ĠëıĦ ëĤľ
Ġì´Ŀ ìĥģìĿĦ
Ġë¬´ ìŀĲ
Ġë¬´ ê³łíķľ
ĠíĨµ ìĥģ
Ġ6 9
ëĶĶ ìĿĺ
Ġë°ĺ ëıĦ
ĠëĤ´ ì§Ģ
ĠëĤ´ ìłĦ
Ġë§¤ ë§¤
ĠìĦľ ìĦľ
ĠìĦľ ìĭłìĿĦ
ì¡Į ì§Ģë§Į
ĠíĺĦ ìŀ¥
ë²Ħ ëĵľ
Ġì½ °
ë²ł ì»´
ê°Ĳ ìĭľ
Ġêµ° ëĮĢ
ìĸ´ë Ħ
ĠëĲĺ íĴĢìĿ´
ìĬ¹ íĿ¬
ĠíĪ¬ ë¥´
ĠìĦ¤ ë¬¸
Ġìĭ¬ ë¬¸
Ġëıħ ê°Ĳ
ĠêµŃê°Ģ ìĹĲ
Ġìĭľìŀĳ ìľ¼ë¡ľ
ĠìłĢ ëł´
Ġì§ģ ìĽĲëĵ¤ìĿ´
ĠëłĪ ìĺ¤
Ġë³´ê³ł ë¥¼
Ġê²½ê¸° ìŀ¥
ĠíĻĺ ìŀĲê°Ģ
ëĤł ëĵľ
ĠëĨĴ ëĭ¤ê³ł
Ġê°Ħ ë¶Ģ
Ġê°Ħ ëĭ¨íķľ
ĠíĹĪ ê°Ģë¥¼
ëŀľëĵľ ëĬĶ
íļĮìĿĺ ìĹĲ
ĠëĤĺíĥĢ ëĤ¬
ĠìĥģíĻ© ìĿ´ëĭ¤
ĠíĻķìĿ¸ íķĺê¸°
ĠíĻķìĿ¸ ëĲĲëĭ¤
Ġê¶Į ë¦¬ê°Ģ
ì§ĢìĹŃ ìĿĺ
ĠëĦĺ ê²¨
Ġ14 0
Ġc l
Ġìĭ¤ìĭľ íĸĪëĭ¤
ĠíħĮ ëĦ¤
ĠìķĶ íĺ¸
Ġíĺķ ìĤ¬
ĠìĤ¬ì§Ħ ìĿĢ
ĠëĨį ìĹħ
Ġì°¸ìĦĿ íķĺì§Ģ
ìĤ¬íĥľ ë¡ľ
ĠíıīíĻĶ ìłģ
Ġìĵ° ëĬĶ
ë°Ľ ëĬĶ
Ġì¤Ģë¹Ħ íķĺê³ł
ĠìĿ´ë¦Ħ ìľ¼ë¡ľ
IN G
ĠìŀĲìľł ë¡Ńê²Į
Ġê¸°ìĹħ ìĿĺ
ĠìķŀìĦľ ê³ł
ĠCNN íķľê¸Ģëī´ìĬ¤
ëł¸ ìľ¼ë©°
Ġëª¸ ìĹĲ
Ġë§¤ì¼ĢìĿ¸ ìĿĺ
Ġíİ¼ ì¹ľ
ĠíļĮìĿĺ ìĹĲ
ê²¼ ëĭ¤ê³ł
ì¿ ¨
Ġn ot
ĠìĿ´ë¤Ħ ì¡Įëĭ¤
ĠëĤ¨íİ¸ ìĿ¸
Ġìĸµ ìłľ
Ġd is
Ġê´Ģê´ĳê°Ŀ ëĵ¤ìĿ´
Ġëįĺ ì§Ħ
Ġêµ¬íĺ¸ ë¥¼
ĠìłĦíķ´ ì¡Įëĭ¤
ĠíķľëĤĺëĿ¼ ëĭ¹ìĿĺ
ìĦłê±° ìĹĲìĦľ
FA RC
Ġìĭ¤íĹĺ ìĿĦ
Ġì¡°ê±´ ìĿĦ
ĠìĺĪì¸¡ íĸĪëĭ¤
Ġë³´ëĥĪëĭ¤ ê³ł
ĠìĿ¼ìŀĲ ë¦¬
ĠëĬĲëĤ Į
Ġê·¼ë¡ľ ìŀĲ
Ġíĺķíĥľ ìĿĺ
ĠìĿ¼ìĸ´ëĤ¬ ëĭ¤
ìĵ° ê³ł
Ġëī ´ëį¸
Ġë¨¸ë¦¬ ì¹´ëĿ½
íģ´ëĿ¼ íĺ¸
ĠëĤ´ëł¸ ëĭ¤ê³ł
Ġë©Ī ì¶Ķ
Ġì¡°ì§ĢìķĦ ì£¼
Ġë¶ĪëĬ¥ íĻĶ
ĠíİĺëįĶ ëŁ¬
Ġíģ¬ëĿ¼ìĿ´ ìĬ¬ëŁ¬
ĠìķłëĭĪ ë©ĶìĿ´ìħĺ
Ġê°Ģë²¼ ìļ´
3 4
3 80
a de
ê ½
ì ©
Ġ are
ë¡ľ ìļ°
ì§Ģ ëħ¸
ìĦľ ì¹ĺ
´ë £¨
ë¦¬ ìĸ´
ìĿ¸ ìĹĲê²Į
ëĿ¼ ë¦¬
ëĿ¼ ìĻĢ
ìľ¼ ëł¤ê³ł
ĠëĮĢ íļĮë¥¼
ìĭľ ë¦¬ìķĦ
Ġìľ Ķë¸Ķëįĺ
ë¶Ģ ìĥģ
ë¶Ģ ë¥´íģ¬
Ġì§Ģ ê³ł
ìķĦ ë¥¼
ê³¼ ê±°
ĠìĪĺ ìĹħ
ëĤĺ ìĹĲ
ìłķ ë§Ĳ
ê²Į ëıĦ
ì£¼ ìļĶ
ĠìķĦ ëĭ
ĠìķĦ ìĭľ
ĠìķĦ ë¥´ë
ĠìķĦ ë©Ķë¦¬ì¹¸
Ġê¸° ë¶ĦìĿ´
Ġê·¸ ë§Į
Ġë¶ Ĳ
Ġì¤ĳ ìĿ´ìĹĪëĭ¤
Ġê³µ ë£¡
ĠìĿ¼ ëł¨ìĿĺ
ëĭĪ ìĸ¸
ëł¹ ìĿ´
ĠìĨĮ ë¦¬ë¥¼
ĠêµŃ íĨł
Ġìĺ¤ ë§Ī
ë¹Ħ ì¹ĺëĬĶ
Ġìłľ ìķ½
ĠìĹ° ê°Ħ
ĠìĹ° ë¡Ģ
ëłĪ ëĵľ
Ġíķĺ ìĹ¬
Ġíķĺ ëĤĺëĬĶ
ê±° ë¥¼
íİ Ģ
ìķĺ ê³ł
ëĭ¨ ê³¼
Ġë°© ê¸ĢëĿ¼ëį°ìĭľ
Ġíķ´ ìĨĮ
ĠíļĮ ëıĻ
Ġë¬´ ìĬ¨
Ġë¶Ī ìĿ´
ì¹´ ë¥¼
ĠìĹĲ ìĬ¤
ĠëĤ´ ë¦¬ëĬĶ
200 4
Ġê°ķ ìłľë¡ľ
íĭ° ìĹĲ
ĠíıŃ ìĬ¤
ì¡Į ìĿĦ
ĠìķĪ ìľ¼ë¡ľ
Ġì§Ħ ì§Ģ
ĠìĽĲ ëŀĺ
ĠìĽĲ ìŀĲëł¥
ë²ł ëĦ¤
Ġì§ĢìĹŃ ìĿ´
Ġíĺ¸ ëĤłëĳĲ
ëŁī ìĿĢ
Ġë²ķ ìķĪìĹĲ
ĠíĮĲ ëĭ¤
ĠêµŃê°Ģ ìĹĲìĦľ
ĠìĹŃ ìĤ¬ë¥¼
ĠìĹ°êµ¬ ê°Ģ
ĠìŀĦ ëĮĢ
Ġì» ¬
Ġë°ķ ìĤ¬
ìĺĪ ë¹Ħ
Ġë°©ë¬¸ íķ´
ĠíĻľ ë°ľ
ì£¼ìĿĺ ë¥¼
ë°± ìķħê´ĢìĿĢ
Ġì¢ħ ìĭĿ
ìĭľíĤ¤ ë©°
ĠìĪĺëıĦ ìĿ¸
ĠíĹĪ ëĵľ
ĠíĦ ±
ĠëĮĢíĳľ ëĭ¨ìĿĢ
ĠêµŃë¯¼ ìĿĺ
ìķĮ ëĿ¼
ĠíĦ° ëĦĲ
Ġê²½ë§¤ ìĹĲ
ì³¤ ìľ¼ë©°
ĠëıĮìķĦ ìĻĢ
ĠìķĶ ìĭľ
Ġìłľê³µ íķľ
Ġíĸ¥ íķĺëĬĶ
ĠíĥĦ ëıĦ
íĬ¼ ìĿĺ
ëħĲ ìĿĦ
ĠíĥĢìŀĦ ìĬ¤
ë¯¼ì£¼ ëĭ¹ìĿĺ
Ġë³´ëĤ´ ê³ł
ec ret
ì°¨ë¡Ģ ìĹĲ
Ġë¿Ĳ ìĿ´ëĭ¤
Ġì¶ľìłĦ íķł
ĠìķĮì¹´ìĹĲëĭ¤ ìĿĺ
íĺģ ëªħ
ĠëĤ¨ìķĦ ìŀĪëĬĶ
ĠìĿ´ë£¨ìĸ´ ì§Ħ
ĠìĿ´ë¤Ħ ì§Ħ
Ġ198 9
Ġìłľì¶ľ íĸĪëĭ¤
Ġë¶Īê°Ģ ë¦¬ìķĦ
ĠìĤ´ìķĦ ëĤ¨
Ġëı¼ ì§Ģ
ìĸ´ëĤ¬ ëĭ¤
ĠìĥĮ ëĶĶìĹĲìĿ´ê³ł
ĠìłĦìĹŃ ìĹĲìĦľ
ĠëĨĴìķĦ ì§Ģê³ł
Ġê²ĢíĨł íķĺê³ł
ĠìĤ¬ìĿ´íĬ¸ ë¥¼
Ġì°į ìĿĢ
Ġë¬» ëĬĶ
ĠëĬĲëģ¼ ëĬĶ
íĶĦëĿ¼ ìŀĦ
Ġì¹´ë©ĶëĿ¼ ë¥¼
Ġë²½ ëıĮ
ë¸Įë¦¬ ëĵľ
ĠìĿ´ìĿµ ìĿĦ
ĠíıŃìļ° ë¡ľ
Ġíķ´ìĪĺ ë©´
Ġìķ¤ëĵľ ë¥ĺ
ĠìĬ¤íģ¬ ë¦°
ĠíĶĮë£¨ íĨłëĬĦ
ì¢ĭ ìĿĢ
ĠíĻĶëł¤ íķľ
3 000
F C
P S
S outh
i x
Ġ j
Ļ ëĭĪëĭ¤
íķ ´ë
íķ´ ê°Ģ
ëĤ ´ë¬
ìĤ¬ íķŃìĿĦ
ìĭľ ì¦Į
ĠìĿ´ ê¸Ģ
ë¬ µ
ë¬ ´ëĮĢ
ĠìŀĪ ìĿĢ
ê·¸ ëĵ¤ìĿĺ
ì£¼ ë¦¬
ì£¼ ìłĦ
Ġë¯¸ ìĭľê°Ħ
ĠìķĦ ëĿ¼ë¹ĦìķĦ
Ġê¸° ìĪĻ
Ġê²½ ìĦłìĿĦ
Ġìłķ íķľ
Ġìłķ ë³´ë¶Ģ
Ġë³´ ì¡´
ĠìĿ¸ ìĤ¬ë¥¼
ìłĦ ëŀµ
ĠìŀĲ íĸī
ë¬¸ íĻĶ
Ġë°ľ ë°ľ
Ġë¶Ģ ê²Ģ
Ġê³µ íĮĲ
ĠíĮ ½
ë¯¸ êµ°ìĿ´
íĸī ìĿ´
Ġìľł ìłģ
Ġì¡° ìĭ¬
íĥĢ ìĹĲìĦľ
ĠëıĻ ì°¸
ëł¥ ìĿĢ
ìĹĲê²Į ìĦľ
íĤ¤ ë¡ľ
ê²½ ê¸°ìĹĲ
ê³µ ê¸ī
ĠìķĮ ëĿ¼
Ġê²° ìĭ¬
ĠíĮĮ íģ¬
ĠíĮĮ íĮĮëĿ¼
Ġë¬´ ìĬ¹
íı¬ íĬ¸
Ġ6 2
ìĹ° ìĦ¤
ĠìĹĲ ì½°ëıĦë¥´
Ġë§Į ëĤ¬
ĠëĤ´ ëĭ¤
ì§ģ íķľ
ê¶Į ìĦ±ê·¼
ìŀħ ìĿĦ
ĠêµĲ ìĤ¬
ĠêµĲ ìĻ¸
ëĦ¤ íĮĶ
ë²ł ë¥´íĨł
ĠëĦ Ĳë¦¬
Ġíĺ¸ ì£¼ìĿĺ
Ġë°ľíĳľ íĸĪìĬµëĭĪëĭ¤
ĠíķľêµŃ ìĿĦ
Ġëĭ¨ íĸī
Ġë³´ëıĦ ìĹĲ
Ġì°¸ ìłĦ
ìħ ¸
ĠìĺģêµŃ êµ°
Ġíķµ íĶĦë¡ľê·¸ëŀ¨
ìĬ¤íĬ¸ ëĬĶ
Ġì²´ ê³Ħ
Ġìĭľìŀĳ íĸĪëĭ¤ê³ł
ĠA r
ĠìĤ¬ìļ© íĸĪëĭ¤
Ġê³Ħíļį íķĺê³ł
Ġìĸĳ êµŃìĿĺ
Ġë°ľê²¬ ëĲĺì§Ģ
Ġë°ķ ìĬ¤
Ġê°ĢëĬ¥ íķĺëĭ¤
ĠëĨĴ ê²Į
Ġì¢ħ íĮĮ
ìłĪ íķľ
Ġë§ŀ ê³ł
ìºĲ ìĬ¬
ĠëĮĢìĦł ìĹĲ
Ġì¹ľ ì²Ļ
Ġìłķì¹ĺ ìłģìľ¼ë¡ľ
íĿ Ļ
ĠìĭĿ ìĿ´
Ġë¹Ħíĸī ìĿĦ
Ġë¬´ìŀ¥ ëĮĢìĽĲ
ëĵ± íķĻêµĲ
Ġê³µê°ľ íķľ
ìķĮ ëłī
Ġì£¼ìļĶ íķľ
íĨ ±
ĠìľłìĹĶ ìĿĺ
ëģ Ĺ
ĠìļĶì²Ń íķł
ĠëıĮìķĦ ê°Ī
ĠìĹ¬ëŁ¬ ë²Ī
ìĿµ ëªħìĿĺ
ĠìĦ±ê³µ íķľ
ìķķ ëĳĺ
ĠíķĻìĥĿ ëĵ¤ìĹĲê²Į
Ġê¸°ìĪł ìĿ´
ĠíĥĦ ê´ĳ
Ġíĺ¸ì£¼ ìĹĲìĦľ
ra c
Ġê³µíķŃ ìĿĦ
ĠG M
íĨ¤ ìĿĺ
Ġì¶ľìĹ° íķ´
Ġê°ĲìĨĮ íĸĪëĭ¤ê³ł
ĠìĿ¼ìľ¼ ì¼°ëĭ¤
ëł¸ ê³ł
Ġê¸°ëĮĢ íķľëĭ¤
Ġê¸°ìĨĮ ëĲľ
Ġë°ľìĤ¬ íķľ
Ġê°ľìĿ¸ ìłģìľ¼ë¡ľ
Ġìĸ´ë¦°ìĿ´ ëĵ¤ìĿ´
ìŀĲíļĮëĭ´ ìĹĲ
Ġëįĺ ìł¸
ë´ Ĳ
Ġì¡°ì¹ĺ ë¡ľ
ĠìĦłìłķ ëĲĲëĭ¤
ĠëĮĢíĶ¼ íĸĪëĭ¤
ĠìĤ¬ê³¼ íĸĪëĭ¤
ê±°ëŀĺ ìĨĮ
ĠìĿ´ìĻĢ ê°ĻìĿ´
ĠëĤ´ë¬ ´
Ġë¬´ìĹĩ ìĿĦ
Ġë²¨ ê¸°ìĹĲ
ĠìĹĺë¦¬ ë²łìĿ´
ĠíĥĢìŀĦì¦Ī ê°Ģ
ìĬ¤íĭ° ë¸Į
Ġìķ¼íĽĦ ìĿĺ
ĠëĬĲëģ¼ ê³ł
ĠíĴĪ ëª©
ë¥´ëĤ ĺ
ĠëıĻìĦ±ìķł ìŀĲ
ëĶķ íĨł
ĠìĹ´ëł ¸
ìĺĪë¥¼ ëĵ¤ìĸ´
Ġë³´ìĿ´ ì½§
ĠìĺĨ ìĹĲ
Ġë¹¼ ìķĹ
Ġë©Ģ ë¦¬
Ġë°Ķê¿ Ģ
Ġag ain
Ġê·¹ëĭ¨ ì£¼ìĿĺ
Ġìµľìļ° ìĦł
ĠíŀĮ ëĳĲ
Ġíģ´ëŀ ĺ
ĠìĹĲìĸ´ë²Ħ ìĬ¤
ìĹĲë¯¸ ë¦¬íĬ¸
4 9
E R
H C
e et
i k
ëĭ¤ ëŀĢ
ëĿ¼ ë°Ķ
ê¸° ê¸°
ĠëĮĢ ìĦľìĸĳ
ìŀĲ ìĽĲ
ìŀĲ ìĹ°
ìŀĲ ìĺĢëįĺ
êµŃ ëĵ¤ìĿĢ
ìĤ¬ ì§Ħ
íĺ Ķ
ĠìĿ´ ìĬ¤íĬ¸
ĠìĤ¬ ìŀĦìĿĦ
ĠìĤ¬ íĺķìĿĦ
ë¬ ´ëĿ¼
ĠìĪĺ ë¥ĺ
ëĤĺ ê²Į
ìłķ ìĿĺ
ì£¼ ìĿ¸
ì£¼ ìĻĢ
Ġë¯¸ ë¦¬
ĠìľĦ ìĬ¤
Ġê¸° ìĤ¬ë¥¼
Ġìłķ ë°Ģ
Ġê·¸ ëłĪìĿ´
Ġì¤ĳ ìĿĺ
Ġì¤ĳ ìĿ´ë©°
ìłĦ êµŃ
ĠìŀĲ ë°ľ
ĠìŀĲ ì¹´ë¥´íĥĢ
ĠìĨĮ ëł¨
íĸī íŀĪ
Ġìĺ¤ ë¦¬
Ġìĺ¤ ëĶ©
ĠìĹ¬ ëĭ¹ìĿ¸
Ġìĥģ ìľĦ
Ġì¡° ìķ½
ĠëĤĺ ìĿ´ë¡ľ
Ġëª¨ ê¸Ī
Ġëª¨ ì§ĳ
ĠëıĻ ëĤ¨
ĠìĦł ìĿĦ
Ġë°Ľ ëĬĶëĭ¤
Ġëĭ¹ ì´Ī
Ġëĭ¹ ì²¨
ĠìĦ± ì§ģìŀĲ
Ġì´Ŀ ìĹĲ
ĠíĮĮ ìĿ´
ĠíĮĮ ìĿ´íĶĦ
ĠíĮĮ ëĤĺë§Ī
íķĻ ìŀĲ
ì°¨ ìłĦìĹĲìĦľ
íĮĮ ìĿ¸
Ġìĭł íĺ¸
ìĹ° ë£Į
Ġìĭ¤ ëł¤
Ġë°ĺ ëĮĢë¡ľ
Ġìŀħ ìĪĺíķľ
Ġíı¬ ë¥´ëħ¸
ê²° íĺ¼
Ġëĭ¬ ê°Ħ
ë³¸ ë¶Ģ
ë¸Į ëłĪ
ĠìĽĲ ìłķ
ĠìĽĲ íķľëĭ¤
ëŀĢ ìĿ´
ìĭ¬ ìĿĺ
Ġë²ķ ë¬´
ĠíĻĶ ìļĶìĿ¼ìĹĲ
ĠìĿ´íĽĦ ìĹĲ
Ġì¹ĺ ë¥¼
ĠC omm
ĠêµŃê°Ģ ëĵ¤ìĿĺ
Ġíķµ ê°ľë°ľ
ìĬ¤íĬ¸ ë¡±
ĠìĦ¸ê³Ħ ë¥¼
ĠìĿĮ ë£Į
Ġë¬¼ íĴĪ
ĠA ssoci
ì¶Ķ ê°Ģ
Ġëī´ íĸĦíĶĦìħĶ
Ġíģ¬ ëłĪìĿ´
Ġíģ¬ ê¸°ìĿĺ
ëĭ¬ëŁ¬ ë¡ľ
Ġì¹´ ëĵľ
Ġì§Ģì§Ģ ìľ¨ìĿ´
Ġì§Ģì§Ģ ìĦłìĸ¸
ë¡Ģ ë¥¼
ëłĪìĬ¤ íĥĢ
Ġë°©ë¬¸ ìĿĢ
is h
ìĭľíĤ¤ ëł¤ëĬĶ
ìŀĪ ìĿĦ
ĠëĶĶ ìĬ¤íģ¬
Ġê¶Į ì´Ŀ
ĠëģĿ ëĤ¬ëĭ¤
ĠëŁ¬ìĭľìķĦ ëĬĶ
ì»¤ ìĬ¤
Ġë²Ķ ìĿ¸ìĿ´
Ġì£¼ë¯¼ ëĵ¤ìĿĺ
ĠëĤĻ íĥľ
Ġì¼Ģ ë¹Ī
ĠìĺĪìĥģ íķĺê³ł
Ġíģ´ë¦°íĦ´ ìĹĲ
ĠíħĮ ìĿ´
ĠìĹħ ë¬´ë¥¼
ro s
ro op
ìĹ´ ìĿĦ
ĠíķĻìĥĿ ìĿ´
Ġê±´ë¬¼ ìĹĲ
Ġë°Ľìķĺ ê³ł
Ġì»¤ ë®¤
Ġì¡°ì§ģ ìĿĺ
ĠëıĻë¬¼ ìĿĦ
Ġm ilit
Ġê°Ģê²© ìĹĲ
Ġìķ½ìĨį íķľ
ĠíĨµê³¼ ìĭľì¼°ëĭ¤
ĠìĹĦ ê²©íķľ
ĠëĿ¼ìĿ´ ë¸Į
ĠìĨĮìľł íķľ
ĠìķĦë²Ħ ì§ĢìĿ¸
Ġë³ĢíĻĶ ìĹĲ
Ġë²Įìĸ´ ì¡Įëĭ¤
Ġê³¼ìłķ ìĹĲ
Ġì¶Ķìłķ íķĺê³ł
Ġì¶ľìłĦ íķĺì§Ģ
íĹĪ ê°Ģ
Ġëĭ´ëĭ¹ ìŀĲëĬĶ
ĠìĪĺì¤Ģ ìĿĺ
ìĿ´ìĬ¤ëĿ¼ìĹĺ ìĿĢ
ë¹Į ë¦¬
ĠëĤ¨íİ¸ ìĿ´
Ġë´ Ĳ
Ġíĸīìłķë¶Ģ ëĬĶ
ĠëłĪìĿ´ ê±´
ĠíĥĳìĬ¹ íķľ
ì½ĺ ìĭł
Ġê²°ìĿĺ ìķĪ
oo k
Ġìŀ¬ìłķ ìłģ
Ġë³´ì¢Į ê´ĢìĿĢ
ĠëĵĿ ìłĲ
ĠìĦľëªħ íĸĪëĭ¤
ĠìĽĢì§ģìŀĦ ìĿĢ
ĠìĿ¼ê°Ħ ì§Ģ
Ġì¦Ŀìĸ¸ ìĿĦ
íģ¬ë¦¬ìĬ¤ íĨłíį¼
Ġíķĺë§Ī ìĬ¤ê°Ģ
Ġê°ĢëĬ¥ìĦ± ëıĦ
ìĤ¬ë¥´ì½Ķ ì§ĢëĬĶ
ĠìĿ´ë©Ķ ìĿ¼ìĿĦ
Ġê·¸ëłĪ ëĤĺëĭ¤
Ġpl an
Ġle ad
ĠìĬ¤íĬľ ëĶĶìĺ¤
ĠìºĲë¦Ń íĦ°
ĠìķĮëłīìĤ° ëįĶ
Ġë§ĪíĿĲ ëĶĶ
Ġë¬´ëį ¤
ĠëŁ¬ëĭĿ ë©ĶìĿ´íĬ¸
Ġtal ks
ĠìķĦëĭ ĻëĭĪëĭ¤
5 1
5 7
A n
e f
r en
v el
â ĸ
Ġ ç¾İ
ìĹ ´ë¦°
ìĿ´ ëªħ
íķĺ ë£¨
ĠìĹ ī
êµŃ ëĵ¤ìĿ´
ìĭľ ë¯¼
ĠìĿ´ ëĵ¤ìĹĲê²Į
Ġì§Ģ ìłĲ
ìķĦ ëŀį
ĠìłĦ ê²©
ìłķ ëĲľ
ëĮĢ íļĮìĹĲìĦľ
ìłģ ìĿĢ
Ġê°Ģ ì¤ĳ
Ġê°Ģ ê¹Ŀ
ĠìľĦ ì¹ĺë¥¼
ĠìľĦ íķĺìĹ¬
Ġê¸° ë»
Ġì¤ĳ ìĹĲìĦľ
Ġì¤ĳ ëĤ¨ë¯¸
Ġë³´ ì¦Ŀ
ĠìŀĲ ê²©ìĿ´
íģ ´ë¦°
ë¬¸ ìłľë¥¼
Ġê³µ ëĮĢ
ìļ° ê¸°
Ġìĥģ ìĿĺ
ë©´ ìľ¼ë¡ľ
ëĲĺ ê¸°ëıĦ
íĤ ¥ìĿĦ
ëłĪ ìĬ¤ëĬĶ
Ġìĺģ êµ¬
ë°© ìĹĲ
Ġë°© ë¬¸ìĹĲ
ìĹħ ê³Ħ
ĠëıĦ íķĳ
Ġ6 3
Ġê³Ħ ìĤ°
Ġê±° ë¡ł
ĠìĹĲ ìĿ´
ê±´ ìĦ¤
ĠëĤ´ ìĿĺ
ìĹĪ ê¸°
Ġë§¤ ëıĦ
íİ¸ ìĹĲ
ĠìļĶ ë¦¬
ĠíĺĦ ê¸Ī
Ġì§Ħ ìłĦìĿĦ
ë³¸ ìĿĦ
ĠìĽĲ íķĺì§Ģ
Ġêµ° ìĿ¸ëĵ¤ìĿ´
ëĤ´ ìĹĲìĦľ
Ġë¬¸ìłľ ëĵ¤ìĿĦ
Ġë°ľíĳľ ëĬĶ
Ġëį° ë¦¬ê³ł
Ġë¶Ħ ëŁīìĿĺ
Ġëª© ìłģìĿĦ
Ġëª» íĸĪëįĺ
Ġìĭ¬ ìĿĺ
Ġìĭ¬ íķĺê²Į
Ġìķŀ ìĦ°ëĭ¤
Ġê³µê²© íķĺëĬĶ
Ġëģ Ķ
ĠA d
ĠìĤ¬ìļ© ëĲľ
ĠíķŃ ìĥĿ
ĠìĤ° ì±ħ
Ġì´Ī ìĹĲ
Ġìĸĳ ê³¤
Ġì½Ķ ëĦĪ
Ġê²½ê¸° ëĬĶ
ĠìķĬìķĺëĭ¤ ëĬĶ
Ġë¸Į ëĿ¼
ĠíĨł ë¡ľ
ë°± ìĿĦ
Ġë§ŀ ìĿĢ
ê²ĥ ëıĦ
Ġëĵ¤ìĸ´ ê°ĢëĬĶ
ĠìķĦëĭĪ ë©°
ic t
Ġê³³ ìĿĺ
Ġë¸Ķ ë¡Ŀ
ĠP KK
Ġëĭ´ ê³ł
Ġë§ī ìķĦ
Ġë£¨ ìĿ´ì§ĢìķłëĤĺ
ĠìĿĺíļĮ ë¥¼
Ġë°ĽìķĦ ìĻĶëĭ¤
ĠìĦłìĪĺ ëĵ¤ìĿĢ
ìĿ´ëĿ¼íģ¬ ìĹĲìĦľ
ĠU EFA
Ġìŀ¡ ì§Ģ
Ġê¹Ģ ëĮĢì¤ĳ
íĤ¬ ë¡ľë¯¸íĦ°
Ġíĭ° ìħĶ
ĠíĤ¤ ë°ĶíĤ¤
Ġì¶ľìĭł ìľ¼ë¡ľ
Ġì°½ ìĦ¤
ìŀ¡ ì§Ģ
Ġì°¸ìĹ¬ íķĺëĬĶ
Ġê¸Īì§Ģ íķĺëĬĶ
Ġë°ĿíŀĪ ë©°
ĠìłĦíĪ¬ ê¸°
ĠìĶ¨ ê°Ģ
Ġë¿Ĳ ìĿ´ëĿ¼ê³ł
Ġë¨¹ ê³ł
ĠìłĦì²´ ê°Ģ
Ġë¯¿ ìĿĦ
Ġë³´ê³łìĦľ ìĹĲ
Ġë³´ê³łìĦľ ê°Ģ
ir st
ĠêµŃë¬´ë¶Ģ ëĬĶ
Ġë¹ĦëĶĶìĺ¤ ë¥¼
ĠëĦ£ ìĹĪëĭ¤
ê²½ê¸° ìĹĲìĦľ
ĠíķŃìĿĺ íķĺëĬĶ
ĠíĸīìľĦ ëĬĶ
Ġì¢ħêµĲ ìłģ
oc k
ĠíĿ¥ íĸī
Ġì¹ĺëŁ¬ ì§ĢëĬĶ
íĬ¹ ë³Ħ
ĠëĤĺíĨł êµ°
ĠìĤ¬íĩ´ ë¥¼
ĠCh ina
ĠíĶĦëĿ¼ìĿ´ë¨¸ ë¦¬ìĹĲìĦľ
Ġê±°ìłĪ íĸĪëĭ¤
Ġíķ´ë³ĳ ëĮĢ
Ġìĸ¼êµ´ ìĿĦ
Ġë°©íĸ¥ ìĿĦ
Ġìŀ¥ìķħ íķľ
Ġì¶ĶìĤ° íĸĪëĭ¤
Ġìľ¤ ë¦¬
ê¼ Īëĭ¤
ìłľëıĦ ìĿ´
Ġë§ĪìĿ´íģ¬ë¡ľ ìĨĮíĶĦíĬ¸
ĠìĿ´ëĤ´ ìĹĲ
Ġë¡ľìĿ´ íĦ°
ĠìĹ´ìĭ¬ íŀĪ
ìĿ´ëªħ ë°ķ
& #
8 000
A merican
f or
m in
Ġ ar
Ġ up
ľ ì°®
ìĹĲ íĽĦëĵľ
ëĬĶ ê°Ģ
âĢ ¢
´ë ©°
ë¦¬ ì²ĺëĵľ
ìĿ¸ ëĭ¤
ê¸° ë¶Ģ
Ġìĺ ³
ĠìĤ¬ ìĥĿíĻľ
Ġê²ĥ ìĿ¼
ìĿ¼ ë¦¬ëħ¸ìĿ´
Ġì§Ģ ëĬĶ
ìĺ ·
ìĸ´ ìļĶ
Ġë¯¸ ëĶĶìĸ´
Ġê°Ģ ëŁīìĿĺ
Ġê°Ģ ì¦ĪíĶĦë¡¬
Ġì£¼ ê±°
Ġì£¼ ìĭĿìĿĦ
ë§Į ìĹ¬
Ġê¸° ì¦Ŀ
Ġìĭľ ìĿ¼
Ġì¤ĳ íĥľ
Ġë¶Ģ ë¥´
Ġê³µ ìłķíķľ
Ġìĺ¤ ìĬ¤
Ġìľł ìĤ°
ìĹĪëĭ¤ ëĬĶ
ë¥´ ìĹĲìĦľ
Ġìĥģ ì²ĺ
ë°Ķ ê°Ģ
Ġìłľ ë¦¬
Ġëª¨ ìķĦ
Ġëª¨ ìŀĦ
Ġëª¨ ìļķ
íĥĢ ê°Ģ
íĥĢ ìĻĢ
ĠìĦł ìĽĲ
Ġìĺģ ìĥģ
Ġìĺģ ê°ĲìĿĦ
ĠìĺĪ ë°°
íİ Ļ
ìĹŃ ìĤ¬
ĠíĽĦ ì§Ģ
Ġê°ľ ìĽĶ
ĠìķĮ ëłĪ
ĠìĥĿ íĥľ
ĠìĦ¸ ìĨį
Ġê¸ ´ë°Ģ
ĠíĮĮ ë¦¬ìĹĲìĦľ
ĠëĤ¨ ìļ©
ĠëĤ¨ ìŀĲë¥¼
ë¬¼ ìĿ¸
íı¬ ìľĦì¸ł
Ġ6 8
Ġê°Ĳ ìłķ
Ġìŀħ ìĹĪìľ¼ë©°
ĠíıŃ ëł¥ìĿĦ
ì¡Į ìľ¼ëĤĺ
ĠíĺĦ ìĥģìĿ´
ĠìķĪ ìłĦìĹĲ
ĠêµĲ ìłĦ
ĠìĿ´ëĿ¼íģ¬ ëĬĶ
Ġìķ½ íĺ¼
ĠìĤ¬ë§Ŀ ìŀĲë¥¼
ìĦĿ ìĿĢ
Ġ7 6
ĠìĪ ¨ìĸ´
Ġêµ° ìĿĺ
ĠìĺĪìłķ ìĿ´
ìĿ´ëĿ¼ ë©´
ĠíĪ¬ ëªħ
Ġë°° íı¬
Ġê¸Ī ë¦¬ë¥¼
Ġëıħ ìŀĲ
ê°Ŀ ëĵ¤ìĿ´
Ġëī´ ìłĢì§Ģ
Ġíģ¬ ë¦¬
ĠìĹ°êµ¬ ìĽĲìĿĢ
Ġê³ĦìĨį íķĺê³ł
Ġê²°ìłķ ìĿ´
ĠìĿ´ìľł ê°Ģ
Ġë¯¸êµ° ê³¼
Ġì°¾ ì§Ģ
ĠëĤ´ëł¤ ì¡Įëĭ¤
íıŃ ëł¥
ĠìĪ¨ ì¡Įìľ¼ë©°
ĠM D
ĠëŁ¬ìĭľìķĦ ê°Ģ
Ġê³µê°ľ íķĺì§Ģ
íıī ê°Ģ
Ġì£¼ë¯¼ ëĵ¤ìĿĦ
Ġì¿ł ìĽ¨ìĿ´íĬ¸
ĠëĤ´ìļ© ìĹĲ
Ġë°©ìĨ¡ ìĹĲìĦľ
ĠëĦĺ ê²Į
Ġëĭ¹ìĦł ìŀĲëĬĶ
Ġë°ĿíĺĢ ëĥĪëĭ¤
ìĶ¨ ìĿĺ
Ġëĭ¤ìĿĮ ì£¼
ĠëıĮìķĦ ëĭ¤
ĠìŀĲëıĻì°¨ ë¥¼
ĠíĮĲë§¤ íķł
ĠìķĦíĶĦê°Ħ ìĹĲ
Ġê°ľë°ľ ìĹĲ
Ġê°ľë°ľ íķľ
Ġì¸ ł
ëłĮ ì§Ģ
ìĻķ ë³µìĦł
Ġëŀ ĺë¦¬
ê´Ģê³Ħ ê°Ģ
Ġì¡°ì§ģ ìĿĦ
19 8
Ġì°¨ì§Ģ íķĺëĬĶ
ĠëĬĲ ê»´
Ġë²Ķì£Ħ ë¥¼
ĠíķĻêµĲ ìĹĲìĦľ
Ġìŀĥ ìĸ´ë²Ħ
Ġë¶ĢìĿ¸ íķĺê³ł
Ġê³µê¸ī ìĿĦ
Ġë¶Ģì¡± íķľ
Ġíĺ¸íħĶ ìĹĲ
ĠìĿ¼ìľ¼ ì¼°
ĠëĤ¨ìĦ± ê³¼
ĠëĿ¼ìĿ´ íĶĦ
ĠëĦĪ ë¬´ëĤĺ
ĠëĨĢ ìĿ´
ĠíĬ¹ë³Ħ íŀĪ
ĠìķĦë²Ħ ì§ĢëĬĶ
Ġìĥ¤ ëĿ¼íı¬
Ġíĩ´ ìŀĦ
ĠìĪĺì²ľ ëªħìĿ´
Ġì¦Ĳ ê¸°ëĬĶ
ĠìĽĶëĵľ ìĭľë¦¬ì¦Ī
Ġë¶Ģë¶Ħ ìĿ´
Ġìķ¨ ëŁ°
ĠëıĻìĺģìĥģ ìĿ´
um an
Ġê°Ģìł¸ ìĺ¬
ĠìķĦë§Ī ì¡´
ĠëıĻìĿĺ íĸĪëĭ¤
Ġëĭ¤ë¥´ ëĭ¤
ĠíĶĮëłĪìĿ´ ë¥¼
ĠìķłìĻĦ ëıĻë¬¼
Ġíķĺë§Ī ìĬ¤ìĿĺ
Ġpro t
Ġë©ĶìĿ´ ìłĢ
ĠëªħíĻķ íŀĪ
Ġë¶ĢìĤ¬ ìŀ¥ìĿĢ
ĠìłĢì§Ī ëłĢ
íķľëĤĺëĿ¼ ëĭ¹
ĠíĥĢìĿ´íĭĢ ìĿĦ
ĠìĿ´ë¸Į ëĿ¼
Ġìĵ°ëłĪ ê¸°
ĠSh ow
ìĸ¼ë¦¬ íĭ°
Ġê´ĳë²ĶìľĦ íķľ
ĠíĶĦëŀŃ íģ¬
ìłľëĦ¤ ê±°
4 1
F O
W C
c on
e oul
m m
r u
§ Į
ã İ
ë Ń
ì į
í Ī°
Ġ its
ìĹĲ ëĦĪ
ê³ł ìĿĺ
ê³ł ìĹĲìĦľ
ë¡ľ ìĹĲ
ë¡ľ íĶ¼
ê°Ģ ê²©
ë¦¬ ë¹ĦìķĦ
ĠìĹ ´ëł¤
ìĭľ íķĺê³ł
ìĿ¼ ë°ĺ
Ġì§Ģ ì¤ĳíķ´
ĠìłĦ ìĹĲëĬĶ
ĠìłĦ ëł¥ìĿĦ
ëªħ ìĿ´ëĿ¼ê³ł
ìĸ´ ìĤ¬ìłĦ
Ġë¯¸ ëĵľ
Ġë¯¸ ëĭĪ
Ġê°Ģ íķľ
Ġì£¼ ê°ĢëĬĶ
Ġìĭľ ê³¨
íĻĶ ëĲĺê³ł
Ġë³´ ìĬ¤
ĠìŀĲ ìłĦ
ĠìŀĲ ê²©ìĿĦ
ì¹ĺ ìĿ¸
ë³´ ìŀ¥
Ġë¶Ģ ëĮĢë¥¼
Ġë¶Ģ ë¶ĢìĿĺ
ëĭĪ ìķ¼
ëıĻ ìĥĿ
Ġìľł ìĺĪ
ë¹Ħ ëĦ¨
Ġìĥģ ëĭ´
íĶĦ ìĹĲ
Ġì¡° ì§Ĳ
Ġíķĺ ëıĦë¡Ŀ
ì¡° ê°ģ
Ġíĸ ĩ
ê±° ë¦¬ëĬĶ
ìĹ¬ ìŀĲ
ĠìĬ¤ íĨ¤
ĠíĽĦ ìĨ¡
ìĹħ ìŀĲ
ĠìĦ¸ ëĮĢë¥¼
Ġì´Ŀ ê¸°ë¥¼
ì°¨ ë²łìĬ¤
Ġìĭł íĺ¸ë¥¼
ë¶Ħ íķľ
ĠìĹĲ ë¦Ń
Ġë§Į íĻĶ
Ġë§Į ë£Į
íĭ° ì¹¸
ĠëķĮ ë§Īëĭ¤
ĠíĶ¼ íķĺê¸°
Ġì°¨ ìĿ´
Ġì°¨ ê°Ģ
Ġë§¤ ëł¥
Ġë§¤ ìŀħ
ĠìķĪ ëĤ´
ê·¼ íĺľ
Ġëĭ¬ ìķĦ
ĠìĤ¬ë§Ŀ ìŀĲëĬĶ
Ġíĸī ëł¬
ìĸ´ë Ŀ¼
Ġíĺ¸ ìĨ¡
Ġì§ĳ íķĦ
Ġë²ķ ìĽĲìĿĺ
Ġëª» íķľëĭ¤
Ġê¸Ī ìĨį
ĠìĺģêµŃ ê³¼
Ġì¹ĺ ìĨ
ĠêµŃê°Ģ ìķĪë³´
Ġíĺĳ ìķ½
Ġë¬¼ ê±´
ĠìłĢ íĥĿ
ë³ĳ ìľ¼ë¡ľ
ĠíħĮëŁ¬ ëĬĶ
ĠíħĮëŁ¬ ì¡°ì§ģ
ĠìĤ° íķĺ
ëĭ¬ëŁ¬ ê¹Įì§Ģ
ĠìĿ¼ë³¸ ìĿĦ
ĠìĥĿê°ģ íķľëĭ¤ê³ł
ë¦¼ ìĿĦ
Ġìĸĳ ì¸¡
Ġìĸĳ ìª½
ĠìĹ´ ìĹĪëĭ¤
ĠëĴ¤ ìĹĲìĦľ
Ġê³ĦìĨį íķł
ĠìķĦìĿ´ ëĵ¤
Ġì§Ģì§Ģ íķľëĭ¤ê³ł
ë°° ìĭ¬
Ġê²°ìłķ ìłģìĿ¸
Ġë°ķ ìĤ¬ê°Ģ
ĠT h
ĠìĭľìľĦ ëĮĢë¥¼
Ġíĳľ ê²°
Ġê°Ħ ìĦŃ
ê¸¸ ìĿĦ
ĠëĮĢíĳľ íķĺëĬĶ
Ġê³³ ìĿ´
ĠìŀĪìĿĦ ì§Ģ
ëĤ¨ ë¶ģ
ĠìĥģìĽĲìĿĺ ìĽĲìĹĲ
Ġê°Ģì¡± ëĵ¤ìĿĢ
Ġê°Ģì¡± ëĵ¤ê³¼
Ġë¸Ķ ëĿ¼ëĶĶë¯¸ë¥´
Ġì¦Ŀê°Ģ íķĺëĬĶ
ĠëĲľëĭ¤ ë©´
Ġë°ĺëĮĢ íķĺê³ł
ĠíħĮ ëĭĪìĬ¤
Ġìĸ¸ê¸ī íķľ
ìĿ´ëĿ¼íģ¬ ìĿĺ
Ġíĸ¥ íķľ
ro l
Ġë¨¸ ë¦¬ìĹĲ
Ġê³µíĻĶ êµŃ
ĠìĥģìĬ¹ íĸĪìĬµëĭĪëĭ¤
ìĿµ ëªħìĿĦ
ĠíıīíĻĶ íĺĳ
ĠìºĲ ë¦¬
Ġê²½ê³ł ë¥¼
Ġê¸´ ìŀ¥ìĿĦ
Ġb y
Ġì»¤ ëĭ¤ëŀĢ
ìŀĲìĻĢ íŀĪ
ĠR es
Ġì°¸ìĹ¬ íķĺì§Ģ
Ġê·ľëª¨ ë¥¼
Ġë¶Īë²ķ ìľ¼ë¡ľ
Ġìŀ¬íĮĲ ìĹĲìĦľ
ĠëŁ°ëįĺ ìĹĲ
Ġê±°ë¶Ģ ê¶ĮìĿĦ
ìĤ¬íļĮ ìĹĲ
ĠëĨĢ ëŀĦ
Ġìŀ¥ê´Ģ ê³¼
ĠìķĦë²Ħ ì§ĢìĿĺ
Ġê°ľìµľ ëĲĺëĬĶ
ĠìĻĶëĭ¤ ê³ł
ĠëĤĺëĿ¼ ë¥¼
Ġì¹¼ ë¦¬
Ġn ew
Ġë´ ¤ëĭ¤
ìĸµëĭ¬ëŁ¬ ìĿĺ
ĠëłĪìĿ´ ìłĢ
Ġì¤ĳëıĻ íıīíĻĶ
ist an
Ġê²¬ íķ´ë¥¼
ìĭľíĤ¨ ëĭ¤
ĠêµĲëıĦ ìĨĮ
Ġë¯¸ëŀĺ ë¥¼
ĠíĻķìĭł íĸĪëĭ¤
ĠíĻķìĭł íķľëĭ¤
Ġìľłì£Ħ ë¥¼
Ġê¹¨ ëģĹ
Ġë¯¼ì£¼ì£¼ìĿĺ ë¥¼
ĠìĿĺìĭ¬ ëĲĺëĬĶ
íİľ ìĭ¤
Ġíİľìĭ¤ ë²łëĭĪìķĦ
ĠíķĺìĽĲìĿĺ ìĽĲ
ĠìĪĺì¹ĺ ëĭ¤
Ġëª¨ìĹ¬ ëĵ¤
ĠìŀĲìĦ¸ íŀĪ
ĠìĹ¼ ëł¤
ĠíķĺìĿ´ ë¸Įë¦¬ëĵľ
Ġë²łì»´ ìĿĢ
Ġêº¾ ê³ł
ĠìĦ±ê³¼ ë¥¼
Ġíķµìĭ¤íĹĺ ìĿĦ
ëĵ¯ ìĿ´
ìĤ¬ë¥´ì½Ķ ì§Ģ
ĠíļĮê²¬ ìĹĲìĦľ
Ġëļ «
ĠëĶľ ëŁ¬
Ġìłķê¸° ìłģìľ¼ë¡ľ
ĠìĦ¹ ìĭľ
ĠëĿ Ħ
ëª©ê²© ìŀĲëĵ¤ìĿĢ
ì·Ħ ëĭ¤
Ġì³ Ĳ
ĠEn g
ĠìĿ¼ìłľ íŀĪ
3 8
H S
U C
V S
W F
b er
² ķ
ê ¶
íķľ êµŃìĿ¸
Ġë° Ł
ìĿ¸ ê°Ģ
íķ´ ì£¼
ìĬ¤ ë§Ī
ìĬ¤ íĥĢìĿ¸
ìľ¼ ë¯Ģë¡ľ
ĠëĮĢ ìļ°
ëıĦ ì¿Ħ
ìŀ¥ ìķł
ë¶Ģ ìĿ¸
ĠìĪĺ ìĤ¬ìĹĲ
ĠìłĦ íĮĮ
ëĤĺ íĨł
ìĸ´ ìĻĢ
ìĸ´ ì§Ī
ìłģ ìĿĺ
ëĵľ ëŁ¬
ĠìķĦ ëĤľ
ë§Į ê°Ħ
Ġê¸° ìķĦ
Ġìĭľ ìłĲ
ĠìĿ¸ ìĥģìĿĦ
Ġë¶Ģ ê²°
íģ¬ ëĿ¼
íģ¬ ëłĪ
ĠìķĬ ìĬµëĭĪëĭ¤
Ġëĭ¤ ìĪĺ
Ġë¹Ħ ê°Ģ
ë¯¸ ëĬĶ
íĸĪ ìĹĪëĭ¤ê³ł
ĠìĿĺ ì§Ģë¥¼
ĠìĿĺ ìĽĲìĿĦ
ĠëĤĺ ê°ĢëĬĶ
ĠìĹ° ê¸°ê°Ģ
ĠìĦł ê´Ģ
ĠìĽ °
ĠìĺĪ ë©ĺ
Ġê³ł ìŀ¥
êµ° ìĤ¬
ìĹ¬ ìķ¼
ë°© ìĿ´
ìŀ¬ ê°Ģ
ìŀ¬ ë¥¼
ĠìĹĨ ìķł
Ġíķ´ ìĥģ
Ġíķ´ ìłĢ
Ġíķ´ ìķĪìĹĲ
ĠíļĮ ìĤ¬ìĹĲ
ĠìĦ¸ ìļ´
ĠìĦ¸ ìĽłëĭ¤
ĠëıĦ ìļ¸
Ġìŀ¥ ë²½
ĠëĤ¨ ìª½
ĠëĤ¨ ìª½ìľ¼ë¡ľ
Ġë¬´ ìĨĮìĨį
Ġêµ¬ ë¥ĺ
íŀĪ ëĬĶ
íĮĮ ë¦¬
Ġë¶Ī êµĲ
ìŀĳ ê°Ģ
ìĹ° ìĥģìĿĦ
ë³Ģ íĻĶ
Ġë§Į ëĬ¥
Ġë°ĺ ëĵ±
ĠëĤ´ ë¦¬ê³ł
ìĿĮ ìĿ´
Ġê°ķ ì§ĦìĿ´
ĠíĶ¼ íķł
ê¹Įì§Ģ ëıĦ
Ġì°¨ ê´ĢìĿĢ
ĠíıŃ ëıĻ
Ġì§Ħ ìłĦìĿ´
Ġ7 2
or y
ëĿ½ ìĿĦ
Ġë²ķ ìłģìľ¼ë¡ľ
ëıħ íķľ
ì¤ ĺ
ĠíĻĶ ê°Ģ
ĠìĺģêµŃ ìĹĲ
Ġì¹ĺ ë¥¸
ĠíķĺëĬĶ ëį°
Ġíıī ê°Ģë¥¼
Ġì²´ ë¥ĺ
ë©Ķ ìĿ¼
ë¶ģ íķµ
íĺķ ìłģìĿ¸
ìĽĮ íĦ°
ĠíķĻ ëĮĢ
ĠìĹ°êµ¬ ìĿĺ
ĠëıĮ ìĿĦ
Ġë°ľê²¬ ëĲĺìĹĪëĭ¤
Ġì§ĢëıĦ ìŀĲë¡ľ
ëłĪìĬ¤ íħĮ
ĠêµŃìłľ ìļ°ì£¼
Ġë³µ íķ©
Ġì¤Ħ ìĿĦ
Ġë¶Ģìĭľ ëĬĶ
ìłĪ ìĿĦ
ìĺ¬ ë¡ľ
íĿ Ķ
ĠìķĬìķĺ ìĬµëĭĪëĭ¤
it ed
Ġê°Ĳëıħ ìĿĦ
ĠíĻķìĿ¸ ëĲĺì§Ģ
ĠìĨį ëıĦë¥¼
ì»¤ ë²Ħë¦¬
ĠêµŃë¯¼ íĪ¬íĳľ
ĠìľĦì¹ĺ íķ´
ĠíĶĮ ëĿ¼
ĠìĿ¸ëıĦ ìĿĺ
ĠìĿ¸ëıĦ ë¶Ħ
Ġì¤ĳëĭ¨ ìĿĦ
ĠíķŃê³µ ìļ°ì£¼êµŃ
íķĺëł¤ ëįĺ
ĠíĻľëıĻ íķĺê³ł
ĠíĪ¬íĳľ ê°Ģ
ĠìĻ¸êµĲ ê´Ģ
ĠìĹ¬ëŁ¬ ë¶Ħ
ĠìłĦìŁģ ìĿ´
Ġê¸ī ìĬµ
ĠìľĦíĺĳ ìĹĲ
th er
´ë° ľ
ë°Ľ ìķĦ
Ġíľ´ ê°Ģ
Ġìĭ¶ ìĿĢ
Ġë°Ľìķĺ ì§Ģë§Į
Ġìļ©ìĿĺ ìŀĲë¥¼
ëķĮ ê¹Įì§Ģ
Ġìļ°ìĬ¹ íķľ
Ġê²°íĺ¼ ìĭĿìĿĦ
ĠëŁ°ëįĺ ìĿĺ
ëĲĺìĹĪ ì§Ģë§Į
Ġìķŀìľ¼ë¡ľ ëıĦ
ĠìĿ¼ìľ¼ íĤ¤ëĬĶ
ìĿĢíĸī ìĿĢ
ë§Įëĭ¬ëŁ¬ ë¥¼
ĠìłķëıĦ ê°Ģ
ĠëĶ¸ ìĿĺ
ĠìĿĳ ìĽĲ
Ġíĳ¸ ìĹĲ
ê°Ķëĭ¤ ê³ł
ìĹ°êµ¬ ìĨĮ
Ġìĺ¬ëĿ¼ ê°Ģ
ĠìĿ´ë¤Ħ ì§Ī
ĠìķĪë³´ ë¥¼
ĠìŀĲê¸Ī ìĿ´
ìĤ¬ê±´ ìĿ´
ìĤ¬ê±´ ìĿĦ
ĠíŀĪ íĭĢëŁ¬
ĠìĪĺìĭŃ ëªħìĿ´
ĠìĤ¬ëĿ¼ ì§Ħ
Ġê°ĢìŀĲì§Ģêµ¬ ìĹĲ
ĠìĬ¹ìĿ¸ íĸĪëĭ¤
Ġì¹ĺëŁ¬ ì§Ī
ĠìľĮë¦¬ìĹĦ ìĬ¤ëĬĶ
ĠìĿ¼ìĸ´ëĤĺ ê³ł
Ġíķ´ë¦¬ íı¬íĦ°
ĠíĶĦë¡ľìłĿ íĬ¸ë¥¼
Ġìľłì£Ħ íĮĲê²°ìĿĦ
Ġê´ ľì°®
Ġìĭľì¹´ê³ł ìĹĲìĦľ
Ġë¶Ħë¦¬ ì£¼ìĿĺ
ĠìłĦëŀµ ìĿĦ
Ġë¥ ´ë
ĠëĤ´ë¬´ë¶Ģ ëĬĶ
Ġë¬´ëł µ
íĽ Īëł¨
Ġì§ģë©´ íķľ
ì»¨ ëĵľ
ĠìľłëĮĢ ìĿ¸
ĠìĪĻ ë°ķ
Ġë§ĪìĿĮ ìĿ´
ĠìŀĲìĤ´íıŃíĥĦíħĮëŁ¬ ê°Ģ
ĠìķĦìĿ´ëĶĶ ìĸ´ë¥¼
Ġat t
Ġê¹Ĭ ìĿ´
êµĲíĻ© ìĿĢ
ë¥´ëį ĺ
Ġë¹Ħê³µ ìĭĿ
Ġë©Ķë¥´ ì¼Ī
ĠëıĻíĭ°ëª¨ ë¥´
Ġë§Īì¼Ģ íĮħ
ĠíħĮëĦ¤ ìĭľ
ĠëģĶ ì°į
A R
A ëĬĶ
s tit
w o
ì Į
Ġ å
ìĹĲ ìĿ´ì»¤
ëĬĶ ì§ĢìĹĲ
íķĺ ë§ĪìĬ¤
ë¡ľ ëª¬
ë¦¬ ì¼Ģ
íķ´ ìĹĲ
íķ´ ëĭ¬ëĿ¼ê³ł
ĠìĹ ł
ìŀĲ ìĬ¤
ĠìĿ´ ìłķ
Ġìľ µ
ìĿ¼ ìŀĲ
ìĿ¼ ë³´
ë¶Ģ ì¡±
Ġì§Ģ íıĲ
ĠìłĦ ëħĦ
ĠìŀĪ ê±°ëĤĺ
ëĮĢ íķĻêµĲ
ĠìķĦ ëĭ´
ĠìķĦ íĭĢ
Ġì£¼ ë¥ĺ
Ġê¸° íļį
Ġê¸° ì§Ģë¥¼
Ġì¤ĳ ëıĦ
ĠìĿ¸ íĺķ
íģ °
Ġíı ´ëĿ¼
ë¬¸ ìĿĢ
Ġë°ľ ëĭ¬
ĠìĿ¼ ê³ł
íĮ į
Ġëį ľ
Ġë¹Ħ ìķĦ
ëĭ¹ ìĹĲ
ëĭ¹ ìĭł
Ġìľł ìļ©
Ġìľł ìĦ¸ë¥¼
ìĦł íķľ
ë°Ķ ìĿĺ
ë°Ķ ìĿ¼
ĠëĤĺ ë¹ł
ìľł ê°ĢëĬĶ
ĠìĹ° ë§Ĳ
Ġëª¨ ìĪł
íĥĢ ìļ´
Ġë§Ī ì°°
ëĦ Į
ëł¥ ê³¼
Ġê³ł ìĪĺ
Ġê³ł ë¦´ëĿ¼
ìĹŃ ìľ¼ë¡ľ
ê°ľ ìĹĲ
Ġìļ° íİ¸
ìĭľê°Ħ ìĿ´
ĠìĥĿ ê²¨
Ġìŀ¥ êµĲ
ì°¨ ìĿ´
ë¶Ħ ê²½
Ġë¶Ī ë§Į
ëĭ¬ ëĿ¼ëĬĶ
Ġìĭ¤ ìĪĺ
ìĹĪ ëĬĶì§Ģ
Ġê°ķ ê°Ħ
Ġê°ķ íĸī
Ġíı¬ ë¡ľ
Ġíı¬ íĬ¸
ëª¨ ë¡ľ
Ġìŀ¬ ë¬´
ĠìĦľ ìĭł
Ġìĺ¬ ë¦¬ëĬĶ
ĠìļĶ íķľ
ĠìķĪ ëĵľ
ê¶Į ìĿĺ
ê¶Į ìĿĢ
Ġì¶Ķ ì²ľ
ĠíĻķ ìŀ¥
ĠìĻ¸ ì³¤ëĭ¤
Ġíİ Ģ
ëĦ¤ ìĨĮ
ìĦĿ ìĿĺ
ìĦĿ ìľł
ìĭ¬ ìŀ¥
er e
íĴĪ ìĹĲ
Ġíĸī ì§ĦìĿĦ
ĠëĲĺ ìĹĪëĭ¤ê³ł
Ġê´Ģê³Ħ ìŀĲìĿĺ
Ġì§ĳ íļĮìĹĲ
Ġt roop
ëĵ¤ìĹĲê²Į ëĬĶ
Ġëĵ¤ ë©°
ar s
Ġëª» íĸĪì§Ģë§Į
Ġë¦¬ ìĸ¼ë¦¬íĭ°
ë¯¸êµŃ ìĹĲìĦľ
ĠC l
Ġë³ĳ ìĤ¬ëĵ¤ìĿ´
ĠêµŃê°Ģ ìĿ¸
ĠìĤ¬ìļ© ëĲĺëĬĶ
Ġì§ģ ìĽĲëĵ¤ìĿĢ
ĠëłĪ ëħ¼
Ġë²Ħ ë§Ī
ĠìĿ¼ë³¸ ê³¼
Ġìĸĳ ë³´
Ġìĸĳ êµŃìĿ´
Ġê²½ìļ° ê°Ģ
Ġì·¨ íķĺê³ł
Ġì·¨ ê¸ī
Ġë¸Į ë¡ľ
Ġê¹ Ķ
´ëį ĺ
ĠêµŃìłľ ìłģìĿ¸
ĠêµŃìłľ ìĽĲìŀĲëł¥ê¸°êµ¬
ì²ľ ìŀ¬
ìµľ ì´Ī
Ġíĥľ ìļ°ê³ł
ëŁ¼ ë¹ĦìķĦ
Ġê°Ħ íĺ¸
ĠíĺĦìŀ¬ ëĬĶ
Ġíİĺ ìĿ´
Ġíİĺ íį¼
íĥĪ ë¦°
Ġëª¨ëĳĲ ìĹĲê²Į
Ġì¹ľ íĻĺê²½
ë²Ķ íķľ
Ġëĭ¬ëŁ¬ ë¡ľ
Ġìłķì¹ĺ ìĿ¸
Ġëĵ¤ìĸ´ ìĺ¨
Ġë³¸ ë¶Ģë¥¼
Ġìłĳ ìĪĺ
Ġì§Ħíĸī ëĲł
ĠëģĿ ê¹Įì§Ģ
Ġë¬´ìŀ¥ ìĦ¸ëł¥ìĿ´
ĠM inister
Ġì²« ëĤł
ì§ĢìĹŃ ìĿ¸
ìľĦìĽĲíļĮ ìĹĲ
ing s
ëĭ¨ì²´ ìĿĺ
ĠíķŃê³µ ìĿĢ
Ġìĥģíĥľ ëĿ¼ê³ł
Ġë£¨ ìĿ´
ĠíĤ ¨
ĠëıĮìķĦ ìĺ¬
ĠëĪĦ ë¦¬
ĠTV ë¥¼
ro w
Ġë³´ìĹ¬ ì¤Ģ
Ġëį°ìĿ´ ë¹Ĺ
ë°Ľ ì¹¨
Ġíİ¸ ì§Ģë¥¼
Ġê¸´ ìŀ¥ìĿ´
ĠíĶĦë¡ľê·¸ëŀ¨ ìĿ´
ĠíĶĦë¡ľê·¸ëŀ¨ ìĿĢ
Ġìļ©ìĿĺ ìŀĲëĵ¤ìĿĦ
Ġìĸ´ë¦° ìĿ´ë¥¼
Ġëħ¸ëł¥ íķł
ĠëĤ©ì¹ĺ íķľ
ĠëĤ©ì¹ĺ ë²Ķ
Ġì°¨ì§Ģ íķľ
Ġíħ ľ
Ġê±°ëŀĺ ëĲĲëĭ¤
ĠëıĪ ìĿ´
ĠíĸīëıĻ ìĿ´
Ġì°¸ê°Ģ íķľ
ĠìĪĺê°Ĳ ëĲľ
ĠìķĦìĭľìķĦ ìĿĺ
ĠíĮĲê²° ìĿ´
ĠíĻĺê²½ ìĹĲ
ĠìłĦíĪ¬ ë¥¼
Ġìķ¤ ëįĶ
Ġh as
Ġë²Įìĸ´ ì§Ģê³ł
Ġê°ķíĻĶ íķł
Ġë¶ĦìĦĿ ê°Ģëĵ¤ìĿĢ
ĠìľĦìĽĲíļĮ ìĿĺ
Ġ198 6
ìĸ¼ ë§Ī
ĠìĪĺìļ© íķł
Ġê¸°ëĭ¤ ëł¤
Ġë³´ìľł íķľ
ĠìłĦë¬¸ê°Ģ ìĿ¸
ìĺ¤ëĬĺ ëĤł
ĠìķĬìķĦ ëıĦ
ĠìĦ¼íĦ° ìĿĺ
Ġë³´ìĪĺ ì£¼ìĿĺ
Ġë§Īë¬´ ëĵľ
Ġë¶Ħìķ¼ ìĹĲ
Ġêµ¬ì²´ ìłģ
Ġë¶ĦìŁģ ìĿĦ
Ġì§ķìĹŃ íĺķìĿĦ
Ġì»¨ íį¼
ĠìłľìĻ¸ íķĺê³ł
Ġë¬´ìŀ¥ìĦ¸ëł¥ ìĿĺ
ĠìĻľ ê³¡
Ġìī¬ ìļ´
Ġì£¼íķľ ë¯¸êµ°
Ġì£½ìĿĮ ìĹĲ
ê°Ķ ìľ¼ë©°
ĠìĪĺë°ĺ ìĿĢ
ear ch
ab le
ĠìĤ¬ë¡Ģ ê°Ģ
Ġê½ ĥ
ĠìĹ°ëĿ½ ìĿĦ
ëĸ ¨ìĸ´
ub lic
ìĽĶëĵľ ì»µ
Ġê¸Ģë¡ľ ë²Į
ëĤ´ë ©°
ĠíħĮìĿ´íĶĦ ë¥¼
Ġëªħë°± íķľ
ĠAI G
ê°ĢìŀĲ ì§Ģêµ¬
Ġìĵ°ì´¨ ìĦ±
Ġëĭ¹ë¶Ģ íĸĪëĭ¤
Ġë¹ħíĨł ë¦¬ìķĦ
íģ´ëĿ¼íĺ¸ ë§Ī
ê½ ĥ
ëĤ´ë¬ ´ë¶Ģ
ĠAssoci ation
ĠEng land
6 4
6 7
C IA
c l
i ver
m y
ë ±Ģ
Ġ y
ĺ ëĭ¤
ìĦ ¹ìĬ¤
ë¥ ´ëł
ì§Ģ ìļ°
ìĦľ ë¹ĦìĬ¤
ë¦¬ íĶĦëĬĶ
ìĿ¸ ë¯¼
íķ´ ìĦľëĬĶ
ëł ģ
ĠëĮĢ ìłĦ
êµŃ ë¦½
ìĭľ ìĬ¤
ìĭľ ìŀ¥ìĹĲìĦľ
ê·¸ ëĿ¼
ê·¸ ì¤ĳ
Ġíķ ´ë°©
Ġê°Ģ ëıĻ
ìłľ ìŀĦìĬ¤
ìĪĺ ìĪł
Ġê²½ ê³Ħë¥¼
Ġì¤ĳ ìķĻìĿĢíĸī
Ġë³´ ëĭ¤ëĬĶ
Ġë³´ ê±´ë¶Ģ
ĠìĿ¸ ê¸°ê°Ģ
íļĮ ìŀ¥ìĿĢ
Ġì§ ľ
ìľĦ ìĦ±
ê´Ģ ê³¼
íģ¬ ë¦¬íĬ¸
ìļ° ëĵľ
ìļ° ìĦĿ
ĠìĨĮ ëħĦìĿ´
ĠìķĬ ê²łëĭ¤ëĬĶ
ë¯¸ ë¥¼
Ġìĺ¤ ìĬ¤ì¹´
ĠìĿĺ ìĤ¬ëĵ¤ìĿĢ
ìĨĮ ìĭľìĹĲ
Ġìłľ ìłķ
Ġíķĺ ëĵľ
Ġíķĺ ìĻĢìĿ´
ì¡° ìķ½
Ġëª¨ ìķĺëĭ¤
ĠëıĻ ë¶ģ
Ġìĺģ ìŀ¥
ëł¥ ìĿĺ
ë¬´ ê¸°
Ġê³ł ìĿĺ
ĠíĽĦ ì§ĦíĥĢìĺ¤
ê°ľ ìĿ¸
ê³µ ê²©ìĿĦ
Ġëĭ¹ ìĿĺ
Ġê²° íķ©
Ġìŀ¥ ë¹Ħ
ĠíĨµ ë³´
Ġìĭł ìĿĺ
Ġê±° ì¹ľ
Ġê±° ë¦¬ìĹĲìĦľ
´ëı ¼
ëĶĶ ìĸ¸
Ġìĭ¤ ìĪĺë¡ľ
ĠìĹĲ íĽĦëĵľ
Ġíı¬ íļį
ĠíĶ¼ íĬ¸
Ġì°¨ ìĿ´ë¥¼
Ġë¬¸ ìĦľë¥¼
Ġìĺ¬ ë¦¬ê³ł
ĠìļĶ ìĥĪ
Ġì§Ħ ë³´
ĠìŀĲìĭł ìĹĲ
ĠêµĲ ìłĦìĿĦ
Ġìŀĳ ê³¡
Ġëĭ¬ ëĿ¼ê³ł
Ġë¡ ±
ĠìĤ¬ë§Ŀ íķĺëĬĶ
ìĦĿ ë°©
Ġ7 4
Ġ7 8
Ġíĸī ìĦ±
ê°Ĳ ìĿĢ
or g
ëĤ´ ìĹĲ
Ġë¡ľ ëĵľë¦¬ê²Į
ĠëĿ¼ íĺ¸
ĠìĥĪ ë¡Ńê²Į
Ġë¦¬ ìļ°
Ġë¦¬ ë¸Į
Ġê´Ģëł¨ íķĺìĹ¬
Ġìķ¼ êµ¬
ĠêµŃê°Ģ ë¹Ħìĥģ
ĠìĺģíĻĶ ìĹĲìĦľ
Ġíĺĳ ëł¥ìĿĦ
Ġìĸ¸ ëįķ
Ġìĭľìŀĳ ëĲł
Ġê³µê²© íķł
ìłĢ ëĦĲ
ĠíħĮëŁ¬ ì§ĢìĽĲ
ĠìŀĦ ìĥģ
ê» ı
Ġìµľê³ł ì¹ĺë¥¼
Ġìµľê³ł ê²½ìĺģ
Ġìĸĳ íĤ¤
ĠìĦłê±° ê´Ģë¦¬
Ġì§Ģì§Ģ ìŀĲëĵ¤ìĹĲê²Į
ĠíĬ¹ ìĿ´íķľ
Ġë¸Į ëĿ¼ìĿ´ìĸ¸
íħĮ ë¦¬ìķĦ
íħĮ ëĭĪìĬ¤
ì²ľ ìĸµ
is e
ĠëĨĴ ìĿ´ìĿĺ
Ġì¢ħ ìĤ¬
ìĭľíĤ¤ ì§Ģ
ĠìĿ´ëŀĢ ìĿĦ
Ġo ut
ĠìłĲ ìľł
ĠìĿ´ìĬ¤ëĿ¼ìĹĺ ìĿĢ
Ġê°Ĳëıħ ìĥģ
Ġëĸ¨ìĸ´ ì§Ī
Ġëĵ¤ìĸ´ ìĻĢ
ëĤ¨ ë¶ģíķľ
ĠF RB
ĠM BC
ëĵ± ìĿ´
ĠP ro
ĠP PP
ĠìľłëŁ½ ê³¼
ĠìĿ¸ëıĦ ì£¼ìĿĺìłģ
ĠN BA
Ġë²łëĦ¤ ëĶķíĨł
Ġì¼Ģ ë¦¬
Ġëī´ìļķ ìĿĺ
Ġëī´ìļķ ì£¼
ĠëıĦìĭľ ë¡ľ
Ġìłľê³µ íķĺê³ł
ë¬´ë¶Ģ ëĬĶ
Ġëĭ¨ì²´ ë¥¼
ĠE x
ĠìĿ´ìĸ´ ì§Ī
ĠìĿ¸ìłķ íķĺì§Ģ
Ġíİ¸ ìķĪ
ĠìĿ´ë¦Ħ ìĿĺ
ĠíĶĦë¡ľê·¸ëŀ¨ ìĿĺ
Ġìļ©ìĿĺ ìŀĲëĬĶ
Ġì°½ ì¡°
ĠëıĻë¬¼ ìĽĲ
Ġìľłì§Ģ íķł
Ġê¸°ìĹħ ëĵ¤ìĿ´
Ġê¸°ìĨĮ íĸĪëĭ¤
ë§Įëĭ¬ëŁ¬ ìĿĺ
Ġê°Ī ëĿ¼
ĠìłĦì²´ ìĹĲ
ĠìĦłíĥĿ íķł
íĹĪ ë¦¬ì¼ĢìĿ¸
ĠëĤ¨ìķĦ ìŀĪëĭ¤
Ġíı´ ë¦¬
ĠìĿĺë¯¸ ê°Ģ
ìĤ¬ê±´ ìĹĲ
ìĸµëĭ¬ëŁ¬ ë¥¼
Ġìĭ¤íĮ¨ íķľ
ĠíŀĪ íĬ¸
Ġì§ĢìĨį ìłģìľ¼ë¡ľ
Ġê²½ìĺģ ì§Ħ
ĠìĿ´ìłľ ëĬĶ
ĠìĨ¡ ê¸Ī
ĠíĶĮë¡ľë¦¬ëĭ¤ ì£¼
ill ion
Ġê²Ģìĥī ìĸ´
ĠêµĲëıĦ ìĨĮìĹĲìĦľ
Ġë³µê·Ģ íķł
Ġë¶Ħìķ¼ ìĹĲìĦľ
ĠìłĦêµŃ ìłģìľ¼ë¡ľ
Ġìĸ´ë¨¸ëĭĪ ìĻĢ
ì§Ģê¸Ī ìĿĢ
ĠíĮĮìĹħ ìĹĲ
Ġìĭ¶ìĸ´ íķľëĭ¤
Ġìłĳì´ī ìĿĦ
ĠíĮĮê´ ´ëĲł
ĠìĽĢì§ģìŀĦ ìĿ´
ĠìĹ¬ìĻķ ìĿĺ
Ġë¶Ħëħ¸ ë¥¼
Ġê°¤ ëŁ°
Ġë¶ģê·¹ ê³°
ĠNA TO
ĠìķĮëłī ìĬ¤
Ġê½ ¤
ĠëĤĺëĪ ł
ĠíĶ¼ëŀį ëĲľ
Ġê¶Įê³ł íĸĪëĭ¤
Ġìļ°ì£¼ë¹Ħíĸī ìĤ¬
Âł20080 9
Ġëĭ¨ìĪľ íķľ
ĠëĴ· ë°Ľì¹¨
Ġë¡¤ ë§ģ
ĠìĬ¤íĶĦ ë§ģ
ĠíħĶëłĪ ë¹Ħ
ĠëłĪìĿ´ìĬ¤ ë¥¼
Ġê°ĢëĤľ íķľ
Ġê¸Īë©Ķ ëĭ¬ìĿĦ
ĠìĹ°ë°©ì¤Ģë¹Ħ ìłľëıĦìĿ´
eop le
ĠìľĦìĬ¤ ì½ĺìĭł
Ġê¸°ë» Ĳ
ĠêµŃìłľìļ°ì£¼ ìłķê±°
7 6
E X
N P
P resident
S p
T I
a id
a ir
r ation
t he
Â ´
ã Ģ
ë İ
Ġë ·
ìĹ ł
ìĿ´ ëĵł
íķĺ ëŁ¬
ìķ ī
ëĵ¤ ë³´ëĭ¤
ìĹĲìĦľ ë¶ĢíĦ°
ĠëĮĢ ê¸°ìĹħ
ĠëĮĢ ì£¼êµĲ
ìŀĲ ì§Ģ
ĠìĿ´ ìĻ¸
ìŀ¥ ì¹ĺ
ìĿ¼ ìĹĲìĦľ
Ġì§Ģ ìĪĺê°Ģ
ìķĦ íĭ°ìķĦ
ê³¼ ìłķ
ĠìĪĺ ëĿ½
ĠìĪĺ ì»·
Ġêµ ¿
ĠìłĦ ë¶Ģ
ëĮĢ ìĽĲëĵ¤ìĿĢ
ëį ¤
Ġì£¼ ìĿ¸ìĿ´
ë§Į ëªħìĹĲ
ĠìľĦ ê¸°ê°Ģ
Ġë§Ĳ ë¡ľ
Ġê¸° ì¡°
Ġê¸° ëĮĢë¥¼
Ġìĭľ íĮĲ
ìĪĺ ì¤Ģ
Ġìłķ ìľł
Ġì¤ĳ ë°ĺ
íķł ë§Įíķľ
ìłĦ ìĦł
Ġë°ľ ëł¹
Ġë°ľ ê¸ī
ë§Ī ì§Ģë§ī
Ġê³µ íķĻ
Ġê´Ģ ìłĲìĹĲìĦľ
Ġëĭ¤ ìĨĮ
íĸī ìłķ
ëĲľ ëĭ¤ëĬĶ
Ġìĺ¤ ë¥¼
ĠìĹ¬ ìĤ¬ê°Ģ
íĶĦ ëŀĳ
Ġì¡° ìĬ¹íĿ¬
ìľł ê¶Į
íĥĢ ìĬ¤
Ġë§Ī ìĿ´ìĬ¤
ë¬´ ê²Į
Ġê³ł ìĿ´ì¦Īë¯¸
ìĬµ ìĿĦ
ê²½ ìĿ´
Ġë°© ì¹ĺ
Ġìļ° ê°Ħëĭ¤
Ġê°ľ ìĦ¤
Ġê°ľ ìĦłìĿĦ
Ġëĭ¹ ìĿ¼
Ġë°Ķ íķĺë§Ī
ĠëıĦ ëįķ
Ġìŀ¥ ìĨĮìĹĲìĦľ
Ġìŀ¥ ë¹Ħë¥¼
ĠëĤ¨ ìŀĲìĿĺ
Ġë¬´ íģ¬
Ġêµ¬ ê²½
íĮĮ ìĿ´
íĮĮ ìĿĺ
Ġìĭł ìĤ¬
ìŀĳ ìľ¼ë¡ľ
ìŀĳ ëħĦ
Ġë°ĺ ìłĦ
ĠëĤ´ ëĬĶ
ĠëĤ´ ë¦¬
ĠìĤ¬ëŀĮ ê³¼
Ġíı¬ ì¸ł
ĠíĶ¼ ë¶Ģ
ĠíĶ¼ ìĭł
Ġìŀ¬ ë¬´ìŀ¥ê´ĢìĿĢ
Ġìŀ¬ ë¬´ìŀ¥ê´Ģ
ëį° ë²Ħ
ĠíĹ ĺ
ë²Ħ ê·¸ëĬĶ
ëĦ¤ ëįľ
ë²ł ë¦¬
ì²Ń ìĿ´
ì²ĺ ë¦¬
Ġë³´ëıĦ íķľ
Ġì°¸ ë°°
ëĬ¥ íķľ
ĠíĻĶ ìĹ¼
Ġìĭ¬ ë¬¸ìĿĦ
ĠêµŃê°Ģ ëĵ¤ìĹĲ
en ti
Ġìķŀ ìĦł
ìĬ¤íĥĦ ë¶Ī
Ġë¬¼ ê°Ģ
Ġê³µê²© íĸĪëĭ¤
Ġê²½ìłľ ìĦ±ìŀ¥
ĠìĤ¬ìļ© ìĿĦ
Ġíķľëĭ¤ ë©´
íį¼ ëĵľ
ĠíĬ¹ ìĤ¬ëĬĶ
Ġë°ķ ê²©
Ġë³µ ìĽĲ
Ġì¤Ħ ìĿ´ê³ł
Ġì¤Ħ ìĿ´ê¸°
ìĭľíĤ¤ ëł¤
ìĭľíĤ¤ ëĬĶëį°
ĠíķĦìļĶ íķł
ĠíķĦìļĶ ìĦ±ìĿĦ
ĠìĹĨëĭ¤ ë©°
Ġê¸°ìŀĲ ìĿĺ
Ġë³¸ ëĵľ
ĠíĻķìĿ¸ íķĺê³ł
ĠíĻķìĿ¸ íĸĪëĭ¤ê³ł
ĠëĶĶ íĬ¸ë¡ľìĿ´íĬ¸
Ġë²Ī ìĹŃ
Ġê°Ģì¡± ìĹĲê²Į
Ġë¸Ķ ë¦¬
Ġê´ĳ ìŀ¥
ĠíĸĪ ìĿĦ
Ġê°ģ êµŃ
Ġc om
Ġíĭ ¸
ĠìļĶì²Ń íķľ
ìħĺ ìĿĦ
ĠìłĪ ëıĦ
ĠìłĪ ìķ½
ĠíĮĲë§¤ ë¥¼
Ġê¸ī ê²©íŀĪ
ëłĮ ìĿĢ
ĠíıīíĻĶ ìłģìĿ¸
ĠìĿ´ìĸ´ ì¡Įëĭ¤
ĠëĤ¨ë¶Ģ ìĿĺ
Ġíĺ¸ì£¼ ìĺ¤íĶĪ
Ġì¸¡ ìĿ´
ĠìĿ´ìĹĲ ìķŀìĦľ
Ġìļ©ìĿĺ ìŀĲìĿĺ
Ġì°© ì·¨
Ġë§¥ ìºĶ
Ġë²Ķì£Ħ ìĹĲ
ĠìĤ¬íļĮ ìĹĲ
Ġê±°ë¶Ģ íķľ
Ġë°ĿíĺĶ ìľ¼ëĤĺ
ĠíĮĲê²° ìĹĲ
ë¯¼ì£¼ ëĭ¹ìĿĢ
un g
ĠìĪĺë°± ëªħìĿ´
ëł¸ ëįĺ
ĠíĹ¬ ë¦¬
am p
NA TO
ĠìķĮì¹´ìĹĲëĭ¤ ê°Ģ
ìĦ¼íĦ° ëĬĶ
ìĽł ëĭ¤ê³ł
ĠìĤ¬ìĥģ ìŀĲê°Ģ
ĠìłĦëĭ¬ íĸĪëĭ¤
ĠìĽ¨ ìĿ¸
Ġ198 7
Ġê³łëł¤ íķ´
ëªĩ ëªĩ
ĠëĶ°ëĿ¼ ìĦľ
Ġe lec
ĠìĿ¼ìĸ´ëĤĺ ì§Ģ
ìľĦìĽĲ ìŀ¥
ĠìķĦì¹´ëį°ë¯¸ ìĥģ
Ġë°Ķëĭ¤ ë¡ľ
ìĥģíĥľ ë¥¼
ĠíıŃëł¥ìĤ¬íĥľ ë¡ľ
Ġê¸°ì¤Ģ ê¸Ī
ĠëĪĦêµ¬ ëıĦ
Ġë¶ĪìķĪ íķľ
ĠìĤŃ ê°Ĳ
Ġê³µìĤ° ì£¼ìĿĺ
our n
Ġê¸°ë°ĺ ìĿĦ
Ġíĺķíĥľ ë¡ľ
Ġë¹Ľ ìĿĦ
ĠìĤ°ë¶Ī ìĿ´
Ġëĭ´ë°° ë¥¼
Ġëī ´ë
ĠíĹ¤ëŁ´ ëĵľëĬĶ
Ġê±°ì§ĵ ë§ĲìĿĦ
ìĭľìľĦ ëĮĢëĬĶ
Ġëª¨ë¥´ ì§Ģë§Į
Ġíģ´ëłĪ ìĿ´
ìĪĺìĤ¬ êµŃ
ĠëĮĢëĭ¤ ìĪĺ
Ġëĭ¨ìĪľ íŀĪ
ĠìĭľìĿ¸ íĸĪëĭ¤
Ġìĥģê³µ ìĹĲìĦľ
ĠìĻ¸ë¬´ ìĦ±
ìĸ´ë³ ´
Ġë¬´ì£Ħ ë¥¼
ĠíĿ° ìĥī
Ġì¤Ħê¸° ìĦ¸íı¬
Ġê²¨ëĥ¥ íķľ
ë°´ ëĵľ
Ġëĭī ìĬ¨
ëĥī íĤ¤
Ġì¹´ë¥¼ ë¡ľìĬ¤
ecret ary
ĠìĹĺë¦¬ë²łìĿ´ íĦ°
ëłĪìĬ¤íħĮ ë¡¤
4 4
6 5
F DA
M A
N L
N ew
e le
o x
o ol
¥ ê±°
Ġ -
íķĺ ìŀĲëĬĶ
ì§Ģ ë©´
ë¦¬ íķľ
ìĬ¤ íı¬
ìĬ¤ ì½ľ
ëĿ¼ ë©´
ëĤ ´ëł¤
ĠëĮĢ ëŀµ
ìŀĲ ë¥´
ìĭľ ê¹Įì§Ģ
ĠìĿ´ ë¥´ëł
ĠìĤ¬ íļĮìĿĺ
Ġëĭ ·
ë¶Ģ ëĮĢ
ĠìĪĺ ìĤ¬ê°Ģ
ĠìŀĪ ê¸°ë¥¼
Ġëª ½
ìĥģ ìĹħ
ìĸ´ ì¡Įëĭ¤
ê·¸ ëłĪ
ëĮĢ ì±ħ
ì£¼ ìĿ¼ìĹĲ
Ġë¯¸ ìħĢ
ë§Į ëªħìĿĦ
ë§Į ê°ľìĿĺ
ĠìľĦ ì¶ķ
Ġìĭľ ìĭłìĿĢ
Ġìłķ ìĭĿ
íĻĶ ëĲł
ëħĦ íĺķìĿĦ
Ġë³´ ìĥģìĿĦ
Ġë³´ ìĺĢëĭ¤ê³ł
ĠìŀĲ êµŃìĿĺ
Ġíķľ ëĭ¬
Ġìĸ Ģ
Ġë¶Ģ ë¥´ëĬĶ
Ġì§ Ŀ
ĠìĿ¼ íķł
ĠìĬ Ľ
ìļ° ë©°
ĠìĨĮ ìĭ¤
Ġëĭ¤ ëħ
Ġìľł íķ´
íı ¼
ë¹Ħ ìķĪ
ĠìĹ¬ ë¶Ģ
Ġì¡° ìŀ¥
Ġë¯¸êµŃ ìĿ¸ëĵ¤ìĿĢ
Ġìłľ ìĿ¼
ĠëĤĺ ìĦ°
ìĦ¸ ì§ĢëĬĶ
Ġíķĺ ëįĶëĿ¼ëıĦ
ì¡° ê±´
Ġëª¨ íĦ°
Ġìĺģ ìĽĲ
Ġìĺģ ê´ĳ
ì²´ ëĭĪëĬĶ
Ġë°© ìĭĿìĿĦ
ĠìĹĨ ìĹĪëįĺ
ĠìĥĿ ìĦ±
ĠëıĦ ìĤ´
ĠìĦ± ì§ģ
Ġìŀ¥ ê¸°ê°Ħ
ìĺĢ ìľ¼ëĤĺ
ĠíĮĮ ë°Ķë¡ľ
ê¸Ī ìĿĢ
Ġ6 7
Ġìłķë¶Ģ êµ°ìĿ´
Ġìĭł ë°ľìĿĦ
ê¹Į ìļĶ
ë¶Ħ ìĦĿ
ì¤ĳ ìĿ´ëĭ¤
Ġë°ĺ íĻĺ
Ġê°Ĳ ëŁī
Ġíı¬ ìľł
ëª¨ ë¥¼
ĠíĶ¼ ìķĦëħ¸
Ġìŀ¬ ëĬ¥
Ġì§Ħ ìĥģ
Ġìķ½ ê°ĦìĿĺ
Ġíİ Ħ
ĠìĬ¹ ìłĲ
Ġ19 50
Ġëªħ ëĭ¨ìĹĲìĦľ
Ġë¶ģíķľ ê³¼ìĿĺ
Ġíĺ¸ ë¥´ëª¬
Ġë²Į ìĿ´
Ġì¤ ¬
Ġ8 6
Ġë¡ľ ë§¨
ĠíķľêµŃ êµ°
ĠíĥĢ ê³Ħ
ĠíĥĢ ë°Ģ
Ġíķł ì§Ģ
ì¢ħ ìĿ´
Ġì²ĺ íĺķ
Ġìłģ ìĿĳ
Ġíĺĳ ìłķìĿĦ
Ġë¬¼ ê±´ìĿĦ
ĠíķĦ ìĪĺ
ĠA c
ĠëŁ ¼
íİĺ ëįĶ
ĠìŀĦ ê¸°ê°Ģ
ë¥ĺ ê°Ģ
ĠìķĦìĿ´ ëıĮ
ĠìĦłê±° ê°Ģ
Ġì·¨ íķĺì§Ģ
Ġì§ĢëıĦ ìŀĲëĵ¤ìĿĦ
Ġë©Ķ ëĵľ
ĠíĨł ëĮĢë¡ľ
ĠìĭľìľĦ ë¡ľ
ĠëĮĢìĦł ì£¼
ĠìĿ´ìĬ¤ëĿ¼ìĹĺ ìĿĦ
Ġì¢ĭ ëĭ¤
ìĦ¼ ìĿĢ
ĠìķĦëĭĪ ê³ł
ĠìĨĲ ìĭ¤
ĠìĨĲ ìĥģìĿĦ
ĠëĤł ìĿ´
ĠìĤ¬ê³ł ìĿĺ
ĠíĻķìĿ¸ íķĺëĬĶ
Ġë²Ī íĺ¸
Ġê°Ģì¡± ëĵ¤ìĹĲê²Į
ĠíĶĦëŀĳìĬ¤ ìĹĲìĦľ
ĠëģĿ ëĤĺëĬĶ
Ġìĸ» ì§Ģ
Ġ18 0
Ġì¹¨ ìĪĺ
Ġì¹¨ ë¬µ
íıī ìĿĦ
Ġë¶Ģìĥģ ìŀĲê°Ģ
Ġì¿ł ì¦Ī
ĠìĺĪìĥģ ëĲĺê³ł
Ġìĭ¤ìĭľ ëĲł
Ġë£¨ ìķĦìĸĦ
ĠëıĮìķĦ ìĺ¨
ĠëıĦìĭľ ë¥¼
Ġìļ°ëł¤ íķĺëĬĶ
Ġìŀ¡ ìĿĢ
ĠíĥĪëłĪë°ĺ ìĿ´
ĠìĪĺìĥģ ìŀĲìĿ¸
ìĹ´ ìĹĲ
ĠìĥĿìĤ° íķĺëĬĶ
Ġë³´íĺ¸ íķĺê³ł
´ë° ĺ
Ġëħ¼ìĿĺ íĸĪëĭ¤
Ġìĭ¶ ëĭ¤ê³ł
Ġìłľìŀĳ ëĲľ
ĠíĤ¤ ìĬ¤
íķĦ ëįĶ
ì¸µ ìĿ´
ì¸µ ìĹĲ
Ġìľłëªħ íķĺëĭ¤
us tr
ĠëĬĲ ê¼Īëĭ¤
Ġíģ¬ë¦¬ìĬ¤ íĭ°
Ġì°¸ìĹ¬ íĸĪëĭ¤
Ġìŀ¬íĮĲ ìĹĲ
Ġë°¤ ìĥĪ
Ġë¶ĢìĿ¸ ìĿ¸
Ġê³µê¸ī ìĿ´
ĠíĦ°íĤ¤ ìĿĺ
ìĬĪ íį¼
ĠìĽ¹ìĤ¬ìĿ´íĬ¸ ëĬĶ
Ġì§ķ ê³Ħ
ĠíļĮìĤ¬ ëĵ¤ìĿ´
Ġëª¸ ê°Ĵ
ĠìĽĮìĭ±íĦ´ ìĿĺ
Ġíį¼ ê±°ìĬ¨
Ġê¸°ê°Ħ ìĹĲ
ì±Ħ ê°Ģ
Ġê°ķíĻĶ íķĺê³ł
Ġìŀ¬ê°ľ íķł
Ġëĳĺ ì§¸
ĠìĹĶ íĦ°
ìĤ¬ê³ł ê°Ģ
ìŀĲíļĮëĭ´ ìĿ´
ĠíĸīìĤ¬ ìĹĲìĦľ
ëŁ¬ìĭľìķĦ ëĬĶ
Ġêµ¬íĺ¸ ë¬¼
ĠíķľëĤĺëĿ¼ ëĭ¹ìĿĢ
ĠìĿ¸êµ¬ ìĿĺ
Ġìĭľì¦Į ìĿĦ
ĠìĤ¬ëĿ¼ ì¡Įëĭ¤
ìĭľì¼ľ ìķ¼
ìĪĻ íķľ
ĠìĬ¬ ë¡ľ
ĠëĮĢë¹Ħ íķ´
Ġê¸°ì¤Ģ ìĿĦ
Ġìĭłë¢° ë¥¼
ĠìķĦë¬´ ê²ĥëıĦ
ĠìĻ¸ë¬´ë¶Ģ ëĬĶ
Ġcon t
ë¥´ëıĦ ê°Ħ
ĠìĭłìĨį íķľ
ĠìĬĪíį¼ ë³¼
ĠëĤĺëĪ ´ëĭ¤
Ġë¿ Įë¦¬
Ġë°Ķê¿ Ķ
ìŀĳìĹħ ìĿ´
Ġëª¨ë¥´ ê²łëĭ¤
ĠìĦľíķľ ìĹĲ
ĠíĿĺ ëŁ¬
Ġë¬´ìĤ¬ì½¸ ëĿ¼
Ġëļ ľ
iss ion
Ġíŀī ìĬ¤ìĿĺ
Ġìŀ¬íĻľ ìļ©
Ġìļ©ëĤ© íķĺì§Ģ
ìĹ¬ë¡ł ì¡°ìĤ¬
Ġìĥģê´Ģ ìĹĨìĿ´
ĠìĦľë¸Į íĶĦëĿ¼ìŀĦ
Ġì²łìłĢ íŀĪ
ĠëĿ¼ìĿ´ë²Į ìĿ¸
ĠìĺĲ ì¹ľ
Ġìĺ¤ì¼Ģ ìĬ¤íĬ¸ëĿ¼
ĠìķĮë°Ķ ëĭĪìķĦ
Ġìĸ´ëĳĲ ìļ´
Ġmilit ary
Ġì¹ĺìĨ Ł
ĠíĹ¬ë¦¬ ì½¥
¥ê±° ë£¨
I T
b e
h o
¡ ìĿĢ
ë ¿
Ġ .
Ħ ìĥĪ
ī į
į °
Ġì Łģ
ëĭ Ľ
ë¦¬ íŀĪ
ë¦¬ ìĬ¤ëĬĶ
ë§ ŀ
ìĬ¤ íĶĦ
ìĬ¤ íİłëĵľ
ëĿ¼ ë¡ľ
ëĿ¼ ëħ¸
ĠëĮĢ íħĮëŁ¬
ĠëĮĢ íļĮìĹĲ
ìŀĲ ìĭłìĿĺ
ĠìĪĺ ì¡±
ĠìĪĺ ìļĶìĿ¼ìĹĲ
ĠìłĦ íķ©ëĭĪëĭ¤
ìĻ ľ
ëĤĺ ìĿ´ì§Ģë¦¬ìķĦ
ìĸ´ ëĬĲ
ëĮĢ ìĦł
ì£¼ ê¸°
Ġë¯¸ ëģĦëŁ¬
ĠìķĦ ì§Ģ
ĠìķĦ ëĤĺ
ĠìķĦ ì¹¸
Ġê°Ģ êµ¬
Ġì£¼ ê°Ģê°Ģ
Ġë§Ĳ ëĿ¼ê³ł
Ġê¸° ë¶Ħ
Ġê¸° ìģ
Ġìĭľ íĤ¤
ìĪĺ ëĭ¨
Ġê·¸ ëĵ¤ìĹĲê²Į
íĻĶ íķĺëĬĶ
ëħĦ ëıĻìķĪ
ĠìŀĲ ìĤ¬
ĠìŀĲ ìĤ°ìĿĦ
êµ¬ ìĹĲìĦľ
ì¹ĺ ê¸°
Ġë°ľ ëłĪ
Ġë¶Ģ ìŀĳ
Ġë¶Ģ ì²ĺ
ìļ° ë¦¬ìĿĺ
ĠìĨĮ ëĭĪ
ĠìķĬ ê²łëĭ¤
Ġëĭ¤ ì§Ĳ
Ġë¹Ħ ìľł
ë¯¸ íķľ
Ġìľł íļ¨
ĠìĿĺ ìĤ¬ëĬĶ
ĠìĿĺ ë¬´ë¥¼
íĶĦ ìĥ¤
Ġì¡° íķŃ
ìĦł ê³¼
Ġì¹ ©
ë°Ķ ë¥¼
ë°Ķ íĿĲ
Ġìłľ ëıĦ
ì¡° ìĤ¬ë¥¼
Ġëª¨ íĹĺ
íĥĢ ì£¼
ĠëıĻ êµ´
Ġê³ł ë¯¼
ìķ¼ ëĭ¹ìĿ¸
ìĺ¤ íĶĦ
Ġê°ľ ê°Ģ
Ġíķ´ íĤ¹
ĠíļĮ ìĪĺ
ĠëĤ¨ ìĦľ
íĺ¸ ìĦ¸
ĠíĨµ ê·¼
Ġêµ¬ ê°Ħ
Ġêµ¬ íĺķ
Ġíģ Ĳ
Ġìĭł ì²ľ
Ġë¶Ī ìĸ´
Ġë¶Ī ëłĢëĭ¤
ì¹´ íĶĦë¦¬
Ġê±° ë¦¬ë¡ľ
Ġìĭ¤ ìĸ´
Ġìĭ¤ ìłģ
Ġë°ĺ ê²½
Ġë°ĺ êµ°ìĿĢ
ĠëĤ´ ë¡ľ
ĠëĤ´ ìĦ¸
íĭ° ìĿĺ
Ġíı¬ ìľĦ
ë²ķ ìĿĺ
Ġë¬¸ ìŀĲ
ĠìĦľ íķľìĿĦ
ì¦Ī ëĭĪìĬ¤
ĠíĺĦ ìĥģ
ĠêµĲ ìłĦìĿ´
ëį° ìĿ¼
ë¡ł ìĿĢ
ë¸Į ê°Ģ
Ġì£¼ìŀ¥ ìĿ´
ë²ł ë¥´
ìĸĳ ìĿ´
Ġêµ° ê³¼
ëĤ´ ìħĶëĦĲ
ĠëĲĺ ìĹĪìĬµëĭĪëĭ¤
Ġë²Į ìĿ¼
Ġë²Į ìĺĢëĭ¤ê³ł
Ġê´Ģê³Ħ ìŀĲëĵ¤ê³¼
ì²Ń ìĻĢ
ĠìĤ´ ìĿ´
ĠìĺģêµŃ ìľ¼ë¡ľ
ĠC D
ĠêµŃê°Ģ ëĬĶ
ĠìĿĮ ëŀĢ
ë©Ķ ìĿ¸
Ġëģ Ī
ìĿ´íĬ¸ ëĬĶ
Ġëī´ ìĬ¤ìĿĺ
ĠìĤ° ìĨĮ
ìĬ¬ ëŁ¬ëĬĶ
ĠìĹ°êµ¬ ê²°ê³¼
ĠìŀĦ ê¸°ë¥¼
Ġìµľê³ł ìľĦ
Ġìĸĳ ìŀĲ
Ġê²½ê¸° ìĿĺ
Ġì¡´ ê²½
ĠíĻĺ ìŀĲìĿĺ
ĠìļĶêµ¬ ìĹĲ
Ġë¸Į ë¡ľëĵľ
Ġì§ĢëıĦ ë¶ĢëĬĶ
´ëį Ķ
Ġì¤Ħ ìĿ´ëĬĶ
ë¨¸ ìĬ¤
ĠëĨĴ ìĿ´ê³ł
ëıĮ íĶĦ
Ġì§ĢìĽĲ íķľ
re d
Ġê¸°ë¡Ŀ íķĺë©°
Ġëĵľ ëłĪìĬ¤
Ġëĵ¤ìĸ´ ìĺ¤
Ġìļ© ìĿ¸
ĠíĮĶ ëłĪìĬ¤íĥĢ
ì£Ħ ë¡ľ
Ġë³¸ ìĦłìĹĲìĦľ
ĠìĨĲ íķ´ë¥¼
Ġì²Ń ëħĦ
Ġì²Ń ì¤ĳ
Ġê¶Į ë¦¬
ĠìŀĪìĹĪ ìĿĦ
Ġë¬´ìŀ¥ íķľ
ĠêµŃë¯¼ ìĿĦ
ĠN ational
ĠìĻķ ìŀĲ
ĠB l
Ġì¤ĳëĭ¨ íķĺê³ł
ĠìľłìĹĶ ìĿ´
íģ´ ë¦¬íĶĦ
Ġíģ´ë¦°íĦ´ ìĿĺ
Ġì¤ĳìļĶ íķĺëĭ¤ê³ł
Ġì°¨ëŁī ìĿĢ
Ġp ol
ìĺ¤ë°Ķë§Ī ê°Ģ
ĠìĦłìĪĺ ëĵ¤ìĿĺ
ĠL e
ë°Ģ ë¦¬
Ġ17 0
ê¹ Ķ
ĠìĽĮ íĦ°
ĠìĿ¸ìłķ íķł
Ġë³´íĺ¸ íķĺëĬĶ
Ġì²ľ ë¬¸íķĻ
Ġëį°ìĿ´ ë¹ĦìĬ¤
Ġìŀł ìĪĺ
Ġì´Ŀë¦¬ ìĹĲê²Į
ìº Ħ
Ġëª° ëŀĺ
ĠìĿ¸ì§Ī ëĵ¤ìĿ´
Ġëħ¸ëł¥ ìĿĺ
ëĪĦ ìĹĺ
ĠíķĺëĤĺ ìĿ´ëĭ¤
Ġê³µëıĻ ìľ¼ë¡ľ
Ġë§¥ ëıĦ
ĠìĻĢ ìĿ¸
Ġê²°íĺ¼ íķľ
Ġë°ĿíĺĶ ìĹĪëĭ¤
Ġì¹ľêµ¬ ê°Ģ
ì¼ĵ ìĿĦ
Ġìļ´ëıĻ ê°Ģ
ec h
Ġì§Ģë°© ìĿĺ
ĠìĹ°íķ© êµ°
ë§¨ ì²´ìĬ¤íĦ°
íı´ ìĿĢ
ĠëĬĺ ìĸ´ëĤł
ĠìĶ¨ ìĿĺ
Ġë§Īëł¨ íķł
Ġì½ĺ íħĲ
Ġì¤ĳìĭ¬ ìĹĲ
ë²łíĬ¸ ëĤ¨
Ġë¯¿ ëĬĶ
ĠìłĦìĦ¸ê³Ħ ìĹĲ
Ġìŀ¬ê°ľ ëĲł
ĠìĿ´ê³³ ìĿĦ
ĠëģĮ ê³ł
ĠìĹ¬ê°Ŀ ê¸°ëĬĶ
ìĸ´ê°Ģ ê³ł
ĠìĥģìĽĲìĿĺìĽĲ ìĿ¸
Ġì¡°ì¹ĺ ìĹĲ
Ġë¶ĢíĨµëł¹ ìĿ´
ĠìŀĳíĴĪ ìĿĢ
ĠëıĻìĺģìĥģ ìĹĲìĦľ
ĠëıĦë¡ľ ìĹĲìĦľ
ĠíĴį ëł¥
Ġê²¨ ìļ°
ĠìłĦë°ĺ ìłģìľ¼ë¡ľ
ëĮĢíĳľ íĮĢ
Ġì¢ĭìķĦ íķľëĭ¤
ĠëĤĺìĺ¤ ê³ł
Ġë¹Ħë°Ģ ë¦¬ìĹĲ
ĠìľĮë¦¬ìĹĦ ìĬ¤
Ġë¶ĦìŁģ ìĿ´
ĠìĿ´íķ´ íķł
ìĬ¤íĭ° ë¸Ĳ
ĠìĦłë°ķ ìĿ´
ĠìĤ¶ ìĿĺ
Ġëª©ìĨĮ ë¦¬
Ġë°ĶëŀĮ ìĿ´
ĠìŀĳìĦ± íķľ
Ġì¿łë¥´ëĵľ ì¡±
Ġìĺ¤íķĺìĿ´ìĺ¤ ì£¼
íĶĮë£¨ ìĹĶ
Ġìķ¨ë²Ķ ìĿĦ
ĠíĺĪ ìķ¡
Ġì§ĢíĤ¤ ê³ł
Ġíĳľìĭľ íĸĪëĭ¤
Ġì°©ìĪĺ íĸĪëĭ¤
Ġë°ĽìķĦëĵ¤ìĿ´ ì§Ģ
ìĽĮìĭ±íĦ´ ìĹĲìĦľ
ëĥĪ ìľ¼ë©°
Ġíķ´ë ªħ
Ġì£¼ëª© ìĿĦ
Ġì¹Ń ì°¬
Ġëĭµë³Ģ ìĿĦ
ĠìķłíĭĢ ëŀĢ
meric a
Ġë¬´ìĤ¬ì½¸ ëĿ¼ìĹĲìĦľ
ëĮ Ħ
Ġìĺ¤íĨł ë°Ķ
ĠìĿĢìĭł ì²ĺ
ĠìĽĲìĪŃ ìĿ´
Ġëĭ¤íģĲë©ĺ íĦ°ë¦¬
Ġëįķ ë¶ĦìĹĲ
ĠìĿĺìķ½ íĴĪ
Ġex p
ĠìĹ´ëĮĢ ìĦ±
Ġì¼Ī ë¦¬
ĠìĥĺíĶĮ ìĿĦ
econ om
ĠìĭľëĤĺ ë¦¬ìĺ¤
4 2
A E
M y
O bama
a z
g ency
m s
t y
ª ©
ë ®
ë ¼Ī
Ġ en
Į íĹ¨
ìĿ´ ë©´
ê° ¤
ê³ł ëĬĶ
ìĿĺ ìĽĲ
íķľ ë¯¸
ë¡ľ ë§Ī
ì§Ģ ê¸°ëıĦ
ì§Ģ ìĪĺëıĦ
ê°Ģ ëĶĶ
ìĦľ ëıĦ
ìĬ¤ ë¦¬
Ġê° Ķ
ìĽ ¹
ëĤ ¨ìĿĦ
ìľ¼ ëł¤ëĬĶ
ĠëĮĢ íıŃ
ìĤ¬ ìłĪ
ĠìĿ´ ë¥´ê¸°
ĠìĤ¬ ìĿ¸
ĠìĤ¬ ìłģìĿ¸
ìŀ¥ ì¹ĺë¥¼
ìĿ¼ ìĿ¸
ĠìĪĺ ìĪĺ
ĠìĪĺ ìĹħìĿĦ
ĠìłĦ ìĨ¡
ê·¸ ìĻĢ
ëĮĢ ê¸°
ìłģ ìĭŃìŀĲ
ĠìķĦ ëĭĲ
Ġê°Ģ ëįĺ
Ġê°Ģ ê²°
ĠìľĦ ìĽĲìĿĢ
ìĪĺ ì¶ľ
ì° Į
ĠìĿ¸ ìĭł
ĠìĿ¸ ìĭĿìĿĦ
êµ¬ ì¡°ìĤ¬
ìĦ± íķľ
Ġë¶Ģ ìĭ¤
Ġê³µ ìĤ¬
ĠíĮ ľ
ĠìĿ¼ ë¡ľ
ëĭĪ íį¼
ĠìĨĮ ìķĦ
ĠìĨĮ ì´Ŀ
ĠêµŃ íļĮìĹĲ
ĠêµŃ ë¬´ìŀ¥ê´ĢìĿ´
Ġëĭ¤ ë¦¬ê°Ģ
Ġìĺ¤ ëłĮì§Ģ
Ġìľł ìĪĺ
Ġìľł ëŀĮ
Ġìľł ìĸ¸
Ġìľł ê°ĲìĿĦ
ĠìĿĺ ìĭĿ
ìĨĮ ìĭľ
ìĨĮ ëĵĿ
ëĲĺ ì§Ģë§Į
Ġì¡° ëªħ
ìĦł ìľ¼ë¡ľ
Ġìłľ ëĦ¤
ìĦ¸ ë¥´ë¹ĦìķĦ
ĠìĹ° ìŀĦ
ĠìĹ° ë£Įë¥¼
Ġíķĺ ìĻĢ
Ġíķĺ ìĤ°
ì¡° ì¹ĺ
ì¡° ìĤ¬ìĹĲ
Ġëª¨ ìľ¼
ìĽĶ ê³¼
ĠìĦł ì§Ħ
ĠìĺĪ ìĸ¸
Ġê³ł ìĸ´
ìĺ¤ ìĹ¼
ìĭľê°Ħ ìĹĲ
Ġíķ´ ê°Ģ
Ġíķ´ ìĻĶëĭ¤
ìĭ¤ ìłľë¡ľ
ĠëıĦ ìĭ¬
Ġìŀ¥ ì¹ĺë¥¼
ĠëĤ¨ ê²¼ëĭ¤
Ġë¬´ ìĤ°
Ġë¬´ íļ¨
íĮĮ ìĹħ
Ġìĭł ìĽĲìĿ´
êµĲ ìĿĺ
ĠìĹĲ íĭ°ìĺ¤íĶ¼ìķĦ
Ġë°ĺ ì²´ìłľ
ĠëĤ´ ê²Į
ìĹĪ ëĬĶëį°
Ġê°Ĳ ìĤ¬ë¥¼
Ġìŀħ ìĸ´
Ġìŀħ ëł¥
íĭ° ë¥¼
ë°ľ ìĿĺ
Ġíı¬ ìŀ¥
Ġì°¨ ìĹĲ
Ġë§¤ ëª°
ĠíıŃ ë¡ľ
ĠìļĶ ìĿ¸
ĠêµĲ ê³¼
ĠêµĲ ìĪĺê°Ģ
ëį° ìŀĲ
Ġì¶ľ ìŀ¥
ë²Ħ ìĬ¤
Ġì£¼ìŀ¥ íĸĪì§Ģë§Į
ĠìĽĲ íĻĶ
ë²ł ìĬ¤ëĬĶ
Ġëªħ ìľ¼ë¡ľ
Ġ7 1
er n
Ġë²ł ìĸ´
ìĸĳ ìĿĺ
Ġêµ° íķ¨
ĠìĺĪìłķ ëĲĺìĸ´
Ġíĺ¸ ìłĦ
ìĿ´ëĿ¼ ëıĦ
Ġ8 2
Ġ8 5
Ġë°ľíĳľ ìĹĲ
Ġì§ĳ ë¬´
ĠëĳĲ ë²Īì§¸
Ġë²ķ ìłķìĹĲ
ì²Ń ìĿĺ
ĠíĥĢ ìĿ´ìĸ´
ĠíĽĦë³´ ìĹĲê²Į
ĠíĻĶ íķ´
ĠíĮĲ ëĭ¨ìĿĦ
Ġëıħ ëıĦ
Ġìĭľìŀĳ ëĲĺëĬĶ
Ġë¬¼ ìĹĪëĭ¤
Ġë¬¼ ë¦¬íķĻ
al th
ìĤ´ ìĿ¸
ĠA f
ĠíħĮëŁ¬ ìĿĺ
ĠíħĮëŁ¬ ìĻĢìĿĺ
ĠíħĮëŁ¬ ëĭ¨ì²´
íĺķ ìĹĲ
íİĺ ë¥´ë²łì¦Ī
ĠìĹŃ ìĦ¤
ĠìĹŃ ìĤ¬ìĿĺ
Ġì´Ī ê³ł
ĠëĴ¤ ì§ĳ
ëŁ½ ê²Į
Ġì¹´ íĦ°
Ġì§Ģì§Ģ ìľ¨ìĿĦ
Ġì·¨ íĸĪëĭ¤
íĺĳ ìłķìĿĦ
Ġë¸Į ëŀĺëĵľ
ë¥´ë©´ ìĦľ
ĠíĻľ ìĦ±íĻĶ
ë¨¸ ëĬĶ
Ġì§ĢìĽĲ íķĺê¸°
Ġì¹ľ ìĦł
Ġëĵľ ë¬¼
íĿ ĳ
ì´Ŀ ìŀ¥
ëĤ¨ ìķĦíĶĦë¦¬ì¹´
ĠëĶĶ ì¹´íĶĦë¦¬
ì»¤ ê°Ģ
ĠêµŃë¯¼ ëĵ¤ìĿĦ
ĠìĽĶ ìĬ¤íĬ¸ë¦¬íĬ¸
ĠI s
ĠN K
ê³³ ìĿĺ
Ġì£¼ë¯¼ ìĿĢ
Ġê°ģ ì¢ħ
ĠìĺĪìĥģ ë³´ëĭ¤
ĠíħĮ ìĿ¼ëŁ¬
ĠìłĪ ê°Ĳ
Ġë°Ģ ë¦¼
ĠëĪĦ ë¥´ê³ł
ĠìłĦìŁģ ìĹĲìĦľ
Ġê°ľë°ľ ëıĦìĥģ
Ġì£¼ì§Ģ ìĤ¬ìĿĺ
Ġíŀĺ ìĿ´
Ġìŀł ìĿĦ
Ġíİ¸ ì§Ģ
Ġw ar
Ġë³´ìķĪ ê´Ģ
ĠìŀĲìĤ´ ìĿĦ
Ġê±°ëŀĺ ê°Ģ
ĠìĻĢ ìĦľ
Ġìĺ¤ëĬĺ ëĤł
Ġì°¸ê°Ģ íķł
ìĥ¤ëĿ¼ íı¬
ĠëĪĪ ë¬¼ìĿĦ
ec ur
ĠíĻĺê²½ ìĿĦ
ëł¸ ìĬµëĭĪëĭ¤
Ġë©´ ìĹĲìĦľ
Ġë©´ ìłľ
Ġë°±ìķħê´Ģ ìĹĲ
ĠëĶ¸ ìĿ¸
ëĮĢíĨµëł¹ ìĿ´
ĠíĮ¬ ëĵ¤ìĹĲê²Į
ĠìłľìķĪ íķľ
Ġë¯¿ ëĬĶëĭ¤
ĠëķĮë¬¸ ìŀħëĭĪëĭ¤
ìĽł ëįĺ
Ġë§¨ íķ´
ĠìĭľìĦ¤ ìĹĲ
Ġì±ħìŀĦ ìŀĲìĿ¸
ìŀĲíļĮëĭ´ ìĹĲìĦľ
ĠíĸīìĤ¬ íķł
ir l
Ġë¶Ģë¶Ħ ìĿĢ
Ġë¶ĢíĨµëł¹ ìĿĺ
Ġíĺĳëł¥ íķł
ĠìĦłì¶ľ ëĲľ
ĠìĤ¬ëŀĳ íķĺëĬĶ
ì¹´ë ©Ķ
ìĬ¤ëŁ½ ëĭ¤
Ġë§º ìĿĢ
Ġê¼ ½
ĠìĨĶ ì§ģ
ight s
íĸĦ ìĿĢ
Ġëª©ìĨĮ ë¦¬ë¡ľ
ìĬ¤íĨł ëĭĪìķĦ
Ġê³µê³µ ìŀ¥
Ġì¦Ŀìĸ¸ íĸĪëĭ¤
Ġìŀ¥ëĤľ ê°ĲìĿĦ
ĠëĮ ĵ
ĠíĻľìļ© íķł
ĠìľłìłĦ ìŀĲ
our t
Ġëª©ìłģ ìĿĢ
Ġê¸°ë°ĺ ìľ¼ë¡ľ
Ġê°ķíĥĢ íķľ
Ġë¶ĦìľĦ ê¸°
Ġíĺģ ìĭł
ĠìĨĮê°ľ íĸĪëĭ¤
ĠìĿ´ë¡ľ ìį¨
ĠìľłìĦ¸ ìĹĲìĦľ
ĠCEO ëĬĶ
ie f
ĠëıĻë°ĺ íķľ
Kore an
ìĤ¬ìļ° ëĶĶ
êµŃë°© ë¶ĢëĬĶ
ĠíŀĲëŁ¬ ë¦¬ê°Ģ
ĠëĪĦêµ° ê°Ģê°Ģ
Ġë¦¬ì¡° íĬ¸
Ġì¼Ħ íĦ°íĤ¤
ĠëĳĺëŁ¬ìĭ¸ ê³ł
Ġìĭ« ìĸ´
ĠCent er
ë²łì»´ ìĿĢ
ĠìĭĿìĿ´ ìļĶ
ĠìĹ´ëł¸ ëįĺ
Ġagain st
ĠìĿ´ë¸ĮëĿ¼ íŀĺ
ĠíħĮëŁ¬ì§ĢìĽĲ êµŃ
Ġë©Ķëĵľ ë²łëį°
6 1
9 5
D P
G H
N C
N BC
U V
U n
d er
i o
o k
r an
r ans
w ard
Ģ ëĭ¤ê³ł
ìĿ´ ìĹĲëĶ°ëĿ¼
íķĺ ìĺĢìľ¼ë©°
ê°Ģ ë¦¬
Ġìķ ĵ
ìĿ¸ ì¹ĺ
ìĿ¸ ì§Ī
ëĵ¤ ìĹĲìĦľ
íķ´ ì£¼ëĬĶ
ê¸° ìłģìĿ¸
ĠëĮĢ ê°Ģ
ĠëĮĢ ìĤ¬ê°Ģ
ìŀĲ íĤ¤
ìĭľ ê²½
ĠìĿ´ ë¡Ģ
ĠìĿ´ ìĬ¤íĥĦë¶Ī
Ġìĺ µ
ĠìĤ¬ ìĽĲìĿĦ
ĠëĤ «
Ġì§Ģ ëĤ¸
ĠìĪĺ ì¹ĺë¥¼
ĠìłĦ ìŀĦ
ìĻ ģ
ìĥģ ìĬ¹
ìłķ ìľ¼ë¡ľ
ìłķ VS
ìłģ ìĿ´ìĹĪëĭ¤
ĠìķĦ ëĵ¤ìĿĺ
Ġê°Ģ ìĦľ
Ġê°Ģ ëĿ¼
Ġê°Ģ ê¸°
Ġì£¼ ì¹ĺìĿĺ
ìłľ ìĿ¸
íķĺëĬĶ ì§Ģ
Ġìĭľ ëıĦë¥¼
ìĪĺ ì²ľ
ìĪĺ ìĪłìĿĦ
Ġìłķ íĨµ
Ġìłķ ë³´ê¸°
Ġìłķ ê·ľ
Ġìļ ´ë°ĺ
Ġì¤ĳ ìĥģìĿĦ
ëħĦ ì§¸
ĠìĿ¸ ëł¥
ĠìĿ¸ ëĤ´
ìłĦ ìĿ¸
êµ¬ ë¡ľ
ë¬¸ ìłľê°Ģ
Ġë¶Ģ ë¥¸
Ġê³µ ê¸°
ëĭĪ ë¥¼
Ġê´Ģ ìłĪ
Ġëį ´ë²Ħ
ĠìĨĮ íĻĶ
Ġëĭ¤ ëħĢ
ëĭ¹ ìĭłìĿĢ
Ġìĺ¤ ê³ł
Ġìĺ¤ ë¥´
Ġìľł ë¬¼
Ġìĥģ íĮĮìļ¸
Ġì´ Ľ
Ġì¡° ë§Įê°Ħ
Ġ3 50
ìĦ¸ ëł¥ìĿĦ
ĠìĹ° ëł¹
ĠìĹ° ë¦½
Ġëª¨ ë¦¬
Ġíĥ ĵ
íĥĢ ë¡ľ
Ġë§Ī ëĿ¼ëıĦ
ĠëıĻ ìľłëŁ½
íĳľ ëĬĶ
íĺĦ ìłķVS
ìķ¼ ë§Į
Ġìµľ ìĦłìĿĺ
ìĭĿ ëŁī
ê³µ ìłķ
Ġê²° íķ¨
Ġê²° ìĭ¬ìĿĦ
Ġíķ´ ì²´
ĠìĦ¸ íĬ¸
ĠìĦ¸ ë¹Ħ
ĠìĦ¸ ê·ł
ĠëıĦ ìļĶ
ĠëıĦ ëĶĶ
Ġìŀ¥ ì¹ĺ
Ġìŀ¥ ìĨĮë¡ľ
Ġì´Ŀ ë¦¬ìĹĲ
ĠíĮĮ ìļ´ëĵľ
íı¬ ë¡ľ
Ġêµ¬ íķł
Ġêµ¬ íķĺê¸°
Ġíģ ´ë¦°
Ġëħ¸ ëįĺ
Ġìĭł ë¬¸ìĹĲ
Ġìĭ¤ ì§ģ
Ġë§Į ëĤ¨
ĠìĤ¬ëŀĮ ëĵ¤ìĹĲ
ĠìĤ¬ëŀĮ ëĵ¤ëıĦ
íĭ° ëĵľ
Ġíı¬ ê´Ħ
ĠìĿ´ë² ł
ì½Ķ íĬ¸
ĠíĺĦ ëĮĢìĿĺ
ĠìķĪ ëĤĺ
Ġì§Ħ ëĭ¨ìĿĦ
in o
ĠìĿ´ëĿ¼íģ¬ ë¡ľ
ĠìĿ´ëĿ¼íģ¬ ëĤ´
Ġì¶Ķ ì¶ľ
ë¡ł ìĿĦ
ëĳĲ ëĬĶ
ëĳĲ ë¥¼
Ġì£¼ìŀ¥ ìĿĢ
ĠìĽĲ ìŀ¥ìĿĢ
ĠìĬ¹ ìļ©
íĶ¼ ëĭĪìĸ¸
Ġëªħ ìĹĲ
Ġëªħ ëĭ¨ìĹĲ
Ġíĸī ìĤ¬ëĬĶ
Ġíĸī ìĤ¬ê°Ģ
ìĸĳ êµŃ
Ġì¦Ŀ ìĭľìĿĺ
ìĸ´ë ľ¨
Ġì§ĢìĹŃ ìĿ´ëĭ¤
ĠëĲĺ ë©´ìĦľ
Ġëį° ìĿ¼ë¦¬
Ġì§ĳ íļĮ
Ġt ra
ĠíĬ Ģ
Ġëª© ìłģìĿ´
Ġëª© ìļĶìĿ¼ìĹĲ
ĠíĥĢ íĺĳ
Ġë°° íĦ°
Ġëª» íķĺë©´
Ġ9 00
ëıħ ë¦½
ĠíĻĶ ìĥģìĿĦ
ĠêµŃê°Ģ ìłķë³´
Ġìķŀ ëĭ¹
ĠìĿ´ìĥģ íķľ
ĠìłĢ ëĦĲ
ĠìłĢ íĿ¬
ìĿ´íĬ¸ ë¥¼
ĠA S
Ġíģ¬ ëĭ¤
Ġíģ¬ ê³ł
Ġê³Ħíļį ìĿĺ
ĠìĹŃ ìłĦ
ĠìŀĦ ë°ķ
Ġì¡°ìĤ¬ íķĺê¸°
ĠíĶĦë¡ľ ëĵĢ
Ġë°ķ íħĮë¦¬ìķĦ
Ġë¹ĦëĤľ íķľ
Ġì¤Ħ ë¦¬
ìµľ ì§Ģìļ°
ìĽĢ ìĿ´
ëıĮ ìĿ´
Ġë§ŀ ìķĺëĭ¤
Ġê²Į ë¦¬
Ġì§ĢìĽĲ ìĹĲ
ìŀĪ ê³ł
Ġëª¨ëĳĲ ë¥¼
Ġëĵľ ëĿ¼ìĿ´
¸ëĭ¤ íķĺë¥´
ĠìłĲ íĶĦ
Ġì°¾ ìķĺëĭ¤
ĠìĤ¬ìĿ´ ë²Ħ
ic k
Ġìĭľê°Ħ ìĹĲ
ĠëĶĶ ìĹĲ
ĠìĿĢ íķĺ
Ġë¹Ħíĸī ê¸°ìĹĲ
ĠìŀĪìĹĪ ê¸°
ëĵ± íķľ
ĠëĶ° ë¥¼
Ġì¹¨ íĪ¬
ĠìĿ´ìļ© íķĺê³ł
ĠíĮĮíĤ¤ìĬ¤íĥĦ ìĹĲ
ĠíĦ° ëľ¨
Ġëī´ìļķ íĥĢìŀĦ
ĠíĬ¸ ë¡ľíĶ¼
ëı¼ ìŀĪëĭ¤
ë¸Ķ ëŀľëĵľ
ë¸Ķ ëłĪìĸ´
Ġì¤ĳìļĶ ìĦ±ìĿĦ
Ġìłķë³´ ê°Ģ
ĠìļĶì²Ń íķĺëĬĶ
Ġìĸ¸ê¸ī ìĿĢ
ìĺ¤ë°Ķë§Ī ìĿĺ
ĠíķĺëĿ½ íĸĪìĬµëĭĪëĭ¤
ĠíķĺëĿ½ ìĦ¸ë¥¼
Ġìłľê³µ íĸĪëĭ¤
km ë¥¼
Ġë³´ìĹ¬ ì¤Ħ
ĠìĥģìĬ¹ ìĦ¸ë¥¼
ĠìĿ¸ìłķ íķľ
ĠìĤ¬ë¬´ ìĭ¤ìĿĦ
ĠëıħìĿ¼ ìĿ¸
ëĲĺìĹĪëĭ¤ ëĬĶ
Ġìłķì±ħ ìĿ´
Ġì´Ŀë¦¬ ë¡ľ
Ġíľ´ ìĬ¤íĦ´
Ġëħ¸ëıĻ ìŀĲëĵ¤ìĿ´
Ġì°½ ë¦½
Ġì°½ ê¸°ëĿ¼ìĿ´
Ġëħ¸ëł¥ ìĹĲ
Ġë°ĸ ìĿĺ
ĠíķĺëĤĺ ê°Ģ
Ġê²½ìŁģ ìŀĲìĿ¸
Ġë¶ģë¶Ģ ìĹĲìĦľ
ur n
et y
Ġìľłì§Ģ íķĺëĬĶ
ĠìĽ¹ìĤ¬ìĿ´íĬ¸ ìĹĲìĦľ
ĠìĿ¼ìľ¼ ì¼ľ
ĠíĹ¬ ê¸°ë¥¼
Ġë©´ ìĹŃ
íŀĲ íĬ¼ìĿĢ
Ġìľłê¶Į ìŀĲëĵ¤ìĿĢ
ĠíļĮìĿĺ ê°Ģ
Ġê²ª ìĹĪëĭ¤
ìĦ¼íĦ° ìĹĲìĦľ
ë¡Ń ê³ł
íĥķ ì¿ł
ĠíĻķë³´ íķł
Ġë°°ìļ° ìĿ¸
ĠìĿĺë¯¸ ë¥¼
Ġ198 2
Ġ198 8
Ġìłľì¶ľ íķł
Ġë©Ķìĭľ ì§Ģ
ìī¬ ëĬĶ
Ġë¶ĢíĨł ìĿĺ
Ġê·¸ë£¹ ìĿĺ
´ëĲĺ ê³ł
ĠìĬ¬ íĶ
ĠëĬ¥ ëł¥ìĿ´
Ġë¯¸ëŀĺ ìĿĺ
ĠìŀħìĽĲ íĸĪëĭ¤
ĠëĮĢë²ķ ìĽĲìĿĢ
ìķ¤ ìł¤ëłĪìĬ¤
TO N
ĠíħįìĤ¬ìĬ¤ ì£¼
ĠëĬĲëĤ Ģëĭ¤
ëĮĢíķĻ ìĿĺ
ĠìŀĦë¬´ ëĬĶ
ĠìµľìłĢ ì¹ĺë¥¼
Ġì§ĢíĤ¤ ê¸°
Ġìŀ¥ë¡Ģ ìĭĿìĹĲ
Ġë°´ ëĵľ
íģ´ë¦¬ íĶĦëĬĶ
Ġë¶ķê´ ´ëĲľ
Ġìĸ´ëĶĶ ìĦľ
ĠìļĶë¥´ëĭ¨ ê°ķ
ĠíĥĿ ìĭľ
ìľĮë¦¬ìĹĦ ìĬ¤ëĬĶ
ĠíĹ¤ì¦Īë³¼ ëĿ¼
AS H
ê¸°ë¡Ŀ ìĿĦ
ĠìĹ´ë¦°ìļ°ë¦¬ ëĭ¹
Ġíľ´ëĮĢìłĦ íĻĶ
Ġì²¨ ëĭ¨
Ġê²½íĸ¥ ìĿ´
Ġì½Ķëģ¼ ë¦¬
Ġëħ¸ë¥´ ìĽ¨ìĿ´
ĠëĲĺëıĮ ìķĦ
ĠìĿ´ëĵĿ ìĿĦ
rou p
Ġê¸Ģëŀĺ ìĬ¤
ĠëĮĢëĮĢ ìłģìĿ¸
ĠëıĻê³Ħ ìĺ¬ë¦¼íĶ½
ĠíĴįë¶Ģ íķľ
Ġì²© ë³´
Ġë¬´ìĬ¹ ë¶Ģë¥¼
ĠìĪĺë¥ĺ íĥĦ
Ġì§Ģì§ĢìĦłìĸ¸ ìĿĦ
ìĹ´ë¦° ìļ°ë¦¬
ĠìĹī ëį©
ëŃ Ħ
ĠìĹ°ë°©ì¤Ģë¹ĦìłľëıĦìĿ´ ìĤ¬íļĮ
íĺĦìłķVS ìµľì§Ģìļ°
9 1
A T
A X
D S
M P
N orth
i le
n er
o ve
p ro
w ay
© ĺ
¼ íĦ°
í ī
Ġ Z
Ġ econom
ìĿĺ ìķ½
ìĿĺ ìĤ¬ë¥¼
ì§Ģ ìĬ¤
êµ ¿
´ë Ŀ½
ìĿ¸ ëį°
íķ´ ë¡ľ
ëĿ¼ íĮĮ
ëĿ¼ ìĿ´íĬ¸
ìŀĲ ì¹ĺ
ìŀĲ ë¯¼
ìŀĲ íĿĲ
ìĤ¬ ë©´
ìĭľ ìŀ¥ìĹĲ
ìĥ ¬
ë³ į
ë³ ´ëĤĺ
ìĿ¼ ì§¸
ìĿ¼ ìĹĲëıĦ
ìĿ¼ ë³´ê°Ģ
Ġëĭ ¿
Ġì§Ģ ìłĲìĹĲ
ìķĦ ëĤĺ
ëŀ ¬
ĠìłĦ ìĽĲ
ëĤĺ ëĭ¬
ìłķ ìłģìĿ¸
ìĸ´ ìłľ
ê·¸ ë¥¼
ĠìķĦ ëĿ¼
Ġê°Ģ íķł
ĠìľĦ íĥľ
Ġë§Ĳ íķĺë©´ìĦľ
ì² ĻìĿ´
Ġê¸° ìŀĲëĵ¤ìĿ´
Ġê·¸ ê³³ìĹĲìĦľ
Ġë°Ŀ íŀĲ
Ġì¤ĳ ê³Ħ
ëħĦ ìĹĲëıĦ
ĠìĿ¸ ê³Ħ
ĠìŀĲ ìĦľ
ĠìŀĲ ìĦ¸ë¥¼
ĠìŀĲ ë¥´ëĭ¤
Ġíķľ ì¸µ
êµ¬ íĺ¸
ë¬¸ ìĿĺ
ê¸ ĭ
Ġë°ľ ìłĦìĿĦ
Ġë°ľ ëłĮ
Ġë°ľ íļ¨
íĨµ íĻĶ
ë§Ī ëĿ¼
ë§Ī íĬ¸
ĠìĿ¼ ìłķìĿ´
ìľĦ ìĻĢ
ìľĦ ìķĪ
ìľĦ ê¸°ìĹĲ
ëıĻ ìĿĺ
íģ¬ ìĹĲìĦľ
íĮ ½
ìļ° ë¡ľ
Ġëĭ¤ ìĪĺìĿĺ
ë¯¸ ê°Ģ
ë¯¸ ìĤ¬ìĿ¼
íĸī ìĿĢ
Ġìĺ¤ íĶĦëĿ¼
Ġìľł ìŀħ
ĠìĿĺ êµ¬
ëĲĺ ëįĺ
Ġì¡° ìĨį
ìĦł ìĿ¼
Ġìłľ ìĿĺ
ì¶ ¤
ĠëĤĺ ëħ¸
ĠëĤĺ ìĿ´ìĹĲ
ì¡° ìĹĲ
ì¡° ë¡ľ
Ġìĺģ ìĥģìĿĦ
ë¬´ ê°Ģë²ł
ĠëĮĢíĨµëł¹ ëıĦ
Ġê³ł ë¬´
Ġê³ł ì§ĳ
ê²½ ë¹Ħ
ĠìĬ¤ ëħ¸
ê°ľ íĺģ
Ġë°© íĻĶ
Ġë°© ìĭĿ
Ġê°ľ ìĦ±
ĠìĹĨ ê¸°
ĠíļĮ ìĥī
ĠíļĮ ëıĻìĿĦ
ìĭ¤ ë¦¬ìķĦ
ĠìĦ± ìĤ¬
Ġìŀ¥ ê±°ë¦¬
ĠíĮĮ ëŀĢ
ĠëĤ¨ ë¯¸
ĠëĤ¨ ëħĢ
íĺ¸ íķľ
ĠíĨµ íĸī
Ġêµ¬ íĥĢ
Ġìłķë¶Ģ êµ°ê³¼
Ġìĭł ìŀ¥
Ġìĭł ìĽĲ
íķĺê¸° ëĬĶ
ë³Ģ íĺ¸
ĠìĹĲ ëĦ
ĠëĤ´ ìĿ¼
200 2
Ġê°Ĳ ê¸°
Ġìŀħ íķĻ
Ġíı¬ ìĬ¤íĦ°
ĠëķĮ ê°Ģ
Ġì°¨ ìĽĲìĹĲìĦľ
Ġìŀ¬ íĻķìĿ¸
ĠìĦľ ë¡ľë¥¼
Ġì¦ Ī
Ġìĺ¬ ë¦´
ì¦Ī ìĹĲ
ë²Ī ìĹĲ
ì§Ī ëŁī
ĠìķĪ íĨłëĭĪìĺ¤
Ġì§Ħ ëĭ¨
Ġì§Ħ íĿĻ
Ġë© ´ë°Ģ
ê²¬ ìĿĦ
in s
ìĺĢëĭ¤ ëĬĶ
ë¡ł ìĿ´
ë¡ł ìĿĺ
´ëł Į
ĠìĻ¸ ì¶ľ
ë¸Į ë¡ľ
ë¸Į ë£¨
Ġíİ Ģëĵľ
ëŀĢ íŀĪ
ìĭ¬ ìľ¼ë¡ľ
ìĸĳ íĿ¬
ìĸ´ë ¶
Ġê´Ģê³Ħ ëĬĶ
Ġë¹ µ
ëħ¸ ë²¨
ĠëĳĲ ëª©
ĠíĥĢ ê²°
Ġëĵ¤ ìĿĦ
Ġë°° ë¥¼
Ġë°° ìĥģ
Ġë°° ê¸ī
Ġìķ¼ ëĭ¹ìĿĺ
Ġê³¼ ìĭľ
Ġì¹ĺ ê³ł
Ġë³ĳ ìĹĲ
Ġë³ĳ ìĽĲìĿĦ
Ġì²´ ìłľ
ìĤ´ ìĿ´
ë³ĳ ìĿĺ
ë³ĳ ìĿĢ
Ġìĸ´ë ĳ
Ġëī´ ìºĲìĬ¬
ëĭ¬ëŁ¬ ìĿĺ
Ġê³Ħíļį íķľ
Ġì¡ Į
ĠìĥĿê°ģ íĸĪëįĺ
íķĺëĭ¤ ë©°
ĠìĦłê±° ëĬĶ
Ġì§Ģì§Ģ ìľ¨
Ġì·¨ íķ´
Ġì·¨ ëĵĿ
ëłĪìĿ´ ìħĺ
Ġë©Ķ ëª¨ë¦¬
ìķł ìŀĲ
íħĮ ìĿ¸
Ġë°©ë¬¸ ìĿ´
ì§ĳ ìĿ´
Ġë¯¸êµ° ìĹĲ
Ġì¢ħ ìĿ´
Ġì¶© ì¡±
ì¦Ŀ ê¶Į
Ġê¸°ë¡Ŀ íķĺê³ł
tion s
ì´Ŀ ìŀ¥ìĿĢ
ĠìĥĿíĻľ ìĹĲ
ëĤ¨ ìķĦ
Ġíķ©ìĿĺ ê°Ģ
ĠìĤ¬ê³ł ìĹĲ
ĠìĨį íķ´
Ġë°± ìķħê´ĢìĿĢ
ì§ĢìĹŃ ìľ¼ë¡ľ
ĠíĮ¨ íķľ
Ġëī´ìļķ ìĹĲ
ëī´ ì§Īëŀľëĵľ
Ġíķ´ê²° ì±ħìĿĦ
Ġê°ģ ìŀĲ
íħĮëŁ¬ ë²Ķ
ĠíħĮ íĹ¤
ĠìĦłìĪĺ ëĵ¤ìĿĦ
ĠìķĶ ìĬ¤íĬ¸ë¡±
ĠíĪ¬íĳľ íķł
Ġìĸ¼ ë£©
ent s
ĠìłĦìŁģ ìľ¼ë¡ľ
ìŀĲë¡ľ ìĦľ
ìĭ± ê°Ģíı¬ë¥´
Ġìłķìĥģ ëĵ¤ìĿĢ
Ġëĭ¨ì²´ ìĹĲ
Ġì°¸ìĦĿ íķ´
ĠìĥĿìĤ° íķł
Ġìĺģíĸ¥ ëł¥
ĠìľĦíĺĳ íĸĪëĭ¤
Ġìļ°ë¦¬ ëĭ¹
Ġìĵ° ìĹ¬
Ġíĭ° ë²³
ëĮĢìĿĺ ìĽĲ
Ġë°Ľìķĺ ìľ¼ëĤĺ
ĠìĿ¸ì§Ī ëĵ¤ìĿĺ
ì¸µ ìĿĦ
Ġì´īêµ¬ íķĺëĬĶ
Ġê²½ìŁģ ìĹĲìĦľ
ë´ī ìĿĦ
ĠìŀĲìĤ´ íķľ
Ġíģ¬ë¦¬ìĬ¤ íĭ°ìķĦ
Ġê·ľëª¨ ëĬĶ
Ġìĭľë¯¼ ëĵ¤ìĿĢ
Ġìŀĥ ê³ł
Ġë§ĪìĿĦ ìĹĲ
Ġê°ĲìĨĮ ë¥¼
ĠìĤ¼ ë¦¼
Ġë§¡ ê²Į
Ġë§¡ ìķĺëįĺ
ì¤Ħ ê¸°
ĠìłĦë§Ŀ ìĿ´
ë¨¼ ìĿ´
íķľêµŃ ê³¼
Ġìŀ¥ê´Ģ ê¸ī
ì°¸ ëª¨
ĠëĲĲ ê³ł
Ġì¶Ķìłķ íĸĪëĭ¤
Ġìłľì¡° ìĹħ
ĠìĹ°ê¸° íĸĪëĭ¤
ĠìĦłìĸ¸ íķľ
Ġì± Ļ
ĠìĬ¤íİĺìĿ¸ ìĿĺ
ĠëģĮ ëł¤
ĠëĤ¨íİ¸ ìĿĺ
op en
ĠìĭľìĬ¤íħľ ìĿ´
Ġì°¬ ìĤ¬ë¥¼
íĹĮ ë²ķ
ê¹Ģ ìĸĳíĿ¬
Ġëįĺ ì¡Įëĭ¤
ĠìĤ¬ìĹħ ìĹĲ
Ġëĭ¹êµŃ ê³¼
ĠíŀĪ ìĬ¤
ĠìĪĺìĭŃ ìĸµ
ĠíĨłë¡ł íļĮ
íĿ¬ ìĥĿ
ĠëĽ° ìĸ´ëĤľ
ĠìĦ¤ì¹ĺ ëĲľ
Ġìłķê¶Į ìĿ¸ìĪĺ
Ġì°¨ë¡Ģ ìĿĺ
Ġì°¨ë¡Ģ ë¡ľ
ĠíĥĢìĿ´ ê±°
ĠìłĦíĨµ ìłģ
ĠìĹ´ì°¨ ê°Ģ
ĠìĤ¬ìŀĦ íĸĪëĭ¤
ĠìĤ¬ë¬´ì´Ŀ ìŀ¥ìĿ´
Ġêµ¬ë§¤ íķł
Ġì¶Ķì§Ħ íķĺê³ł
ĠìĭĿëŁī ìĿĦ
Ġì§ĦìĪł ìĿĦ
ĠìĿ´ëŀĺ ë¡ľ
Ġê·¼ì²ĺ ìĹĲ
ìķ¤ ëĵľ
Ġíŀĺëĵ¤ ëĭ¤
Ġë§º ê³ł
all y
ìĥģíĥľ ê°Ģ
ëĤ© ì¹ĺ
Ġë¥ ĺ
Ġëĵ£ ì§Ģ
ĠìĿĺíĺ¹ ìĹĲ
ĠìķĦëĵ¤ ìĿ¸
ĠìĹĲëĵľ ìĽĮëĵľ
íĥĪëłĪë°ĺ ìĿĢ
Ġë¶Īê³¼ íĸĪëĭ¤
Ġê°¤ ëŁŃ
ant s
Ġìĩ¼íķĳ ëª°
Ġë¬´ëĮĢ ìĹĲ
ëĦ¤ìĿ´ ë£¨
NASA ëĬĶ
ĠëĮĢìĤ¬ ê´ĢìĿĢ
Ġìĺ¬ëŀĲ ìľ¼ë©°
ĠíĹ¤ëŁ´ ëĵľ
ĠìĿĮëª¨ ë¥¼
íĶĦëłĪ ëĵľ
ĠíļĮê²¬ ìĿĦ
Ġë´¤ ëĭ¤ê³ł
Ġë§¤ì¼Ģ ìĿ¸ìĿĦ
Ġë°©ì§Ģ íķĺê¸°
ark et
íĬ¸ëłĪìĿ´ ìĸ´ìĬ¤
Ġìĭ¤ì§Ī ìłģìĿ¸
Ġë°Ķëĭ¥ ìĹĲ
ĠìĿ¸ëªħ íĶ¼íķ´
ĠëĿ¼íĮĮ ìĹĺ
ë³´ê±´ ê¸°êµ¬
Ġë°ĺë°ķ íĸĪëĭ¤
Ġìĺ¨ìĭ¤ ê°ĢìĬ¤
ĠìĦ±ì¶Ķ íĸī
ë¤ ¼
ìĬ¤ì¿ł ëĭĪ
ING TON
ì© Į
ìĹĲëĦĪ ì§Ģ
ê¶ Ĳ
Ġtroop s
ĠìķĦì¹¸ ìĨĮ
ê°ĢëĶĶ ìĬĪ
ëį°ìŀĲ ëĦ¤ìĿ´ë£¨
ASH INGTON
B N
C D
C DC
a x
f er
g er
h ite
£ ê³ł
© ķìĭľì½Ķ
ë ķħ
ħ ëĭĪëĭ¤
ê³ ±
ìĿ´ ëĭ¬
ìĿ´ ì§ĳíĬ¸
ì§Ģ ê±°ëĤĺ
ìĦľ ìĹĲëĶ°ë¥´ë©´
íķ´ ìĹĲìĦľ
íķ´ ìł¸
ëł µ
ĠëĮĢ ë§ĮìĿ´
ìĽĲ ëĵ¤
Ġì§Ģ íĤ¬
Ġì§Ģ ëĭĮ
ìķĦ ìĬ¤
ìĸ´ íĬ¸
ì£¼ ë©°
Ġë¯¸ ì¹ľ
Ġê°Ģ ì¶ķ
Ġê°Ģ ìłķìĹĲ
Ġì£¼ ë¯¸
ë§Į ìĿ¸
ĠìľĦ ê¸°ë¡ľ
Ġê¸° ìĬµ
Ġê²½ ëł¥ìĿĦ
íĻĶ íķĺê¸°
Ġë³´ ëĵľ
ĠìŀĲ ë°Ķ
êµ¬ ê°Ħ
ë³´ ë¡ľ
ë³´ ìĪĺ
Ġë°ľ ìĿ´
Ġë°ľ ìĤ¬ë¥¼
íĨµ ê³Ħ
ë§Ī ëĶĶ
Ġê³µ ìĽĲìĹĲìĦľ
ê´Ģ ëĵ¤ìĿ´
íĮ Ł
ĠìķĬ ìŀĲ
ĠìĹ¬ ëĭ¹
ĠìĹ¬ íĮĮë¡ľ
ĠìĹ¬ ëıĻìĥĿ
ĠìĿĺ ìĦĿìĿĦ
Ġìĥģ ìĨį
ëĲĺ ê²Į
ë°Ķ ìļ°
ĠëĤĺ ìĻĶ
ĠìĹ° ìķĪ
ĠìĹ° íľ´
Ġíķĺ ë¯¸ëĵľ
Ġëª¨ ë¡ľ
Ġëª¨ ë°ĶìĿ¼
Ġë§Ī ìķ½ìĿĦ
ĠëĮĢíĨµëł¹ ê³¼ìĿĺ
Ġê³ł ëıħ
ìĭĿ ì¦Ŀ
ë°© ìĹĲìĦľ
ĠìĬ¤ íħĶ
ĠìĬ¤ íĥĪë¦°
ĠíĽĦ ìĹĲëıĦ
ĠíļĮ íĶ¼
ĠìĦ¸ ëĿ¼
ĠìĦ± ê²½
ĠìĦ± ëªħìĿĢ
ĠìĦ± ìłģìĿĦ
Ġì´Ŀ ìķĮ
íĺ¸ íħĶ
Ġêµ¬ ìĤ¬
ë§Ŀ ìĿ´
íŀĪ ê³ł
ìļ´ ìĿĦ
ì¤ĳ ìķĻìĿĢíĸī
Ġê±° ëĳĶ
ê°ģ íķľ
ĠìĤ¬ëŀĮ ëıĦ
Ġë§¤ ì£¼
Ġë§¤ ìĪĺ
ì§Ī ëŁ¬
ĠêµĲ ìłĦìľ¼ë¡ľ
Ġì¶Ķ ê²©
Ġì¶ľ êµŃ
Ġëĭ¬ íķľëĭ¤
ĠìĬ¹ ë¶Ģ
Ġëªħ ì¹Ń
ë¥´ë ĶĶ
Ġêµ° ëĮĢê°Ģ
ìĸ´ë Ĩĵ
Ġíĺ¸ íĻĶ
Ġ8 000
Ġë¶Ħ ìĹ
Ġë¡ľ ëĶķ
Ġë¹ Ĺ
ĠìĦ¤ ê³Ħ
ĠíĿ ©ìĸ´
Ġëĭ¨ ìĸ´ë¥¼
ĠíĥĢ ì§Ģ
íĦ´ ìĿĢ
Ġë°° íĦ°ë¦¬
Ġíķł ìķĦë²Ħ
Ġ9 3
Ġ9 9
ëĥ ĲìĿĺ
íĮĲ ë§¤
ĠíĨµíķ´ ìĦľ
ĠìĺģêµŃ ìĿĢ
ĠêµŃê°Ģ ì£¼
ìķħ íķľ
Ġìĭľìŀĳ íķĺëĬĶ
al s
ĠìĤ¬ìļ© ëĲĺê³ł
ìĽĮ ìłľëĦ¤ê±°
ĠìĹŃ ëĮĢ
ì±ħ ìĹĲ
Ġì¹´ ì§Ģëħ¸
Ġê²½ê¸° ëıĦ
íĺĳ ìĥģ
ëłĪìĿ´ ëĵľ
ĠìļĶêµ¬ íķł
ìĺĪ ë°©
ĠíĨł ë§Ī
ĠíĨł ëģ¼
Ġì¤Ħ ìĿ´
Ġìļ´ íĸīìĿĦ
Ġê±¸ ìĹĪëĭ¤
Ġë§ŀ ê²Į
ëĳ ĳ
at ch
Ġì¶© ê²©ìľ¼ë¡ľ
Ġëĵľ ë¦½ëĭĪëĭ¤
ĠëĤ´ë ¹Ħ
Ġì§Ī íĻĺìĿĦ
ì´Ŀ ë¦¬
Ġíķ©ìĿĺ ëĬĶ
Ġìļ°ì£¼ ìĦłìĿ´
ĠìĻĦ ê³µ
ĠíĻķìĿ¸ ëĲľ
ĠM ar
ĠM ed
ĠëŁ¬ìĭľìķĦ ìĻĢ
Ġìĸ» ëĬĶ
Ġê³µê°ľ íķł
Ġìķķ ë°ĶìĬ¤
ĠíĶĮ ëłĪ
ê·¹ ìĿĦ
íĮĢ ìĿĺ
ĠB M
ĠB e
Ġì¤ĳëĭ¨ ëĲĲëĭ¤
Ġíģ´ë¦°íĦ´ ìĿĦ
ĠëĮĢë¶Ģë¶Ħ ìĿĦ
Ġê°Ļ ìĬµëĭĪëĭ¤
Ġìŀ¡ ìķĺëĭ¤
Ġíĸ¥ íķĺê³ł
Ġë¨¸ ë¬´
Ġìķħ ìĺģ
ĠìľĦíĺĳ íķĺëĬĶ
Ġê±´ê°ķ ìĿĦ
ĠìĿ¸ê·¼ ìĦľ
ĠìĿĺìĽĲ ëĵ¤ìĹĲê²Į
Ġíľ´ ìĸĳ
ĠìĤ´íķ´ íĸĪëĭ¤ê³ł
Ġëŀ ¨
Ġê³µíķŃ ìĿĢ
Ġëħ¸ëıĻ ëĭ¹
ì¸µ ìĿĺ
Ġê²© ë¦¬
Ġê²© ëıĮ
íı° ìĿĦ
Ġê¸¸ ìĹĲ
ê¸´ ëĭ¤
ĠR oh
Ġë§¥ ì£¼
ĠëĨĵ ìĿĢ
Ġê³¼íķĻ ìŀĲ
Ġì»´íĵ¨íĦ° ê°Ģ
Ġë¶ģë¶Ģ ìĿĺ
Ġê¸Īì§Ģ íķĺê³ł
ëĲĺìĹĪ ëĬĶëį°
ĠíĮĲê²° ìĿĢ
ĠìĨĮë¹Ħ ìŀĲëĵ¤ìĿ´
ĠëĭĪ ìĬ¤íħĶ
ĠìĿ´ë£ ©
Ġê²Ģì°° ìĿĺ
Ġì§Ģë°© ìĹĲìĦľ
ĠíĻķìĭ¤ íķĺì§Ģ
ìĿĢíĸī ìĿ´
Ġëª¸ ìĿ´
Ġë¯¸ìĸĢë§Ī ìĿĺ
Ġê¸°ê°Ħ ìĿĦ
Ġh ave
ĠëĩĮ ë¬¼
Ġì¦Ĳ ê±°
ĠìĭľìĬ¤íħľ ìĿĢ
ĠíıŃíĥĦíħĮëŁ¬ ë¥¼
ĠìķĦíĶĦê°ĢëĭĪìĬ¤íĥĦ ìĹĲ
Ġìĸµ ë§Įìŀ¥
Ġëħ¹ ìĥī
ì²ł ëıĦ
Ġì§ĢìĨį ëĲł
Ġì¶ĶëĿ½ íķľ
Ġê°ĢìŀĲì§Ģêµ¬ ë¥¼
Ġìłķìĭł ê³¼
´ëĲĺ ëĬĶ
ĠìĤ¬ìŀĦ íķł
Ġëªħëł¹ íĸĪëĭ¤
ìĤ¬ë¡ľ ìĦľ
Ġíĺ¼ëŀĢ ìĹĲ
ĠíĻĺìĺģ íķľëĭ¤
Ġìĸ´ë¨¸ëĭĪ ê°Ģ
Ġê²½ì°°ìĦľ ìĹĲ
Ġë¸ĮëĿ¼ìļ´ ìĿĢ
ĠìĥĿì¡´ ìŀĲ
ĠêµŃíļĮìĿĺ ìĤ¬
Ġë¬´ëĦĪ ì§Ħ
Ġë¬´ëĦĪ ìł¸
Ġëĭ¨ê³Ħ ìĹĲ
Ġì§Ħì¶ľ íĸĪëĭ¤
ĠíĨ ¤
Ġë¶Ģë¬¸ ìĹĲìĦľ
ĠìĦľëªħ íķľ
Ġê·¸ëŀĺ ë¯¸
ĠíıŃíĴį ìľ¼ë¡ľ
Ġìĸ¸ìłľ ëĤĺ
ĠìĤ°ë¶Ī ë¡ľ
Ġë²łì»´ ìĿ´
ĠìĿ¸ì¢ħ ì°¨ë³Ħ
Ġê¿Ī ìĿĦ
ëĭ¤ìļ° ì¡´ìĬ¤
Ġë¦¬ì²ĺëĵľ ìĬ¨
Ġíģ¬ë¡ľ ìķĦíĭ°ìķĦ
Ġê¸°ì¡´ ìĿĺ
ĠìĤ¬ëĥ¥ ê¾¼
ĠìľĦìķĪ ë¶Ģ
ĠìĪ« ìŀĲ
Ġì½ĶìĨĮë³´ ìĿĺ
ĠëĤŃ ë¹Ħ
Ġê·¼ë³¸ ì£¼ìĿĺ
íĳ¸íĭ´ ìĿĢ
ĠíĶ¼ëĿ¼ë¯¸ ëĵľ
Ġìĭľëĭ¬ ë¦¬ê³ł
ĠëĿ¼ìĬ¤ë²łìĿ´ê±° ìĬ¤
Ġëĭ¥ íĦ°
TS E
ĠëĶĶìĬ¤ ì»¤ë²Ħë¦¬
ĠìĿ´ìĤ°íĻĶíĥĦ ìĨĮ
Ġëĭ¤ìļ´ ë¡ľëĵľ
ëĲ¨ ìĹĲëĶ°ëĿ¼
ìķķëĳĺ ëĿ¼
min ist
Ġë¯¸ëĵľ íķĦëįĶ
ĠìĿ´ë¥´ê¸° ê¹Įì§Ģ
ecur ity
6 8
A A
W orld
b le
e v
l am
t ain
w w
Ġì ¥
Ġê »
ëĬĶ ì§Ģë¥¼
íķĺ ìĽĲ
íķĺ ìļ°ìĬ¤
ë¦ ĩ
ì§Ģ ëĤĺ
ìľ Į
ë¦¬ ìķ¼
ìĿ¸ ëĵ¤ê³¼
ìĬ¤ ìĽ¨ëį´
ĠëĮĢ ëĭ¨
ìŀĲ ë¦¬
ìĤ¬ ìļ°ìĬ¤
ìĭľ ëĵľ
ìĭľ ìŀ¥ìĿĢ
ìĭľ ìŀ¥ìĿ´
ìĭľ ìľĦë¥¼
ĠìĿ´ ê²¨
ĠìĿ´ ìĿĺë¥¼
ĠìĤ¬ íĥķ
ë¬ ´ë
Ġìľ Įë¦¬
ìĿ¼ ë³´ëĬĶ
Ġì§Ģ ëĭĪ
Ġì§Ģ ë¶Ħ
ìķĦ ìĿ´ê°Ģ
ĠìłĦ ìłģìľ¼ë¡ľ
ĠìłĦ íķĺë©°
ëĤĺ ê·Ģ
ìłķ ì±ħìĿĦ
ìłģ ìĿ´ì§Ģ
Ġë¯¸ ë§Ŀ
ĠìķĦ ëģ¼
Ġê°Ģ íķĺê³ł
Ġê°Ģ ìĬ¤ë¥¼
ĠìľĦ ìĹĲìĦľ
ĠìľĦ ë²ķ
ĠìľĦ íĹĮ
Ġë§Ĳ íĸĪì§Ģë§Į
Ġê¸° ì´Ī
Ġìĭľ ìłĲìĹĲìĦľ
Ġìĭľ ìķłíĭĢ
Ġìłķ ìĺ¤
ëħĦ ìĿĢ
ìłĦ ìĭľ
ĠìŀĲ ë°±
ì¹ĺ ë£Į
íĦ° ìĬ¤ëĬĶ
íļĮ ìĤ¬ê°Ģ
ĠíĮ ©
ê³Ħ ìĹĲìĦľ
íģ¬ ë£¨
ìķĪ ë³´ë¶Ģ
íĮ ©
ĠìĨĮ ë¦¬ê°Ģ
Ġë¹Ħ ë¡Ŀ
ë¯¸ ëĦĲ
ë¯¸ êµ°ìĿĺ
Ġìĺ¤ íģ´ëĿ¼íĺ¸ë§Ī
ĠìĿĺ ìĭĿìĿĦ
Ġìĥģ ìĽĲìĹĲìĦľ
ë©´ ìĿ´
ë°Ķ ìĹĲìĦľ
Ġìłľ ìķĪìĹĲ
ìĦ¸ ì²Ń
ìĥĿ ì¡´
Ġíķĺ ëĿ¼ê³ł
Ġëª¨ ë¥´ê³ł
Ġíĥ Ķëĭ¤
Ġë§Ī ì¹¨
ĠëıĻ ìª½ìľ¼ë¡ľ
ĠìĺĪ ë¡ľ
ĠìĺĪ ìĪĺ
ëł¤ ë©´
Ġê³ł ë§Ī
ìĺ¤ ë¡ľ
ìĺģ ë¦¬
ê°ľ ëĬĶ
ê°ľ êµŃìĿ´
ì°° ìĬ¤
ê³µ ìĤ¬
Ġìļ° ë°©
Ġê°ľ íĳľ
Ġê°ľ ë³Ħ
Ġëĭ¹ íĺ¹
Ġíķ´ ë¥¼
ĠíļĮ ë¶Ģ
ĠìĦ± ìłĦ
ĠìĦ± ê´Ģê³Ħ
ĠíĮĮ ìĽĶ
ë¯¼ ìĿ´
Ġë¬´ ë¦¬
Ġêµ¬ ë¦Ħ
Ġë¶ģ ì¸¡
ì°¨ ìłĦ
Ġìĭł íĻĶíĨµìĭłìĿĢ
ìļ´ ìłĦ
ì¹´ ìĿĺ
Ġê±° ë¨¸
ìĹ° ìĥģ
Ġìĭ¤ ìĿĢ
Ġë§Į ì°¬
Ġë°ĺ ë¯¸
200 1
Ġìŀħ êµŃìĿĦ
íĴ ĭ
Ġì°¨ ë¡ľ
Ġì°¨ ìĿ´ëĤĺ
ë²ķ ìĽĲìĹĲ
Ġìŀ¬ ê³ł
ĠìĦľ ìķĪ
ì½Ķ ë¹Ħì¹ĺ
íĨł ê°Ģ
ì§Ī íĻĺ
ĠìķĪ ëĿ½
ë§¤ ëħĦ
Ġì¶Ķ ì¢ħ
Ġìķ½ ë¬¼ìĿĦ
ĠìĻ¸ ê°ģ
Ġë¶ģíķľ ìĹĲìĦľ
Ġë¬¸ìłľ ëĭ¤
Ġë¶Ħ ìĹ´
ĠëĿ¼ ìļ°
ĠëĳĲ ê°ľ
Ġëĭ¨ ìĭĿ
Ġëĭ¨ ë°±
ĠíĥĢ ìŀħ
Ġëĵ¤ ìĿĢ
ar g
Ġ9 6
Ġë¦¬ ìĦľì¹ĺ
ìħ ¨
ĠíĽĦë³´ ëĵ¤ìĿ´
en se
ĠìĺģíĻĶ ë¡ľ
ĠìĦ¸ê³Ħ ìĹĲ
Ġëł Į
Ġëī´ ìĬ¤ëĬĶ
Ġíģ¬ ê¸°
íİĺ ìĿ¸ìĿĢ
ĠìĹŃ ìĿĦ
Ġíķľëĭ¤ ë©°
ë¥ĺ ìĹĲ
Ġë°ľê²¬ ìĿĢ
ê°ķ íķľ
ĠìĦłê±° ìĿĺ
ì¸ł ìĿĺ
Ġê±´ ë¦½
Ġë°ķ ê·¼íĺľ
le g
Ġê¹ ģ
ìļķ ìŀ¥ìĹĲìĦľ
ĠìĿ´ìľł ìĹĲ
Ġê±¸ ìĿĮ
Ġë§ŀ ë¶Ļ
ĠíķĦìļĶ ëĬĶ
ĠíĹĪ ë¸Ķ
ë²Ķ ìĿĦ
ĠìłĲ ìĿ´
Ġì±Ħ ìĽĮ
íĿ ĺ
ê¸¸ ìĹĲ
Ġìķł ìĵ°ê³ł
it al
Ġë³¸ ìĤ¬ë¥¼
ĠëĮĢíĳľ ìĿ¸
Ġìłĳ ìłĦìĿĦ
Ġì§Ħíĸī íķł
Ġê¶Į íķľìĿĦ
ĠP resident
ĠíĶĮ ë¡ľ
Ġì¹¨ ì°©
Ġì¹¨ íĮ¬
ĠíĮ¨ ë¦¬ìĬ¤
ĠíĮĮíĤ¤ìĬ¤íĥĦ ìĿ´
Ġë¹ł ì¡Įëĭ¤
ĠìĨĮìĭĿ ìŀħëĭĪëĭ¤
ĠìĨĮëħĢ ê°Ģ
ĠëĤ´ìļ© ìĿ´ëĭ¤
Ġíķ´ê²° íķĺëĬĶ
ĠìĺĪìĥģ ëĲĺëĬĶ
ì½ľ ë¦°
Ġíģ´ë¦°íĦ´ ê³¼
Ġë§ī ê³ł
ĠD ay
ĠëıĮìķĦ ìĻĶëĭ¤
ĠëıĦìĭľ ìĹĲ
ĠëĪĦ ëĵľ
Ġì¸ µ
ĠìĥģìĬ¹ ìľ¼ë¡ľ
Ġëĭ¨ì²´ ëĵ¤ìĿĢ
Ġìķħ ìĦ±
Ġê°ķì¡° íķĺê³ł
ĠíıŃë°ľ ë¬¼
Ġëª¨ìĬµ ìľ¼ë¡ľ
Ġì£½ ìĿĦ
ìĹ´ ì°¨
Ġì½ľ ëłĪìĬ¤íħĮë¡¤
Ġê¸°ìĪł ìĿĺ
ĠìĦĿë°© ëĲľ
ĠíĥĦ ìĨĮ
Ġë³´íĺ¸ íķł
Ġëį°ìĿ´ íĦ°ë¥¼
Ġëħ¼ìĿĺ ê°Ģ
Ġê±´ë¬¼ ìĹĲìĦľ
Ġë²łìĿ´ ë£¨
Ġêµ¬ì¡° ë¥¼
Ġê²© ëł¤
ĠíķĺëĤĺ ë¥¼
us s
ëĨ Ĵ
ëĨ ĵê³ł
Ġì§Ģêµ¬ ìĿĺ
ìŀ¡ ìĿĦ
ĠëıĻë¬¼ ìĿĺ
ĠìĤ¬íĥľ ìĿĺ
Ġìŀĥ ì§Ģ
Ġì°¸ê°Ģ íĸĪëĭ¤
Ġë§ĪìĿĦ ìĿĺ
Ġë§ĪìĿĦ ìĿĢ
ĠìĿ´ìķ¼ ê¸°ê°Ģ
ĠíĮĲê²° íĸĪëĭ¤
Ġì¹´ë ĶĶ
Ġë³´ëĤ´ ê¸°
Ġìķŀìľ¼ë¡ľ ìĿĺ
Ġíĺ¸íħĶ ìĿĦ
ĠíĻķìĭ¤ íķĺëĭ¤
Ġëª¸ ë¬´ê²Į
Ġë§¤ì¼ĢìĿ¸ ìĹĲ
Ġë°ĺêµ° ìĿĦ
ì±Ħ ìĿĺ
ì±Ħ ë¥¼
Ġì§ĢëĤĺ ì§Ģ
Ġê°ľìµľ ëĲľ
Ġìĸ´ëł¤ ìĽĮ
ĠìĿ¼ë°ĺ ìłģìĿ¸
Ġì¶ľìłĦ íķľ
Ġìķ¼ëĭ¹ ìĿ´
Ġì£¼ë³Ģ ìĿĦ
ĠìķĪë³´ ë¦¬
ĠëĤ¨íİ¸ ìĿĢ
ìļ´ëıĻ ìĿĦ
ĠìĿ´ëģĮ ìĹĪëįĺ
Ġìĭľìŀ¥ ê³¼
ĠìŀĶ ëĶĶ
ê¹Ģ ëĮĢì¤ĳ
ìķ¡ ìĿĢ
ĠO r
Ġëħ¹ íĻĶ
Ġì£¼ìĭĿ ìĿĢ
ĠìĹħì²´ ìĿ¸
Ġë¹ĦíĮĲ ìĿĦ
ĠíĨłë¡ł ìĿĦ
Ġì§ĢìĨį ìłģìĿ¸
Ġê°Ģìł¸ ëĭ¤
Ġê¸Ģ ëłĮ
ĠìĿ´ìłľ ê¹Įì§Ģ
ĠëĦ£ ìĸ´
ĠìĤ¬ë§ĿìŀĲ ìĪĺê°Ģ
Ġìłĳê·¼ íķł
ĠìĬ¹ê°Ŀ ëĵ¤ìĿ´
ĠìķħíĻĶ ëĲł
ĠìĥģëĮĢ ìłģìľ¼ë¡ľ
ê¸°ê°Ħ ìĿĦ
Ġë°ĶìĿ´ëŁ¬ ìĬ¤ê°Ģ
ĠíĳľíĺĦ íĸĪëĭ¤
ĠìĦ±íıŃ íĸīìĿĦ
ĠíĶĦë¡ľìłĿ íĬ¸ìĹĲ
íį¼ìĦ¼íĬ¸ ìĿĺ
ĠëĭĪì½ľ ëĿ¼ìĬ¤
ĠíıŃëł¥ìĤ¬íĥľ ë¥¼
Ġë¯¼ë³ĳ ëĮĢìĻĢ
íķ´ì§Ħ ëĭ¤
ĠíĮĮê´ ´ëĲľ
ĠíĺĦëĮĢ ì°¨
ĠìłķìĥģíļĮëĭ´ ìĹĲìĦľ
Ġìŀĩ ëĶ°
ĠëĤ¨íķľ ìĿĺ
Ġëķħ ìĹĲ
Ġëķħ ìĿĦ
Ġíķ´ë³Ģ ìĹĲìĦľ
ĠìĤ¬íķŃ ìĿĢ
Ġìĸ¸ìłľ ëĵł
ĠìĿ¼ìłķ ìĿĢ
ëĶĶìķĦ ëĤĺ
Ġë¬´ìĭľ íķĺê³ł
ĠëĮĢëĭµ íĸĪëĭ¤
Ġë¸Įë¦¬ íĭ°ìĭľ
ìĬ¤íĶ¼ ìĸ´
ĠíĹ¤ëŁ´ ëĵľê°Ģ
Ġë¸Įë£¨ ìĬ¤
Ġíķ©ë²ķ ìłģìĿ¸
Ġìŀ¥ì°© ëĲľ
ĠìĬ¤íĮĮ ìĿ´
Ġê·ł íĺķ
Ġíŀī ìĬ¤ê°Ģ
ë°ĶëĿ¼ ëį°ìĿ´
ĠìĿ´ìŀ¬ë¯¼ ìĿ´
ex t
ĠëĤĺëĭ¬ ìĿĢ
Ġìĩł ê³łê¸°
Ġë²łë¥¼ë¦° ìĹĲìĦľ
ë¦¬ë²Ħ íĴĢ
Ġìłķíķ´ ì§Ģì§Ģ
ĠìĮįëĳ¥ ìĿ´
Ġìį¼ ëĭ¤
ëļ ±
Ġëª¨ëĭĪ íĦ°
Ġì¹´íĬ¸ë¦¬ ëĤĺ
ĠíİĺìĿ´ìĬ¤ ë¶ģ
ĠìłĢëł´ íķľ
âĸ ¶
ĠëģĶì°į íķľ
ìĬ¤ë¦¬ ëŀĳì¹´
ĠìłĲíĶĦ íķĺëĬĶ
ìŀĲíĿĲ ìĬ¤íĥĦ
6 2
6 3
8 22
9 9
E P
G S
N Y
P h
t ed
Ġ km
Ĳ ìĺ¤
ĳ ¼
ìĿ´ ìĹĪìľ¼ë©°
ìĿĺ íļĮëĬĶ
íķĺ ìļ°
íķĺ ìĽĮëĵľ
ì§Ģ ê¸¸
ê°Ģ ëŁī
Ġìķ Īëĭ¤
ëĵ¤ ë¦¬
Ġê° ĵ
ìĽ į
ëĤ Ļ
ìŀĲ ê³ł
ìŀĲ ìĭł
êµŃ ê³¼
ìĤ¬ ìĹĲê²Į
ĠìĿ´ ìĤ¬ëĬĶ
ĠìĿ´ íĥĪ
ĠìĦ ŀ
ë¬ ´ëıĦ
ìĿ¼ ì¦Ī
Ġì§Ģ ìłĢ
ìķĦ ë¦¬
Ġêµ ¶
ìĸ´ ìĹĲ
ê·¸ ëŁ¼
ëĮĢ ëĭ¤
ëĮĢ ìĤ¬ëĬĶ
ëĵľ ë¥´ëĬĶ
ëĵľ ëĿ¼ë§Ī
Ġë¯¸ ì²¼
Ġì£¼ ëĭ¹
Ġë§Ĳ íķĺì§Ģ
Ġë§Ĳ íĸĪìĹĪëĭ¤
Ġë§Ĳ ìķĦìķ¼
ì² ´ëĲľ
Ġê¸° ëıĦë¥¼
ìĪĺ ìĤ¬ê´Ģ
Ġê·¸ ê³³ìĹĲ
Ġì¤ĳ ìĤ°
ëħĦ ëıĦ
Ġë³´ ë¥ĺ
Ġë³´ ìķĪìĿĦ
ĠìĿ¸ ì§Ģ
ĠìĿ¸ ìĽĲ
ĠìĿ¸ ë¶Ģ
ĠìŀĲ ë§¤
ë¬¸ ê³¼
ë³´ ì¢Į
Ġë°ľ ìĿĦ
Ġë°ľ ëª©
ĠìĿ¼ ëªħ
ëĭĪ ìĸ¼
ĠìĨĮ ëħĦìĿĺ
ĠìķĬ ëĭ¤ëĬĶ
Ġëĭ¤ ë¤Ħ
Ġë¹Ħ ìŀĲë¥¼
Ġë¹Ħ ìĭ¼
Ġë¹Ħ ì¦ĪëĭĪìĬ¤
ëĭ¹ ìĭłìĿ´
Ġìľł íĥľ
íı ´ëŀ
ë¹Ħ ìĺ¤
ĠìĹ¬ ë°°ìļ°
ìĦł ê³łë¥¼
Ġë¯¸êµŃ ìĤ°
ë°Ķ ëĤĺ
ë°Ķ ë¥¸
ĠëĤĺ ìģĺ
ĠëĤĺ ëŀĢíŀĪ
ìĦ¸ ìļĶ
ĠìĹ° ìķł
ĠìĹ° ìĿ´ìĸ´
ëłĪ ì¦Ī
Ġíķĺ ê¸°ë¡ľ
ìļĶ ìĽĲ
ĠëıĻ ìłĲ
ĠìĦł ìĥĿ
Ġìĺģ ìŀħ
ê±° ë¦¬ê°Ģ
ëĭ¨ ì§Ģ
ìĹ¬ ìĻķ
íĽĦ ìĿĺ
ĠìĬ¤ ì¼Ģ
Ġìļ° íĺ¸
ĠìķĮ ëłĮ
Ġíķ´ ìĦĿ
ĠìĥĿ ìĿ¼
ĠìĥĿ ìĿ¼ìĿĦ
Ġë°Ķ ìĹĲ
ĠìĦ¸ ëĮĢ
ĠìĦ¸ ìĥģìĿĦ
ĠíĨµ ìĹŃ
ĠíĨµ ì¦Ŀ
Ġëħ¸ ìĦł
íķĻ ìłģ
íķĻ ìŀĲëĵ¤ìĿĢ
ìŀĳ ìĿĦ
êµĲ íļĮ
ì¹´ ìĬ¤
Ġë§Į ìŀ¥
Ġë§Į ìĿ¼
Ġë°ĺ ëŀĢ
ëª¨ íķĺë©Ķëĵľ
Ġìŀ¬ ìĤ°ìĿĦ
Ġìĺ¬ ë¦¬
íİ¸ ìĿĢ
ĠìķĪ ê²¨
ĠìŀĲìĭł ê°ĲìĿĦ
ĠêµĲ ëĤ´
in ese
ìĦ¤ ìĿ´
ĠìĿ´ëĿ¼íģ¬ ìĿ¸
Ġì¶ľ ìłĦìĿĦ
Ġëĭ¬ ìĹĲ
ĠíĻķ ê³ł
ĠíĻķ ìĭłìĿĦ
ëĭ´ íķľ
ĠìĤ¬ë§Ŀ íĸĪìĬµëĭĪëĭ¤
íĶ¼ íĦ°
Ġëªħ ìĭľ
Ġë²ł íĥķì¿ł
Ġêµ° ìļ©
Ġêµ° ëĮĢë¥¼
Ġêµ° ë³µìĿĦ
ìĸ´ë ĥĪëĭ¤
Ġì§ĢìĹŃ ìĤ¬íļĮ
Ġ8 1
Ġë¶Ħ ìĭ¤
Ġë¡ľ ë¹Ī
ĠëĳĲ ëĩĮ
Ġëĭ¨ ìĿ¼
Ġë³´ëıĦ íķ©ëĭĪëĭ¤
ĠìĥĪ ê²¨ì§Ħ
Ġíķł ë¦¬ìļ°
ì¢ħ ìĿ¼
Ġìĭ¬ íĮĲ
ĠìĹ¬ìĦ± ëĵ¤ìĿĢ
Ġíĺĳ ìĿĺë¥¼
ìķħ ìĿĺ
ë©Ķ ëĿ¼
Ġê²½ìłľ ëĬĶ
Ġê²½ìłľ ìĻĢ
ĠìĤ¬ê±´ ìĹĲìĦľ
ĠìĤ¬ìļ© íķľëĭ¤
Ġë²Ħ ëł¤
Ġë²Ħ ìĬ¤ë¥¼
Ġíģ¬ ëłĪ
ìĬ¬ ë¡ľ
ĠìŀĦ ìĭłìĿĦ
Ġìĸĳ êµŃìĿĢ
Ġìĸĳ ì¸¡ìĿ´
íį¼ ìĬ¤
Ġ20 11
Ġë°ľê²¬ íĸĪìľ¼ë©°
Ġíı¬íķ¨ íķĺê³ł
ĠìķĦìĿ´ ëĬĶ
ĠíĺĲìĿĺ ìĻĢ
ĠëĬ Ķ
ëłĪìĿ´ ëĬĶ
ë°ķ ìĿĦ
Ġë¸Į ë¦¬íĬ¸
íħĮ ëŀĳ
Ġë³µ ì§Ģ
Ġê°ĢëĬ¥ íķĺê²Į
ĠìĭľìľĦ ëĮĢìĻĢ
ìµľ ê³ł
Ġì¢ħ ìĭł
Ġë§ŀ ì§Ģ
Ġíİĺ ëĦĲ
ĠëĮĢìĦł ìĿĦ
Ġê¸°ë¡Ŀ íĸĪëĭ¤ê³ł
ĠìłĲ ìĪĺë¥¼
Ġìķł ëıĦ
ĠìķĬìķĺ ìĿĦ
Ġëĸ¨ìĸ´ ì§ĢëĬĶ
ĠëĤĺíĥĢ ëĤĺëĬĶ
Ġë³¸ ëŀĺ
ìĽĲë¬¸ ê¸°ìĤ¬
ĠìĭĿ ìľ¼ë¡ľ
ĠF r
Ġë°± íĻĶ
ĠêµŃë¯¼ ìĿ´
ĠêµŃë¯¼ ìĹĲê²Į
ĠI BM
ë³Ħ ë¡ľ
ĠìĪľ íļĮ
ĠíĮ¨ ìĬ¤ë¥¼
ìľĦìĽĲíļĮ ìĹĲìĦľ
ĠB B
ĠëĤĻ ì°°
ëĭ¨ì²´ ëĵ¤ìĿĢ
Ġë°©ìĨ¡ ìĿĺ
Ġëĭ¹ìĦł ìŀĲê°Ģ
Ġc omm
Ġëĭ¤ìĿĮ ê³¼
ĠíħĮ ë§Ī
ĠíħĮ íģ¬
ĠíĻľëıĻ íķĺëĬĶ
Ġì¶Ķê°Ģ ìłģìĿ¸
ĠíķĺëĿ½ íķĺë©°
Ġìļ°ëł¤ ë¡ľ
ĠíĮĲë§¤ íķĺëĬĶ
ĠTV ìĹĲ
Ġê¸ī ì§Ħ
Ġìłķìĥģ íĻĶ
ĠìĽĮ ëĦĪ
ĠíķĻìĥĿ ëĵ¤ìĿĺ
Ġê¸°ìĪł ìĹĲ
Ġìĺ¬ë¦¼íĶ½ ìĹĲìĦľ
ë°Ľ ì§Ģ
ìĹĦ íķľ
ĠH ouse
ĠìĿ´ë¦Ħ ìĿĢ
ĠìĤ´íķ´ íķł
Ġê³µíķŃ ìĿĺ
ĠíĮĶëłĪìĬ¤íĥĢìĿ¸ ìĿĺ
Ġì°½ ë¬¸ìĿĦ
Ġê·¹ ìŀ¥
ĠíĮĢ ìĹĲ
ìĹħì²´ ê°Ģ
Ġíģ¬ë¦¬ìĬ¤ ë§Ī
ĠíķĻêµĲ ë¥¼
ĠìĤ¬íĥľ ëĬĶ
ur l
ĠìĿ´ìķ¼ ê¸°ëĬĶ
ĠìķĦìĭľìķĦ ìĹĲìĦľ
Ġìľłì§Ģ íķĺê¸°
Ġë¶Ģì¡± ìľ¼ë¡ľ
ĠíļĮìĤ¬ ëĵ¤ìĿĢ
ĠìłĦíĪ¬ ê¸°ê°Ģ
ĠìķĦë²Ħ ì§ĢìĻĢ
Ġì§ĢëĤĺ ì¹ĺê²Į
ĠìĿ´íĥĪë¦¬ìķĦ ìĿĺ
Ġì¤ĳìĭ¬ ìľ¼ë¡ľ
Ġíİ¼ ì¹ł
Ġíĩ´ ìŀ¥
Ġìľłê¶Į ìŀĲìĿĺ
ê²¼ ìľ¼ë©°
ĠìĭľëıĦ íķľ
ĠìĪĺì¤Ģ ìĿĦ
ĠìĿĺë£Į ì§ĦìĿ´
ĠìĭľìĬ¤íħľ ìĹĲ
ĠìŀĳìĹħ ìĿĢ
Ġì§ĢëıĦìŀĲ ëĵ¤ê³¼
ow er
ĠìĪĺìļ© ìĨĮ
ĠìĪĺìļ© ìĨĮìĹĲìĦľ
Ġìļ¸ íĶĦ
Ġì£¼ëıĦ íķĺëĬĶ
ĠëıĦë¡ľ ìĹĲ
ĠíĴį ìŀĲ
ĠìłľíĴĪ ìĹĲ
um er
ĠëĦ£ ìĿĢ
Ġê°ĢìŀĲì§Ģêµ¬ ìĹĲìĦľ
ìĭľìĦ¤ ìĿĦ
ĠíĸīìľĦ ê°Ģ
ĠìĤ¬ë¬´ì´Ŀ ìŀ¥
Ġê³¤ ëıĮ
Ġì·¨ìŀĦ íķľ
ĠíĻĺìĺģ íĸĪëĭ¤
Ġë³ĳëł¥ ìĿĢ
Ġëĥ ĦìĥĪ
ĠìĬ¤ë¯¸ ìĬ¤ìĿĺ
Ġêµ¬ì²´ ìłģìľ¼ë¡ľ
ĠìķĦëĤ´ ìĻĢ
Ġì°į ìĹĪëĭ¤
ĠìľĪ íĶĦ
Ġìĭ± ê¸Ģ
ĠìĿ¼ìŀĲ ë¦¬ê°Ģ
Ġë¹ĦêµĲ íķ´
Ġëĵ¯ íķľ
ĠìĽĢì§ģìŀĦ ìĹĲ
Ġê·¸ëŀĺ íķ¨
Ġì¶ľë§Ī íķł
Ġíİł ë¦¬
Ġì£¼ìµľ ì¸¡ìĿĢ
Ġìĺ¤íĶĪ ìĹĲìĦľ
Ġìĭ¤ìĹħ ìĪĺ
Ġê¸°ë³¸ ìłģìĿ¸
Ġì£Ħ ìĪĺ
Ġëį¸ íĥĢ
ĠêµŃìĻķ ìĿ´
ê³Ħíļį ìĿĦ
ìŀĳìĹħ ìĹĲ
Ġì°©ìļ© íķĺê³ł
ĠíĻĶìŀ¥ ìĭ¤
In ternational
Ġíģ¬ë£¨ ì¦Ī
ë£¸ ë²Ħê·¸
ĠìŀĲìĿ´ ìĸ¸
Ġíı´ëŀ Ģëĵľ
ĠíĭĢ ë¦¼
ìĭłë¬¸ ìĿĢ
Ġëª¨ìĬ¤íģ¬ë°Ķ ìĹĲìĦľ
Ġìłľëª© ìĿĺ
Ġíĥ± íģ¬
ĠìķĪíĥĢ ê¹Ŀ
Ġë¡¬ ëĭĪ
Ġêµī ìŀ¥
ĠìĿ¼ì¶ķ íĸĪëĭ¤
ĠíĶ¼ì¸ł ë²Ħê·¸
Ġvis it
ĠìĤ´ëª¨ëĦ¬ëĿ¼ ê·ł
ĠìĭĿë¯¼ ì§Ģ
ĠëłĪìĺ¤ ëĤĺ
ë²łëĦ¤ ìĪĺìĹĺëĿ¼
Ġíĭ°ìħĶ ì¸łë¥¼
ìĮ į
Ġy ear
ìĨĮìĭľìĹĲ ìĿ´ìħĺ
ãĢ Ģ
Ġë°ķê²© íı¬
Ġëī´ë ©ķìĭľì½Ķ
ë³į ê²Į
Ġìķħìĺģ íĸ¥ìĿĦ
5 5
7 8
A l
Q u
U L
c ess
e ace
i ous
ë Ī
Ġ it
Ġ im
Ġ qu
Ń ī
Ġì Ĳ
Ġì ¾Į
ëĭ¤ ì½Ķ
ìĿ´ íķĺ
ê³ł ë¬¸
ê³ł íĺĦìłķVSìµľì§Ģìļ°
ë¡ľ ìĦľëĬĶ
ì§Ģ ìĽĲìĿĦ
Ġë° ¸
ìĬ¤ íĥ
ĠëĮĢ ë©´
ìŀĲ ë¦¬ìĹĲ
ìŀĲ ìĪĺê°Ģ
ìĤ¬ ëĭ´
ìĤ¬ ëŀĳ
ĠìĿ´ ì²ĺëŁ¼
ĠìĿ´ ëĵ¤ìĹĲ
ĠìĤ¬ ë©´
ĠìĤ¬ ìĿ¸ìĿĦ
ĠìĤ¬ ìłĦìĹĲ
ìĿ¼ ëĿ¼
ìĽĲ ìĪŃ
ìķĦ ë¥´íĹ¨íĭ°ëĤĺ
ĠìĪĺ ìľĦê°Ģ
ĠìłĦ ê¸°ê°Ģ
íĻ Ī
ĠìŀĪ ê²łì§Ģë§Į
ëªħ ìĿ´ëĭ¤
ëĤĺ ìĿ´íĬ¸
ëĵľ ë¦¼
ëĵľ ìľĪ
ì£¼ ìĭĿ
Ġë¯¸ ì¹ĺì§Ģ
Ġë¯¸ ì£¼ë¦¬
ĠìķĦ íģ¬
ĠìķĦ ë¥´
ĠìķĦ íĮĮ
íĬ¸ ë§Į
Ġì£¼ ê¶ĮìĿĦ
ìłľ ì¡°
Ġê¸° íĽĦë³Ģ
Ġìĭľ ëĮĢìĹĲ
Ġê²½ ê´ĢìĿĢ
Ġê²½ ë³´ë¥¼
ìłĦ íĻĶ
ĠìŀĲ ëĿ¼
ĠìŀĲ ê²©
Ġíķľ ìª½
Ġë°ľ ìĿĺ
Ġë°ľ ë¶Ģ
Ġë¶Ģ íĴĪ
Ġê³µ ìŀ¥ìĿĦ
ĠìĿ¼ ê³¼
ìľĦ íģ¬
Ġê²ĥìĿ´ ì§Ģë§Į
Ġë¹Ħ ìłķë¶Ģ
Ġë¹Ħ ì¤Ģ
Ġìĺ¤ íĶĦ
Ġìĺ¤ ëĿ½
ë¥´ ìĻĢ
ëĲĺ ì§ĢëĬĶ
íĤ ´
Ġìłľ íĮ¨
Ġìłľ íĶĦë¦¬
ìľł ëĭĪ
ëłĪ ìķĦ
Ġíķĺ ê²łëĭ¤ê³ł
Ġëª¨ ëĭĿ
ĠëıĻ ìĿ¼
ĠìĦł ìłģ
ĠìĦł ëıĻ
ĠìĦł ìĪĺëĬĶ
ëł¥ ìľ¼ë¡ľ
ê±° ëĬĶ
ĠìĺĪ ë¥¼
Ġê³ł ìłĦ
Ġê³ł ìĭ¬
ìķ¼ ìĿĺ
Ġìµľ ëĮĢíķľ
ì²´ ëĭĪ
ìĹ¬ ê°Ŀ
ìĹ¬ ëªħìĿĦ
ìĺģ êµŃìĿĢ
ĠíĽĦ íĩ´
ìĭľê°Ħ ìľ¼ë¡ľ
ĠìķĮ ë¦¬ê¸°
Ġê²° ëł¬
ìĭ¤ ì¢ħ
ĠëıĦ ìĦľ
ĠëıĦ ì£¼
ĠëıĦ ë¯¸ëĭĪ
ìĺĢ ìĿĦ
ĠíĨµ ìĿ¼
íı¬ ëŁ¼
ë§Ŀ ì£¼
ì°¨ ê´Ģ
ëĭ¬ ê°Ħ
Ġê³Ħ ê³¡
ì¤ĳ ê³Ħ
ì¤ĳ ëıħ
ìĹ° íĮ¨ë¥¼
ĠìĹĲ ë©Ķ
ĠìĹĲ ìĬ¤íĨłëĭĪìķĦ
ê±´ ìĹĲ
Ġê°Ĳ ì¶Ķ
Ġê°Ĳ ë°Ķë¦¬
Ġì°¨ ë¦¼
ë²ķ ìķĪìĿĦ
ìķ½ íķľ
ĠìĦľ ìª½
ĠíıŃ ëĵ±
ĠëįĶ ìĿ´ìĥģ
ë²Ī ìĿ´ëĤĺ
ĠìļĶ ê¸Ī
ĠìķĪ ìł¤
ĠëĨ Ķ
ĠíĹ Ŀ
ëĳĲ ìĹĲ
ë£¨ ëĤĺ
Ġë§İ ì§Ģ
ë²ł ë¦¬ìķĦ
Ġëªħ ìĦ±ìĿĦ
ìĸĳ ì¸¡ìĿĢ
ĠëĦ ¬
Ġë°ľíĳľ íķĺë©´ìĦľ
ĠìĦ¤ ìłķ
¨¸ ëĭĪëĬĶ
Ġë²ķ ìĿĺ
Ġë²ķ ë¬´ìŀ¥ê´Ģ
ĠíĥĢ ë¸Ķ
Ġë°° ìķĦ
Ġë°° íĬ¸ë§¨
ti m
Ġ9 2
Ġìķ¼ ìĬ¤ì¿łëĭĪ
ìŁģ ìĿĦ
ĠìĹ¬ìĦ± ëĵ¤ìĿĦ
ĠêµŃê°Ģ ëĵ¤ê³¼
ìĬ¤íĬ¸ ë¥¼
Ġíıī ìĨĮ
ê°Ŀ ìĿ´
ĠìĿ´ìĥģ ìľ¼ë¡ľ
Ġê³µê²© ìĿĺ
ĠA merica
ì¶Ķ ìĭľíĤ¨
ĠëłĪ ë¹Ī
ìĺ¨ ëĿ¼ìĿ¸
ĠíķĻ ëĮĢë¥¼
íİĺ ëĿ¼
ĠëĴ¤ ë¡ľ
Ġì¡°ìĤ¬ íĸĪëĭ¤
Ġíı¬íķ¨ ëĲľëĭ¤
ê°ķ ìĹĲ
ëłĪìĿ´ íĦ°
Ġë¸Į ëłĪìĿ´íģ¬
Ġë©Ķ ë¦´ëŀľëĵľ
ĠíĨł ìĸĳ
Ġì¤Ħ ìĹ¬
ĠS UV
Ġìļ´ ìłĦìĿĦ
Ġê±¸ ëł¸ëĭ¤
Ġë§ŀ ìĿĦ
ìŀĪ ì§Ģ
ìŀĪ ê²Į
at or
ëĥĲ ê³ł
Ġìłķì¹ĺ ìĹĲ
Ġs ays
Ġì¢ĭ ê²Į
Ġê·ľ ì¹Ļ
Ġëĵ¤ìĸ´ ìŀĪëĬĶ
ĠëĤĺíĥĢ ëĤ´ê³ł
ìĦ¼ íĬ¸ë¥¼
ĠëĮĢíĳľ ëĭ¨ìĿ´
Ġìļ°ì£¼ ìłķê±°
ĠìĻĦ ìĪĺ
ĠíĻķìĿ¸ íķľ
Ġë²Ī ìĺģ
ĠìĨį íķľ
ĠP arty
ĠëĮĢíķĻ ìĿĢ
ĠëĮĢíķĻ ìĤ´
ĠI T
ĠìľĦì¹ĺ ìĹĲ
ĠìľłëŁ½ ì¶ķêµ¬ìĹ°ë§¹
ĠìĪľ ìĿ´ìĿµ
Ġì£¼ë¯¼ ìĿ´
Ġë¶Ģìĥģ ëĭ¹
Ġë³´ëĤ ¸ëĭ¤
Ġìłķë³´ ìĹĲ
íķĺëł¤ ë©´
ĠëıĮìķĦ ê°ĢëĬĶ
ĠL PGA
ë°Ģ íķľ
Ġìŀ¡ ìĬ¤
Ġë³Ģíĺ¸ ìĿ¸
ĠíĥĪëłĪë°ĺ ìĿĺ
ëį¸ ëĿ¼
Ġíļ Ł
ĠìĽĮ ëłĮ
ĠíķĻìĥĿ ëĵ¤ê³¼
Ġê¸°ìĪł ìĿĢ
ì¿ł ëĭ¤
CNN ìĿĺ
ĠìĿ´ìĬ¬ëŀĮ êµĲëıĦ
Ġì¸¡ ìĹĲ
Ġì¸¡ ìĿĺ
ĠìĤ´íķ´ íķĺê²łëĭ¤ê³ł
Ġëŀ Į
Ġê´Ģê´ĳ ìĤ°ìĹħ
Ġì»¤ ì§Ģê³ł
ê´Ģê³Ħ ìŀĲëĵ¤ìĿĢ
Ġëħ¸ëł¥ ìľ¼ë¡ľ
Ġì¡°ì§ģ ìĿĢ
Ġì´īêµ¬ íķĺê³ł
Ġì§Ģêµ¬ ìĹĲìĦľ
ìĿ¼ë³¸ ìĹĲìĦľ
ì¹´ìĹĲ ëĭ¤ëĬĶ
ĠìĦľìļ¸ ìĹĲ
ĠíĸīëıĻ ìĿĢ
ë²¨ ìĿĢ
ĠìĪĺê°Ĳ ìŀĲëĵ¤ìĿĦ
ìľ¼ë¡ľë¶ĢíĦ° ìĿĺ
Ġê±°ë¶Ģ íķĺê³ł
ĠíĦ°íĤ¤ êµ°
ĠìłĦë§Ŀ ìĿĦ
Ġìŀ¥ê´Ģ ìĿĦ
ìĹĨ ëĭ¤
íŀĲ ëŁ¬
Ġë³Ħ ë¡ľ
Ġíİ¼ ì¹ĺê³ł
Ġëĭ´ëĭ¹ íķĺê³ł
ĠìĦłìĸ¸ ìĿĦ
Ġì¹¼ ëĿ¼
Ġíı´ ìĬ¨
ĠìĿ´ê³³ ìĿĢ
ĠëĤ¨íİ¸ ìĿĦ
ĠìĹ¬ê°Ŀ ê¸°ë¥¼
Ġíľ´ëĮĢ ìļ©
ĠìłĦíĻĶ ë¡ľ
ĠìĪĺìļ© ìĨĮìĹĲ
ĠìĹħì²´ ê°Ģ
ë°©ìĨ¡ ìĿĺ
Ġëª©ê²© íķľ
Ġê¸°ëĭ¤ ë¦¬ëĬĶ
ĠAP ìĿĺ
ĠíķľëĤĺëĿ¼ ëĭ¹ìĿ´
Ġíĭ°ë²łíĬ¸ ìĿĺ
Ġë¯¸êµŃìĿ¸ ëĵ¤ìĹĲê²Į
ĠìĨ¡ íĻĺìĿĦ
ĠLA ìĹĲìĦľ
ĠìłĦë°ĺ ìĹĲ
Ġìłĳê·¼ ìĿĦ
ĠìĬ¹ê°Ŀ ìĿĦ
Ġìłķëĭ¹ ìĿ´
ê±°ëŀĺ ë¥¼
Ġìĭłê³ł íĸĪëĭ¤
ĠìĦ¼íĦ° ëĬĶ
ĠìłĦìĹŃ ìĿĺ
Ġë°ĶìĿ´ëŁ¬ ìĬ¤ìĹĲ
Ġê³¼ê±° ìĿĺ
Ġë¶Ħëªħ íķĺëĭ¤
ĠìĿµ ëªħìĿĦ
ĠìłĦêµŃ ìłģìĿ¸
ĠíĮĮê²¬ ëĲľ
Ġì´Ŀê²© ìľ¼ë¡ľ
ĠëĮĢì¤ĳ ìĿĺ
TV ëĬĶ
ë¥´ë¹Ħ ìĹĺ
ĠìĿ´íĭĢ ê°Ħ
em p
oun c
Ġíľ´ëĮĢíı° ìĿĦ
ìľ¼ë¡ľìĦľ ìĿĺ
Ġëıķ ê³ł
ë¯ ¹
ĠìĸĳêµŃ ê°ĦìĿĺ
ĠìĻĶ ìĬµëĭĪëĭ¤
ìĺ¬ë¦¼íĶ½ ìľĦìĽĲíļĮ
ĠêµĲìĪĺ ìĿ¸
Ġìĭłì²Ń ìĿĦ
Ġë¬¼ì§Ī ìĿĦ
ĠìĿ¼ìłķ ìľ¼ë¡ľ
ĠëĤĺíĥĢëĤĺ ê³ł
Ġë¬´ëĮĢ ìĹĲìĦľ
ìĸĦ ëĿ¼
Ġì¹´ëĿ¼ ì¹ĺ
íĺĶëĭ¤ ê³ł
Ġê°ķê²½ íķľ
ìĤ¬ìĿ´ íģ´
ĠìĤ¬ìĤ´ íĸĪëĭ¤ê³ł
Ġì½ĺìĦľ íĬ¸ë¥¼
Ġìľłë¦¬ íķľ
Ġì§Ģëª© íĸĪëĭ¤
Ġpl ans
Ġìŀ¬ë°° ì¹ĺ
Ġì¿łëį°íĥĢ ë¡ľ
und er
Ġê¸īìĨį íŀĪ
ĠìĬ¤ì½ľìĦ¸ ì§ĢìĿĺ
Ġì½Ķì»¤ ìĬ¤
ĠíŀĲíĬ¼ ìĿ´
Ġì²łìłĢ íķľ
Ġë§¹ ìĦ¸
ĠìĪĺë¹Ħ ìĪĺ
ê²Ķ ëĿ¼
ĠëĦ¤ë°Ķëĭ¤ ì£¼
ĠìŀĲìľłë¬´ìĹŃ íĺĳìłķ
Ġë§ģ ì»¨
Ġë¹¨ê°Ħ ìĥī
olog y
ĠíĻĪíİĺìĿ´ì§Ģ ìĹĲ
ĠëģĬìŀĦ ìĹĨìĿ´
ĠìŀĲë¦¬ìŀ¡ ê³ł
ĠíķĺìĹ¬ ê¸Ī
for m
Ġê°¤ëŁ° ëĭ¹
Ġë¬´íģ¬ íĥĢëĭ¤
ourn al
Ġì´Ľ ë¶Ī
ë³´ëĤĺ ëłĪ
822 6
ĠíİĺëĦĲ íĭ°
4 3
7 4
D ON
g ra
j ect
n e
r ime
s p
t or
u ro
u ild
y st
ä ¸
Ġ all
Ġ ï¼
Ġë Ī
ìĿ´ ê²ĥìĿ´
Ġí Ī
ĠìĿ Ħ
ëĵ ¬
ê°Ģ ìĬ¤ë¥¼
Ġìķ Ĺ
ë¦¬ íĭĢ
ìĿ¸ ëĭ¹
íķ´ ìĪĺ
ê¸° ëħĲ
ĠëĮĢ ì§Ģ
ĠëĮĢ ëĭ¨íŀĪ
êµŃ ëĤ´
ìĤ¬ ëĵ¤ìĿĺ
ĠìĿ´ ìĹĲëĶ°ëĿ¼
ĠìĤ¬ ìŀ¥
ìŀ¥ ìķĶ
ìĿ¼ ë§ĮìĹĲ
Ġëĭ ®
Ġì§Ģ ìĹĲ
Ġì§Ģ ìĪĺ
Ġì§Ģ ëĤ´
Ġì§Ģ ëªħìĿĦ
Ġì§Ģ ìĪĺëıĦ
ìķĦ ì£¼
ĠìłĦ ê³¼
ĠìłĦ ë¹Ħ
ĠìłĦ ë¡Ģ
ĠìłĦ ìĽĲìĿ´
ë² ¡
ìłķ ê¶Į
íĬ ł
ëĮĢ ìĦľìĸĳ
Ġë¯¸ ìħ¸
ĠìķĦ ìļ°
ĠìķĦ ê¸°ê°Ģ
Ġíķ ĳ
ĠìĿ´ë °Ķ
Ġê°Ģ ì¡Įëĭ¤ê³ł
Ġê°Ģ ë³įê²Į
Ġì£¼ ê´Ģ
ĠìľĦ íģ¬
Ġìĭľ ê¸°ë¥¼
ìĪĺ ìĪĺ
ìĪĺ ìĤ°
ìĪĺ íį¼
Ġê²½ ìĭł
Ġê·¸ ëŀľ
Ġê·¸ ëĥ¥
íĻĶ ìļĶìĿ¼
Ġë°Ŀ ìĿĢ
Ġì¤ĳ ìłĲìĿĦ
ìłĦ ë¶ĢíĦ°
ĠìŀĲ ëŀĢ
ë¬¸ ìłľìĹĲ
ë³´ ìĿ´
Ġë°ľ ìĨ¡
ìĦ± ìľ¼ë¡ľ
ìĭł ìļ©
íĨµ ìĿĺ
Ġë¶Ģ ê°ģ
Ġë¶Ģ ì°©
Ġë¶Ģ ì´Ŀë¦¬ëĬĶ
ë§Ī ëĭĪìķĦ
Ġê³µ ëŀµ
ĠìĿ¼ ë°©
ĠìĨĮ ê°ĲìĿĦ
ĠêµŃ íļĮìĹĲìĦľ
íĸī ëıĻ
Ġìĺ¤ íĤ¤
Ġìĺ¤ ì°¨
ĠìĹ¬ ìĤ¬ìĻĢ
ĠìĿĺ ìĦĿ
ëĶ ´
ë°Ķ ìĿ¸
ĠëĤĺ ê°Ħ
ĠëĤĺ ì¹ĺ
ĠëĤĺ ê°Ģê³ł
ìĦ¸ ìĬ¤
ìĦ¸ íı¬ë¥¼
ĠìĹ° ëĮĢ
ĠìĹ° ë§¹
ë£ ½
Ġíķĺ ëł¤
ì¡° ìĿĺ
Ġëª¨ ê±´
Ġë§Ī íĺ¸
Ġë§Ī ìĭľëĬĶ
ìĽĶ ìĹĲëıĦ
Ġìĺģ ìŀ¥ìĿĦ
ë¬´ ëĭĪ
ĠìĽ ħ
ìķ¼ ëĵľ
ìĹ¬ ë¶Ģë¥¼
ë°© ìĿĺ
ë°© ìľĦ
ë°© íĸ¥
ê°ľ êµŃìĿĺ
Ġë°© íķľ
ê³µ ìĿĦ
ìŀ¬ ë¡ľ
ìĭľê°Ħ ìĿĺ
ĠìĹĨ ìĿĮìĿĦ
ĠìķĮ ìłľë¦¬
Ġíķ´ ì£¼ëĬĶ
ĠíļĮ ìŀ¥ê³¼
Ġë°Ķ ê°Ģ
Ġë°Ķ ìľĦ
Ġìŀ¥ ìĨĮë¥¼
íķĻ ìĿĦ
Ġìłķë¶Ģ ì²Ń
ìļ´ íĬ¸
ìŀĳ ìĿĢ
ìŀĳ ìĿ¸
ì¹´ ë¦¬
ì¹´ ìĻĢ
ì¹´ ìļ°
ì¹´ ëĵľë¥¼
ëĶĶ ìĹĦ
Ġë§Į ëĤ¨ìĿĦ
ĠëĤ´ ìħĶëĦĲ
200 3
íĭ° ë¸Į
íĭ° ëĦ¤
ë°ľ ìłģìĿ¸
Ġíı¬ ìħĭ
ĠíĶ¼ ë¡ľ
ĠíĶ¼ íĶĮ
íĹ ´
Ġìŀ¬ ë°ľ
ì½Ķ ëĵľ
ì½Ķ ìĨĮë³´
ĠìķĪ ê³ł
íĥľ íĴį
ê²° íķ©
ìłģìľ¼ë¡ľ ëĬĶ
ìĹĺ ë¦¬
Ġì£¼ìŀ¥ ìĿ¸
ĠìĽĲ ëĤ
íĶ¼ íģ¬
ëĦ¤ ìĬ¤ì½Ķ
Ġ7 9
Ġ7 87
íĴĪ ìľ¼ë¡ľ
Ġë²ł ë¦¬
Ġêµ° ë¶Ģê°Ģ
Ġ8 9
Ġë¶Ħ ì¶ľ
ëħ¸ ëĮĢíĨµëł¹
ĠëĿ¼ ìĿ¸
ĠëĿ¼ ìĻĪ
ĠëĳĲ ì§Ģ
ì²ĺ ìĹĲ
Ġíķł ìĿ¸
ar th
Ġë¦¬ íĥĢ
ĠìĤ´ íİ
ĠíĽĦë³´ ëĵ¤ìĿĢ
ĠíĮĲ ìłķìĿĦ
ĠìĹ¬ìĦ± ìĹĲê²Į
Ġëıħ ìłĲ
Ġì¹ĺ ë¥´ëĬĶ
en eral
Ġì²´ ìĬ¤
Ġìĺ¤ë°Ķë§Ī ìĹĲê²Į
Ġìĭľìŀĳ íķ´
ĠíķĦ ë¦¬ìĬ¤
ë³ĳ ìĹĲ
ĠìĤ¬ìļ© íķĺê¸°
ĠíħĮëŁ¬ ìĻĢ
Ġë²Ħ íģ¬
Ġë²Ħ ì§Ħ
Ġë²Ħ ë¦°
Ġëī´ ìĬ¤ë¥¼
ĠìĤ° ìĤ¬íĥľë¡ľ
ìĬ¬ ë§ģ
Ġì´Ī ê³¼
Ġ12 5
ĠìĥĿê°ģ ìĿĢ
ĠìĥĿê°ģ íķ´
ĠìĥĿê°ģ íķ©ëĭĪëĭ¤
Ġìĸĳ ì¸¡ìĿĢ
ĠìĹ´ ìĩł
Ġë³´ê³ł ëĬĶ
ĠìķĦìĿ´ ëĵ¤ìĹĲê²Į
ĠìķĦìĿ´ ëĵ¤ê³¼
ĠíĺĲìĿĺ ëıĦ
íĪ¬ ìĸ´
ĠëĬ ĺë¦¬
Ġì·¨ íķ´ìķ¼
Ġì¡´ ìĬ¤ëĬĶ
Ġì¡´ ìĬ¤íĦ´
ĠíĻĺ ìĪĺ
ĠíĻĺ ìŀĲëĵ¤ìĿ´
ë°ķ ë¬¼
ĠìļĶêµ¬ íķ´
Ġë©Ķ ë¦¬
ìĺĪ ìĬ¤íħĮ
Ġë³µ ìĤ¬
Ġë°©ë¬¸ íķľëĭ¤
ĠS ci
ĠìĭľìľĦ ìŀĲëĵ¤ìĿ´
is ion
ĠëĨĴ ìĿĦ
ĠëĨĴ ìĺĢëĭ¤
ìĸ´ëĤ ¸
Ġíĥľ ìĸ´ëĤĺ
Ġê±¸ íĶĦ
Ġê±¸ ë¦¬ëĬĶ
ìĭľíĤ¤ ëĭ¤
Ġë§ŀ ìĦ¤
ĠìĿ´ëŀĢ ìĹĲìĦľ
Ġìĸ´ ìļ¸
ĠíĹĪ ìľĦ
Ġê°Ĳëıħ ìĥģìĿĦ
ĠìĤ¬ìĿ´ ë¥¼
Ġì¤Ģ ëĭ¤
Ġì¤Ģ ìŀ¥ìĿĢ
ëĤ¨ ìŀĲ
íĮ¨ ë¡ľ
ĠF TSE
Ġì§Ħíĸī ì¤ĳìĿ¸
Ġ16 00
ĠìĨį ìĺ·
Ġì²´íı¬ ëĲĺìĹĪëĭ¤
ĠI MF
Ġì¹¨ ë²Ķ
Ġê´ĳ ìļ°
Ġë¶Ģìĥģ ìŀĲëĬĶ
Ġë¹ł ë¥´ë©´
Ġë¯¼ì£¼ëĭ¹ ìĿĢ
Ġë°ĺëĮĢ íĸĪëĭ¤
Ġíķ´ê²° ëĲł
ĠëĦ¤ ìĿ´
ĠëıĮìķĦ ëĭ¤ëĭĪ
ĠìłĦë¬¸ ê°ĢëĬĶ
Ġë°Ģ ë¦¬
Ġë°Ģ ì§ĳ
ĠU SA
ĠìŀĲëıĻì°¨ ìĹħ
Ġìŀ¡ ìĿĦ
Ġìłľê³µ íķ´
Ġíĸ¥ íķĺëįĺ
ĠìłĦìŁģ ìĿĺ
ĠëĨį ìĤ°
Ġì£¼ì§Ģ ìĤ¬ìĻĢ
Ġìķħ ìĸ´
Ġì°¸ìĦĿ íķĺê¸°
ìŀŃìĬ¨ ìĿĢ
ĠìĦĿë°© íķł
ĠíĹ¤ ìĸ´
ĠìĿ´ìĬ¬ëŀĮ êµĲ
íĬ¼ ìĿĦ
ĠìĿĺìĽĲ ëĵ¤ìĿĺ
ìĺģêµŃ ìĹĲìĦľ
Ġëŀ ©
ĠëıĦìĽĢ ìľ¼ë¡ľ
ëĪĦ ë¦¬
Ġê·¹ ìłģìĿ¸
Ġê·¹ ìŀ¥ìĹĲìĦľ
ìŀ¡ ìĿ´
Ġëª©íĳľ ê°Ģ
Ġê³¼íķĻ ìłģ
Ġíĺ¼ íķ©
Ġìĺ¤ëĬĺ ë°¤
ĠìĤ¬íĥľ ë¡ľ
Ġê²°íĺ¼ íĸĪëĭ¤
Ġì¹ľêµ¬ ëĵ¤ê³¼
Ġê³µê¸ī íķĺëĬĶ
ê·Ģ íķľ
ĠëĭĪ ì¼ĢìĿ´
ĠCNN ìĹĲ
ĠíĻĺê²½ ë³´íĺ¸
ĠíĻį ìĪĺê°Ģ
ĠìĽĢì§ģ ìĿ´ê³ł
ë§¨ ìĿĢ
ĠíĹĮ ìĭł
ĠìĨĮìľł ìĿĺ
ĠìĿĺê²¬ ìĹĲ
íı´ ë¡ľ
ĠìķĦë²Ħ ì§Ģë¥¼
ì·¨ ë¥¼
Ġë²Įìĸ´ ì§ĢëĬĶ
ĠëĲĲ ëįĺ
ĠìłĦì²´ ë¥¼
Ġíĩ´ ìĹŃ
ĠíıĲìĩĦ ë¥¼
ĠìĦłíĥĿ íķľ
ĠìĪĺíĸī íķĺëĬĶ
Ġëĭ´ëĭ¹ ìŀĲìĿ¸
ĠëĩĮ ë¬¼ìĿĦ
ĠìĪĺì¤Ģ ìĹĲ
ĠìĿ´ë£¨ìĸ´ ì§Ģê³ł
ĠíĻķë³´ íĸĪëĭ¤
Ġíķ´ìĻ¸ ìĹĲìĦľ
ĠíĻ© ìļ°ìĦĿ
´ëĤ ¼
ĠìĹĶ ì§Ģ
Ġìłľê¸° íķľ
Ġ198 1
Ġìļ¸ íı¬ìľĦì¸ł
Ġê³łëł¤ íķł
Ġë¬´ê¸° íķľ
ĠAP ìĹĲ
ap p
ri ti
ĠíĮĮë³ĳ ìĿĦ
Ġíı¬ê¸° íķĺì§Ģ
um m
ĠëĽ° ìĸ´ëĵ¤
ĠìĤ´ìķĦ ìŀĪëĬĶ
ĠíĹĮë²ķ ìĿĦ
ĠìķĦë§Ī ëĶĶëĦ¤ìŀĲëĵľ
Ġì¢Į íĮĮ
Ġê²°ìĬ¹ ìłĦìĹĲ
Ġê³µìĬµ ìĿ´
ìħĢ ëŁ¬
Ġê²°ìĿĺ ìķĪìĹĲ
Ġíļ¨ê³¼ ìłģìĿ¸
Ġde f
ĠìŀħìĽĲ íķľ
Ġê·¼ì²ĺ ìĿĺ
ĠìĤ¬ìĿ´íĬ¸ ìĹĲ
ìĬ¤íĤ¤ ëĬĶ
Ġë¬´ëĦĪ ì¡Įëĭ¤
ĠìĤ¬íĺķ ì§ĳ
Ġë¬´ìŀ¥ëĭ¨ì²´ ê°Ģ
ĠIn d
Ġì¡°ì¢ħ ìĤ¬ê°Ģ
ĠëĤĺë ī
Ġê·ľìłķ íĸĪëĭ¤
Ġëıķ ëĬĶ
ĠëıĻìĽĲ íķ´
Ġëħ¼ëŀĢ ìĿĦ
íĢ ¸
íı¬ë¥´ íĪ¬ê°Ī
Ġíģ´ëŁ½ ìĹĲìĦľ
ĠìĤ¬ë¬´ìĭ¤ ìĹĲìĦľ
Ġë³´ìĹ¬ì£¼ ê¸°
Ġë²Ħì§ĢëĭĪìķĦ ì£¼
Ġìŀ¥ìķł ê°Ģ
ĠìĦłê±°ìļ´ëıĻ ìĿĦ
ĠìĹ´ëł ¬íķľ
ĠìĭłìĨį íķĺê²Į
ĠìŀĦìĭł íķľ
ĠëĮĢëĭµ ìĿĦ
Ġê³µêµ° ê¸°
Ġì¤Ħìĸ´ëĵ¤ ê³ł
Ġë³µìļ© íķľ
Ġíĺĳì¡° ë¥¼
ĠêµŃìĻķ ìĿĢ
Ġë¶Īê°ĢëĬ¥ íķľ
ĠëĮĢì²´ íķł
Ġë°ĢëŀĢ ìĿĢ
íĿ¡ ìĹ°
Ġì²¼ ìĭľìĿĺ
ë¬´ìĥ¤ëĿ¼íĶĦ ëĬĶ
ĠìĹ°ê´Ģ ëĲľ
pl oy
ìĥģíĻ© ìĿĦ
ê·¸ëŁ° ê°Ģ
ĠìĦ¹ ìĬ¤
Ġìĺ¥ ìĬ¤
Ġìĸ¼ìĿĮ ìĿ´
ĠëĶ°ëľ» íķĺë©´
ĠìĨĮìĪĺ ë¯¼ì¡±
FBI ëĬĶ
Ġê³łíĸ¥ ìĿ¸
Ġë°°ìłľ íķĺì§Ģ
Ġì´Īëŀĺ íķł
iz ation
Ġë¹Ħíķµ íĻĶ
ĠíĬ¸ëłĪìĿ´ ëĵľ
ON DON
ĠíķŃìĨĮ íķł
ĠìĦ¸ìļ° ì§Ģ
Ġëĭ´ê²¨ ìŀĪëĭ¤
ĠìķĪíĥĢ ê¹Į
Ġíĺ¸ëŀĳ ìĿ´
Ġê³¨ëĵł ê¸Ģë¡ľ
Ġë¹łì§Ī ê¹Į
ëĿ¼ë°Ķ ëĭĪ
Ġì»¤ë®¤ ëĭĪíĭ°
Ġíģ¬ë¦¬ ì¼ĵ
ê³¼ìłķ ìĹĲìĦľ
Ġë§ĪìĿ´ìĬ¤ íİĺìĿ´ìĬ¤
íİĺëįĶ ëŁ¬ëĬĶ
Ġìĭłì²ľ ìĺ¹
Ġê¸ĢëŀĺìĬ¤ ê³ł
íī ģ
ëĤ¨ìķĦ ê³µ
ë¤¼ ìħĢ
ĠìķĦëģ¼ ì§Ģ
ĠìĹĲë©Ķ ëŀĦ
E TA
F or
G O
M EX
R G
S S
a tive
p er
s c
ì ¥
Ġ or
Ġì ·
ëĭ «
ìĿ´ ìłĢ
ê³ł ëĵ±
íķĺ ë©Ķ
íķĺ ê²łì§Ģë§Į
ë¡ľ ê·¸
Ġìł Ĭ
ë¦¬ ìķĪ
ìĿ¸ íķľ
ëĵ¤ ê³ł
ëĵ¤ ê°ĦìĿĺ
íķ´ ìĿĺ
ìĬ¤ ìĹĲê²Į
ìĬ¤ íĮħ
ìĬ¤ íİĢ
ëĿ¼ ìĿ¸ìĿĦ
ĠëĮĢ ì¡°
ìŀĲ ëĤĺ
ìŀĲ ëħĢ
ìŀĲ ë§ĪìŀĲ
ìĤ¬ ìļ©
ìĭľ ëĤ´
ìĭľ ìŀ¥ìĿĺ
ĠìĿ´ ê¸¸
ĠìĤ¬ ìĽĲìĹĲìĦľ
ìĿ¼ ëŁ¬ëĬĶ
ìĿ¼ ì¹ĺë¡ľ
ìĽĲ ëĵ¤ìĹĲê²Į
Ġì§Ģ ìĽĲìĿ´
Ġì§Ģ ì¹Ń
ìķĦ ë¥´
ìķĦ ìĿ´ë¥¼
ìķĦ ìĽĥ
ìķĦ ë°ĶìĬ¤
ìķĦ ë©Ķë¦¬ì¹´
ĠìĪĺ ëĭ¨ìĿĦ
ĠìłĦ ê¸°ë¥¼
ĠìłĦ ëħĲ
ëħ ¹
íĥ ±
Ġëı ĭ
ìĸ´ ìĦľ
ëį ®
ì£¼ ìŀ¬
Ġë¯¸ ëĵ¤
ĠìķĦ ê¸°ìĿĺ
Ġê°Ģ ëĭ¤
Ġê°Ģ ìĿ´ëĵľ
Ġê°Ģ ì¡Įëįĺ
ĠìľĦ ìŀ¥
Ġë§Ĳ ê³ł
Ġë§Ĳ ìĿĢ
Ġë§Ĳ íĸĪìľ¼ë©°
Ġìĭľ íĬ¸
Ġê·¸ ë¡ľ
Ġê·¸ ëĿ¼
Ġê·¸ ëķĮ
Ġê·¸ ì³¤ëĭ¤
Ġë³´ ëĭĪ
ìłĦ ìŀĲ
ìłĦ ì§ģ
ìłĦ íĪ¬
êµ¬ ëĬĶ
ë§Ī ìĹĲ
ë§Ī ìĿĦ
ë§Ī ìĹĲìĦľ
Ġê³µ ë¶Ģ
Ġê³µ ì¡°
Ġê³µ ìĹħ
ê³Ħ ê´Ģ
ìľĦ ê¸°ê°Ģ
ëıĻ ìĺģ
ìķĪ ìľ¼ë¡ľ
ĠìĨĮ ìĪĺìĿĺ
Ġë¹Ħ ìľ¨ìĿ´
íĸī ìľĦìĹĲ
Ġìĺ¤ ì§ķ
Ġìĺ¤ ë¥´ë©°
Ġìľł ê³¨
Ġìľł íĺ¹
ë¹Ħ ìļ©
ĠìĹ¬ ê¶ĮìĿĦ
ĠìĿĺ ì§Ģ
ĠìĿĺ ì§Ģê°Ģ
ë¥´ ëĭ´
Ġìĥģ ìķĦ
Ġìĥģ ê¸ĪìĿĦ
Ġìĥģ íĴĪìĿĦ
íĶĦ ìĻĢ
ëĲĺ ëıĦë¡Ŀ
Ġì¡° ìħī
ìĦł ìĪĺë¡ľ
Ġìłľ êµŃ
Ġìłľ ëıĦë¥¼
ìĦ¸ íĬ¸ìĹĲìĦľ
ëłĪ ìĿ´íĬ¸
Ġíķĺ ìĸĢ
Ġíķĺ ë²Ħëĵľ
íĥĢ ìĹĲ
Ġë§Ī ì£¼
Ġë§Ī ë¦¬ê°Ģ
ĠìĺĪ ê¸Ī
Ġê³ł ìĥĿ
Ġê³ł ë¬¸ìĿĦ
ìĺ¤ ë¥¼
íİ «
ì²´ ìĻĢ
ìķĺ ìľ¼ëĤĺ
ë°© ìķĪìĿĦ
ĠíĽĦ ê³Ħ
ì¦ Ĳ
Ġìļ° ê³ł
Ġê°ľ ëħĲ
Ġëĭ¹ ëĤĺê·Ģ
ĠìĹĨ ìĹĪê³ł
ĠìĹĨ ìĹĪì§Ģë§Į
ĠìķĮ ìķĺëĭ¤
ĠìĥĿ ì¤ĳê³Ħ
ë°ĺ ìĿĳ
ĠíļĮ ìŀ¥ìĿĦ
ĠìĦ¸ ê¸°
ĠìĦ¸ ìļ°ê³ł
ĠëĤ¨ ì§Ģ
ĠëĤ¨ ìķĺëĭ¤
íĺ¸ ë¥¸
íķĻ ëħĦ
Ġìłķë¶Ģ ë¡ľë¶ĢíĦ°
Ġìĭł ìĦ¤
ë¶Ħ ìĿĢ
ì¤ĳ ëł¥
Ġê±° íĸī
Ġê±° ìĬ¬ëŁ¬
ìĹ° ëĮĢ
ìĹ° íķĺê²Į
Ġìĭ¤ ìĹĪëĭ¤
ĠìĹĲ íĥĦ
ĠìĹĲ ìĽĮ
ê±´ ì£¼
Ġê°Ĳ ìĽĲ
Ġìŀħ ì§Ģ
ĠìĤ¬ëŀĮ ìĿ´ëĭ¤
íĭ° ì»·
ëª¨ ê±´
ëª¨ ëį¸
Ġë§¤ ë¦¬
Ġìŀ¬ ê³Ħ
Ġìŀ¬ ìĥĿ
ì½Ķ ë¹Ħì¹ĺëĬĶ
ĠíıŃ ëıĻìĿ´
íİ¸ ìľ¼ë¡ľ
ĠìļĶ ìĨĮ
ĠìļĶ ê²©
ĠìļĶ ì¦ĺ
ĠíĺĦ íĸī
ĠìķĪ ìĭ¬
Ġì§Ħ ë£Į
ê²° ìĿĺ
Ġëĭ¬ íķł
ë²Ħ ëł¸ëĭ¤
ìĹĺ ë¦¬ìŀĲ
ĠìĤ¬ë§Ŀ íĸĪê³ł
Ġíİ Į
ĠìĽĲ ìĿ¸ìľ¼ë¡ľ
Ġë°ľìĥĿ íĸĪëįĺ
Ġê²½ì°° ìĿĦ
Ġê²½ì°° ê´ĢìĿĢ
ë¥´ë ¶Ģ
ë¥´ë §Į
Ġ7 50
ìĭ¬ ìĿĢ
Ġë¶ģíķľ ìľ¼ë¡ľ
Ġì¦Ŀ ì§Ħ
Ġêµ° ìĿĦ
Ġíĺ¸ ìĪĺ
Ġë¡ľ íİĺ
ĠíĬ ľ
ëħ¸ ëĬĶ
ĠëĿ¼ íĭ´
Ġëª© ìĹĲ
ĠíĥĢ ëĬĶ
Ġë°° ëĭ¬
ĠìĥĪ íķ´
ĠíĮĲ ìĤ¬ê°Ģ
Ġê³¼ ëĭ¤
Ġì²´ ì§ĪëŁī
Ġìĭľìŀĳ ëĲĺìĹĪëĭ¤
Ġíķ© ì°¸
Ġëł ī
ĠìłĢ ìŀĳ
ĠA n
Ġë²Ħ ëĥīíĤ¤
Ġì´Ī ì½ľ
Ġì´Ī ëĵ±íķĻêµĲ
Ġë°ľê²¬ ëı¼
ĠìķĦìĿ´ ìĬ¬
ĠìĦłê±° ë²ķ
ĠìķĦíĶĦ ê°ĦìĿĺ
íĺĳ íļĮëĬĶ
´ë¶Ģ íĦ°
Ġê²°ìłķ íķĺê¸°
Ġë¸Į ëŀĺ
ĠêµŃìłľ ìłģìľ¼ë¡ľ
ĠíĨł ì§Ģ
ë³´ëĭ¤ ëıĦ
ĠìĭľìľĦ ìŀĲëĵ¤ìĿĢ
Ġê°Ħ ìłĳ
Ġê±¸ ê³ł
Ġíİĺ íĬ¸ë¡ľ
at ed
re en
re et
re ak
ĠìłĲ ìĹĲìĦľ
Ġìłķì¹ĺ ë²Ķ
Ġs old
Ġs aid
Ġê·ľ ìłľë¥¼
ĠìĹ´ë¦° ëĭ¤
Ġê°Ĳëıħ ê³¼
ê¸Ģ ë¦¬
ĠìĤ¬ìĿ´ ìĸ¸
Ġê¸°ìŀĲ ëĵ¤ìĿĺ
ic ial
íıŃ íĴį
Ġìļ°ì£¼ ë¡ľ
ĠíĻķìĿ¸ íķ´
ĠëģĿ ëĤ´ê³ł
Ġë°± ìĭł
´ëĿ¼ ê³ł
Ġê³µê°ľ ëĲĺì§Ģ
Ġ18 00
ĠìľłëŁ½ ìĹĲ
ĠìľłëŁ½ ìĿĦ
ĠN ew
ĠìĿ´ìļ© íķĺìĹ¬
Ġë¶Ģìĥģ íķľ
ĠíĮĮíĤ¤ìĬ¤íĥĦ ìĹĲìĦľ
ĠíĦ° ì¹ĺ
ĠíĦ° ë¯¸ëĦĲ
Ġëī´ìļķ ì¦Ŀ
ëģ Ŀ
Ġë°©ìĨ¡ ìĿ´
ĠK im
Ġë§ī ëĬĶ
ĠìłĦë¬¸ ìĿĺ
ĠìĦłìĪĺ ìĿ¸
ĠíĪ¬íĳľ ëĬĶ
ĠL G
Ġê°Ļ ìķĺëĭ¤
ë°Ģ íŀĪ
ĠìĤ¬ì§Ħ ìĹĲ
ĠìĻ¸êµĲ ìłķì±ħ
Ġìłľê³µ íķľëĭ¤
ê°ľìĽĶ ìĿ´
ê°ľìĽĶ ê°ĦìĿĺ
ĠíĥĪëłĪë°ĺ ê³¼
ĠëĨį ìŀĳ
Ġëĸł ëĤ¬
ĠíıīíĻĶ ìĥģ
ĠíıīíĻĶ ìłģìľ¼ë¡ľ
Ġì½ľ ëłĪ
ĠíķĻìĥĿ ëĵ¤ìĿĦ
ĠêµŃë°© ìŀ¥ê´ĢìĿ´
íļĮëĭ´ ìĿĦ
ĠìĦĿë°© ëĲĲëĭ¤
ĠìĹ°ë°© ìĪĺìĤ¬êµŃ
Ġëħ¼ìĿĺ íķĺê³ł
Ġìłķì±ħ ìĿĢ
Ġêµ¬ì¡° ëĮĢìĽĲ
íķĦ ìļĶíķľ
ëĿ¼ìļ´ ëĵľìĹĲìĦľ
Ġì§Ģêµ¬ ë¥¼
ĠëıĻë¬¼ ëĵ¤ìĿ´
Ġë¶Īë²ķ ìłģìľ¼ë¡ľ
ĠìĦľìļ¸ ìĿĺ
Ġê²°íĺ¼ ìĭĿ
ĠíĸīëıĻ ìľ¼ë¡ľ
Ġì°¸ê°Ģ íķĺëĬĶ
ur g
ë¯¼ì£¼ ìĭł
Ġë¯¼ê°Ħ ìĿ¸ìĿ´
Ġë²łìĿ´ì§ķ ìĹĲ
ëł¸ ëĭ¤ëĬĶ
Ġë©´ íĹĪ
ì°¨ë¡Ģ ëĤĺ
am e
ĠìĹ°íķ© ìĿĢ
Ġë°ĺêµ° ìĹĲ
Ġë§Īëł¨ íĸĪëĭ¤
Ġë§Īëł¨ íķ´
Ġë¨¹ ìĿ´ë¥¼
Ġìĸ´ëł¤ ìļ¸
Ġìľłê¶Į ìŀĲëĵ¤ìĹĲê²Į
ĠìĦłíĥĿ íĸĪëĭ¤
ĠìĪĺíĸī íķĺê³ł
ch ool
ĠìĿ´ë£¨ìĸ´ ì§Ī
ĠìĿĺë£Į ë³´íĹĺ
ĠëģĮ ìĸ´ëĵ¤
ĠëĤ¨íİ¸ ê³¼
íĹ¤ ëĵľ
Ġê²ĮìŀĦ ìĹĲìĦľ
AP ëĬĶ
ĠíĶĦë¦¬ ë©ĶëĿ¼
Ġìĭ¸ ìĽĢìĿĦ
ìķ¡ ìĿĺ
Ġìľ¡ ìĥģ
ĠíĥĲ ì§Ģ
ĠëłĪìĿ´ ëįĶ
Ġê¸°ëħĲ íķĺê¸°
ìľłëŁ½ ìĹ°íķ©
Ġê³§ ë°Ķë¡ľ
Ġëĭ¹êµŃ ìŀĲëĬĶ
ĠíŀĪ ëĵľë¡ľ
Ġì§ģìĽĲ ëĵ¤ìĹĲê²Į
Ġì¶ķêµ¬ íĮ¬
ĠìŀĳíĴĪ ìĿ´
ìķĦìĿ´ ìĿĺ
Ġì´ĿìĦł ìĹĲ
Ġìŀ¥ë©´ ìĿĢ
Ġëª©ê²© ìŀĲëĬĶ
Ġêµ¬íĺ¸ íĴĪìĿĦ
ĠíĿ¬ë§Ŀ íķĺê³ł
Ġìłķê¶Į ìĿĢ
ĠëıĻë§¹ ìĿĦ
ĠìĪł ìĹĲ
Ġìĭłìļ© ì¹´ëĵľ
ĠìľĦë°ĺ íķľ
ĠìĪĺìĥī ìŀĳìĹħìĿĦ
Ġë¸Ķë¡ľ ê±°
ĠìŀĦëªħ ëĲľ
Ġìı ľ
Ġë²¨ ëª¬íĬ¸
Ġë¡ľì¼ĵ íı¬
ĠìĹ°ê²° íķĺëĬĶ
ĠìĪĺìĿµ ìĿ´
Ġë°Ķëĭ¤ ê°Ģ
Ġë¶Ħë¦¬ ëĲľ
Ġê¸°ì¤Ģ ìĹĲ
Ġê·ľìłķ íķĺê³ł
Ġë¶Ģê·¼ ìĹĲ
Ġë¶Ģë¬¸ ìĿĺ
Ġìķ¼íĽĦ ê°Ģ
ĠìĸĳêµŃ ê°Ħ
ĠíĶĮëłĪìĿ´ ìĸ´
Ġê·¼ë¬´ íķĺëĬĶ
Ġëĥī ëıĻ
Ġëģ¼ ì¹ł
ĠíĬ¸ëŁŃ ìĿĦ
ĠìĬ¤íħĮ ëĶĶìĹĦ
Ġê¶ģ ê¸Ī
Ġê¾¸ ì¤Ģ
ëĥĪ ëįĺ
Ġë³´ìĦĿ ìľ¼ë¡ľ
ĠìĿĳëĭµ ìŀĲ
Ġìĸ´ëłµ ëĭ¤
Ġìĸ´ëłµ ê²Į
ĠëģĮìĸ´ ëĵ¤ìĿ´
Ġìĭľíĭ° ê·¸ë£¹
Ġì½ĺìĦľ íĬ¸
Ġ194 9
ĠìĦ¸ìĽĮ ì§Ħ
ĠìĦłë³´ ìĺĢëĭ¤
Ġì£¼ìĦĿ ìĿĢ
ĠìĹħë¬´ ìĹĲ
Ġë¬´ë£Į ë¡ľ
ìķĦë§Ī ëıĦ
Ġì¿łëį°íĥĢ ë¥¼
Ġë¡ľë¹Ħ ìĬ¤íĬ¸
ĠëĦĵ ìĿĢ
Ġì¶ľëıĻ íķľ
Ġë£ ¸
Ġëªħë°± íŀĪ
ĠìŀĲìĦł ëĭ¨ì²´
Ġê³łë¦½ ëĲľ
ĠíĶĦëŀĳ íģ¬
Ġê°Ŀ ìĭ¤
Ġëĸ¨ ìĸ´ëľ¨
ë¬ĺ íķľ
Ġê³¼ëıĦ íķľ
ĠìķĦìĬ¤ ëĤł
ĠìĽĲì¹Ļ ìĿĦ
WHO ëĬĶ
ĠêµĲíĨµìĤ¬ê³ł ë¡ľ
Ġë°©ìĤ¬ ëĬ¥
Ġêµ¬ë©į ìĿĦ
Ġê³¼ë°ĺ ìĪĺ
Ġê¸°ìĺ¨ ìĿ´
ëľ ¨ë¦¬
ëª¨ëĳĲ ê°Ģ
Ġê°Ĳìĺ¥ ìĹĲ
Ġë® ĮíĹ¨
ĠìĥĿë°©ìĨ¡ ìľ¼ë¡ľ
Ġê²ģ ëĭĪëĭ¤
ìĸ´ëĦ £
ĠêµŃíĨł ìķĪë³´ë¶Ģ
ĠëĤ´ë¬´ ìŀ¥ê´ĢìĿĢ
Ġíģ´ëŀĺ ìĭĿ
ëĸ¨ìĸ´ ì§Ħ
Ġë¦¬ìļ° ëį°ìŀĲëĦ¤ìĿ´ë£¨
ĠëŁ¼ ìĬ¤íİłëĵľ
ĠìķĹ ìķĦ
ĠìĽĲëĤ ´ëĮĢ
6 9
8 2
A I
D R
F IFA
M D
O PEC
P F
S eoul
W TO
a e
o ft
t ing
u k
w e
ã Ĥ
ì ĳ
Ġ [
Ġë ķ
ëĭ¤ íģ¬
ëĭ¤ ë¥´
ê³ §
ìĿ´ ê±°ëĤĺ
ìĿ´ ê¸°ëıĦ
ìĿ´ ëłĩ
ê³ł íĸĪëĭ¤
ê³ł ìľĦ
ìŀ İ
ìł Ń
íķľ ìĿĺ
íķĺ ìĿĺ
íķĺ ìĻĢ
ì§Ģ ë¦¬
ì§Ģ íľĺ
ê°Ģ ê²Į
ê°Ģ ìĪĺ
ê°Ģ ì¦ĪíĶĦë¡¬
Ġìķ °
ìĿ¸ ê°Ħ
ëł ·
ìĬ¤ íı¬ì¸ł
ëĿ¼ ëĤĺ
ê¸° ëķĮë¬¸ìĹĲ
ëĤ Ń
ĠëĮĢ ìĤ¬ë¥¼
ĠëĮĢ ê²°ìĿĦ
ìŀĲ ìĺĢëĭ¤
ìĤ¬ ë¥´
ìĤ¬ ëĵ¤ìĿĦ
ìĤ¬ ë²ķ
ìĤ¬ ì§ĦìĿĦ
ĠìĿ´ ìĤ¬íļĮ
ëŁ ¿
ìľ¼ë¡ľ ìĿĺ
Ġì§Ģ íĳľ
Ġì§Ģ ìĭĿ
Ġì§Ģ ë¢°
ìķĦ ê¸°
ëŀ ©
ĠìĪĺ ì§ģ
ĠìŀĪ ê¸¸
ëį ±
ìłģ ìĿ¼
ëĵľ ë¦¬ìķĦ
ĠìķĦ ëĵ¤ìĿĢ
ĠìķĦ ë¯¸
Ġê°Ģ ë¦¬
Ġê°Ģ ëŃĦ
Ġì£¼ ë¥¼
Ġì£¼ êµĲ
ìłľ íĶĦ
Ġê¸° ìłģ
Ġê¸° ê¶Į
Ġìĭľ ìĿĺ
Ġìĭľ ê¸°ê°Ģ
Ġìĭľ íķľìĿĦ
ìĪĺ ë°±
Ġê²½ ë³´
Ġê·¸ ëŁ´
íĻĶ íķĻ
Ġì¤ĳ ë¦½
Ġë³´ ìĿ´ì§Ģë§Į
ĠìĿ¸ íĶĮë£¨ìĹĶ
ê± ´ë³µ
êµ¬ ìłľ
Ġë°ľ ëªħ
ĠíĻ Ģë¡ľ
ìĦ± ëªħìĿĦ
ìĭł ìłĢ
Ġë¶Ģ ìĿ¸ìĿ´
Ġë¶Ģ ëĮĢê°Ģ
Ġë¶Ģ ëĭ¹íķľ
ë§Ī ì¼ĵ
Ġê³µ ìķĪ
ĠìĿ¼ ëĭ¨
ĠìĿ¼ ê¸°ë¡ľ
ê´Ģ ìľ¼ë¡ľ
ìļ° ê°Ģ
ĠíĶ ½
ĠêµŃ ê¸°ë¥¼
Ġë¹Ħ ë¬´ìŀ¥
ë¯¸ ëŀĺ
íĸĪ ëĬĶì§ĢëĬĶ
Ġìĺ¤ ë¥´ëĬĶ
Ġìĺ¤ ë§Īë¥´
Ġìľł ê°Ģì¡±
ĠìĹ¬ ì§ĦìĿ´
ë¥´ ìĭľìķĦ
ìĨĮ ëĭĪ
ĠìŀĪëĬĶ ì§Ģë¥¼
Ġì¡° ëĭ¬
Ġì¹ ¸ëĭ¤íķĺë¥´
Ġë¯¸êµŃ ë°ľ
ë°Ķ ëĭ¥
Ġìłľ ìĸ´
Ġìłľ ìŀĦ
Ġìłľ ëĭĪíį¼
ëłĪ ë¹Ħ
Ġë§Ī ìĬ¤
ìĽĶ ìļĶìĿ¼
ĠëıĻ ìļĶ
ĠëıĻ ìª½
ĠëıĻ ë¶ĢìĹĲ
ëĦ ĵ
ĠìĺĪ ìĤ°ìĿĦ
Ġê³ł ìłķ
ìĺ¤ ë¦¬
ìĺ¤ íĶĦëĿ¼
ìĹ¬ ëĭ¹ìĿ¸
ë°© ë¬¸
ĠìĬ¤ ì½§
Ġë°© ë¶ģ
ìĨį ìĹĲ
ê³µ ìĭĿ
Ġê²° ë³Ħ
Ġíķ´ ì¤Ģëĭ¤
ĠìĥĿ íĽĦ
ĠìĤ ½
Ġë°Ķ íĭ°ì¹¸
Ġë°Ķ ìĺĪìĬ¤íħĮ
ĠìĦ¸ íı¬ë¥¼
Ġìŀ¥ ìĨĮìĹĲ
Ġ4 50
ĠëĤ¨ ìĿĦ
Ġë¬´ ìĿĺ
Ġë¬´ ê´Ģ
Ġ6 000
íķĻ ìŀĲìĿ¸
ìļ´ ìĺģ
Ġë¶Ī ë§¤
Ġë¶Ī íıī
Ġë¶Ī íĸīíķľ
Ġê³Ħ ê¸°ê°Ģ
ì¤ĳ ëıĻ
ì¹´ ìĿ´
ì¹´ ìī¬
Ġê±° ëĿ¼ê³ł
Ġìĭ¤ ê°Ĳ
ĠìĹĲ ë¯¸
ĠìĹĲ ë²Ħ
ĠìĹĲ ìĿ´ë¯¸
Ġê°ķ ìĹ°
ĠíĶĦ ëŀĢ
ĠíĶ¼ ìĿĺ
ĠíĶ¼ ëĭīìĬ¤
ë²ķ ìĽĲìĹĲìĦľ
Ġë¬¸ íķĻ
Ġìĺ¬ ë°Ķë¥¸
ì½Ķ ê°Ģ
ì½Ķ íĶ¼
ĠíıŃ ëıĦ
íİ¸ ìĿĦ
ĠíĺĦ ëªħíķľ
ĠêµĲ íļĮìĹĲìĦľ
ĠìĿ´ëĿ¼íģ¬ ìłĦìĹĲ
ë²Ħ ëĬĶ
ĠíĻķ ë¥łìĿ´
ĠìĻ¸ ì¹ĺë©°
ë¸Į ìĬ¤
ë¸Į ëŀľëĵľ
ë¸Į ëĿ¼ìĿ´ìĸ¸
ĠìĽĲ íķľëĭ¤ê³ł
ĠìĬ¹ ë¶Ģë¥¼
ëŀĢ ìĿĺ
íĶ¼ ê³ł
ë²ł ëĿ¼
Ġëªħ ìĿ¸
ë¥´ë °
ê°Ĳ íķľ
ê°Ĳ ìľ¼ë¡ľ
ê°Ĳ ê³¼
ĠëĶ ´
Ġêµ° ë³µ
ëĤ´ ìļ©ìĿĦ
ĠìĺĪìłķ ëĮĢë¡ľ
Ġì¤ĳêµŃ ìĿ¸
Ġë°ľíĳľ ê°Ģ
ĠíĪ¬ ìĹ¬
ĠìĦ¤ ëªħìĿĦ
ĠëĮĢë³Ģ ìĿ¸ìĿĺ
ĠëĿ¼ ëª¨ìĬ¤
Ġë²ķ ë¬´ìŀ¥ê´ĢìĿĢ
Ġë³´ëıĦ ëĲľ
Ġíķł ë¨¸
ìłĲ ìĿĺ
ĠìĹ¬ìĦ± ìľ¼ë¡ľ
ĠìĺģêµŃ ìĿ´
Ġê³¼ ìŀī
ĠëıĻìķĪ ìĹĲ
Ġìłģ ë²ķ
Ġíķµ ìĿĦ
Ġê²Ģ ìĭľ
Ġê²Ģ ì¶ľ
Ġíıī ìĥĿ
Ġíıī ë²Ķíķľ
ĠìĺģíĻĶ ìłľëĬĶ
Ġìĸ¸ ìĸ´
Ġìĭľìŀĳ íķĺê¸°
Ġìĭľìŀĳ íĸĪê³ł
ĠìłĢ ìŀĲìĿ¸
ìĤ´ ìĥģ
ìłĢ ê°Ģ
ĠA FP
ìĽĮ ì¦ĪëĬĶ
ìĺ¨ ëĤľ
Ġíģ¬ ê¸°ê°Ģ
ĠìĹŃ ìĤ¬ê°Ģ
Ġê²½ê¸° ìŀ¥ìĹĲ
ë°° ëĤĺ
Ġê²½ìļ° ëĬĶ
Ġ11 0
ĠìļĶêµ¬ ê°Ģ
Ġë¸Į ëłĪ
Ġë¸Į ëŀľ
Ġë¸Į ë¤¼ìħĢ
Ġì§ĢëıĦ ë¥¼
ëĦĪ ìĬ¤
ëĦĪ ëŁ´
Ġê²°ê³¼ ìĹĲëĶ°ë¥´ë©´
Ġíĳľ ìłģìĿ´
Ġê·¼ ìĨĮíķľ
Ġë§ŀ ì¶ĺ
Ġê²Į ëĨĪ
ĠíķĦìļĶ íķĺëĭ¤ëĬĶ
ĠëĮĢìĦł ìĿ´
Ġê°ĸ ëĬĶëĭ¤
Ġëĵľ ë¬¸
ĠìłĲ ìĿĢ
Ġì±Ħ ê¶Į
Ġs c
Ġìķł êµŃ
Ġê°Ĳëıħ íķľ
Ġëĵ¤ìĸ´ ìĺ¤ëĬĶ
Ġìº ¥ê±°ë£¨
Ġì§Ī ìĭĿ
ic h
ë¶Ī ê°Ģ
íĮ¨ ìħĺ
ĠìĭĿ ìĤ¬ë¥¼
ĠëĤł ìĿĦ
ĠëĤł ìĶ¨ê°Ģ
ĠíĻķìĿ¸ íķĺì§Ģ
Ġì§Ħíĸī íķĺëĬĶ
Ġì§Ħíĸī ëĲĲëĭ¤
Ġê¶Į íĸĪëĭ¤
ĠM an
ëĵ± ê¸ī
ĠP ress
Ġë²Ķ ëŀĮ
ĠN ews
Ġf l
ìĥ¤ ë¦¬íĶĦ
Ġë¯¼ì£¼ëĭ¹ ê³¼
ĠëĤĻ íķĺ
ëī´ ìĬ¤ëĬĶ
Ġê¸°ìĥģ ì²ŃìĿĢ
ĠìĺĪìĥģ ëĲľëĭ¤ê³ł
Ġëĭ¹ìĦł ìŀĲìĿĺ
ë¸Ķ ëĿ¼ëĶĶë¯¸ë¥´
ĠíķŃê³µ ê¸°ê°Ģ
ìĶ¨ ë¥¼
Ġëĭ¤ìĿĮ ìľ¼ë¡ľ
Ġë²łëĦ¤ìĪĺìĹĺëĿ¼ ìĿĺ
Ġì°¨ëŁī ìĿĺ
ĠíħĮ ë¦¬
Ġì±ħ ìłķ
Ġíĺķ ë²Į
Ġë°Ģ ëŁ¬
Ġë°Ģ ë§¤
Ġë°Ľìķĺëĭ¤ ëĬĶ
Ġíĸ¥ íĸĪëĭ¤
Ġê¹Ģ ê²½
Ġìłķìĥģ ìĹĲ
Ġìłķìĥģ ìłģìľ¼ë¡ľ
ĠìĥģìĬ¹ ìĿĦ
ĠíıŃë°ľ ë¬¼ìĿĦ
ĠìĬ¹ë¦¬ íķĺë©°
Ġìļ°ë¦¬ ë²ł
Ġì¸¡ ë©´ìĹĲìĦľ
Ġíĺĳìĥģ ìĹĲìĦľ
Ġíİ¸ ìĿĺ
Ġëĳ ¥
Ġ23 0
Ġê±´ë¬¼ ë¡ľ
ĠìĤ´íķ´ íĸĪëĭ¤
ĠíĶĦë¡ľê·¸ëŀ¨ ê³¼
ĠìĿĢíĸī ìĿ´
ĠíĤ¤ ëĵľ
Ġì¡°ì§ģ ìĿ¸
ëĪĦ ê°Ģ
Ġê²© ì°¨ë¡ľ
ëĨ Ģëĵľ
ĠíĮĢ ìĿĢ
Ġëª©íĳľ ìĹĲ
ëģ¼ ë¥¼
Ġìļ°ìĬ¹ íĸĪëĭ¤
Ġì¶©ëıĮ íķĺëĬĶ
ĠíķĻêµĲ ìĿĺ
Ġë¶ĢìĿ¸ ê³¼
ìĿ´ëŀĢ ìĿĺ
Ġì¹ľêµ¬ ìĻĢ
ĠíĨµê³¼ íķľ
ëŁ´ ëĵľ
ĠêµŃê²½ ì§ĢìĹŃìĹĲ
ê³¨ íĶĦ
Ġë¹Ī ë²Ī
Ġê²Ģì°° ìĹĲ
ĠíĻĺê²½ ìĹĲìĦľ
Ġë©´ ëĭ´ìĿĦ
ĠìĽĢì§ģ ìĿ´ëĬĶ
ì°¨ë¡Ģ ìĿĺ
ĠíĿ¬ìĥĿ ìŀĲëĵ¤ìĿ´
Ġìĩ¼ ìĹĲ
Ġìĩ¼ ë¥¼
Ġíį¼ ìł¸
Ġê¸°ê°Ħ ìĿ´
Ġìĭłë¬¸ ìĿ´
Ġìĭłë¬¸ ìĤ¬
Ġì§ĢëĤĺ ì¹ľ
Ġë³ĢíĻĶ ëĬĶ
Ġë°ľìĤ¬ ëĲľ
ĠëĲĲ ìĿĦ
Ġë¨¹ ìĿĦ
ĠìķĮì¹´ìĹĲëĭ¤ ë¥¼
Ġê±´ìĦ¤ ìĿĦ
Ġì§Ģì§Ħ ìĿĢ
ĠìĪĺíĸī íķľ
ĠëĩĮ ì¡¸
ìŀĲëĵ¤ ë¡ľ
Ġì¦Ŀê±° ëĬĶ
íĮĮíĤ¤ìĬ¤íĥĦ ìĿĺ
ĠìĿĺë£Į ì§Ħ
ìĿ´ìĬ¤ëĿ¼ìĹĺ ìĿĺ
ĠìĹĶ ì§Ħ
ìĤ¬ê±´ ê³¼
ĠìĿ´ëģĮ ìĹĪëĭ¤
ëĳĺ ëŁ¬
Ġìĸ´ë¦°ìĿ´ ëĵ¤ìĿĦ
íĬ¸ë¡ľ íĦ°
Ġìĸµ ìķķ
Ġë¬´ìĥ¤ëĿ¼íĶĦ ìĿĺ
ĠìĤ°ìĹħ ìĿ´
Ġíĸīìłķë¶Ģ ìĹĲ
Ġë¶Ģëª¨ ëĬĶ
ĠìĦłìłķ ëĲľ
Ġre l
ìľłëŁ½ ìĿĺ
Ġì£¼ëıĦ ìĿĺ
ĠëıĦë¡ľ ê°Ģ
ĠìłĦíķ´ ì§Ģê³ł
Ġë¶Ģìłķ ìĦłê±°
ĠíĿ¬ë§Ŀ íķľëĭ¤
ĠíĿ¬ë§Ŀ íķľëĭ¤ê³ł
Ġíı¬ê¸° íĸĪëĭ¤
Ġë¹Ħë¡¯ íķ´
Ġì¶ĶëĿ½ íĸĪëĭ¤
Ġì§Ģë¶Ī íķł
íĥģ ìĭł
ìĬ¤ëŁ¬ ìĽĮ
Ġê²°ìĬ¹ ìĹĲìĦľ
ĠìłĦíĨµ ìĿĦ
ĠìķħíĻĶ ëĲĺê³ł
ĠëıĻìĿĺ íĸĪëĭ¤ê³ł
ak istan
Ġì·¨ìŀĦ ìĭĿ
ĠëĤĺíĨł ìĿĺ
ĠëĬ¥ ëł¥
Ġìĸ´ë¨¸ëĭĪ ìĿ¸
ĠëĨĴìķĦ ì¡Įëĭ¤
ê³µíĻĶ ëĭ¹ìĿĺ
ĠìķĦëŀį ìĹĲë¯¸ë¦¬íĬ¸
ĠìĿ´íĭĢ ì§¸
íĭ± íķľ
ĠíĨ ±
EO UL
ĠìĿ´ìĨ¡ ëĲĲëĭ¤
Ġê²ĥìĿ¸ ì§ĢìĹĲ
ĠìĪĺëĭ¨ ìľ¼ë¡ľ
ĠëĤ´ë¬´ë¶Ģ ê°Ģ
ĠìĹ°ìĨį ìľ¼ë¡ľ
ĠíĿ¡ ìĪĺ
ĠìĹ¬ìĻķ ìĿĢ
Ġì¼ĢìĿ´ ìĭľ
ĠìĻĦíĻĶ íķĺê¸°
Ġë²½ ìĹĲ
Ġis s
Ġê³łëŀĺ ë¥¼
Ġíĥľìĸĳ ìĹ´
Ġíķ´ë³Ģ ìĹĲ
ĠëĮĢì²ĺ íķĺê¸°
199 0
Ġë°ĶìĿ´ ëĵł
Ġì´Ŀê¸° ëĤľ
Ġê¸°ìļ¸ ìĿ´ê³ł
ĠìĨĮì§Ģ íķĺê³ł
Ġìĸĺ ê¸°ë¥¼
ĠëłĪëĵľ íģ´ë¦¬íĶĦ
ĠíĹ¬ê¸° ëĭĪ
ĠíļįëĵĿ íĸĪëĭ¤
íĥĲ ìĤ¬
Ġíķ©ë¥ĺ íĸĪëĭ¤
ĠëģĮìĸ´ ìĺ¬
Ġë®¤ ì§ģ
ĠëĦ¤ëįľ ëŀĢ
ĠìĪĺìļĶ ê°Ģ
Ġê·ł íĺķìĿĦ
PA ëĬĶ
Ġë¬¶ ìĹ¬
Ġëĭ¤ë£¨ ê³ł
ĠìĥĪëģ¼ ë¥¼
Ġì¶Ķêµ¬ íķĺëĬĶ
Ġë¹ĦíĭĢ ì¦Ī
Ġë¶Īíİ¸ íķľ
ĠìĹ¬ë¡łì¡° ìĤ¬ë¥¼
ĠëĤ¨ìķĦíĶĦë¦¬ì¹´ ê³µíĻĶêµŃ
Ġìŀ¬ê±´ ì¶ķ
Ġìµľìļ° ìĪĺ
ĠìĬ¹ëł¤ ëĵ¤ìĿ´
Ġì«ĵ ìķĦ
ĠëĤłì§ľ ë¥¼
ĠìĿ´ë³ ĳ
ëĭ¬ëĿ¼ ìĿ´ëĿ¼
Ġê°ĢìĨį íĻĶ
Ġë¶Ģíĥģ íĸĪëĭ¤
ëĭĪì½ľ ëĿ¼
Ġëľ¨ ê±°ìļ´
Ġíİĺë¥´ëĤľ ëıĦ
íĺģëªħ êµ°
ĠíĮĮíĮĮëĿ¼ ì¹ĺ
ĠìĦ¸ìĨį ì£¼ìĿĺ
Ġë³´ìĬ¤ ëĭĪìķĦ
ĠìĿ´ìłķ ìĿ¸
iver s
ustr al
Ġë²łìĸ´ ìĬ¤íĦ´
ìĹ´ë¦°ìļ°ë¦¬ ëĭ¹
minist ration
Ġì§ĢëĭĪ ê³ł
ĠBB K
ê±´ë³µ ì§Ģ
% )
) âĢĿ
9 6
B l
B ush
F TA
I s
I MF
O S
R I
S EOUL
a j
a u
a im
c es
¸ ìĿĦ
è ĭ
ê ¶Ī
Ġì ī´
Ġë ±ħíģ¬
ìĹ ´ëĮĢ
ìĿ´ ê²Į
ìĹĲ ìĸ´ë²Ħ
ìŀ ĩ
íķľ íķľ
íķľ ëķĮ
íķĺ ëĤĺ
ë¡ľ ìĿ´ëĬĶ
ì§Ģ ìķĦ
ì§Ģ ìĹĪëĭ¤
ë¦¬ ì¦ĺ
íķ´ ìĻ¸
ìĬ¤ ë¡ľë¥¼
ëĿ¼ ë°°
ëĿ¼ ëĶĶìĺ¤
ĠëĮĢ ìĤ¬ìĻĢ
ĠëĮĢ íĻĶê°Ģ
ìŀĲ ìĤ°
ìŀĲ ëĵ¤ëıĦ
êµŃ ëĵ¤ìĿĺ
ìĭľ ëĭ¤
ĠìĿ´ ê²ĥìĿĦ
ë³ ´ëĲĺ
ìĽĲ ëĵ¤ê³¼
ìĽĲ ìĦľë¥¼
Ġì§Ģ íĸ¥
Ġì§Ģ ìľĦë¥¼
Ġì§Ģ ëĤ´ê³ł
ìķĦ ë¶Ģ
ëŀ ŃíĤ¹
ĠìĪĺ ì§Ģ
ĠìĪĺ ë§Į
ĠìĪĺ ëħĦ
ĠìĪĺ ìĬµ
ĠìĪĺ ìĹ¼
ĠìĪĺ ì¹ĺê°Ģ
ĠìłĦ ìĿĺ
ĠìłĦ ìĦ¸
ĠìłĦ íĺķìłģìĿ¸
ĠâĢ Ŀ
ìĸ´ ëĵľ
ìĸ´ ì§ĢëĬĶ
ìĸ´ íľĺ
ëĮĢ ìĤ¬
ëĮĢ ìĤ¬ê´Ģ
ì£¼ ë³Ģ
Ġë¯¸ íĬ¸
Ġë¯¸ ìļ©
Ġë¯¸ ëĦ¤ìĨĮ
ĠìĿ´ë į°
ĠìĿ´ë ª©
ìłľ íķľ
Ġë§Ĳ ìķĺëĭ¤
Ġë§Ĳ ìŀħëĭĪëĭ¤
Ġê¸° ëĳ¥
Ġìĭľ ë²Ķ
Ġê²½ ìĿ´
Ġê²½ ìĤ¬ëĬĶ
Ġìłķ ìĭĿìľ¼ë¡ľ
Ġíĺ Ĳìĺ¤
íķł ë¦¬ìļ°ëĵľ
ĠìĿ¸ ê¶ĮìĿĦ
ë¬¸ ìłľëĬĶ
ë¬¸ ìłľìĿĺ
íĦ° ìĹĲ
ìĦ± ëªħìĿĢ
Ġë¶Ģ ì¶Ķ
Ġê³µ ìĥģ
Ġê³µ ì§ģ
Ġê³µ ìŀ¥ìĹĲìĦľ
ĠìĿ¼ ìĿ´ìĹĪëĭ¤
ĠìĿ¼ ìłķìĹĲ
ìķĪ ìĹĲëĬĶ
ìļ° ìĦł
ìļ° íģ¬ëĿ¼ìĿ´ëĤĺ
Ġëĭ¤ íķĺê³ł
Ġëĭ¤ ë¥´ê²Į
Ġëĭ¤ ë£°
Ġë¹Ħ ë°©
íĸĪ ìĿĮìĹĲëıĦ
Ġìĺ¤ ì§ģ
Ġìľł íı¬
ĠìĹ¬ ìļ°
ĠìĹ¬ ìĤ¬ìĿĺ
ë¥´ ë¥¼
íĶĦ ë¦°
íĶĦ ìĦ¬
ìĦ¸ íĥģ
ĠìĹ° ê´ĢìĿ´
Ġíķĺ ë°ĺ
ì¡° ëĬĶ
ĠìĦł ëį°ìĿ´
íĤ¤ ìĬ¤
Ġê³ł ë°±
ìķ¼ ìĥĿ
ìĺ¤ ìĬ¤
ìĺ¤ ëŀ«ëıĻìķĪ
ìĺģ ìĸ´ìĤ¬ìłĦ
ë°© ìľ¼ë¡ľ
Ġë°Ľ ëįĺ
Ġë°© ìķĪìĹĲ
ê³µ ìĽĲ
Ġê°ľ ì¡°
Ġëĭ¹ ìĪĺëĬĶ
Ġê²° ë°±
Ġíķ´ íĺĳ
Ġíķ´ ìķĪìĿĦ
ĠìĥĿ ê¸°
Ġë°Ķ ë°ĶëĿ¼
Ġë°Ķ íĢ´
Ġìŀ¥ êµ°
Ġì´Ŀ ìľ¼ë¡ľ
ë¯¼ êµŃ
ë¬¼ ê³¼
ë¬¼ ì§Ī
Ġë¬´ ìĦľ
íĺ¸ íĶĦ
ìĤ° íĥĢ
Ġêµ¬ ì¹ĺ
Ġêµ¬ ìĹŃ
Ġêµ¬ ë¶Ħ
Ġêµ¬ ìĬ¤ë§Ī
Ġíģ ´ë£¨
íĮĮ ìĹĲ
Ġìĭł ìĦłíķľ
Ġë¶Ī ëªħ
ì¤ĳ êµŃìĿ´
Ġê±° ìĦ¸
ìĹ° ìĬ¹ìĿĦ
ëĶĶ ë¸Į
Ġìĭ¤ ìļ©
Ġìĭ¤ íĺķìĿĦ
ĠìĹĲ ëĶĶ
Ġë§Į íļĮ
íĥĦ ê³¼
ĠëĤ´ ìŀ¥
ĠëĤ´ ìķ¼
ĠëĤ´ ìłĦìľ¼ë¡ľ
Ġê°Ĳ ìķĪ
ĠëķĮ ëıĦ
ëª¨ ëĬĶ
ĠíĶĦ ëłĪìĿ´
Ġì°¨ ê³ł
ë²ķ ìľ¼ë¡ľ
Ġë¬¸ íĻĶë¥¼
Ġìŀ¬ ê²°íķ©
ĠìĿ´ë² ¤
ĠìļĶ íĬ¸
Ġì§Ħ ìĭ¤ìĿĦ
ĠìŀĲìĭł ëĵ¤ìĿĦ
ĠêµĲ íĨł
Ġì¶Ķ ëıĦ
Ġì¶Ķ ìĪĺê°Ĳ
´ëł ¥
Ġì£¼ìŀ¥ íķ´
on d
ĠìĽĲ ê²©
ëŀĢ ëĭ¤
íĶ¼ ìĿĺ
íĶ¼ ëĭīìĬ¤
Ġíĸī íķľ
an ge
ê°Ĳ ìĹĲ
Ġêµ° ìĪĺ
ìĸ´ë Ĩ
íķ¨ ìĹĲ
íķ¨ ê³¼
Ġì¤ ¬ëĭ¤
Ġ8 3
Ġ8 7
Ġì§ĳ ìĿ´
ĠíķľêµŃ ìĿ¸ëĵ¤ìĿ´
ëįĶ ë³´ê¸°
ĠëĿ¼ ìļ´
ĠëĿ¼ ìļ¸
Ġëĭ¨ ìĸ¸
Ġëĭ¨ ìŀ¥ìĿĢ
Ġë²ķ ê³¼
ì²Ń ìĿĦ
Ġë°° ëŁŃ
ti g
Ġ9 8
ë¯¸êµŃ ìĹĲìĦľëĬĶ
ĠíĽĦë³´ ìŀĲ
ĠíĻĶ ìĦĿ
Ġìķ¼ ê°Ħ
Ġìķ¼ ìĭ¬
ĠC or
Ġìłģ íŀĮ
Ġì²´ ìĿ¸
Ġìķŀ ìĹĲìĦľ
Ġìĭľìŀĳ íĸĪìľ¼ë©°
Ġë¬¼ ëĿ¼
ĠìłĢ ê²©
ìĤ´ ìĹĲ
ĠìĤ¬ìļ© ìŀĲê°Ģ
ĠëłĪ ìĿ¸
ĠíĶ¼íķ´ ëĬĶ
ĠìĹ°êµ¬ ìĽĲëĵ¤ìĿĢ
ë¥ĺ ëĬĶ
ĠìĥĿê°ģ íķł
ĠìĹ´ ë¦¬ê³ł
Ġ20 14
ĠëĴ¤ ëį®
Ġì¡°ìĤ¬ íķĺëĬĶ
Ġë°ľê²¬ íķ´
Ġë°ľê²¬ ëĲĲìľ¼ë©°
Ġì½Ķ ìĬ¤
Ġíı¬íķ¨ ëĲł
Ġì¹´ íĨ¨ë¦Ń
ëĿ¼ìĿ´ íĶĦ
ëĿ¼ìĿ´ ìĬ¤ëĬĶ
ê°ķ ìĿĦ
Ġì§Ģì§Ģ ìľ¨ë¡ľ
íĪ¬ ìĬ¤
ë°° ìĹĲ
Ġê²½ìļ° ìĹĲ
Ġê²½ìļ° ë¥¼
ĠíĻĺ ìŀĲëĬĶ
Ġê²°ìłķ íķľ
Ġê¹ ľ
Ġì§ĢëıĦ ìŀĲë¥¼
Ġë©Ķ íĿĲ
ìĺĪ ë£¨ìĤ´ëłĺ
íħĮ ìĿ´íĶĦ
Ġë³µ ë¶Ģ
ìĺ¬ ë©Ķë¥´íĬ¸
Ġë§ŀ ì¶ľ
Ġì¹ľ ë¶Ģ
Ġê¸°ë¡Ŀ íĸĪìľ¼ë©°
ĠìłĲ ìĹĲ
Ġì±Ħ ë¡ľ
ĠëĤĺíĥĢ ëĤ¸
ĠëĤĺíĥĢ ëĤ¬ëĭ¤ê³ł
ĠìĤ¬ìĿ´ ë¡ľ
ĠíĮĶ ëł¤
ou ld
ĠìĪ¨ ì§Ģê²Į
ĠëĤł ê°ľ
Ġê¶Į ìľł
Ġê°Ģì¡± ëĵ¤ìĿĦ
ĠíĶĦëŀĳìĬ¤ ìĻĢ
ĠìĨį ìľ¼ë¡ľ
Ġë°ľìĥĿíķľ ì§Ģ
Ġë²Ķ íĸīìĿĦ
Ġf irst
Ġë¶Ģìĥģ íĸĪìľ¼ë©°
ĠíĮĮíĤ¤ìĬ¤íĥĦ ìĿĦ
ĠB DA
ĠíĦ° ì§Ħ
ĠìľłìĹĶ ìĿĢ
ëģ Ī
Ġa d
Ġíķ´ê²° ìĹĲ
Ġíķ´ê²° ì±ħ
ë¸Ķ ë¡ľ
ë¸Ķ ëŀĻ
Ġìĥģíĥľ ìŀħëĭĪëĭ¤
Ġìłķë³´ ëĬĶ
ĠëıĮìķĦ ê°Ķëĭ¤
ĠìķĶ ìĤ
ĠL ife
ĠU FO
ĠíķĺëĿ½ ìĿĦ
ĠìĹ¬ëŁ¬ ê°Ģì§Ģ
Ġìŀ¡ ê¸°
Ġìłľê³µ íķĺê¸°
Ġê¹Ģ ìĦłìĿ¼
ĠëĤ© ìĦ¸
Ġê¸ī íĮĮ
ĠëĨį ìŀ¥
ĠëĨį ë¶Ģ
Ġìłķìĥģ ìłģìĿ¸
ĠìĥģìĬ¹ íķł
Ġìķħ ìĿĺ
ĠíıŃë°ľ íķ´
ĠìĿ¸íĦ°ëĦ· ìĹĲìĦľ
Ġíĺĳìĥģ ìĿĢ
ĠìĿ´ëģ Ī
ĠìĿĢíĸī ìĿĢ
ĠìĿĢíĸī ìĿ¸
íķĦ ë¦½
ì¸µ ìĹĲìĦľ
ĠëıĦì°© íķ´
ĠëıĦì°© íķĺìŀĲ
ĠëıĦì°© íĸĪìĿĦ
Ġëħ¸ëł¥ íĸĪëĭ¤
Ġì¡°ì§ģ ìĽĲ
Ġê²© ì¶Ķ
Ġê²© ì°¨ë¥¼
Ġê¸¸ ìĿ´ìĿĺ
ĠìĬ¤íĥĢ ê°Ģ
ĠìĬ¤íĥĢ ë²ħ
Ġì§Ģêµ¬ ë¡ľ
Ġì°¨ì§Ģ íķł
ìŀ¡ íķľ
Ġm ore
íĳ¸ ìķĦ
Ġìĭľë¯¼ ëĵ¤ìĿĺ
Ġë¶Īë²ķ ìłģìĿ¸
Ġìŀ¬íĮĲ ìĿĢ
Ġìļ´ìĺģ ìĿĦ
Ġì°¸ê°Ģ ìŀĲëĵ¤ìĿĢ
ur m
Ġê°ĲìĨĮ íĸĪëĭ¤
Ġì¦ī ìĦĿ
Ġì¹ľêµ¬ ë¥¼
Ġì¹´ë Ĥ
Ġë§¡ ìķĦ
ë¡¤ ë§ģ
ĠíĪ¬ìŀĲ ìŀĲëĵ¤ìĿ´
Ġë°Ķê·¸ëĭ¤ëĵľ ìĹĲ
ì¹ł ëłĪ
ec ut
ĠëĤ® ê²Į
ĠíĻķìĭ¤ ìĭľ
Ġë©´ ìłĳ
ĠìĹŃíķł ìĹĲ
ĠíĿ¬ìĥĿ ìŀĲê°Ģ
ĠíĿ¬ìĥĿ ìŀĲëĵ¤ìĿĦ
Ġë¯¸ìĸĢë§Ī ë¥¼
Ġê°ķëł¥ íķĺê²Į
Ġë§Īëł¨ ëĲľ
Ġê°ķíĻĶ íĸĪëĭ¤
ĠíĮ¬ ëĵ¤ìĿĺ
Ġê°ĢìŀĲ ìĭľíĭ°
ìĦ¼íĦ° ìĿĺ
ĠìľĦìĽĲíļĮ ë¥¼
ĠìĿ´ë¤Ħ ì§Ģì§Ģ
Ġë§¨ íķĺ
ĠìĹĲëĦĪ ì§Ģë¥¼
ĠìĹ¬ê°Ŀ ê¸°ìĹĲ
ĠíļĮë³µ íķĺê³ł
ĠìĿ´ëıĻ íķł
ĠìłĦëĭ¬ íķľ
Ġê²ĮìŀĦ ìĹĲ
ĠìĭľìĬ¤íħľ ìĿĺ
Ġ198 4
ĠìĤ°ìĹħ ìĿĺ
Ġìĭ¤ì¢ħ ìŀĲ
ë´ ¤
Ġë©Ķìĭľ ì§Ģê°Ģ
Ġì£¼ë§Ĳ ìĹĲ
Ġëª©ê²© íĸĪëĭ¤ê³ł
ac ks
Ġì£¼ëıĦ íķĺê³ł
Ġë§ĮëĤĺ ê¸°
Ġì¢Į ìĿµ
ĠìĦ¬ ìĹĲ
ĠíĸīìľĦ ë¡ľ
Ġë°°ì¹ĺ íķł
Ġì§ĳíĸī ìľł
Ġíĺ¼ëŀĢ ìĿ´
ĠíĹĪìļ© íķĺëĬĶ
Ġë°ĶìĿ´ëŁ¬ ìĬ¤ëĬĶ
ĠìĦ¤ë¦½ íķľ
ĠìĹĺ ë°ĶëĿ¼ëį°ìĿ´
ĠëıĻë¶Ģ ìĹĲìĦľ
ìľĦìĽĲ ìŀ¥ìĿ´
íķŃê³µ ìļ°ì£¼êµŃ
ĠìķĦëĤ´ ê°Ģ
Ġì´Ŀê²© ìłĦìĿ´
Ġê¹¨ ëĭ¬
Ġê¸°ê´Ģ ìĿĺ
ëĤ¸ ìĭľ
ĠìĨĮë°© ê´Ģ
ĠìłĦëŀµ ìłģ
ĠìĨĶ ë¡ľëª¬
Ġìĭ¶ìĸ´ íķĺëĬĶ
Ġì§Ģìĭľ ë¥¼
Ġê·¸ëŀĺ íĶ½
Ġìŀ¥ê¸° ìłģìĿ¸
Ġëĵ±ë¡Ŀ ëĲľ
ĠìĻĶ ìľ¼ë©°
ĠìĦ¸ëł¥ ìĿĺ
ĠìŀĳìĦ± ëĲľ
Ġ197 9
ĠëŃ ī
ĠëĮ Ī
Ġì§ģë©´ íķ´
Ġë¶Īê³¼ íķĺëĭ¤
ì¯ Ķ
ĠëĳĲëł¤ ìĽĢ
Ġë¶ģê·¹ ê´ĳ
ĠëģĿëĤĺ ì§Ģ
Ġë¹Ľ ëĤĺëĬĶ
ĠìķłíĶĮ ìĿĺ
Ġì¦Ŀê¶Į ìĿĺ
Ġíıīìĸĳ ìĹĲìĦľ
Ġì§Īë³ĳ ìĿĦ
ĠìĹĦë§Ī ê°Ģ
ĠëĮĢì¶ľ ìĿĦ
ĠìĺĨ ìĹĲìĦľ
ĠìĨĮíĶĦíĬ¸ìĽ¨ìĸ´ ë¥¼
Ġìļ´íĸī ìĿ´
´ëĲĲ ìľ¼ë©°
ìķĦì§ģ ê¹Įì§Ģ
ĠìĦľìĭĿ íķĺëĬĶ
ëĭ¤ìļ° ì§ĢìĪĺëĬĶ
íĻį ë³´
Ġìŀłìŀ¬ ìłģ
ĠìĿĳëĭµ ìŀĲìĿĺ
ĠìĿ´íķĺ ìĿĺ
Ġë½ĳ ìķĦ
Ġìħ° ìĿ´íģ¬
ĠìĦłë¬¼ ë¡ľ
Ġìĸ´ëĶĶ ìĹĲ
ĠíĽĦìŀĦ ìľ¼ë¡ľ
ìĥģíĻ© ìĿ´
Ġê·¸ë¦¼ ìĿĦ
ĠíĴĢëł¤ ëĤ¬ëĭ¤
ĠíĮĮíĭ° ë¥¼
ĠíķµìĭľìĦ¤ ìĿĦ
Ġê°Ģë¡ľ ì§ĪëŁ¬
Ġì²´ì¤ĳ ìĿ´
Ġë£ °
Ġìĥģë°ĺ ê¸°
ĠìĬ¤íĶ¼ìĸ´ ìĬ¤ê°Ģ
Ġë°©ì½ķ ìĹĲìĦľ
ìĥĮ íĶĦëŀĢìĭľìĬ¤ì½Ķ
ìķ¼íĽĦ ëĬĶ
ëĨĵ ìĿĢ
ĠíĤ¬ ë¡ľë¯¸íĦ°
ĠìłĦìĦ¤ ìłģìĿ¸
Ġë¶ĢëĶª íĺĢ
Ġì¡°ìĸ¸ ìĿĦ
ì± ĶíĶ¼ìĸ¸
Ġë§ĪìĬ¤íĦ° ìĬ¤
íĨµíķ© ë¯¼ì£¼ìĭł
ĠíĬ¸ëĿ¼ë³¼ íĥĢ
Ġíķ¨ìľł ëĲľ
Ġê³łìľĦê´Ģ ë¦¬ëĬĶ
Ġë°Ķíĥķ ìľ¼ë¡ľ
Ġë¬´ìŀĲ ë¹Ħíķľ
ìĺĪë¹Ħ ìĦłê±°
ĠëĤ´ëĭ¤ ë´¤ëĭ¤
ìķĮëłī ìĤ°
ìĿ¼ë¦¬ëħ¸ìĿ´ ì£¼
Ġê¸´ë°Ģ íķľ
Ġprot est
UC N
Ġì»¨íį¼ ëŁ°ìĬ¤
Ġë· °
Ġì§Ŀ ì§ĵ
ĠëĮĢìĦłì£¼ ìŀĲìĿ¸
Ġëļľ ëł·
ĠìĨĮìķĦ ê³¼
ĠìľłìĪĺ íĶĦ
Ġë§¨íķ´ íĬ¼
ĠìĥģíĮĮìļ¸ ë£¨
Ġì¡Į ëĭ¤
ìĪĺìĤ¬ê´Ģ ëĵ¤ìĿĢ
Ġë§Įìŀ¥ ìĿ¼ì¹ĺë¡ľ
yst em
Ġìĺ¤íĤ¤ ëĤĺìĻĢ
Ġë§Īíĺ¸ ë©Ķ
ĠìĹĲíĥĦ ìĺ¬
ìĹĺë¦¬ìŀĲ ë²łìĬ¤
Ġì²´ì§ĪëŁī ì§ĢìĪĺ
ì§Ģë¦¬ ìĬ¤íĥĦ
èĭ ±
ĠìĿ´ëį° ìĺ¬ë¡ľ
7 3
C C
C BO
F I
G B
J apan
N ews
b r
e ver
m ìĿĺ
n ow
p os
u es
¬ ¼
å ľ
ì ©Ķ
Ġ )
ľ ì°¨ìĿ´
ëĭ¤ ëĭĪëĬĶ
ìĿ´ ê¸Ģ
ìĿ´ ì¹ĺë¡ľ
ìĹĲ ìĸ´
ê³ł ë¦¬ìķĦ
ìĿĺ ìĤ¬
íķĺ ìĹĲìĦľ
íķĺ ìĿ¼
ê°Ģ ë©°
ê°Ģ ëĬ¥íķľ
Ġìł ¸
Ġìł ĸ
Ġê² Ĳ
ìĦľ ë¹Ħ
ìĦľ ìĹĲëĬĶ
´ë ²
ë¦¬ íģ¬
ëĵ¤ ìĹĲëĶ°ë¥´ë©´
íķ´ ì¤Ģ
ìĬ¤ ì¼Ģ
ìĹĲìĦľ ë§Į
ĠëĮĢ ë§ĮìĹĲ
ìĭľ ë¶ĢíĦ°
ìĭľ ëĿ¼íģ¬
ë° Ń
ĠìĤ¬ ì§ģ
ĠìĤ¬ ê·Ģ
ĠìĤ¬ ëĿ¼ì§Ī
ĠìĤ¬ ìĥĿíĻľìĿĦ
ìĿ¼ ë¶ĢëĬĶ
ìłķ ìĭł
ê·¸ ë£¨
ëĮĢ íĺķ
ëį ´ë§Īíģ¬
Ġê°Ģ íĸĪëĭ¤ê³ł
Ġê¸° ìĤ¬ëĬĶ
Ġê¸° ì§ĢìĹĲìĦľ
Ġê²½ ìĿĺë¥¼
Ġê²½ ë¡ľë¥¼
Ġê²½ ë³´ê°Ģ
Ġìłķ ë¹Ħ
Ġìłķ íķ´ì§Ħ
Ġì¤ĳ ìĨĮ
Ġë³´ íĬ¸
Ġë³´ íĸī
Ġë³´ ìĺĢì§Ģë§Į
ĠìĿ¸ ìłĳíķľ
ìłĦ íķľ
ĠìŀĲ ë¶Ģ
ĠìŀĲ ìĤ¬ìĿĺ
Ġíķľ ê¸Ģ
ì¹ĺ ëĭ¤
ìĭł ê³ł
Ġë¶Ģ ë¬¸ìĹĲ
ë§Ī íĭ´
ë§Ī ë±Ģ
Ġê³µ ìłģ
Ġê³µ íĨµ
Ġê´Ģ ë¦¬ë¥¼
ìľĦ ìĥĿ
ìľĦ ê¸°ìĿĺ
ëıĻ ë£Į
Ġëį ©ìĸ´
ĠêµŃ ìłģ
Ġë¹Ħ ì¤ĳ
ë¯¸ ì²¼
ëĭ¹ íķĺê²Į
Ġìĺ¤ ìĬ¤íĭ´
Ġìľł ê´´
íı ´ëĿ¼
ë¹Ħ ëĶĶìĺ¤
ë¥´ ìĹĲ
ìĨĮ ìĹ°
Ġì¡° ëĤĺ
Ġì¡° ì°¨
íĤ ¥
ĠëĤĺ ëĿ¼ëĬĶ
ëłĪ ìķĮ
Ġíķĺ ë¦¬
Ġëª¨ ê°ĢëĶĶìĬĪ
Ġë§Ī ëĭĲ
ìĽĶ ìĬ¤íĬ¸ë¦¬íĬ¸
Ġìĺģ ìĸ´ë¥¼
ĠìĺĪ ìĿ¼
Ġê³ł ìľłê°Ģ
ìķ¼ ëĭ¹
ìĺ¤ íķĺìĿ´ìĺ¤
ĠìĬ¤ ìĬ¤ë¡ľë¥¼
Ġìļ° íĮĮ
Ġê°ľ ì²Ļ
Ġëĭ¹ ë¶Ħê°Ħ
Ġëĭ¹ ëĩ¨
ĠìĹĨ ìĿ´ëĬĶ
Ġê²° íķ¨ìĿ´
Ġíķ´ êµ°ìĿĢ
ĠíļĮ ìĥģ
ĠìĦ¸ ëĤĺëĬĶ
ĠëıĦ ì¶ľ
ĠëıĦ ìłĦìĿĦ
ĠëıĦ ìĻĶëĭ¤
ĠëıĦ ëĦĲëĵľ
ĠìĦ± ì§Ģ
ĠìĦ± ëĬ¥
ĠìĦ± ìŀ¥ìĿ´
ĠìĦ± ë²Ķì£Ħ
ë¯¼ ìĿĢ
Ġë¬´ ì²Ļ
Ġë¬´ ì±ħìŀĦ
ìŀĦ ìĹĲ
Ġêµ¬ ìĥģ
Ġêµ¬ ê¸ī
Ġìĭł ê²½ìĿĦ
ìļ´ íķĺ
ë¶Ħ ê¸°ìĹĲ
íķĺê¸° ìĹĲ
Ġë¶Ī ìĤ¬
Ġë¶Ī íĥľ
Ġë¶Ī ê½ĥ
Ġê±° ìļ¸
ìĹ° íĮ¨
ëĶĶ ì¦ĪëĭĪ
ì¸ ¨
Ġë§Į ëĤĺëĬĶ
Ġê°Ĳ ë°Ķ
Ġê°ķ ìĿĺ
Ġê°ķ ìĹĲìĦľ
ĠìĤ¬ëŀĮ ìľ¼ë¡ľ
ĠëķĮ ë¡ľëĬĶ
Ġìŀ¬ ëĭ¨
Ġìŀ¬ ì°¨
ĠìĦľ ë²Ħ
ĠìĦľ ìĹ´
íĨł ë¡ł
ĠìķĪ ìĿĦ
ĠìķĪ ëĲľëĭ¤ê³ł
ëį° ìĿ¼ë¦¬
ë§¤ ìĿ¼
in es
ìĦ¤ ìĹĲ
ĠìĿ´ëĿ¼íģ¬ ìłĦìĿĦ
Ġìķ½ ìĿĦ
Ġì¶ľ ê°Ħ
Ġëĭ¬ íķľëĭ¤ê³ł
ë£¨ ìĬ¤ì½Ķ
Ġë°ľìĥĿ íķľëĭ¤
Ġëªħ ëªħ
Ġëªħ ëĭ¨
Ġëªħ ìłĪ
Ġëªħ ëĭ¨ìĿĦ
er ation
ĠìĪ Ń
Ġë²ł íħĮëŀĳ
Ġêµ° ìĿ¸ëĵ¤ìĿĢ
ìĸ´ë °
Ġíĺ¸ ìĿĺ
Ġíĺ¸ ìľĦ
Ġë°ľíĳľ íķĺì§Ģ
Ġë°ľíĳľ ëĲł
Ġ10 1
Ġë¡ľ ëĿ¼
Ġë¡ľ ìłł
Ġt ri
ĠíĪ¬ íķŃ
Ġë¦ Ń
ëħ¸ ëĮĢíĨµëł¹ìĿĢ
Ġëĭ¨ ê¸°
Ġë²ķ ìĹĲ
Ġë²ķ ìłģìĿ¸
ĠíĥĢ ìļ´
Ġ9 11
ë¯¸êµŃ ìĿ¸
ĠìĤ´ ìķĺëįĺ
Ġì²ĺ ë¶Ħ
íĮĲ ìľ¼ë¡ľ
ĠC om
ĠC ourt
ĠêµŃê°Ģ ëĵ¤
ĠêµŃê°Ģ ë³´ìķĪ
Ġì²´ ìłľë¥¼
ĠìĦ¸ê³Ħ ê°Ģ
Ġë³Ģ íĻĶìĿĺ
ì¸¡ ê³¼
Ġë¬¼ ëł¤
Ġë¬¼ íĴĪìĿĦ
Ġê³µê²© ìĪĺ
Ġê²½ìłľ ìłģìĿ¸
íĻ© ìĿĦ
ĠA l
Ġì§ģ ìŀ¥
he d
he ad
ĠíķŃ ë³µ
Ġìĸ´ë ¶Ģ
Ġë²Ħ ëł¸ëĭ¤
ëĭ¬ëŁ¬ ê°Ģ
Ġê³Ħíļį ê³¼
ì³ ĩ
Ġìĸĳ ì¸¡ìĿĺ
Ġë³´ê³ł ê°Ģ
íħ į
ĠìķĦìĿ´ íĭ°
Ġì¹´ ìŀĲíĿĲìĬ¤íĥĦ
Ġì» ´
ĠìķĬìķĺëĭ¤ ë©´
ĠíĬ¹ ìĤ¬
Ġê²°ìłķ ëĲľ
Ġê²°ìłķ ëĲł
Ġíľ ł
Ġë©Ķ ëī´
ĠêµŃìłľ ìĤ¬íļĮê°Ģ
ĠêµŃìłľ ìľłê°Ģê°Ģ
íħĮ ìĿ´
ĠìĿ¼ë¶Ģ ìĹĲ
ĠS erv
ĠS ecretary
ë¨¸ ê°Ģ
Ġíĳľ ë©´
Ġíĥľ ìĸ´ëĤ¬
Ġì¢ħ ë§Ĳ
Ġë§ŀ êµĲ
ìĻ¸ êµŃ
Ġê¸°ë¡Ŀ ìłģìĿ¸
Ġs up
íļĮìĿĺ ëĬĶ
ê²½ì°° ìĹĲëĶ°ë¥´ë©´
Ġê°Ĳëıħ ìľ¼ë¡ľ
ĠëĤ´ë Ĩ
Ġëĵ¤ìĸ´ ìĻĶëĭ¤
ic s
ĠëĮĢíĳľ ëĵ¤ìĿĢ
ëĤ¨ ë¶Ģ
Ġíķ©ìĿĺ ëĲľ
ĠF l
ĠF DA
ĠF IFA
Ġìļ°ì£¼ ìĹĲìĦľ
Ġìłĳ íķľ
Ġìłĳ ê²½
Ġì§Ħíĸī ìŀĲìĿ¸
Ġì²Ń ìĥī
ĠëĶĶ ìķĦ
Ġë¹Ħíĸī ìĤ¬
ĠëŁ¬ìĭľìķĦ ìĹĲìĦľ
ĠìĽĶ ê²½
ĠW HO
ìķĮ ë¦¬
Ġì£¼ë¯¼ ëĵ¤ê³¼
Ġë¶Ģìĥģ ìĿĢ
Ġë¹ł ëľ¨
íĮĢ ìĿ¸
Ġ13 00
Ġê°ģ êµŃìĿĺ
Ġëĭ¹ìĦł ìĿ¸ê³¼
Ġìĥģíĥľ ìĺĢëĭ¤
Ġíĭ Ī
ĠìļĶì²Ń íĸĪëĭ¤ê³ł
ĠD C
Ġê¸Īìľµ ìľĦê¸°
ĠëĪĦ ìĦ¤
ĠìŀĲëıĻì°¨ ìĿĺ
Ġìŀ¡ íŀĮ
Ġë³Ģíĺ¸ ìĤ¬ë¥¼
km ìĹĲ
ĠëĨį êµ¬
´ë³ ĳ
Ġì£¼ì§Ģ ìĤ¬ë¥¼
ĠíıŃë°ľ íĸĪëĭ¤
Ġì½ľ ë¡¬
ĠìĿ´ìĸ´ ì§Ħ
Ġìĺģíĸ¥ ìľ¼ë¡ľ
ĠìĬ¹ë¦¬ íķĺëĬĶ
Ġ24 0
ì¿ł ë²Ħ
ĠìĿ¸ìłķ íķĺê³ł
Ġìĵ° ì§Ģ
Ġëį°ìĿ´ ë¹Ħ
íĬ¼ ìĿ´
ë°Ľ ê²Į
Ġíĭ° ëª¨
ì¤ĳêµŃ ê³¼
ĠìĿĺìĽĲ ê³¼
Ġê²½ê³ł íķĺê³ł
ìº ĺ
Ġw as
Ġìļ©ìĿĺ ìŀĲëĵ¤ìĿ´
Ġê³µíķŃ ìľ¼ë¡ľ
Ġì§Ģê¸Ī ìĿ´
Ġì°½ ìĹħ
ĠëıĦì°© íĸĪëĭ¤ê³ł
Ġê·¹ ìĭ¬íķľ
us e
ĠìĬ¤íĥĢ ìĿ¼
ĠìŀĲìľł ë¡ľìļ´
Ġë°ľìĸ¸ ìĿ´
Ġë§¥ ì¼ĢìĿ¸
ĠëĨĵ ìķĺëĭ¤
Ġìī Ĳ
Ġì¶©ëıĮ ìĿĦ
Ġì»´íĵ¨íĦ° ìĹĲ
Ġìŀ¬íĮĲ ê´ĢìĿĢ
Ġìŀĥ ê²Į
Ġìŀĥ ìĹĪëĭ¤ê³ł
ĠíĥĢìŀĦ ìĬ¤ê°Ģ
Ġì¹ľêµ¬ ìĿ¸
ĠìĤ¼ ê°ģ
Ġê¸°ìĹħ ìĹĲ
ì¤Ħ ë¦¬ìķĦ
Ġë°Ķê·¸ëĭ¤ëĵľ ìĿĺ
Ġë¶Ģì¡± ìĿĦ
ê³¨ ëĵľ
ëĬĲ ëĿ¼
ĠíĺĦì§Ģ ìĹĲìĦľ
ìĿĢíĸī ìĿĺ
Ġë°±ìķħê´Ģ ìĿĺ
ĠëĿ¼ìĿ´ ëįĶ
ĠìłĦíĪ¬ ê°Ģ
ĠëĨĢ ëŀĲëĭ¤
Ġë°ĺêµ° ê³¼
Ġë¹Į ë¦¬
ĠìĿ¸ìļ© íķĺìĹ¬
ĠëĬĺ ìĸ´
Ġë³Ħ ëıĦë¡ľ
Ġë§Īëł¨ íķĺê¸°
Ġíİ¼ ì³¤
Ġíĳ¸ ë¥¸
Ġíĳ¸ ì¼ĵ
ëĮĢíĨµëł¹ ìĿĺ
ìĻĶ ê³ł
Ġìľłê¶Į ìŀĲëĵ¤ìĿĺ
ĠëĤĺëĿ¼ ê°Ģ
Ġì¦Ŀê±° ë¡ľ
ĠìĿ´ë£¨ìĸ´ ìł¸ìķ¼
Ġì¹¼ ë¡ľ
im es
ĠìĤ¬ìĥģ ìŀĲëĬĶ
ìĤ¬ê±´ ìĿĺ
Ġíĥĳ ìŀ¬
ĠìľĦìĽĲ ìŀ¥
ĠìľĦìĽĲ ìŀ¥ìĿĺ
Ġìĸ¼ë§Ī ìłĦ
Ġìĭ¸ ìļ¸
ìķ¡ ìĿĦ
Ġìłľìĭľ íķł
Ġê´Ģê´ĳê°Ŀ ìĿ´
Ġìĭ¤ì¢ħ ëĲĲëĭ¤
Ġìĭ¤ì¢ħ ëĲĲëĭ¤ê³ł
Ġëįĺ ì§ĢëĬĶ
íķĻìĥĿ ëĵ¤ìĿĢ
Ġë¶Ģëª¨ ìĿĺ
Ġê¸°ëħĲ íķĺëĬĶ
Ġëħ¹ ìķĦ
Ġì§ģìĽĲ ê³¼
Ġì§ģìĽĲ ëĵ¤ìĿĦ
Ġë¶Ļ ìĸ´
Ġëª¨ëį¸ ë¡ľ
ìķĦìĿ´ ëĵ¤ìĿ´
ĠìłķíĻķ íķĺê²Į
Ġì´¬ìĺģ ìĿĦ
ĠëıĻìĺģìĥģ ìĿĢ
ĠAP EC
ĠíĨłë¡ł íĨł
êµŃê°Ģ ìĿĺ
Ġg o
Ġë§ĮëĤĺ ê³ł
Ġíı¬ê¸° íķł
Ġì§ĢìĨį ëĲľ
Ġë¯¸êµŃìĿ¸ ëĵ¤ìĿĺ
Ġìłķê¶Į ìĿĺ
ĠêµŃìĺģ ë°©ìĨ¡
ĠìłĬìĿĢ ìĿ´
ĠìłĬìĿĢ ìĿ´ëĵ¤ìĿ´
ĠìŀĲì²´ ê°Ģ
ĠìŀĲì²´ ìłģìľ¼ë¡ľ
Ġì¶Ķì§Ħ íķł
ĠìĤ¬ëł¹ ê´ĢìĿ´
ĠëĤĺìĺ¤ ë©´ìĦľ
Ġëħ¼ìŁģ ìĹĲ
ĠëĮĢìĿĳ íķł
ĠìĦ¤ë¦½ ëĲľ
Ġë¬´ìĹĩ ìĿ¸ì§Ģ
Ġë°ĽìķĦëĵ¤ ìĺĢëĭ¤
Ġê³łê°Ŀ ëĵ¤ìĿ´
Ġë°Ķëĭ¤ ìĹĲ
ĠìĿ¸ëıĦëĦ¤ìĭľìķĦ ìĿĺ
ĠìĭŃ ëħĦ
ĠëĪĦêµ¬ ëĵł
ĠëĤĺë¨¸ ì§ĢëĬĶ
íĢ ĺìĸ´
Ġê·¸ëŀĺ ìĦľ
EC D
ĠëĸłëĤĺ ì§Ģ
ĠëĤĺìĻĢ ì¦Ī
Ġë°ĶëŀĮ ìĹĲ
Ġë°ĶëŀĮ ì§ģ
ĠëŃ Ķ
ëĴ ¤
Ġìĥģì§ķ ìłģìĿ¸
Ġíķ´ìłľ íķł
Ġë¶Ħëħ¸ íķľ
ĠíĴĪ ì§Ī
Ġìĸ¼êµ´ ìĹĲ
Ġìĥī ê¹Ķ
ìłķë³´ êµŃ
Ġê¸°êµ¬ ìĿ¸
Ġì§ĢíĤ¤ ì§Ģ
Ġìŀ¥ìķħ íķĺê³ł
ĠìĽĥ ìľ¼ë©°
Ġë°ĢëŀĢ ìĿĺ
Ġê´´ ë¡Ń
Ġì£¼ëª© íķł
Ġëĵł ëĭ¤
ĠíĶĦëłĪ ëĵľ
ìĽ° ìĿĢ
ĠìĿ´ë©Ķ ìĿ¼
ë¸ĮëĿ¼ìļ´ ìĿĢ
ĠíĨ° ìĬ¨
Ġë¬¼ëŁ¬ ëĤł
Ġì½Ķë¯¸ëĶĶ ìĸ¸
ëĤ´ë ħĦ
ë¶ĢíĨł ëĬĶ
ĠìĭĿíĴĪ ìĿĺìķ½
ĠíĬ¹íĮĮ ìĽĲìĿ´
ìĸ´ëĤ´ ëĬĶ
ĠìĹ¬ê²¨ ì§ĢëĬĶ
ĠìĹ¬ê²¨ ì§Ģê³ł
Ġë°©ì¹¨ ìĿ´ëĭ¤
ĠìĤ°íĥĢ íģ´ë¡ľ
ĠMS ê°Ģ
ĠìĿĢìĭł ì²ĺë¥¼
ĠìĿĺì¡´ íķĺê³ł
ĠìĹ¬ë¡łì¡° ìĤ¬ëĬĶ
ĠëĵĿíĳľ ìľ¨ìĿĦ
ĠìŀĬ ì§Ģ
Ġì£¼ì°¨ ìŀ¥ìĹĲìĦľ
oci ety
Ġê°ĢìĬ´ ìĹĲ
Ġìŀĳìļ© íķł
Ġë¹Ħíķµ íĻĶë¥¼
ath er
Ġë¹Ļíķĺ ê°Ģ
íģ¬ëĿ¼ìĿ´ ìĬ¬ëŁ¬
ìĿ´ê³³ ìĿĢ
ìŀł ìĭľ
ĠëĤ¬ ëĭ¤
ĠìĿ¼ìĭľ ìłģìľ¼ë¡ľ
ĠëĤĺíĥĢëĤľ ëĭ¤
Ġë¹ĦìĦľìĭ¤ ìŀ¥
íıīê·ł ì§ĢìĪĺëĬĶ
ĠìķĦìĽħìĤ° ìĪĺì¹ĺ
íķ´ë¦¬íı¬íĦ° ìĻĢ
ĠìĿ´ìŀĲ ìľ¨ìĿĦ
Ġìĭ¬ìŀ¥ë§Ī ë¹Ħ
Ġë¦¬ëįĶ ìĭŃ
Ġì¤Ħìĸ´ ëĵł
Ġë³¸ê²© ìłģìĿ¸
Ġì£¼ìľł ìĨĮ
ĠíĹĪì»¤ ë¹Ħ
Ġë» Ĺ
Ġì§Ħì§Ģ íķĺê²Į
ìĹ°ìĦ¤ ìĹĲìĦľ
ìŀĲìĻĢíŀĪ ë¦¬ëĬĶ
ĠRes earch
Ġë¸Ķë¦¬ ì³Ĳ
Ġê¸°ì¤Ģê¸Ī ë¦¬ë¥¼
ĠìĹĶíĦ° íħĮìĿ¸
ë¿ Ķ
ĠìĿĺêµ¬ ìĭ¬ìĿĦ
Ġì¦Ī ë³´ëĤĺëłĪ
Ġëª¨ë¡ľ ì½Ķ
ĠíĨłë§Ī íĨł
Ġë§Īì¹¨ ëĤ´
Ġë¸Įë¦¬íĬ¸ ëĭĪ
ĠëĿ¼ìĻĪ íķĢ
riti sh
Ġíķ©ì°¸ ìĿĺ
Ġì´Īì½ľ ë¦¿
Ġê¾¸ì¤Ģ íŀĪ
7 1
8 4
8 5
9 000
E n
H A
M DC
W WF
W TI
W ASHINGTON
Y ou
a f
a un
c k
k y
l ob
o e
o ti
o se
Ġ ra
Ġì į
íķľ ìŀĲ
ìĿ¸ íķ´
ìĿ¸ ëĶĶ
ëĵ¤ ë§Į
ë§ µ
Ġë§ ĳ
ëĿ¼ íĬ¸
ìľ¼ ëĿ¼ê³ł
ĠëĮĢ ìĦ±
ĠëĮĢ ê³µ
ĠëĮĢ ëıĦìĭľ
ìŀĲ ë¬¸
ìŀĲ ìĤ´
ìĭľ íĶ½
ìĭľ ë°Ķìļ°
ĠìĿ´ ìĹĪëĭ¤
ĠìĤ¬ ë¡ľ
ĠìĤ¬ ëĵľë¥´ëĬĶ
ë³ ķ
ìŀ¥ ì¹ĺê°Ģ
Ġëĭ Į
Ġì§Ģ ìĿĢ
Ġì§Ģ ëªħìĹĲ
ìķĦ ì¹´ëį°ë¯¸
ĠìĪĺ ìĹĲ
ĠìĪĺ ë§Ī
ĠìĪĺ ëĭ¨ìĿ´
ĠìĪĺ ë§ĮëªħìĿĺ
ĠìłĦ ìĹĲëıĦ
ì¹ ´ëĤĺ
Ġëª «
ëĤĺ ëĵľ
Ġìĥ ¬
ê·¸ ë¦¬
ê·¸ ë¯¸
ëĮĢ ë§Į
Ġë¯¸ ìĪĺ
ĠìķĦ ìĤ¬
ĠìķĦ ë¸ĮëĿ¼
ĠìĿ´ë §
Ġê°Ģ ìĿ´
Ġê°Ģ ìķ¼
Ġê°Ģ ëıĻìĿĦ
Ġì£¼ ìĨĮ
Ġì£¼ ìŀħ
ĠìľĦ ìĦ±ìĿĦ
Ġê¸° ë¥¸
Ġê¸° ê¸ĪìĿĦ
Ġê¸° ìĤ¬ìĹĲ
Ġê¸° ë¦¬ê¸°
Ġìĭľ ìłĲìĹĲ
ìĪĺ ìĿµ
Ġê²½ ì£¼
Ġê²½ ëł¥
íĦ ±
Ġìłķ ìĽĲ
Ġìłķ ëª½
Ġê·¸ ëĤł
Ġë¬ ´ëł¤
íķł ë¨¸ëĭĪ
ĠìĿ¸ ì¤Ģ
ĠìŀĲ íģ¬
ĠìŀĲ ì§Ħ
ĠìŀĲ ê¶ģ
íģ ´ëŀ
êµ¬ ìĻĢ
ë¬¸ ìľ¼ë¡ľ
Ġë°ľ ìŀĲ
Ġë°ľ ìŀĳ
Ġë¶Ģ ìĿĺ
Ġë¶Ģ ë¥¼
Ġë¶Ģ ìłķë¶Ģ
ë§Ī ìĻĢ
Ġê³µ ìŀ¥ìĿ´
Ġê³µ êµ°ìĿĢ
ëĤľ ìĿĦ
ĠìĿ¼ íĸĪëĭ¤
ĠìĨĮ ìļ©
ĠìĨĮ ë¬¸ìĿ´
Ġëĭ¤ íķł
Ġëĭ¤ ìĿ´ìĸ´
Ġëĭ¤ íĪ¼
Ġë¹Ħ ìłķìĥģ
íĸī ìĹĲ
Ġìľł ìķĦ
Ġìĥģ ìĭ¤
Ġìĥģ ìŀĦ
Ġì¡° ë¦½
Ġì¡° ë¡±
ë°Ķ ìĿ´ìĹĲ
Ġìłľ ìĿ´ë¯¸
ĠëĤĺ ê°Ķëĭ¤
ìĤ ¿
ĠìĹ° ìĥģ
ëłĪ ìĺ¤
Ġíķĺ íĬ¸
Ġëª¨ ìŀĲ
Ġë§Ī íħĶ
ìĽĶ ìĹĲìĦľ
ìĽĶ ë§Ĳ
ĠëıĻ ê¸°
ĠëıĻ íĸī
ëĦ ĲìĿĺ
ĠìĺĪ ë³´
ìķ¼ ê°Ģ
Ġìµľ ëĭ¤
ìĺ¤ ìĬ¤íĬ¸ë¦¬ìķĦ
íİ Ģëĵľ
ìĹ¬ ìĤ¬ëĬĶ
íĽĦ ìĹĲ
ĠìĬ¤ íİĺ
ĠìĬ¤ íķĦ
Ġìļ° ìĦ¸
Ġê°ľ ìłķìĿĦ
Ġê°ľ ìĿ¸ìĿĺ
Ġëĭ¹ ìŀ¥
Ġëĭ¹ ìĽĲ
Ġëĭ¹ íķĺëĬĶ
Ġëĭ¹ ìĭłìĿĦ
Ġíķ´ ìłľë¥¼
ĠìĥĿ ê²¼ëĭ¤
ë°ĺ ëıĦ
ĠìĦ± ëĭ¹
ĠíĮĮ ìļ¸
ë¯¼ ê°Ħ
ĠëĤ¨ ê¸´
Ġë¬´ ì°¨ë³Ħ
íĺ¸ ëĤĺìļ°
íĺ¸ ëĤłëĳĲ
ĠíĨµ íĻĶë¥¼
íı¬ ìĬ¤íĬ¸
íŀĪ ì§Ģ
ĠëĮĢíķ´ ìĦł
Ġê±° ë¦¬ê°Ģ
Ġê±° ìĭĿì¦Ŀ
ì¸ Ħ
ëŀĺ ìĹĲ
Ġìĭ¤ ëĤ´
Ġë°ĺ ì§Ŀ
ĠëĤ´ ë¦¬ì§Ģ
Ġìŀħ ì°°
Ġë§¤ ì²´
ìķ½ ìĿ´
Ġìŀ¬ ê²½
ĠìĦľ ìķ½
ĠìĦľ ë¶ĢìĿĺ
ĠìĦľ ìª½ìľ¼ë¡ľ
ĠìļĶ íķĺ
ĠìļĶ ìĿ¸ìĿ´
ĠíĺĦ ì§ģ
ì§Ī ìľł
ĠìķĪ ìķĺëĭ¤
Ġì§Ħ ìĽĲ
ĠìĿ´ëĿ¼ ê³ł
ĠìŀĲìĭł ëıĦ
ëį° ë¥´
in anc
Ġìŀĳ ìłĦìĹĲ
Ġìŀĳ ìłĦìĿ´
Ġì¶ľ ë²Ķ
ë²Ħ ë¦°
ë¸Į ë¦¬ì§Ģ
ĠìĤ¬ë§Ŀ ìĹĲ
ë£¨ ìŀĲ
Ġëĵ± ìĹĲìĦľ
Ġëĵ± ê¸ī
ëŀĢ ìĿĢ
Ġê²½ì°° ìĹĲê²Į
ëĦ¤ íĭ°ì»·
ë¥´ë ª¨
ìĭ¬ ê°ģíķľ
an n
Ġë²ł ëĭĪ
Ġë²ł ë¥´
ìĸĳ ìĿĢ
Ġêµ° ëĮĢìĹĲ
ĠìĺĪìłķ ìĿ´ì§Ģë§Į
ìĬ¹ ê°Ŀ
Ġíĺ¸ íĤ¹
Ġ10 3
Ġë¶Ħ ê¸°
Ġë¶Ħ ìĸĳ
Ġë¡ľ ë²Ħ
ĠíĪ¬ ê¸°
ĠíĪ¬ ë³ĳ
ĠíķľêµŃ ìľ¼ë¡ľ
ëħ¸ íĶĦ
Ġëĭ¨ íİ¸
Ġëª© ìĿĦ
Ġëª© ìĤ¬ê°Ģ
Ġëĵ¤ ìĿ´
Ġë³´ëıĦ íĸĪìĬµëĭĪëĭ¤
ar ry
ì¢ħ ìĸĳ
Ġë¦¬ ì¹ĺ
ĠíĻĶ ë©´
Ġìķ¼ ìĬ¤
Ġìĭ¬ ìĸ´
ìŁģ ìĿ´
ĠìĿ´íĽĦ ìĹĲëıĦ
ĠC DC
Ġìłģ ê²Į
Ġìłģ ëĭ¹íķľ
Ġë³ĳ ìĽĲìĿĺ
ĠêµŃê°Ģ ìłģ
ĠêµŃê°Ģ ìķĪ
ĠíķĺëĬĶ ì§Ģ
Ġíĺĳ ìłķìĹĲ
ì¸¡ ìĹĲìĦľ
ĠëĲł ì§Ģ
al e
al if
Ġê³µê²© íķĺê¸°
Ġê²½ìłľ ìłģìľ¼ë¡ľ
ĠA gency
ĠìĤ¬ìļ© ìŀĲ
Ġë²Ħ ë§ĪìĿĺ
Ġíģ¬ ëĿ¼ìļ°
Ġì¡ ±
ĠìĹ°êµ¬ íķĺëĬĶ
ĠìŀĦ ìĤ°
ĠìķĦìĿ´ íĮŁ
ĠìĦłê±° ìľł
ìłķë¶Ģ ìĹĲ
ì¸ł ìĻĢ
Ġì¡´ ëĵľë¡ľ
íĥĿ ìĭľ
ĠíĻĺ ìŀĲë¥¼
Ġë°ķ ìĤ¬ìĿĺ
Ġì§ĢëıĦ ìŀĲìĻĢ
Ġë©Ķ ìĤ¬ì¶ĶìĦ¸ì¸ł
Ġë¯¼ì£¼ ë³ĢíĻĶ
Ġë°©ë¬¸ íķĺê³ł
Ġë¹ĦëĤľ ìĿ´
Ġì¢ħ ìĹħ
Ġê°Ħ ì²©
Ġìĸ´ ìĨĮìĭľìĹĲìĿ´ìħĺ
Ġíİĺ ìĿ¸íĬ¸
Ġíİĺ ë¦¬ëħ¸
at er
ĠíĹĪ ë¦¬
Ġëĵľ ë¦¬
ĠìłĲ ìĿ´ëĭ¤
Ġëĭ¬ëŁ¬ íĻĶ
íļĮìĿĺ ê°Ģ
ĠìķĬìķĺ ê¸°
íĶĮ ë¦¬
ĠìķĦëĭĪ ìĹĪëĭ¤ê³ł
ĠíĮĶ ìķĦ
Ġë³¸ ê±°
Ġë³¸ ìĤ¬ê°Ģ
Ġì²ł ê±°
ĠìŀĪìĿĦ ê¹Į
ĠìĨĲ íķ
ê·¸ëŀ ¨ìĿĦ
ĠìĪ¨ ê²¨
ĠìĭĿ ë¬¼
ĠëĤł ëł¤
Ġìļ°ì£¼ ìĻķë³µìĦł
Ġê¶Į íķľìĿ´
Ġë¹Ħíĸī ê¸°ëĬĶ
ëĵ± ìĿĺ
ëĵ± ë¡Ŀ
ĠW orld
ĠW eek
Ġê´ĳ ìŀ¥ìĹĲ
ĠìĿ´ë¯¸ ì§Ģ
Ġì¦Ŀê°Ģ ë¡ľ
ĠëĤľ ì²ĺ
ĠëĤľ ëıĻìĿĦ
ĠíĻĪ êµ¬
Ġì¤ĳëĭ¨ ëĲľ
ëī´ ìĸ¼
Ġëĭ¹ìĦł ëĲľ
ìĶ¨ ìĻĢ
ĠK T
´ë¬ ¸
Ġë£¨ ë§ĪëĭĪìķĦ
Ġìĸ¸ê¸ī ëıĦ
Ġp re
ĠëıĮìķĦ ìĺ¤ëĬĶ
Ġë°Ģ ìĸ´
Ġë°Ģ ëĿ¼ëħ¸
ĠíķĺëĿ½ íķ´
Ġìļ°ëł¤ íķ´
ĠìĤ¬ì§Ħ ê¸°
Ġíĸ¥ ëħĦ
km ë¡ľ
ĠëĤ© ë¶Ģ
Ġê¸ī ìĥģìĬ¹
Ġin to
ĠëĨį ì´Į
Ġìĸ¸ë¡ł ìĿĦ
Ġê¸°ìĽĲ ìłĦ
ê¹ ĥ
Ġì£½ ìĿ´ê³ł
ëį¸ íĥĢ
ĠìĪĺìĥģ ìŀĲëĵ¤ìĿĢ
ĠìĦĿë°© ìĹĲ
ĠìĿ¸ìłķ íķĺëĬĶ
Ġì²ľ ìŀ¬
Ġìĺ¬ë¦¼íĶ½ ìĹĲ
ĠëıħìĿ¼ ê³¼
Ġìŀł ëĵ¤
íĤ¨ ìĬ¤
ìŀĪëĭ¤ ëĬĶ
Ġì´Ŀë¦¬ ëıĦ
Ġíľ´ ìĭĿìĿĦ
Ġw ork
Ġìĭ¶ ëĭ¤ë©´
Ġë°Ľìķĺ ìĬµëĭĪëĭ¤
ĠíĤ¤ ìĬ¤ë¥¼
Ġëħ¸ëıĻ ìŀĲëĵ¤ìĿĢ
tic al
ĠG PS
íļĮê²¬ ìĹĲìĦľ
ëĪĦ êµ°
Ġê·¹ íŀĪ
Ġê¸¸ ê²Į
ĠìŀĲìľł ìĿĺ
ĠìŀĲìľł ëĭ¹
ëķĮ ë¡ľ
ĠìĻĢ ì¤ĳìĹĲ
Ġm ay
Ġm eet
Ġìĭľë¯¼ ìĿ´
Ġìŀĥ ìĿĦ
ur ch
ë²¨ íĬ¸
ĠìĪĺê°Ĳ ëĲĲëĭ¤
Ġë°ĿíŀĪ ê¸°
ĠíĦ°íĤ¤ ë¥¼
ĠíĨµê³¼ íķł
Ġì§Ģë°© ìĹĲ
Ġêµ¬ìĦ± íķł
ĠíĺĦì§Ģ ê²½ì°°ìĿ´
Ġë°±ìķħê´Ģ ìĿĦ
ĠìĦľë¹Ħ ìĬ¤ê°Ģ
ĠìĹ°íķ© êµ°ìĿ´
ĠíĿ¬ìĥĿ ìŀĲëĵ¤ìĿĺ
Ġë¯¸ìĸĢë§Ī ìĹĲ
ĠëĬĺ ëł¤
ĠëĬĺ ìĸ´ëĤľ
ĠëĲĲ ì§Ģë§Į
Ġê°ķíĻĶ íķĺëĬĶ
Ġì¶Ķìłķ ëĲľëĭ¤ê³ł
Ġíĩ´ ì¹ĺ
Ġíĩ´ ì§Ħ
Ġíĩ´ ì§ģ
ĠíıĲìĩĦ íķł
ĠìĦłê³ł ë¥¼
ĠìĦłíĥĿ ìĿĦ
ìĦ¼íĦ° ìĹĲ
Ġìķ¼ëĭ¹ ìĿĢ
ĠìłĦìĦ¸ê³Ħ ë¡ľ
Ġë¶ĦìĦĿ ê°ĢìĿ¸
Ġê²½ìĦł ìĿ´
ìĿ´ìĬ¤ëĿ¼ìĹĺ ìĿ´
ĠìķĪë³´ ë¦¬ìĿĺ
ĠìŀĲê¸Ī ìĿĢ
ĠìĹ¬ê°Ŀ ê¸°ìĿĺ
Ġê²ĮìŀĦ ìĿ´
Ġìłľê¸° ëĲĲëĭ¤
ìĺģíĻĶ ëĬĶ
Ġì¹ĺë£Į ìĹĲ
Ġì¹ĺë£Į íķĺëĬĶ
Ġë¬´ìĥ¤ëĿ¼íĶĦ ê°Ģ
Ġd own
ìķ¡ ìĿ´
Ġë¶Ģë¶Ħ ìĹĲ
Ġre g
Ġì§ģìĽĲ ëĵ¤ìĿĺ
ĠìŀĳíĴĪ ìĹĲ
ĠëĮĢìĭł íķ´
ìķĦìĿ´ ìĺ¤ìĻĢ
ĠíĻķìĤ° ëĲĺëĬĶ
Ġê¸°ëĭ¤ ëł¸ëĭ¤
ìĦłê±° ë¥¼
Ġë°ĺìĿĳ ìĿ´
ĠëĲĺìĸ´ ìķ¼
ĠíĥĳìĬ¹ íķĺê³ł
Ġon e
Ġê·¸ë£¹ ìĿĢ
ĠìĤ¬ë§ĿìŀĲ ìĪĺëĬĶ
ë¦¬ìĬ¤íĬ¸ ìĿ¸
Ġë°ľìłĦ ìĨĮ
ĠìĦ¼íĦ° ìĹĲ
Ġëħ¼ìŁģ ìĿĺ
Ġë¶Ħëªħ íķľ
ĠìĤ¬ëŀĳ ìĹĲ
ĠìĤ¬ëŀĳ ìĿĦ
ĠíĻķìĭł íķĺê³ł
ĠìĿ¸ë¬¼ ìĿ´ëĭ¤
Ġì´Ŀê²© ìłĦìĿĦ
ĠëĮĢì¤ĳ êµĲíĨµ
Ġë¬¸íĻĶ ìłģ
ĠìĪľê°Ħ ìĹĲ
ĠëĤ´ë¶Ģ ìĹĲ
ĠëĤ´ë¶Ģ ìĿĺ
Ġë²¤ ì²ĺ
Ġê³łê°Ŀ ìĿĦ
Ġìĭ± ê°Ģ
Ġê¸°ê´Ģ ìĿ¸
Ġì§Ħì¶ľ ìĹĲ
ĠìĭŃ ëĮĢ
Ġì°©ë¥Ļ ìĿĦ
íļ¨ ê³¼
ĠìĦłë°ķ ìĹĲ
Ġíķľë°ĺ ëıĦìĹĲ
ìŀ¥ê´Ģ ìĿĺ
ĠìĬ¤íĶ¼ ìĸ´ìĬ¤
EU ëĬĶ
Ġëĥī ê°ģ
Ġë¬¼ì§Ī ìĿ´
Ġëĵ¤ìĸ´ê°Ģ ê¸°
ĠìĤ¬íķŃ ìĿ´
ĠìĪĺë°ĺ ìĿ´
ĠëģĿëĤĺ ê³ł
Ġìĸµë¥ĺ ëĲľ
ĠìĽĲì¡° ë¥¼
Ġë°ĶìĿ´ ìĺ¤
ëĶĶìķĦ ëĿ¼ë¹ĦìķĦ
ĠëĤĺíĥĢëĤĺ ì§Ģ
kg ìĿĺ
Ġìŀ¥ë¡Ģ ìĭĿ
Ġìŀħìŀ¥ ìĿ´ëĭ¤
Ġê¸įìłķ ìłģìľ¼ë¡ľ
ë¥´íĨł ë¦¬ì½Ķ
Ġíķľë²Ī ëıĦ
Ġëª¬ íħĮ
Ġëĭµë³Ģ íĸĪëĭ¤
ĠìĿ´ë¥¸ ë°Ķ
enc es
ĠëĮĢëŁī ìĤ´ìĥģ
Ġì´ĪëĮĢ íĺķ
ĠìľłëĭĪ ë²Ħ
Ġì»¤íĶ¼ ë¥¼
Ġìŀ¬ë¯¸ ìŀĪëĬĶ
Ġì§Ģìłķ ëĲľ
one y
ĠìĤ¬ìĿ´íģ´ë¡ł ìľ¼ë¡ľ
ĠìĨĲìĥģ ëĲľ
Ġëĭ¤ë£¨ ëĬĶ
Ġì²Ļ ì¶Ķ
Ġìĵ°ëŁ¬ ìł¸
ëłĲ ìĿĢ
ìĤ¬ìļ° ëĶĶìķĦëĿ¼ë¹ĦìķĦ
ĠëĶ°ëľ» íķľ
Ġê¸īìĨį ëıĦë¡ľ
Ġìļ©ëĤ© íķł
ĠíĮĲìĤ¬ ìĹĲê²Į
ĠëĨĢëĿ¼ ê²Į
Ġê¶¤ ëıĦë¥¼
Ġê¶¤ ëıĦìĹĲ
Ġê²Ģë¬¸ ìĨĮë¥¼
ìļ©ìĿĺ ìŀĲ
Ġë°Ķë¥´ìħĢë¡ľ ëĤĺ
ĠëıĮìŀħ íĸĪëĭ¤
ĠíħĮìĬ¤íĬ¸ ë¥¼
Ġì«ĵ ê²¨
ĠìķĦìĬ¤ ëĦĲ
êº¼ ìĿ´
ĠíĪ¬ìŁģ ìĿĦ
Ġìĸ´ëł¤ìĽĢ ìĿ´
ĠíĽĦìĦ¸ ìĿ¸ìĿĺ
ìŀĦìĿ´ ìĤ¬
Ġë§¤ëĭĪìłĢ ìĿ¸
ĠìĻĢìĿ¸íķĺìļ° ìĬ¤ê°Ģ
ov ie
ìĨĮìĭĿ íĨµ
Ġì½ľë¦° ìĬ¤
Ġì¶¤ ìĿĦ
ĠìķĦë¥´ë ¹Į
Ġìĺ¤ëĶ© ê°Ģ
ĠëıĻëĤ¨ ìķĦìĭľìķĦ
Ġlead er
Ġê°Ģê¹Ŀ ê²Į
ĠíĨłë¡ľ íĸĪëĭ¤
Ġì¤ĳíĥľ ëĿ¼ê³ł
ĠëıħìŀĲ ìłģìĿ¸
ĠìºĲë¦¬ ë¹ĦìķĪ
íİľìĭ¤ ë²łìĿ´ëĭĪìķĦ
Ġå īį
ìĸ¼ë§Ī ìłĦ
íĶĦëŀĳ ìĬ¤ëĬĶ
Ġelec tion
ĠíĹ¬ë¦¬ì½¥ íĦ°
Ġë¸Įë¡ľëĵľ ìĽ¨ìĿ´
ìĥ¤ëĿ¼íı¬ ë°ĶëĬĶ
ĠëĶĶìĹĲ ê³ł
ëĤĺëĭ¬ ìĿĢ
ĠëĤ´ë¹Ħ ì³¤ëĭ¤
Ġê±°ë¨¸ ì¥Ĳ
Ġëĭ¨ë°± ì§Ī
ĠìĦłìĥĿ ëĭĺ
ĠëłĪìĺ¤ëĤĺ ë¥´ëıĦ
ìĬ¤íĥ ł
ĠíĥĢë¸Ķ ë¡ľìĿ´ëĵľ
umm it
ĠíĶĦë¦¬ë©ĶëĿ¼ ë¦¬ê°Ģ
inanc ial
! âĢĿ
. âĢĻ
7 2
E M
L ONDON
U SA
c ent
c ons
g an
i ed
l ine
r on
t op
y e
y s
§ ģ
± ĥ
Ġ Ċ
Ġ )âĢĻ
Ġ ro
íķ ı
ìĿ´ ë¯¼
ìĿ´ ì²ĺëŁ¼
Ġí ĵ¨
íķĺ ìĺĢëĭ¤ê³ł
ë¡ľ ìį¨
ê°Ģ ëĿ½
Ġìł ł
ìĦľ ë¡ľ
ë¦¬ ë©´ìĦľ
íķ´ ìķĪ
íķ´ ì§ĢëĬĶ
ìĬ¤ ìĻĢìĿĺ
ëĿ¼ ëĭĪ
ĠëĮĢ ê°Ģë¥¼
ĠëĮĢ ëł¹ìĿĢ
ìŀĲ ì¹´ë¥´íĥĢ
êµŃ íļĮ
ìĤ¬ ëĵľë¥´
ìĭľ ê»ĺ
Ġê³ ģ
ĠìĤ¬ ê¸°ë¥¼
ĠëĤ ¡ìĿĢ
ë¶Ģ ìŀ¥ìĿĢ
Ġì§Ģ ëĤ¬
Ġì§Ģ ì¹¨
ĠìĪĺ ìŀĶ
Ġêµ ½
ĠìłĦ íķĺëĬĶ
ĠìŀĪ ìĿĮìĹĲëıĦ
âĢĿ ,
ìĥģ ìŀĲ
ìłķ ê³¼
ìĸ´ ì§Ģê³ł
ëŁ¬ ìļ´
ëĮĢ ìĿ¸
ì£¼ ìŀĲ
ì£¼ ë§Ĳ
Ġë¯¸ ë§Į
Ġë¯¸ ìĨĮë¥¼
Ġê°Ģ ê¸Ī
Ġê°Ģ ëĳĲ
Ġê°Ģ ëĵł
Ġê°Ģ ì¡Įìľ¼ë©°
Ġì£¼ ëĲľ
Ġê¸° ìļ©
Ġê¸° ë¦Ħ
Ġê¸° êº¼ìĿ´
Ġìĭľ ì²´
Ġìĭľ íķ©
Ġìĭľ ëĮĢê°Ģ
Ġìłķ ê¸Ģ
íĻĶ íķĺê³ł
ëħĦ ëĮĢìĹĲ
ĠìĿ¸ ìłģ
ìłĦ íĨµ
ĠìŀĲ ê³ł
ë³´ ìĿĺ
íļĮ ìĤ¬ìĿĺ
íļĮ ìĤ¬ìĹĲ
Ġë¶Ģ ìĪĺ
Ġë¶Ģ íļĮìŀ¥ìĿĢ
ĠìĿ¼ ì¡°
ĠìĿ¼ ê´ĳ
ĠìĿ¼ ìĤ¼
Ġê´Ģ ëĮĢ
ìľĦ íĹĺ
ìķĪ íĨłëĭĪìĺ¤
ĠêµŃ ìĦ¸ì²Ń
Ġëĭ¤ íĸīíŀĪ
Ġë¹Ħ ìĭ¸
ë¯¸ ìĭľ
íĸī ìĤ¬
ĠìĿĺ ê±°
ĠìĿĺ ë¥ĺ
ĠìĿĺ ìĤ¬ìĿ¸
ĠìĿĺ ëħ¼
Ġìĥģ ìłķ
Ġìĥģ ìĦ¸
Ġìĥģ ê¸Ī
Ġìĥģ ìĦ¸íķľ
ìĨĮ ìĨ¡
ĠìŀĪëĬĶ ì§ĢìĹĲ
íĶĦ ëŀŃ
Ġì¡° ìĦ¸
Ġì¡° ìľ¨
Ġë¯¸êµŃ ìĿ¸ìĿ´
ĠìĹ° ê¸°ìĹĲ
Ġíķĺ ìĹĲìĦľ
Ġíķĺ ê¸°ëıĦ
Ġíķĺ ìĽĲìĹĲìĦľ
ì¡° ê°Ģ
Ġëª¨ íķĺë§Īëĵľ
Ġë§Ī ê°Ģ
Ġë§Ī ë¥¸
Ġë§Ī ë¥´ì½Ķ
ĠëıĻ ìĿĺë¥¼
ĠìĻ Ī
Ġìĺģ ìĸ´ë¡ľ
ëĦ £
ìķ¼ ë§Ī
ìĺ¤ ë°į
ê²½ ìĥī
ìĹ¬ ëªħ
ìĺģ ìŀ¥ìĿĦ
ë°© íķľ
ĠíĽĦ ìĿ¸
ĠíĽĦ ìĨį
ê°ľ ìĻĢ
Ġë°© ì½Ķ
ê³µ ëıĻ
ìŀ¬ ìłķ
ìŀ¬ ëĤľ
Ġê°ľ ë¦¬
ĠìĹĨ ëıĦë¡Ŀ
Ġë°Ķ ì¿łë°Ķ
Ġì´Ŀ íļĮ
ĠíĮĮ ê³ł
ĠíĮĮ ìļ´
ĠíĮĮ ëıĦê°Ģ
Ġë¬´ ìĸ´
Ġë¬´ ê¸°ê°Ģ
íĺ¸ ì£¼ìĿĺ
Ġëħ¸ ìĦłìĿĦ
Ġë¶Ī ê±°
Ġë¶Ī ê·ł
Ġë¶Ī ë¹Ľ
Ġê³Ħ ìłĪ
ìŀĳ íĴĪ
Ġê±° ìĦ¼
ĠìĹĲ ë¥´ëıĦê°Ħ
Ġë°ĺ ìĤ¬
ĠëĤ´ ê¸°
Ġê°Ĳ ëıĻ
Ġê°Ĳ ë©´
Ġê°ķ ìĦ¸ë¥¼
Ġíı¬ íĭĢëŀľëĵľ
ĠëķĮ ë¥¼
ëª¨ ìĸ´
ëª¨ íĨł
ĠíĶ¼ ë¥¼
Ġì°¨ ë²ł
ë²ķ ê³¼
ë²ķ ìĽĲìĿĺ
ë²ķ ìĽĲìĿ´
ĠìĦľ ë¥ĺ
Ġìĺ¬ ëĵľ
íķĺì§Ģ ëıĦ
ì½Ķ ìĬ¤
ì½Ķ ë¯¸ëĶĶ
ĠíıŃ ëĦĵ
ĠìļĶ ìĽĲëĵ¤ìĿ´
ĠíĺĦ ìĪĺ
ĠíĺĦ ìĥģìĿĦ
Ġì§Ħ ê³µ
ĠêµĲ ìĪĺìĿĺ
in ess
ĠìĿ´ëĿ¼íģ¬ ê°Ģ
ìĪ į
íĥľ ìĭĿ
ê²° ìĿ´
Ġì¶Ķ íķľ
Ġì¶Ķ ìļ´
Ġìķ½ íĴĪ
Ġì¶ľ êµ¬ì¡°ìĤ¬
Ġë¡ Ń
on y
on es
ĠìĽĲ íķľëĭ¤ë©´
ë£¨ ìĿ´ìĬ¤
Ġë§İ ìķĺëĭ¤
Ġë°ľìĥĿ íķĺìŀĲ
ë²ł íĤ¤
ëĵł ìĿĢ
ìĸĳ êµŃìĿĢ
ì¼Ģ ë¹Ī
ĠëĲĺ ìŀĲ
ĠëĲĺ ìĤ´
ĠëĲĺ ëıĦë¡Ŀ
Ġë²Į ìĿ´ëįĺ
Ġì¤ ĺ
Ġëį° ëĬĶ
Ġê´Ģê³Ħ ìŀĲìĻĢ
Ġê´Ģê³Ħ ëĭ¹êµŃìĿ´
Ġë¡ľ ì§Ģ
ĠíĪ¬ ìĸ´ë¥¼
ĠíĪ¬ ìĺ¥
ĠíķľêµŃ ê³Ħ
ĠëĿ¼ ë§Ī
ĠëĿ¼ ìĿ¼ëĿ¼
Ġëĭ¨ ì¶ķ
Ġëª© ìĤ¬ìĿĺ
Ġëĵ¤ ìĹĪëĭ¤ê³ł
Ġëª» íĸĪìľ¼ë©°
Ġëª» íķĺëĭ¤
ë¯¸êµŃ ìĿĦ
íĮĲ ìĿĢ
íĮĲ ìĤ¬ëĬĶ
ĠíĻĶ ë¥¼
ĠíĻĶ íķ´ë¥¼
ĠíĮĲ ëªħ
ĠìĹ¬ìĦ± ëĵ¤ìĿĺ
Ġê³¼ íħĮ
ĠC AC
Ġìłģ ì§Ģ
ĠêµŃê°Ģ ìĻĢ
Ġíķµ íıĲ
ìĬ¤íĬ¸ ë¦¬
Ġíıī ë¡ł
Ġìĭľìŀĳ ëĲĲìľ¼ë©°
ĠìĿ´ìĥģ ìĿĢ
Ġê³µê²© íķ´
ĠíķĦ ìĤ¬
ìłĢ ìļ°
íĺķ ìĿ´
Ġë²Ħ ëª¬íĬ¸
Ġíģ¬ ëĪĦ
ĠìĤ° ìľł
ëŀľ ëıĦ
ìĬ¬ ëŀ¨
ĠìĹ°êµ¬ ì§ĦìĿ´
ĠìĹ°êµ¬ íĮĢìĿĢ
Ġì´Ī ë¶ĢíĦ°
ĠìĥĿê°ģ ëĲľëĭ¤
ĠìĹ´ ë¦¬ê¸°
Ġë³´ê³ł ëĲĺì§Ģ
ì±ħ ìĿĺ
Ġíķ¨ ë¶Ģë¥´íģ¬
Ġì¡°ìĤ¬ ìĹĲìĦľëĬĶ
ĠìķĦìĿ´ íĬł
Ġì¹´ ìļ°
ëĿ¼ìĿ´ ëĦĪ
Ġê²½ê¸° ìŀ¥ìĹĲìĦľ
ĠìĦłê±° ìĿ¸
Ġì§Ģì§Ģ íĸĪëĭ¤
íĪ¬ ìķĦ
Ġê±´ ìĿĺ
íĸ¥ ìĿ´
ĠìĤ¬ìĭ¤ ìĿ´ëĭ¤
ĠíĻĺ ìŀĲìĹĲê²Į
Ġ11 2
ìķł ë¥¼
ĠêµŃìłľ ìĤ¬íļĮ
ĠêµŃìłľ ì¶ķêµ¬ìĹ°ë§¹
ĠT ra
ëĦĪ ê°Ģ
Ġë¹ĦëĤľ íķľëĭ¤
Ġìļ´ íķŃìĿĦ
Ġê²°ê³¼ ìĹĲëĶ°ëĿ¼
ë¨¸ ë¦¬
Ġíĳľ íķľëĭ¤
Ġíĥľ êµŃìĿĺ
Ġíĥľ ìĸ´ëĤ¬ëĭ¤
ì§ĳ ìĹĲìĦľ
ëŁ¼ ìĿĦ
Ġìĸ´ ìĬ¤
Ġê°ĸ ì¶°
ĠëŁ¬ ëĵľ
ĠëŁ¬ ë¸Į
ë²Ķ ìĿ´
Ġì²ĺìĿĮ ìĹĲ
Ġì¢ĭ ìķĺëĭ¤
Ġëĸ¨ìĸ´ ì¡Įëĭ¤ê³ł
Ġëĵ¤ìĸ´ ì£¼ì§Ģ
Ġìļ© ê¸°
Ġê¸°ìŀĲ ë¥¼
Ġìĺ¨ ì²ľ
ĠíĮĶ ìĿĦ
ĠëĮĢíĳľ ìĻĢ
ĠëĮĢíĳľ ëĵ¤ìĿ´
ĠëĮĢíĳľ ëĭ¨
ĠìĨĲ ìľ¼ë¡ľ
ĠìĭĿ ìĪĺ
Ġìłĳ ìĸ´ëĵ¤
Ġë²Ī íĻĶê°Ģ
ĠìĿĢ íıĲ
ĠìĨį ì¶ľ
ĠP re
ĠëŁ¬ìĭľìķĦ ë¥¼
ĠëĮĢíķĻ ìĹĲ
ĠëĶ° ë¥´ì§Ģ
Ġìŀĺ ëĿ¼
Ġê³µê°ľ ëĲł
ĠW ild
ĠìĿ¸ëıĦ ìĻĢ
Ġë²Ķ ìĿ¸ìĿĢ
ĠìĪľ ê²°
Ġê´ĳ ëĮĢ
ì§ĢìĹŃ ìĿĢ
Ġë¹ł ì§Ģê²Į
ĠëĤľ íıŃ
Ġì¶ķ ìłľë¥¼
Ġì¼Ģ ë¥´ë¹ĦìĹĺ
Ġa pp
ĠíĬ¸ ìľĦ
ĠíĬ¸ ë£¨
ëı¼ ìŀĪëĬĶ
Ġê°ģ ê¸°
Ġ14 00
Ġë°ĿíĺĢ ì¡Įëĭ¤ê³ł
Ġc oun
ĠíĽ Ī
ĠD e
ĠD AX
ĠìķĦíĮĮíĬ¸ ìĹĲìĦľ
ĠìĦłìĪĺ ìĿĺ
ĠìķĶ ìĤ´ëĲľ
Ġë°Ģ ìłĳíķľ
ĠìĹħ ê³ĦìĿĺ
ĠìĨĮìĨį ìľ¼ë¡ľ
ê²Ģ ìĤ¬ë¥¼
ĠíĥĪëłĪë°ĺ ìĿĢ
Ġì£¼ì§Ģ ìĤ¬ìĹĲ
Ġì£½ ìĸ´
ĠìĪĺìĥģ ìŀĲ
ĠíŀĲ íĬ¼ìĿĢ
ĠìĥĿìĤ° ëŁīìĿĦ
Ġ24 00
ì¿ł íį¼
ĠíĹ¤ ëĵľíı°
and id
ĠëıħìĿ¼ ìĹĲìĦľ
íľ ´ëĮĢ
Ġíİ¸ ìĹĲ
ĠH D
Ġìĭ¶ ëĭ¤ëĬĶ
ĠíĶĦë¡ľê·¸ëŀ¨ ìĹĲìĦľ
Ġìĸ´ë¦° ìĿ´ê°Ģ
Ġêµ¬ì¡° ëĮĢìĽĲëĵ¤ìĿ´
íı° íħĮ
ĠíķĺëĤĺ ëĭ¤
Ġì°¨ì§Ģ íķľëĭ¤
Ġë°ľìĸ¸ ìľ¼ë¡ľ
Ġ& #
ìĹħì²´ ìĹĲ
ìĹħì²´ ëĵ¤ìĿ´
ĠìŀĲìĤ´ íıŃíĥĦ
íĺĦìŀ¬ ê¹Įì§Ģ
Ġìļ°ìĬ¹ ìľ¼ë¡ľ
Ġìļ°ìĬ¹ ìŀĲìĿ¸
Ġì¶©ëıĮ íķľ
ĠëıĪ ìĦ¸íĥģ
ĠìĤ¬íļĮ ì£¼ìĿĺ
Ġë°¤ ìĿĦ
ĠìķĦìĭľìķĦ ìĻĢ
ĠíĥĢìŀĦ ìĬ¤ëĬĶ
Ġì¹ľêµ¬ ìĿĺ
ë¯¼ì£¼ ì£¼ìĿĺ
ĠíĦ°íĤ¤ ê°Ģ
ĠìĤ¼ ìķĺëĭ¤
ĠëĪĪ ìľ¼ë¡ľ
ĠíĪ¬ìŀĲ ìŀĲëĵ¤ìĿĢ
el y
ëª¬ ëĵľ
Ġë²łìĿ´ì§ķ ìĺ¬ë¦¼íĶ½
Ġë¹Ħìļ© ê³¼
ìµľê·¼ ìĿĺ
ìĻĦ ëĭ¤
ë§ģ íĦ´
ê¸°êµ¬ ê°Ģ
Ġì§ģìłĳ ìłģìľ¼ë¡ľ
Ġíį¼ íĬ¸ëłĪìĿ´ìĸ´ìĬ¤
Ġìĭłë¬¸ ìĿĺ
ì°¸ ê°Ģ
Ġê°ķíĻĶ ëĲľ
ĠíļĮìĿĺ ëĬĶ
Ġìłľì¡° ìĹħì²´ìĿ¸
ĠìĹ°ê¸° ëĲĲëĭ¤
ĠìĪĺíĸī íĸĪëĭ¤
Ġìĺ¬ëĿ¼ ìĺ¨
ĠìĭľëıĦ íĸĪëĭ¤
Ġë¶ĦìĦĿ ê°Ģ
Ġë¶ĦìĦĿ ê°ĢëĬĶ
ì¿ ĦëĬĶ
Ġì£¼ë³Ģ ìĿĺ
ĠíĻĶìŀ¬ ëĬĶ
Ġn ext
ĠìľĦìĽĲíļĮ ê°Ģ
Ġì¦Ĳ ê²ģ
ĠìĦ¼ íĬ¸
ĠëĮĢìĦłíĽĦë³´ ê°Ģ
Ġê²ĮìŀĦ ìĿĢ
ìĤ¬ê±´ ìĿĢ
íķĺìĿ´ ë¨¸
ĠìķĦíĶĦê°ĢëĭĪìĬ¤íĥĦ ìĿĺ
êµŃìłľ ìľłê°ĢëĬĶ
ow s
ĠìĤ°ìĹħ ìĹĲ
Ġì²łìĪĺ íķł
Ġê´Ģê´ĳê°Ŀ ëĵ¤ìĿĢ
ìĬ¤íĦ´ ìĿĢ
Ġre f
ĠO PEC
íĶĦë¡ľ ê·¸ëŀ¨ìĿĦ
ĠíĻķìĤ° ìĿĦ
Ġìķ¨ ëĿ¼ë°°
Ġì´¬ìĺģ íĸĪëĭ¤
ri es
Ġë¶Ģìłķ ìłģ
ĠìłľíĴĪ ìĿ´
Ġë°ĺìĿĳ ìĿĢ
Ġíı¬ê¸° íķĺëĬĶ
ĠìĦ¤ì¹ĺ íķľ
ĠìłĦë¬¸ê°Ģ ëĵ¤ìĿĺ
Ġìĭ¤íĹĺ ìĹĲ
ĠìķĦë§Ī ëĶĶ
ĠìĭľíĹĺ ìĿĦ
Ġìłľíķľ íķĺëĬĶ
Ġìłĳê·¼ íķĺì§Ģ
Ġê²ĥê³¼ ëĬĶ
ê³¼íķĻ ìŀĲëĵ¤ìĿ´
Ġê²°ìĿĺ ìķĪìĿ´
Ġê²°ìĿĺ ìķĪìĿĢ
Ġê²¬ íķ´
Ġì§ĳì¤ĳ ìłģìľ¼ë¡ľ
oin t
ĠìĤ¬ë¥´ì½Ķ ì§ĢëĬĶ
íĬ¹ íķľ
Ġíļ¨ê³¼ ìłģìľ¼ë¡ľ
Ġìŀ¬ìłķ ê²½ìłľ
Ġíľĺ ë§Ĳ
ìłĦë¬¸ ê°Ģ
ĠìĿµ ìĤ¬
Ġì§Ģì¼ľ ë³´ëĬĶ
Ġìĺ® ê¸°
Ġë¶Ħìķ¼ ìĿĺ
Ġë¶Ħìķ¼ ë¥¼
Ġde ath
ë§ĪìĿ´ íģ¬ë¡ľ
Ġê²ĢíĨł íķł
ĠëĮĢë§Į ìĿĺ
íģ¬ë¡ľ íĶĦíĬ¸
íĮħ ìĿĦ
Ġst ate
ìĬ¤íħĮ ìĿ´íĬ¸
Ġë§º ìĹĪëĭ¤
Ġì§Ģë°° ë¥¼
ĠìķĦëŀį ê³Ħ
Ġë¬´ìŀ¥ëĭ¨ì²´ ìĿĺ
ĠìĨĮìŀ¬ ë¡ľ
Ġëħ¸ì¡° ê°Ģ
ëĤ¸ ìħľ
ĠìĨĮë°© ìĦľ
ĠìĭŃ ìŀĲê°Ģ
em oc
Ġê³Ħìķ½ ìĿ´
ĠíĶĦëĿ¼ìĿ´ë¨¸ ë¦¬ë¥¼
Ġë§Īëĵľë¦¬ ëĵľìĹĲìĦľ
Ġë¶ĪìķĪ ìłķ
Ġë¬» íĺĢ
Ġë©¸ì¢ħ ìľĦê¸°
Ġìłģìļ© íķł
ĠíķĺìĽĲìĿĺ ìŀ¥ìĿĢ
Ġ197 3
ĠëŃ Ĳ
ë¯¸ëĶĶ ìĸ´
ĠìłĢëħģ ìĭĿ
ĠìĺĪìĪł ê°Ģ
ĠìĻķìĦ¸ ìŀĲìĿĺ
ĠìĿ´íĺ¼ íĸĪëĭ¤
Ġêµ¬ìŀħ íķľ
Ġíķĺë§Ī ìĬ¤ë¥¼
ĠìłĪë°ĺ ìĿ´
Ġê±±ìłķ íķĺê³ł
ĠëĤ³ ìĿĦ
Ġì£¼ìĿ¸ê³µ ìĿ¸
Ġê°Ĳì¶ķ íķł
ĠêµĲíĻ© ìĿĺ
ĠìłĲëł¹ íķľ
ĠíĮ¨ìħĺ ìĩ¼
Ġì¦Ŀê¶Į ê±°ëŀĺ
Ġì£Ħ ë¥¼
Ġê¶ģ ê·¹
Ġê²½íĺ¸ ìĽĲ
Ġì²ŃìĨĮëħĦ ëĵ¤ìĿ´
Ġëħ¸ë²¨ ìĥģ
ĠìŀŃìĬ¨ ìĿ´
Ġíĸīìłķ ëªħ
ĠìķĦìĿ´ëĶĶ ìĸ´
Ġë³´ì¡° ê¸ĪìĿĦ
ĠìĿ´ë£¨ ê¸°
ĠëĤ´ëĨĵ ìķĺëĭ¤
ub e
Ġê´ĢìĹ¬ íķľ
ĠìĽ¨ìĬ¤íĬ¸ ë²Ħì§ĢëĭĪìķĦ
Ġìĸ´ëłµ ëĭ¤ê³ł
ĠíħĮëŁ¬ë²Ķ ìĿ´
Ġìķ¡ ìħĺ
Ġíķ©ë¥ĺ íķł
ĠìĪĺì§ĳ íķľ
Ġíģ¬ë¡ľ ì»¤
Ġëª¬ íĥĢëĤĺ
ĠìĻ¸ê³½ ìĹĲìĦľ
ĠëĤ´ìłķ ìŀĲëĬĶ
ĠìĿ´ë¥¸ ëĭ¤
Ġë§Īë¥´ íĭ°ëĦ¤
Ġë¬¼ëŁ¬ ëĤľ
Ġan n
ĠìĮĵ ìĿ¸
Ġê³µìľł íķĺëĬĶ
Ġìĺ¤ìĤ¬ ì¹´
Ġìŀ¥ì°© íķľ
ĠëĤĺìķĦ ê°Ī
Ġìŀ¥ìĭĿ ëĲľ
Ġë°ľê°Ħ ëĲľ
ĠìĦłê±°ìºł íĶĦ
ĠìĦłê±°ìºł íĶĦëĬĶ
ìĬĲ ë¦¬
Ġëĵ±ìŀ¥ íķľëĭ¤
ire c
íķĺìĺĢ ê³ł
ĠìĤ¬ëĵľë¥´ ìĿĺ
ê·¸ëłĩ ëĭ¤ë©´
Ġëª©ë¡Ŀ ìĹĲ
Ġëª©ë¡Ŀ ìĿĦ
Ġê³łì¡° ëĲĺê³ł
ĠìĭľìĤ¬ íĸĪëĭ¤
Ġê±· ëĬĶ
Ġìĺ¤íĨł ë°ĶìĿ´
ĠíİĺëįĶ ëŁ¬ëĬĶ
ĠìĬ¤ì½ľìĦ¸ ì§Ģ
Ġê±°ëĳĲ ë©°
ĠìĺģíĻĶìłľ ìŀĳ
lec tr
ëĭ¤ëĭĪ ìĹĺ
Ġê·¼ë³¸ ìłģìĿ¸
ĠìłĢì§Ī ëłĢëĭ¤
Ġìļ´íķŃ ìĿ´
Ġëĭ¤íģĲë©ĺ íĦ°
ves tig
Ġê°± ìĭł
Ġì£¼ìĭĿìĭľ ìŀ¥ìĿ´
Ġë§ĪíĿĲ ë¬´ëĵľ
ĠìĬ¤íĶ¼ìĸ´ ìĬ¤ìĿĺ
Ġë°°ê²½ ìľ¼ë¡ľ
ë©Ķë¥´ ì¼Ī
ĠìĥĿë¬¼íķĻ ìłģ
ĠíĽĶ ì³Ĳ
Ġë¹Ħíıī ê°Ģëĵ¤ìĿĢ
Ġì¡°ìļ© íŀĪ
Ġë¶Īì¾Į ê°ĲìĿĦ
Ġê¸īëĿ½ íĸĪëĭ¤
Ġì¤Ħë¦¬ìķĦ ëĭĪ
ĠìĽĲìŀĲ ë°Ķìĺ¤
Ġëĭ¨ëıħ ìľ¼ë¡ľ
Ġë²łìĬ¤íĬ¸ ìħĢëŁ¬
ĠíĮĮëĿ¼ ìĺ¤
ĠíĶĦëĿ¼ ìŀĦ
ĠíĨłëĦ¤ìĿ´ ëıĦê°Ģ
Ġë³¸ê²© ìłģìľ¼ë¡ľ
ê·¸ë¡ľ íı°íħĮ
ĠìĬ¤ì¹´ ìĿ´
Ġê¹ĥ ë°ľìĿĦ
íİĺìĿ¼ë¦° ìĿĢ
ĠíĹĪëĵľ ìĬ¨
ĠíĮ½ íĮ½
Ġì¸ł ìļĶ
Ġê¹¨ëģĹ íķľ
ĠìķĦíĭĢ ëŀĢ
Ġë¡± ê³łë¦¬ìķĦ
ĠíħĶëłĪë¹Ħ ìłĦ
Sp ace
ëĦ¤ëįľ ëŀĢëĵľ
Ġcom p
Ġë°ľëłĪ ë¦¬
íĶĦìĥ¤ ëĬĶ
ĠíĴįëł¥ ë°ľìłĦ
Ġìĺ¤íĨłë°Ķ ìĿ´ë¥¼
ĠìĿ¸ìĭł ë§¤ë§¤
ìĨĮìĭľ ìĹĦ
Ġíı¬ê´Ħ ìłģìĿ¸
ĠìĬ¹ìļ© ì°¨
ĠìĬ¬íĶ Ķ
ëĿ¼íĮĮ ìĹĺ
ĠìĬ¤íħĶ ìĬ¤
Ġê³łë§Ī ìĽĢìĿĦ
ĠëĳĲê°ľ ê³¨
NY MEX
Ġêµīìŀ¥ íŀĪ
íķ´ìĪĺ ìļķìŀ¥ìĹĲìĦľ
Ġsold i
ìĿ´ëłĩ ê²Į
ë¥´ë° ľ
Ġíķłë¨¸ ëĭĪëĬĶ
Ġì´Ŀê¸°ëĤľ ìĤ¬
ĠCor p
ĠìĨĲíķ ´ë°°
7 7
8 6
B ëĬĶ
C ent
F K
F ed
d ition
f l
o ot
u g
¬ ìķ¼
å ı
í ĳ¼
Ġ al
ī ìĬ¤ëĬĶ
Ł ¬
Ġë ľ
ëĭ¤ ëĤĺ
ëĭ¤ ìľĪ
ëĬ ¬
ê³ł ë¡ľ
ê³ł ë¦¬
íķĺ íĬ¸
ë¡ľ ì§Ģ
ë¡ľ ìļĶ
ì§Ģ ìĤ¬
ì§Ģ ì§Ħ
ì§Ģ ìļĶ
ì§Ģ ìķĬ
ìĬ Ľ
ìĿ¸ ëĵ¤
ìĿ¸ ì§ĢëĬĶ
íķ´ ì£¼ê³ł
Ġë§ Īëĭ¤
ëĿ¼ ê¸°
ê¸° ì¦Ŀ
ëĤ ¸ëĭ¤
ĠìĹ ´ë§
ĠëĮĢ ìĬĲ
ìŀĲ ëıĦ
ìĤ¬ ì°°
ìĭľ ë¯¸
ìĭľ íķľìĿĦ
ë° ¥
ĠìĿ´ ë¥´
ĠìĿ´ ê²ĥ
ĠìĤ¬ ì´Į
ë³ ´ëĤ´
ëıĦ ìļĶ
ìŀ¥ ê´ĢìĿĦ
ìĿ¼ ëĵľ
ìĽĲ ëıĦ
Ġëĭ Ĳ
Ġì§Ģ ìĿĦ
Ġì§Ģ ëĥĪëĭ¤
ìĺ Į
ìķĦ ëŀĺ
ìķĦ íĿĲ
ĠìĪĺ ë¡Ŀ
ĠìĪĺ ìĥģìĿĦ
íĻ ī
ëªħ íķĺê²Į
ëĤĺ ìĻĵ
ìĥģ ëĮĢ
ìĸ´ ìł¸
ìĻĢ ìĿ¸íķĺìļ°
ëŁ¬ ê°Ģ
ëį Ł
ì£¼ ìĹĪëĭ¤
Ġë¯¸ ìĬ¤íĦ°
00 7
Ġê°Ģ ìĭľ
Ġê°Ģ íķĺëĬĶ
Ġê°Ģ ëł¤
Ġê°Ģ íĺ¹
Ġê°Ģ ë°©ìĿĦ
Ġê°Ģ íĨ¨ë¦Ń
Ġì£¼ ìĿ¼
Ġì£¼ ëł¥
Ġì£¼ ê¶Į
Ġì£¼ ìľĦë¥¼
ë§Į ìĹĲìĦľ
ìłľ ìĻĢ
ìłľ ë¥´
Ġë§Ĳ ìķĦ
Ġë§Ĳ íĸĪìľ¼ëĤĺ
ìĪĺ ë§İìĿĢ
Ġê²½ ìľł
Ġìłķ íĸĪëĭ¤
Ġìłķ ëıĻìĺģ
íĻĶ ë¬¼
Ġë³´ ìĬ¤íĨ¤
Ġë³´ ê¶Ĳ
ĠìĿ¸ íħĮ
ĠìĿ¸ ì²ľ
ĠìĿ¸ ìĪĺë¥¼
ìłĦ ê³¼
ìłĦ ë°ĺ
Ġíķľ ì°½
êµ¬ ìĿ¸
êµ¬ ìĹŃ
ë¬¸ ìĦľ
ì¹ĺ ë£Įë¥¼
ë³´ ëĵľ
ë³´ ê´Ģ
íĦ° ë°ĶíĿĲ
íĦ° íĺ¸ë¥¸
ìĭł ìĽĲ
íļĮ ìĤ¬ë¥¼
Ġë¶Ģ ìľĦìĹĲ
ë§Ī ì¹´
ë§Ī ë¬´ëĵľ
Ġê³µ íĳľ
Ġê³µ íĹĮ
Ġê³µ ìķ½ìĿĦ
ëĤľ ë¯¼
ĠìĿ¼ ëĮĢ
ĠìĿ¼ íĻĺ
ê³Ħ ìĨį
ìľĦ ê¶Į
Ġëĭ¤ íķ´
Ġë¹Ħ ìľ¨
Ġë¹Ħ ìĬ¤íĥĢ
Ġë¹Ħ ì°¸
Ġë¹Ħ ìľ¨ìĿĢ
ë¯¸ ìĹĲ
ëĭ¹ íķĺê³ł
íĸĪ ê±°ëĤĺ
ĠìĿĺ ìĥģ
ĠìĿĺ ìŀ¥ìĿĺ
Ġìĥģ ë¬´
ìĨĮ ëħĦ
ìĨĮ ëł¨
ë©´ ìłľ
íĶĦ ëĿ¼ìĿ´
ëĲĺ ëĭ¤
Ġì¡° ìĹħ
Ġì¡° ì¹´
ìĦł ë°ķ
ëĶ Ķëĭ¤
Ġë¯¸êµŃ ìĿ¸ìĿĺ
Ġìłľ ê°Ģ
Ġìłľ ìĿ¸
Ġìłľ ëĿ¼
Ġìłľ ë³´
Ġìłľ íĶĦ
Ġìłľ íį¼
ĠëĤĺ ì²´
ìĦ¸ ë¥´
ìĦ¸ ì»¨ëĵľ
ìľł ìĤ°
ĠìĹ° ìĬµ
ëłĪ íĭ°
ìĥĿ ìķĦ
Ġíķĺ ì§ĢëĬĶ
Ġíķĺ ëł¤ëĬĶ
Ġë§Ī ìĿ¼
Ġë§Ī ë¦¬ìĿĺ
Ġë§Ī ìĥ¬
Ġë§Ī íĦ°íĺ¸ë¥¸
íĳľ ë¡ľ
Ġìĺģ ë¶Ģ
ëĦ ¥
ĠìĽ ¬
íĺĦ ìŀ¥ìĹĲìĦľ
ĠìĺĪ ê²¬
ĠìĺĪ ìĻ¸
Ġê³ł ì¸µ
ìķ¼ ìĹĲ
ìĺ¤ ë§Ī
ê²½ ìĿĺ
ìĹ¬ íĸīìĿĦ
ìĭĿ íĴĪ
ë°© ê¸ĢëĿ¼ëį°ìĭľ
Ġë°Ľ ê¸°ëıĦ
ĠìĬ¤ íĭ¸
ê³µ ê°ľ
Ġìļ° ìĿµ
Ġê°ľ êµ¬
ĠìķĮ íĮĮ
ĠìķĮ ë²łë¥´íĨł
ĠìĥĿ ê¸°ëĬĶ
Ġë°Ķ ìĹĲëĶ°ë¥´ë©´
ìĭ¤ íķľ
ĠìĦ± ê²©ìĿĦ
Ġìŀ¥ ìĿ´
Ġìŀ¥ ìĦ±
ĠëĤ¨ ìļ°ì£¼
Ġë¬´ ì¤ĳëł¥
íĺ¸ ìĹĲìĦľ
ĠíĨµ ìłľë¥¼
íı¬ ëĵľëĬĶ
ë§Ŀ ìĹĲ
Ġëħ¸ ìĻģ
íĮĮ ëĬĶ
íĮĮ ìĻĢ
íĮĮ ìļ´
Ġìĭł ìĽĲìĿĢ
Ġìĭł ë¶ĢëĬĶ
Ġìĭł ë¬¸ìĿĦ
ë¶Ħ ëªħ
Ġë¶Ī ë§ĮìĿ´
Ġë¶Ī ëłĢ
ê°ģ ìĿ´
ê±´ íķľ
ê±´ íĿ¬
íĥĦ ìĿ´
ĠëĤ´ ëĭ¬
ìĹĪ ìĹĪëĭ¤
Ġê°Ĳ íĸīíķľ
Ġê°ķ ìķĦ
Ġíı¬ íģ¬
ĠëķĮ ìĹĲ
ĠëķĮ ë¶ĢíĦ°
ëª¨ ìĿĺ
ëª¨ ëĭĪ
ëª¨ ëĭĿ
Ġì°¨ ìĦ¸ëĮĢ
ĠìĦľ ê¸°
ĠìĦľ ë¥ĺë¥¼
ĠíıŃ ê²©ìĿĦ
ĠíıŃ ëıĻìĿĦ
ĠëįĶ ë¸Ķ
íĨł ë°Ķ
íĨł ë¡Ŀ
ê¶Į ê³¼
Ġë© ĺ
Ġìŀĳ ë³Ħ
Ġì¶Ķ ê¸°
Ġìķ½ ìĦ¸ë¥¼
Ġì¶ľ íĺĦ
ë²Ħ ë¥¸
ĠìĻ¸ ìĦ¤
ĠìĻ¸ êµŃìĿĺ
ĠìĻ¸ ëĶ´
ĠìĤ¬ë§Ŀ íķł
Ġì£¼ìŀ¥ íĸĪìĬµëĭĪëĭ¤
íķĺê²Į ëıĦ
Ġ19 53
Ġë§İ ìĿĦ
Ġë°ľìĥĿ íķĺê¸°
ëŀĢ ì¹´
ìĦĿ ìľ¼ë¡ľ
ë²ł ë¥¼
ë²ł ìĿ´ìĬ¤
ìĸµ ìĽĲìĿĺ
Ġíĸī ë°©
ê°Ĳ ìĹĲëĶ°ëĿ¼
ĠëĶ ±
Ġì¦Ŀ ìĥģìĿĦ
ìĸ´ë ¨¸ëĭĪ
ì¼Ģ ëĦ¤ëĶĶ
Ġì¤ĳêµŃ ê³¼ìĿĺ
Ġë¬¸ìłľ ëĿ¼ê³ł
Ġë°ľíĳľ íķĺëĬĶ
Ġëį° ìĹĲëĬĶ
Ġë¶Ħ íĻĶ
ë¦¬ìķĦ ìĬ¤
Ġì§ĳ ìĸ´
Ġì§ĳ íļĮìĹĲìĦľ
Ġë¡ľ íķľìĿ´
ĠíĪ¬ íĥķ
ĠëĿ¼ ìŀĲ
Ġëĭ¨ ìłĪ
Ġëĭ¨ ê³Ħë¥¼
Ġëĭ¨ ê±°ë¦¬
Ġëĵ¤ ëł¤
Ġëĵ¤ ìĸ´ë³´
ar m
Ġë¦¬ íĬ¸
Ġê¸Ī ìłĦ
ĠíĻĶ íıĲ
Ġìĭ¬ ìĬ¨
ĠC on
ĠC ons
Ġìłģ ëıĦ
Ġë³ĳ ìĹŃ
Ġë³ĳ ìĤ¬ê°Ģ
Ġê²Ģ ìłķ
Ġì²´ ê³Ħë¥¼
ê°Ŀ ìĿĢ
Ġìĸ¸ ìĥī
Ġìĸ¸ ìłł
Ġë³Ģ íķĺì§Ģ
Ġë³Ģ íķ¨
Ġìķŀ ìŀ¥
Ġìĭľìŀĳ íķľëĭ¤
Ġë¬¼ ìĹĲìĦľ
ë©Ķ ìĭľ
Ġíķ© ë¦¬
Ġê³µê²© íķĺê³ł
ìĤ´ ì§ľë¦¬
ë³ĳ ëĮĢ
ĠA ll
ĠëŁ Ń
ĠìĤ¬ìļ© ìĿ´
Ġì§ģ ìĽĲìĿĢ
Ġìĸ´ë ¯¸
Ġìĸ´ë ¨¸ëĭĪëĬĶ
ĠëłĪ ëħ¸
ĠëłĪ ìĬ¬ë§ģ
ĠìĹ°êµ¬ íķĺê³ł
Ġì´Ī ìķĪìĿĦ
Ġ12 8
Ġìĸĳ ìĿ´
Ġê³ĦìĨį ëĲĲëĭ¤
ĠëıĮ ë©°
Ġì½Ķ íĬ¸
Ġì½Ķ ìĨĮ
ĠìķĦìĿ´ ë§Į
ê°ķ ìĤ°
Ġì§Ģì§Ģ íķľ
Ġì§Ģì§Ģ ìŀĲëĵ¤
Ġë³´ë Ŀ¼
ìłķë¶Ģ ìĻĢ
Ġê±´ ìĬ¤
Ġê²°ìłķ íķĺì§Ģ
ë°ķ íķľ
Ġë°ķ ìĤ¬ìĻĢ
Ġì§ĢëıĦ ë¶Ģ
Ġì§ĢëıĦ ìŀĲìĿĺ
Ġë©Ķ ìĿ¸
ĠêµŃìłľ ìľłê°Ģ
Ġë³µ ìŀ¥ìĿĦ
Ġë¹ĦëĤľ ìĿĺ
ĠS ociety
ĠìĭľìľĦ ëĮĢìĿĺ
ĠìĭľìľĦ ëĮĢìĹĲ
ì§ĳ ìĿĦ
Ġì¢ħ ìĿĺ
Ġì¢ħ ëª©
ìĻ¸ êµŃìĿ¸
Ġìµľê·¼ ê¹Įì§Ģ
Ġìĸ´ ë¦¬
at t
Ġì¹ľ ì§Ģ
ĠëŁ¬ ìħĢ
Ġìķł ëĦĲ
Ġì¼ Ĳ
ĠëĤĺíĥĢ ëĤł
Ġê³³ ê³³ìĹĲìĦľ
íıŃ ìĬ¤
ĠëĤł ë¡ľ
ĠëĤł ì¹´
Ġì²´íı¬ ëĲĲìľ¼ë©°
ĠìŀĪìĹĪ ëĬĶì§Ģ
Ġë¬´ìŀ¥ ìĦ¸ëł¥ìĿĦ
ĠP l
ĠìĽĶ íĦ°
ë§ī ìĿĦ
ìķĮ ëŀĺìĬ¤ì¹´
íķĺë©´ìĦľ ëıĦ
ìĥ¤ ë¦¬íĶĦëĬĶ
Ġë¶Ģìĥģ ìĹĲìĦľ
ĠìĻķ ê¶ģ
Ġì¤ĳëĭ¨ íĸĪëĭ¤ê³ł
ëª© ìĿĦ
ĠìľłìĹĶ ìĤ¬ë¬´
Ġë°ĺëĮĢ ë¥¼
Ġa id
Ġë°©ìĨ¡ ìĤ¬
Ġëĭ¹ìĦł ëĲĲëĭ¤
ì½ľ ë¡ľ
ĠíķŃê³µ ìĤ¬ëĬĶ
Ġìĥģíĥľ ëĬĶ
ë¡ľë¶ĢíĦ° ìĿĺ
Ġì¤ĳìļĶ íķĺê²Į
Ġìĭ¤ìĭľ ëĲĲëĭ¤
Ġì°¨ëŁī ìĹĲìĦľ
Ġì°¨ëŁī ê³¼
ĠìĿĺíļĮ ìĻĢ
ĠìĦłìĪĺ ë¥¼
ĠìķĶ ìľ¼ë¡ľ
ĠíĪ¬íĳľ ê¶ĮìĿĦ
Ġê°Ļ ìķĦ
ĠíķĺëĿ½ ìľ¼ë¡ľ
ĠíķĺëĿ½ íĸĪëĭ¤ê³ł
ĠíķĺëĿ½ íĸĪê³ł
ĠìĤ¬ì§Ħ ìĹĲìĦľ
ĠìĨĮìĨį ëĲľ
Ġë¨¸ íĶ¼
ĠëĤ© ë¶ģ
Ġê¸ī íŀĪ
ĠëĨį ëĭ´
´ë³ ´ëĭ¤
Ġì°¸ìĦĿ ìĿĦ
ĠíıŃë°ľ ìĿĢ
ĠìĦ±ê³µ ìłģìĿ¸
ĠìľĦíĹĺ ìĦ±ìĿĦ
ĠìĥĿìĤ° ëŁī
Ġê¸°ìĪł ë¡ľ
ì¿ł ìĽ¨ìĿ´íĬ¸
Ġë³¼ íĬ¼
Ġë³¼ ëĵľìľĪ
Ġëį°ìĿ´ ë¸Į
Ġ22 0
ĠìĿĺìĽĲ ëĵ¤ê³¼
Ġìłķì±ħ ìĿĺ
Ġíľ´ ìĿ¼
ĠìĤ´íķ´ íķĺê³ł
Ġìłľìŀĳ íĸĪëĭ¤
ĠìĿĢíĸī ëĵ¤ìĿ´
ê´Ģê³Ħ ìĹĲ
Ġê³łìľĦ ê´Ģë¦¬
Ġëħ¸ëł¥ íķĺëĬĶ
Ġì¡°ì§ģ ìĿ´
19 80
ĠëĤ©ì¹ĺ ëĲĲëĭ¤
Ġê²© ë¶Ħ
Ġê²© ì°¨ê°Ģ
Ġìĩ Ħ
Ġë§¥ ì½Ķë§¥
ĠëĨĵ ìĿ¸
Ġê²½ìŁģ ìĿ´
Ġì¶©ëıĮ íĸĪëĭ¤
ĠìĻĢ ì§Ģë¦¬ìĬ¤íĥĦ
Ġì»´íĵ¨íĦ° ìĻĢ
Ġìĭľë¯¼ ëĵ¤ìĿĦ
Ġê±°ë¶Ģ íķĺëĬĶ
Ġë°ĿíĺĶ ê³ł
ĠìĤ¼ ìĹĦíķľ
Ġê¸°ìĹħ ëĵ¤ìĿĺ
ĠêµŃê²½ ì§ĢìĹŃ
ëł¸ ìĿĦ
ëł¸ ì§Ģë§Į
ĠìĹŃíķł ìĿ´
ĠíļĮìĤ¬ ë¡ľ
Ġë§¤ì¼ĢìĿ¸ ê³¼
Ġê·Ģ ë¥¼
ĠëĨĢ ëŀį
íķĺìŀĲ ê³ł
ë§¨ ìľłëĬĶ
ĠìĨĮìľł ì£¼
Ġíį¼ ë¶Ģ
ĠëĬĺ ë¦´
ĠìĶ¨ ë¥¼
Ġìľłê¶Į ìŀĲê°Ģ
ĠíıĲìĩĦ íĸĪëĭ¤
Ġìºł íį¼
Ġê²ª ìĿĢ
Ġê²ª ê²Į
Ġì§Ģì§Ħ ìĿĺ
ìĹ°êµ¬ ìĨĮìĿĺ
Ġìĺ¬ëĿ¼ ìĻĢ
ĠìĪĺì¤Ģ ìĿ´ëĭ¤
ĠìĿ´ë£¨ìĸ´ ì§Ģì§Ģ
ĠíĻķë³´ ìĹĲ
ver y
Ġíķ´ìĻ¸ ë¡ľ
Ġn o
ĠìľĦìĽĲíļĮ ìĹĲ
ĠìĿ´ë¤Ħ ì§Ģê³ł
ĠìĿ´ë¤Ħ ìł¸ìķ¼
Ġë°°ìļ° ê°Ģ
ĠìĿĺë¯¸ íķĺëĬĶ
ĠìĹĶ ëį°ë²Ħ
ĠìĦĿìľł ë¥¼
Ġ0 9
ĠìĿ´ìłĦ ìĿĺ
êµŃìłľ ìľłê°Ģê°Ģ
Ġ198 5
Ġìľ¡ ìĦ±
Ġê´Ģê´ĳê°Ŀ ìĿĦ
Ġë§Ŀ ëªħìĿĦ
íĶĦë¡ľ ìłĿ
Ġë¶Ļ ìĺĢëĭ¤
Ġëª¨ëį¸ ìĿ´
Ġë©Ķìĭľ ì§ĢëĬĶ
ë©ĺ íĨł
ĠíĨłë¡ł íļĮìĹĲìĦľ
Ġë§ĮëĤĺ ê²Į
Ġê°Ģìł¸ ìĻĶëĭ¤
Ġì§Ģë¶Ī íķĺê³ł
Ġìļ´ìłĦ ìŀĲê°Ģ
Ġêµ¬ìĨį ëĲľ
ĠëĦ£ ê³ł
Ġê°ĢìŀĲì§Ģêµ¬ ìĿĺ
Ġì¤ĳìķĻ ìĿ¼ë³´ê°Ģ
ĠìĬ¹ê°Ŀ ê³¼
ĠìķħíĻĶ ëĲľ
ë¡ľìĿ´ íĦ°
ĠìĹ´ì°¨ ëĬĶ
ĠíķŃìĿĺ íĸĪëĭ¤
ĠìĬ¹ìĿ¸ íķľ
Ġì§Ģëªħ ëĲľ
ĠëĤĺìĺ¨ ëĭ¤
ĠìĨĮìĨ¡ ìĹĲìĦľ
Ġëī´ìĬ¤ ìŀħëĭĪëĭ¤
Ġë³µê·Ģ íĸĪëĭ¤
ĠìĪĺìĥī ìĿĦ
ĠëĤĺíĨł êµ°ìĿĺ
Ġê·¸ë¦° ìĬ¤íİĢ
Ġë¬´ìĹĩ ìĿ´
ĠíĳľíĺĦ ìĿĦ
Ġì§Ģì¼ľ ë³´ê³ł
ĠìŀĲëħĢ ê°Ģ
íĪ¬íĳľ ìĹĲìĦľ
ë§ĪìĿ´ íģ¬
ĠìĿ¸ë¬¼ ë¡ľ
ĠìŀħìĽĲ íķ´
Ġë¹Ħíĸīê¸° ìĹĲìĦľ
ĠëĮĢë²ķ ìĽĲìĿ´
ĠìĦłíı¬ íķľ
ĠëĦĺìĸ´ ìĦľ
ì¹´ë ©ĺ
Ġë§Įëĵł ëĭ¤
ĠëĤĺìĻĶëĭ¤ ê³ł
Ġì»¨ ìħī
ĠìĪľê°Ħ ìĿĦ
ĠìĿ´íķ´ íķĺëĬĶ
ĠìĿ´íķ´ íķĺê³ł
ëįľ ëŀľëĵľ
Ġl aw
Ġëħ¸ì¡° ëĬĶ
Ġìĭľë¦¬ìķĦ ë¥¼
ĠíĮĮìĹħ ìĿĢ
ĠíĮĮìĹħ ìľ¼ë¡ľ
Ġì§Ģìĭľ íĸĪëĭ¤ê³ł
ĠëĬ¦ ì¶Ķ
Ġëª¨ë¥¸ ëĭ¤ëĬĶ
ĠëĵĿ ìłĲìĿĦ
ĠìĦłë°ķ ìĿĦ
Ġìłķë§Ĳ ë¡ľ
Ġëª©ìĨĮ ë¦¬ê°Ģ
íĢ ĺ
Ġíķľë°ĺ ëıĦìĿĺ
Ġë¸ĮëĿ¼ì§Ī ìĿĺ
Ġíķĺë§ĪìĬ¤ ìĻĢ
ĠìĬ¤íĶ¼ ì²ĺ
ëĨį ìĹħ
Ġì¶ľë§Ī ë¥¼
ĠëĮ Ĳ
Ġì£¼ìµľ íķľ
ĠSt ate
ĠSt reet
ìŀ¬íĮĲ ìĨĮ
Ġê³łìĸĳ ìĿ´ê°Ģ
ĠíĮĮìĨĲ ëĲľ
ĠìĿ´íĸī íķł
ĠìŀĦë¬´ ìĹĲ
ĠëĤ³ ìĿĢ
ĠìĹ¼ ëĳĲìĹĲ
Ġê°Ģìłķ ìĹĲìĦľ
ĠìĤ´íķ ´ëĲĺ
Ġìĩ¼íķĳ ìĿĦ
tr y
Ġê³¡ ìĿĦ
Ġê³¡ ë¬¼
Ġë¹¼ ê³ł
ĠëĮĢìĤ¬ ê´ĢìĿ´
Ġìłģê·¹ ìłģìĿ¸
Ġë²ķìķĪ ìĿĺ
ĠíĥĪì¶ľ íķľ
Ġë¸ĶëŀĻ íĻĢ
Ġíķ´ë ²ķ
ĠëĤ´ëĨĵ ìĿĢ
Ġth at
ĠëłĪëĵľ ìĤŃ
Ġì¡´ì¤ĳ íķ´ìķ¼
ĠíĪ¬ìĸ´ ìĹĲìĦľ
ĠìĤ¼ìĦ± ê·¸ë£¹
ĠëªħíĻķ íķľ
ĠêµŃë¬´ìŀ¥ê´Ģ ê³¼
ĠìĨĮíĸī ìĦ±
ĠìľłëĭĪ íı¼
Ġëĵ±ìŀ¥ íķĺëĬĶ
ĠëĤĺìĿ´íĬ¸ íģ´ëŁ½
ĠëĮĢíķĻêµĲ ìĿĺ
íķĺìĺĢ ìľ¼ëĤĺ
ĠêµĲì°© ìĥģíĥľìĹĲ
Ġíģ´ë¦¬ ëĭī
Ġíģ´ë¦¬ ë¸Ķëŀľëĵľ
êµŃë°© ë¶Ģ
Ġì½Ķì»¤ ìĬ¤ìĹĲìĦľ
Ġëŀľ ëĶĶ
Ġê°Ĵ ìĭ¼
ĠíħĲ íĬ¸
ĠíħĶëłĪ ì½¤
íķľëĤĺëĿ¼ ëĭ¹ìĿĢ
Ġë¶Ģìĸĳ ì±ħìĿĦ
Ġê°ķíĴį ìĿĦ
Ġë¶Ģì±Ħ ë¥¼
Ġë¡ľìĬ¤ ìķ¤ìł¤ëłĪìĬ¤
ï¼ ī
Ġëħ¼íıī ìĿĦ
´ë³´ ì¢Į
íģ¬ëĿ¼ìĿ´ ìĬ¬ëŁ¬ëĬĶ
Ġê°ľì²´ ìĪĺê°Ģ
ĠìłķêµĲ íķľ
ĠìķķëıĦ ìłģìľ¼ë¡ľ
AN U
ĠêµŃìłķ ìĽĲ
Ġê°Ģëĭ´ íķľ
Ġê¸°ê°ģ íĸĪëĭ¤
Ġìµľë£¨ íĥĦìĿĦ
Ġë¬´ê²Į ê°Ģ
ĠíħįìĤ¬ ìĬ¤ìĻĢ
Ġê¸Īë©Ķ ëĭ¬
BBC ëĬĶ
ĠëĤ´ë³ ´ë
econ d
Ġíĺ¸ëĤĺìļ° ëĳĲ
ĠëĬĺìĸ´ëĤĺ ê³ł
ĠëĤ¨ê²¨ ëĳĲê³ł
Ġìĭłì¤ĳ íķĺê²Į
Ġë¶Ģìłģ ìłĪíķľ
Ġë©ĶëĶĶ ì»¬
ĠìĶ »
ĠìķĦíĿĲ ë§Ī
Ġìķµ ì»¤
Ġë§¤ìĤ¬ì¶ĶìĦ¸ì¸ł ì£¼
Ġë¶Ģìľł íķľ
Ġì½Ķì¹´ ìĿ¸
ìĬ¤ë¯¸ ìĬ¤
Ġë§¤ë¨¸ ëĵľ
ade my
ĠìŀĲë°ľ ìłģìľ¼ë¡ľ
ĠUEFA ì»µ
Ġëī´ìłĢì§Ģ ì£¼
ĠìŀĲìłĦ ê±°ë¥¼
ì¤ĺ ìķ¼
Ġë§Īì°° ìĿĦ
Ġëĭ¤ëħ Ķëĭ¤
ë® ¬
ĠAf ric
ĠíĶĦë¡ľëĵĢ ìĦľ
ĠìĹĲëĦ ¹
Ġíģ¬ë¦¬ìĬ¤íĭ°ìķĦ ëĪĦ
ĠBM W
Ġê²©ëıĮ íķľëĭ¤
ĠìķĪëĿ½ ìĤ¬
Ġê°Ĳì¶Ķ ì§Ģ
Ġì· Į
ĠìĭľíĬ¸ ì½¤
Ġì¶ĶìĪĺê°Ĳ ìĤ¬ìłĪ
Ġìł¸ ìķ¼
8 9
A BC
C ëĬĶ
F ace
H uman
L S
N H
P ML
R A
S h
W e
a ti
b ook
f ul
i ves
m and
u th
ë ī
Ġ $
Ġ ,
Ġ æ
ħ ìĿĢ
Ń ĩ
Ġë º
íķ į
ìĿ´ ìĿĢ
ìĿ´ ì¹ĺ
Ġìŀ ¦
íķĺ ëĵľ
ë¡ľ ëĵľë¦¬ê²Į
ë¦ ´ë¦°
ë¦ ŃìĬ¨
ê°Ģ ë£¨
íķ´ íķĺëĬĶ
ìĬ¤ ìľĦ
ê¸° ë³¸
ĠëĮĢ ìĹ´ìĹĲ
ìŀĲ ëĭ¤
ìŀĲ íģ¬
ìĤ¬ íĸĪëĭ¤
ë© §
ĠìĿ´ ìĬ¤
ĠìĿ´ ìĦ±
ĠìĿ´ íķ´ë¥¼
ĠìĿ´ ë¥´ê²Į
ĠìĿ´ ìĨĮìĹ°
ĠìĤ¬ ìłľ
ĠìĤ¬ ë§Ī
ë³ ´ë³´ì¢Į
Ġê²ĥ ëĵ¤ìĿĦ
ìĿ¼ ìłķìĿĦ
ìĽĲ ìŀĲ
ë¶Ģ íĮ¨
Ġì§Ģ ìĹĪëĭ¤
Ġì§Ģ ë¶ĦìĿĦ
ìĺ Ĳ
ìķĦ ì¹¨
ê³¼ ìłķìĿĦ
ê³¼ ìĤ¬ìłĦ
ĠìłĦ ë¯¸
ìĥģ ìĽĲ
ìłķ ìĿ´ëĭ¤
ê·¸ ë§Į
ê·¸ ê²ĥìĿ´
ĠâĢľ âĢĺ
ìĻĢ ë¥´
ëĮĢ íļĮë¥¼
ĠìķĦ ëĵ¤ê³¼
ĠìĿ´ë ¤
ĠìĿ´ë ¹
Ġì£¼ ìĿ¸ìĿĦ
Ġì£¼ ìłľë¡ľ
Ġì£¼ ë¨¸ëĭĪ
Ġì£¼ ìĸ´ì§Ħ
ë§Į ê°ľ
Ġë§Ĳ ëıĦ
Ġê¸° ìŀĲìĿ¸
Ġìĭľ íķľ
ìĪĺ ìŀħ
ìĪĺ ìļĶìĿ¼
ìĪĺ ìĥī
Ġê²½ íķ©
Ġìłķ ê³Ħ
Ġìłķ ì§ģ
Ġê·¸ ëł¤
Ġê·¸ ëĬĺ
Ġê·¸ ëł¤ì§Ħ
íĻĶ íķł
Ġì¤ĳ ìŀ¥ìĿĢ
Ġì¤ĳ ìĦľë¶Ģ
ìłĦ ì²´
ĠìŀĲ ìĪĺ
ĠìŀĲ ìľĦ
êµ¬ ëĤĺ
Ġë°ľ ë¦¬
Ġë¶Ģ ìŀ¥ìĿĢ
Ġë¶Ģ ëĭ´ìĿĦ
Ġì§ ¸
Ġê³µ ë²Ķ
Ġê³µ ìĽĲìĹĲ
ĠìĿ¼ ê¸°
ĠìĿ¼ ìļĶìĿ¼ìĹĲ
ëĭĪ ìĺ¤
ê³Ħ ìĦłìĿĦ
ìľĦ ì¹ĺ
íģ¬ ìĬ¤
ìļ° ëł¤
ĠêµŃ ìľł
Ġëĭ¤ ëĭĲ
Ġë¹Ħ ë¦¬
Ġë¹Ħ ì¶ķ
Ġë¹Ħ ì¶°
ë¯¸ ëĦ¤
ë¯¸ ìħĢ
ë¯¸ íĬ¸ë¦¬
ëĭ¹ íķł
íĸī ì§ĦìĿĦ
Ġìĺ¤ ìłĦìĹĲ
ĠìĹ¬ ëĭ¹ìĿ´
ĠìĿĺ ìĥģìĿĦ
ĠìĿĺ ìĤ¬ìĿĺ
ĠìĿĺ ìĤ¬ìĻĢ
ĠìĿĺ ëıĦê°Ģ
ĠìĿĺ ë¬¸ìĿ´
ìĨĮ ìĿ¸
ĠìŀĪëĬĶ ê°Ģ
Ġì¡° ìķ½ìĿĦ
Ġë¯¸êµŃ ëĤ´
Ġìłľ ì£¼
Ġìłľ ìĻķ
Ġìłľ ë³´ë¥¼
Ġ3 60
ĠëĤĺ íı´ë¦¬
ëłĪ ë¯¸
Ġíķĺ ë¹Ħ
ì¡° ì§ģìĿĦ
Ġëª¨ íĨł
Ġëª¨ ìĺĢëĭ¤
Ġíĥ Ķ
íĥĢ ìŀĦìĬ¤
Ġë§Ī ìŀĲ
Ġë§Ī ëĪĦìĹĺ
ĠëıĻ íķ´
ĠëıĻ ê±°
ĠìĦł êµĲ
ĠìĦł ë¬¼ìĿĦ
ĠìĦł ê¸ĢëĿ¼
Ġìĺģ ìĤ¬ê´Ģ
íĺĦ ìŀ¥ìĹĲ
ê±° ìĿĺ
ê±° ë¦¬ë¥¼
ĠìĺĪ ìĪĺìĿĺ
ĠìĺĪ ìĤ°ìĿ´
ìĺ¤ ë¸Į
ë¦° ìĿ´
ìĹ¬ ìĦ±ìĿĢ
íŀ īìĬ¤ëĬĶ
íĽĦ íĩ´
íĽĦ ìĦ¸ìĿ¸
íĽĦ ì§ĦíĥĢìĺ¤
Ġë°© ì¹¨ìĿĦ
ê³µ ìĤ°
Ġìļ° ìĹ°íŀĪ
Ġê°ľ íļĮ
Ġê°ľ íĳľê°Ģ
Ġëĭ¹ ìĿ´
ĠìĹĨ ìĹĪìľ¼ë©°
ĠìĥĿ ê¸¸
ìĹħ ìŀĲëĵ¤ìĿĢ
ĠíļĮ ìŀ¥ìĹĲ
Ġë°Ķ ëŀį
ĠìĦ¸ ìĿ´
ĠìĦ¸ ìļ¸
ĠìĦ¸ ì»¨ëĵľ
ìĭ¤ ìĿĺ
ĠëıĦ íĶ¼
ĠíĮĮ ìĽĮ
ĠíĮĮ ì»¤
ĠëĤ¨ ì¸¡
Ġë¬´ íķĺë©Ķëĵľ
ĠíĨµ ì¦ĿìĿĦ
íı¬ ëĲľ
Ġë¶ģ ìª½ìĹĲ
ì°¨ ê¸°
ì°¨ ê´ĢìĿĢ
ì°¨ ë²łìĬ¤ëĬĶ
Ġìĭł ë³ĳ
Ġìĭł íĸīìłķ
íķĺê¸° ê°Ģ
Ġë¶Ī ë¦¬
Ġë¶Ī ìķĪìĿĦ
Ġê³Ħ ìĬ¹
ë³Ģ ìĹĲ
ëĶĶ ê°Ģ
Ġìĭ¤ ìłģìĿĦ
Ġë°ĺ íķĺëĬĶ
Ġìŀħ ìŀ¥ìĹĲ
ĠìĤ¬ëŀĮ ìĿ´ëĤĺ
íĭ° ëĭĪ
íĭ° ëħ¸
ë°ľ ìłģ
ĠíĶ¼ ìĸ´
ĠíĶ¼ ìĤ´
ĠíĶ¼ ìħĶ
Ġì°¨ ìĽĲìĿĺ
Ġì°¨ ì§ĪìĿ´
ë²ķ ìķĪìĹĲ
Ġë§¤ ì¹´íĬ¸
Ġìŀ¬ ìķĻ
Ġìŀ¬ ê±´ìĿĦ
ĠìĦľ ëĳĺëŁ¬
ì½Ķ ìĿĺ
ĠìļĶ ìĨĮê°Ģ
ĠíĺĦ ìłĢ
ĠêµĲ ìĹŃ
ĠìĿ´ëĿ¼íģ¬ ìĹĲìĦľìĿĺ
ìĪ Ģ
Ġëĭ¬ ê³ł
ë²Ħ ìĬ¤íĦ°
Ġì£¼ìŀ¥ íĸĪëĭ¤ê³ł
ĠìĬ¹ ë¦¬ê°Ģ
ĠìĬ¹ ìĿ¸ìĿ´
ë£¨ ìĬ¤
Ġ19 0
Ġëĵ± êµĲ
Ġê²½ì°° ê´ĢìĿ´
ìĦĿ ìĹĲìĦľ
ìĭ¬ ìĬ¨
Ġì¦Ŀ íıŃ
Ġì¦Ŀ ìĦ¸ê°Ģ
Ġì§ĢìĹŃ ê³¼
Ġì§ĢìĹŃ ìĹĲëĬĶ
ì¼Ģ ìĿ´ìħĺ
Ġì¤ĳêµŃ ìľ¼ë¡ľ
ĠëĲĺ ëĬĶëį°
íķ¨ ìľ¼ë¡ľìĦľ
Ġë°ľíĳľ ëĲĺì§Ģ
Ġëį° ëĭĪìĬ¤
Ġê´Ģê³Ħ ë¡ľ
Ġì§ĳ ê²°
Ġë¡ľ ëłĮ
Ġt ime
ĠíĪ¬ íķĺ
ĠíĪ¬ ìĪĻ
ĠíķľêµŃ ìłĦìŁģ
ëįĶ ê°Ģ
ëįĶ ëĵľ
ëħ¸ ìĬ¤ìºĲë¡¤ëĿ¼ìĿ´ëĤĺ
Ġëª» íķľëĭ¤ê³ł
ì¢ħ êµĲ
Ġ9 1
Ġ9 4
Ġ9 7
Ġë¦¬ ìĤ¬
ë©´ìĦľ ëıĦ
ìħ Ī
ĠìĤ´ ë¦¬ê¸°
Ġê³¼ ìĨį
Ġì¹ĺ ìĹ´
ĠC O
ĠC ity
ĠC ont
Ġíķµ íĶĦë¡ľê·¸ëŀ¨ìĿĦ
Ġíıī íĸĪëĭ¤
Ġíıī ë°©
Ġíıī ì°½
ĠìĺģíĻĶ íĻĶíķľ
ĠìĦ¸ê³Ħ ë¬´ìĹŃ
Ġíĺĳ íļĮëĬĶ
ĠìĿĮ ë²łíĤ¤
ìķħ ê´ĢìĿ´
ĠìłĢ ëªħíķľ
Ġëģ ĦëĬĶ
ìłĢ íĿ¬
ìĽĮ ëĦĪ
ì¶Ķ ëĿ½
Ġë²Ħ ìĬ¤ìĹĲ
Ġë²Ħ ëł¤ì§Ħ
ĠìĤ° ìĹħìĿĦ
ëŀľ ëįĶ
ĠìĹ´ ê´ĳ
Ġ20 50
Ġ20 18
ĠëĴ¤ ìĿ¸
ë· ´
íħ Ģ
ĠëıĮ ì§Ħ
ĠëıĮ ëł¸ëĭ¤
ĠìĿ¸íĦ° íı´
Ġì½Ķ íĶ¼
Ġì½Ķ ìĬ¤íĶ¼
Ġíı¬íķ¨ íķĺëĬĶ
Ġì¹´ ìĿ´ë¡ľ
íĪ¬ ëį°ìĿ´
Ġë³´ë ¬¼
ë°° ë¡ľ
ë°° ê°Ģ
ë°° ë¥¼
ë°° ëŁ´
íĺĳ íļĮìĿĺ
ëłĪìĿ´ ìłĢ
ĠíĻĺ ìŀĲëĵ¤ìĿĢ
Ġê²°ìłķ íķĺëĬĶ
ĠìļĶêµ¬ íķľëĭ¤
Ġíľ ´ë¨¼
Ġì§ĢëıĦ ë¶ĢìĹĲ
Ġë©Ķ ê°Ģ
Ġë©Ķ ìĦ¸
Ġë©Ķ íĥĦ
íħĮ ë¥´ë¶Ģ
ì²ľ íĽĦ
ì²ľ íŀĪ
ĠíĻľ ì£¼
Ġë¶Ģìĭľ ê°Ģ
Ġë¶Ģìĭľ ìĻĢ
Ġê°ĢëĬ¥ íķĺëĭ¤ê³ł
ĠS up
Ġìļ´ ìĿ´
ìĿ¸ìĿ´ ìĹĪëĭ¤
Ġíĳľ ê¸°
ĠëĨĴ ìĿ´ëĬĶ
ì§ĳ ìĹĲ
Ġì¢ħ ìĸĳ
Ġì¢ħ ì¡±
Ġê°Ħ ëĭ¨íŀĪ
Ġê·¼ ìłĪ
ĠìĪĺëıĦ ìĹĲìĦľ
ìŀĪ ìĸ´
Ġëª¨ëĳĲ ìĿĺ
Ġì¹ľ ë°Ģíķľ
re ed
ëĥĲ íķĺë©´
Ġê¸°ë¡Ŀ ìľ¼ë¡ľ
Ġê¸°ë¡Ŀ ëĲĲëĭ¤
Ġëĵľ ëŁ¬ëĤĺ
Ġìłķì¹ĺ ë¥¼
ì¡´ ìĬ¤ëĬĶ
ê¸¸ ìĿ´
íļĮìĿĺ ìĿĺ
Ġìķł ëıĦìĿĺ
Ġëĸ¨ìĸ´ ì¡ĮìĬµëĭĪëĭ¤
Ġëĵ¤ìĸ´ ìĦľ
Ġëĵ¤ìĸ´ ìĺ¬
ë¹ ¨
Ġìļ© ê¸°ë¥¼
ĠìĥģíĻ© ìľ¼ë¡ľ
Ġê¸°ìŀĲ ëĵ¤ìĿĦ
ĠìķĦì§ģ ìĿĢ
ì½© ê³ł
ĠìĪ¨ ìł¸
íĮ¨ ëĭī
íĮ¨ íĬ¸ë¦Ń
ĠëĤł ìĹĲ
ĠF or
Ġê¶Į íķľ
ĠíĶĦëŀĳìĬ¤ ë¥¼
ĠM DC
ê³³ ìĿĢ
íĮĢ ìĹĲ
Ġì¿ł ìķĮëĿ¼
ëĦ· ìĨĮ
Ġì¶ķ ë³µ
ĠíĦ° ë¬´ëĭĪ
Ġëī´ìļķ ìĥģìĹħ
Ġë°ĺëĮĢ íķ´
ëĭ¨ì²´ ìĻĢ
Ġë°©ìĨ¡ ìĿ¸
Ġë°©ìĨ¡ êµŃ
ĠíĬ¸ ëŁ¼
ĠìĺĪìĥģ íķľ
Ġëĭ¹ìĦł ìĿ´
Ġë°ĿíĺĢ ì§Ī
ĠíħĮ ìĬ¤íĨł
Ġë£¨ íĦ°
Ġp eace
ĠìĦłìĪĺ ëĵ¤ê³¼
ĠíĶ¼íķ´ìŀĲ ëĵ¤ìĿĦ
Ġê¸Īìľµ ê¸°ê´Ģ
ĠëĪĦ ì¶ľ
ĠíĮĲë§¤ ëŁīìĿ´
ĠìĤ¬ì§Ħ ê³¼
ê°ľìĽĶ ìĿĦ
Ġë¨¸ ëłĪìĿ´
Ġìłķìĥģ ëĵ¤ìĿ´
ĠìĥģìĬ¹ íķĺë©°
ĠìĦ±ê³µ ìĭľì¼°ëĭ¤
ĠìĹ¬íĸī íķł
Ġì£½ ê²Į
ìĤ¬íĥľ ìĹĲ
ìĤ¬íĥľ ëĬĶ
ĠE TA
ĠíķĻìĥĿ ìĿĺ
ĠíķĻìĥĿ ìĿĦ
ĠíķĻìĥĿ ìĿĢ
ĠíķĻìĥĿ ëĵ¤
Ġìĺģíĸ¥ ëł¥ìĿ´
ĠìľĦíĺĳ ìłģìĿ¸
ĠìĦĿë°© íĸĪëĭ¤
ĠíĹ¤ ìĿ´
Ġì²ľ ì²ľíŀĪ
Ġíĺ¸ì£¼ ëĬĶ
´ë° ±
Ġê´Ģë¦¬ íķĺê³ł
ĠìĤ¬ë¬´ êµŃìŀ¥ìĿĢ
ĠëıħìĿ¼ ìĿĢ
ë°Ľ ìķĺëĭ¤ê³ł
Ġì¸¡ ìĹĲìĦľëĬĶ
Ġìŀł ë¹ĦìķĦ
íĤ¨ ìĿĢ
Ġíľ´ ìłĦìĿĦ
ìº £
Ġê±´ë¬¼ ëĵ¤ìĿ´
Ġìļ©ìĿĺ ìŀĲìĿ¸
Ġëª° ë¦°
ĠìĿĢíĸī ìĿĦ
Ġëŀ Ħ
Ġê³µíķŃ ìĿ´
Ġëħ¸ëıĻ ì¡°íķ©
Ġì¡°ì§ģ ìĹĲ
19 50
Ġì´īêµ¬ íĸĪëĭ¤ê³ł
ë¦Ń ìĬ¤
Ġê·¹ ìłģìľ¼ë¡ľ
Ġë§¥ ì½Ķ
Ġìī ´ëŁ¬
Ġì¶ľìĹ° íķł
ìĬ¤íĥĢ ìĿ¸ìĿĢ
ĠìĹ¬ë¡ł ìĿ´
Ġì¶©ëıĮ íķ´
Ġm inister
Ġíģ¬ë¦¬ìĬ¤ íĭ°ëĤĺ
Ġìĭľë¯¼ ê¶ĮìĿĦ
ur d
Ġë§ĪìĿĦ ë¡ľ
Ġê°ĲìĨĮ íķľ
Ġê°ĲìĨĮ íķł
ëĲĺìĹĪ ìľ¼ëĤĺ
ìĿ´ìĻĢ ê°ĻìĿĢ
Ġë¯¼ê°Ħ ìĿ¸ìĿĦ
Ġì¹´ë ĪĦ
ĠíĨµê³¼ íķĺëĬĶ
ĠìķŀìĦľ ìŀĪëĭ¤
ĠìĿ´ë£ ¬
Ġfor ces
ëł¸ ìľ¼ëĤĺ
ĠìĽĢì§ģ ìĿ´ì§Ģ
Ġê¹Į ì§ĢëĬĶ
ĠìĦľë¹Ħ ìĬ¤ëĬĶ
ĠìłĦíĪ¬ ìĹĲìĦľ
ĠìĹ°íķ© êµ°ìĿĢ
ê¸°êµ¬ ë¥¼
ĠëĨĢ ëŀĲ
Ġê°Ī ë§Ŀ
ĠíĿ¬ìĥĿ ìĿĦ
ĠìĽĮìĭ±íĦ´ ìĹĲ
Ġìºĺë¦¬íı¬ëĭĪìķĦ ìĹĲ
Ġë´ī ì°©
ìĿ´ìĸ´ ëĬĶ
Ġìĥ¤ ë¡ł
Ġê°ľìµľ ëĲł
Ġê³¼ìłķ ìĿ´
Ġê³¼ìłķ ìĿĢ
ĠëĲĲ ëĭ¤ëĬĶ
Ġê°ķíĻĶ íķĺê¸°
Ġë¨¹ ìĿ´
Ġì¶Ķìłķ ëĲĺê³ł
ìĻĶ ì§Ģë§Į
Ġì¶ľìłĦ íķ´
ĠìłľìķĪ ìĿĢ
ĠëĤ´ëħĦ ìĹĲ
Ġëĭ¤ìĿ´ ìķ¤
ĠëĩĮ ìĿĺ
Ġë§Įëĵ¤ìĸ´ ì¡Įëĭ¤
ìĿ¼ë¶Ģ ìĹĲìĦľëĬĶ
ĠìĿ´ë¤Ħ ì§ĢëĬĶ
Ġì¦Ĳ ê²¨
ĠíĻ© ë°ķ
ĠíĻ© íıĲ
ĠíļĮë³µ ìĿĦ
Ġê²ĮìŀĦ ìĿĺ
ìĸµëĭ¬ëŁ¬ ìĹĲ
Ġìĸ´ë¦°ìĿ´ ëĵ¤ìĹĲê²Į
Ġê´Ģê´ĳê°Ŀ ëĵ¤ìĹĲê²Į
Ġë¶Ģëª¨ ëĵ¤ìĿ´
ĠìĦłìłķ íĸĪëĭ¤
íĺĪ ìĿĦ
ĠìĹħì²´ ëĵ¤ìĿĢ
ĠíĨµìĭł ìĹĲ
ĠíĨµìĭł ê³¼ìĿĺ
Ġëª©ê²© íĸĪëĭ¤
ĠëıĻìĺģìĥģ ìĹĲ
ĠìĪĺìŀħ ìĿ´
Ġë¬´ê¸° ìĻĢ
ĠíĮĮë³ĳ íķĺëĬĶ
Ġê°Ģê¹Į ìĽĮ
Ġíı¬ê¸° íķĺê³ł
Ġê°Ģìł¸ ìķ¼
Ġê²½ìĺģ ìĹĲ
Ġë¶ĢíĨł ê°Ģ
Ġëı¼ ìŀĪëĭ¤
Ġìĭ¤íĹĺ ìĿ´
Ġê³µìĹ° ìĿĢ
ĠëĦ£ ìľ¼ë©°
Ġë©ķìĭľì½Ķ ìĹĲìĦľ
Ġê·¸ë£¹ ìĿ´
Ġê·¸ë£¹ ìĹĲ
Ġì¤ĳìķĻ ìłķë³´êµŃ
Ġìłľíķľ ìĿĦ
Ġì¢Į ìļ°
Ġê²°ìĬ¹ ìłĦ
ĠíĥĢìĿ´ ìĻĦ
Ġì·¨ìĨĮ ëĲĲëĭ¤
ĠìĤ¬ìŀĦ íķľ
Ġì§Ħìķķ ìĿĦ
Ġê³¤ ëŀĢ
ĠìĪĺìĤ¬ ê´ĢìĿĢ
Ġë¯¼ê°ĦìĿ¸ ëĵ¤ìĿĦ
ĠëĮĢìĿĳ ìĿĦ
Ġë³´ìĪĺ ìłģìĿ¸
Ġì§Ģì¼ľ ë³¸
íĦ°íĤ¤ ëĬĶ
íĪ¬íĳľ ë¥¼
ĠíĶĦë¡ľìłĿ íĬ¸ëĬĶ
ĠíĮĮê²¬ íĸĪëĭ¤
ĠìŀħìĽĲ íĸĪëĭ¤ê³ł
ë¯¼ì£¼ëĭ¹ ìĿ´
Ġë¶ĦìŁģ ìĹĲ
Ġì§ķìĹŃ íĺķ
Ġst art
Ġê´ ´ë¬¼
Ġì°į íŀĮ
TV ìĹĲìĦľ
ìĬ¤íħĮ ìĿ´ìħĺ
Ġë²¤ ìŀĲë¯¼
ĠIn ternational
ul t
ĠìĬ¹ë¬´ ìĽĲëĵ¤ìĿĢ
ĠìĿ´ìķ¼ê¸° ëĭ¤
ĠëĤĺë Ńĩ
ee p
Ġë§Īëĵľë¦¬ ëĵľê°Ģ
Ġíģ´ ë¡ľ
Ġíģ´ ë¦Ń
Ġê²ĥìĿ¸ ì§ĢëĬĶ
ĠìĿĺìĤ¬ ìĨĮ
ĠìłķìĥģíļĮëĭ´ ìĹĲ
Ġìŀĩ ëĶ°ëĿ¼
Ġìŀĺëª» ìĿĦ
ĠíĮ¨ë°° íķľ
ĠëĬĲëģ¼ ì§Ģ
ĠëĬĲëģ¼ ê²Į
Ġëĵ£ ê²Į
Ġê¿ Ģ
ĠìĿĺíĺ¹ ìĿ´
ĠìĹ¬ìĻķ ìĿ´
ëıħìĿ¼ ìĿĺ
ê²°ê³¼ ë¥¼
Ġì¿łë°Ķ ìĿĺ
ĠìłĦê¹Įì§Ģ ëĬĶ
ĠíĬ¸ëŁŃ ìĿ´
ĠìľłìłĦ ìŀĲë¥¼
Ġì´Ŀìŀ¬ ê°Ģ
ê¿ Ī
Ġìĭ¤ìĹħ ë¥ł
Ġê³łìĸĳ ìĿ´ë¥¼
ĠìŀĲìĦ¸ íķĺê²Į
ĠëĤ³ ìķĺëĭ¤
Ġì§Ģì¶ľ ìĿ´
Ġì§Ģì¶ľ ìĿĦ
ĠëĮĢíĻĶ íķł
ĠêµĲíĻ© ìĿĢ
ĠìĪĺë°ĺ ê³¼
Ġìļ°íģ¬ëĿ¼ìĿ´ëĤĺ ê°Ģ
Ġìĸµë¥ĺ ëĲĺìĸ´
ĠìĿ¸ìĤ¬ ëĵ¤ê³¼
ìłķì±ħ ìĹĲ
ĠëĤ´ê°ģ ìĿĦ
ê¸°ê´Ģ ìĿ¸
Ġë¶Īê°ĢëĬ¥ íķĺëĭ¤
Ġë¶Īê°ĢëĬ¥ íķĺëĭ¤ê³ł
ĠìĦ±íĸ¥ ìĿĦ
ëħ¸ëıĻ ìŀĲ
ëħ¸ëıĻ ëĭ¹
Ġìĭľë¦¬ì¦Ī ìĿĺ
Ġë°ĽìķĦëĵ¤ìĿ´ ê³ł
ĠìķĦëŀĺ ë¡ľ
Ġì²łíļĮ íķł
Ġíİ¸ì§ĳ ìŀ¥ìĿĢ
Ġë©°ì¹ł ê°Ħ
Ġë¬´ë¦İ ìĿĦ
Ġë©ľ ë²Ħë¥¸
Ġì°©ìļ© íķľ
Ġê±°ì§ĵ ë§Ĳ
Ġì²¼ ìĭľ
ĠìĺģíĨł ë¥¼
Ġë§¤ëĵ¤ë¦° ìĿĺ
Ġë¬¼ë¦¬ ìłģ
Ġë¬¼ë¦¬ ì¹ĺê³ł
od y
ĠìĪĺìļĶ ë¥¼
ĠëĮĢëĭ¤ ìĪĺëĬĶ
Ġëĭ¬ìĦ± íķł
ĠíıŃëĿ½ íĸĪëĭ¤
ĠíĿĲ ë¦ĦìĿĦ
Ġíķ©ë²ķ ìłģìľ¼ë¡ľ
ĠìĮĵ ìĹ¬
Ġë´¤ ìĿĦ
Ġìŀ¥ìĭĿ íĸĪëĭ¤
ĠíĬ¹íĮĮ ìĽĲ
ĠíĬ¹íĮĮ ìĽĲìĿĢ
ĠìĭĿëĭ¹ ìĹĲìĦľ
ìłķì¹ĺ ìłģ
Ġëĭ¨ìĨį ìĿĦ
ĠëĮĢíķŃ íķĺëĬĶ
Ch ina
ĠìŀĲìĿ´ íĪ°
ë©ĶìĿ´ ì¹´
ê·¸ëłĩ ê²Į
Ġì²´ì¤ĳ ìĿĦ
ĠíĮĮìĺĪ ëĵľëĬĶ
ĠëĿ ł
ĠìŀĲë³¸ ì£¼ìĿĺ
Ġê³µë¬´ ìĽĲ
ĠMS ìĿĺ
Ġê¸°íļĮ ë¡ľ
ĠìĬ¤ì½ľìĦ¸ ì§ĢëĬĶ
ĠìĺģíĻĶìłľ ìĹĲìĦľ
Ġì»¤íĶĮ ìĿĢ
Ġì£¼ë¬¸ íĸĪëĭ¤
ĠíĬ¸ëłĪ íĤ¹
ĠìĿ´ë¡ł ìĿĦ
ëłĮìĬ¤ íĥĲ
ĠíĶ¼ê³ł ìĿ¸
ĠíĿ¥ë¯¸ ë¥¼
Ġë¶Ģëĭ´ ìĿ´
ìĥĿë¬¼ íķĻ
ĠíĬ¹ì§ķ ìĿĦ
port s
Ġì¿ ¼íĦ°
Ġì´īë°ľ ëĲľ
ĠìķķëıĦ ìłģìĿ¸
Ġac c
ĠìºĶ ìŀĲìĬ¤
Ġë¹Ħê·¹ ìłģìĿ¸
Ġê¸Īë¦¬ ìĿ¸íķĺ
Ġoff icial
Ġìĭ¬ìĤ¬ ìľĦìĽĲ
êµ¬ê¸Ģ ìĿĢ
Ġì¡°ìļ© íķľ
Ġìª½ ìľ¼ë¡ľ
ĠëĶĶìĬ¤ íĶĮëłĪìĿ´
Ġë³¸ëĭ¤ ë©´
íı´ë¦¬ìĬ¤ ìĹĲìĦľ
eg oti
Ġìļ´ëªħ ìĿĦ
ĠUn ion
Ġê°ĳìŀĳ ìĬ¤ëŁ°
ven tion
ĠíıŃìĦ¤ ë¡ľ
ì¤¬ ëĭ¤ê³ł
Ġêµī ìŀ¥íķľ
ĠìĿ¼ìĥģ ìłģìĿ¸
Ġëħ¸ìĿ¸ ìĦ±
´ë©´ ìĦľ
ĠìĹ°ê³Ħ ëĲľ
itt ee
Ġê²½ê¸°ì¹¨ ì²´
ĠHe alth
Ġab out
Ġê·¸ë£¨ì§Ģ ìķ¼
Ġë» Ķ
ĠìķĦë¥´ë ©Ķ
Ġì§Ħì§Ģ íķľ
Ġì»¬ ëŁ¼ë¹ĦìķĦ
ìķĦëŀį ìĹĲë¯¸ë¦¬íĬ¸
ĠìĺĪìłķìĿ´ ìĹĪìľ¼ëĤĺ
Ġìŀĥìĸ´ë²Ħ ë¦°
Ġíĳľê²° ìĹĲ
ĠíħĮëĦ¤ìĭľ ì£¼
íĮį ìĬ¤
ĠìĹ°ë§Ĳ ê¹Įì§Ģ
ëĤ´ë¬´ë¶Ģ ëĬĶ
ĠêµŃê°Ģë¹Ħìĥģ ìĤ¬íĥľë¥¼
ĠìŀĦìĥģ ìĭ¤íĹĺ
ĠëıĦëįķ ìłģ
ĠëĵľëłĪìĬ¤ ë¥¼
ìĽ¹ ìĤ¬ìĿ´íĬ¸
ĠìĺĪìĸ¸ ìŀĲ
Ġë©Ķëĵľë²łëį° íĶĦ
ĠìĿ´ë¡Ģ ìłģìĿ¸
ĠìłķíĨµ íķľ
Ġë©´ë°Ģ íŀĪ
ìĸ´ë¶ Ļ
ì¤Ħê¸° ìĦ¸íı¬
ĠíŀĪìĬ¤ íĮ¨ëĭī
ìĬ¤íĶ¼ìĸ´ ìĬ¤ëĬĶ
ĠëıĻìłĲ ê³¨ìĿĦ
Ġë³Ģíĺ¸ìĿ¸ ëĭ¨ìĿĢ
íŀĲëŁ¬ ë¦¬ëĬĶ
ĠíİĺëĦĲíĭ° íĤ¥ìĿĦ
ĠëĨįìĤ° ë¬¼
ĠìĹĶì§Ģ ëĭĪìĸ´
ploy ment
Ġë°ĶìĺĪìĬ¤íħĮ ë¡ľ
ĠìĿ´ë³ĳ íĹĮ
Ġêµ¬ìĬ¤ë§Ī ìĺ¤
Ġë§ŀêµĲ íĻĺ
ĠìĪĺë§Ī íĬ¸ëĿ¼
ĠìļĶíķĺ ëĦ¤ìĬ¤
Ġë§ĪíĦ°íĺ¸ë¥¸ ìĹĲìĦľìĿĺ
ĠìĦłê¸ĢëĿ¼ ìĬ¤ë¥¼
( .
) ;
B ritish
C A
C on
C om
C BS
C EO
E F
F oreign
H e
L PGA
N S
R ep
T wo
b s
i am
i ance
k e
l ay
n ing
r in
r ound
u it
w eek
å ¤
å ¸
ë ±ħ
ë ĺĳ
Ĳ ģ
ëĭ¤ ë¥¼
ëĭ¤ ë¦¬
ìĹ ½
ìĿ´ ìĹĲìĦľ
ìĿ´ ìŀĶ
ìĿ´ ìłĦìĹĲ
ìĿ´ ìĶ¨ëĬĶ
ìĿ´ ìĹĪìĬµëĭĪëĭ¤
ìĹĲ íĬ¸
ìĹĲ ê²Ĳ
ìĹĲ ëħ¸ìĬ¤
ìĿĺ íļĮìĿĺ
ë¡ľ ëĶķ
ê°Ģ ìĬ¤ì¹´
êµ ´ëĲľ
ìĦľ ìĻĢ
ë¦¬ ìĤ¬
ìĿ¸ êµ¬ìĿĺ
ëı Ķ
ë§ Ļ
ëĿ¼ ë¸Į
ëĿ¼ íģ¬ëĬĶ
ĠëĮĢ ìĬ¹ìĿĦ
êµŃ íļĮìĿĺ
ìĤ¬ ê¸°
ë° ¸
ĠìĿ´ ê²¼ëĭ¤
ìĥ ĺ
Ġìĭ ¼
Ġìĭ £ê³ł
ĠìĤ¬ ìĤ
ĠìĤ¬ êµĲ
ĠìĤ¬ ëª¨
ĠìĤ¬ ë£Į
ĠìĤ¬ íļĮë¥¼
ĠìĤ¬ ì¹´ìī¬
Ġì§Ģ ì¼°ëĭ¤
ìĺ ¹ìĿĢ
ìķĦ ëĤľ
ĠìĪĺ ëħĦê°Ħ
ĠìłĦ ì°¨
ëªħ ë§Į
Ġ2 10
ëĤĺ ê°Ķëĭ¤
ìĥģ íĴĪ
ë² Ĺ
ìłķ íĿ¬
ìłķ ë³´ë¥¼
ëĮĢ ìĥģ
ëĮĢ ì¶ľ
ì£¼ ìĿ¼ê°Ħ
Ġë¯¸ ì¹ĺ
Ġë¯¸ íĻķìĿ¸
ĠìķĦ ìĦ¸
ĠìķĦ ëĵ¤ìĹĲê²Į
Ġíķ «
Ġê°Ģ ìłķìĿĦ
Ġê°Ģ ëŁīìĿ´
Ġê°Ģ ìĨĶ
Ġê°Ģ ìĦĿë°©
Ġì£¼ ëĭĪ
Ġì£¼ íĸī
Ġì£¼ ê¸°ë¡ľ
ìłľ ë¥´ë°Ķ
ĠìľĦ ìĿĺ
Ġë§Ĳ ë¦¬
Ġë§Ĳ ëĿ¼ëĬĶ
ì² ´ëĲĲëĭ¤
Ġê¸° ì§ĢìĹĲ
Ġìĭľ ê¸ī
Ġìĭľ ìĪł
Ġìĭľ ëıĦë¡ľ
ìĪĺ ìķĦ
ìĪĺ ìĹĺ
Ġê²½ ê°ģ
Ġê²½ ìĥī
Ġìłķ ì²´
Ġìłķ ë°ķ
Ġê·¸ ëŀ¬
Ġì¤ĳ ëĮĢ
Ġì¤ĳ ê°ľ
Ġì¤ĳ ëł¹ìĿĢ
Ġë³´ ìŀ¥ìĿĦ
Ġë³´ ìĺĢìľ¼ë©°
ĠìĿ¸ ìłĳ
ĠìĿ¸ ìĤ¬ëĵ¤ìĿ´
ĠìŀĲ ëĬĶ
ĠìŀĲ ê°Ģ
ĠìŀĲ ìłķ
ĠìŀĲ êµŃë¯¼
Ġíķľ íĨµìĿ´
ë³´ ìĬ¤
ìĭł ê³łë¥¼
íļĮ ë³µ
Ġë¶Ģ íĦ°
Ġë¶Ģ ìĿ¸ìĿĢ
ë§Ī íĿĲ
Ġê³µ ìŀĳ
Ġê³µ ë¦½
Ġê³µ ë°±
ĠíĮ °
ĠìĿ¼ íķĺëįĺ
ĠìĿ¼ ê³±
Ġê´Ģ ë°©
Ġì° Ķ
íģ¬ ëłĪìĿ´
ĠìĨĮ ëıĻìĿĦ
ĠìĨĮ ëıĻìĿ´
ĠìĨĮ ëł¹ìĿĢ
Ġë¹Ħ ë¡ľ
Ġë¹Ħ ìĺģë¦¬
ë¯¸ íı°
ìļ© ìĦ±
Ġì² ¸
Ġìĺ¤ ì§Ģ
Ġìĺ¤ ë¥´ê³ł
Ġìĺ¤ ìĽ¬
Ġìĺ¤ ë¥´ë©´ìĦľ
Ġìľł ìĭľ
Ġìľł ëıħ
Ġìľł ì¡°ìĦł
ë¹Ħ ì¸ł
ë¹Ħ ëī´
ë¹Ħ ëį´
ĠìĹ¬ ìľł
ĠìĹ¬ ëįŁ
ĠìĿĺ ìĭ¬ìĿĦ
ë¥´ ìĭľ
ìĨĮ ìľł
íĶĦ íĬ¸ëĬĶ
ëĲĺ ê¸°ë¥¼
ìĦł ê³ł
ìĦł ëį°ìĿ´
¯¼ ì¡±
Ġ3 30
ĠëĤĺ ìŀĲ
ìĦ¸ ë¹Ħ
ĠìĹ° ìĿ¼
ĠìĹ° ëª»
ìĥĿ ìĿĺ
Ġëª¨ ë²Ķ
íĥĢ ëħ¸
Ġë§Ī ì§Ģ
Ġë§Ī ìĬ¤íģ¬
ìĽĶ ë¡ľ
Ġìĺģ ìĺĪ
íĺĦ ìĭ¤
ĠìĺĪ ê³ł
ĠìĺĪ ìĿĺ
ìķ¼ êµ¬
ìĬµ ëĭĪê¹Į
ìĹ¬ ëħĦ
Ġë°Ľ ëıĦë¡Ŀ
ĠìĬ¤ íĥĢìĿ¸
Ġë°© íĻĶë¥¼
ìŀ¬ ëĬĶ
ĠìķĮ ë¦´
Ġê²° ìŀ¥
ëĲĲ ê¸°
ëĲĲ ëĬĶì§Ģ
Ġíķ´ ì¤Ħ
ĠìĥĿ ì²´
ĠìĥĿ ëªħìĹĲ
ë°ĺ ìĿ´
ë°ĺ ìĿĦ
ë°ĺ ìłķë¶Ģ
ĠíļĮ ìłĦ
Ġë°Ķ ëĿ¼ë©°
Ġë°Ķ ìĬ¤íģ¬
Ġë°Ķ ìĺ¤ë¡ľ
ĠìĦ¸ ìļ°ëĬĶ
ĠìĦ¸ ìĭ¤ë¦¬ìķĦ
ĠëıĦ ë°ķ
ĠìĦ± íĸī
ĠìĦ± íĻĶë¥¼
Ġìŀ¥ ê¸°ë¥¼
Ġì´Ŀ íļĮìĹĲìĦľ
Ġ4 500
ĠíĮĮ ëĬĶ
ĠíĮĮ ë¦¬ìĿĺ
ĠëĤ¨ ìŀĲìĻĢ
ĠíĨµ ì¹ĺë¥¼
ìĤ° ìĿĺ
Ġë¶ģ ì¸¡ìĿĺ
Ġëħ¸ ë¦°
Ġëħ¸ ëŀĢ
Ġëħ¸ ìĪĻ
Ġëħ¸ ìĺĪë¥¼
íķĻ ìĿĺ
ì°¨ ìĹĲ
íŀĪ ê¸°
íĮĮ ë²łìĿ´
íĮĮ ìĿ´ìĸ´
Ġìłķë¶Ģ ìĹĲê²Į
Ġìłķë¶Ģ êµ°
ìļ´ ìĨ¡
Ġë¶Ī ê³ł
Ġë¶Ī ê³µ
Ġë¶Ī ë¥ľ
ìĹ° ìĨĮ
´ëı ħ
´ëı ĻìĿĢ
ëŀĺ ë¦¬
íĥĦ ìĿĺ
ĠëĤ´ ìĻ¸
Ġê°Ĳ ìĪĺ
Ġìŀħ ìŀ¥ìĿ´
Ġê°ķ ëĮĢ
Ġê°ķ ì²ł
Ġê°ķ ìĹ°ìĿĦ
íĭ° ìĻĢ
Ġíı¬ ìĺ¹
Ġíı¬ ì¦Īë¥¼
ĠëķĮ ìĻĢ
ëª¨ ìĬ¤íģ¬
ĠíĶ¼ ëį¸
ĠíĶ¼ ì¶ĶìĭľíĤ¨
ë²ķ ìķĪ
Ġë§¤ ìĦ¤
Ġìŀ¬ ê·ľ
Ġìŀ¬ ëĭ¨ìĿĢ
ĠìĦľ íķ´
ĠìĦľ ìĤ¬
ĠìĦľ ìķĪìĿĦ
ĠìĦľ íı¬íĦ°
Ġìĺ¬ ë¦¼
ì½Ķ íĶĦ
ì½Ķ ìĬ¤íĬ¸
íĨł ë¦¬
íĨł ë§ĪìĬ¤
ĠìķĪ ëĲľ
Ġì§Ħ ë£Įë¥¼
ĠìŀĲìĭł ë§ĮìĿĺ
ĠêµĲ íĽĪ
ë§¤ ìĦ¤
ĠìĿ´ëĿ¼íģ¬ êµ°ìĿ´
Ġì¶Ķ ìĸµ
Ġì¶ľ íķŃ
ĠëĨ Ī
ëĳĲ ë²Īì§¸
ĠìĻ¸ ìĭł
ĠìĻ¸ ë¬´ìŀ¥ê´ĢìĿ´
ĠìĤ¬ë§Ŀ íĸĪìĿĦ
Ġì£¼ìŀ¥ íĸĪìĹĪëĭ¤
Ġì½ ´
ëĦ¤ íĬ¸
Ġëªħ ê³¼
er t
Ġë²ł íĭ°
ê°Ĳ íķĺê³ł
Ġì¦Ŀ ìĥģìĿ´
Ġêµ° ìłķìĿ´
Ġì§ĢìĹŃ ìĹĲìĦľëıĦ
ì¼Ģ ë¦¬
ĠëĲĺ ì§ĢëĬĶ
Ġíĺ¸ íĶĦ
Ġë²Į ìĿ´ëĭ¤
Ġë²Į ìĺĢìľ¼ë©°
Ġ8 4
Ġ10 7
Ġë¡ľ íķľìĿĢ
Ġt er
ĠíķľêµŃ ìĸ´
ĠëĮĢë³Ģ ìĿ¸ìĿĦ
ĠëĿ¼ ìĭ¸
Ġë²ķ ê·ľ
ì²ĺ ëĬĶ
ĠíĥĢ ìĽĮ
íĦ´ ìĿĺ
Ġëĵ¤ ì§Ģ
ar ly
Ġë¦¬ ìĬ¤
Ġê¸Ī ì§Ģë¥¼
ë¯¸êµŃ ìĿ¸ëĵ¤ìĿĢ
ìħ ¨ëĭ¤
ĠìĤ´ ê¸°
ĠíĽĦë³´ ìĺĢëįĺ
ĠíĻĶ ìĦ±ìĹĲ
ĠíĻĶ ìĤ°ìĿ´
Ġìķ¼ ìŀĲ
Ġìĭ¬ íĻĶ
ĠìĺģêµŃ ìĿĦ
Ġëıħ íĬ¹íķľ
Ġì¹ĺ ë¥´ê²Į
Ġìłģ íĺĢ
Ġë³ĳ ìĿĦ
ĠêµŃê°Ģ ëĵ¤ìĿĦ
Ġìĭľìŀĳ íķĺê³ł
Ġìĭľìŀĳ ëĲĺê¸°
Ġë¬¼ ìĿĺë¥¼
ĠìłĢ íķĺ
ĠA D
ĠA K
ĠìĤ¬ìļ© íĸĪëįĺ
ĠìĤ¬ìļ© ëĲľëĭ¤
ĠìĤ¬ìļ© íķĺìĹ¬
ĠíķŃ ìĿĺë¥¼
ĠëłĪ ëĤĺ
Ġë²Ħ ìĭľë°Ķìļ°
Ġëī´ ìĬ¤ìĹĲ
Ġê³Ħíļį ëĲľ
ĠíĶ¼íķ´ ìĹĲ
íİĺ ë£¨
ĠìĹ°êµ¬ ì¡°ìĤ¬
ĠìĹ°êµ¬ ìĨĮëĬĶ
Ġì´Ī ëĭ¹
ë¥ĺ ìĻĢ
ĠìĥĿê°ģ íķľ
ìļ¸ íĶĦ
Ġìĸĳ ì¡°
ĠëĴ¤ ëĶ°
ĠëĴ¤ íĿĶ
Ġì¡°ìĤ¬ íķ´
ĠëıĮ íĴį
ê°ķ ìĿĺ
íĪ¬ ëªħ
Ġë³´ë ĦĪ
Ġì·¨ íķĺëĬĶ
íĺĳ ìĥģìĿĦ
ĠíĬ¹ íĺľ
ĠíĻĺ ìŀĲëĵ¤ìĿĦ
Ġ11 00
ë°ķ ìĬ¤
ë°ķ ìĭłìĽĲ
Ġë°ķ ìĪĺë¥¼
le t
ĠìĦ¤ëªħ íķł
ìĺĪ íĶĦ
ìķł êµŃ
Ġë°©ë¬¸ íĸĪìĿĦ
ĠíĨł ìļĶìĿ¼ìĹĲ
ĠíĻľ ê¸°ë¥¼
ĠíĻľ ëł¥ìĿĦ
ĠìĿ¼ë¶Ģ ë¡ľ
ìµľ ìĨĮíķľ
ĠëĨĴ ìķĺëĭ¤
ìĸ´ëĤ ¼
Ġê·¼ ìłĳ
ìĻ¸ ìĦł
Ġì§ĢìĽĲ íĸĪëĭ¤
Ġëª¨ëĳĲ ëĬĶ
Ġì¹ľ ë¯¸
Ġê¸°ë¡Ŀ ëĲł
ì¡´ íķĺëĬĶ
ê´ĳ ê³ł
Ġì¼ ľ
ĠìķĬìĿĦ ê¹Į
ĠëĤ´ë ²Ħ
ì´Ī ê¸°
Ġëĵ¤ìĸ´ ê°Ķ
ĠëĤĺíĥĢ ëĤ´
Ġìļ© ìĿ´
íĶĮ ë¡ľ
Ġìĺ¨ ëıĦ
ĠíĮĶ ëł¸ëĭ¤
Ġë³¸ ë¶Ģê°Ģ
Ġë³¸ êµŃìľ¼ë¡ľ
ĠëĮĢíĳľ ë¡ľ
ì´Ŀ ìĿĦ
ì´Ŀ ë¦¬ìĿĺ
Ġìĭľê°Ħ ìĿĢ
Ġìĭľê°Ħ ìľ¼ë¡ľ
Ġì²ł íıĲ
ĠìĨĲ ìĭ¤ìĿ´
ĠìĪ¨ ê²¨ì§Ħ
Ġì§Ħíĸī íķĺê³ł
Ġë²Ī ìĭĿ
Ġê°Ģì¡± ëĵ¤ìĿĺ
Ġì²´íı¬ íķľ
ĠëģĿ ëĤ¼
ĠìŀĪìĹĪ ëĬĶëį°
ĠM in
ĠM us
ëĵ± ìĿ´ëĭ¤
ĠP S
ĠP akistan
ĠëĮĢíķĻ ìĿ´
ĠW TO
ĠíĶĮ ëĿ¼ìĿ´
ĠìĿ¸ëıĦ ìĹĲìĦľ
Ġë²Ķ ìľĦ
ĠN FL
ê·¹ ìłģìĿ¸
íıī ìĿĺíļĮ
Ġf oreign
ê³³ ìĿ´
ĠíĮ¨ íĸĪëĭ¤
Ġì¦Ŀê°Ģ ìĹĲ
ĠB ush
ĠB ank
ëł¬ íķľ
Ġë°ĺëĮĢ ìĿĺ
ĠíıĲ ê¸°ë¥¼
Ġìĺ¬íķ´ ëĵ¤ìĸ´
ĠëĦĺ ê¸¸
ĠëĦĺ ê¸°ê³ł
ĠíĬ¸ ëŁ¬
ĠíĬ¸ ëŀĻ
ë¸Ķ ë¦¬
Ġê²½ë§¤ ìĹĲìĦľ
Ġë³´ëĤ ´ë©°
Ġëħ¸ì¶ľ ëĲľ
ĠìļĶì²Ń ìľ¼ë¡ľ
ĠìłĪ ëĭ¨
ĠìķĶ ìĬ¤íħĮ
ĠëıĦìĭľ ëĬĶ
Ġê¸Īìľµ ê°Ĳëıħ
Ġì¶Ķê°Ģ ìłģìľ¼ë¡ľ
ĠëĪĦ ìĽĮ
ĠíķĺëĿ½ íķĺê³ł
Ġìļ°ëł¤ íĸĪëĭ¤
ĠíĮĲë§¤ ê°Ģ
ĠTV ë¡ľ
ĠTV ìĹĲìĦľ
ro ss
Ġë³Ģíĺ¸ ìĤ¬ìĻĢ
Ġin c
Ġê°ľë°ľ íĸĪëĭ¤
Ġê°ľë°ľ íķĺê³ł
ĠìĥģìĬ¹ ìĹĲ
ĠìĥģìĬ¹ ìĿĢ
Ġëĭ¨ì²´ ëĵ¤ìĿ´
Ġì°¸ìĦĿ íķĺëĬĶ
ĠíıŃë°ľ ë¬¼ìĿ´
ĠìĦ±ê³µ ìĿ´
ĠìĦ±ê³µ íķł
Ġëĸł ëĤĺëĬĶ
Ġëĸł ëĤ¬ëĭ¤ê³ł
Ġì£½ ëĬĶ
ĠìĪĺìĥģ ìŀĲë¥¼
ĠíıīíĻĶ ë¡ľìļ´
ĠìĿ´ìĸ´ ê°Ķëĭ¤
Ġêµ°ìĤ¬ ëł¥ìĿĦ
ĠìĬ¹ë¦¬ íķ´ìķ¼
íļĮëĭ´ ìĿ´
íļĮëĭ´ ìĹĲìĦľ
ĠìĦĿë°© ëĲł
ì¿ł ìĬ¤
ĠíĥĦ ìķ½
Ġíĺ¸ì£¼ ê°Ģ
Ġíĺ¸ì£¼ ìĻĢ
Ġê´Ģë¦¬ íķĺëĬĶ
Ġê´Ģë¦¬ ëĵ¤ê³¼
Ġê±´ê°ķ ê²Ģ
Ġíĺĳìĥģ ìĿĺ
Ġìŀł ê²¨
Ġê³¨ ë¡ľ
Ġì´Ŀë¦¬ ìĻĢìĿĺ
ìº ĩ
Ġw e
Ġë³´ìķĪ ìĹĲ
Ġë³´ìķĪ êµ°ìĿ´
Ġê±´ë¬¼ ìĿĢ
ĠíĤ¤ ìļ°
Ġì§Ģê¸Ī ëıĦ
ĠìĦ±ëªħ ìĦľë¥¼
Ġêµ¬ì¡° ìŀĳìĹħìĿĦ
ì¸µ ê³¼
ĠG e
ĠëĤ©ì¹ĺ íĸĪëĭ¤
ĠíĮĢ ìŀ¥ìĿĢ
ĠR ep
Ġë§¥ ì£¼ë¥¼
Ġê²½ìŁģ ëł¥ìĿĦ
ìĹħì²´ ìĿĺ
Ġê±°ëŀĺ ìĹĲ
ĠëıĻë¬¼ ìĽĲìĹĲìĦľ
Ġm iss
Ġì°¸ìĹ¬ íķĺê³ł
ĠìĤ¬íļĮ ìĹĲìĦľ
Ġê°ĲìĨĮ íķĺê³ł
et ro
ĠìĪĺê°Ĳ ìĥĿíĻľìĿĦ
Ġìľłì§Ģ íķ´
Ġê±°ë¶Ģ íķł
Ġì¹ľêµ¬ ëĵ¤ìĿ´
Ġì¹ľêµ¬ ìĿ´ìŀĲ
Ġê³µê¸ī íķł
Ġìļ´ëıĻ ìĿ´
ìĬĪ íĥĢìĿ¸
Ġê¸°ìĹħ ëĵ¤ìĿĢ
ĠíĨµê³¼ ëĲľ
Ġë³´ëĤ´ ê²Į
ĠíĪ¬ìŀĲ ìĹĲ
ëĭĮ ëĭ¤
ĠêµŃê²½ ì§ĢìĹŃìĹĲìĦľ
ìĥĪ ë¡ľ
Ġë¶Ģì¡± íķĺëĭ¤
Ġë¶Ģì¡± íķĺëĭ¤ëĬĶ
ê³¨ ìĹĲ
Ġì§Ģë°© ìĿĦ
Ġêµ¬ìĦ± íķĺëĬĶ
Ġê¸°ëĮĢ ëĲľëĭ¤
Ġê¸°ëĮĢ íķľëĭ¤ê³ł
Ġëª¸ ìĭ¸
Ġíķĺë£¨ ì¢ħìĿ¼
Ġê°Ī ëĵ±
Ġíį¼ ëłĪìĿ´
Ġì§ĢëĤĺ ë©´
Ġê°ľìĿ¸ ìłģ
Ġh igh
Ġê°ľìµľ íķł
Ġëıħë¦½ íķľ
ĠíĮ¬ ëĵ¤ìĿĦ
ĠíıĲìĩĦ íķĺê³ł
Ġìłľì¡° íķľ
Ġì¶ľìłĦ íĸĪëĭ¤
íľĺ ë°ľìľł
Ġê²ª ìĿĦ
ĠìĦłíĥĿ íĸĪëĭ¤ê³ł
Ġê±´ìĦ¤ ìĹĲ
ĠìĹ°ê¸° íķľ
ĠìĬĪ ìĽĮìłľëĦ¤ê±°
íĹĪ ëĵľ
Ġë¯¿ ì§Ģ
ìĹ°êµ¬ ìĨĮëĬĶ
Ġìĺ¬ëĿ¼ ê°ĢëĬĶ
Ġì± Į
´ëŀ Į
ë¡Ń ì§Ģ
ĠíĻķë³´ íķ´
ĠíĻĶìŀ¬ ë¥¼
Ġì°¾ìķĦ ëĥĪëĭ¤
ë¹Į ìĿĢ
ĠìĭľìĦ¤ ìĿĺ
ĠíĻ© êµĲ
ĠìĿĺë¯¸ íķľëĭ¤ê³ł
ëĬĶëĭ¤ ë©´
ĠìłĦëĭ¬ íķł
íĹ¤ ì¦Īë³¼
ĠìĽ¨ ìĿ´
ìĺģíĻĶ ë°°ìļ°
Ġíķ´ìķĪ ìĿĺ
ĠìŀĶ íĺ¹íķľ
ìĤ¬ê³ł ëĬĶ
ìŀĲíļĮëĭ´ ìĿĦ
ìŀĲíļĮëĭ´ ìĿĢ
Ġì²łìĪĺ íĸĪëĭ¤
ĠìĦłìłķ íķľ
ĠìĤ¬ìĹħ ìĿĺ
ĠìĤ¬ìĹħ ìĿĢ
ĠìĤ¬ìĹħ ê°Ģ
ĠO bama
Ġìĺ¨ëĿ¼ìĿ¸ ìľ¼ë¡ľ
ĠìŀĳíĴĪ ìĥģ
Ġì´ĿìĦł ìĿ´
ĠìĤ¬ê³¼ íķĺê³ł
Ġì£¼ë§Ĳ ê¹Įì§Ģ
Ġëª©ê²© ìŀĲëĵ¤ìĿĢ
ëī´ìļķ ìĿĺ
ëī´ìļķ ìĭľ
ĠìłľíĴĪ ìĿĺ
ĠìłľíĴĪ ìĿĢ
Ġíĺĳëł¥ íķ´
Ġì¶ĶëĿ½ íķ´
Ġê²½ìĺģ ìŀĲ
ĠìĻ¸êµŃìĿ¸ ëĵ¤ìĿ´
Ġìļ´ìłĦ ìĤ¬
ìĺ¤ëĬĺ ìĿĢ
ìĺ¤ëĬĺ ë°¤
ĠíĹĮë²ķ ìĹĲ
ĠëłĪë°Ķëħ¼ ìĹĲìĦľ
ĠìķĦíĶĦë¦¬ì¹´ ìĹĲìĦľ
Ġìłķê¶Į ìĹĲ
ĠìĦ±ìŀ¥ ë¥ł
Ġê²°ìĬ¹ ìĹĲ
ĠíĶĮë¡ľë¦¬ëĭ¤ ìĹĲ
ĠêµŃëĤ´ ìĹĲìĦľ
ĠìĬ¹ê°Ŀ ìĿ´
ĠìĬ¹ê°Ŀ ëĵ¤ìĿĢ
ĠìĦ¬ ìĿĺ
ĠìĦ¬ ìľł
ĠìĬ¹ìĿ¸ íķł
ill s
Ġìĭłìļ© ê²½ìĥī
ĠìľĦë°ĺ ìľ¼ë¡ľ
Ġê³¤ ê²½ìĹĲ
ĠìĭĿëŁī ê³¼
ĠíĹĪìļ© íĸĪëĭ¤
ĠëĮĢìĿĳ íķĺê¸°
ĠìĦ¤ë¦½ íĸĪëĭ¤
ĠìĦľë¶Ģ íħįìĤ¬ìĬ¤
ĠíĨµìłľ íķĺëĬĶ
Ġëĥ Ī
ĠíĻķìĭł íķł
ĠìŀĦìĭľ ë¡ľ
ĠìķĦëĤ´ ëĬĶ
íį¼ìĦ¼íĬ¸ ê°Ģ
ĠëĮĢìĤ¬ê´Ģ ìĹĲ
ì¶© ëıĮ
Ġst ri
ìĬ¤ëŁ½ ê³ł
ë³´ë ©´
Ġì§Ģë°° íķĺê³ł
Ġì»¨ ìĦ¤
ĠìľĪ íĶĦë¦¬
Ġë¬´ëĦĪ ì§Ģê³ł
ĠìĿ¸ëıĦëĦ¤ìĭľìķĦ ìĹĲìĦľ
ĠìĭŃ ìŀĲ
Ġìĺ¤ëŀĺ ìłĦë¶ĢíĦ°
ĠíĮĮìĹħ ìĿ´
ĠëĪĦêµ¬ ëĤĺ
Ġì§Ģìĭľ íķľ
ĠíĥľêµŃ ìĹĲìĦľ
Ġìĭľìĥģ ìĭĿìĿĦ
ĠìĬ¤íĬ¸ ë¦¬íĬ¸
ĠíĻĢ ë¦¬
ĠíĻĢ ìĹĲìĦľ
Ġëĭ¤ìļ° ì§ĢìĪĺê°Ģ
Ġì¡´ìŀ¬ íķĺì§Ģ
íıŃíĥĦíħĮëŁ¬ ë¡ľ
Ġíĳ¸íĭ´ ìĿĢ
ĠìłģìłĪ íŀĪ
ĠìĻĶ ëįĺ
ĠìŀĳìĦ± íĸĪëĭ¤
Ġ197 5
ĠíıŃíĴį ìĿ´
ĠíĬ¸ëŁŃ ìĹĲ
Ġìĥģì§ķ ìľ¼ë¡ľ
Ġì¶ķíķĺ íķĺê¸°
ĠìĺĪë°© ìłĳ
ĠìĻķìĦ¸ ìŀĲê°Ģ
ìĬ¤íĨ¤ ìĿĢ
ĠìķĮìķĦ ìķ¼
Ġë¶ķê´´ ë¡ľ
ĠíĮĮìĨĲ ëĲĲëĭ¤
Ġêµ°ìĿ¸ ëĵ¤ìĿĦ
Ġcon s
Ġì£½ìĿĮ ìĿ´
ê°Ķ ì§Ģë§Į
íĥĢìŀĦ ì¦ĪëĬĶ
ĠëıĦì¿Ħ ìĹĲìĦľ
Ġê¸°êµ¬ ê°Ģ
ĠíķĺìĿ´ íĤ¹
ĠìķłíĶĮ ìĿĢ
ĠíĻįë³´ ëĭ´ëĭ¹
ĠìĭľìĥģìĭĿ ìĿĢ
Ġë§ĪìĿĮ ìĹĲ
Ġì§Īë³ĳ ìĹĲ
ĠíĮĮìķħ íķĺê³ł
ìĸ¸ë¡ł ìĿ´
ĠìĿ´ëł ¥
Ġëĭ¤ìĿ´ìķłëĤĺ ê°Ģ
ĠìĨĮì§Ģ íķľ
Ġë¶Īì°¸ ìĿĦ
Ġê¿Ī ìĿ´
ĠíĥĪì¶ľ íĸĪëĭ¤
ĠìĤ¬ìĤ´ íķĺê³ł
ë§Įíģ¼ ìĿĺ
ĠDNA ë¥¼
Ġth an
Ġë¶ķê´ ´ëĲĺ
ĠëıĦëĭ¬ íķł
ĠëıĦëĭ¬ íķĺê¸°
ĠíļįëĵĿ íķľ
Ġìĺ¨ëĤľ íĻĶ
ĠìĿ¸ëĶĶ ìĸ¸
Ġíļ¡ ëĭ¨
ĠìĻ¸ê³½ ìĹĲ
ìºĺë¦¬íı¬ëĭĪìķĦ ì£¼
íķ´ë³ ´
ĠìĨĮíĸī ìĿ´ëĿ¼ê³ł
Ġë©Ī ì¶°
Ġê´ĢëŀĮ ê°Ŀ
Ġë§Īë¦¬ íĻĶ
Ġê°Ĳíĸī íĸĪëĭ¤
ĠíıŃìļ° ê°Ģ
Ġì±ĦíĥĿ íĸĪëĭ¤
Ġì£¼ìĦĿ ìĿ´
ĠìĬ¤íĶĦ ëłĪìĿ´
ĠíĮĮíĭ° ìĹĲ
ĠCBS ìĿĺ
ëĮ Ī
ĠìķĦë¦Ħ ëĭ¤
Ġê°Ģìĺ¥ ìĿ´
ìĬ¤íĮĮ ìĿ¼
Ġëª¨ìĥī íķĺê³ł
ĠìĿ¼ìľ¼íĤ¤ ê³ł
ĠíĶ¼ëĤľ ë¯¼
ìľ¤ ë¦¬
Ġë£ ©
ë³´ëıĦ ìĹĲëĶ°ë¥´ë©´
Ġë¹ĦíĭĢ ì¦Īê°Ģ
ĠìıŁìķĦ ìł¸
ĠìĺģìĹħ ìĿ´ìĿµ
ĠìĿĮì£¼ ìļ´
Ġëĭ¤íģĲë©ĺ íĥĢ
ĠíĶĦëŀĳ ìĬ¤ëĬĶ
Ġëĺĳ ê°ĻìĿĢ
ĠìłĦìĤ¬ ëĵ¤ìĿĦ
Ġê´Ģê³ĦìŀĲ ìĹĲëĶ°ë¥´ë©´
Ġë¹Ħê³µ ê°ľ
Ġëĭ¬ëĿ¼ìĿ´ëĿ¼ ë§Īê°Ģ
ë°Ķë¥´ ìħĢë¡ľ
Ġíı¬ëŁ¼ ìĹĲ
Ġìŀ¬ë¬´ë¶Ģ ëĬĶ
iti es
Ġì¡¸ìĹħ ìĥĿ
Ġë¶ģëıĻ ìª½ìľ¼ë¡ľ
ĠíıŃê²© ê¸°
ê¸°ëĿ¼ìĿ´ ëĬĶ
Ġì¢ģ ìĿĢ
ĠëĤ®ì¶Ķ ëĬĶ
Th is
Ġê³łìķĪ ëĲľ
Ġë¶Īê¸¸ ìĹĲ
orn ia
Ġìĺ¤ì¼Ģ ìĬ¤íĬ¸
ĠìķĦìĽħìĤ° ìĪĺì§Ģ
ĠëıĻìĥĿ ìĿ¸
ĠìĬ¤íĬ¸ëłĪìĬ¤ ë¥¼
ĠìĿ´ìĬ¬ëĿ¼ë§Īë°Ķ ëĵľ
ĠìĿ´ìŀĲ ìľ¨
Ġë§ĪìĬ¤íĦ° ì¦Ī
Ġëħ¸ëĮĢíĨµëł¹ ìĿĺ
Ġë¦¬íŀĪíĦ° ê·ľëª¨
mb ass
ĠHe art
Ġíķ¸ ëĵľíı°
ìĨĮìĭĿ íĨµìĿĢ
ĠíĥĪë¶ģ ìŀĲ
Ġì±Ħì·¨ íķľ
ĠìĪĺíķĺ ë¥´íĨł
ëĿ¼ë¦¬ ìĺ¨
ĠìķĦìĭľ ìķĪ
ĠíĶĮë£¨íĨłëĬĦ ìĿĦ
Ġì¡°ìĭ¬ ìĬ¤ëŁ½ê²Į
Ġê²°ìĭ¬ íĸĪëĭ¤
Ġê¶Įì´Ŀ ìĿĦ
ĠíħĮìĿ´ ë¸Ķ
ĠAd ministration
Ġë¸Ķë¡Ŀ ë²ĦìĬ¤íĦ°
ìĿ¼ë°ĺ ìłģìľ¼ë¡ľ
ĠìŀĲìłĦ ê±°
Ġëª¨ìĹ¬ëĵ¤ ìĹĪëĭ¤
ĠëĮĢìļ° ë¥¼
Ġìŀ¥ë²½ ìĿĦ
stit ute
ĠìĦľìĭł ìĹĲìĦľ
ìĿ¸ë¯¼ ëĭ¹
ĠëıĻë¶ģ ìķĦ
Ġíİ¸ìķĪ íķľ
ĠìĿ´ìĻ¸ ìĿĺ
FDA ëĬĶ
ìĬ¤ì½ľ ìĦ¸ì§ĢëĬĶ
Ġíı¬ìľł ë¥ĺ
Ġì²Ńì¤ĳ ëĵ¤ìĹĲê²Į
ëĮĦ ìĬ¤
ĠìĨĶì§ģ íķĺê²Į
Ġê°ĢëĿ¼ ìķī
Ġê´ĢìłĪ ìĹ¼
ĠìķĦëĿ¼ íĮĮíĬ¸
ĠìľĦíĥľ ë¡Ńê²Į
ĠìŀĲìĦľ ìłĦ
íĿ¬ìĥĿ ìŀĲ
ĠíĿ©ìĸ´ ìł¸
ĠìľĮë¦¬ ìķĶ
ëĨĴ ìĿĢ
Ġêµ¶ ì£¼
Ġê¸°íĽĦë³Ģ íĻĶ
ĠìĪľìĿ´ìĿµ ìĿ´
ĠëĪ Į
Ġë¶Ģì°© ëĲľ
ĠëĤĺëī ĺìĸ´
Ġê³¨ëĵłê¸Ģë¡ľ ë¸Į
Ġê¹Ģê²½ ì¤Ģ
Ġê³µìĥģ ê³¼íķĻ
Ġê¹ľ ì§Ŀ
ìķĮëłīìĤ° ëįĶ
ĠServ ice
lob al
Ġìłķëª½ êµ¬
alif ornia
ëį¸íĥĢ ìķĦìĭľìķĦ
Ġë°©ì½Ķ ëį¸íĥĢìķĦìĭľìķĦ
íĪ¬ìķĦ ëĭĪìķĦ
ĠAfric a
uth or
Ġë°Ķëŀį ëĭĪëĭ¤
Ġê°ĢìĨĶ ë¦°
ìłľë¥´ë°Ķ ìĿ´ìŀĶ
ĠëĤ´ë²Ħ ëł¤
' ..
1 30
3 20
8 1
C R
D M
E I
E IC
M ar
N G
N BA
N FL
O L
O M
R NA
S P
W FP
c ont
d o
i pp
m ìĹĲìĦľ
p end
r or
r it
w in
w it
¶ Ħ
¼ ëĭ¤
å Ń
é Ģ
Ķ ĺ
Ġì Ńī
ìĿĺ ìĤ¬ëĵ¤ìĿĢ
ìł ĬìĿĢ
íķľ ëĵľë¡ľ
íķĺ ë¯¸
íķĺ ëĿ½
íķĺ ëįĶëĿ¼ëıĦ
íķĺ ë¯¸ëĵľ
ë¡ľ íĤ¤
ë¡ľ ì¦Ī
ë¡ľ ìĽĮ
ìľ Ĺ
ìľ Įë¦¬
ê°Ģ ìĬ¤ê°Ģ
Ġìķ ¨ë¦¬
ë¦¬ ëĿ¼ê³ł
ë¦¬ ì¹´ë
ë¦¬ ì°¨ëĵľ
ëĵ¤ ìĹĪëĭ¤
íķ´ ê²°
ĠëĮĢ ëĭ´
ĠëĮĢ íķĺìĹ¬
ĠëĮĢ ë§ĮìĿĦ
ĠëĮĢ íĻĶìĹĲ
ĠëĮĢ ìļ´íķĺ
ìŀĲ ìĹĲìĦľ
ìŀĲ ëĿ¼ê³ł
ìŀĲ ë£¨
ìŀĲ ë¦¬ë¥¼
ìŀĲ ë£Įë¥¼
ìĤ¬ ë¦¬
ìĭľ ìŀ¥ìĿĦ
ìĭľ ìłĪ
ìĭľ ìķĻ
ìĭľ íĤ´
ĠìĿ´ ì§ĳ
ĠìĿ´ ìĸ´ëĤĺ
ë¶Ģ ëĮĢë¥¼
Ġì§Ģ ë¥¼
Ġì§Ģ ìĸ´
Ġì§Ģ ëĥĪëįĺ
ìķĦ ë°Ķ
ìķĦ íĮĮ
ĠìłĦ ì§Ħ
ĠìłĦ ëĿ½
ĠìłĦ êµŃìĿĺ
ëĤĺ ìĬ¤
ìĥģ ëıĦ
ìłķ íĻķ
ì£¼ ê°ĦìĿĺ
Ġë¯¸ ì³¤ëĭ¤
Ġë¯¸ ë¤Ħ
ĠìķĦ ìľł
ĠìķĦ ë©Ķ
ĠìķĦ ìĽĥ
ĠìķĦ ë¡ľìļĶ
Ġê°Ģ íĮĮ
Ġê°Ģ ë£¨
Ġê°Ģ ì¹ĺëĬĶ
Ġì£¼ ìĭľ
Ġì£¼ ëĭĪìĸ´
ìłľ íĴĪìĿĦ
ìłľ ëŁ´ëĵľ
ĠìľĦ ë°°
Ġë§Ĳ ìĶ
Ġê¸° ê´ĢìĿĢ
Ġê¸° ìĤ¬ê°Ģ
Ġê¸° íķľìĿĦ
Ġê¸° ìłĲìľ¼ë¡ľ
Ġê¸° ìķĦëĬĶ
Ġìĭľ ìĹĲìĦľ
Ġìĭľ ëª¬
Ġìĭľ ìĭłìĿĺ
Ġìĭľ ì¼°ëĭ¤
ìĪĺ ë¹Ħ
Ġìłķ ëıĦë¥¼
Ġìłķ ëĭ¹íķľ
íĻĶ íĸĪëĭ¤
íĻĶ ìĦ±
Ġì¤ĳ ìŀ¥
Ġë³´ ìķĺëĭ¤
Ġë³´ íĬ¸ë¥¼
ĠìĿ¸ ë¬¼ìĿĦ
ĠìŀĲ ë¯¼
Ġíķľ íķ´
Ġíķľ êº¼
êµ¬ ìĦ±
ì¹ĺ ëĭĪ
ë³´ ì¡°
ìĭł íķľ
Ġë¶Ģ ì§Ģ
Ġë¶Ģ ì¹ľ
Ġë¶Ģ ëĵľëŁ¬
ë§Ī ìłĢ
ëĤľ ìĿ´
ëĤľ íķľ
ĠìĿ¼ ìĥĿ
ĠìĿ¼ íĸĪëįĺ
ĠìĿ¼ ì¢ħìĿĺ
ëĭĪ ì¼ĢìĿ´ìħĺ
Ġê´Ģ íĨµ
Ġê´Ģ ë¡Ģ
ê³Ħ ìķ½
ë¶ īìĿĢ
ìľĦ ìĽĲìĿĢ
ëıĻ íĭ°ëª¨
íģ¬ ìĻĢ
Ġê²ĥìĿ´ ì§Ģ
íĮ Ŀ
ìļ° ì¦ĪëĬĶ
ĠìĨĮ ëŀĢ
ë¯¸ ìĬ¤
ë¯¸ íĬ¸
ë¯¸ ë¹ĦìķĦ
ëĭ¹ ìľ¼ë¡ľ
ëĭ¹ ìĭłìĿĺ
ìļ© ìĹĲ
íĸĪ ìĸ´ìķ¼
Ġìĺ¤ ëĶĶ
Ġìĺ¤ ëĶĶìĺ¤
Ġìĺ¤ ì°¬
Ġìĺ¤ íĶ¼ìĬ¤
Ġìľł ì¡°
Ġìľł ê°Ģê°Ģ
Ġìľł ëĦ¤ìĬ¤ì½Ķ
Ġìľł ë³´ëĲĺ
Ġìĥģ ê¸°
Ġìĥģ íĳľ
Ġìĥģ íĻĺ
Ġìĥģ ìŀĦìĿ´ìĤ¬
ìĨĮ ë§¤
ìĨĮ ìĦ¤
ìĨĮ ë¦¬ê°Ģ
ë©´ ìłĳ
ì§Ħ ëĭ¤ëĬĶ
ë°Ķ ëĵľ
ë°Ķ ì¦Ī
ë°Ķ ìĿ´ëŁ¬
Ġìłľ ìĿĺë¥¼
Ġìłľ íľ´
ĠëĤĺ ìĿ¼
ĠëĤĺ ì¤ĳìĹĲ
ĠëĤĺ ë¯¸ë¹ĦìķĦ
ìľł ë§Ŀì£¼
Ġíķĺ ëĿ¼ëĬĶ
Ġíķĺ ìĽĲìĿĢ
Ġíķĺ ëĪĦ
Ġëª¨ ìŀĲë¥¼
Ġëª¨ íķĺë©Ķ
Ġë§Ī ìĭł
Ġë§Ī ìļ°
ĠëıĻ ìķĦ
ĠëĮĢíĨµëł¹ ê¶ģ
ìĺ¤ ìĬ¤ì¹´
êµ° ëį°
ì²´ ìĬ¤
ì²´ ì½Ķ
ê²½ ëĨį
ëĭ¨ ìĹĲê²Į
ìĺģ íĻĶìĿĺ
ìĭĿ ê°Ħ
Âł Âł
íĽĦ ì§Ģ
íĽĦ ìĦ¸
Ġë°Ľ ê¸°ë¡ľ
ĠíĽĦ ìķĪ
Ġë°© ìĿĦ
ĠëĮĢíķľ ë¯¼êµŃ
ê³µ ì£¼
ê³µ íķĻ
Ġìļ° ìĦ¸ë¥¼
ĠìĹĨ ìľ¼ëĤĺ
ĠìķĮ ì¹´
ĠìķĮ ìŀĲì§Ģ
Ġê²° ìĦ±
Ġíķ´ ìĺ¨
ĠìĥĿ ê²¼
ë°ĺ ìĿĢ
ĠìĤ ´ëĿ¼
ĠìĤ ´ëįĺ
ĠíļĮ ìĽĲìĿ´
ĠíļĮ ìĤ¿
Ġë°Ķ ë¥¼
Ġë°Ķ ë¹Ħ
ĠìĦ¸ ìĽł
ĠìĦ¸ ìĥģìĹĲ
ĠëıĦ êµ¬
ĠëıĦ ë©ĶìĿ¸
ĠìĦ± ë§¤ë§¤
ìĿ´ëĭ¤ ìĿ´
Ġìŀ¥ êµ°ìĿ´
Ġê¸ ±
ë¯¼ ìĪľ
ĠëĤ¨ ìļ°
Ġë¬´ íĮ¨
Ġë¬´ íĺĲìĿĺ
Ġë¬´ íķĺë§Īëĵľ
íĺ¸ íĿ¡
ê¸Ī ìĿĺ
ìŀĦ ìĹĲëıĦ
Ġêµ¬ ëĳĲ
Ġëħ¸ ë¦¬ëĬĶ
Ġ5 500
íŀĪ ëĵľ
íĮĮ ìĽĶ
Ġìĭł ìĿ´
Ġìĭł ì¤ĳíķľ
ìļ´ ìĿ´
ë¶Ħ ìľ¼ë¡ľ
íķĺê¸° ìĹĲëĬĶ
ìŀĳ ìłĦìĹĲ
ì¤ĳ ìĿĺ
ì¹´ ëĭĪìĬ¤íĥĦ
ëĶĶ ì§Ģ
ëŀĺ ìĿ´
Ġìĭ¤ ìłģìĿ´
ĠìĹĲ ë¡ľ
ĠìĹĲ ëª¨ë¦¬
Ġë°ĺ ì§Ģë¥¼
ĠëĤ´ ë¦¬ê¸°
ì§ģ ìĽĲ
Ġê°Ĳ ë°ĶëĬĶ
Ġê°ķ ìĹĲ
Ġê°ķ íĥĪ
ĠìĤ¬ëŀĮ ìĹĲ
íĭ° íĺ¸
ë°ľ ìĿ´
ëª¨ ë¦¬ëĬĶ
ĠíĶ¼ ìĺ¤
ì¶ľ íķľ
Ġì°¨ ìĹĲìĦľ
Ġì°¨ ìĿ´ëĬĶ
Ġë§¤ ì§Ħ
Ġë§¤ ë£Į
Ġë§¤ ìŀ¥ìĹĲìĦľ
Ġë§¤ ë¦´ëŀľëĵľ
Ġìŀ¬ ë£Į
ĠìĦľ ëĳĲ
Ġìĺ¬ ëŀľëıĦ
ì½Ķ íĬ¸ìĹĲìĦľ
ì½Ķ ìĬ¤íĶ¼
ì¦Ī íĤ¤ëĬĶ
ì¡Į ìĹĪëĭ¤
ì¡Į ëĬĶëį°
ë²Ī íĺ¸
ĠíĺĦ ê¸ĪìĿĦ
ĠíĺĦ ìŀ¥ìľ¼ë¡ľ
ì§Ī ìĿĺ
ĠìķĪ ìĹĲëĬĶ
Ġì§Ħ ëıĦ
ĠìĿ´ëĿ¼ ëĬĶ
ĠêµĲ íļĮìĿĺ
ĠêµĲ ìłĦìĿĢ
ëį° ìĿ´íĬ¸
Ġë© į
ë§¤ ìŀ¥
ê²° ìłķ
Ġì¶Ķ ì¸¡ìĿ´
Ġì¶ľ íĴĪ
Ġëĭ¬ íĸĪëĭ¤
ĠìĻ¸ ëª¨
ë¸Į ëŀĺëĵľ
ĠìĤ¬ë§Ŀ ìľ¼ë¡ľ
ĠìĽĲ ìĿĦ
ĠìĽĲ ëıĻ
ĠìĽĲ ìĭ¬
ĠìĽĲ íĺķ
ĠìĽĲ íĻĶëĬĶ
ĠìĽĲ ìĿ¸ìĹĲ
Ġì½ ¤
ĠìĬ¹ ë¦¬ìĿĺ
Ġë°ľìĥĿ íĸĪìĬµëĭĪëĭ¤
ìĦĿ íĺĦ
ë²ł ëĤĺì§Ģë¥´
ë¥´ë Ŀ¼
Ġ7 37
ìĭ¬ ìĹĲ
Ġì¦Ŀ ìĤ°
Ġêµ° ë¹Ħ
Ġêµ° ìĿ¸ìĿĦ
Ġì§ĳ ëĭ¨ìĿĺ
ĠëĿ¼ ëĵľ
Ġë²ķ ìĿ´
Ġë²ķ ë¬´ìŀ¥ê´ĢìĿ´
ĠíĥĢ ê²©
Ġëĵ¤ ê²Į
Ġë³´ëıĦ ëĲĲëĭ¤
Ġë³´ëıĦ ìŀĲë£Į
Ġë°° ìłķ
ti me
Ġëª» íĸĪìĿĦ
ì¢ħ ìĹĲ
ì¢ħ ìĿ¸
Ġë¦¬ íĪ¬ìķĦëĭĪìķĦ
Ġì°¸ ìĪĺ
Ġê¸Ī ì¹ĺ
ë¯¸êµŃ ìĹĲ
ĠìĤ´ ìĥģ
íĮĲ ìĹĲìĦľ
Ġìĭ¬ ìĿĺë¥¼
Ġìĭ¬ ë¦¬ìĹĲìĦľ
Ġìĭ¬ ìĬ¨ìĿ´
ĠC o
Ġë³ĳ ìĤ¬ë¥¼
ĠêµŃê°Ģ ìķĪìłĦ
ĠêµŃê°Ģ ëĮĢíĳľíĮĢ
en n
Ġê²Ģ ìĤ¬ê°Ģ
ĠìĦ¸ê³Ħ ë³´ê±´ê¸°êµ¬
Ġë³Ģ íĺķ
Ġìķŀ ìĦľëĬĶ
Ġìĭľìŀĳ ëĲľëĭ¤
Ġë¬¼ ìĸ´
ë©Ķ ìĿ´íģ¬
ë©Ķ ëĭ¬ìĿĦ
Ġê²½ìłľ ìĦ±
ĠìłĢ ê°Ģ
ĠìłĢ ìĨĮëĵĿ
ìĤ´ ìĿĦ
ë³ĳ ê³¼
ë³ĳ ëł¥
ĠA s
ĠëŁ °
Ġì§ģ ìĽĲìĿĦ
Ġë²Ħ ë¦¬ê³ł
Ġë²Ħ ìĬ¤ê°Ģ
Ġë²Ħ ë°į
Ġëī´ ìĬ¤ê°Ģ
ĠìĤ° ìĤ¬íĥľê°Ģ
ĠíķĻ ìľĦë¥¼
ĠíĶ¼íķ´ ë¡ľ
ĠíĶ¼íķ´ ìŀĲê°Ģ
ĠìĹ°êµ¬ íķľ
ĠìĹ°êµ¬ ìĹĲëĶ°ë¥´ë©´
[...]
