#version: 0.2 - Trained by `huggingface/tokenizers`
Ġ t
Ġ a
h e
i n
r e
o n
Ġt he
Ġ s
e r
Ġ w
a n
e n
o r
e d
a t
Ġ c
Ġ o
i t
e s
Ġ f
a r
i s
Ġ p
Ġ b
in g
Ġ in
Ġt o
a l
Ġo f
Ġa n
o u
Ġ m
Ġ h
a s
i c
Ġ d
i d
i l
Ġan d
i on
o m
l e
en t
Ġt h
Ġ re
Ġ n
a y
r o
s t
v e
Ġ l
Ġb e
Ġ e
Ġ S
u t
a d
o l
Ġ g
Ġ on
t er
u r
a c
Ġf or
Ġs a
' s
T he
l y
i m
u n
Ġ C
a m
i g
o t
Ġsa id
e c
u s
Ġ A
e t
Ġs t
il l
Ġ he
at ion
v er
Ġ M
o re
i r
e l
Ġth at
o w
Ġ is
r a
t h
it h
Ġ P
Ġw h
l d
Ġ it
Ġ I
Ġ B
c e
Ġa t
Ġw as
Ġw ith
Ġw e
t s
ou n
e m
er s
Ġ K
re s
Ġa s
o s
e ar
Ġa l
a k
d ay
Ġ T
o p
Ġc on
he r
r i
r om
es t
an d
u l
. .
Ġ N
0 0
Ġ 1
Ġp ro
a g
is t
c h
Ġ y
m ent
c t
at e
Ġ U
Ġh a
Ġ "
Ġb y
a in
p p
Ġf rom
ig h
Ġc om
Ġ W
Ġ r
Ġd e
e w
i al
Ġ v
i f
ar t
or t
Ġh as
Ġ D
Ġ H
on g
Ġ G
Ġ J
Ġh is
Ġa re
Ġ R
as t
Ġ 2
Ġe x
Ġha ve
Ġs h
Ġ le
it y
Ġ F
re d
u m
Ġw ill
i es
a p
Ġ k
Ġof f
ic e
o c
ac k
Ġc h
ou ld
, "
ou t
Ġg o
Ġs p
en d
o d
i v
ou r
u d
es s
id ent
Ġ L
i ve
Ġs u
Ġn ot
al l
r y
Ġwe re
i an
Ġ un
ĠK ore
a b
Ġ E
Ġp l
Ġs e
Ġ or
Ġa b
s e
Ġa f
â Ģ
g h
ar y
Ġa g
i a
u p
q u
ic h
o st
Ġwh o
o k
igh t
Ġre p
u st
ec t
Ġw or
Ġ O
ĠC h
re n
Ġ j
om e
Ġy ear
e p
t her
oun d
Ġaf ter
Ġa c
.. .
ar d
m er
Ġh ad
Ġp e
Ġw he
id e
g e
an t
Ġp ol
Ġbe en
Ġre s
u c
Ġc l
Ġit s
res ident
in e
or d
Ġthe y
Ġthe ir
Ġex p
Ġs ay
w o
op le
Ġb ut
Ġa r
ig n
el l
b er
at ed
im e
ag e
Ġo ut
k e
Ġin t
Ġ (
ver n
an s
oun t
ion s
k s
Ġpe ople
Ġab out
Ġn ew
r ou
Ġth is
Ġm ore
f f
Ġn e
Ġoff ic
ĠS t
s o
Ġa d
Ġp er
i e
Ġin c
Ġm e
ou s
Ġwh ich
Ġcom p
ac e
i z
ation s
res s
ol d
Ġt wo
Ġgo vern
Ġ up
ter s
Ġw ould
l o
Ġo ver
es day
c ent
ak e
Ġac c
Ġd is
ĠKore a
at es
Ġo ther
i b
Ġhe r
u b
or s
on e
i p
m an
Ġcon t
Ġth an
Ġat t
Ġal l
Ġgovern ment
or th
u re
ow n
ation al
u e
an g
Ġal so
Ġoffic ial
as s
Ġm il
d er
r ic
ic al
r it
Ġon e
re e
Ġf ir
ar k
Ġ2 00
us e
Ġt r
Ġd o
ĠU n
it e
ĠI n
he d
ter n
ou th
Ġp art
Ġ im
Ġm an
Ġc ount
on d
i re
il e
os e
it ed
is h
Ġs ec
I n
en ce
N N
Ġ 3
ra q
Ġ en
t ed
Ġs he
o g
ill ion
it ion
a il
Ġfir st
a v
e k
Ġl ast
r an
as e
Ġc an
a w
Ġle ad
ĠI raq
il d
le ct
Ġs c
Ġ ro
Ġint o
Ġrep ort
Ġa pp
ad e
l ic
Ġmil it
i ke
Ġp re
ĠN orth
Ġwhe n
Ġ Y
in d
er v
Ġin v
n ing
in ce
us h
ac t
is s
Ġbe c
I t
Ġm on
Ġ1 9
e e
âĢ Ŀ
Ġd ay
Ġto ld
as h
i ed
en c
em ent
Ġd ec
Ġ qu
t on
Ġyear s
o ve
am a
al ly
am e
Ġk ill
Ġcom m
' t
Ġper cent
f t
ĠT h
n ed
o in
le ar
ver y
H e
c on
am p
ve l
v en
Ġp r
Ġo p
l ud
Ġwor k
Ġpol ice
or m
en s
r u
s s
ol l
o v
p h
w e
ĠCh in
at er
Ġthe m
Ġs ome
ĠM on
ar g
00 0
Ġt ime
Ġt e
ord ing
Ġl ike
Ġs o
Ġ us
Ġc ould
Ġm in
Ġp resident
ro w
o h
Ġc all
or ts
c es
Ġ V
Ġag ain
Ġa m
Ġ 5
Ġwe ek
Ġf l
it ies
ĠUn ited
Ġ $
a re
ĠS outh
o y
ĠA f
ac h
re at
Ġc r
f e
Ġ 4
et s
Ġa ct
ou gh
on s
Ġinc lud
l in
Ġmon th
ur ing
T h
ĠKore an
Ġthe re
B ut
n e
es e
Ġe ar
ĠS un
Ġim p
Ġsay s
an ts
or y
mer ic
ĠMon day
t ing
ver s
a use
ur s
ĠP resident
is ter
Ġcount ry
b ama
Ġn o
Ġbe t
l i
Ġin d
Ġw ar
u esday
ĠM in
ect ed
Ġc o
ist an
Ġre c
Ġy ou
ĠT uesday
Ġun der
ab le
Ġc ar
f ore
Ġofficial s
rou p
Ġf in
. "
Ġt ak
ing s
Ġme et
Ġth ree
at h
Ġb l
Ġmilit ary
Ġh im
Ġt ra
Ġcon s
b le
it al
ub lic
Ġ ra
a h
Ġacc ording
Ġs ur
Ġwor ld
ent s
Ġpl an
rou gh
Ġk n
ed n
ul t
edn esday
as ed
ou se
ĠI s
l ed
ic t
ap an
i ous
Ġsu pp
Ġatt ack
ĠW ednesday
Ġf ore
ro p
ĠA meric
Ġsp ok
o b
le g
con om
is e
Ġt al
C NN
Ġd own
i x
m ed
Ġre g
Ġm illion
r at
uc lear
k ed
l and
Ġbe fore
Ġ end
v ed
ĠN ew
Ġre m
Ġan y
enc y
Ġj ust
Ġe lect
âĢ ľ
Ġagain st
Ġnew s
ĠSun day
c ed
us s
is ts
Ġwhe re
Ġn uclear
Ġ 6
o ok
ĠO bama
er al
Ġg roup
e b
Ġ The
Ġsh ow
A n
Ġwh at
re st
w ay
Ġs ince
Ġb r
an ce
Ġm ost
Ġreport ed
Ġe conom
Ġkill ed
Ġan n
Ġb ack
g an
l l
Ġad d
Ġt er
w n
urs day
Ġst at
y ear
Ġre l
ĠTh ursday
Ġs erv
at ing
p t
Ġspok es
ot her
an k
ĠJ apan
we en
Ġm em
Ġ if
Ġl aw
ĠSt ates
W e
g r
an c
Ġn ear
ĠS e
Â ´
a z
s on
Ġbec ause
ur ity
ut h
os s
a i
Ġbe ing
Ġbet ween
Ġinv est
âĢ Ļ
Ġon ly
un d
Ġn ow
d u
Ġre t
em oc
d uc
e red
l es
Ġd es
Ġd uring
Ġc ap
Ġst ate
Ġpro v
ic k
ĠChin a
ut ion
Ġm ade
ren t
om en
Ġpro t
Ġg et
Ġcomp an
a ir
o od
Ġb u
r al
Ġin s
Ġa ir
Ġth rough
ĠA n
Ġe v
ĠB ush
or k
in k
x t
w ard
Ġst ud
Ġf our
op s
Ġf ound
ĠS h
Ġm ed
un g
m e
l p
ur n
al s
it t
ow er
Ġv i
Ġin f
Ġfor mer
Ġ 7
uth or
Ġre le
a red
u g
Ġ1 0
Ġbe l
Ġas s
Ġpl ay
Ġhe lp
¡ Â
Â ¡Â
om b
Ġstat ement
ol og
Ġm ay
Ġp rom
Ġinclud ing
Ġv is
tern ational
Ġcon f
re t
if e
Ġt ro
Ġs et
Ġt ri
Ġf am
Ġh ost
Ġhe ad
m in
Ġh igh
il y
Ġexp l
im es
c c
Ġch ild
ĠB rit
Ġm ark
Ġin ter
Ġd id
Ġwh ile
a j
Ġe m
c er
e f
ec h
is ion
Ġw on
ot h
u al
r id
Ġre f
and s
Ġc amp
Ġf e
Ġcall ed
Ġman y
Ġst r
Ġp h
b ers
Ġis s
y st
ct ion
iv es
Ġw in
us ed
iv il
ri v
Ġc ent
emoc rat
m s
r on
Ġh ow
Ġres p
Ġdis c
Ġs ix
Ġspokes man
n er
Ġtal ks
our t
Ġh ome
l ing
Ġann oun
Ġl ong
Ġe ff
o ol
om m
Ġpol it
iz ed
Ġt ake
iv ing
Ġo pp
Ġday s
at ur
Ġc ity
Ġs m
Ġ2 0
Ġsec ond
ĠC NN
ra el
Ġs l
u res
a ve
Ġne xt
ou l
Ġrep orts
i o
Ġde p
ri es
Ġc ivil
f ul
Ġn um
Ġk e
Ġde b
ic s
ment s
ie f
oc k
e x
Ġm ake
p er
ro ss
Ġm iss
Ġsec urity
Ġtro ops
Ġo ur
al th
Ġag re
Ġne ed
Ġs ign
at t
us p
ĠM ar
ec ut
Ġg r
g ed
Ġw ay
ak ing
ĠN ational
en se
ĠMin ister
oc i
Ġar ound
Ġ '
Ġd em
The y
Ġde ath
an ge
i vers
t e
Ġp ublic
ĠAf ric
om an
art y
Ġs usp
Ġa id
os ed
u ch
or n
Ġ 8
her n
gr am
Ġle ast
ire ct
oll ow
Ġw ant
ib le
a u
at her
Ġf ive
ad y
Ġg u
Ġst ill
gh an
Ġsu ch
Ġst art
en ed
Ġlike ly
Ġth ose
Ġre cent
ers on
t he
Ġb ro
ĠD emocrat
aj or
t o
Ġcont in
Ġto p
e an
Ġde f
ĠU S
Ġl oc
ist ry
i ent
s h
ĠS p
od y
Ġp ar
Ġb o
Ġa uthor
Ġf ollow
ag es
ak istan
i or
ut e
Ġinvest ig
Ġb us
ĠA ss
Ġv ot
Ġr un
ĠIn d
Ġpro gram
Ġsh ould
ĠM c
Ġp oin
em ber
pp ed
` `
u rop
r or
Ġs er
ĠI ran
ĠIs rael
os p
t y
Ġd et
Ġe ven
os ition
igh ts
al e
ĠAf ghan
Ġpart y
Ġl ook
Ġlead er
ra ft
Ġb illion
Ġcompan y
o ot
Ġbel ie
he s
ri b
ian s
lin ton
Ġvi ol
g g
ĠAmeric an
ul ar
. âĢĿ
Ġf il
ash ing
Ġb omb
ne y
at ch
a im
Ġ Q
ĠP r
Ġsay ing
Ġvis it
oh n
il ity
a ign
at ive
Ġe very
ĠE n
in s
Ġm ajor
ĠS ec
ir d
C h
fe ren
r ation
ĠE urop
Ġtr ans
Ġd irect
ĠA r
Ġg en
Ġop er
is m
Ġc ur
Ġsu b
Ġsupp ort
ĠSe oul
Ġp ass
v i
Ġthe n
Ġexp ected
ĠA l
Ġw ell
l ine
Ġsp ec
atur day
ch ool
Ġde ad
Ġex t
Ġpre p
li er
o o
y a
un t
Ġinc re
Ġm ov
ĠB ar
Ġmem bers
Ġkn ow
Ġb ig
Ġv ict
Ġar rest
ĠH ouse
rid ay
Ġcamp aign
am ent
ĠS aturday
a x
if ic
ver al
Ġpresident ial
he n
ĠS en
p ort
t ain
ĠF riday
Ġ very
ĠP akistan
Ġchild ren
duc ed
ul l
ĠR uss
Ġ19 9
i er
Ġd ou
Ġmonth s
Â¡Â ¯
ĠM ich
el f
ashing ton
Ġde al
a el
is on
Ġ ...
Ġp ower
Ġan other
g y
Ġ ent
ro l
Ġnum ber
i k
vel op
Ġd ied
Ġpolit ical
Ġre st
Ġfor ces
Ġte am
Ġh um
Ġcount ries
ĠY ork
Ġo wn
ĠA m
ear ch
Ġlead ers
u red
at or
Ġs old
g er
Ġse e
d o
Ġh our
ĠB e
g ency
if t
Ġle g
st it
Ġgo od
u ed
Ġ Z
Ġc re
in ess
Ġin j
Ġm ain
K ore
Ġd if
i el
p r
Ġth ink
Ġgo ing
Ġus ed
Ġear ly
2 0
Ġcl aim
Ġcl im
Ġs ent
es ter
o on
m it
Ġrem ain
is ed
Ġc ame
lo y
or ld
u es
Ġm y
Ġp oss
osp ital
Ġle ft
Ġsp e
ry ing
ĠC linton
Ġmeet ing
ep t
Ġn ational
Ġc a
Ġp erson
Ġin ternational
Ġ est
Ġto ok
ĠJ ohn
Ġcomm un
Th is
Ġ 9
art ment
Ġm uch
am es
Ġd el
Ġh op
Ġbu ild
Ġfam ily
Ġn ation
c k
h ip
Ġr ul
ĠMc C
Ġcon cer
c hed
' re
ĠW ashington
Ġm ar
Ġc rit
Ġag o
v ing
Ġm ove
ĠH ong
Ġcap ital
al f
ĠBrit ish
Ġp op
ĠP al
on y
n ess
Ġch arg
b e
Ġp ut
Ġd on
c om
er ing
or ters
one y
Ġfore ign
anc ial
ret ary
Ġoff ice
vi ew
ĠP arty
Ġs ite
Ġ1 5
Ġall ow
b al
yst em
in a
c ess
Ġcon d
es ts
id ed
Ġn ight
ĠK ong
Ġannoun ced
Ġg row
ĠChin ese
Ġw omen
The re
ĠAfric an
m y
on es
Ġne g
Ġo b
Ġb oth
el s
Ġal leg
Ġpre v
ĠMich ael
ĠC omm
Ġse veral
le ph
Ġf ar
ĠIraq i
S he
Ġm en
ĠA s
ivers ity
Ġc or
ly ing
t al
Ġp res
ar ge
Ġfore c
Ġs chool
Ġs it
Ġf ire
i j
s ide
ar s
ur y
Ġl ater
Ġter ror
ĠR ep
uc k
r ist
Ġc and
min ist
end ing
em p
Ġpro ble
ĠF ran
An d
Ġsa me
ec ts
Ġinv ol
e v
Ġc he
Ġp ast
Ġl a
Ġt est
i red
Ġc ol
ur ned
Ġhe ld
feren ce
ĠA ust
Ġ use
e ver
ĠW h
Ġf ac
Ġc ourt
Ġeconom ic
Ġs ystem
Ġde velop
g in
p l
it s
ent ion
ĠG e
W h
Ġth reat
Ġam ong
ester day
if ied
Ġp ress
t il
al ib
Ġl ife
ri end
Ġaf f
m p
Ġtak es
Ġch ief
Ġy esterday
i ate
Ġhe alth
Ġmin ister
ĠEn g
Ġy our
Ġelect ion
Ġbus iness
Ġad v
ough t
Ġb re
Ġm or
O n
ac y
end ed
Ġfin ancial
Ġcand id
alib an
l am
iz e
ol ice
ĠJ ack
Ġfl u
Ġexp er
Ġc e
Ġc ash
u ally
A t
as on
Ġh ospital
Ġreg ion
du ct
Ġs um
Ġ3 0
ĠAss oci
ĠMin istry
ĠDemocrat ic
y s
om in
Ġrec ord
Ġauthor ities
ic le
est in
l s
Ġh old
ĠW orld
L ee
n s
is hed
Ġrele ased
Ġdou ble
Ġ1 1
Ġeconom y
Ġc ut
Ġpl ace
' '
Ġ ve
Ġexpl ain
i ers
n a
Ġp ost
Ġst ri
ĠG er
et h
Ġh it
Ġare a
Ġqu est
as ters
Ġ -
Ġf ind
Ġh and
Ġear lier
Ġmark et
Ġre qu
u el
Ġs w
Ġj ob
am ed
ear ing
Ġtra vel
Ġpe ace
Ġwhe ther
ĠD ep
Ġf ew
gan iz
Ġs en
Ġr ight
Kore a
Ġc ase
ar ing
Ġ ur
ĠT aliban
Ġwe ap
ĠK im
Ġcom e
Ġtak en
au gh
en ya
Ġm oney
Ġh om
Ġag ency
Ġpol ic
Ġop en
Ġmed ia
re ady
Ġdeb ut
ĠH e
Ġhum an
Ġwith out
Ġb an
Ġpro s
Ġattack s
Ġneg ot
ĠJack son
o ber
en e
us an
A s
ĠJ an
Ġun til
Ġcl ose
j ect
Ġre ce
Ġdo es
he ad
Ġhour s
b y
al if
Ġre duced
Ġapp ro
Ġs out
iv ed
Ġopp osition
Ġ1 2
en g
Ġloc al
Ġl ate
Ġconf ir
Ġc ou
Ġg lo
ĠL e
minist ration
t en
Ġf ight
Ġret urn
g et
Ġh alf
Ġprom ise
ech n
Ġs ets
ĠC D
iss ion
olog y
Ġal ready
Ġapp e
Ġmor ning
at ors
Ġsh ift
ĠAust ral
p e
Ġbe h
Th at
v es
Ġa way
un e
Ġpl ans
Ġo il
Ġf ree
is ing
Ġb est
oun g
Ġinf orm
in es
re m
Ġla un
ĠL ee
Ġke ep
F l
at s
Ġbe gan
Ġs our
g o
Ġb ank
Ġha pp
ap er
Ġind ust
ĠPr ime
k ing
ĠAfghan istan
Ġs k
it ing
ĠC ol
ĠA b
ĠWh ite
i um
l ess
ij ing
Ġe leph
Ġsm all
Ġmil es
le v
ol ution
Ġst and
ong do
Ġtr ad
A l
ĠC ent
Ġother s
Ġnegot i
Ġth ird
Ġe mer
Ġst op
Ġpro f
B an
I f
t i
ren ch
e ks
Ġf ail
Ġto wn
ak er
Ġj oin
ound ed
Ġcomp le
Ġact iv
Ġ ``
ĠP ress
Ġse x
iel d
ra w
ĠW eb
ond on
Ġh ist
Ġle t
li ament
Ġd ist
um p
Ġiss ue
h d
Ġthe se
ĠC ar
Ġ1 8
Ġcont rol
Ġh ouse
Ġd en
w art
Ġwe eks
ĠUn iversity
G lo
W omen
et y
Ġv ide
ut es
ĠRep ublic
i ver
id es
ĠB oy
Ġagre ement
ĠGe or
Ġor ph
Ġal ong
i ence
Ġac ross
ĠSt ate
Ġwork ers
Ġforec asters
re en
Ġth wart
Ġdec ision
ĠJapan ese
y ing
id ence
Ġsh ort
p le
ak ers
ĠMcC ain
y ong
Ġw ater
ri ed
ron t
Ġpr ison
Ġstr ong
Ġfil m
Ġe ach
P resident
Ġcon v
l im
Ġc age
ess ion
Ġrele ase
Ġl and
ĠGer man
Ġorph an
5 0
Ġd r
Ġ5 0
Ġserv ants
as es
Ġnear ly
Ġf und
ĠR e
c l
c il
Ġbec ome
Ġarrest ed
ĠPal estin
Ġv o
ĠR oh
lo od
Ġdisc uss
Ġorphan age
ĠBe ijing
Ġp ay
ĠM ay
ra in
ric t
Ġbr unt
Ġp ric
Ġto ur
F lying
ic es
Ġcur rent
K enya
Ġkn own
Ġtra in
O N
b earing
ĠIs lam
Ġinter view
Ġclim at
L iving
S usan
Ġm od
ake y
ĠBoy le
D raft
S ongdo
Ġst ep
her s
Ġmeet in
Â¡Â¯ ...
ĠAm a
Fl akey
Ġeleph a
Glo ve
y ang
ĠCh rist
Ġs om
Ġin st
Ġd am
Ġn ort
Ġw oman
al es
ĠT imes
ain ed
f or
Ġre al
a ul
u ary
ed eral
Ġc oun
Ġp a
Ġvot e
ĠDep artment
Ġt echn
Ġl arg
Ġto day
Ġse en
Ġweap ons
Ġf ace
Ġimp ort
ĠBar ack
Ġm id
ĠG en
ous ands
Ġs im
Ġg ive
Ġc lear
itt ee
F or
Ġ es
ce pt
ag hd
Ġk id
tern et
ĠL ondon
a e
Ġc are
Ġf act
ĠB l
Ġen v
med iate
aghd ad
ical ly
Ġfin al
Ġ ed
Ġint e
ff ic
alif orn
ĠA ir
Ġcon ference
b ass
ial ly
Ġtak ing
Ġc ost
Ġo ld
ĠH ill
Ġcr is
Ġsold iers
aliforn ia
Ġadd ed
Ġviol ence
ĠS c
Ġg ir
Ġm et
Ġ1 00
A f
Ġm ight
le y
ĠF rench
Ġdem and
ĠP e
" "
Ġfor m
Ġle vel
Ġagre ed
Ġglo bal
S t
ress ed
ĠEurop ean
Ġpric es
c o
Ġa v
ag ed
es tern
Ġb ody
re et
Ġrel ations
Ġw ent
Ġm aking
ĠB aghdad
Ġpoin ts
Ġg as
Ġp at
Ġe as
Ġ1 3
Ġmilit ants
Ġas ked
ab or
Ġkill ing
ru g
itt le
Ġfollow ing
ĠJan uary
av y
und red
Ġf riend
Ġim mediate
Ġalleg ed
Ġ1 6
ĠJ u
Ġex ecut
Ġt rying
Ġa p
Ġf ood
ra b
ĠP ro
Ġ ident
Ġg ot
ly mp
Ġke y
Ġre b
yong yang
Ġcris is
Ġpart ic
Ġr ights
Ġad ministration
Ġnews p
ore d
ard s
u ge
Ġb oy
Ġsp ace
ĠO lymp
Ġme as
Ġapp ear
Ġb ar
Ġl arge
Ġe ight
Ġstud ents
Ġa ut
Ġb att
Ġor ganiz
ord er
Ġsout hern
m ost
Ġh ard
Ġinform ation
Ġt arg
ĠP h
ect ion
i am
r up
s c
ĠC alifornia
' ve
p ite
Ġsu gg
Ġout side
ĠIn ternational
ĠIn ternet
o ff
Ġhe re
Ġch ange
Ġh ig
ĠSec retary
Ġwork ing
Ġl ess
ul ation
Ġpro p
Ġpro cess
Ġpar liament
in c
Ġ4 0
Ġ200 6
ove red
Ġest im
Ġcharg es
at ic
Ġsh ot
Ġvict im
Ġt ax
ĠC ong
ore ign
Ġ1 4
it ions
l om
ĠD ec
Ġinvestig ation
P olice
l or
Ġm ust
a ff
r act
Ġl ist
Ġm us
ĠS ept
ĠP ar
Ġsu cc
Ġdis p
he st
Ġl at
ĠRuss ia
a pp
Ġw rit
ĠM y
ĠT ur
O ne
Ġne ver
Ġstud y
our n
Ġs ide
Ġacc used
Ġprov ince
Ġposs ible
Ġl ed
Ġst ar
ĠG az
Ġgroup s
l ish
m ing
o le
ac hed
ĠJ une
Ġcompan ies
Ġbelie ve
s elf
Ġf ur
Ġquest ion
Ġf all
ĠC on
A S
Ġa head
iv en
Ġm at
Ġinte rest
Ġto ward
Ġse ven
Ġlarg est
B C
Ġto o
Ġl ow
Ġt ell
Ġb ill
re w
Ġo cc
Ġp riv
Ġm ass
ĠP yongyang
Ġcrit ic
g ress
Ġf ut
ay s
Ġl ot
Ġ" "
in al
Ġn ame
Ġd ri
ĠA t
Ġy oung
Ġs ing
Ġg un
Ġj ud
Ġdirect or
Ġresp ons
ĠIsrael i
Ġvide o
Ġsucc ess
w h
Ġh ot
ĠJu ly
Ġt imes
Ġwith in
Ġar t
Ġshow ed
ĠFran ce
Ġbre ak
Ġd est
ur ch
ĠD av
Ġdec l
ĠAssoci ated
Ġl ittle
ĠI l
z e
as ter
Ġlat est
a f
ul ts
Af ter
ĠH am
ĠBrit ain
ĠMar ch
n ow
er ation
Ġf ell
) ,
c rib
igh b
ip lom
Ġte lev
Ġweek end
S ome
ir on
Ġor d
Ġ19 8
id a
Ġind ic
Ġem p
H ow
Ġth ousands
row n
Ġ ri
Ġrep orters
Ġcontin ue
Ġelect ions
ĠSept ember
h y
r ing
ed a
Ġd ue
ĠH ar
ident s
Ġsu ff
Ġcent ral
Ġs outh
an n
ra f
th ing
Ġserv ice
du ction
Ġbuild ing
Ġprev ious
ĠAmeric a
1 2
er n
Ġev ent
undred s
Ġg ame
ot t
Ġst e
Ġsc ient
Ġcandid ate
f orm
Ë Ŀ
Ġro ad
Ġph ot
ĠEng land
Ġsen ior
m on
o ver
ak es
Ġne ighb
way s
u ation
Ġt reat
Ġn omin
Ġpolic y
ic ide
em b
ĠEurop e
an e
ib ility
Ġmin utes
ourn al
Ġg reat
ur g
ĠM us
Ġ2 5
Ġfur ther
ĠA d
ud e
Ġemer gency
a eda
t ion
Ġc oll
Ġgen eral
ĠGaz a
1 0
ad a
Ġbet ter
Ġbr ing
Ġeff orts
r un
Ġde leg
on st
Ġre ally
Ġst ation
Ġcomm it
g ing
ar i
ac ed
Ġfor ce
ĠG u
Ġman ag
Ġpr ime
Ġcons id
stit ution
Ġc ust
Ġd iplom
um b
Ġch ang
Ġconfir med
Ġbe gin
ĠT r
Ġsh ut
ep end
Ġspec ial
l er
Ġw ind
Ġen g
w an
Ġr ace
Ġde ter
ĠF oreign
Ġimport ant
as ing
Ġmem ber
ĠPalestin ian
ĠA P
ĠI tal
S outh
Ġd rug
Ġl ost
Ġ1 7
Ġnort hern
Ġf ront
Ġproble ms
ĠCong ress
ĠDec ember
Ġan im
Ġsc hed
Ġvict ory
d s
Ġl ive
Ġdes ign
ĠAn g
Ġrul ing
w oman
ĠB ank
ag o
Ġ &
Ġab le
Ġtarg et
m ber
Ġf ather
ut y
ĠG r
ad es
air man
Ġro le
Ġpoin t
Ġfut ure
i et
Ġn et
Ġr is
ef ense
Ġstart ed
pr il
d le
Ġb order
Ġn orth
ag ue
Ġtr ade
Ġbeh ind
Ġemp loy
Ġpro duc
ĠW ar
Ġus ing
Ġact ion
Ġindust ry
b ab
Ġ ide
ĠF or
ke y
Ġgr ound
th ough
ove mber
Ġve h
Ġd oll
Ġm other
il i
o z
ve y
Ġr ound
ĠF eb
an ces
Ġc ell
Ġan ti
Ġst ay
Ġse ason
Ġpol l
Ġhom es
en ing
Ġf oot
Ġan al
ĠA ug
Ġor der
b o
Ġ X
Ġwh ose
Ġ2 4
Ġexpl os
art icle
ĠO ct
Ġinj ured
Ġinvol ved
W hen
i ber
Ġf re
Ġst orm
Ġpr im
Ġbro ad
Ġhist ory
or ing
Ġb ook
Ġm ess
Ġe qu
ĠAmeric ans
ĠGeor ge
m ar
u le
er t
Ġf ull
and er
ĠN ovember
pp ing
Ġen ough
fe rent
ĠC ourt
res ent
ĠC o
Ġcom ing
Ġcomp ut
' m
m akers
Ġl ine
ĠA pril
Ġha ving
Ġsu icide
Ġnewsp aper
e es
ar ter
p ar
re ad
ĠP en
ru ction
Ġdes crib
Ġr ad
ition al
Ġcent er
Ġser ious
ĠQ aeda
Ġincre ase
Ġgir l
iron ment
Ġw ounded
Ġf ig
Ġhe art
Ġ er
Ġal most
Ġins ide
Ġvi ew
Ġg iven
ĠC or
os ing
H is
ĠC ity
Ġ âĢľ
Ġsugg est
h am
ĠA rab
ap e
Ġdif ferent
Ġ200 5
it ive
Ġcom es
Ġr ate
Ġsh ip
U n
Ġcons um
Ġplan e
Ġfe el
Ġser ies
Ġw ants
Ġ6 0
Ġdem onst
Ġbelie ved
Ġt urn
Ġc red
ar raf
Ġp ub
ĠT V
ial s
qu e
ush arraf
ĠDav id
Ġon ce
Ġde v
ĠRuss ian
ĠAug ust
y o
Ġs earch
er tain
Ġdis e
Ġ âĢĿ
Ġ200 4
Ġso on
Ġsour ces
A T
er gy
Ġc row
Ġb ased
Ġm ag
id ing
le t
ĠO r
Ġlead ing
Ġcon duct
Ġare as
Ġcl ass
Ġro ck
Ġdid n
Ġpriv ate
Ġtelev ision
w ide
Ġto get
Ġtoget her
Ġth ought
ĠC he
am b
d own
Ġcomp et
ĠAs ia
Ġind epend
A b
c hers
us es
og ra
il leg
ĠE ast
ĠSec urity
Ġd iv
a rent
us ing
ĠW e
ru ary
Ġd oc
Ġch ar
le b
ul ed
ap s
Ġcou ple
g est
he re
Ġe ver
Ġproble m
Ġappe ared
N orth
ĠS a
ver age
ru ct
Ġannoun ce
l ished
y e
Ġl oss
w ork
at ives
ĠP ark
ell ig
3 0
Ġf uel
Ġg ave
Ġgo al
av ing
Ġev idence
Ġlook ing
ĠRepublic an
ĠOct ober
. ,
b ased
Ġ illeg
Ġw al
ĠC oun
Ġvictim s
b and
Ġ z
Ġt urned
Ġw ife
Ġc our
Ġre act
Ġis land
Ġcom b
Ġco ast
ecut ors
augh ter
A cc
W ith
d e
Ġa im
ĠS an
ra z
Ġ200 8
Ġcall s
Ġprot est
Ġtri ed
eth ing
Ġfight ing
Ġst ates
Ġimmediate ly
at ure
Ġp en
Ġn ations
Ġplan ned
ĠCent er
re me
Ġb ur
Ġin it
Ġsh oot
ĠKore ans
Ġse ek
Ġag e
ĠFeb ruary
Ġf ederal
Ġwith d
Ġj ail
Ġam id
Ġspokes woman
Ġwant ed
ar m
) .
M ore
O bama
Ġres earch
Ġar ri
ĠAustral ia
ĠAng el
Ġst re
Ġy et
Ġv ol
Ġen ergy
Ġsit uation
Ġrece ived
ĠCoun cil
t le
Ġre v
Ġres ign
Ġbl ack
Ġmark ets
c y
u k
y l
ud d
Ġfl ight
Ġinclud e
Ġmed ical
Ġtri p
Ġdet ail
c hes
t ime
Ġs on
Ġs ell
Ġon line
Ġinc ident
Ġro om
e ad
ot s
ot ed
ear s
ĠR es
Ġres c
Ġres ults
Ġdo ct
er ve
Ġd ro
ĠM an
oin t
Ġdes pite
b all
it iz
Ġmov ie
or ney
Ġp o
du ce
Ġcre w
it z
Ġh undreds
st and
How ever
N G
ay ed
Ġse em
Ġdeath s
ĠInd ia
Ġdoc u
f er
Ġb en
Ġca used
Ġnegoti ations
Acc ording
' ll
Ġsa w
ĠP aul
Ġj ournal
Ġsur v
Ġsom ething
Ġatt emp
o e
p ect
Ġ riv
Ġc ause
Ġf oc
Ġch all
Ġrecent ly
T wo
it her
Ġm om
Ġre ach
ĠN ations
ang er
Ġbig gest
o id
es ters
ĠS up
r is
Ġt ry
Ġto tal
ĠD efense
Ġget ting
ellig ence
an y
Ġm ur
as k
Ġl o
ĠF lor
Ġdo ing
f ic
Ġth ough
ĠC up
ack ed
Ġiss ues
Ġclaim ed
g u
Ġdec ided
Ġqu ick
eb an
Ġair port
Ġsum mit
Ġvo ters
p ec
Ġm ot
ch ange
Ġco al
Ġmus ic
Ġsched uled
y n
Ġv al
Ġlaw y
a ut
Ġs ol
Ġs oc
Ġl ives
Ġcon st
ĠU N
Ġv ill
Ġbec ame
Ġcharg ed
Ġce leb
Ġdest ro
in t
Ġp ort
ic o
ĠSen ate
ĠIslam ic
Ġdise ase
il ed
ad or
ĠM usharraf
Ġenv ironment
Ġp ot
el t
Ġcl osed
Ġpress ure
ĠFlor ida
em pt
ul a
Ġn ine
ĠA gency
if y
Ġ200 3
Ġprov ide
o f
Ġs qu
ain s
ok yo
ren ts
ib et
Ġcap t
Ġneed ed
Wh ile
n ot
Ġt it
Ġb id
ur al
od e
Ġar my
ĠNew s
Ġph one
Ġstri ke
Ġw a
or ies
ĠW est
all ed
Ġeff ect
ĠOlymp ic
Ġc ross
it ness
Ġimp ro
Ġpop ular
hy un
emb ly
Ġl ight
am s
Ġ2 2
Ġch o
Ġgrow th
z z
Ġh ur
h u
s el
Ġw at
ic ted
ĠC l
ĠT e
Ġ2 7
Ġdo z
rough t
Ġsupp orters
ĠGerman y
Ġes c
re l
Ġrep l
Ġiss ued
Ġmiss ion
Ġfail ed
Ġre ached
Ġres ult
Ġexp ect
ĠUn ion
ĠAn d
Ġinf l
, ''
Ġ _
Ġt y
Ġapp arent
ĠCor p
Ġs an
Ġc itiz
Ġp ri
Ġv ir
Ġprot ect
Ġgrow ing
Ġlaun ched
Ġkid na
T o
c el
Ġh ol
om ing
ĠAfric a
an a
Ġoff er
ian a
m en
n i
at a
Ġwar ned
S e
Ġre ad
Ġl ower
Ġk ind
Ġse par
ound ing
Ġeff ort
Ġmiss ing
ar ian
Ġk il
Ġwar ning
Ġter m
ex as
Ġd one
ent ial
ro s
Ġhe avy
Ġ2 1
Ġ2 3
Ġpr ice
Ġcond ition
Ġscient ists
ĠMus lim
A P
i res
o is
Ġf av
Ġp red
ĠIn ter
Ġadd ress
mit ted
Ġrequ est
Ġm ount
Ġn amed
Ġl in
Ġfor ced
ound s
Ġ200 7
Ġprot esters
Ġspe ech
Ġprev ent
Ġs at
Ġb all
il ar
ĠM oo
amp ions
Ġmin istry
Ġhop e
i od
Ġl im
Ġw atch
en n
am er
ĠE x
ĠE ar
Ġme an
ark oz
ai wan
Ġdam age
Ġanal yst
Ġb ab
ĠG o
lect ion
Ġe l
ĠT exas
ab in
emoc r
air s
Ġcoun ter
Ġs ales
Ġb ad
Ġb ase
al ity
ĠM ex
ĠL eban
arkoz y
Ġd aughter
ĠC an
Ġpro ject
Ġcom ment
Ġsh are
ud i
Ġlaw makers
Ġhig her
Ġp ain
om p
ill iam
ear chers
Ġqu arter
Ġop ened
ĠAs ian
ct ions
Ġpart ies
Ġcontin ued
ĠHam as
S h
c ast
Ġof ten
Ġd anger
Ġhim self
Ġtechn ology
Ġexecut ive
Ġestim ated
Ġh on
Ġn ec
um e
ĠE m
Ġpol ls
ens ive
Ġshow s
ward s
ĠComm ittee
fic ult
Ġdestro y
Ġpro duction
Ġr an
ort un
Ġcons erv
Ġprogram s
Ġmeas ures
emocr acy
on a
Ġth ings
ir c
ĠK y
ĠT ibet
Ġde ep
ĠE d
Ġrep resent
Ġ19 7
Ġprot ests
Ġresp ond
Ġsum mer
p ed
Ġb ri
Ġm atch
Ġsu per
ail y
Ġs end
Ġb rought
Ġm ater
ĠM ed
Ġal ways
Ġle ave
iv al
Ġoffic ers
Ġen c
ĠSh i
Ġtri al
Y ou
Ġt w
al ed
ĠS er
Ġper iod
Ġlet ter
a ur
Ġhost ages
Ġcommun ity
Ġcomple te
Ġden ied
Ġb as
Ġre d
ac es
us band
ess or
vern ment
Ġcont ro
Ġoper ation
Ġarri ved
5 00
A N
a res
g es
Ġf ield
Ġst ock
oc ks
Ġpl ed
Ġdif ficult
wh ile
I s
Ġf lood
Ġst ory
Ġch airman
Ġpres ent
Ġris k
I D
Ġp os
ĠT okyo
Ġres olution
Ġcar s
Ġdescrib ed
Ġa verage
il t
ur ies
ĠM id
ĠK ar
Ġacc ess
Ġtal k
AT O
Ġcoal ition
j ected
al d
ate ly
ĠH ol
Ġsp ent
Â¡Â °
Ġcivil ians
Ġbatt le
p ro
w are
ar ks
ĠM ad
igh ters
Ġra ised
Ġrun ning
Ġident ified
Ġpub lished
E ar
n ers
r ong
v an
ĠM os
Ġbo ard
Ġce rem
B ush
m a
Ġh ous
Ġg l
ĠK ing
Ġdis app
Ġpa rents
Ġsim ilar
Ġcrow d
ĠAngel es
h ut
h old
Ġf un
ĠS w
ĠL os
Ġcred it
h ing
in ation
Ġc le
ot e
Ġor ig
ĠSt e
ĠV ir
lin ois
Ġserv ices
ober t
ĠPar is
u f
Ġa st
Ġbe at
ut in
ut ed
Ġme ans
Ġur ged
ĠAustral ian
Ġmess age
A ll
Ġp ict
ro ad
Ġdo g
Ġdef ense
stit ute
Ġdevelop ment
y m
Ġt re
as hed
ru gg
Ġinclud ed
Ġsm ok
Ġmajor ity
Ġm ill
Ġh usband
Ġres idents
Ġord ered
Ġilleg al
N o
Ġc ases
Ġre n
ĠT aiwan
Ġoffic er
Ġ200 2
enc es
Ġem b
Ġincre asing
Ġconcer ns
he ast
il ies
Ġcar rying
Ġsur vey
Ġlaw s
ĠIran ian
ĠAr my
Ġcond itions
ĠLe ague
ĠHill ary
raz il
Ġf le
Ġp osition
il es
Ġn on
Ġr ule
ĠEng lish
Ġbri ef
is l
Ġst rugg
Ġdis m
Ġpartic ip
A meric
ĠA ll
Ġst aff
ian t
Ġwor st
Ġsusp ected
Ġfollow ed
Wh at
Ġexper ts
Ġorganiz ation
n oon
Ġh uge
ĠD e
riv ing
Ġp an
Ġp le
ĠS ch
ian ce
wo od
Ġsc ene
Ġcommun ist
Ġpop ulation
Ġcour se
Ġw ide
Ġp ush
Ġcomp l
Ġjob s
Ġprim ary
abin et
Ġc ertain
Ġp ack
Ġafter noon
ĠSt reet
Ġcall ing
ĠAssoci ation
ĠCol omb
hut to
Ġb lood
Ġl if
Ġl iving
ĠC ount
ail able
Ġcar ried
Ġplay ed
Ġfam ilies
Ġref used
Ġneed s
Ġlaun ch
Ġt ens
er c
Ġc ult
ar a
ic ago
ion al
Ġst ore
Ġdoes n
go ing
m ad
Ġt rou
at ory
Ġf ans
ĠS erv
Ġsa fe
ĠI t
Ġbu y
ĠComm ission
Ġkil ome
M al
Ġl abor
ĠS m
Ġg ra
ir th
Ġr ise
Ġatt empt
Ġtr ack
enc ed
Ġend ed
Ġret urned
Ġdep loy
Ġdeb ate
bass y
Ab out
L ast
c he
in ary
le ment
ec e
ĠB ur
Ġcom ments
od ies
Ġexp ressed
Ġear th
ĠPakistan i
Ġocc ur
Ġhot el
ĠGr and
Ġwithd raw
an mar
ĠS y
Ġpro per
Ġcomm ittee
Ġmiss ile
eng ers
ĠGen eral
Ġstre ets
ĠVir gin
Ġ ver
Ġr out
ĠR ich
Ġmat ter
l ant
Ġp ark
em y
ĠR ice
ĠE l
Ġhow ever
Ġcol le
Ġnomin ation
Ġcomput er
ogra ph
Ġsan ctions
h ood
ar ies
ou d
Ġfor ward
ĠK h
ĠD ow
Ġle ar
Ġle aving
Ġbro ke
Ġclaim s
Ġallow ed
Ġactiv ities
Ġjud ge
ĠIl linois
A R
J apan
Ġ /
ri al
ric k
Ġref orm
Ġsit es
Ġcandid ates
Ġav ailable
Ġcitiz ens
on se
if f
Ġex c
Ġint elligence
Ġ( $
Ġleg al
Ġsour ce
bass ador
Ġeas tern
Ġdeleg ates
Ġfav or
1 1
ec ution
Ġwh ite
Ġcl ub
Ġatt orney
Ġcr ime
Ġsur r
Ġhelp ed
c ome
Ġb odies
Ġpar ts
Ch ina
Ġhop es
Ġrelations hip
er ry
ĠM or
ĠR ed
ĠR obert
istan ce
Ġsign ed
p arty
Ġf ired
Ġp il
Ġwh y
Ġres ol
Ġacc ident
av es
Ġcust om
Ġcontro vers
i ents
Ġf em
Ġb it
Ġb irth
ĠS he
ist ic
ĠF ed
Ġ5 00
Ġaut om
ĠEar th
b ed
Ġp ul
ad d
Ġpro gress
ik i
Ġdetail s
Ġa ud
il ities
Ġsa f
Ġst age
ce ed
Ġr ally
Ġsp read
Ġsu re
Ġac cept
Ġsec retary
Ġcr ash
Ġfe et
p ted
Ġre ady
Ġcl os
Ġacc ount
Ġplay ers
Ġdisc overed
Ġben ef
S en
Ġs ect
an i
Ġh ands
Ġd ata
Ġn om
ow s
ĠN ATO
oy al
Ġstr uck
atur al
Ġjoin t
Ġannounce ment
Ġmur der
sel ves
8 2
w a
al t
ri a
ist ed
Ġwork ed
Ġopen ing
ĠTur key
Ġkilome ters
e g
r ac
Ġc ities
Ġch ance
Ġthem selves
Ġfour th
ĠCar ol
Ġmill ions
h ouse
Ġm akes
ĠM ic
ĠP olice
ĠW illiam
ab ility
Ġqu oted
Ġpass ed
Ġconcer n
rup tion
Ġsaf ety
b it
Ġcont ract
ĠDemocrat s
ĠInd ones
ins ula
Ġleg isl
Ġnom ine
r ay
er ate
ic les
Ġn orm
Ġal though
Ġcon c
Ġch arge
lin es
ĠAss embly
Ġban ks
Ġfund s
Ġpartic ular
Ġnet work
Ġriv al
, âĢĿ
j ects
Ġs n
Ġm ult
res p
Ġterror ist
Ġche ck
Ġmom ent
S o
b s
v al
Ġt ur
Ġc al
Ġm ob
Ġth ing
ĠB r
Ġ2 9
Ġwor th
iz ing
Ġ19 6
Ġoper ations
ific ation
bab ly
pec ially
S p
e lect
Ġe ither
ĠS arkozy
ĠB rown
Ġ2 6
Ġed uc
g en
u ro
Ġ [
Ġ ill
Ġd raw
Ġre ason
Ġsp ending
olog ical
Ġcre ate
Ġsuff ered
Ġfre ed
U S
Ġs le
Ġw itness
it ude
al a
ate g
ĠO ff
Ġim m
Ġresp onse
Ġsl ow
Ġgr and
Ġbro ther
e y
w in
ra ge
ĠP ol
Ġrep e
ĠCh ung
Ġte en
Ġbl ast
Ġlong er
Ġpass engers
AS A
Ġsoc ial
ĠMex ico
Ear lier
t t
an ish
ar p
iz ation
Ġdec ades
Ġcou p
ĠShi ite
Ġcerem ony
a o
ĠS u
am in
op e
ĠD ay
ap ers
ĠO h
ĠCh icago
Ġsur pr
Ġsign ific
Ġremain s
Ġdestroy ed
A m
I NG
m ark
re g
al ing
ĠN o
pp le
Ġmov ed
gy pt
Ġest ab
Ġpa id
N P
d ing
ĠD r
Ġcan not
Ġincre ased
ĠMy anmar
B A
N A
Ġun c
Ġany thing
Ġev ac
Ġdecl ared
Ġide a
Ġaim ed
Ġquick ly
ĠOff ice
M ean
k y
Ġc reat
as tern
ent ly
im p
ĠM oh
ĠB razil
Ġpro bably
Ġnot hing
Ġab ove
Ġins urg
Ġfe at
ĠHe alth
Ġlevel s
Ġneighb or
Ġtreat ment
M any
Ġc irc
is ters
ol f
ĠW all
ĠMid dle
ĠCount y
Ġp un
ĠM al
Ġv ice
ov ed
Ġco ver
Ġinj uries
Ġtrad ing
Ġrad io
2 2
k ish
he l
Ġd rop
Ġ2 8
Ġsp ot
Ġse a
Ġ200 1
eral d
Ġref uge
Ġcommun ic
Ġhold ing
Ġstep s
Ġdiplom atic
Ġpot ential
a ult
l ight
l ike
ĠM il
Ġ7 0
Ġfriend s
f riend
u it
Ġc amer
Ġra in
Ġann ual
N ow
u ing
ro om
Ġg ames
Ġhe lic
ĠK en
Ġra re
Ġperson al
augh t
Ġreb els
Ġsing le
Ġmanag er
Mal iki
Ġfem ale
Mean while
Ġhelic op
O ffic
Ġf r
pp er
Ġunder stand
Ġplay ing
s y
ro te
ĠB en
ak s
Ġcon n
Ġro se
uthor ities
Ġresp ect
Ġadv is
Ġsex ual
Ġlawy er
Ġ 0
Ġm is
ĠI I
ĠU K
oc ked
Ġover se
Ġatt ention
Ġcomm ander
Ġdou b
Ġpost ed
Ġprof essor
hu a
Ġinfl u
B e
v est
ĠM ark
Ġk ept
ĠE gypt
ide red
Ġres earchers
Ġper for
Ġadd ing
Ġter rit
Ġdist rict
Ġchang es
Ġveh icle
Ġresc ue
T A
c ing
c ient
w est
us hed
Ġcomm ission
Ġhist or
Ġcurrent ly
Ġhig hest
Ġemploy ees
ĠCarol ina
r s
re am
Ġb ail
Ġd ate
Ġn atural
Ġhe ar
Ġv ac
ĠH y
Ġcr im
Ġinvest ment
ful ly
Ġdet ained
Ġschool s
Ġquest ions
ĠItal ian
c raft
m aker
Ġw el
it er
Ġd i
ec k
ĠB hutto
op p
Ġcon stitution
Ġr ising
Ġph ys
Ġtrans fer
Ġcor p
Ġpros ecutors
Ġrespons ible
Ġnec ess
Ġs ession
ad ed
Ġg iving
ive ly
qu ar
ĠCh ar
Ġdis pl
Ġcomm on
Ġcons idered
Ġes pecially
Ġeng ine
ĠItal y
Â ł
Ġb rain
Ġro b
Ġimp act
Ġworld wide
Ġnum bers
Ġterror ism
Ġdro pped
Ġceleb r
Ġsat ell
ĠSm ith
B rit
Ġs ides
ĠA h
Ġcom mer
Ġpl ant
ĠO p
ren g
Ġind ex
Ġ8 0
ĠVirgin ia
Ġw ild
Ġp ur
Ġto ll
Ġbe g
ĠP at
lin ed
Ġadd itional
ĠInd ian
ger y
Ġhapp ened
ĠSa udi
Ġtit le
2 5
p ir
it or
Ġre view
ĠM e
ĠB ut
ĠG roup
Ġ3 1
Ġ3 5
Ġmain tain
Ġ9 0
Ġappro ved
ĠAb d
Ġwrit ten
Ġconsid er
Ġdoll ars
Ġpo or
b an
b ack
n el
Ġre ve
Ġl ack
Ġl ove
ig er
Ġoff ered
Ġj ump
Ġ200 0
oci ety
Ġmass ive
Ġchar ac
Ġshoot ing
Ġsignific ant
4 0
k en
o x
et t
Ġhe aring
ĠW estern
Ġso ft
Ġperfor man
ve re
Ġde fe
ĠCh ief
ip s
Ġact ually
Ġreg ul
Ġrem arks
Ġeven ing
Ġalleg ations
Ġthreat ened
Ġanim als
Ġseek ing
yl van
. -
D A
E O
m ine
Ġs ens
ĠB er
Ġwe ak
ĠD ae
ang u
Â¡Â ±
Ġob s
ns ylvan
Ġchall en
Ġearth qu
. ''
k es
u an
is co
Ġg reen
Ġwh om
Ġex change
og n
Ġnear by
Ġsusp ended
Ġser ve
ĠGeor g
Ġcost s
Ġcritic ized
Ġrespons ibility
uf act
Ġast ron
A uthorities
P e
o ard
er y
Ġc op
al i
Ġd om
le x
ly wood
Ġst reng
Ġhe ard
ĠO sc
Ġad mitted
use um
Ġsome one
Ġcr ack
ave z
Ġalleged ly
ĠRich ard
b ody
ene z
y an
Ġ vers
in hua
ic ked
Ġab s
Ġgovern or
An other
pt ion
ĠAt lant
Ġveh icles
Ġcomb at
nsylvan ia
D uring
H er
b re
Ġw rote
Ġh ar
ow ed
ĠP ort
ĠK ur
iv id
Ġatt end
Ġcan cer
Ġter ms
mon th
Ġdoll ar
Ġdoct ors
Ġhol id
Ġbab y
N ew
O R
Ġp urs
ra p
ul f
ib ly
Ġsec ret
oin ted
Ġsusp ect
Ġrul es
Ġcond em
Ġconst ruction
g ent
Ġt emp
or ter
ro so
ĠJ o
ap ed
ail and
Ġop t
Ġair craft
Ġbo ost
Ġbuild ings
Ġcrit ical
Ġtrain ing
B I
b as
at he
Ġf lo
is es
ac ific
ĠC abinet
ra g
ĠJ ones
Ġcont act
Ġfar m
Ġcor ruption
Ġconv icted
M ost
N E
h ib
Ġe th
ill ed
res h
Ġfir m
ĠIn stitute
Ġman ufact
Ġact or
Ġopp ortun
Ġav oid
Is rael
R es
m ail
Ġt ies
in o
Ġs now
id er
Ġe p
ad o
Ġg iant
Ġst ra
Ġsh arp
um an
Ġinclud es
Ġev ents
ĠSh ar
Ġevery thing
Ġenv oy
Ġfig ures
Ġapparent ly
Ġoccur red
k er
o very
Ġl ab
ĠP utin
ag on
Ġr ather
ĠD ar
Ġsur gery
anc y
ĠSh in
Ġmov ing
ĠOlymp ics
Ġproduc ts
ĠPen nsylvania
Ġconduct ed
ĠSup reme
D es
c ow
Ġt ests
Ġc as
it ch
Ġb i
Ġre jected
Ġco op
Ġsusp ects
Ġext ra
Ġ& #
Ġfig ure
sy ch
enez uel
8 0
O ther
d en
r ight
u ff
on ed
Ġd aily
Ġg old
ĠC ub
Ġits elf
Ġar med
Ġper form
Ġcont ain
Ġwin ning
Ġcommit ted
82 12
Ġc ard
end er
Ġrel ig
ĠSp ain
Ġremain ed
Ġprison ers
Ġcare er
Ġprop osed
Ġdisp ute
Ġmater ial
Ġinsurg ents
Ġcommer c
h i
Ġp ick
Ġb ul
ĠM ac
Ġint ro
Ġ3 00
Ġelect ric
Ġpolit ic
Ġsign s
Ġinvol ving
Ġsen ator
ĠCent ral
Ġinst ead
ĠTur kish
Ġcust ody
Ġdemonst r
Ġmag az
l ong
Ġ ice
Ġw estern
Ġp aper
ĠB ill
Ġsh own
Ġch urch
Ġar m
Ġen s
Ġadd ition
Ġstart ing
Ġvisit ors
Ġmar ri
Ġbegin ning
Ġsuggest ed
Ġnomine e
ĠOh io
Offic ials
i ece
in ed
Ġad op
Ġattack ed
Ġbu ilt
Ġgen er
Ġpros ecution
Ġconfir m
Ġprevious ly
resp ond
Ġrepe ated
I A
s p
Ġf ighters
as ts
ut ers
est ic
Ġor gan
Ġcomm and
Ġreg ard
Ġwin ner
Ġvot es
Ġleaders hip
Ġcre ated
for ce
Ġap olog
Ġbroad cast
Ġmount ain
y le
it es
Ġb ott
ĠM iss
ĠJ e
ĠF in
ren cy
Ġar ms
Ġra id
Ġtrans port
Ġsent ence
ĠServ ice
Ġf at
Ġb ird
Ġd riving
ĠN ic
Ġam bassador
ĠIs land
Ġmed ic
Ġconf lic
Ġmove ment
Ġprop os
now led
Ġimpro ve
Americ an
Ġsle ep
B oth
c at
f ire
as ion
ĠS ing
ĠB an
Ġal b
ĠR on
ab e
ĠE U
ress ion
Ġ200 9
Ġsc and
Ġany one
Ġinvest ors
Ġstud ent
Ġdep uty
Ġparliament ary
Ġcritic ism
ĠHar ry
Ġexplos ion
. ËĿ
2 00
S ec
l ies
s w
Ġ Â
or ate
as p
il ing
ro g
ot ing
ĠM ary
if th
Ġro w
Ġfl ights
Ġreg ime
For mer
Ġfoc us
ĠGeorg ia
Ġ Â¡Â°
ol ic
ĠN ASA
ĠE lect
ber g
Ġall ies
Ġpr act
Ġtra ffic
Ġplan ning
Ġshow ing
Ġpat ients
Ġpan el
roso ft
e al
Ġs ize
Ġm ind
Ġh y
Ġr ates
ĠJ ames
Ġun f
Ġse ats
Ġres ume
Ġref er
Ġrul ed
Ġmeas ure
Ġenc ou
Ġearthqu ake
M c
Ġun ion
Ġwor ks
ĠV enezuel
Ġspok e
ĠSe a
ink ing
Ġplay er
Ġoper ating
ĠFor ce
Ġp ers
Ġan t
Ġre con
am med
ĠH erald
ĠJ ust
Ġsc reen
Ġpre c
ah oo
und ai
Ġtour ists
ĠX inhua
Ġreact or
Ġanalyst s
Ġdanger ous
Ġa ward
il ty
Ġn ames
Ġwe ather
ist ant
âĢ ¦
Ġme ters
ĠV al
Ġcar ry
Ġevery one
Ġfac es
Ġdeter min
Ġdocu ments
ĠInter ior
quar ters
Ġsatell ite
1 00
b ak
h our
Ġb lo
Ġm ort
Ġre duce
ol it
im bab
un ch
ot a
ĠT our
ĠH en
Ġte ac
Ġmin isters
Ġmeet ings
Ġbl amed
Ġcivil ian
Ġbomb ing
com ing
Ġaff ected
Al though
Ġdocu ment
Ġdoz ens
Ġcompl ain
Ġevac u
imbab we
1 9
g n
o es
re as
Ġc iting
oun ts
ĠL a
Ġte leph
Ġrec ogn
Ġass oci
Ġown er
Kore an
Ġmar ried
ĠPe ople
c oh
e en
k nowled
Ġs elf
le vel
Ġis n
ĠB ang
Ġse vere
Ġar ch
ĠSt ar
Ġcomp ared
ang ing
Ġind ivid
Ġra ise
Ġway s
Ġexper ience
ĠHol lywood
ĠP l
Ġwe aring
ĠU ri
ap t
Ġac knowled
Ġ3 7
enc ies
oin s
con t
Ġam ount
Ġmost ly
ĠPr ince
Ġpower ful
Ġrece ive
Ġbeh av
Ġdrug s
Ġpos itive
Ġpul led
Ġmagaz ine
I raq
Ġf ast
Ġf resh
Ġd ig
Ġd emocracy
ĠP er
Ġwas n
ul ated
Ġpro duct
ĠF ederal
Ġcont rib
Ġprov ided
Ġfil ed
Ġbomb s
ull ah
Ġmid dle
Ġlin ked
A r
f ect
n n
u gh
st on
ri an
ĠG h
Ġac ce
ĠTh ailand
Ġus ually
Ġmin or
Ġgu ilty
Ġindust rial
ĠPh il
ĠMy ung
Ġvill age
Ġnecess ary
' d
n am
Ġc at
Ġf ish
Ġp et
Ġto m
end s
ab ly
ĠCh ampions
ke ep
Ġpre m
âĢĿ .
Ġrel ated
Ġtro op
Ġdirect ly
rup t
Ġnorm al
Ġneighbor hood
Ġperforman ce
athe red
P r
Ġs al
Ġs un
Ġon going
ĠB BC
est ival
and a
ĠH aw
Ġwor ds
Ġtr ig
âĢĻ âĢĻ
Ġins pect
Ġsub st
Ġrest aur
Ġconcer ned
Ġpolic ies
Ġconsum er
ĠMos cow
Ġeduc ation
Ġcommerc ial
I S
S ince
T ON
Ġs ale
Ġs ought
Ġc ast
ic a
os es
ul ly
ĠO s
Ġam b
Ġreported ly
Ġsusp ic
Ġlook ed
Ġposs ibility
Ġmod el
Ġindepend ence
Ġhur t
i ro
l a
m as
r ich
Ġc aught
Ġe ast
ĠN ort
ĠD on
Ġse at
ric ane
Ġdec lined
rat ors
Ġcent ury
Ġdep artment
Ġdam aged
Ġholid ay
d og
Ã ı
in ion
Ġf ears
ar ry
Ġex ist
Ġpl aced
ĠO l
mer t
Ġtr uck
Ġrec omm
Ġhead quarters
Ġoverse as
Ġt ick
Ġc y
ar ation
ar ily
Ġp sych
ĠS ant
Ġas k
ch ie
ĠCh avez
Ġall iance
Ġbl ock
Ġvot ed
Ġremain ing
Ġterror ists
Ġstop ped
ĠPalestin ians
Ġsom et
ĠOp en
Ġdom estic
Ġmarri age
1 5
B S
B y
Ġf ear
ar ant
om ic
im ent
ĠA lex
ĠM ass
ĠD an
ab il
ĠY ong
Ġ4 5
Ġprom ised
Ġbo x
Ġfail ure
cl us
Un der
ĠLeban on
Ġcle an
ĠIndones ia
Ġs ym
ar ious
Ġl ines
ad en
ot al
Ġst reet
ver t
Ġgo es
Ġun d
Ġshe l
Ġelect ed
Ġbr id
ivers ary
ĠSp anish
Ġviol ent
Ġspe ed
Ġcomple x
inc ip
Ġdesign ed
E n
r ant
t ies
Ġa chie
as hes
ore s
ĠW in
ĠJ ong
ĠR oyal
Ġexp and
Ġpart ner
Ġmin ute
Ġsur f
Ġbel ow
Ġfam ous
ĠComm un
Ġregion al
Ġappe al
Ġjoin ed
Ġactiv ity
Ġshort ly
Ġcoll aps
Ġindepend ent
ĠRes earch
O S
f ort
t a
Ġst em
Ġal coh
ĠF BI
ap ore
se in
Ġmilit ant
Ġent ire
Ġspe ak
Ġappear s
Ġconsid ering
Ġenvironment al
Ġconserv ative
Ġconc lud
angu age
Pe ople
Des pite
Ġteleph one
E S
at ter
ing er
Ġl ay
ad r
Ġhe av
ĠM ot
ag ing
ap se
Ġrec ession
Ġjust ice
Ġhelp ing
Ġinvestig ating
Ġvot ing
ĠFran c
ĠAb bas
ON D
Ġpled ged
Ġcustom ers
Ġastron aut
Ġf elt
Ġp al
ic ks
ĠA c
ĠR o
ĠR iver
Ġun iversity
Ġwor d
Ġann iversary
olog ist
pe aking
Ġvo ice
Ġshut tle
G en
M y
P ro
d om
ad emy
Ġg ain
Ġg athered
ill s
ĠM ah
ak i
Ġrest rict
Ġsent enced
Ġinvol ve
Ġanim al
Ġloss es
Ġpack age
Ġcrim inal
Ġsoft ware
i en
u j
Ġt or
or ial
or row
Ġin n
ad ium
us al
ill a
Ġsh ares
Ġwill ing
Ġse ized
Ġim ages
Ġass ass
Ġtell s
itz er
Ġdism iss
ĠColomb ia
Ġstra ight
E R
L OND
b led
c an
n ight
y ond
Ġf ine
Ġm ist
ter m
The se
ig an
ir st
ra ud
ĠB ay
Ġsp l
In d
ov o
Ġra p
Ġtal king
Ġconf idence
Ġclim ate
ony m
Ġpeace ful
ĠChrist mas
Ġdri ve
ĠIl bo
ask a
Ġhon or
Ġtw ice
Ġparticular ly
Ġterrit ory
ĠKur d
LOND ON
/ /
c her
Ġs ending
Ġb and
Ġm os
Ġal one
op her
ĠH ow
ĠH igh
ĠL abor
Ġpre gn
ash ion
ĠSun ni
Ġspec ies
Ġcor respond
Ġrock et
Ġmot or
Ġwat ers
1 6
: //
C linton
r ad
Ġb ag
ĠS om
Ġg one
ĠM art
ĠP et
ce an
ĠT im
Ġpro duced
Ġv ess
ĠG re
Ġpl aces
ord on
Ġcr imes
ganiz ation
Ġtrad itional
Ġwind s
ili pp
Ġsurr ounding
tt p
Ġestab lish
Ġalb um
I ran
f ield
k n
Ġw rong
it ation
Ġp ow
ut ch
ut ions
am as
ĠP acific
Ġha ir
ĠG ames
Ġ3 6
Ġbec oming
Ġcr ude
Ġkn ew
Ġsupp ly
Ġins ur
Ġthrough out
ner gy
Ġfac ilities
Ġkid s
Ġlarge ly
Ġmob ile
E x
K im
c nn
i qu
Ġf ifth
il le
ol as
am m
Ġwe ight
Ġab and
Ġcan cel
Ġqu ake
Ġpr incip
Ġfl ag
ug abe
Ġpolit ics
ĠQ ue
Ġprep ared
Ġdel iver
Ġob ject
Ġpros ecut
Ġgir ls
ĠPe ter
Ġsuff ering
ING TON
ĠOsc ar
e in
h an
Ġb in
Ġto urn
ĠB as
ist rict
ĠG reen
Ġ3 2
ran ge
Ġbl ue
Ġspe aking
Ġforec ast
Ġfoot ball
Ġcontrovers ial
Ġcharac ter
F A
R uss
i que
Ġw all
en ger
Ġan sw
ĠM er
ir ac
Ġit em
em per
ĠE T
ĠE nergy
Ġcl in
Ġtr ue
ict ion
Ġpres ence
Ġfac ing
go vernment
Ġactiv ists
Ġdeter mine
Ġcho ice
zz a
Ġdoz en
Ġsmok e
Ġdefe at
h ttp
j oy
Ġt ight
Ġan g
ent agon
ĠC EO
Ġst ars
Ġas king
ĠG lo
Ġj et
Ġdead line
Ġdevelop ing
Ġhapp en
Ġmod ern
Ġmanag ement
Ġcompet ition
Ġhous es
Ġopportun ity
a id
h ran
k in
Ġf raud
as ons
Ġbe yond
ĠA ri
," "
ub e
Ġco ach
Ġcol lect
Ġappro ach
AS H
ĠOr ganization
Ġjournal ists
Ġf air
om a
ĠN ob
ĠU k
ĠG old
Ġact ions
Ġimp lement
Ġfore st
Ġcur rency
Ġdevelop ed
Ġtravel ing
Ġz one
Ġwa iting
Ġkidna pped
eck ham
Ġchallen ge
Ġcas ual
reas ury
c ode
h a
Ġ u
Ġl osing
ĠN or
Ġr ange
ud an
Ġun less
ĠE conom
Ġar g
Ġcont est
Ġdo or
Ġappro val
Ġhapp y
Ġdist rib
Ġbar rel
Ġcoll apse
Ġtarget ed
Ġpri or
Ġsepar ate
ĠLeban ese
Ġaud ience
ĠChar les
NE W
Ġscand al
Ġbehav ior
O ur
b on
n y
t own
he astern
Ġs we
it arian
Ġn ar
Ġg re
Ġon es
ĠA pple
ĠB el
Ġv arious
Ġsh r
ĠKore as
ĠCh o
Ġte xt
Ġserv ed
Ġset tle
Ġfil ms
feren ces
Ġcut s
hest er
Ġindic ated
Ġphot os
Ġinit ial
ĠSer b
ĠSte ve
Ġhelicop ter
E ven
G o
T otal
k o
n ic
he t
in ated
in als
Ġb orn
al ty
il ater
st er
ĠR ad
Ġpl ot
Ġwho le
og ue
Ġfin ish
Ġreg ular
Ġhead ed
Ġmiss iles
Ġbelie ves
Ġsold ier
Ġsystem s
Ġrequ ired
Ġdemand ing
Ġchang ed
Ġmag n
Ġorig inal
Ġincreasing ly
Ġalcoh ol
kn own
ASH INGTON
1 3
W ASHINGTON
j oins
p oint
v ent
er a
ic i
ic ip
id el
Ġl ands
Ġe y
us sein
ĠK i
ri p
ĠD istrict
Ġsp ir
ang ed
ond ole
og le
ens ion
Ġsupp lies
Ġair line
Ġdem ands
Ġbomb ings
Ġdel ay
ĠChrist ian
Ġattemp ted
ĠEm bassy
ĠMic rosoft
Ġpropos al
Mc C
ondole e
# #
r am
w ar
Ġp urch
Ġan onym
ad ing
Ġon to
ĠR od
od ed
Ġun ve
Ġag encies
Ġcont ent
Ġsec ure
Ġrem oved
ug g
Ġass ault
Ġext reme
Ġinj ury
ĠPro v
Ġestim ates
ĠAd ministration
Ġdoct or
Ġval ue
ĠMad rid
ĠAh mad
ĠJust ice
ondolee zza
h aps
n ation
w ang
Ġ ign
Ġt emper
is c
Ġd ial
ĠA ff
os en
ast ic
Ġch ampions
Ġdec ade
Ġfin ished
emocrat ic
Ġcell s
Ġcolle ge
Am ong
Ġrelig ious
Ġs ociety
or ation
Ġo w
is ions
Ġl ived
ĠP entagon
ak ed
Ġun s
ant ed
Ġme ant
Ġim age
Ġen joy
ĠY ou
Ġus ers
Ġvis ited
Ġcontin ues
Ġ199 8
ĠPh ilipp
Ġchall eng
Ġimm ig
ĠHy undai
Ġconflic t
ĠSing apore
E C
f oot
re c
re r
or al
Ġp ounds
Ġm ale
am i
ĠT s
ĠH an
Ġover all
Ġatt ract
ĠIn c
Ġsl ight
Ġgu ard
Ġteam s
ĠTr ade
Ġcomput ers
Ġconsum ers
ĠTe hran
Ġsomet imes
P h
n o
Ġ ir
Ġt ank
is her
Ġd ark
Ġg ather
im um
ĠC ondoleezza
ra v
ul ate
Ġpro duce
Ġgo als
end ers
ĠCh urch
ĠY ahoo
Ġph ones
Ġ199 9
Ġ15 0
Ġaff ect
Ġrequ ire
Ġquestion ed
Ġtell ing
ĠChe ney
Ġresign ation
Ġseem s
Ġvir t
Ġpict ure
Ġwide ly
Ġcamer a
Ġbrid ge
ĠFranc isco
1 4
i ation
w estern
Ġ ult
Ġs il
Ġm ix
ĠB ern
Ġwe alth
ag er
Ġsp ark
ĠL ib
ge red
Ġar riv
Ġar gu
Ġgovernment s
ĠY ang
iss ions
Ġ4 00
Â´ Â´
Ġset ting
Ġhost age
ron ic
Ġdep art
Ġdead ly
Ġallow ing
Ġocc up
Ġsing er
Ġty p
ĠOl mert
A d
r ig
r ill
Ã Ģ
Ġ i
Ġs ense
Ġf ully
Ġp ull
ĠS ol
ir ates
ĠP ri
ĠH ospital
ĠG ordon
ud get
Ġab use
erv ed
Ġact ress
Ġra il
Ġinvestig ators
loy ment
Ġob tain
Ġve ter
ĠBl ack
Ġer up
ĠCan ada
Ġresol ve
Ġcrack down
Ġdetermin ed
M ar
c le
f ord
Ġl iber
ĠS udan
Ġal ly
ĠH ussein
ĠG ates
ĠJ ew
Ġex erc
Ġdis aster
Ġfl ed
Ġimp osed
Ġfin ally
Ġend ing
gr ound
Ġlook s
ĠZ imbabwe
Ġbusiness es
Ġban ned
Ġsk y
rel ated
Ġpict ures
ĠSy ria
Ġproper ty
rac ted
Ġpun ish
ilater al
R ep
z ona
Ġw est
or ks
om ber
Ġth in
ĠC amp
Ġr at
Ġde g
Ġex amp
Ġac qu
Ġdis s
ov a
Ġrecord s
Ġweap on
Ġtax es
Ġwal k
Ġacce pted
P ros
T V
h o
Ġin qu
Ġm useum
ĠC ross
ra wn
oun ced
ĠG od
ĠL aden
Ġmon it
ov iet
Ġbel ong
sh ip
Ġmov ies
Ġforeign ers
ĠRe uters
Ġap artment
Ġreb el
ĠArab ia
Ġfreed om
Ġpur p
Ġvers ion
ĠNob el
P akistan
b urg
c alled
m ission
p orts
s et
Ġb al
Ġl ic
Ġg ang
Ġg ets
im ate
os ovo
Ġal ive
Ġpro jects
ĠD i
ĠD NA
ĠG ov
Ġun p
se a
Ġres ort
ell ed
tern al
Ġsur ge
ob by
Ġserv ing
anc hester
Ġgr ad
Ġgu arant
Ġent ering
Ġca using
Ġhold s
Ġcomple ted
Ġboy c
ann el
Ġneighb oring
iet nam
Ġdev ice
Ġsqu are
Ġstrugg ling
Ġinflu ence
Ġdial ogue
S peaking
u x
il ton
Ġe ld
ĠC ath
ĠT om
ĠW al
Ġse ed
Ġoffic es
lo ok
ned y
Ġplan et
ĠSp ace
ĠAr gent
Ġdiscuss ions
Ġorganiz ations
ĠMal ays
Ġbail out
Ġcollaps ed
ĠAc ademy
Ġmos que
2 7
f ur
i pped
m osp
r ated
u ction
re y
Ġf ix
Ġp icked
Ġb omber
Ġm eth
Ġfor t
ĠT ony
igh ter
Ġsp orts
ian o
Ġres ident
Ġcl er
aw a
ĠV ice
Th ose
Ġcoun cil
Ġnewsp apers
Ġ198 0
ĠPen insula
ruct ure
Ġattemp ts
ĠKy i
Ġrout e
Ġadvis er
Ġpolitic ians
ĠAff airs
2 6
B ar
J ust
J ohn
Ġp iece
Ġto uch
le ts
us et
op h
our ces
ab ul
Ġ3 3
Ġ19 4
ach uset
Ġprov iding
Ġopp on
Ġ199 7
Ġdemand ed
Ġbook s
Ġpen alty
Ġvir us
Ġdeploy ment
ĠWilliam s
Ġhistor ic
ĠPort ug
ĠAri zona
achuset ts
k i
l ife
r ast
u ild
on ight
Ġd in
Ġd raft
el ess
ĠD ub
Ġex act
iv ity
Ġsc ored
ĠV ietnam
Ġbl ow
Ġrem ote
ĠSh ow
Ġhead s
ĠMar ine
Ġloc ated
Ġperson nel
ĠAir port
Ġappear ance
inc ial
Ġbring ing
ogra p
erve z
add am
ĠCub a
Ġheav ily
E very
v ious
Ġp ath
Ġb ed
Ġan cient
Ġd ire
id ency
ĠS chool
Ġst ocks
ra h
ra ine
ĠP ervez
ĠJ er
ĠJ ose
ĠCh airman
Ġexp orts
Ġtr ust
rop ri
Ġreg ist
az ir
Ġprot ection
Ġins p
min ute
Ġdef end
Ġconcer t
Ġkeep ing
Ġprof ession
ĠRepublic ans
Ġsugg ests
Ġcapt ured
Ġwithdraw al
Ġpil ot
Ġclos er
Ġcorp orate
Ġens ure
Ġitem s
p art
p ool
Ġs em
Ġw ed
Ġc ited
Ġf ly
Ġm er
Ġst ood
ĠM ugabe
ran ts
Ġsc ience
Ġdec ide
Ġcons pir
anc ing
Ġexpl oded
Ġsee ing
Ġposs ibly
Ġtrou ble
ĠBur ma
eg as
ĠMass achusetts
Ġrap id
e or
Ġt en
Ġt ons
an ium
Ġto ugh
Ġre ven
ad ian
ur ning
ir i
el and
ĠN ev
Ġun emp
Ġout bre
Ġ3 8
Ġpr in
An g
Ġhigh ly
Ġent er
Ġhop ed
Ġche m
ams ung
ĠEx change
aks in
, '
g a
Ġt im
Ġs olution
ar o
ic an
Ġd omin
ĠS ar
The ir
Ġpro be
ag ers
Ġv owed
ĠG l
ĠF er
ĠL as
ep al
ĠY OR
Ġop inion
Ġtri b
Ġsupport ing
Ġdel ayed
Ġcrit ics
Ġur anium
ĠGu ard
Ġjournal ist
ĠKen nedy
Ġdemonstr ations
Ġrestrict ions
ĠKurd ish
ĠYOR K
, Â¡Â±
o en
Ġs ong
Ġc art
Ġc ents
ĠS oviet
ur b
Ġsa ve
ĠC ap
ec ause
ĠM o
ĠD el
ĠH u
ĠG NP
Ġch amp
Ġpre t
Ġcr uc
Ġent ered
Ġgood s
Ġadv ant
Ġaut o
Ġlawy ers
Ġrepl ace
Ġwatch ing
ĠMah m
Ġinvolve ment
Ġinn oc
Ġgre ater
ĠProv ince
c omm
u als
z ai
Ġm ach
Ġh un
Ġe ye
ad al
Ġg all
ot ter
Ġst ress
ate gy
Ġsp ring
Ġnot ed
ry s
ren d
Ġj ury
ell ing
Ġad minist
Ġsur ve
Ġrel ative
Ġtri bal
unt a
ĠChrist opher
Ġdecl aration
Ġevent ually
Ġphot ograph
Ġdemonst rators
ĠTibet an
ĠNic olas
Ġtor ch
ĠHow ard
Ġcorrespond ent
Ġtourn ament
1 8
i as
r ison
Ġa ide
Ġp ra
ent y
Ġre asons
Ġl ose
am ing
ĠA li
Ġat mosp
ĠK osovo
Ġsh opp
ĠL ou
Ġun able
Ġ4 2
Th ree
Ġprov incial
Ġbu ying
Ġ7 5
Ġopp osed
Ġbro ken
Ġvisit ing
Ġown ers
Ġexper i
Ġsmall er
Ġstand ards
iver pool
ĠCon stitution
Ġri ver
Ġequ ip
Ġpen insula
Ġinit ially
ĠSup er
Ġkidna pping
Se veral
Ġhous ing
Ġdog s
Ġtre ated
Ġconn ection
Brit ish
Ġprosecut or
Ġexamp le
t ar
v a
v ention
z b
Ġt able
re ct
Ġc old
Ġb ought
il it
ĠM ur
ĠT reasury
ag ement
Ġha ven
ĠH all
ĠG ar
ĠIraq is
ĠTh ai
Ġwar ming
Ġrel ief
Ġem bassy
Ġstr ategy
Ġdef in
Ġtrans ition
ĠAl aska
ĠMich igan
Ġhum ans
Ġest ate
Ġnation wide
rem ier
iam ond
Ġdri ver
Ġdeleg ation
Ġreact ion
Ġflo or
Ġspl it
2 4
E L
I C
a ug
m o
on ing
st ate
ac hes
Ġis ol
ri er
ate ver
ĠG M
Ġun it
Ġab oard
ous ly
ric ult
Ġtr illion
Ġapp lic
Ġpr ay
ik h
Ġfind ing
Ġsw im
ĠBl air
Ġexecut ives
Ġcommit ment
Ġexplos ives
udd en
Ġpri ze
To day
Ġevacu ated
Ġcancel ed
. '
B l
C on
i at
l ad
u z
an ced
it i
st ri
Ġst im
ĠN et
Ġr all
ĠR ev
um s
Ġsp ons
Ġj unta
ell ow
Ġint ended
Ġper fect
Ġofficial ly
Ġcr ashed
Ġrec all
land s
Ġhead ing
Ġ20 10
Ġ199 0
Ġpres idency
Ġthreat s
Ġnegoti ator
Ġeas y
Ġfre qu
Ġserious ly
Ġsurv iv
Ġtens ions
Ġsurpr ise
Ġdispl ay
Ġsym b
Ġnar row
i pp
l ig
s en
at ah
Ġh or
ent ed
The n
un der
ow a
Ġr ing
ĠH ur
ĠR oman
Ġsp end
Ġres um
ie go
ĠIn t
ĠV egas
Ġact ive
ĠAn n
Ġent ertain
Ġfac ility
ĠAb u
Ġfoot age
Ġship s
Ġorig in
Ġtemp or
ĠJo ong
Ġeth nic
Pros ecutors
Ġequip ment
a ith
c ri
f all
s un
z a
Ã ģ
Ġa uction
it a
Ġf ro
Ġto ys
Ġm ine
Ġbe ar
Ġsa mp
Ġst ations
ĠB ro
Ġv en
ĠD iana
Ġsh ock
ub ble
Ġro y
Ġdec line
oll ah
Ġra ising
Ġwin ter
Ġbo at
Ġtravel ers
Ġstand ing
Ġide as
ĠSu u
ĠMil an
Ġdoub t
vest ig
Ġcondem ned
rys ler
p ly
z en
Ġw ire
Ġg ay
Ġg ains
ĠC om
et ic
Ġhe at
el d
ĠB ol
em en
ĠK enya
ĠN avy
ĠF il
Ġag ent
ust ed
Ġkill ings
Ġstat us
Ġauthor ity
Ġspec ulation
Ġext rem
ĠPar liament
Ġjail ed
Ġsell ing
ĠGo vern
ĠGo ogle
Ġel se
Ġcult ure
Ġbenef its
Ġreve aled
Ġstreng the
Ġcoop eration
ĠQue en
Ġansw er
F rom
L A
p ut
ic ed
ĠS out
ĠC ons
her iff
Ġr ank
ĠJ ud
Ġk ing
Ġab duct
se qu
Ġcl ashes
Ġ3 4
Ġen force
Ġro ll
Ġdown town
Ġend ors
Ġret ail
Ġass istance
Ġclaim ing
Ġtest ed
Ġtest ing
Ġconv ention
Ġfell ow
Ġwal ked
Ġdismiss ed
McC ain
Ġunemp loyment
Ġatmosp here
p read
r im
Ġt ape
Ġs ister
al do
ent al
ĠS addam
ad er
ur i
ac he
ac ing
ot ic
ĠM anchester
os ure
Ġcon g
ĠN epal
Ġpro ve
Ġr ough
ĠL one
Ġrep orter
uc ks
rou d
Ġgovern ing
ru ise
Ġweek ly
Ġsix th
Ġdif ferences
ev in
Ġfac ed
Ġhand ed
Ġsk in
Ġprof it
ides pread
Ġsim ply
ĠTr ans
ye ong
Ġlear ned
usal em
Ġang ry
Ġcasual ties
ĠNev ada
Ġchamp ion
ĠMahm oud
A ust
D e
F our
l aw
m oon
in y
on z
or ado
Ġb udget
Ġl anguage
Ġbe ach
ĠS am
un k
ĠT or
ul s
Ġoff ensive
ĠL iber
Ġab road
ust er
ors ese
Ġpart ners
Ġqu ality
Ġra pe
Al so
ĠCon t
Ġroad s
Ġbur ied
Ġroom s
Ġwat ched
Ġty pe
Ġmean ing
ĠMed ical
Ġpush ing
Ġtur ning
imp son
Ġjump ed
Ġbird s
ĠDub ai
Ġcruc ial
M A
O f
d a
w ell
x ic
in ese
Ġs udden
Ġp air
om as
ĠS oc
ĠA be
Ġst ake
Ġst adium
ir t
ĠP an
ĠP remier
ers ey
ĠK abul
Ġcom ed
Ġsp ort
Ġse lect
ib b
Ġlaw maker
Ġstud ies
Ġass ets
Ġext ended
uck y
Ġcut ting
Ġstri kes
Ġhuman itarian
Ġlow est
Ġdiv or
Ġwal king
Ġcomplete ly
Ġintro duced
Gen eral
Ġanonym ity
Ġadvant age
R e
Ġf ashion
ro c
un te
ĠC IA
ĠI owa
ĠB eckham
ag n
ain e
Ġv ia
ĠD is
ĠL aw
ive red
ian g
Ġup on
Ġatt ended
Ġ4 4
Ġ4 8
Ġco ord
Ġrel atives
Ġair stri
Ġeff ects
Ġallow s
Ġform al
Ġjud ges
Ġphot ograp
Ġriv als
pro f
Ġfavor ite
Ġwitness es
Ġphys ical
Ġey es
ĠJer usalem
6 0
7 0
G H
b a
c ks
Ġa wa
in ces
Ġw ood
Ġl og
Ġfor med
Ġcon vers
ĠN BC
ag an
ĠW olf
Ġr ural
ĠR am
ĠF atah
Ġsu it
Ġun us
Ġag gress
qu are
ĠO cean
Ġexp ress
Ġper haps
Ġinc hes
Ġapp oint
Ġfl ow
Ġspec ific
Ġput ting
Ġhospital ized
Ġtrad ition
Ġland ing
Ġsuccess ful
ĠMuslim s
ĠMart in
ĠUk raine
Ġunve iled
Ġow ned
Ġconspir acy
E A
G NP
h as
h and
h ist
p ting
Ġ .
re ll
Ġw ake
an ks
Ġc overed
Ġf lying
Ġf estival
Ġb urned
Ġm amm
ĠS amsung
ct ic
Ġcom fort
ew here
ĠR ob
Ġex hib
Ġch ances
Ġpl ants
Ġag ree
vern ight
Ġper man
ild ren
Ġ5 5
Ġcar bon
Ġback ed
Ġmark ed
Ġsecond s
att le
ecut ive
Ġrun s
Ġdet ain
Ch inese
Ġsub s
Ġfew er
olution ary
Ġland ed
Ġap ology
Ġinterest s
Ġbas is
Ġcreat ing
Ġbeg un
zb ollah
, âĢĻâĢĻ
E I
m ore
Ġa th
at ures
Ġc atch
Ġo vernight
Ġf an
Ġm ention
Ġst ret
ĠM ount
ĠI r
ĠT en
Ġcon gress
ri e
ĠN as
ĠH a
Ġwor se
Ġad vert
Ġinv asion
arg o
Ġrec overy
az e
Ġmay or
Ġdet on
ĠQ u
Ġext in
ĠZ eal
Ġhouse hold
Ġmod els
Ġequ al
ĠRes erve
Ġfoc used
Ġrefuge es
Ġmort g
H O
P al
S adr
b l
u ers
Ġf ill
Ġh arm
om es
Ġth row
Ġre in
Ġl ights
ac ted
im a
ĠM et
th at
ĠP otter
ĠB a
if ying
ort ed
ĠD iego
Ġex cept
end a
Ġsu c
Ġres ul
Ġar r
Ġad j
Ġlead s
Ġmon ks
Th ousands
Ġco ff
Ġrel ay
duc ing
Ġins isted
olog ists
Ġknow s
ev ich
Ġexper t
Ġtour ism
Ġsim ple
Ġdest ruction
form ation
Ġgirl friend
Ġlo ans
Ġlim ited
Ġcertain ly
Ġunc lear
Ġorgan ized
ĠVenezuel a
Ġacknowled ged
ĠDan iel
Ġachie ve
ĠCommun ist
Ġpow ers
Ġinsur ance
D on
I V
i est
u ct
w orks
Ġw idespread
Ġf aith
st ein
ĠS ur
ĠK at
Ġpro ced
ĠD aily
Ġqu ite
Ġrec ru
Ġunder w
Ġret urning
Ġprov inces
Ġdeb t
ĠSen ator
Ġhospital s
eng th
Ġdev ast
Ġz oo
Ġwarning s
Ġbab ies
Ġdeploy ed
Ġtrig gered
ĠNort hern
ropri ate
b us
o or
t orney
is a
om s
Ġg ives
Ġg ained
im ately
ĠB road
Ġal tern
ĠN iger
ĠG al
ĠJ os
Ġag enda
ost on
ok e
Ġinc ome
Ġup coming
Ġinv ited
Ġtra il
ĠThe y
ick ing
Ġprom ote
Ġstr ateg
Ġcontin uing
Ġsupport ed
Ġpass enger
Ġca uc
Ġdel ivered
ĠFran k
Ġthreat ening
Ġaff airs
Ġur ging
ĠCol umb
Ġed itor
Ġcho ose
Ġcontrovers y
Ġcal m
Ġwel com
Ġfarm ers
olit an
ĠSant a
Ġchalleng es
Ġslight ly
H undreds
w on
w here
in n
Ġs ound
er man
er vers
Ġw id
Ġp ump
Ġin aug
Ġd ie
ent ially
ro ll
ol ine
ĠM a
ĠN e
ĠW a
ĠD al
ĠH uman
ĠR io
Ġoff ers
oc al
ĠSt ep
Ġover w
Ġher self
ure au
ove re
Ġpercent age
ĠMon t
li est
Ġconf ident
ex p
Ġfollow s
Ġinvestig ate
ĠJohn son
ĠCol orado
Ġstrong ly
Ġdr inking
Ġinst all
Ġtarget ing
Ġwa it
ĠSw ed
Ġren ew
Ġlaws uit
Ġelectric ity
ĠPri ze
ĠCath olic
ĠLou is
Aust ral
4 00
C he
b ook
i very
Ġt onight
Ġc ateg
Ġb ra
Ġe ase
ĠS um
ĠA uthor
ak a
ĠN adal
Ġpro ceed
ĠD utch
ĠH ot
Ġoff ering
our ney
Ġab ility
ren ce
Ġcomp lic
Ġdis arm
ip e
Ġreport ing
Ġ5 1
Ġ4 3
Ġtra pped
Ġloc ation
Ġdet ention
ĠQ ala
velop ment
ĠPal in
Ġcol on
by on
Ġdiscuss ed
Ġreal ity
Ġtarg ets
Ġquestion ing
Ġtreat y
Ġreach ing
Ġsol ar
Ġwel come
Ġregul ations
Ġsubst ant
Ġconclud ed
Ġvess el
Ġspark ed
3 00
b acked
e rer
f l
j u
j evich
l sea
z ing
en a
at in
Ġb ilateral
Ġm aker
ol s
Ġg ar
ĠB ah
Ġal ert
ĠG ulf
ĠR ock
ĠF ood
Ġexp ects
Ġsc r
Ġ5 2
Ġear ned
Ġass istant
Ġfe ed
Ġbo ats
Ġsub ject
Ġstand off
Ġdr ama
Ġtour ist
Ġold er
ĠSc orsese
Ġpat ient
Ġmat ches
Ġneighb ors
ago jevich
Ġrock ets
ĠChe lsea
Ġmater ials
Ġmanufact ure
Ġpract ice
Ġextreme ly
ĠGovern or
ĠZeal and
Ġsuc ceed
D o
b or
h ap
h ab
z ed
Ġf ires
Ġp age
Ġp roud
ou ts
st ead
os ite
ĠW atch
Ġr ich
ĠD ong
Ġex am
Ġsp ac
ĠL i
ĠL iverpool
Ġun like
ab les
ĠE lection
Ġcl osing
Ġman aged
Ġqu alif
Ġbl ame
Ġplan es
Ġwin s
Ġ199 4
Ġneg ative
Ġaff ord
Ġhealth y
ĠMay or
ĠPe ace
Ġdiplom ats
ĠFor ces
Ġvol unte
Ġsmok ing
Ġstore s
Ġlegisl ation
Israel i
ĠShar if
Ġassass ination
Ġspir it
Ġarriv al
Ġoutbre ak
overe ign
6 00
B ecause
N e
R oh
W atch
f ighters
l us
v ille
Ġt ear
Ġt ied
Ġs ick
Ġm and
Ġg e
ĠC BS
ĠA BC
ill er
ĠP C
ĠR om
ĠF ort
Ġnot e
ord an
Ġcould n
Ġco ol
Ġrem ark
Ġrel oc
Ġass ess
Ġvis a
Ġem ph
ĠSp e
Ch ung
Ġdel ivery
Ġmus ical
Ġdri ven
Ġdri vers
Ġfeel ing
Ġinit i
Ġpresent ed
Ġfun eral
Ġlif ted
Ġcoup les
Be fore
Ġstreng th
ĠJe ff
ĠMary land
Ġtom orrow
ĠYong byon
Ġchem ical
Ġfro zen
7 5
N ear
f eld
Ġt ort
Ġt ack
Ġt all
re es
Ġw ave
Ġw ounding
Ġp ushed
Ġm arg
Ġh ole
Ġd emocratic
Ġth rew
Ġl obby
ol ute
ter ror
ĠA g
ĠM u
ĠH IV
ast ro
ĠF ord
ab ad
Ġacc omp
Ġqu it
ĠTh is
Ġfin ance
Ġret ired
Ġstatement s
Ġprom pted
Ġem ot
irect or
Ġprep aring
Ġhop ing
Ġfind ings
Ġclear ly
Ġpat rol
Ġap art
Ġfall ing
Ġgun men
Ġsearch ing
Ġdro ve
Ġben ch
Ġesc aped
cel ona
Ġpred icted
ID S
Ġfle w
Ġsect or
ĠBer lin
Ġencou ra
Ġdig ital
Pr ime
Ġinspect ors
Ġtick et
4 5
F ive
L e
O P
k ok
Ġb atter
Ġin ternal
le ine
ol a
Ġg rew
ĠM ike
ir ing
ĠP el
ĠB oston
em ic
Ġr id
Ġv ast
ĠD en
Ġk m
ĠL t
Ġtr u
ran ce
ade leine
ĠY ear
ov ing
ĠV er
ĠV lad
Ġrec over
Ġrem ove
Ġelect ronic
Ġmem ory
Ġdif ference
lim inary
Ġnort heast
ĠCo ast
Ġview s
Ġresign ed
Se oul
Ġrespond ed
ĠMoh ammed
ĠDar fur
Ġrefer ring
Ġteac hers
Ġexerc ise
Ġmeth od
ĠAuthor ity
H ill
O C
T ur
U L
d ney
h ud
l arg
Ġ ut
Ġs overeign
es us
Ġf ate
st rong
ĠM em
th rough
ĠI d
est y
ĠH el
ĠG reat
ĠF ound
ĠL ama
ab eth
ĠE r
Ġj ourney
Ġen emy
Ġapp ointed
Ġ19 5
are t
Ġrec overed
ĠSh an
Ġhigh light
Ġref lect
Ġaid es
Ġ8 00
ĠSp ears
Ġpres um
Ġfall en
Ġtoward s
Ġgun man
Ġstay ing
ĠKar zai
Ġstrugg le
Ġdism ant
Ġlear n
Ġfeat ures
Ġrefuge e
Ġopt ions
Ġlab el
Ġindivid uals
ĠEconom ic
Ġcler ic
ĠSar ah
Ġinnoc ent
Ġstim ul
Ġoverw hel
d ro
h ad
p ass
Ġa wards
er o
at ri
Ġf ier
is f
Ġb le
Ġl ift
ac ity
ĠC omp
ĠM el
ra ham
Ġv ari
ĠJ ordan
ĠJ esus
ĠF ayed
Ġch osen
Ġsp ect
Ġsu st
ok ing
Ġact ing
Th ough
Ġcons ult
Ġ6 5
Ġcap tain
Ġdisc l
Ġadv ance
Ġrecord ed
ĠAir lines
Ġroad side
Ġbas ic
Ġgra ve
Ġcirc um
Ġfat al
ĠBang kok
Ġsurf ace
ĠHur ricane
Ġroy al
Ġperman ent
9 0
S E
T ube
b ing
g ar
h ar
Ġt ask
Ġp apers
Ġb reat
Ġd iver
Ġe uro
Ġg rab
ur a
ot hes
ĠB ig
ĠK e
Ġy outh
ĠR ec
Ġsh ared
ĠO n
Ġres ources
ord ers
Ġover t
Ġen rich
Ġdec isions
con s
Ġop tion
oh an
Ġwar m
Ġreg ions
rat ive
Ġem issions
Ġhop ef
Ġclose ly
Ġlarg er
Ġord ers
Ġmess ages
Ġilleg ally
Ġvol can
Ġesc al
ĠColomb ian
Ġcommunic ations
ĠAtlant a
Ġopt im
Ġrestaur ant
Ġshopp ing
Ġath let
ĠDal ai
C O
S ix
b orn
on na
on hap
Ġb ran
Ġd ict
ĠS quare
ĠC amb
Ġst ability
Ġhe ro
th ird
ĠB udd
oun ger
ag ues
if orm
ĠJ ul
Ġare n
ĠR ights
Ġsp y
ĠO ne
ard o
Ġexp ort
act ion
ĠTh aksin
Ġsupp osed
ĠSe an
Ġcor ner
ĠHe zbollah
Ġbank ing
Ġcontrol led
Ġvide os
Ġorganiz ers
Ġwrit ing
Ġphot o
Ġbroad c
stand ing
elt a
Ġrequest ed
ĠDe velopment
Ġsurr ounded
Ġrepeated ly
Ġbott om
Ġmedic ine
Ġpregn ant
Russ ia
1 7
T w
c hest
d d
h att
j ung
r ate
t r
Ġt un
Ġt iny
Ġs ight
it o
Ġm ph
ter y
Ġsa il
ot land
ĠT ra
ĠJ on
ĠJ im
Ġex ile
Ġad ults
Ġman ip
av al
aw i
ĠTh omas
Ġkn ee
Ġair ports
Ġass embly
ĠMar s
sh ire
Ġmain ly
Ġce ase
Ġstrong er
Ġconv oy
Ġfund ing
Ġchang ing
Ġeng aged
Ġrad ical
Ġsurv ived
Ġflood ing
Ġver d
Ġbeg ins
DA D
Ġobs ervers
Ġboyc ott
ĠArgent ina
Ġdire ction
Ġprofession al
P P
v is
Ġ `
Ġf it
Ġin stit
al yst
ou ri
Ġd ump
Ġd iamond
Ġn or
st ruction
Ġl ength
Ġg reet
ur ities
ow ell
ĠK u
ĠW ood
Ġr ide
ĠJ ersey
Ġ2 50
Ġacc ounts
Ġmilit ia
Ġmilit ias
Ġ5 4
Ġ4 6
led ge
ob s
Ġbr and
Ġhigh way
Ġwon der
Ġstand ard
Ġfail ing
ĠRe al
Ġident ify
Ġseem ed
Ġpled ge
Ġpos itions
ĠSte ven
Ġcult ural
ĠSy dney
Ġbenef it
BA GH
Ġconstitution al
Ġcop y
Ġmagn itude
Ġpret ty
vestig ators
ĠFound ation
Ġcircum st
BAGH DAD
L et
S c
Ġ )
Ġt sun
Ġs ort
Ġf ought
Ġb urn
al ia
Ġh alt
as c
Ġl ie
ĠS im
Ġfor um
im ir
Ġst ories
ĠB oe
ĠK a
ist ics
Ġy ounger
ct ors
Ġha bit
ĠH amp
ĠG onz
um i
ĠE hud
se x
ord s
ell a
ber y
Ġint ention
Ġcomp ens
ĠTh at
we ek
leg ates
Ġgu ards
Ġdel iber
ĠRep resent
Ġbank rupt
ĠBl agojevich
ĠSc ott
Ġproduc er
Ġsqu ad
Ġinfl ation
Ġ197 0
Ġbirth day
win ning
Ġperform ed
ĠMac au
Ġsuspic ion
Ġpal ace
Ġlands l
Ġerup ted
Ġwed ding
Ġsurviv ors
Ġdisarm ament
larg est
7 00
a ire
d emocracy
er ous
Ġw r
Ġf al
Ġb ound
al k
Ġre un
Ġre duction
Ġl ik
Ġe lev
ĠS al
ur ation
Ġst rain
ĠM ag
ra e
ĠT ay
ri f
ist ing
ĠH er
ĠR og
Ġex amin
ĠL ife
Ġsu p
ok ed
Ġint ense
Ġfir ing
Ġfir ms
Ġtra ins
Ġend s
Ġmay be
ret e
Ġstr ing
Ġbig ger
Ġca uses
Ġtravel ed
Ġsout heast
Ġdr am
"" .
Ġwrit e
Ġart icle
Ġste pped
Ġattemp ting
ĠCan adian
Ġgl ass
Ġparticip ate
Ġmult ip
Ġill ness
Brit ain
ĠAbd ullah
Ġadop ted
Ġoppon ents
Ġtsun ami
O ver
T O
c a
w ill
Ã ¶
Ġt ree
he m
Ġf illed
Ġm aster
Ġd rew
Ġd ream
Ġd rag
il ly
Ġg ap
Ġfor cing
os i
ul ations
if fe
ĠD elta
ĠJ ournal
ĠJ oe
Ġsh out
Ġch annel
Ġacc using
Ġsc en
ach ment
Ġfound er
oth ing
Ġdisc overy
Ġgu y
Ġgen eration
Ġmov es
Ġknow ledge
hip s
ĠDep uty
Ġform ally
Ġnomin ations
ĠCo op
Ġdemonst ration
Ġdiv ided
Ġcle ared
Ġfle e
Ġtrou bled
Ġcolle agues
Ġreform s
Ġunderstand ing
Ġep ic
ĠGh az
Ġastronaut s
Ġtemper atures
ĠPhilipp ines
Ġvirt ual
ĠMalays ia
Ġentertain ment
Ġcomed y
Ġwelcom ed
hatt an
8 00
B EI
S cient
p et
p age
ar r
Ġan ger
Ġd ress
Ġd ub
il iate
Ġn one
Ġl ink
Ġbe ating
Ġe at
ot o
ow itz
ĠI m
ĠJ i
Ġint ens
Ġcomp ound
iz abeth
In stead
In vestigators
Ġpre liminary
ement s
Ġso le
rat ing
Ġcap acity
Ġcamp us
Ġrun way
Ġdirect ing
Ġdr ink
Ġcoun ts
Ġed ge
Ġboy s
ĠAt torney
Ġbreak through
run ner
ĠWe ek
Ġcoast al
ĠMan hattan
ĠEd wards
Ġhelicop ters
Ġsharp ly
Ġencou rage
Ġrecomm end
Ġemph as
ĠVlad imir
Scient ists
U N
b ar
f ree
k el
m et
w ater
Ġp ace
Ġm ig
Ġh ung
Ġd rawn
st yle
ĠS o
Ġst ands
ĠM r
ĠM adeleine
ra pped
ĠP ost
Ġcon ce
ĠW en
Ġv an
Ġex it
ĠL yn
gh ai
Ġag es
Ġwor ried
ans as
Ġnew ly
Ġbl ocked
Ġ6 4
Ġplay s
Ġpublic ly
Ġdeal ing
Ġpay ing
ĠSc otland
atic an
Ġhot els
Ġsurv ive
Ġsoc cer
Ġvill ages
Ġrepl aced
Ġexpect ations
Ġcounter part
Ġnec k
Ġdisapp ointed
Ġtre es
ĠServ ices
Japan ese
ĠBen azir
ĠAtlant ic
Ġindivid ual
ĠYou Tube
Ġeld er
Ġregist ered
ĠInt elligence
2 8
2 9
W orld
b rid
j ad
k m
l os
p ound
u ate
u pp
Ġ rom
Ġ ess
in i
Ġc ig
Ġc rop
es c
Ġh undred
ic y
Ġre ject
Ġn ature
Ġl ung
Ġl iqu
ill ance
ĠB all
em an
Ġcon clus
ĠW ild
Ġr um
ĠH ilton
Ġch a
ĠE ve
ĠCh rysler
Ġexp ensive
Ġwould n
Ġacc us
Ġacc ord
Ġtr uth
Ġfl ames
Ġ4 1
ai i
Ġcap able
ĠAn ton
Ġconf ront
Ġcamp s
ĠInd ust
Ġdet ect
Ġmar ks
On ce
Ġstri ker
Ġdiscuss ion
ĠAt omic
Ġsuccess or
Ġlim it
Ġbeat en
ĠKh an
ĠMoh am
Ġsens itive
Ġblo ody
cont rol
Ġrestaur ants
ĠOs ama
Ġu pper
Ġarg ued
Ġenforce ment
Ġunus ual
Ġmortg age
ĠStep hen
ĠShan ghai
Ġcircumst ances
D P
T r
W ashington
c hen
p re
p rom
Ã ĩ
at ers
ic it
le ge
Ġn ove
Ġl oved
Ġbe er
ac ts
Ġst un
Ġst ressed
ow ing
Ġwe ar
ch i
Ġr amp
ĠF ire
um a
iv ic
Ġpl ung
ĠCh irac
Ġac ts
ĠSt ock
so o
ip el
Ġcont ests
ite ly
Ġapp l
ov ic
Ġus es
Ġ5 8
Ġ4 7
Ġtal ked
Ġ6 00
Ġbr ight
Ġinf ected
Ġ7 8
ech an
Ġ20 12
Ġgu ild
Ġviol ation
Ġdirect ed
Ġthink ing
ĠRe agan
ĠSc ience
Ġeas ier
Ġtelev ised
Ġnomin ated
ĠMus a
bo ard
Ġlin ks
Ġbrief ly
Ġautom aker
Ġvac ation
Ġteac her
Ġgather ing
Ġlic ense
oen ix
Ġcoff ee
ĠHamp shire
rae us
M I
S A
b ut
p a
r ound
u y
Ġa ware
Ġs and
Ġs li
er b
or i
Ġto ug
Ġm ax
ut on
ol is
ĠK ang
ĠN ow
ĠN ik
art a
ĠD et
ĠG ood
ĠF und
Ġk iss
ĠE astern
Ġout come
Ġsc ale
Ġbec omes
ph y
ĠV ict
Ġear ning
rop ical
ron ics
ange red
Ġ199 6
Ġrest ore
Ġmar ch
As ked
Ġsout heastern
ĠPro t
iam i
Ġgun s
Ġsouth western
ern and
Ġscient ist
Ġdiplom at
Ġdev ices
Ġchar ity
Ġwatch dog
ĠEl izabeth
Sp ace
ĠAbd ul
Ġabs olute
ĠFin ancial
Ġtransport ation
idel ines
Ġobtain ed
ĠGM T
Ġorigin ally
ĠFil m
Ġunlike ly
ĠCamb od
D av
E FA
H arry
K K
O r
b ur
c ol
c ts
k a
Ġt ent
Ġt end
an ke
Ġf aster
st an
Ġl ady
Ġbe ef
ac co
im ony
ĠC ro
Ġst ance
ĠM att
ore st
Ġwas te
igh th
Ġv ent
ĠD ick
ĠG OP
Ġun n
Ġag ricult
ine jad
own ed
ree k
Ġsc ore
ind ing
erv es
Ġ5 3
Ġimp orts
Ġelect oral
ork ers
Ġdep ression
att ered
ĠBar b
ĠBar celona
Ġ199 5
Ġcommun ities
Ġfire fighters
Ġcol lection
pl ace
Ġbre aking
Ġpeace keep
Ġemer ged
Ġpay ments
ĠIslam abad
Ġfact ory
St ate
Ġgas oline
Ġbill s
Ġart ist
Ġsched ule
ili ar
Ġer a
Ġer ror
Ġcrow ds
Ġdiv ision
Ġmur d
Ġread ing
ĠIndones ian
Ġregard ing
ĠSerb ia
Ġimmig ration
ipp i
ĠSoc ial
Ġsovereign ty
ĠBoe ing
F P
J ING
O p
R O
R ice
a ud
i os
m ade
n es
p an
p erson
Ġm echan
ic on
id s
ĠS ony
ad el
ĠA z
Ġst able
ĠM iami
ĠI OC
ĠB oard
pp ers
ĠD od
Ġle aves
ĠF re
ess ed
ĠL u
Ġun known
Ġse es
ep h
Ġ3 9
iss ippi
enc ing
Ġte ens
ĠV i
Ġwar rant
rop olitan
Ġ6 2
Ġter min
me ida
Ġbomb ers
Ġleg s
Ġob vious
Ġob lig
Ġve to
Ġur ban
Ġrece iving
Ġeas ily
Ġreb uild
Ġwind ow
Ġprim aries
ĠâĢĿ âĢĿ
Ġresc ued
Ġeffect ive
ĠKing dom
Ġdisapp ear
Ġrout ine
ograph y
Ġestab lished
ĠVal ley
ĠHaw aii
Ġpunish ment
Ġinqu ir
Ġrall ies
ĠTrans port
Ġdeton ated
ĠHot el
Ġmarg in
ĠMoham mad
3 5
F oreign
P l
e ed
m ates
z ech
re ck
or ic
Ġto xic
Ġm ail
Ġh al
Ġl iter
Ġe ating
Ġe lim
ĠS il
ol es
ec es
el ly
ĠK o
ĠK evin
ear t
Ġcon cent
Ġy en
ĠW il
ĠR ome
ĠF ox
ard en
Ġout s
Ġad ult
av ed
ran k
Ġqu een
Ġpresident s
gr im
Ġfe els
Ġsm ugg
Ġsl ump
Ġspec if
Ġincre ases
Ġmain land
ĠMcC ann
Ġtest imony
Ġlet ters
ĠIslam ist
Ġ13 0
Ġbatt ling
Ġbur ning
Ġparticip ants
Ġcamer as
Ġmanufact uring
Ġapolog ized
Ġexact ly
Ġrapid ly
Ġabduct ed
Ġdivor ce
ĠDis ney
Ġaltern ative
exp ected
Ġaccomp an
Ġstimul us
Ġenrich ment
BEI JING
9 5
? "
A C
G erman
M e
V D
b es
u ros
v ironment
on t
Ġw ing
ar ch
Ġp y
Ġh all
Ġh ide
ĠS af
ĠS impson
Ġst alled
ĠM erc
op ing
ri ers
Ġ1 20
ĠW ind
Ġde als
ĠH wang
Ġex clus
ĠL ind
Ġpl us
Ġpl astic
Ġor bit
ĠCh ris
ign ed
ell er
Ġcont ained
Ġim ag
ĠY oung
Ġ5 6
Ġ5 7
Ġrem ember
Ġbr ut
Ġback ing
Ġ7 3
Ġdeb ris
Ġgr anted
ened ict
Ġloc ations
Ch rist
Ġgrow n
ĠAust ria
On ly
Ġstri p
Ġtechn ical
St ill
ĠPh oenix
Ġestim ate
Ġgreat est
umb ai
Ġval ues
Ġconserv ation
Ġfield s
Ġflood s
ĠBrazil ian
ĠBas ra
Ġshr ine
ĠJew ish
Ġdeg rees
ĠPortug al
ĠSout hern
Near ly
ĠBudd hist
Ġmultip le
N ational
e ared
m ile
in ate
at ist
it ors
Ġp acked
Ġp irates
Ġm ap
Ġm yst
om y
Ġre feren
Ġn ut
Ġl ux
ot ti
ĠA wards
ĠM useum
ir ts
ir ty
ĠI A
ak arta
ĠT o
ĠD iv
ud son
ĠE th
Ġpl at
ich uan
ost er
ant ly
Ġcl othes
iz es
ib aki
Ġatt itude
ĠY onhap
Ġ19 50
Ġte le
ĠV atican
ach ing
Ġ6 1
Ġ6 6
Ġprom ot
Ġfe ared
Ġwin ners
Ġcent ers
Ġviol ated
Ġevery body
Ġleg it
Ġcol or
Ġsw ept
Ġpros pect
Ġinte gr
Ġident ity
Ġpriv acy
Ġwind ows
Ġarri ve
AR C
Ġcommunic ation
Ġfr ust
Ġvac c
Ġpers u
Ġmonit oring
Ġrough ly
Ġsubs id
Ġcauc uses
Ġtack le
C omm
G A
c ked
i ya
p ol
v ang
z o
Ġt ab
Ġt orn
Ġs ection
Ġc abinet
ar med
Ġp ool
Ġto w
Ġm ic
Ġh ij
as er
ic ial
Ġd er
Ġth r
ut ing
im al
ĠC zech
Ġst yle
Ġhe ight
em a
ĠK az
ak h
Ġcon ver
ĠN ancy
Ġy ellow
ĠG amb
Ġsh op
ĠF l
Ġpl uton
Ġwor ries
ĠCh ile
ord inary
Ġthan ks
Ġam ounts
Ġ4 9
oss ible
ĠAn tar
Ġfam iliar
cer tain
Ġbo om
ĠInd iana
Ġ199 1
Ġ199 3
Ġpop e
Ġsit ting
Ġche st
Ġaff iliate
echn ology
Ġsouth west
Ġproduc ing
Ġsuggest ing
Ġturn s
de legates
Ġesc ape
Ġshare hold
ĠSw itzer
Ġtrack s
ĠFed erer
rac ts
Ġ196 0
ĠEgypt ian
ĠPat rick
ĠRon aldo
ĠGre ece
ĠBel g
Ġmix ed
Ġrelative ly
Ġpra ised
ĠCont rol
Ġappoint ment
Ġathlet es
ĠGhaz ni
Ġpluton ium
ĠSwitzer land
I T
w ise
Ã ¸
Ġs ear
an es
or ia
at ched
Ġc ivic
al y
Ġd uty
st ar
Ġl oyal
ĠS ociety
ĠA IDS
Ġst aged
ĠM umbai
ĠP re
Ġwh ales
Ġas h
Ġas ide
Ġr ice
Ġhas n
Ġun con
Ġun ivers
Ġun iform
ĠO k
ail s
Ġqu iet
Ġ5 9
Ġimp e
Ġnum erous
Ġgu ests
Ġdef ended
Ġ199 2
Ġadv oc
Ġrequ ires
Ġtown s
Ġalong side
cl one
Ġmid night
Ġold est
Ġmet al
Ġshot s
Ġscient ific
over ty
Ġpain ting
ĠSw iss
Ġcompl ained
Ġfeat uring
Ġbul let
ĠMiss issippi
ĠFin ance
Sec retary
Ġant icip
ĠPer u
ĠDel hi
Ġsurve illance
Ġsamp les
da q
Ġselect ed
Ġairstri ke
Ġoverwhel ming
ĠRepresent atives
Ġfal se
Ġmax imum
S m
S arkozy
d es
i pping
m ember
n ew
Â ½
Ġ âĢ
Ġb oss
ic ts
Ġd iet
Ġl ying
Ġe uros
ĠS ong
ec raft
Ġst ro
ĠM ir
Ġwh atever
ĠB on
ĠB ond
ĠT y
and ed
ch o
ort ion
ĠD VD
ĠL ank
Ġse vent
ep ing
Ġinc idents
Ġcomp rom
Ġdis ag
ue z
ang ers
Ġsec ular
Ġsc ores
Ġapp ropriate
Ġdec re
Ġop ens
orm ack
ens es
Ġbl ank
An alyst
Ġprov ides
Ġprom pting
Ġinter rog
Ġfe ature
Ġsusp end
ness ee
Ġfact or
Ġlist ed
Ġsol ve
ĠGo vernment
Ġbrief ing
Ġnorm ally
Ġconc rete
Ġhar sh
Ġdocument ary
ĠAlex ander
Ġshel ter
ĠMot ors
Ġprior ity
ĠRad io
Ġthin ks
Ġmach ine
ĠColumb ia
ĠSpe aker
Ġverd ict
Ġbankrupt cy
E urop
L aw
M ic
R ec
a uty
b ul
c ar
l ades
n d
u i
he im
Ġs ac
er ted
Ġp ose
Ġb ases
Ġm akers
ad s
ac re
Ġsa ved
ĠC hen
am o
ĠA ward
Ġst one
Ġcon sequ
Ġr ac
ĠD u
ĠD irector
oc ol
Ġun rest
ell o
ans ion
Ġatt ending
Ġstud io
Ġinter ven
Ġsl aves
Ġmiss ed
Ġinvestig ations
Ġbus y
Ġleg end
Ġbre ed
Ġhit ting
Ġfree ze
cil iation
Ġcoun sel
ĠMex ican
Ġran ked
Ġfun ction
ĠMor gan
Ġtransfer red
Res earchers
ĠVenezuel an
Ġrecogn ize
Ġarch ae
Go vernment
Ġpurp oses
ĠJos eph
Ġinstit utions
Ġdub bed
Ġreferen d
Ġplat form
. âĢĻ
b i
e lection
i us
i eces
u a
v in
y oung
Ġa w
re ls
Ġs ons
Ġm al
Ġre iter
ĠS ri
ĠC y
Ġst ructure
ir ai
ir ls
ĠP ublic
ĠK ibaki
ĠT er
ist ent
ĠH un
ĠR af
Ġex ch
Ġsh ops
Ġsh oes
ĠF estival
Ġch air
Ġsp r
ĠL uc
Ġnot ice
ian i
Ġag ed
ĠSt aff
ond a
aw n
erv ation
Ġwork er
Ġ7 00
Ġprom in
Ġannoun cing
Ġgu er
Ġent ry
Ġob jects
Ġstri king
Ġappro ached
Ġglo be
Ġcontrol s
ĠRe g
cl iffe
Ġbatt les
Ġstar ts
Ġmat ters
Ġcompet e
Ġcross ed
Ġhur ricane
Ġbase ball
Ġrepresent ative
Ġsignificant ly
ĠMot or
Ġmist ake
Ġbag s
Ġpurch ase
Ġdepart ure
Ġveter an
Ġsymb ol
Ġspac ecraft
ĠIA EA
Ġsevent h
4 7
C ar
F rench
M art
U s
m and
s ur
he ld
re hen
Ġf ed
Ġf ile
Ġp it
Ġp orn
Ġp overty
Ġd istance
Ġn ative
ro it
ol en
Ġst rict
ĠM it
ĠM ajor
ĠB ow
Ġr ig
ĠH ug
ĠJ ac
Ġex cess
Ġch ol
Ġun ions
Ġag ents
ine house
ĠIn formation
Ġpre fer
ph ia
ph oon
Ġbl asts
Ġ6 3
Ġ6 8
Ġauthor ized
Ġpoin ted
ĠAl meida
elf are
Ġdeal ers
Ġhand ling
ĠCar ibb
Ġinst ruct
Ġfact ors
Ġsuccess fully
Ġnet works
Ġnorth west
Ġimpro ved
ĠCorp s
Ġpil grim
Ġpul ling
Ġspot ted
Ġgener ally
Ġraid s
Ġaward ed
ĠHen ry
Iraq i
Ġfish ing
Ġtrig ger
dog an
ĠPet raeus
ĠGold en
Ġoccup ation
Ġexperi enced
sen al
Ġven ue
ĠTen nessee
ĠPel osi
ĠAnton io
adel phia
vang irai
ĠCaribb ean
2 3
D efense
M ich
N ot
n esty
u ese
w orld
x y
Â »
Ġ *
Ġt rend
Ġs hed
at ra
it ol
Ġb ath
Ġan the
Ġh unt
Ġd ed
Ġl apt
ut er
ol i
ĠA the
Ġwe igh
os a
ain t
Ġv ital
ĠH o
Ġsh ape
ĠF ARC
um er
Ġnot es
Ġun ity
qu es
Ġac res
mer gency
ide o
ous and
Ġcont racts
Ġdo ors
Ġso il
Ġunder ground
Ġcar rier
Ġend angered
Ġadd ressed
Ġhost ed
Ġtrans l
Ġoper ate
Ġsub mit
Ġprep are
Ġcampaign s
Ġcampaign ing
ĠBe ach
iel der
Ġcor rect
Ġaff ili
Ġexper iment
Ġnegoti ators
Ġden uclear
ĠAir ways
Ġri f
Ġstorm s
Ġconduct ing
Ġwithd rew
Ġsol id
Ġcitiz en
Ġattorney s
Ġsect arian
wa it
ĠPol and
Ġcelebr ity
Ġrefer red
Ġexist ing
Ġwall s
Ġu h
Ġliber al
Ġguarant ee
Ġsem if
Ġphotograph s
Ġtempor ary
Ġadvert ising
Ġvolunte ers
Ġfier ce
Ġcompens ation
Dav id
Ġreferend um
B O
L E
R A
i op
j e
s ized
Ġt um
re land
Ġs yn
Ġw ounds
at ically
Ġc argo
Ġm ut
Ġh id
le ments
Ġe ighth
ur rent
ĠA y
ĠP KK
ĠB ob
ĠT wo
Ġcon ven
Ġcon cess
ul ner
Ġpro hib
Ġr iding
Ġr ushed
ĠD o
ĠG i
ĠG ore
Ġsh ield
Ġle ague
ĠE uro
Ġexp osure
Ġqu al
ĠV an
ĠV en
Ġimp rison
ĠThe re
ef in
Ġdep end
Ġsub ur
Ġext end
ĠPal ace
Ġadv ice
ys is
Ġprof its
Ġed ition
ffic ient
Ġindic ted
Ġemploy ee
Ġlo an
Ġcapt ure
Ġpopular ity
ĠCl ub
Sh ar
ĠCommission er
Ġslow down
Ġsurpr ised
Ġdin ner
Ġswim ming
Ġconvers ation
Ġvari ety
Ġanthe m
ĠAthe ns
C l
C o
O il
k ins
l if
o ons
Ġthe ater
Ġw aves
Ġc ards
Ġf inger
Ġm outh
Ġh at
ĠI reland
ĠB et
ĠB enedict
ĠT ech
ĠN az
Ġr ush
ess ing
ĠL arry
ĠL atin
Ġun its
ĠE duc
se y
ĠSt an
lo g
Ġcont rast
Ġatt rib
Ġcount y
ran king
ĠY ous
Ġpr ince
Ġrec ording
Ġrec alled
Ġsupp orts
Ġeconom ist
Ġsign als
Ġdet ected
ĠAr med
Ġarrest s
Ġreturn s
Ġappe aled
ĠCol lege
Ġmod erate
Ġbar rels
rup ted
off s
Ġdisp uted
Ġinterest ed
mon t
Ġexplos ive
ĠOr le
Ġbur st
Ġshoot ings
ĠCorp oration
Ġquarter f
Ġemb ry
Ġlegisl ative
ding a
Ġpurs ue
Ġcontain ing
Sec urity
âĢ¦ âĢĿ
Ġcomplain t
ĠPhil adelphia
Ġpregn ancy
ĠSom alia
Ġpurp ose
Ġbal ance
Ġgall on
Ġisol ated
ĠJud ge
ĠNas daq
Pal estin
Ġinaug uration
third s
ĠDet roit
Ġreiter ated
5 3
C ap
C ons
I ts
M usharraf
l ah
p ay
r d
t ra
x ual
in cess
Ġs ad
Ġw reck
Ġc ow
Ġc oin
Ġp ed
Ġb ars
Ġto il
Ġto pped
al in
ĠS ichuan
ol k
im bled
ĠC ase
ĠA ct
Ġst ops
Ġst abil
ĠM aj
ore n
el a
el ts
ĠK ent
ĠK erry
res ents
ak en
her lands
Ġpro b
ĠD ou
ĠH ind
ĠH icks
ĠJ obs
ack ing
Ġch ain
ident ified
ĠE ric
ĠO ld
ĠUn ification
Ġapp ly
we ight
ach i
ob ile
Ġadd s
az on
Ġdes ert
olog ies
Ġsub mitted
ĠAm bassador
ls ewhere
Ġsw itch
Ġhom eless
lev ision
Ġsex ually
hd i
Ġshort ages
ĠPro s
sc ale
Ġord inary
Ġindic ate
Ġdeleg ate
Ġvol unt
ĠAnd rew
Ġgl ac
Ġple aded
Ġautom akers
ĠBr ad
Ġengine ering
Ġcharac ters
ĠRon ald
olit ical
ĠPl ay
Ġpet ition
keep er
Ġaband oned
Ġsettle ment
ĠAhmad inejad
ĠCap itol
ĠNet herlands
prof ile
Ġbench mark
Ġcha os
lades h
ĠOrle ans
imbled on
A A
C I
P ar
P ark
U R
g un
g ment
m aking
w ith
Ġ ,
he e
Ġthe ory
Ġw ish
it age
Ġf ulf
Ġto uc
Ġm ental
Ġd ust
Ġd estin
et te
ill ing
ir a
Ġat omic
op ular
Ġcon cept
ĠU t
ĠU EFA
ĠR h
ĠR el
Ġsh if
ap ova
Ġk ick
ĠL ong
Ġrep resents
ect ions
ĠCh ad
Ġout rage
Ġne ither
der ing
Ġsc he
ĠY as
ĠY emen
Ġmon itor
Ġdec iding
Ġmin ers
Ġam end
Ġmonth ly
Ġunder st
Ġfound ed
Ġbel ief
Ġprom oting
Ġsl ated
Ġpass port
Ġadv anced
Ġpost s
Ġhand le
ĠAir bus
Ġpat tern
Ġboy friend
Ġocc asion
ĠGu ant
Ġdeter ior
Ġcour ts
Ġpot entially
Ġimpro ving
Ġsat isf
Ġdeep ly
Ġsafe ly
Ġbit ter
ĠMic hel
ĠMe hdi
Ġadop t
Ġblo g
Ġaband on
Ġdeg ree
Ġresum ed
Analyst s
" ,
4 8
A ir
L ater
W illiam
b ell
g ers
v ard
w ing
er ious
Ġw art
an amo
Ġc able
it ted
Ġto ol
Ġm ate
le cts
Ġth ousand
ut ies
us ion
ĠA ung
Ġst uff
Ġst olen
ra it
ra ig
Ġpro ved
ĠW ales
ĠW imbledon
ĠG reek
Ġle ak
ĠL ah
ab y
ĠE v
Ġthan k
Ġimp lic
Ġcons ecutive
ix on
ĠSp ec
Ġrun off
vi ation
ĠMcC ormack
Ġhom eland
Ġbeh alf
Ġhapp ening
Ġnegoti ating
Ġfund ament
Ġtrain ed
Ġinterview s
Ġnort heastern
Af ghan
Ġfriend ly
Ġexecut ed
ĠPro gram
Ġbill ions
Ġdecl are
Ġste el
Ġris ks
Ġpoll ution
Ġclass ified
Ġmot iv
Ġtit les
cast ing
Ġrepresent ing
Ġple ased
Ġgra ph
Ġlear ning
Ġresol ved
ĠFed eration
Ġmult i
Ġtur mo
rah im
Ġtim et
Ġsudden ly
Ġcongress ional
ĠMem orial
Ġsup erv
Ġconclus ion
Ġaccus ations
control led
ĠGuant anamo
Ġturmo il
B rown
M ay
T e
b ow
b acco
d y
f ound
l ock
m ond
o oth
p ects
Ġ ?
Ġt ap
Ġs ch
Ġo usted
Ġp osed
Ġto bacco
Ġd im
om pl
ent ions
ĠC rist
ĠC astro
am an
ĠA ut
ĠM ove
ĠM asters
el esc
ow ling
ĠB u
ĠB ell
ĠT al
Ġcon stit
ĠN uri
Ġpro jected
ĠW ill
Ġv ulner
ĠG ul
ĠG yeong
ĠR en
Ġsh ore
Ġch ap
ess ions
qu o
ok es
Ġrep ublic
ĠCh un
Ġpol ling
Ġres erved
Ġcl ash
Ġcl oud
Ġcl othing
Ġdis ab
Ġatt racted
Ġro of
act ive
âĢĿ âĢĿ
He re
ens us
oll ins
Ġact ed
Ġact ors
Ġimp ossible
ah ar
Ġ6 9
Ġev al
Ġset t
Ġfe ver
the y
Ġviol ations
Ġca ution
Ġche ap
Ġla id
Ġnegot iate
Ġkeep s
ĠHam id
ann es
Ġclass ic
Ġisland s
Ġcomb ined
Ġresc uers
Ġconst ruct
Ġprevent ed
Ġconserv atives
Ġsuper delegates
Ġdisapp eared
ĠAll iance
ĠMor ning
Ġspread ing
gen eral
Ġteen age
Ġteen ager
Ġcelebr ate
ĠDon ald
Ġtick ets
ĠMo ore
comm un
cri ption
Ġextrem ists
Ġstret ch
Ġrenew ed
ĠLouis iana
Ġbroadc aster
bur gh
Ġwart ime
L OS
M ark
a uthor
e ter
s pe
¦ Â
Â ¦Â
Ã Ĭ
Ã Ļ
Ġ Ãģ
Ġa er
in ced
re a
Ġs heriff
Ġc ry
Ġc ave
Ġh ub
Ġe gg
ĠS in
ac ter
am ily
ĠA NG
ver se
ĠB or
oun ter
Ġy es
ĠW is
ĠJ ae
ĠJ oint
ĠL ew
all as
Ġun certain
Ġexp lo
Ġar riving
ke ys
ĠSt one
ĠSt alin
Ġad s
Ġad mit
Ġdis able
Ġus ual
Ġmin imum
Ġfl at
Ġspok en
Ġair pl
Ġstud ying
Ġem be
rid ge
sh ot
Ġinvestig ated
oot ball
gg er
Ġmembers hip
ax y
Ġleg ally
pe ace
Ġconv inced
Ġtechn ologies
Ġ198 9
Ġexplos ions
ĠMan agement
Ġrepl ac
Ġprotect ing
enn is
Ġfle et
Ġdraw ing
Ġgreen house
Ġcop ies
ĠRichard son
ĠÂ ¾
Ġrecon ciliation
ĠNort heast
Ãı Ãģ
En g
ĠSom ali
Ġvess els
Ġprincip les
Ġreven ue
Ġadminist rative
ĠConstitution al
EL ES
ĠCom mer
Ġaggress ive
Ġthrow ing
ĠSwed en
ĠRom ney
Ġtru ce
ĠKu wait
Ġrum ors
Ãĩ ÃıÃģ
Ġabsolute ly
Ġlux ury
Ã¸ ÃĩÃıÃģ
ĠLank a
ĠHug o
Ġconcess ions
Palestin ian
Â¦Â °
ĠANG ELES
Ġembe zz
Ã¸ÃĩÃıÃģ Ã¶
2 50
E B
M us
S y
b les
g i
h ave
r ary
r ations
r ina
z i
Ġ icon
Ġt ie
ed ed
Ġc os
Ġc up
Ġc ruise
Ġp ir
Ġp itch
Ġp ipel
Ġb ol
Ġb ones
Ġb orders
Ġh its
Ġn aked
ay ing
Ġbe auty
ĠS ir
ĠC amer
Ġst ir
ir k
th an
ul iani
ĠW orkers
Ġr ans
Ġv it
Ġv ig
art ed
ĠJ am
ĠJ akarta
ap olis
oc a
Ġsp ur
od o
ab ee
Ġse qu
Ġor chest
Ġwor ry
Ġj ung
Ġpe ak
ant ic
Ġexp osed
Ġme at
Ġcont ains
ang es
rit ics
Ġtra ff
anc ell
az ing
ai ro
Ġret ire
Ġ7 6
Ġem pt
Ġmiss ions
att led
Ġdef ect
Ġviol ating
Ġvisit s
ĠEn ter
Ch ar
Ġtrans pl
Ġtrans form
ĠAl ber
Ġrest ric
Ġinj uring
Ġsent iment
uck abee
pl us
Ġpost p
Ġmarket ing
Ġappro ve
Ġinform ed
Ġden ies
Ġagreement s
Ġste ady
Ġstay ed
Ġcrew s
Ġmot ion
Ġvill agers
Ġcounter fe
ortun ately
Ġrepresent atives
che on
Ġproper ly
Ġpark ing
Ġnomine es
Ġcal c
Ġbrother s
Ġengine ers
Ġep is
Ġpolitic ian
ĠMiss ouri
ĠBang ladesh
Ġswe et
ici ary
rig uez
Ġi Ph
ĠJew s
Ġdomin ated
Ġwire less
Ġstrengthe n
Ġmamm oth
Ġreloc ation
Ġiniti ative
Ġsail ors
Ġdram atic
Ġcrop s
ĠBarb ara
Ġinquir y
% .
7 9
B hutto
E ight
G eor
H y
P re
P er
a is
c u
c ling
e z
h it
h ow
m un
Ġt ech
on n
Ġs y
Ġs or
or se
is er
Ġp ieces
Ġm ud
ic ations
ic ient
Ġd ressed
il a
ent er
Ġl ies
ot ics
et ary
Ġwh ale
ĠB ul
Ġy uan
ĠH is
ĠH om
ĠJ int
ĠF ar
ĠF all
Ġch ose
ud a
Ġun ac
ab s
Ġrep ro
ĠO per
Ġafter sh
Ġwhe el
ant as
rit ies
aw ay
Ġapp rec
Ġra ided
Ġattack ing
Ġdown lo
ved ev
ced ented
Ġeconom ies
Ġrel ax
Ġserv es
Ġmem or
ĠSe attle
Ġass ist
Ġph ase
Ġcent uries
Ġsl ammed
ĠPr incess
ĠAr t
Ġsub urb
Ġpass ing
Ġext ensive
Ġsent ences
Ġdel ays
Ġmar ched
Ġsen ators
ĠHe ath
Ġjoin ing
ĠPh ill
Ġindic ation
Ġcoll abor
Ġview ers
Ġturn out
Ġclass es
Ġprotest ing
int end
Ġeffect ively
ĠCl a
Ġexpect ing
Ġpil ots
alt ies
Ġmoment um
ĠMoh amed
Ġcrim inals
ĠChar l
Ġwild life
ĠOsc ars
Ġpurs uing
Ġextra ordinary
Ġhy brid
Ġcomplain ts
Ãı ÃĢ
Ġrecomm ended
ien na
ĠGlo bal
Ġult imately
ĠPortug uese
ums feld
ĠMet ropolitan
Ġdevast ating
Ġsubstant ial
Ġtort ure
terror ism
Ġearning s
Ġdisappear ance
ĠEth iop
lah oma
Ġsche me
B M
E ach
d i
e xt
f ast
f ielder
o ters
p ts
u ins
w as
w rit
Ġ ing
Ġt ropical
or ough
Ġc oc
it ig
it ting
Ġp and
Ġb acter
Ġm oon
ic ated
Ġd ry
id ers
Ġth rown
Ġre ducing
Ġl ists
ol ved
Ġg olf
un a
un ction
ĠC le
ra quo
ĠP itt
ĠB y
oun ce
ĠK ate
ĠT a
ĠT ime
ĠT oy
op en
ul ating
ĠW omen
ĠR yan
ĠF irst
ess ors
Ġun identified
Ġpl um
Ġwor s
ĠO ffic
ĠCh ong
Ġcl ashed
Ġexp ansion
ress ive
Ġup set
Ġacc ompl
Ġtr ucks
Ġro cks
act ions
Ġfl own
Ġimp ose
Ġco verage
Ġbl aze
Ġsur ren
Ġreg ret
pt ive
Ġfound ation
Ġmed al
Ġrele asing
Ġprom ising
Ġdisc over
Ġgr ass
Ġpublic ation
Ġinvestig ator
Ġshould er
ĠIsrael is
rib e
aim ed
Ġgen etic
Ġdead liest
oo ter
Ġposs ession
Ġtest ified
Ġsum mon
Ġsw ift
Ġhapp ens
Ġland mark
Ġimport ance
ĠBl ue
ĠDav is
Ġindic ates
Ġindic ating
Ġdise ases
ĠPaul o
Ġmom ents
Ġrespond ents
Is lam
Ġtens ion
Ġexc ited
Ġunc overed
Ġhear ts
Ġrob bery
Res c
Ġassoci ated
level and
ĠPhil ip
ĠTs vangirai
ĠLib ya
Ġcong rat
ĠWolf owitz
ĠKat rina
ĠBroad casting
Do ctors
Ġspirit ual
Ġble w
Ġgreet ed
Ġliqu id
Ġnove l
Ġplung ed
Ġsli pped
Ġtoug her
ĠSaf ety
Ġtab lo
Ġtimet able
ĠJint ao
2 1
B ay
F L
G O
H ar
H ong
L ike
Q u
T aliban
Y et
b ro
e qu
p ing
in th
in ch
it ts
ar io
Ġb ond
Ġb ureau
Ġto t
il s
om ers
Ġg ri
Ġg ross
ĠC leveland
am ber
ot he
Ġst ages
ĠP ower
Ġal t
Ġpro of
Ġr anging
ĠH uckabee
ĠJ ol
ast e
ĠF I
ĠF ront
ĠF ernand
Ġch ip
ĠL ev
ĠL ohan
Ġun expected
ab et
Ġor b
Ġab uses
Ġrep atri
Ġcl oning
Ġup d
cent ury
Ġother wise
Ġsc re
Ġso aring
Ġear n
Ġcar ries
Ġtra ged
Ġra ins
gr ade
Ġdes ire
Ġmark ing
Ġinter im
Ġstr anded
per ts
Ġsign al
Ġfollow ers
Ġbus es
ĠEn vironment
Ġrest rain
ĠBe at
Ġ9 5
Ġve get
Ġsk i
Ġden ounced
Ġdiscuss ing
Ġpa rent
wh ich
Ġ198 7
Ġstation ed
Ġdesign ers
Ġdesign ated
Ġround s
Ġview ed
ĠArab ic
Ġtrip s
Ġpred ict
Ġcerem on
Ġlif ting
Ġhistor ical
Ġdi agn
Ġmaintain ed
ĠDar win
Ġapolog ize
rav ol
Ġtyp es
Ġdefend ants
Ġspons ors
cri pt
Ġendors ed
Ġdetain ees
Ġextin ction
Austral ia
Ġmanufacture rs
Ġassess ment
ĠEr dogan
Ġsust ained
Ġelder ly
Ġspecif ically
ĠDiv ision
Ġlegit imate
rehen s
Mich ael
Ġdenuclear ization
ĠCommer ce
Ġempt y
C ong
D et
G M
L ocal
N ASA
O pp
b order
b rahim
d in
f rey
g l
g t
r as
s he
u ous
w ind
Ġt iss
at i
Ġp ending
Ġb are
Ġl augh
Ġe lement
ol ph
Ġfor g
Ġfor get
ĠA T
ĠA sh
ĠP rop
ĠP ope
Ġwh aling
ĠK ansas
ĠT echnology
Ġpro long
ĠW ith
ĠW right
if ul
ĠH udson
Ġex ecution
Ġsh ook
um n
od es
Ġun h
ĠE cu
Ġab ol
ĠO P
ren ess
Ġres idence
Ġcomp on
ib i
Ġatt ached
Ġpr on
oy a
ne g
ĠSun g
Ġunder mine
Ġcons ensus
Ġmem orial
Ġ7 7
io x
Ġ8 8
Ġdef ending
ĠAr k
ĠAl ban
ĠZ h
ĠZ one
Ġmy self
Ġnational s
Ġperson ally
ĠComm and
Ġur ge
Ġden y
ĠChrist ians
Ġ16 0
app y
Ġste ep
Ġbroad er
Ġmount ains
che ll
Ġteen agers
Ġcommission er
Ġphys ic
ĠChampions hip
Ġund ers
Russ ian
Ġvirt ually
Ġinqu est
Ġunp re
Ġresul ted
Ġresul ting
Ġcateg ory
ĠBah amas
Ġpresum ptive
cons in
Ġdict ator
ĠTay lor
ĠWind ows
Ġpromin ent
Ġtouc hed
ĠMove ment
ĠWis consin
" .
C ol
C ritics
P yongyang
S om
b our
c us
d ed
f ace
g us
h igh
i ences
l anguage
m or
m outh
m ath
s es
in ks
er ated
an im
at an
it ter
is hes
Ġp ard
Ġp ages
Ġb es
Ġb ene
ing ly
Ġan x
Ġan ch
Ġh o
ic ation
Ġn ice
Ġbe ars
Ġe lsewhere
ut s
Ġg ro
ĠC ivil
ĠC raig
am my
ĠA I
ĠA pp
el son
Ġr ubble
ew el
ew ork
ĠF rom
oc ide
ack s
ab el
ĠO dinga
Ġafter math
ĠSt adium
Ġcomp ar
iz umi
Ġacc idents
ose xual
ail ed
Ġlast ed
amp a
Ġthem e
ĠV ienna
Ġkn ocked
Ġprot ected
Ġins ists
Ġinf ant
Ġvis ible
Ġgu idelines
ull s
ester ol
Ġput s
ĠWh it
Ġadv ent
ĠJan e
Ġfilm maker
iven ess
Ġdecl aring
Ġste pping
over ished
Ġproduc ers
ĠWar ner
Ġrev olution
Ġdetail ed
Ġpred ec
ĠSer ies
Ġflood ed
ĠKh al
Ġcover ing
isco very
Ġabs ence
Ġrecogn ized
Ġamb itions
Ġsuspic ious
Ġcy clone
ĠWin frey
ĠTim or
Ġprincip le
ĠRad cliffe
Ġsong s
Ġfrequ ently
Ġtempor arily
Ġrank ing
Ġbatter y
Ġspect ac
Ġhopef ul
Ġlength y
ĠGonz ales
Ġconfront ation
ĠTransport ation
Ġtorn ado
ĠOk lahoma
Ġconsequ ences
ĠUt ah
Ġsch ol
spe ed
Ġtraged y
ĠEcu ador
Ġbene ath
8 5
F irst
H A
P utin
R on
S a
c are
c ape
d em
h aul
m ir
m ind
n ect
p oin
u h
z h
Ġ iron
he el
in ts
Ġw ore
Ġw rap
Ġw rapped
or p
or gan
Ġc ul
Ġc ode
Ġo d
it ime
ar ations
Ġp ap
ou ston
as ure
Ġd ign
Ġd ates
Ġd ating
Ġth ick
Ġre ward
Ġn urs
Ġe c
ĠS her
ĠS heriff
Ġg or
Ġg est
Ġg ren
ur t
un es
ĠA C
ĠM ore
ĠM oon
ĠN ich
ĠU g
ĠF ab
ĠF DA
ĠF ootball
Ġch at
ian ts
ĠE mergency
ĠCh ildren
Ġres ear
uc cess
ell s
Ġout look
Ġper mission
Ġover come
ib ilities
Ġcan c
Ġro t
Ġimp overished
Ġeconom ists
Ġrel uct
Ġair lines
Ġhelp s
Ġopp osite
Ġ8 5
ĠAss istant
Ġevery where
ĠEn d
ĠSec urities
Ġpass ion
Ġext rad
Ġsee ks
Ġcre ation
Ġca fe
Ġperson ality
ck er
be at
Wh ite
Ġadv ised
ĠLe ader
ĠCar ter
Ġprison er
Ġinst ant
Ġinst ance
Ġreal ized
Ġreal ize
cept ion
Ġ198 6
ĠHar vard
Ġdiplom acy
Ġshut down
Ġris en
Ġemploy ment
Un ited
Ġpub l
amb ling
Ġgoal keeper
Ġvol at
Ġrev ive
Ġconst ant
Ġsepar ated
Ġbad ly
ĠEm irates
Ġrespond ing
Ġemb arr
Americ ans
Ġclub s
Ġfeat ured
Ġcoop erate
Ġrelig ion
Ġconfirm ation
Ġunf air
Ex perts
Ġflag s
rill as
Bar ack
rast ructure
Ġinsp ired
ĠRev olutionary
Ġextin ct
ĠSur vey
Ġproced ures
Ġcolon ial
lus ive
Ġmand atory
Ġremark able
Ġemot ional
Ġvolcan o
Ġemphas ized
Ġimpe achment
Ġstro ke
heim er
ĠEduc ation
elts in
Ġsurren der
Ġembarr ass
B razil
F K
G ood
M ad
P art
S un
U p
V I
e er
f ew
f ering
n et
r ace
s m
t urn
z ene
Ġt rick
Ġt elesc
in ted
in ho
re ts
Ġs oph
er ies
Ġw ound
Ġo cean
Ġf ighter
Ġp ill
Ġb arg
Ġh iding
ic ate
Ġd a
Ġre ference
Ġl ending
ĠC ard
ig ious
ĠA k
el ro
ĠI brahim
em bers
ĠT w
ri ble
Ġha iled
ĠW ay
ĠW inehouse
ĠD a
ĠD es
ĠG ib
ĠG raham
ĠJ erry
ĠF red
Ġnot iced
Ġag g
Ġj ets
Ġcl ient
Ġout standing
Ġper mit
Ġinc oming
ang el
Ġpart ly
ind i
Ġqu oting
Ġreg ister
me ter
Ġ7 4
Ġvis ion
Ġlong time
Ġeff icient
ĠUS A
Ġoper ated
Ġpolitical ly
Ġclim b
Ġob st
Wh y
Ġrequ ests
Ġinterview ed
cept able
ĠHill s
St ar
Ġav o
Ġtax pay
Ġwrit ers
Ġyoung est
umb ling
Ġdescrib e
Ġconsum ption
Ġvol ume
Ġdro pping
Ġwa ited
Ġwat chers
Se ven
Ġmount ing
Ġball istic
Ġmean while
Ġel abor
ĠKar achi
ĠMos ul
Ġrespect ively
Be ijing
Ġdispl aced
Ġcelebr ated
Ġopportun ities
Ġmind s
ĠMer kel
Pakistan i
Ġcomplic ated
ĠFort une
Ġtun nel
ĠRog er
Ġhung er
Ġunn amed
Ġbrut al
ĠTo day
Comm un
Ġsharehold ers
Ġwreck age
Ġvulner able
ĠiPh one
Ġunpre cedented
! "
9 9
C urrent
F ollow
M on
P AR
R ich
S uch
c les
d ick
m ans
n ut
p ost
p ress
t ech
u o
Ġt act
Ġa ired
on ic
Ġw ine
es h
Ġf er
Ġf ran
Ġp ig
ou red
Ġm ice
Ġm our
Ġh am
Ġh ang
as ks
Ġth rill
ro st
ut en
Ġg ift
Ġfor th
Ġsa v
ĠC r
ot ive
et a
ĠP oll
ĠP owell
ĠI f
ĠB ureau
em ies
ĠT own
Ġcon ced
ri o
ĠN H
ĠN am
ĠN ick
Ġsh ark
Ġsh ipping
ĠF uj
Ġsp an
ĠL ake
se at
Ġpol ar
ĠSt ation
Ġinc ent
lo om
Ġacc use
ric s
ish ing
Ġshe ll
av ar
aw ah
Ġpre ced
erv ing
Ġ19 3
Ġcomm em
lud ed
ath on
Ġcons ol
ĠSh ah
Ġass aul
Ġfe es
Ġcent ered
Ġlong est
Ġsusp ension
ĠAr ctic
Ġgen erate
Ġcur b
Ġspe aker
Ġmar ine
Ġmove ments
Ġche cks
Ġuse ful
Ġpress ed
ĠLe on
ĠCar los
Ġvide ot
Ġconv iction
Ġdisp utes
Ġwrit er
Ġart ists
Ġconsid ers
umb led
Ġeng age
Ġdesign er
Ġcompet ing
Ġpen alties
Ġceleb rities
ĠMad off
Ġcrowd ed
Ġsurvey ed
Ġlaunch ing
Ġexc iting
ĠBr ig
ĠShin zo
ĠCub an
Ġcommand ers
ĠNic ole
Ġamb ul
Ġpsych iat
ĠWin ter
Ġexpand ing
Ġmotor cy
Ġinsur gency
ram id
ĠAhmad i
Rep ublic
ĠMur ray
Ġcoord in
Ġadj ust
Ġproced ure
Ġunderw ent
Ġhabit at
Ġwr ongdo
Ġelev ator
Ġpersu ade
Ġsear ched
Ġcomprom ise
Ġdisag re
ĠMit chell
Ġpilgrim s
xy gen
Ġattrib uted
ĠKent ucky
Ġreplac ement
ancell or
Cong ress
ĠOP EC
PAR IS
A be
B ur
C omp
D r
F ederal
M an
P acific
Y es
Z awah
d omin
l ers
t ada
z y
z heimer
Ġthe rap
er ating
Ġp hen
al p
Ġm un
Ġm ood
st ream
Ġl od
Ġl unch
ĠS ang
Ġg al
Ġfor ms
im ents
un ich
ĠC ruise
ĠM as
ĠM ide
ĠM BC
ĠP u
ers h
ul u
ĠN ov
ĠD ak
ĠD rug
ĠD emocracy
ĠH ad
ĠH oll
ĠH ouston
ĠG ren
ĠR umsfeld
ĠF el
Ġsp ill
Ġsp raw
all ing
ab ama
Ġse as
Ġrep air
Ġj e
Ġcl ock
Ġout put
Ġme re
Ġacc el
man uel
Ġsc oring
ĠY i
Ġmon arch
Ġkill er
lin er
lin ing
Ġwar s
Ġfin ed
Ġrem oving
Ġstat istics
anc he
ĠSe ung
Ġinvest ments
Ġdes c
Ġinf rastructure
Ġref lects
Ġph arm
Ġsign ing
Ġgr ay
Ġgu est
ĠAl zheimer
ĠAm azon
Ġjob less
augh ters
Ġemer ging
Ġactiv ist
Ġmid fielder
ĠBl itzer
Ġbody gu
Ġlist en
ĠMy Space
wh o
hy e
Ġnorth western
Ġanal ysis
Un til
Ġfoc using
Ġball ot
Ġclos est
Ġsect ors
Ġlegisl ature
reg on
Ġrob ot
Ġrecon struction
Ġassoci ation
Pro t
Ġmist akes
Ġenjoy ed
ĠAnn an
Ġawa reness
Austral ian
Ġmethod s
Tur key
ĠWood s
Ġpeacekeep ing
Ġaccompan ied
Ġunivers ities
Ġguer rillas
ĠBow l
Ġchol esterol
ĠGi uliani
Ġfundament al
Geor ge
Ġcoc aine
gus on
ĠMide ast
D C
E N
I N
I m
M in
S ur
W al
Z imbabwe
b oy
j amin
m other
q tada
r ates
s l
v ant
Ġt rem
re al
Ġw ider
Ġc ore
Ġc ub
Ġc ru
Ġc ert
Ġf ract
ar ra
Ġp in
Ġm el
Ġh anging
Ġd re
Ġd ying
Ġre h
ĠS adr
un al
ĠC at
ig ers
Ġst amp
em ble
ĠK un
ĠK ia
ĠK itt
Ġas yl
and ahar
ĠN ot
ĠW HO
ĠD omin
ĠH ome
ĠR oma
Ġoff enders
Ġnot ing
Ġun ique
ĠE ll
Ġpl enty
Ġse lection
ren a
Ġexp ed
Ġout do
Ġmil e
Ġen orm
Ġpre st
Ġmon key
Ġfl ame
Ġrec lusive
Ġsupp orter
Ġtal e
Ġ6 7
An y
Ġrel ie
anc o
Ġret ali
ĠSh im
Ġinf ection
Ġinf ilt
Ġinter ior
ĠMar ines
Ġpublic ist
Ġcontin ent
Ġdef icit
Ġloc ked
sh aped
ĠSec ond
ĠAr m
ĠAr senal
Ġcur few
ĠAl an
ĠAl abama
ĠSen na
pr ime
Ġrul ers
Ġthreat ens
Ġpros per
Ġsk ills
Ġdist urb
cl ass
ĠPe ters
Ġhard er
sc ious
ĠGaz prom
Ġri vers
ĠWar ren
Ġground s
Ġanal y
Ġcomb ination
de ep
Ġcross ing
itness es
Ġkidna ppers
Ġprevent ing
ĠEx ecutive
ĠKy oto
ĠMed ia
ĠMed vedev
ĠHol y
Ġfle x
Ġrelationship s
Ġsurpr ising
reg ular
Ġrare ly
EO UL
Ġep id
Ġbott les
ĠIsland s
Ġassoci ate
Ġsal mon
Ġdistrib ution
war zene
ĠYang on
Ġrat ings
Ġguarant ees
Ġprin cess
Ġsurve ys
ilit ary
ĠNiger ia
Ġproceed ings
Ġqualif ying
ĠDen ver
Ġbran ch
Tw enty
Ġlandsl ide
ĠCoop eration
Europ ean
Ġsubur ban
ravol ta
iox ide
bour ne
Ġphen omen
Ġasyl um
warzene gger
E conom
H amas
I l
M en
P S
Q aeda
S EOUL
Y ahoo
b el
c ase
d ef
f ight
i y
i ors
m al
m ate
n orm
p iece
in ter
in der
on el
Ġc ats
Ġf ab
Ġf isher
ar ity
is ive
Ġb ow
Ġb one
Ġto y
Ġd aughters
Ġd ioxide
Ġre ass
Ġre verse
st ers
Ġbe aut
Ġe cho
ĠS gt
ut t
ut ious
ĠC old
ot te
et ime
Ġst ick
ĠM ong
ra id
th row
ĠB ear
ĠT re
rom e
ul ous
ĠN a
Ġpro lif
ĠH it
ĠJ av
ĠR aj
Ġex ha
ĠF orest
ud ge
Ġab duction
Ġrep ut
ĠO regon
Ġac id
Ġres istance
Ġint ends
Ġinc red
ace book
iz er
ĠY oon
ĠTh ree
Ġfl aw
Ġcr unch
Ġind efin
Ġfin ancing
ath y
Ġcons ul
az a
Ġass um
Ġhost ile
Ġ8 1
ĠInd ex
Ġshould n
Ġext ension
Ġca utious
ev a
Ġdevelop ments
Ġfind s
Ġopen ly
ĠCD C
Ġindust ries
Ġsk ept
Ġ18 0
Ġstrong est
Ġconv ince
ON G
Ġdisp ers
Ġfall s
Ġri ot
ĠGu ang
Ġmanag ers
Ġequ ity
Ġclass room
ĠSa o
Ġaim s
ĠTe levision
ograph ic
Ġdoub led
ĠAh med
Ġpurs ued
Ġarch it
cont in
Ġcollect ed
Ġarg ue
Ġargu ment
Ġtyp ically
Ġboyc ot
Ġoppon ent
Che ney
Ġoptim istic
Ġbran ches
ĠEve rest
Ġappl ied
Ġmurd ers
Ġmic ro
Ġanticip ated
ĠPros ecutors
Ġvig il
Ġtraff icking
Ġepis ode
ĠToy ota
Ġsoph istic
Follow ing
, Â´Â´
6 4
A h
F ire
M ed
R I
R o
S up
S te
T okyo
W all
f ather
f ront
g iving
h us
k at
l an
t ic
v ili
Ġ iv
Ġt anks
Ġthe ft
Ġw rest
an o
at on
Ġf ru
Ġto ler
ou ch
Ġm um
Ġd orm
st one
st ory
ĠS and
ol ks
ig ible
et ing
ĠM iller
ore r
ĠP A
ĠK elly
ĠT an
ri ff
Ġpro stitution
ĠW ater
ĠD iscovery
Ġex ceed
ĠF isher
ĠL ine
Ġun anim
Ġaf raid
Ġj u
Ġj un
ard ari
ĠSt and
ie v
Ġcont acted
Ġsc ar
Ġro les
ĠY un
lud ing
ru ce
Ġfl ash
Ġact ual
Ġthere fore
Ġunder going
Ġbl ind
Ġbl ocks
Ġra ped
Ġany where
Ġback ground
Ġcap s
Ġ7 2
Ġhost s
Ġinter pre
Ġref usal
ĠMar ia
ĠSp ani
Ġtrans actions
Ġoper ator
Ġsub way
Ġent rance
ik o
Ġown s
Ġclim bed
Ġcrit ically
Ġtest ify
pl ay
Ġyour self
Ġcou rage
rem lin
iver se
Ġinst ru
Ġdam ages
Ġtechn ique
St ud
St ocks
ĠPro ject
Ġappear ances
ĠCong o
ĠCon ference
Ġbreak s
Ġri ots
Ġste ad
Ġprim arily
Ġrad ar
Ġz ero
Ġrev ised
Ġval id
Ġport ion
Ġhon ored
Ġstrugg led
Ġparticip ating
Ġple a
Ġtrou bles
Ġbuy ers
Ġblast ed
New s
Ġtemp le
Ġregard less
Ġfast est
Pr ince
Ġexist ence
uj a
Ġclin ic
Ġdistrib uted
het oric
Ġign ored
Ġtemper ature
ĠDi y
Ġresident ial
Ġhun ting
Ġapplic ation
Ġarr ang
Ġstrateg ic
ĠVict oria
ĠKo izumi
Ġinterrog ation
found er
ĠLew is
ĠHom eland
Ġbacter ia
Ġsummon ed
itts burgh
Ġtot ally
ĠJol ie
abet es
Ġconsol id
. )
1 50
9 6
9 00
E F
g ian
o i
p arent
s elling
u ations
in os
Ġs ounds
or a
es ong
Ġf ee
is an
Ġp ion
Ġb on
Ġb orrow
al le
Ġh orm
Ġh ired
Ġd row
Ġd yn
Ġl en
Ġe ager
ac c
ig g
ĠM arg
el ve
ĠI C
ĠB enn
os h
os hi
ĠT am
op ard
and om
ain ing
pp led
Ġr ic
Ġr ub
if er
ĠD ean
ĠD allas
ĠR ay
ĠR ail
ĠR osen
ĠF ree
Ġk icked
ĠL im
Ġse aled
ĠO mar
ĠCh ange
ĠCh annel
ĠCh ancellor
Ġj ewel
ke i
ĠSt ud
old s
Ġthan ked
rit ion
Ġen h
Ġen emies
ade i
Ġte eth
Ġcr ush
ĠMin nes
Ġfin als
Ġcons c
pt oms
uth ors
ai red
Ġdes per
Ġins pir
Ġev il
Ġ7 1
Ġprom ises
Ġhost ing
min ent
Ġsl a
Ġdep th
Ġ8 2
gg ing
Ġgen ocide
Ġpop ulated
ĠGe un
Ġsw orn
Ġlaun dering
Ġshort age
ĠRe id
Ġexecut ions
Ġaut on
Ġ14 0
ĠCon f
Ġmass acre
umb ent
Ġeng agement
oz ens
Ġequ ival
Ġfeel ings
Ġcompet itive
Ġbur ial
Ġbur den
ĠAngel a
Ġpo ison
Ġport ray
Ġcontro ll
Ġparticip ation
ĠKen yan
Ġengine er
Ġreview ing
Ġreve al
Ġbott le
Ġtom b
Ġsubst ance
Ġexpand ed
Ġentire ly
Ġimplement ed
Ġregular ly
ĠRod riguez
Ġsil ence
ĠMalays ian
ĠFer guson
Ġapplic ations
Ġfrequ ent
ĠBro ok
roc od
Ġphotograp hers
Ġcomfort able
Ġexhib it
Ġarr anged
ĠId ol
ĠHel mand
Ġwonder ful
ĠCambod ia
stan bul
Ġagricult ure
Ġoblig ations
Ġexclus ive
Ġpainting s
ĠNaz i
Ġcoin c
ĠLah ore
Ġegg s
Ġpostp oned
Ġcounterfe iting
Hy undai
Ġsy mp
Ġsor ry
itig roup
rehens ive
Ġvolat ile
Ġspraw ling
Ġreh abil
Ġprolif eration
ĠHit ler
ĠMinnes ota
3 1
3 80
4 4
6 7
9 8
A ct
A pple
B eckham
C an
E l
M E
N ATO
T op
U C
a ution
b ian
d is
m ese
n an
s we
w w
z es
Ġt ip
Ġt ears
in ct
in son
on to
Ġs ed
er to
er oid
or ations
Ġf ake
is en
Ġb ans
Ġh ill
ic ting
Ġd olph
Ġth ro
Ġn aval
st orm
Ġl i
Ġl it
Ġl ake
Ġl one
Ġl ock
Ġl oud
Ġl angu
Ġe lements
ĠS tern
ĠS now
ĠS ky
ad ona
ol t
Ġg ate
ig hed
ĠA cc
et her
ĠM og
ir l
ir ut
ir med
ĠP M
ĠB os
ĠT ampa
op es
est ed
est one
ul es
ĠW oo
ĠD er
ĠD own
ĠG il
ĠG all
Ġle ct
ĠF T
Ġoff ense
Ġsp ray
od a
our ing
all ah
Ġwere n
Ġab ortion
Ġag ing
ĠO bs
ĠCh os
Ġac ad
ard ed
Ġacc ur
Ġdis rupt
hed ral
Ġsec ured
In ter
Ġwar rants
ah n
Ġsur ged
rat t
Ġdes k
ug ged
Ġinter vention
Ġsm ooth
Ġdep os
sh a
Ġpar ks
Ch avez
Ġdirect ors
ĠAr ch
Ġoper ational
Ġsub sequ
Ġent hus
ĠBe irut
Ġinvol ves
Ġchief s
Ġdr inks
rain ed
ĠGen eva
Ġkid ney
co ver
ĠPro f
Ġbar riers
Ġaut ops
Ġdisp atched
app ing
Ġ198 2
Ġsuff er
ĠGr ammy
Ġpub lish
ĠWe ather
Ġwithd rawn
ask et
Ġhol y
Ġhol es
Ġsepar atist
Ġlin ed
Ġlim its
Ġel ite
omp son
Ġrepresent ed
Ġ197 9
ĠMed ic
Ġast eroid
Americ a
iff s
Ġresol ving
Ġaud io
resp ons
BA D
Ġevac uation
ĠBen jamin
Ġconn ected
Ġdi abetes
Ġmaintain ing
Ġweak ness
Ġvers us
Ġbroadcast ing
ĠSing h
Ġscand als
Ġant ibi
Ġsevere ly
ĠPl an
Ġcontrib ute
Ġprem ie
IS LA
Ġachie ved
Ind ia
Ġclin ch
government al
ĠUk rain
ĠPhilipp ine
Ġunp opular
Ġgrad uate
Ġtrib unal
Ġmach ines
Ġpray ers
Ġrall ied
Ġcong lom
MA BAD
ĠPan ama
ĠVer mont
Ġrecover ing
Hill ary
Ġdismant ling
Ġmanip ulation
ĠSim on
Ġlandsl ides
Ġdrag ged
Ġscen es
Ġflee ing
Ġrecommend ations
ĠIndust rial
pa rency
ĠNow ak
ĠNik kei
Op inion
Ġsmugg ling
Ġpy ramid
ĠGamb ari
ĠAntar ctic
Mic rosoft
Ġhid den
Cap rio
Ġprob ation
ĠHind u
May be
Ġsett led
Ġairpl ane
Ġtablo id
Ġprolong ed
Ġspectac ular
Zawah iri
ISLA MABAD
8 7
C alifornia
F rance
K A
O h
V i
W ell
W itnesses
Y O
b u
b ound
b its
d am
d ec
f rom
f ish
g ic
n ame
p s
Ġw are
an ing
Ġc raft
it led
Ġf rag
Ġin stitution
ic ut
Ġre vers
ad i
Ġg ender
ĠC lin
ĠM en
ĠP yeong
ĠI van
ĠB run
ĠT rib
ĠN BA
Ġpro port
ĠW y
ĠW on
if ty
ort a
ĠJ enn
ĠR ub
ĠF acebook
ack ers
ĠL and
Ġse al
Ġor g
Ġres emb
Ġcl ues
Ġcl ients
Ġint ent
Ġint im
Ġad mission
Ġme ets
ous es
Ġcomp rehensive
Ġover haul
ib l
ip ed
Ġcont amin
ile y
av or
aw az
Ġsc an
Ġsc rap
Ġapp earing
Ġinv ent
ens ions
oll ar
Ġus er
Ġmin es
Ġam azing
Ġrec y
ath an
ah r
rat or
oss ett
Ġass er
Ġass ured
Ġconf essed
Ġset back
Ġexpl an
Ġinter fering
Ġopp ose
Ġsm ashed
Ġ20 11
Ġgr ant
Ġgu ide
Ġgu ys
Ch irac
Ġsub prime
Ġpass age
Ġprep arations
port ed
stit utes
Ġdon ations
ĠGe ological
Ġmor al
Ġexplain ed
Ġhand ful
Ġsw ing
Ġsw ine
Ġpeace fully
Ġtrad em
cl osed
Ġmet eor
Ġ198 8
Ġcommit ments
Ġanim ated
par ts
Ġdescrib es
Ġprivate ly
ĠPaul son
Ġceleb rating
Ġpain t
Ġran ks
Ġtw in
AN D
Ġcheck point
Ġperforman ces
Ġchallen ged
Other s
Ġmountain ous
Ġpropos als
Sec ond
ĠHen ley
Ġpal m
ĠRo oney
ĠNor we
Ġchampions hip
Ġchalleng ing
Ġimmig rants
Ġwealth y
Ġinsp ection
Ġtrib ute
Ġdefin itely
Ġking dom
Ġphotograp her
Ġwood en
ĠBroad way
Ġstrateg ist
Ġwid ow
Ġencoura ging
Ġshout ed
Ġepic enter
Ġrom antic
Ġpromot ion
Ġvacc ine
ĠKaz akh
Us ing
Ġexcess ive
Ġfinger pr
Ġtoil et
Ġrans om
Ġvit amin
Ġjung le
ĠBeat les
Ġtiss ue
nect icut
Ġod ds
ĠUg anda
Ġresear cher
ĠGren ada
Ġenorm ous
Ġiv ory
Ġequival ent
3 2
9 7
A ss
J ack
M F
P at
V ideo
c omb
c ourt
j i
o ffic
p her
p rop
s uk
w en
z ard
Â º
on er
Ġthe aters
Ġw elfare
at oes
Ġc rocod
Ġo xygen
it able
Ġf ault
Ġp eng
Ġb at
Ġto dd
Ġm ir
Ġm all
Ġd ies
Ġd awn
le ep
Ġn avy
Ġl un
Ġl av
Ġg ear
Ġg ases
am ents
ot ten
ĠA st
Ġst al
Ġst ated
el ine
ĠP ittsburgh
ĠI stanbul
ĠB loom
Ġwe ighed
ĠK andahar
ch arg
ch ildren
Ġy ield
ĠW i
Ġr hetoric
Ġr andom
ĠD em
ĠH old
ĠG ame
ĠR aw
ĠR ah
ĠR udd
ast y
Ġsh oe
Ġsh ocked
ĠF our
ĠF TA
um ph
Ġch ick
ĠL P
ĠL o
ĠL enn
ĠE st
Ġab using
Ġexp elled
Ġinc umbent
lo ved
Ġdis order
Ġcont enders
Ġen gin
ran ked
aw are
ĠY e
ach s
Ġimp er
Ġimp ressive
Ġret rie
Ġsl ush
sh aring
sh ips
ĠInd epend
ĠAl f
ĠAl ger
Ġleft ist
com fort
Ġche cked
Ġpress ing
Ġbusiness man
duct ions
Ġpost ing
Ġappro x
Ġtrad ed
Ġprof essors
Ġdr unk
cl ub
Ġvo iced
Ġcare fully
Ġfact ories
Ġlot s
crib ed
ruct uring
With out
Ġaim ing
Ġsqu ee
Ġtit led
Ġcho ices
ĠAnd erson
cel and
Ġkind s
Ġball ots
ĠKy odo
ĠMos que
ĠAll en
Ġlabor atory
ĠBur mese
Ġcustom er
ĠShe ikh
Ġclos ure
Ġaccount ing
bit ious
Ġcheck ing
friend ly
Ġconn ect
vest ment
Ġmaintain s
ĠShar apova
Ġperform ing
Ġcard i
Ġpick ing
Ġmedic ation
ĠElect ronics
Ġprem ier
ĠOs aka
Ġbox es
Ġsym ptoms
Ad d
Ġowners hip
ĠLiber al
Ġmention ed
ĠAg ricult
Ġhighlight ed
Ġdump ed
ĠKa esong
Ġreun ited
ĠCoop er
ĠProt ection
ĠWil son
ĠMerc ury
ĠBelg ium
ĠPre vention
Ġdecre ase
Ġinterven e
ĠRaf ael
sur ge
ĠMichel le
Ġunac ceptable
ĠOffic er
ĠFI FA
Ġceremon ies
Opp osition
Ġpron ounced
Ġgest ure
Ġelabor ate
Commun ist
Ġmotorcy cle
Ġwrongdo ing
ĠDak ota
Ġfab ric
Ġreput ation
Ġengin es
5 5
8 6
B ER
C or
D an
D ozens
K YO
L C
M il
P A
P ublic
b il
d ie
f are
f ires
i pper
j in
j ust
k irts
m ers
m od
r ising
r ams
s a
s an
t orn
u zz
Ã ¦
he ther
re p
re z
re ated
Ġs add
or ous
or ious
ed ing
it ar
ar oid
Ġin h
Ġin hab
Ġin mates
Ġd uties
Ġn od
Ġl oot
ĠS or
ut ral
ol n
ac om
ĠC annes
ot y
us ive
ĠM s
ĠM aur
Ġis lets
ĠP res
ĠB ase
ĠK night
ĠK remlin
ĠT emp
ĠT iger
Ġcon vey
ĠN at
ag ger
Ġcom eb
ĠD eb
ĠH ubble
ĠJ r
ĠJ ay
ĠR ays
ĠR owling
Ġsh ake
Ġch art
Ġch amber
our s
our se
ĠL y
ĠL ive
Ġsu ed
Ġpl ate
qu arter
ĠO ut
ĠCh i
Ġj ur
ĠSt rip
so on
Ġad m
Ġad apt
Ġinc urs
Ġcomp ly
Ġcount ed
ail ing
aw atra
lic k
ĠY eltsin
ush kin
Ġqu ar
Ġqu ot
oin ting
ĠV ill
Ġam bitious
Ġno on
Ġco vers
Ġrem ov
Ġany body
Ġelect ronics
Ġbu zz
Ġins ist
Ġmed i
Ġformer ly
Ġrele ases
Ġtri umph
Ġfam ed
Ġref in
Ġref using
Ġdisc rim
sh ine
ific ial
ik es
ĠFran co
Ġbre ad
Ġban ner
Ġ12 5
Ġappe als
Ġfree zing
less ly
Ġdist ress
Ġstrong hold
Ġimport ed
ĠSc ient
ĠSc iences
Ġcritic izing
Ġgeneral s
ĠGu ild
Ġmanag ing
ĠFor um
Ġstre am
ĠTe le
Ġvir uses
Ġcounter parts
ĠKy ung
ĠShi ites
Ġdifficult ies
ĠTaiwan ese
ĠSch warzenegger
Ġgrand mother
Ġinsurg ent
Ġcommunic ate
Ġhear ings
Ġsatell ites
Ġdefe ated
Ġabs ent
ĠShin awatra
Ġintro duce
Ġcontrib uted
Ġcy ber
Ġpsych ology
OS CO
Ġwilling ness
Ġforest s
Ġswe eping
Ġlands cape
isc al
Ġuns uccess
Ġtank er
ĠBern anke
ĠLib yan
Ġargu ing
Rep orts
Ġbelong ed
Ġairstri kes
Ġexhib ition
ĠHa iti
Ġhousehold s
Ġrecru it
dro e
Ġdiscl ose
TO KYO
ĠWild life
Ġstun ning
Ġramp age
Ġobvious ly
Ġhal ted
Ġouts kirts
Ġimag ine
Ġsac rif
vin en
ĠJac ques
Ġmut ual
ĠCase y
Ġtranspl ant
ĠHeath row
Ġpredec essor
poin ts
Ġphenomen on
Ġlangu ages
ĠLP GA
Ġcomeb ack
4 6
8 4
A M
B en
D R
H orta
L ondon
P od
S impson
T en
T ra
b id
h alf
l ights
o ft
r and
v y
Ġ umb
Ġt ips
Ġs na
or b
Ġc in
it ary
Ġf ame
Ġf ert
is ons
Ġp act
Ġb io
al ition
Ġan th
Ġm ad
Ġh amp
ic ious
ro le
Ġl ucky
Ġe Bay
ĠS lo
ol ence
Ġg lim
Ġg onna
ac her
Ġsa ving
ĠC lo
ĠC ult
et own
ill as
ĠM P
ĠM od
th ree
ĠP a
ĠI BM
ĠB A
Ġwe bs
ĠK EB
ĠT erry
ĠT rip
ĠT ravolta
ri fic
ĠN ap
ag u
ew art
ort ium
ĠD un
ĠD ana
ĠH ass
ĠH ung
ĠJ oh
ĠR oc
Ġsh irt
Ġch imp
Ġsp ots
Ġsp aces
Ġun ited
Ġun iverse
Ġj ack
Ġout f
iz a
Ġcont emp
ish u
av our
Ġro ots
ĠTh ompson
Ġso ared
ĠV in
Ġind eed
Ġsur pass
ult ane
Ġattack ers
Ġrem ind
Ġbr ings
Ġinvest or
ĠAn a
Ġtop ic
ĠUS S
ĠInd ians
ale z
Ġrest ored
Ġleg acy
ĠJohn droe
Ġfar ms
Wh o
ĠEng ine
Ġcandid acy
Ġhand led
Ġur gent
Ġhom etown
Ġpolic eman
head ed
Ġtrad ers
Ġfilm ing
Ġmid st
Ġform ing
Ġbar red
ĠCon necticut
Ġbreak fast
run ning
ye on
Ġcapt ors
Ġesc orted
Ġhon est
Ġtrack ing
Ġslow ed
Ġregard ed
Ġscreen ing
Ġminor ity
Ġshel ters
Ind ones
Ġprincip al
ĠSerb ian
Ġargu ments
Ġoccup ied
Ġrail way
ĠSudan ese
ĠArgent ine
Ġfix ed
uild ing
Ġregist ration
IC EF
Ġven ues
ĠSout heast
ĠCons umer
Ġendors ement
Ġretail ers
ibb ons
rell a
Don ald
ĠMont ana
Ġscr utin
Ġbatter ies
Ġbreat hing
Ġdiver se
ĠDod i
ĠâĢ ķ
Ġbath room
Ġded icated
Ġrestric ted
Ġplum met
Ġobst ac
Ġmour ning
avar otti
Ġprest igious
Ġretali ation
Ġbeaut iful
ĠBos n
Ġautops y
Ġintim id
ĠNorwe gian
0 5
3 3
D ep
D emocrat
D emocratic
E ast
F O
F ed
G u
K ar
R od
T om
T uesday
T ony
W ar
b ling
d ong
d rop
h ol
h ry
k ara
l led
p ret
r ors
u its
Ġt ired
he w
an ol
or age
Ġo urs
it an
Ġf are
ar az
Ġp ist
Ġb rib
Ġin stitute
Ġm elt
Ġth us
Ġn ose
Ġn inth
ro ck
ĠS ac
ĠS ome
ad ow
ad ishu
ĠC am
ĠC IT
ig a
Ġhe l
ĠM ill
ĠM ach
ir m
el ves
th reat
ĠP usan
ĠI D
ĠB rian
oun cing
ĠK an
ĠK am
ĠT ok
ĠT ae
op y
and ing
ag ged
Ġr ating
Ġr aces
ĠD anish
ĠR y
ĠR ight
ĠF o
ĠL ove
ab i
ab out
ich ushkin
ĠO x
ĠCh ang
Ġbut ton
iz ar
ish op
Ġsec urities
ven ue
Ġpr ide
ens ed
row s
fe re
Th aksin
Ġind ict
Ġwar n
Ġunder go
fore st
Ġcons istent
Ġplan ets
Ġkn ock
Ġattack er
ank ovic
anc ourt
ĠSe v
Ġcap ability
Ġprov oc
Ġstud ied
Ġvis ual
Ġsl ip
Ġdep ending
te en
Ġgu ess
Ġloc als
Ġpar aly
Ġfil es
Ġtrans it
Ġpass es
Ġdead lock
Ġrest ructuring
ĠAm y
Ġ9 3
Ġconcer ning
bal a
Ġalleg ation
Ġfac ts
Ġthreat en
Ġbre ach
Ġpolic emen
Ġhuman ity
ĠChrist ie
inc oln
Ġmus cle
Ġsing ing
Ġgun shot
af ter
ĠAd vis
Ġmother s
Ġdev oted
de avour
Ġthough ts
Ġmusic ians
ĠCl ass
Ġfavor able
Ġcustom s
ĠFed er
Sen ate
Sen na
Ġwitness ed
ĠPol icy
Ġadvis ers
Ġterrit orial
ĠOp rah
Ġastron omers
ĠAtlant is
Ġholid ays
Ġgold en
Ġdemonstr ated
Ġprec aution
Ġmort ar
Ġevacu ate
Ġcontrib ution
Ġsuspic ions
Ġgain ing
ĠHigh way
ĠGre ens
ĠBern ard
Ġtyp ical
Ġmonit ors
ĠDi Caprio
Ġgrad u
Ġfort ified
Ġbed room
Ġcart oon
Ġpra ise
ĠBro ther
ĠBol ton
Ġencoura ged
Ġovert urned
Ġlie uten
Ġess ential
Ġvent ure
Ġagricult ural
ĠSocial ist
aud hry
ĠFre ed
Ġtermin al
Christ opher
Ġmyst ery
Ġlapt op
Ġstabil ize
Ġcaution ed
ĠAlber to
Ġaccompl ish
Resc uers
Ġunders c
Ġadvent ure
Ġpubl isher
ĠHoll and
ĠMog adishu
ĠFT SE
Ġcrocod ile
Ġremov al
% ,
5 9
B N
C om
G ates
H igh
K ang
M a
O K
P oll
P olitical
T S
T ibet
W ednesday
b ig
b ie
c est
c ia
c ount
f in
l av
p o
t op
t ry
u ine
on ia
on te
Ġs essions
Ġw ings
or ig
or ated
at o
Ġc rying
it is
it ivity
ar n
ar ms
Ġp ound
Ġp ants
Ġb asket
Ġto ss
Ġto urs
Ġan k
Ġh ate
Ġh ip
Ġh ike
le in
Ġth orough
Ġre ly
Ġre vel
Ġn erv
Ġl ob
Ġl aser
Ġbe loved
ĠS usan
ur an
ĠC itigroup
ĠA N
Ġst uck
Ġst ruct
ĠM ao
el ing
ra ged
ĠP PP
ĠB o
ĠB ad
ĠK C
ĠK l
ul pt
ĠN awaz
ĠW ol
art ney
ĠD ise
ĠH ist
ĠH ang
ĠH eart
ĠG riff
Ġsh ooter
Ġle ts
ĠF air
Ġnot orious
ab ao
ĠE ston
gh ans
ĠO range
ĠCh ap
Ġexp ense
ber t
Ġme als
Ġdis rupted
Ġall ied
Ġim minent
Ġman ner
Ġcount ies
Ġsec rets
og ether
illion aire
ĠY oo
erv ative
Ġmon keys
âĢĿ ,
ash vili
Ġdec lining
Ġqu ant
He avy
ru z
ss on
oll a
ĠV ol
Ġunder t
Ġtra gic
Ġcons ent
Ġra w
Ġdown turn
Ġins isting
ĠSh a
Ġmed ics
Ġass ert
Ġprom pt
Ġconf ron
Ġdisc ount
Ġdisc ip
Ġtake over
ivers al
Ch o
Ch icago
Ch rysler
Ġtrans parent
Ġext ent
Ġext ending
pr ise
Ġmar ry
Ġnight club
Ġla ure
Ġexper iments
Ġsk et
Ġeleph ant
Ġstop ping
Ġsom ewhere
Ġinst alled
Ġfact ions
Ġkey not
Ġbatt led
Ġprop ag
Ġlot tery
Ġjud icial
ĠMus ic
Ġspecial ist
Ġdescrib ing
Ġcred its
ĠChe ong
Ġprotest ed
Ġsurv ival
Ġcapt ives
Ġlight ing
Ġpred omin
ĠEar ly
Ġel igible
Ġran ch
Ġenc ounter
pro ducing
ĠMad onna
Ġple ase
Ġrout es
Ġcolle ague
Ġcitizens hip
Ġlegisl ators
Ġmult im
US A
Ġslow ly
Ġcreat ure
quar ium
Ġregul ators
Ġadop tion
Ġgener ated
ĠÂ ¢
Ġhy dro
ĠHen in
ĠPer ino
Ġinspect ions
ĠEconom y
ici ency
icip al
Ġpurch ased
ĠCamp bell
Ġ194 9
vious ly
Ġreven ge
ĠGl as
ĠMur phy
ĠTor onto
Ġcoord inated
anks giving
ĠGal axy
ĠSwed ish
Ġburn s
ĠGonz alez
ĠJi abao
Ġtow er
Ġporn ography
Ġrif le
Ġsemif inal
Ġtum or
Ġqual ified
Shar if
Ġretire ment
Ġelement ary
ĠAI G
Ron aldo
zh ou
Ġpap araz
Ġtelesc ope
alp indi
Ġsophistic ated
Ġjun ior
ĠDiy ala
ĠMedic ine
ĠJenn ifer
Ġorg ans
ĠBloom berg
ĠRaw alpindi
Ġincurs ion
3 7
A pp
B ad
D is
L ate
P et
P aul
S P
S ing
S ch
T aiwan
a unch
f ax
i ency
j iang
l ow
n ap
o ir
p ow
r ard
s ay
s ec
u els
v iv
w ai
y ard
Ġ id
Ġa udi
he it
re b
er g
at em
at ross
Ġc ab
Ġo ath
Ġf o
Ġf est
Ġf oss
Ġf iscal
ar ming
Ġb out
Ġan swe
ou f
ou m
Ġh ood
ic ides
om ent
Ġre acted
ro ft
ĠS ab
ol o
Ġg arden
ĠC ur
ĠC irc
am ework
Ġhe ated
ĠM ans
ĠM itt
ĠI T
ĠB alt
ĠB ruce
Ġat roc
os is
est yle
ĠN eb
ag les
ist a
Ġy ards
ĠW azir
ĠG un
ĠJ ung
ĠR oy
Ġex iled
Ġsh attered
um es
ap ing
ĠL G
ĠL isa
ian e
Ġun w
se e
up s
ĠCh ild
ign ment
Ġint r
ress ing
Ġacc uses
Ġher itage
ors es
ass es
Ġtr ash
ĠIn vestment
ond uct
Ġ3 50
ran ean
Ġcan al
Ġro lled
ĠY anke
con f
Ġsome body
Ġte a
Ġte aching
Ġmin im
ĠAf ghans
Ġear liest
Ġcons ortium
land o
ced es
anc er
Ġinter fere
Ġref use
Ġ8 6
Ġ8 7
Ġbro ker
ĠSp r
Ġpoin ting
Ġknow ing
hen g
ier ra
Ġdeal t
Ġmar itime
Ġdon or
Ġfar mer
Ġcol umn
Ġminister ial
Ġappe aling
lim ate
Ġpay ment
Ġbatt ered
Ġinterest ing
Ġfut ures
Ġart ificial
Ġ198 1
Ġtreat ing
ĠTr in
Ġshut ting
Ġ17 0
ĠArab s
ĠOr lando
Ġrev ision
uk i
ĠMan uel
itz g
Ġlo aded
Ġmot ive
of i
ĠCl ark
Ġpain ful
Ġdeep er
ĠEd ward
Ear ly
Ġver ify
ĠMor oc
Ġsn ap
Ġeduc ational
Ġgrand father
ĠPol aroid
ope z
Ġfr amework
Ġdoub ts
Ġinflu ential
Ġpur ported
bre aking
Ġbi ological
ĠÂ £
Ġlay offs
Ġassass inated
Ġclin ical
Ġtext book
Ġplot ting
Ġfinish ing
Ġchampions hips
Ġacqu itted
Ġeld ers
Ġmer ch
Ġmer ger
Ġreven ues
Ġisol ation
Ġtradition ally
Ġharm ful
Ġrein force
Ġdevast ated
Ġtrail s
ĠSum mer
aret te
ĠComp any
Ġoptim ism
Ġlik es
Ġshout ing
Ġmurd ered
ĠLu is
Ġsubsid i
Ġuniform s
Rec ent
Ġexch anges
Ġsyn d
Ġquarterf inal
Ġglac iers
Ġunderst ood
Ġpattern s
ĠSpec ial
Ġdisab led
oca ust
ĠPhill ies
gl as
mor ning
Ġagg rav
Current ly
Rich ard
Republic an
ĠPu erto
ĠStand ard
Ġenh ance
Ġrehabil itation
respons ible
Ġantibi otics
Ġtradem ark
ĠLenn on
ĠAgricult ure
role um
ĠTrip oli
ĠDise ase
Ġkeynot e
Ġanswe red
. Â´Â´
7 6
B UR
E lect
F TA
H S
H ouse
H uman
J e
L ead
M S
M embers
O L
P ass
S an
a uc
c ross
h art
h ost
k ind
m ons
s ight
y ip
Ġt iger
Ġt aste
Ġs isters
Ġc orn
Ġf et
Ġp ac
Ġp ure
Ġin ternet
Ġto ols
Ġan gered
Ġan cest
ic ians
Ġd ug
il m
il ia
ay a
Ġbe ll
ĠS achs
ad h
Ġg ad
ĠC as
ĠC ast
ĠC ole
us en
us iness
ĠA min
Ġst range
ill iant
ill ery
ĠM ission
ĠM ats
ĠM aine
ra ve
th ur
ĠB ry
em i
ĠK ash
Ġas ks
Ġal arm
Ġal ien
ak ashvili
ĠN ixon
ĠN FL
ct ica
Ġv ocal
ĠG ang
ĠR ose
ĠR ef
Ġsh ame
Ġsh aring
Ġsh arks
ĠF ut
um ber
ud es
ĠL ight
ĠL au
ĠL aur
ĠL incoln
Ġsu its
Ġun ch
ab ani
ĠE s
ĠO kin
ren heit
Ġj oy
ant ile
Ġpol led
Ġcl ay
Ġint ensive
Ġne utral
Ġper ception
Ġinc orp
Ġcomp iled
Ġacc omm
Ġcont ing
In ternational
erv ations
ee red
ater n
Ġact ively
Th irty
Ġno body
Ġcar pet
ah renheit
Ġkn ife
uss els
Ġbr illiant
Ġann ually
Ġspokes person
Ġret reat
ĠAn th
itt ees
Ġinf ring
Ġ10 3
Ġhigh lights
Ġsl ide
Ġrun ner
Ġbillion aire
port ing
tain ment
Ġent itled
Ġclim bing
loy d
Ġinternational ly
Ġmar red
Ġpop ulations
Ġche ering
Ġche aper
Ġaff air
Ġhand ing
ĠLe g
Ġdist inct
ple te
Ġfund ed
cl aimed
Ġdam aging
Ġtechn ically
Ġsim ultane
Ġes p
Ġcare ful
Ġpat ience
Ġfood s
Ġdisp atch
Ġlow ered
Ġgun fire
Ġjud gment
Ġri pped
Ġcoll ision
ĠCongress ional
Ġemploy ed
Ġproduc es
Ġide al
Ġship ments
Ġconsum ed
Ġindepend ents
Ġdiv ide
pec ified
Ġdestro ying
Ġport r
Ġcapt ivity
ĠInter pol
Sh ort
Ġhon ors
ortun ate
Ġpresent ation
Ġemb race
Ġgra v
rick et
ani ya
Ġjoint ly
Ġcontract ors
ĠBr and
ĠPol it
Ġcreat ive
iter ranean
ĠChief s
ĠJo an
Res idents
Ġsleep ing
Ġalb atross
ĠElect ric
Ġdetermin ation
Ġneighborhood s
Ġblock b
Ġund is
My anmar
ĠKurd istan
ĠGreen peace
ĠGlo be
Ġfair ly
Ġir regular
Ġdiss idents
Ġbelong s
fur t
Every one
Ġspons or
Ġhor se
Ġaggress ion
Ġmamm als
ĠIr bil
roll ing
Ġmanufacture r
bor ne
Ġexam ination
Ġmand ate
ĠMu qtada
Ġut ility
ĠMel bourne
Ġfatal ities
Ġbreat h
Ġyouth s
ĠTra vel
ĠTay yip
Ġintens ified
ĠCambod ian
Ġtent ative
Ġslump ed
ĠMerc antile
Ġthr one
ocol ate
Ġlegend ary
Ġaffili ates
ĠBet ancourt
Ġimplic ations
Ġpipel ine
Ġbol ster
mun ition
ĠEthiop ian
Ġorb iting
Ġdiagn osed
Det ails
Ġunh appy
mind ed
ĠWay ne
Prot esters
Ġdre ams
Ġepid emic
Ġecho ed
ĠMarg aret
ĠBenn ett
Ġware house
ĠBrun i
pher d
ĠSev illa
Ġank le
Ġaccomm od
3 9
4 2
5 2
6 5
A X
B er
B ack
B UL
C C
D em
F in
G et
H en
I mp
N ever
R C
R ad
S pec
b age
f ortunately
g ow
g ree
g ets
h s
h op
i ated
j a
j an
m i
n old
p ot
r ine
r aska
s peaking
t wo
u is
u um
v oc
Ġt ire
Ġt ennis
on ly
Ġs ank
Ġw aged
at ab
Ġf olks
Ġp ock
Ġb un
ou ge
ou ds
Ġm a
as se
Ġd ated
id en
om on
om et
le m
Ġre aff
Ġn aming
st ep
Ġl ing
Ġbe aches
ĠS ystem
ol ences
ter ing
ac as
Ġsa fer
im on
ĠC al
am ine
us ma
ĠA K
el lect
ĠP rest
ĠI MF
ĠI celand
ĠB al
ĠB row
Ġas pects
ear ns
ĠT ut
ĠT aj
est on
and ro
Ġpro stitutes
ag h
ag s
ch ing
ate ur
ĠW ars
if ts
ĠD ri
ĠD ream
ĠJ in
ĠR aul
Ġch ips
od ox
ĠL ab
ĠE ld
Ġab st
qu ba
ĠO ther
Ġpol y
Ġres erves
Ġcl ar
Ġout law
Ġad equ
Ġper pet
Ġcomp ass
man n
Ġcont racted
ĠIn f
Ġsc ulpt
Ġro ot
ĠY ale
Ġinv itation
ĠMon etary
Ġam munition
Ġcr ater
Ġind ec
ah a
Ġsur rog
Ġjust ices
Ġmem ories
ĠAn ne
ĠAn kara
Ġev angel
Ġstud ios
ĠSh ip
Ġass et
Ġtri als
Ġhead lines
oth y
Ġcent re
Ġsl am
Ġgu ided
Ġbro the
ean or
Ġdef ender
Ġgen et
Ġvict ories
Ġhum ili
ĠAm nesty
ĠZ ah
ĠPal m
Ġdon ors
Ġcond olences
Ġpres erve
Ġforec asts
ĠAust rian
Ġsw all
Ġtravel s
head s
ĠCent ers
Ġfund ra
for ced
Ġkid nap
Ġpat ri
Ġfriend ship
Ġgot ten
Ġreb u
Ġbar rier
Ġhard est
Ġstar red
ĠCon vention
Ġart illery
ĠHar rison
Ġconsid eration
Ġeng aging
ĠX VI
Ġstorm ed
Ġmag ic
ellig ent
de gree
ĠMan ila
Ġlo ose
Ġsol utions
Ġty phoon
Ġaddress ing
Ġ197 3
Ġ197 5
ĠHol ocaust
Ġemb attled
Ġpark ed
AR S
ĠBr ussels
Am id
ĠMil itary
Ġterrit ories
Ġcelebr ations
Ġweak ened
Ġmedic ines
Ġpract ices
Ġcomplain ing
Ġrecogn ition
Ġamb ush
iqu es
Ġcharacter ized
ĠMer cedes
ĠGlo bes
Ġimplement ation
ĠNor way
Ġuns pecified
Ġult imate
Ġveter ans
Ġten ure
Ġtrib es
Bl air
ĠNet work
Ġrank ings
ĠFrank furt
Ġeditor ial
Ne xt
Ġtru ly
Ġlung s
col ored
ĠCro at
Ġpeacekeep ers
Ġmechan ical
German y
ĠAntar ctica
Ġash ore
Ġuncon scious
Ġoverwhelming ly
Ġsemif inals
Ġfulf ill
Ġdestin ation
Ġamend ment
ĠGyeong gi
Ġpir acy
Ġdefect ors
Ġrelax ed
Ġpand as
Ġgor illas
Ġbarg ain
Ġtact ics
Ġcert ific
Ġoutdo or
norm al
Ġfisher men
Ġexha ust
Sup er
Ġdrow ned
ĠObs erv
Ġconglom erate
Ġapprox imately
Ġnerv ous
Ġpredomin antly
ĠGlas gow
pow ered
ĠNeb raska
ĠWazir istan
ĠOkin awa
usma o
" )
4 3
E qu
J ones
K en
K AR
L ittle
M oh
N ine
O ut
R AN
R obert
S upp
T s
T reasury
T unes
U V
W C
W hether
Y A
b ot
f our
f irst
g arian
h ag
h wan
k il
p ower
s pec
y ans
Ġa viation
Ġa uthors
in ating
Ġthe r
Ġs ter
er ie
Ġw aving
en za
or g
or o
at isf
Ġc ous
Ġc rown
Ġo dd
it ated
Ġf oster
Ġf oment
Ġp od
Ġb ru
Ġb rick
Ġh inted
Ġd ense
Ġd oping
id d
Ġn ick
ay y
ay an
st al
Ġl es
ad ic
Ġg iants
ur ance
ac on
im ori
ĠC ollins
ĠA le
ĠA FP
Ġst ab
Ġst ones
ĠM DC
el i
th a
ĠP ad
ĠP op
Ġwh is
ĠI R
ĠB ible
ĠK um
ĠK wang
ĠK ofi
op per
and y
ĠN ature
ĠN elson
ĠU ribe
ĠU FO
Ġr acing
ĠD ok
ĠD ev
ĠH os
ĠG ra
ĠG ary
ĠG PS
ĠJ a
ĠJ ama
ĠJ iang
ĠR oss
ĠR ick
ĠR ouge
Ġsh aking
ĠF ashion
ĠF ossett
ap h
Ġk it
Ġch ann
Ġsp in
ĠL ady
ok en
ight ed
ect ive
ĠO d
ren c
Ġafter ward
Ġout lets
Ġout post
ans on
ĠSt atist
ĠSt earns
Ġper mitted
Ġdis gr
Ġcont ents
ric ts
Ġman age
Ġsec uring
Ġshe ets
Ġsc ream
erv iel
Ġdec lines
Ġcomm ittees
ĠTh anksgiving
are tt
Ġ4 50
Ġear s
Ġimp osing
Ġunder way
Ġjust ify
ĠThe ater
Ġstat ue
Ġprov ision
Ġins ul
Ġinf lam
Ġrele vant
Ġtri es
Ġiss uing
Ġsl aughter
Ġke en
Ġgr im
Ġ8 3
Ġ8 4
ient ed
sh ad
ĠSp orts
ĠSp ring
Ġpar ade
Ġfil ing
Ġbomb ed
Ġtrans mission
Ġoper ators
Ġprep aration
ĠRuss ell
Ġrest art
Ġcre m
Ġcre ates
Ġconcer ts
Ġmar athon
Ġaff ects
As ian
Ġhapp iness
Ġnegoti ated
Ġdist ricts
Ġden ial
Ġden ying
Ġform ation
ĠJu an
Ġmeas ured
Ġstar ring
Ġart if
ĠGu atem
Ġemploy ers
ĠFor mer
Ġbroad band
Ġbook ed
Ġsurv iving
Ġceleb ration
Ġpri zes
ĠEx press
ĠMed iterranean
Ġdifficult y
ĠKar bala
Ġbuy er
Ġwithdraw ing
Ġver ification
Ġexc av
Sp ain
Ġreason able
Ġcreat ures
Ġfr ight
Ġweak en
ĠPort land
Ġsecret ive
Ġboost ed
Ġbi ologist
Ġelectric al
Ġconflic ts
ĠTour ism
fect ure
ugh t
Ġshel ves
Ġconclud e
Ġinn ov
Ġestablish ing
Iran ian
ĠGreen land
ĠGold man
Go ogle
Ġanonym ous
ĠRod dick
Ġi Pod
look ing
Bar adei
Ġcart oons
Ġhun ters
Ġshopp ers
Ġexperi ences
Ġapplic ants
Con t
Ġsymb olic
ĠBol iv
rim inal
ĠSam arra
uls ion
prof it
Ġconvers ations
ipe i
Ġrid ers
Tur kish
Ġdismant le
Ġgrab bed
ĠKe ith
ĠRec ords
Ġdiamond s
Ġrom ance
Ġcig arette
Ġstun ned
ĠCro cker
ĠVi acom
Ġblank et
Ġrac ial
Ġlapt ops
Ġimprison ed
Ġquarterf inals
ĠDou glas
Ġvolunt ary
Ġdim in
Ġchap ter
commun ications
Ġembezz lement
Sy rian
ĠTa ipei
ĠArk ansas
Ġpard on
ĠJane iro
Ġdign ity
Ġgren ades
Ġfran ch
Ġthrill er
Ġincent ives
Ġmun icipal
Ġexped ition
ĠJav a
Ġunanim ously
Ġpion eer
Ġhorm one
Ġdyn am
ĠChos un
Ġenthus i
Ġexplan ation
Ġpeng uins
Ġmir ror
Ġsadd ened
Ġsacrif ice
ĠHass an
ĠCIT Y
izar re
Ġindict ment
Ġpropag anda
itzg erald
Ġundis closed
Ġchann els
ĠStatist ical
arett es
0 8
8 9
B et
C R
E D
E d
E m
F C
F ifty
G un
H aw
J ames
K ing
M P
M er
M iss
M ugabe
N or
P F
P I
P ort
S ex
b ek
b ucks
c r
f ive
g reat
h is
i h
i ens
j o
m at
m illion
p es
r anging
s ome
t un
u ment
v o
w ould
w heel
y ou
Ġ ug
Ġt aught
Ġs ie
Ġw age
Ġw ages
Ġc abin
Ġc oins
Ġf ant
Ġp iano
Ġin ner
Ġm o
Ġm ac
as y
ic he
Ġd ivers
Ġd angers
le te
Ġre li
Ġre ductions
Ġl ib
Ġbe es
Ġe rect
ĠS ix
ol and
ol ics
Ġg ym
im chi
ĠC O
ĠC ost
ĠC ape
am y
ec hes
ĠM rs
ore rs
ir ga
ra ib
th is
th odox
ith ner
ĠP ed
ĠP ers
ĠP oor
ĠB B
ĠB i
ĠB ridge
ĠT urn
and ra
ch an
ch air
ĠU s
ĠW at
ĠW hen
Ġr u
Ġr ings
art et
ĠH ans
ĠG a
ĠR os
ĠR oll
Ġk ang
Ġch arter
Ġch anted
Ġch ocolate
Ġsp ell
ĠL es
ĠL evin
ian ces
Ġse iz
Ġab used
qu ality
uc ked
Ġcl oned
Ġar son
ans ki
ĠSt rait
ĠSt ewart
Ġcomp os
Ġup rising
ang ling
Ġmil k
ric ks
ric hed
aw s
ĠY an
ĠTh an
Ġpr isons
ov ie
Ġmin ing
Th ailand
Ġrec k
Ġunder min
Ġfin es
Ġfin ances
Ġbl essing
ict ions
ĠSe ok
ĠAn t
ĠSh ia
Ġ7 50
Ġprom oted
Ġhigh ways
Ġinter cept
Ġph il
Ġopp osing
Ġsm art
Ġ20 14
Ġsl ugg
ries ts
Ġdeb ts
per or
per cent
Ġaid ing
the re
to ff
ĠPr im
ĠAr nold
ĠRuss ians
ĠZ ardari
Ġfar ming
Ġcourt room
Ġpress ures
Ġ11 0
Ġstri pped
ganiz ers
Ġhom osexual
Ġconfir ms
Ġinform al
ĠCent re
Ġvo ter
Ġpric ing
Ġmod est
Ġident ification
Ġprocess ion
Ġtax i
Ġdisp os
ĠCon struction
Ġrespons es
Ġrespons ibilities
af i
Ġ198 4
raf at
Ġspecial ists
bo x
Ġequ ally
Ġsuggest ion
Un like
ĠPark er
de ed
Ġpo ised
Ġport rait
Ġcho osing
Ġrepl acing
ĠInter fax
Ġproject ions
Ġ197 8
Ġsend s
ĠSer ge
Ġpled ges
Ġpos es
Ġpan ic
Ġlif etime
add y
Ġcontract ing
Ġnetwork ing
mark et
ky u
Ġdispl ayed
Ġrob ust
Ġreview ed
Ġsens itivity
ĠKur ds
Ġflo ating
mail s
Ġintro duction
sp ons
Ġpers ons
ĠLa ure
Ġassoci ates
ĠGh raib
Ġacce pting
Ġsomet ime
Ind iana
Ġswe ep
Ġign ore
Ġult ra
Ġsil ent
Ġi Tunes
Ġobtain ing
Ġerup tion
Ġfort une
Ġpray er
Bl ack
uz net
ĠRev olution
Ġsurviv or
Ġresum ption
Ġstrengthe ning
Ġsport ing
Ġdivor ced
ĠRam os
ĠMount ain
ĠIr ish
ĠBa quba
ĠNiger ian
Ġinaug ural
Ġvolunte er
Ne ither
Ġapart ments
Ġdiscl osed
Ġdeliber ate
Ġexamin ing
Ġscen ario
ĠLyn ch
Ġcig arettes
Ġaccord ance
ĠLind a
Ġmyst erious
ĠBelg ian
ĠDu ke
ĠMajor ity
Ġprefer red
Ġaffili ated
Ġimprison ment
ĠYous uf
Ġembry onic
ĠRel ations
Ġaftersh ocks
Ġing red
Ġwors ening
ĠFernand o
Ġcompon ent
Sa udi
Ġextrad ition
Sun day
Ġtaxpay ers
Ġambul ance
ersh bow
Ġmere ly
onel iness
Ġindefin itely
Ġdolph in
Ġlect ure
Ġcontamin ated
ĠKazakh stan
Ġquar ters
Ġquot es
Ġunsuccess ful
Ġumb rella
ĠClo oney
Ġwebs ite
Ġours elves
Ġbrib es
Ġlaure ate
Ġpaparaz zi
ĠYanke es
ĠAnth ony
ellect ual
ĠShip man
Ġsie ge
Ġslugg ish
uznet so
6 2
G S
H an
M as
M ex
M uch
M organ
R el
S l
c ade
c roft
d ri
h ard
i had
l ary
l ie
l ied
r ada
t es
w ed
Ġ rib
Ġt a
Ġt att
in er
in is
in ions
Ġs id
Ġw ard
or iented
ed ger
at man
Ġc ri
Ġc ock
Ġc attle
it ure
it udes
Ġf itness
Ġp ets
Ġp ension
Ġb ull
Ġb rown
Ġm ent
Ġh oney
Ġh orses
Ġd ent
ion age
Ġre ign
ro v
Ġl enders
ĠS ul
ĠS ierra
ĠS UV
ut her
ut ical
Ġsa ga
un ge
ĠC airo
ot ion
ĠA ge
ĠA venue
Ġst om
Ġst ays
Ġst aunch
ill ions
ĠM ost
ĠM ullah
ĠM wai
ir ming
el man
ra ph
th al
ĠP ic
ĠP ear
ĠP ak
ĠP art
ĠB est
ĠB and
ĠB ook
ĠB ali
Ġal erted
ĠN ight
ĠN ine
ĠN airo
ist ice
ch on
ain ted
pp ling
Ġr ugged
Ġde em
ĠH onda
ĠG arden
ĠG irls
ĠR ober
Ġsh all
Ġle ap
Ġle aked
ĠF A
um mer
ap es
Ġk imchi
Ġch ant
Ġch ase
Ġch airs
od d
ud s
ĠL en
ĠL ittle
ĠE aster
se eded
ĠO K
ĠCh audhry
Ġpe an
Ġpe ers
Ġres isted
Ġcl ip
Ġnew est
Ġinc on
Ġover weight
Ġdis ruption
ub a
Ġcont acts
Ġmil d
ĠIn cheon
Ġsc ared
ĠY u
ash a
Ġqu ell
Ġcomm od
Ġcomm ands
amp s
Ġop inions
ĠV anc
ĠAf ter
ne apolis
Ġimp lant
Ġcountry side
Ġsur plus
ĠIs mail
leg round
Ġrem emb
Ġter rible
ĠSe g
Ġfound ing
Ġinf lic
Ġass ume
riv es
Ġresp ir
Ġsl im
oul os
Ġdeb ates
Ġagre es
Ġshould ers
ĠQ ass
ĠPr ice
Ġgen uine
ĠBar ry
Ġhum or
ĠZ ap
Ġspe aks
Ġnational ly
Ġca f
ĠJohn ston
Ġsit s
Ġcol ors
Ġadv ances
ĠGer rard
Ġsw ap
go ers
Ġsk ull
Ġnegoti ation
Ġprof ile
ump ing
bass ies
"" ,
Ġbatt leground
sc reen
Ġprocess ing
Ġlist ening
Ġfall out
Ġjud iciary
How ard
Ġevent ual
Ġtreat s
Ġorder ing
ĠPen n
Ġrad iation
Ġsoon er
Ġindepend ently
ĠEast wood
ĠSup erv
Ġpri est
Sh ares
Ġrepresent ation
Ġstock p
Ġparticip ated
Ġpack ages
Mal ays
ĠSy rian
Ġproper ties
Ġsect ions
Ġcheck points
Ġrepe at
Ġvac uum
Ġcorp orations
Ġwild fires
Ġreview s
Ġweak ening
Ġpurs uit
Ġcondem n
Ġdemonstr ate
ĠJe ong
Ġimprove ment
Ġunf ortunate
Ġprec ise
Ġacknowled ge
Ġtom atoes
ĠHaw ass
Ġsubst ances
la ud
Ġund ec
ĠRo om
Pro f
Ġobject ive
Ġtourn aments
Ġansw ers
aid i
Ġsil ver
Ġgang s
Ġoutbre aks
Ġtim ing
Ġextrem ism
Ġawa iting
Ġfill ing
Ġcauc us
Ġconfident ial
Ġcateg ories
Ġbra ve
Ġexam ine
ĠLi u
ĠPC s
Ġchemical s
ĠDen mark
Ġlabel ing
ĠRec ep
ĠHer itage
Ġexamin ed
Ġdram atically
Ġmig rant
Ġrebuild ing
oster one
Ġtele com
Ġconver ted
ĠTy phoon
Law makers
Ġhat red
Ġsatisf ied
Ġmotiv ated
Ġgraph ic
ĠCrist iano
Ġorchest ra
ĠFall uja
ĠOper ation
Ġanch or
Ġreluct ant
beat en
domin ated
ĠKitt y
Ġprosper ity
Ġsalmon ella
Ah mad
Ġmum my
Ġconsc ious
Ġsla very
Ġglim p
Ġatroc ities
ĠLaur a
Ġesp ionage
Ġirregular ities
ĠPrest on
Ġscream ing
Ġfant astic
ĠNairo bi
0 9
4 9
5 1
7 1
C amp
D ream
G B
H I
K e
K h
L ight
L AN
R ed
R et
S C
T ime
V is
Z ulu
b ec
d r
d ale
d ollar
e u
g ue
h ill
o os
p at
s ign
s erious
t urned
w ak
w orth
w ife
z er
Ġt ong
Ġt ally
Ġt ense
Ġt umbled
Ġs ounded
Ġw aved
en ess
or ary
Ġc ens
it ual
it ched
Ġf earing
Ġf erry
is ition
Ġp el
Ġp anc
Ġp ink
Ġp oured
Ġb old
Ġb ump
Ġb urg
Ġb icy
Ġm ales
Ġh ills
as m
Ġd ot
Ġd ement
Ġd wind
id o
il der
om ous
Ġre op
st ill
Ġl y
Ġbe aring
Ġe ased
ĠS k
ol y
Ġg ifts
ur ther
ur ches
ac ute
un ken
am ount
Ġst y
Ġst aging
ill on
ver ly
ĠM ess
ĠM ikh
ĠB art
ĠB usan
ĠB ae
ĠB ros
ĠB MI
ĠB anco
ĠB iden
em ate
ĠK ay
op ed
ch ild
ch arge
ĠU l
Ġha bits
Ġr ats
Ġr hy
ĠD ell
ĠD ave
ĠH D
ĠH as
ĠH ank
ĠG ard
ĠG ran
ĠR a
ĠR an
ĠR ain
Ġsh ipped
Ġle an
ĠF e
ĠF uk
ĠF amily
Ġoff sh
Ġsp ate
Ġsp are
ĠL ord
ĠL has
ĠL opez
ab ilities
ĠO b
Ġj ihad
Ġac ademy
Ġpe er
Ġwhe els
Ġres erve
Ġbut ter
ber ra
Ġout going
Ġint act
Ġinc ar
ace utical
old ing
Ġdis band
Ġcont ender
Ġmil estone
In it
Ġen cl
Ġen riched
Ġro cked
Ġdec isive
ov es
ov ich
we alth
ĠMon ica
Ġmin us
ne ider
Ġno ise
Ġra v
Ġra ises
Ġra zed
ah o
Ġany more
Ġbr ide
Ġbr ands
Ġeconom ics
Ġback s
oss ip
Ġprot oty
ĠAn bar
itt en
Ġass igned
Ġconf usion
ret t
ool mer
Ġopp oses
atur ally
Ġsm iling
att ray
ĠUS FK
sh irt
ĠSp ratt
Ġprogram ming
ĠIran ians
Ġevery day
Ch ief
Ġgen es
ĠAl b
ĠBar ak
ĠPakistan is
Kore ans
Ġsent encing
Ġspe eches
Ġ9 00
ĠMcC artney
Ġalleg ing
Ġfire works
ĠRep ort
Ġdevelop ers
Wh atever
duct ive
ĠGer mans
Ġhand gun
ĠDep arted
Ġban ning
Al ong
Ġemer ge
Ġdist ant
ĠCar acas
Ġdr unken
Ġtechn iques
Ġform at
Ġeas ing
Ġaut hen
Ġorganiz ing
inc ome
inc inn
lor ia
app ropriate
Ġsuccess ive
af ood
Ġri oting
ĠHar iri
Ġcoll ided
ĠTr ust
Ġ24 0
Un fortunately
ĠOr der
ĠOr chest
ĠOr thodox
oint ment
Ġhol ed
Ġread ers
Ġsepar at
enn ium
ĠEx pl
cast le
Ġbas ement
Ġrisk y
ĠMid west
ĠSch neider
ĠEl Baradei
ĠKh mer
Ġmob il
Ġimm une
Ġspot light
Ġmis dem
Ġoverse e
ĠMark et
Ġcorp s
Ġnecess arily
ĠPat rol
Ġsens ors
Ġearthqu akes
Ġprem ature
Ġamb ushed
rich ton
Ġir rit
Ġaffect ing
Ġbelong ing
Just ice
Ġspons ored
ĠRoman ia
De ath
ĠLiber ation
Ġpartners hip
Ġphotograp hed
Ġflow ers
Ġfaith ful
Ġbra ins
Ġgar age
Ġtort ured
Ġsust ain
gar ia
Ġgrab s
Tw elve
ĠTra ff
ĠKa ren
ĠScott ish
Ġstrain ed
ĠRog ge
ĠIndust ry
Ġappl ause
Ġ78 7
Or ganizers
ĠAz iz
Ġliter ally
ĠSil va
Ġconcent rated
Ġaccompan ying
Ġfrust rated
Ġheight ened
ĠGamb a
ĠBon ito
Ġbreed ing
ĠStan ley
log ans
ĠRh ode
Ġtap es
ĠAut om
Ġaer ial
Char ts
ĠBul garian
Ġaftersh ock
Ġdownlo ad
intend o
intend ent
ĠFront ier
Ġbare ly
ĠProp het
Ġschol ar
Ġvideot ape
Ġbodygu ards
Ġtrem end
Ġinfilt rated
ĠPeters burg
Ġflex ible
Ġarchit ect
ĠSpani ard
Ġarrang ements
Ġbon uses
Ġlen iency
Ġric hest
Ġjewel ry
Ġdesper ate
Ġcontroll ing
Ġacad emic
Ġpremie re
ĠUkrain ian
Jack son
offic ial
Dan iel
Ġinhab it
ĠTemp le
Indones ia
Ġfare well
threat ening
ĠFo ley
ĠFreed om
Ġstruct ures
Ġfest iv
Ġsubsidi ary
Ġunch anged
atab ase
Ġbrothe ls
ĠDok do
Ġundec ided
Ġdement ia
ĠMikh ail
ĠLhas a
incinn ati
ĠOrchest ra
3 6
9 1
B ig
C lear
F ar
F ord
F ree
G iven
J ER
L ook
M W
M ur
M OSCO
N C
R eg
S am
T E
T im
V ice
Z aidi
c ourse
d ig
d ers
d ep
f i
f ers
f ired
h un
h um
h ift
j ud
k ers
k oo
m agn
o ell
r ament
s ub
s ung
s chool
v ation
w ord
Ġt ail
Ġt ires
Ġt asks
Ġa iling
in ational
on i
Ġs ew
Ġs oul
Ġs idelines
Ġs logans
Ġw ives
en os
or f
at ar
Ġf ence
Ġf og
Ġf urn
Ġf rog
Ġf asc
Ġf antas
ar ia
is ms
Ġp osing
Ġb ands
Ġin ning
Ġto ured
Ġd il
Ġd ra
om ed
le e
ro yo
st udd
ve red
Ġl inking
Ġe ve
ĠS ide
ad ies
Ġg ossip
im ore
un i
ĠC ateg
ĠC AC
ĠC incinnati
am on
us hes
ĠA er
ĠA ires
et e
Ġst ole
ĠM at
ĠM es
ĠM ax
ĠP avarotti
ĠP ichushkin
ĠB ron
ĠB obby
ĠB illy
ce ived
ĠK as
ĠK id
ĠK ath
ĠK ean
ĠT ian
ĠT igers
op er
ri ott
ĠN ist
ch um
ch ang
Ġha zard
ĠW ang
ĠW ells
Ġv est
if ies
ĠD ad
ĠH al
ĠH art
ĠG ay
ĠG usmao
ĠG loria
ĠJ ean
ĠJ ason
ĠJ unich
ĠR ash
ĠR ove
ĠF le
ĠF ly
ĠF orm
ĠF itzgerald
um in
oc ated
ĠL at
Ġsu fficient
ĠE very
ĠE mp
Ġab rupt
qu ities
Ġhad n
Ġwhe at
Ġcl ouds
Ġexp ires
Ġout sp
Ġint end
Ġint ellectual
Ġme g
Ġup gr
Ġover run
ib and
Ġcont rad
rit z
ĠUn der
ĠIn gr
ĠIn iti
Ġpart ial
Ġcan n
Ġsc ra
Ġsc ri
act or
Ġ19 30
Ġwork force
Ġmin i
Ġimp ression
ĠMin neapolis
Ġcar riers
Ġbl oc
Ġbl aming
Ġcons ist
Ġtal ent
Ġany way
Ġshow down
Ġbr ush
Ġback ers
Ġrel ation
Ġret ain
Ġprov iders
Ġprot ein
Ġtro phy
ĠBrit ney
Ġem bassies
Ġsm ile
Ġsl ain
Ġdep ort
ĠMar sh
Ġdem ol
Ġgu itar
the less
Ġfil med
ĠQ ari
ĠEn deavour
ĠAr thur
Ġdeal er
ik a
ik ing
pr ises
Ġ9 9
be ing
Ġneg lig
Ġob sc
uck ing
Ġche er
Ġche ers
Ġche ss
Ġpast or
Ġfac ilit
lam our
Ġpros pects
ĠLe h
ĠLe one
ĠAb raham
ĠAb orig
Ġprof ound
ĠCar l
Ġmid day
St ation
Ġident ities
Ġhard ware
off ice
Ġocc as
Ġ198 3
Ġemp ire
Ġnomin ating
Ġgreat ly
ĠAd ams
Ġcommit ting
Ġfront ier
Ġequ ipped
Ġcred ited
Ġcrow ned
ruct ive
Ġz ones
Ġstre ak
Ġseem ingly
Ġval ued
empt ive
Ġsqu id
Ġaddress es
Ġball oon
ĠCan berra
ĠEd ition
Ġsuper b
ĠMad ison
Ġdisapp ointment
Ġtre asure
Ġbrief ed
Ġple as
che ong
Ġ196 4
Ġill icit
Ġslow ing
Ġsignific ance
Ġwild fire
Ġconsider able
Ġgreen back
Ġhar ass
Ġcondem ning
Ġeth ics
Ġeth anol
Ġenvoy s
Ġlab orers
Ġcontain er
Ġbul lets
Ġarm ored
Ġarm istice
Ġmarri ages
Ġorgan ic
Ġapolog ies
Ġmedic ations
ĠHen ri
Ġbehav iors
Ġprem ium
ĠHaw king
Ġcast le
Ġpsych ological
Ġpsych ologist
OS PI
amas cus
ĠQue ens
Ġprior ities
Ġcontent ious
Ġattract ive
Ġmonit ored
Ġlic ensed
ĠCath olics
ĠWal ker
Ġmeth ane
ĠSuper ior
Ġshock ing
Ġstrengthe ned
ĠCons ervation
Re uters
Ġlog o
Ġstret ched
aze era
Ġinstall ations
Ġscr ambling
Ġpage ant
Ġqualif y
ĠJeff rey
ĠId aho
Ġlabel ed
Ġhopef uls
Ġdeliber ately
Ġdrink ers
Ġess entially
Ġreject ion
Ġnove ls
Ġelim inate
Ġsubsid ies
Sm all
Ġfed eration
Ġtrigger ing
Ġweigh ing
LE M
Ġvolunt arily
ĠPlay Station
Ġshif ting
Ġunderst ands
William s
Ġconstit u
Ġuncertain ty
ĠCamer oon
ĠEnter tainment
ĠHis pan
Ġdiscover ies
Ġrepatri ation
Ġscre ens
ĠEnvironment al
Ġrestrain t
ĠWith out
Ġabol ish
Ġphysic ian
Ġanx ious
elro oy
Ġavo ided
Ġsav ings
ĠLeon ardo
Ġrelie ved
ĠArm strong
Ġstead ily
ĠTam il
Ġcrush ing
Ġaccur ate
KA BUL
prop elled
Ġtodd ler
Ġchick en
ĠAlf red
ĠEngine ering
Ġscrutin y
Fed erer
ĠOx ford
Ġlieuten ant
ĠBalt imore
ĠSpr ings
BUR G
Ġconting ent
Ġartif acts
ĠLevin son
Ġrespir atory
Ġrhy th
Ġincar cer
Ġseparat ists
MOSCO W
magn itude
oell ick
rament o
studd ed
ĠCateg ory
ĠNist elrooy
ĠIniti ative
1 10
4 1
A F
A st
A ut
B ill
B el
C H
C ollins
D H
D S
E G
F i
F ew
F ull
F urther
G amb
H eart
L ib
L IN
M os
N one
O l
P ope
Q ue
R eal
S u
V oters
W en
W ill
W estern
X inhua
b ally
d ue
e very
g row
h av
i able
i ety
n is
p oen
r in
r ust
Â ¨
Ġt ag
Ġt one
Ġt ighter
Ġa ver
in f
in feld
re k
Ġs in
Ġs oda
at ell
Ġc ope
Ġc ricket
Ġf ax
Ġf rank
ar q
ar ke
is hers
Ġp ile
Ġp ounded
Ġp anda
Ġp ills
Ġb izarre
Ġto ppled
al ian
Ġh ire
as ch
Ġd ance
Ġd ancing
le ven
Ġre neg
Ġn ep
Ġn aturally
ro ve
st art
Ġl ure
Ġl iver
Ġl oneliness
ĠS i
ĠS ox
ĠS ARS
Ġg um
Ġg ambling
ly n
ĠC ondon
ĠC apt
ec on
ĠA u
ĠA pol
ĠA viation
ĠA rafat
ĠM ult
ra x
ĠP in
Ġwh oles
ĠB ird
Ġwas hed
ĠK n
ĠK ye
ĠK enn
ĠK erviel
Ġal ter
ist ries
ĠW u
ĠW elfare
ĠD ili
ĠH imal
ong a
ĠG ibbons
ĠJ ankovic
ĠR ud
ĠR ico
ast ed
Ġ2 30
ĠF light
red it
ap le
Ġch ased
ould er
ĠL ance
ĠL ex
Ġsu icides
Ġun ification
Ġse asons
se ason
ok a
ĠO il
Ġpe pper
Ġexp orters
ime ters
ke ley
Ġint elligent
iz ard
Ġover throw
own ers
ang led
ass er
Ġtr aced
In deed
Ġsc rat
Ġsc attered
Ġapp laud
iss ance
âĢĿ âĢľ
âĢĿ âĢĿ.
Ġdec ree
He alth
ens on
ph ones
Ġsome how
Ġfl our
lin chum
Ġunder cover
Ġcar n
ital ia
rop onte
Ġend orse
Ġrem inis
Ġeconom ically
gr ad
und ed
Ġret iring
ĠAn na
Ġev olution
Ġass emb
Ġexpl ore
Ġinter ference
Ġinter pret
Ġsl um
ĠMar adona
Ġtop s
Ġbo oming
Ġsub sc
Ġsub stitute
Ġsub jects
Ġsub poen
ĠBar n
Ġcampaign ed
ester os
loy ed
Ġpres cription
ij u
Ġtest osterone
ĠAust in
Ġfac ial
Ġce iling
ys c
Ġexplain ing
ĠGer ry
ĠAustral ians
Ġeleph ants
Ġtrad er
Al most
Ġfail s
Ġcomple ting
ield ing
ple x
Ġland fall
Af ric
Ġpat rolling
Ġmeas uring
Ġbar ric
Ġmus cles
rew er
Ġart icles
Ġdest abil
Ġweekend s
Ġ198 5
Ġindic ations
mon aut
ĠAP EC
ĠCo alition
let ico
amb led
Ġfuel ed
pect ive
Ġval ley
ĠUN ICEF
Ġport able
Ġbid ding
Ġrepl ied
ĠAnd y
ĠSer ie
AN A
Ġsmok ers
Ġnon profit
ĠAll ison
Ġpack s
Ġfavor ites
Ġaccident ally
Ġautom atic
Ġautom otive
Ġaccount ed
eg roponte
Ġmakes hift
Ġ196 8
Sp anish
ĠPol ish
Ġunc omm
Ġcreat or
ĠKen yans
Ġadvis ory
ĠHy un
Ġphys ically
Ġobs erved
Ġcondem nation
ĠShar on
Ġbul ld
sp ace
Ġfat ally
ĠElect oral
Ġsal ary
Ġinspect or
Ġspeed ing
Ġsurf aced
Ġfamous ly
Ġcollaps ing
ĠRo ad
ĠLabor atory
Ġpow der
Ġdeliver ies
Ġshr ink
Ġattract ions
Ġdark ness
Ġrequire ments
Ġspark ing
Ġarriv als
Ġdepart ments
ĠSol omon
Ġveter in
Ġacqu ire
Ġfort ress
Ġ194 5
Ġdin osa
ĠVietnam ese
ĠGuard ian
rend ered
Ġexperi encing
Con cer
ĠJud iciary
Ġunus ually
hist oric
Ġadvert is
Ġmortg ages
Pal in
ĠMet eor
Ġunderw ear
fl ow
Ġgar bage
ĠJeff erson
Ġlobby ing
ĠLt d
Ġmig rants
Ġconce ived
ĠFund s
Ġkiss ing
oles cent
Ġnut rition
Ġhij acked
Sm ith
ĠâĢ ĺ
Ġblank ets
Ġarchae ologists
Mart in
Ġprohib ited
ĠBu enos
Ġconstruct ive
ĠStalin ist
Eng ine
Ġcos monaut
Ġpipel ines
ĠCamer on
ĠJam ie
Per haps
ĠCla us
ĠAsh ley
ĠZh ang
Ġschol ars
ĠNich ol
Ġcanc ell
Mon day
Ġforth coming
Ġconced ed
ĠFuj imori
Ġpharm aceutical
Il linois
Ġconsul ting
Ġju ven
Ġinstru ments
ĠRail a
Ġauton omy
Ġsymp athy
UC N
Ġthro at
charg ed
Ġfert ility
ĠSac ramento
Ġparaly zed
ĠFeder line
Ġbasket ball
ĠKC NA
USA LEM
Ġfoss il
Ġhood ed
ĠCroat ia
Ġkit chen
ĠGuatem ala
ĠBB K
Ġchant ing
Ġrememb ered
Ġburg lary
Ġmisdem eanor
JER USALEM
ĠJunich iro
ĠRash id
Ġdinosa urs
3 4
3 8
5 6
7 7
A L
A IDS
B ro
C hel
E U
G od
G reen
H aving
I L
J O
J on
L a
L AS
L iverpool
S im
S AN
T al
T ens
V ir
W F
W here
Y our
a ft
b en
b ank
c al
c ut
c oon
d on
d ance
e ight
e ven
e ah
g ang
g ame
g irls
g rave
h at
h ire
j as
j oon
l ive
m es
m ical
m und
o a
p ired
r aro
s u
s if
s up
s ize
t aking
t aker
w al
x elro
y es
Ġa quarium
in ness
re au
Ġthe ories
Ġs ou
Ġs ne
Ġs way
Ġs acked
an ns
at ts
Ġc am
Ġc ables
Ġo ust
it ous
ar ized
Ġp ond
Ġp oul
Ġp ale
Ġp ouring
Ġp riests
Ġb ip
ing ing
Ġin land
Ġin appropriate
ou rage
Ġm ol
Ġm ourn
Ġm irac
Ġd ad
Ġd ual
id i
id al
ro t
st e
ve z
Ġl ia
Ġl uck
Ġl over
Ġl ender
Ġl oving
ol ve
ol ese
Ġg er
Ġg ig
Ġg ust
Ġg rip
ur able
Ġsa bot
us ch
ĠA G
et he
et ter
ĠM end
th ouse
ĠP ap
ĠI v
ĠB il
ĠB uff
ĠB MW
Ġat op
ĠK il
ĠK uznetso
Ġas pir
ĠT un
op ic
est ine
ĠN ash
ch ai
Ġr ider
Ġv ary
Ġv ault
ĠD or
ĠD ann
ĠD amascus
ĠH at
ĠH av
ĠH ae
ĠJ ess
ĠR ee
ĠR ita
ast ically
Ġsh adow
ĠF ather
Ġch urches
Ġsp ends
iv an
ĠL ar
ĠL ug
ĠL aut
ĠL ima
Ġsu gar
Ġun beaten
Ġor ange
ia h
up t
ight ing
ĠO m
ant a
Ġres ist
Ġcl ipper
wo o
Ġar ray
Ġint rig
ff en
ĠSt orm
Ġcomp osite
iz on
Ġgovern ors
Ġup held
Ġdis gu
Ġdis charged
ang le
Ġpart ially
Ġman eu
In s
Ġen able
Ġshe ep
Ġsc ope
ĠY ush
Ġ19 10
enc ia
lud e
ov s
Ġmin istries
ĠV ershbow
ĠSun shine
Ġno od
li ers
Ġwar pl
Ġbl own
Ġbl az
Ġbl ames
Ġsur ging
Ġsur rendered
ob il
Ġtal ented
Ġreg ulation
Ġend uring
Ġjust ified
Ġbr ig
Ġter rain
ai res
Ġret ained
Ġair liner
Ġ7 9
Ġchild hood
ĠBrit ons
Ġeff iciency
Ġ20 18
Ġsl id
Ġsl ot
Ġdep osed
Ġdep ressed
Ġdep orted
ock ing
Ġmake up
Ġdef ined
Ġloc ate
ĠSp ice
Ġpar ach
Ġpar alle
Ġinvestig ative
ĠMc Donald
Ġtrans action
Ġtrans parency
Ġgen ome
ĠSen ior
ĠBe verly
Ġ9 6
ĠMcC anns
ĠComm on
Ġpres ents
ĠGe ithner
Ġaff ection
Ġhold ers
Ġ11 5
Ġrece ives
Ġrece ption
Ġconfir ming
Ġsk ysc
raw ford
President ial
Ġident ifying
Ġhard ly
Ġprop ose
app ointed
ĠCon ner
Ġlow s
af a
ĠHar vey
Ġtreat ments
ĠGr ant
ĠX ia
Ġline up
Ġer rors
Ġsuggest ions
ĠArab ian
Ġship ment
Ab bas
gu ard
Ġcapt ive
Ġlight ning
Ġty coon
Ġkil og
Ġpred icts
Ġpain ted
Ġquarter ly
Ġbri bery
Ġenc ry
Ġbas ically
ĠKar l
ald win
Ġbattle field
Ġgl ad
Ġren owned
Ġhuge ly
ĠSch uster
Ġcult iv
ĠShe pherd
Ġautom obile
Sen ior
,âĢĿ âĢĿ
Ġsn ake
Ġsn akes
Ġ196 5
Ġimm un
Ġimm ense
Offic ers
vest ors
Ġconsider ably
ĠBer keley
Ġobs ervation
Ġchallen ger
Ġhar vest
Ġhar bor
Ġsecret ly
ĠJo el
Ġboost ing
Ġmanufact ured
uff le
Ġbul k
respond ents
Ġcommand ing
Ġpract ical
Ġhy p
ĠVal ent
Ġcontrib uting
Ar my
ĠSant i
ta ek
Ġ36 0
Ġaband oning
Ġcollect ing
Ġarg ues
Ġmagn etic
ugg age
Ġenjoy ing
Ġguard ed
Ġir re
Ġir responsible
Ġrail road
Ġexerc ises
Ġfreedom s
Ġsurge on
Every thing
Ġinnoc ence
Ġgall ons
Ġgall ery
Ġadminist rator
Ġdefin ition
Ġdefin itive
Ġrecall s
Ġnarrow ly
ĠAnn apolis
Ġroll ing
Ġconvention al
Ġrecru ited
Ġafford able
Ġemot ions
Ġpresum ed
Ġfier y
ĠComp osite
Ġvolcan ic
Ġescal ating
Ġsight ings
ĠJon athan
Ġintens ity
chen ko
ĠVict or
Ġliter ature
Ġtele communications
Ġsharehold er
Europ e
Mic hel
Ġinterven ed
Ġexch anged
ĠReg ional
Ġrif les
Ġembry os
Ġoccasion ally
Ġsuperv ision
ĠTal abani
Ġdisab ling
Ġeval uate
author ized
Mus a
ĠEnter prise
ĠFernand ez
Ġcompon ents
Ġnurs es
Ġavo iding
Ġje opard
ĠEll ison
Ġfru it
Ġli ked
Ġasser tion
Ġstal emate
Ġimper ial
Ġretrie ve
ĠAlger ia
Ġdiscrim ination
ĠTele com
Ġsna pped
ĠBosn ian
Democrat s
ĠBrother s
ĠEston ia
Ġassert ions
Ġprompt ly
Sing apore
Ġminim ize
Ġtextbook s
atern ity
Ġgrav ity
Ġblockb uster
Ġcous in
Ġles bian
Ġfranch ise
Ġphil os
Ġdispos al
ĠLaure an
Mas ri
Ġcaf es
Ol mert
arq awi
Ġnep hew
ĠApol lo
Chel sea
xelro d
Ġpoul try
Ġwarpl anes
7 3
B ul
B ased
C A
D en
E T
F er
F ort
F rost
H ilton
I M
J ournal
L i
L ind
L eban
L ohan
M Z
M r
M ajor
N S
R am
R ight
R ock
S ony
S ev
T y
T our
W ork
Y ang
b n
c led
d irector
e re
e ine
e fficient
f r
f ts
g one
g reen
g wan
h n
h of
l ist
o vers
p resident
s er
s ons
u able
w hen
x i
x on
x ia
z an
z one
Ġt ren
Ġt we
in qu
Ġs inking
Ġs idel
er ia
ed uc
at al
Ġc ord
Ġc ran
Ġf ing
Ġf el
ar c
Ġp ad
Ġp ipe
Ġb ay
Ġb ure
Ġb ang
Ġb atch
Ġb ulls
Ġin her
Ġin tern
Ġto oth
Ġm ole
Ġh ook
ic ism
Ġd emocrat
Ġd ys
Ġd irt
Ġd atabase
id av
le ase
le ton
ent ials
Ġn ights
ro y
Ġl uc
Ġl uggage
ĠS A
ĠS lam
ut or
ac ent
im ens
ĠC os
ĠC limate
ĠC rawford
ec ilia
ĠA p
Ġst ip
Ġst unt
Ġst orage
Ġhe ir
ĠM un
ĠM ak
ĠM and
ĠM ang
ĠM ald
ĠM ovie
el come
ĠP ole
Ġwh ist
ĠI an
ĠI UCN
ĠB in
ĠB aldwin
Ġwe aker
em e
ĠK T
ĠK nut
ĠK OSPI
ĠT ak
ĠT op
ĠT ob
ĠT rain
her ic
ul ing
ĠN L
ĠN ation
ĠN ag
ĠN intendo
ag ra
ĠU r
ĠU CI
ain st
ĠW ong
Ġr ounded
Ġr attled
Ġr uins
ew ay
ĠD j
ĠD uc
ĠD ark
ĠD iamond
ĠD AX
ĠH ack
ĠH aniya
ong o
ĠG ill
ĠJ al
ĠJ oy
Ġare na
Ġex ting
Ġex cer
ĠF al
ĠF ield
ĠF ahrenheit
ĠF linchum
um ing
Ġk ph
Ġch asing
Ġch ains
Ġsp ree
our ce
ĠL in
ĠL ag
ĠL iga
Ġnot ified
all s
Ġun av
ab o
Ġpl ug
Ġpl unge
ĠCh an
ĠCh ase
Ġj irga
Ġres ur
Ġres et
Ġcl ips
Ġout let
ie ves
ie ga
iz ations
Ġgovern ance
Ġover sight
Ġacc um
ub b
ip er
Ġcont rary
ĠUn iversal
Ġcount ing
ose vel
og a
og y
og an
Ġsc or
Ġsc are
ush i
It alian
Ġcomm uters
Ġcomm uter
ven ir
Ġpr int
Ġso ap
ĠV ista
ĠV EG
are r
are st
ĠPresident ial
li ot
Ġco oking
Ġrec ess
Ġra b
ult an
Ġsupp lying
Ġsupp liers
rop er
ĠNew castle
rest rial
Ġsince re
Ġrel ied
Ġprov es
ĠAn ti
lp s
Ġinf ections
Ġ10 1
Ġbel t
Ġass isted
Ġhelp ful
Ġconf ined
Ġconf isc
Ġexpl oring
Ġexpl oration
Ġresp ects
Ġsm ell
Ġ20 50
Ġsign ature
Ġsign aled
ĠMar c
Ġpublic ity
ather s
ior a
osp ace
gg ers
ĠAr men
Ġoper ates
Ġpass ports
ific ant
ĠSen g
ĠZ oo
Ġ9 1
Ġmar ines
Ġche ered
Ġaff idav
At t
Ġstri fe
Ġinform ant
ĠCent ury
Ġfilm makers
Ġconv inc
Ġclear ing
Ġpartic les
ĠCong olese
Ġpriv ile
Ġcritic ize
Ġsing les
af oor
ĠHam burg
Ġste aling
ĠEurope ans
Ġfront runner
bo ards
AT H
Ġrock y
Ab d
ĠSa akashvili
Ġreact ors
ĠAngel ina
Ġrev olutionary
uk et
udd y
Ġpo orest
Ġsan ction
Ġsepar ately
Ġ197 7
Ġtw ins
Ġpled ging
pro t
Ġtre as
Ġstaff ers
Ġlif estyle
ĠSm all
Ġgra ves
Ġaccident al
Ġaccept ance
Ġcal end
elect ed
elect ric
gen eration
Ġdraw s
Ġgrand children
ĠChung cheong
imp osed
Ġmis le
Ġmis under
Ġcommission ed
Ġphys ics
Âł the
Ġcommer ce
Ġregul ator
Ġregul atory
Ġdom ain
Ġhar med
Ġattend ance
Ġapolog izing
ĠVal erie
Ġblo ggers
Ar ch
Ġrecomm ends
Ġblock ing
abil ia
Ġbrid ges
ĠCommun ications
Ġstem ming
atter ing
ĠTim othy
Ġcollect ive
Ġshr inking
Ġign ited
Ġimmig rant
ĠLib by
Ġrat io
Ġacqu ired
Ġgrad ually
Ġguarant eed
ĠWal ter
Ġinsp ire
Ġsem i
Ġprin ts
Ġdomin ant
ĠGl enn
ĠGl aser
ĠGar cia
ache v
Ġexpress ing
hand ed
ĠNas r
Ġwid ening
ena ar
Ġfeed ing
Ġemot ion
Ġ195 3
Ġspect ators
Ġbreat he
Ġdiver ted
ĠKe ating
Ġdict ators
ĠJul ia
ĠIm m
Ġrecommend ation
erb ach
RO ME
Ġroutine ly
Pl ay
Ġelim inated
Ġexclus ively
Ġpromot ional
Ġfrust ration
Ġvacc ines
ĠDVD s
Ġfunction ing
ĠVen ice
Ġdepend ent
Shar apova
Ġglac ier
Ġbelief s
Ġdeterior ating
ĠBor is
Ġexplo itation
Eng land
Ġembezz ling
Ġcos m
onn ell
Ġmemor abilia
Ġpand emic
Ġanx iety
Ġnurs ing
Brazil ian
ĠGib bs
Ġpig s
Ġassaul ted
Ġgal axy
Ġseas ide
Ġdesc ended
ĠCat hedral
def end
Ġincred ible
Ġboycot ted
Ġsubsequ ently
ĠWy oming
Ġrecy cling
BER LIN
ĠVin cent
Ġplummet ed
hol m
opy right
ĠTrin id
Ġaggrav ated
Short ly
Ġther mal
ĠPers ian
Ġreck less
Ġstom ach
Ġdeem ed
ĠSuperv is
Ġbicy cle
Ġly rics
Ġoffsh ore
Ġprototy pe
ĠTraff ord
Ġtremend ous
ĠKean e
ĠIngr id
ĠMarsh all
Ġincarcer ation
Gamb ari
Que en
ĠMeteor ological
Ġbip art
ĠSanti ago
Ġluc rative
osevel t
ĠVEG AS
0 2
0 4
5 4
6 6
A g
A lex
B aghdad
C opyright
D ar
D id
E TA
F T
G as
G old
G az
H el
H ome
H alf
H udson
I P
J an
J azeera
K ey
L ive
M anchester
N BC
N ixon
S now
T ake
T oy
T ax
V er
W est
W ater
W HO
a fe
b illion
c ounter
c onduct
e acute
f unded
g art
g age
g ood
j oin
j andro
m ay
m iss
n om
n ie
n amed
o ch
p op
p ace
p ond
r anged
s aw
s ik
s aid
t z
u ce
v on
z io
Ġt ents
Ġa il
in ing
in ations
re ction
Ġs ibl
Ġw inger
Ġw iped
Ġf lick
ar on
ar ound
Ġb ust
Ġb other
Ġb uck
Ġin ch
Ġm ath
Ġm ouse
Ġm arty
Ġh ug
Ġh over
as ive
ic ing
Ġd od
Ġd rought
Ġd rives
Ġre hab
Ġn av
Ġn ude
st able
Ġl ip
Ġl ighter
Ġbe e
Ġbe headed
ĠS ag
ut sc
ad ers
ol ene
ac hers
Ġfor bid
Ġsa iling
im i
im ated
ĠC her
ĠC ass
ĠC oll
ĠC els
ig ration
ĠA rea
Ġst iff
ill o
Ġhe ct
ver ing
ĠM all
ĠM TV
ĠM unich
th ink
ĠP un
ĠP ra
ĠP orts
ĠP ict
ĠB ra
ĠB ab
ĠB udget
ĠB orders
Ġwe b
em aker
ĠK rist
ĠK won
ĠK irk
Ġal arming
Ġal iens
ĠT ed
ĠT as
ĠT ro
ĠT ax
ri ve
est a
ĠN ile
ĠN egroponte
ist ical
ate ful
Ġr aced
art ial
ĠD ays
ĠH on
ĠH ay
ĠH ak
ĠH end
ĠH eb
ĠG oh
ĠR u
ĠR oses
Ġex ternal
Ġsh y
Ġsh aft
Ġle aking
Ġle af
ĠF idel
Ġch illy
Ġsp ed
ĠL it
ĠL al
ĠL ak
ĠL ux
Ġun aware
ab outs
ĠE ver
ĠE manuel
ĠE agles
Ġpl ates
Ġse vered
Ġor ient
ich i
ok ovic
Ġwor n
ĠO ak
ĠO val
ĠO wen
Ġj og
ome ter
ep ar
ine z
Ġexp ression
Ġar senal
Ġout lined
Ġme ter
ress es
Ġover he
Ġover coming
ip i
Ġtr acked
In t
Ġen ab
Ġen velop
Ġshe ikh
og s
Ġpre fecture
Ġwhen ever
ĠY ok
Ġ19 0
Ġqu arant
ph is
Ġte ach
ĠV inc
ĠV eter
reat ic
Ġcr acked
Th rough
Th ai
ne ath
Ġimp roper
Ġwar ns
Ġrec ount
Ġunder neath
Ġbl unt
Ġtra iling
Ġtra uma
ah y
ob i
Ġreg ained
land er
Ġmem oir
ai k
Ġinvest ing
Ġret racted
Ġdes erve
Ġcap abilities
ĠAn other
ĠSh we
Ġmed als
Ġtri ple
Ġhigh s
Ġinter active
cer y
Ġref rain
Ġcent imeters
ron aut
Ġdisc s
Ġ20 30
ecut or
Ġgr ace
Ġgr ateful
Ġwant ing
Ġdef aul
ĠAss istance
ĠAr royo
Ġcur ious
Ġcur renc
Ġext ract
Ġcampaign ers
hen ko
Ġmain stream
Ġremain der
Ġmy th
Ġ9 4
Ġ9 8
com plete
Ġ15 5
cess ing
Ġpres erved
Ġcand le
Ġpost er
Ġrequ iring
Ġhom icide
As k
Ġrece ip
Ġhalf way
Ġfree ly
ĠAb out
less ness
Ġvo ices
Ġcare taker
St ep
Ġreb ound
ĠPh uket
Ġless ons
inc ts
ĠTur k
Ġfur ious
Ġord in
Ġri ft
raf ted
Ġste am
stitution al
ĠTr uman
ĠTr ading
par ov
Ġer otic
AT LAN
Ġchar red
Ġchar ism
ĠSa ud
Ġcoast line
uk uni
Ġlo oming
aut ions
Ġ22 5
Ġhur ting
Ġlower ing
Ġfav ored
Ġball oons
Ġlim bs
ĠEm my
ĠSer bs
Ġred ep
Ġren t
Ġblood s
Ġoccur ring
ĠRich ards
rick en
Ġaccept able
Ġmult inational
Ġtur b
ey er
ĠSu z
Ġcirc le
ĠMal awi
Ġdrop s
Ġhistor ian
Ġjump ing
bre ak
mail ed
itch ie
Ġens uring
Ġgener ations
IA EA
Ġfat ig
Ġimprove ments
Ġhy per
Ġpers istent
Ġprec autions
19 1
Ġarch ipel
Ar ound
Ġprem ises
Ġlay ing
Ġtor rent
ĠHow ever
Ġcorrespond ents
Ġestablish ment
Ġpow ered
ĠBas que
Ġcasual ty
ĠCho i
ster dam
Ġattract ing
Ġbal anced
Ġprofession als
Ġten or
Ġprin ted
ilit arized
Ġdefin ing
ĠInt el
Ġsamp le
Ġprofit able
ĠTor res
ĠSoc cer
Ġrecru iting
ĠSum atra
Ġcomplic ations
ĠBah rain
Ġscr ambled
Ġsucceed ed
Ġcool ing
Ġtall est
ĠMu ham
ĠMem phis
Ġbroadc asts
tr ade
ĠTra il
Ġlik eli
Ġillness es
ĠJi had
ĠBall mer
uy oshi
Ġmechan ism
Ġconcent ration
Ġspecif ics
Ġhij ack
ĠChile an
Ġsear ches
Ġadvoc acy
Law y
Ġarchae ological
Ġplatform s
Ġinstruct ed
Ġtransl ator
Ġped est
Ġped iat
Ġroof s
Ġeval uation
Ġexplo ited
Ġdisable ment
Ġwors ened
Ġswift ly
Ġalt itude
ĠAlban ians
Ġcompar ison
Ġham mer
ĠNH K
Ġtherap y
ĠHad ley
anche z
ĠDomin ican
Ġdisturb ing
deep ly
Ġsurprising ly
Ġincred ibly
Ġdispers e
Ġinterpre ter
Stud ents
Ġrub ber
ĠProf essor
Vi olence
Ġfrag ile
ĠClin t
ĠTrib une
orb achev
Ġbio f
Ġanth rop
Ġoutf it
Dep uty
Ġpist ol
ĠGreens pan
ĠHist ory
ĠChap ter
Ġaudi ences
ĠMoroc co
hart o
ĠRef uge
Ġsimultane ously
Ġpock et
omet ric
ĠBrow ne
Ġadequ ate
ĠObserv atory
Ġster oid
Ġfoment ing
Ġinflam m
Bet ween
bek i
Ġreli able
ĠTurn er
Ġseiz ure
irming ham
ĠPear l
ĠQass am
ĠAutom otive
Ġinhabit ants
Ġfurn iture
Ġscri pt
ĠNichol son
Ġjuven ile
ĠHav ana
Ġnood les
Ġbrig ade
ĠCommon wealth
Ġkilog rams
Ġencry ption
Ġexting u
Ġcalend ar
ĠTrinid ad
Gaz prom
Ġsibl ings
utsc he
ĠCels ius
ĠPorts mouth
Ġcurrenc ies
ATLAN TA
Ġlikeli hood
5 8
7 8
? âĢĿ
A rab
C S
C ivil
D el
E s
E v
F amily
H u
H ol
H wang
I RO
L ong
M s
M ac
M aj
N U
N am
N eal
O b
R og
R ob
R ead
S al
d efense
d iction
e uro
f old
f inal
f unction
g io
h orn
l u
l en
l aim
l isted
m ill
p os
p olitical
r ights
t able
u art
v ia
Ġt ar
Ġt ipped
he a
he ed
in stein
re ason
on ze
Ġs ung
er ts
Ġw ra
Ġw ise
Ġw oo
Ġw rist
en h
or ating
it ate
it ches
Ġf iber
Ġf oe
Ġf olk
Ġp ave
Ġp ole
Ġp upp
Ġb ot
Ġb ore
Ġin ev
Ġto re
ou ver
Ġm asks
as ked
Ġd rain
le ft
le vi
Ġre leg
st am
st ated
Ġl akes
ĠS l
ĠS hen
Ġg ond
Ġg rat
Ġg aff
ĠC are
ĠC rown
ĠC ruz
am mar
ig e
ec ess
ĠA SE
et imes
Ġhe al
ĠM uk
el ed
ow ers
ĠP S
ĠB ak
ĠK ir
os ystem
ĠT est
ĠT odd
Ġpro ven
ch ong
Ġy ard
Ġby pass
pp ings
Ġcom ic
ĠW TA
Ġr angers
ew hat
Ġv end
art oum
ort ing
ort ions
ĠD ur
ĠH ut
ĠH ew
ĠG ans
ĠG reg
ĠG iants
ĠG afoor
ĠJ en
ĠR w
ĠR un
ĠR est
ast ing
Ġ2 10
Ġsh aped
ĠF ish
ĠF ried
Ġk ne
Ġoff enses
oc c
Ġch ronic
Ġsp ies
Ġsp ying
od ing
ud h
ĠL ion
ĠL ast
ĠL uther
Ġun comfort
Ġun authorized
Ġpl ains
Ġse g
Ġse ize
Ġab usive
ia z
ĠO ur
ĠO ver
ard i
Ġar th
Ġar range
ell ent
Ġout raged
Ġ( "
ff er
ĠSt ra
so le
Ġad vers
Ġdis h
ip es
ang a
In c
NN ES
Ġen act
Ġshe et
Ġro oft
Ġapp et
Ġapp lying
Ġapp lies
lic it
Ġinv ite
Ġdec e
Ġdec k
Ġqu ad
con i
con n
amp ed
Ġop ted
ĠV illa
Ġam nesty
Ġfl ower
ĠSouth west
Ġcr ushed
ne red
Ġco at
Ġco aches
ah im
Ġfore ver
Ġfore ns
rop he
rop ic
rat ic
Ġwhere abouts
Ġbr ink
Ġbr onze
Ġback l
Ġback up
Ġadd iction
Ġstat ues
Ġnear ing
ai ver
Ġret ract
duc es
Ġdes cent
Ġprov ider
Ġcompan ion
Ġev asion
Ġev olved
Ġmed ium
Ġvi able
Ġvis as
Ġtri be
Ġhead phones
Ġph r
Ġresp ected
ĠMar in
Ġ8 9
Ġgu ilt
ĠUS GS
sh ow
ĠSp iel
ĠSp itzer
Ġpar am
Ġbo ards
Ġrun ways
ale h
gg y
Ġtrans cript
ĠAr ts
Ġspec ulated
ull a
Ġdeal ings
Ġent ers
ik rit
Ġrest oration
Ġhum p
ĠAm sterdam
Ġca ff
Ġdel inqu
ĠMcC onnell
Ġcor rid
Ġche ating
Ġcol ony
ĠWh at
Ġlaun ches
Ġlet ting
Ġ18 79
Glo bal
Ġshort fall
Ġconv entions
Ġconv ictions
Ġdr ums
ae ologists
ĠBl ake
Ġfinal ize
ĠPro di
Ġhard line
aff ected
Ġwrit es
ĠTur ks
Ġsuccess es
Ġart istic
crib ing
Ġord eal
Ġri oters
ann i
Ġste re
urg ent
ĠAd am
Ġdeleg ations
Ġeng ulf
Ġanim ation
Ġdesign s
Ġide ology
Ġseason al
Ġcompet ed
Ġrev ived
Ġresign ing
Ġblack s
Ġsol ving
ĠUN ES
ĠNews week
Ġcross ings
Ġhur led
ĠTe leg
Ġoffer ings
Ġsepar ation
Ġcounter terrorism
Ġ197 6
Ġfun ny
ĠSte el
Ġren d
ĠDe ath
Ġpan els
ĠCount ry
Ġkilome ter
Ġver ified
ĠKh artoum
Ġmult ilateral
Ġ196 2
Ġ196 7
Sp ears
Ġeduc ated
reg n
reg ate
Ġunc le
Ġunc ond
ĠMiddle ton
Now ak
room s
Ġmis man
Ġoverse es
Ġwel coming
opp ing
Ġcommon ly
Ġrob otic
ĠPat ri
ĠAbd el
Ġreve red
Ġreve aling
Ġdefe ating
Ġcop per
OR E
ĠMac world
Ġtransport ed
cat o
Ġpers pective
ĠVal encia
Ġacknowled ging
Ġproduct ivity
ĠHaw k
Ġmodel ing
Ġcy cle
Ġconclud es
ĠFranc is
uj ah
Ġbag gage
ĠSom chai
Ġdeliver ing
Ġobject ions
Ġclin ics
Ġtight en
Ġapproach ing
ĠNor ris
Ġcontest ed
Ġdistrib ute
Ġdistrib uting
rip ts
Ġpurch ases
Ġunve il
Ġign oring
ĠBern ie
Ġargu ably
Ġpull out
Ġacqu isition
Ġdiss olved
Ġlic enses
Ġsurge ons
Ġremote ly
ĠCap ello
Ġadminist rations
Ġsymb ols
ĠLaw rence
Ġwood s
ĠQu inn
Ġadj acent
Ġrecru its
olitan o
Ġpump ing
Ġinstall ation
Ġcateg or
Ġsick ened
Ġreloc ate
Ġencoura ges
Ġconsult ant
Ġreun ification
ĠBall esteros
Ġramp ant
ĠProt ocol
ĠMatt el
Ġvent il
Ġinquir ies
Me et
Ġbrut ality
Ġ73 7
Ġintegr ity
Ġunivers al
ĠCy clone
ĠHun ter
ĠLuc as
Ġchol era
je on
Ġtoil ets
oren stam
ĠYas ukuni
Ġsequ ence
Ġwheel chair
Ġcollabor ation
ĠCharl otte
ĠEthiop ia
writ ten
ĠCle zio
Ġliquid ity
Ġveget ables
Ġlaugh ing
Ġec osystem
Ġgren ade
ĠGib son
Ġtaxpay er
ĠTown ship
Bur ma
Ġlod ge
Ġbodygu ard
Sur viv
Ġclassroom s
Ġdorm it
igg s
ĠConf ed
ĠGall up
Ġdepos it
Ġpublish ing
ĠWon der
ĠIndepend ence
Cor respondents
mod el
ĠPres ley
Ġhamp ered
ĠCult ure
Ġobstac les
Kar zai
Ġmelt down
ĠTok to
ĠGriff in
sec ond
Pass engers
Ġreaff irmed
step s
Ġsculpt ures
Ġevangel ical
Ġgenet ically
Ġhumili ating
Ġcertific ate
Equ us
Supp orters
Ġpod ium
Ġmo at
Ġingred ients
ĠRober ts
ĠVanc ouver
ĠSeg olene
Ġtong ue
dig it
Ġfantas y
Ġconsist ently
ĠQueens land
hav ior
ĠHimal ayan
Ġlia ison
Ġbure auc
Ġaffidav it
Ġbipart isan
ĠVinc i
Ġarchipel ago
ĠGans u
Ġuncomfort able
ĠUNES CO
! âĢĿ
) ,"
3 20
3 50
6 8
7 2
9 2
9 3
A pril
B R
B es
B ared
D utch
F re
F rank
H ur
H ONG
J im
K y
L abor
M att
M obile
N eg
O M
O W
P ut
S aturday
S amsung
S epar
T or
V en
W ood
b ok
b inding
b ishop
c ost
c ard
c ult
c ular
d el
f ounded
f illed
g ence
g ling
g rown
g irl
h ik
h oon
k ick
m ap
m ajor
m dr
n ell
r us
r ise
r int
r acks
s ix
s upp
v or
v ak
v ian
w or
w ick
w aters
z el
Ġ um
Ġ ub
Ġt on
Ġt ube
Ġt ainted
in ity
re my
on o
on so
Ġs ink
er ber
Ġw ond
Ġw izard
an ked
en ary
ed ian
at ible
it ement
Ġf iction
ar ians
is le
Ġp ork
Ġb ury
Ġto uring
Ġm ast
Ġm alf
ic ulous
Ġd amp
Ġd iversity
om ura
le en
Ġth under
Ġre fe
Ġre ferences
Ġre open
ro b
Ġl ion
Ġl ag
ĠS id
ĠS ay
ĠS oy
ĠS yn
ĠS reb
Ġg ent
Ġg ut
Ġg rain
ter osexual
ur ry
ur ances
ac i
Ġfor ged
ĠC ow
ĠC our
ĠC ook
ĠC omb
ĠC ecilia
ĠC mdr
ot i
ot or
ec ca
us ement
ĠA L
ĠA rena
Ġhe terosexual
ĠM ell
ĠM ail
ĠM ek
ĠM other
ĠM arty
ĠM beki
ow croft
ra pe
ith uan
ĠB rent
ĠB oul
ĠB eth
ĠB eck
ĠB usiness
Ġwas h
em ia
em ics
ĠK or
ĠK ual
ĠK yong
ĠK aka
ĠK ONG
ĠK iev
Ġas c
Ġal ike
ĠT ina
ri age
and ong
ĠN ou
ĠN ahr
ag a
ĠU C
ain es
ĠW end
ĠW ard
ĠW ell
ĠW rit
ĠW oolmer
Ġr itual
art her
ĠD oh
ĠD ef
ĠD mit
ĠD uck
ĠD yn
ĠD EL
ĠH um
ĠG ue
ĠG iggs
ĠJ ab
ĠR ak
ĠR iza
ast rophe
Ġex ists
Ġex isted
Ġex agger
Ġsh ove
Ġle thal
um bers
ap ted
Ġoff set
Ġsp aw
Ġsp ike
Ġsp ared
iv ni
ess im
ĠL ump
ĠL edger
all one
Ġun de
Ġun law
ĠE ven
Ġse am
Ġse afood
se ven
qu et
Ġrep ris
ĠO pp
ĠCh adian
ant al
uc a
ine a
Ġexp ire
Ġar ts
Ġout er
Ġnew born
rou s
Ġcomp osed
Ġcomp elling
iz z
old iers
Ġover look
ass ed
ass ing
Ġtr aces
ĠIn vestig
ĠIn soo
In ternet
Ġen roll
ition ally
Ġsc am
Ġsc aled
Ġapp le
ĠNorth west
ĠY am
ĠY ellow
Ġmon etary
ash i
enc er
Ġkill ers
ft y
ph ic
ater o
ĠMon te
are va
lin ked
Th ursday
ne ver
Ġind oor
Ġwar fare
ath ing
Ġcons ulate
Ġsur g
ob iles
Ġend ured
Ġshow case
Ġlaw n
az z
uth an
ai er
Ġdes erves
Ġbu oy
Ġev olutionary
Ġinf ect
Ġinter rupted
Ġinter course
Ġstr ings
Ġdeb ated
Ġgr ounded
Ġdef iant
Ġpar ole
Ġrun ners
ĠMc A
Ġviol ates
Ġviol ently
ĠQ antas
Ġoper a
Ġsub mar
Ġspec ulate
Ġgood will
ĠZ oellick
Ġposs ibilities
Ġest ranged
Ġdon ated
Ġprev ention
Ġla und
Ġcol ored
Ġbre ast
At torney
Ġur gency
Ġdebut ed
ĠHe ad
Ġban ners
As ia
ĠJan et
by e
Ġglo omy
Ġglo bally
ĠLe ung
ten ance
pe ople
Fl or
Ġsk ip
ĠCol in
Ġstand still
Ġtrad itions
raw l
Ġdist ract
Ġdr astically
ĠRe ve
cl ock
Ġsom ewhat
Ġtechn ological
ĠBl ues
Ġcost ly
Ġcris es
ĠSc owcroft
St ock
avy den
inc luding
Ġmat ched
Ġmass age
ĠAt letico
Ġyoung sters
wh atever
Ġdest ructive
ĠHar ris
ĠGu y
ĠGu ards
umb o
ĠTr ump
Ġimportant ly
ĠFor bes
ĠX P
ert a
Ġcred ibility
Ġcred entials
let t
Ġdiv isions
Ġrev ival
ĠRes ources
Ġlo vers
Ġport al
Ġbid s
ĠCl arke
ĠAnd re
Ġread s
Ġfav ors
Ġcomment ed
Ġ197 2
Ġdisapp ointing
Ġemb argo
Ġple ad
Ġexc luded
Ġexc itement
ĠShe l
Ġaud it
ĠMic key
Ġcal ories
Sp okes
Ġcoup ons
ĠSu harto
ĠDay ton
mark ed
ĠMil k
Ġfr ame
Ġrespect ive
opp osition
Ġdispl ays
ĠMe eting
ĠBut ton
Ġpoor ly
DA Q
Ġsens ation
ĠDae jeon
Ġobs erve
Ġtemp les
Ġflo ated
Ġflo ors
Ġeth ical
Ġfirm ly
Res pond
ĠShar ia
Ġprec ision
Ġevacu ations
Ġdig ging
Ġcontrib utions
Ġminor ities
ĠChampions hips
Ġsal aries
Ġclean er
Ġspeed s
Ġachie ving
ĠCommun ication
Ġalcoh olic
Ġenvironmental ists
ĠRo jas
iqu itous
ĠGlo bo
ram ovich
Ġpurch asing
EC D
Ġattract ion
Ph ill
Mar ch
Ġdiss ident
Ġdiss atisf
Ġseed s
Ġfort unes
Ġresum ing
ĠFil ip
Ġextrem ist
Ġroll er
MA DR
Ġcatch ing
Ġexcept ion
Ġadj our
Ġachieve ment
Ġlobby ists
Ġoverwhel med
Ġconsult ations
Ġescal ation
Ġsail or
ĠJim my
PP P
Ġdump ing
ĠLyn n
Tr ans
Ġplung ing
ĠVi agra
Ġoblig ation
ĠSil ver
Ġpool s
ĠFl oren
Ġuncon stitutional
des cribed
ĠBond s
Ġsac red
Ġspr int
Ġpit ched
ĠHo i
Ġshield s
ĠVen us
Ġsubur bs
Ġdestin ations
Ġshif ted
Sy ria
Ġicon ic
Ġapprec iate
Resc ue
Ġcongrat ulate
Ġupd ate
Ġfer til
Ġambul ances
Ġadjust ments
Ġfract ion
fight ing
Ġdispers ed
ĠGuang dong
ĠGuang zhou
Ġcaps ule
Ġcourage ous
Ġinstru ment
Ġinspir ation
Ġportray al
Ġcoinc ide
Ġsubsequ ent
ibl ical
Ġlun ar
Ġlav ish
ĠWi i
ĠLy on
ĠFranco is
Ġrecruit ment
vinen ko
Ġcin em
ĠJoh annes
Ġintimid ation
Ġhel m
ĠID F
ĠRy der
lav ia
Ġconfron ted
Dem onst
Never theless
Ġfundra ising
ĠJama ica
Gun men
spons ored
Ġsid ew
Ġdent ist
Ġcommod ities
Ġimplant ed
Ġglimp se
Dream girls
Ġpanc reatic
ĠBron x
Ġabrupt ly
atell ite
asch le
Ġreneg ade
econ omic
ĠMult i
Ġwholes ale
Ġsubsc ri
iju ana
Ġdestabil ize
Ġuncomm on
Ġveterin arian
Vir gin
Ġmourn ers
ĠLaut erbach
Ġblaz es
ĠConner y
fr ame
Ġconvinc ing
Arch aeologists
ĠSupervis ory
von areva
Ġnav ig
ĠLit vinenko
ĠSuz uki
Ġquad rup
Ġbackl ash
ĠSpiel berg
Bes ides
Ġub iquitous
ĠSoy uz
ĠKual a
avyden ko
MADR ID
9 4
C iting
C BS
C richton
D T
D ay
D ub
E st
G i
G r
H ad
J A
K EB
L P
M oney
N adal
N atal
P R
P itt
R i
R oy
R oyal
R attray
S S
T er
T ro
T rad
U g
V an
W inehouse
Y D
Y eah
a it
b ee
b oss
c i
c or
c ame
d ose
d les
f s
f ol
f light
f ilm
g ay
h r
k ill
k ward
l asses
m us
n ine
p ic
r illa
s or
s ens
s ider
s quare
t ure
t ically
t rained
v ic
Ġt emb
Ġt read
Ġt aped
Ġt ables
Ġt umbling
in jiang
Ġs ke
Ġs ang
Ġs tern
Ġs oci
Ġs ights
an ana
an men
en ay
or ates
Ġc ogn
Ġo ct
Ġo ught
it ives
es i
es ar
Ġf ren
ar oo
is k
is ner
Ġp orts
Ġp aternity
Ġp essim
Ġb unch
Ġb ounce
ing u
Ġin und
Ġin put
ou b
Ġm og
Ġh ind
id ge
il o
Ġre ar
Ġre join
Ġn an
Ġn ur
Ġn erve
Ġn erves
ay ette
ro ved
ro oted
st ars
Ġl end
Ġl oya
Ġe leg
Ġe uthan
ĠS ind
ĠS ultan
ad an
ol ly
ol ving
Ġg au
ur ich
im ura
ĠC re
ĠC orn
ĠC pl
am ous
am ble
am ination
ĠA xelrod
et ti
Ġst ump
ĠM obil
ore xia
ir able
el est
ow een
ĠP ur
ĠP rom
ĠP sych
ĠP GA
ĠI P
ĠB ack
ĠB irmingham
oun ters
em s
em ade
ĠK wa
Ġas pect
Ġas leep
os an
os ity
os aur
Ġal levi
ak y
ĠT os
ĠT reat
op eration
op hy
Ġcon vert
Ġcon sole
her ty
ri ages
est ing
ul ent
ĠN i
ĠN atural
ĠN TS
Ġpro c
ist rib
ch a
ĠD E
ĠD aw
ĠD irect
ĠD yl
ĠD uj
ĠD ennis
ĠH aj
ĠH off
ong ju
ĠG orbachev
ĠR ang
ĠR SP
ĠR oland
ĠR itchie
Ġsh un
Ġle ather
ĠF a
ĠF AA
ap ton
Ġk icks
," '
Ġsp ouses
end reau
iv a
our inho
ĠL ang
ĠL loyd
Ġsu e
Ġun e
Ġun le
ĠE b
ĠE TA
Ġpl acing
Ġse gment
se ille
up iter
ĠO ber
ĠCh air
ren ica
Ġj oke
Ġpe ppers
ant e
Ġcl a
Ġcl own
Ġcl amp
Ġcl oth
Ġcl uster
Ġexp ired
ime ter
ans a
ff ective
ĠSt at
so ok
Ġad olescent
Ġinc omes
ous ing
Ġcomp ounds
Ġcomp atri
iz able
Ġup scale
Ġover shad
Ġcont ention
Ġatt itudes
ass ouf
Ġtr ace
ish ops
In vestors
av il
ran cato
Ġsc i
Ġinto xic
Ġpre y
ĠY ing
Ġ19 1
ph one
we re
oh s
Ġam usement
Ġ5 50
Ġfl ock
ach t
Th anks
Ġimp ressed
Ġco er
Ġtra pping
Ġsupp ression
Ġsupp lied
ob ody
leg ate
Ġreg ain
Ġany time
uss en
An ti
ll s
az aki
Ġprov oked
ĠAn im
Ġ10 7
Ġass ure
Ġmay ors
Ġinter ce
Ġem peror
riv ate
Ġcent rif
omm y
Ġ20 15
Ġsl ashing
Ġsl opes
ex pl
ĠMar ie
Ġcontin ents
Ġdef ines
Ġdef ensive
Ġdef iance
sh ut
sh irts
sh mi
Ġser ial
ĠQ ual
ĠQ atar
Ġvisit or
ative ly
ĠSec ret
Ch ang
Ch ildren
Ġcur tain
Ġcur ator
Ġspec ially
Ġarrest ing
Ġent ities
Ġrest oring
Ġclim bers
Ġspe akers
Ġ9 2
Ġdel ighted
Ġmar ijuana
Ġcrit eria
Ġdon ation
ĠAs if
Ġcor oner
Ġsit uations
pl ayed
Ġamong st
Ġpress uring
alib u
Ġhealth care
Ġbre ached
Ġsw itched
ĠHe ather
Ġappro aches
ĠLe ahy
Ġkeep er
Fl ight
Ġsk id
Ġcomple tion
ĠBl atter
Ġcost ing
Ġmet ropolitan
ĠFrench man
Ġform ula
Ġ13 5
Ġ16 5
Ġbar racks
Ġorganiz er
ĠPh nom
sc ar
Ġprop osing
ĠPar agu
Ġsucc ession
Ġfut ur
wh ite
Ġbreak down
af sha
ĠX iang
ĠX injiang
ĠPen h
ĠTV s
Ġdev il
Ġconduct or
Ab u
Ġfuel ing
Ġcour thouse
Ġreact ions
raz y
Ġrev ise
Ġblack out
ris is
Ġsol o
Ġport fol
hu i
Ġprotect ive
Ġpred icting
Ġmount ed
Ġlim bo
ortun ity
Ġ197 4
Ġtw ist
Ġboard ed
Ġren ted
Ġemb ark
ĠSch iller
Ġpack ing
Ġbroke red
Ġexc use
Ġautom atically
Ġautom obiles
Ġsn ub
Ġgrand son
Ġcoup on
mark ets
BA NG
Ġconn ections
Ġinflu x
Ġvac ant
Ġdi pped
Ġdi arr
Ġcorp ses
Ġplant ed
Ġvers ions
rap y
Ġlab els
uff ed
Ġperform ers
Ġmagaz ines
ĠÂ ¥
Ġunf ortunately
Ġprec ious
Ġprec incts
Ġmort ars
Ġpositive ly
Ġpet roleum
keep ers
Ġprem iers
En vironment
ĠRo osevelt
Ind ust
Ġalbum s
Ġobject ion
Ġtight ened
Ġfair ness
Ġimplement ing
ha al
Go vern
Ġspir its
Ġmeant ime
ĠTs uyoshi
Ġrail ways
Ġliber ation
ĠZimbabwe an
ĠWal ters
look ers
Bar celona
Ġpath s
ĠJose f
Ġprin ting
Ġcart el
Ġpray ing
Ġhor rible
Ġring ing
Ġsamp ling
ĠCons ervative
De velop
Ġequal izer
Ġwelcom es
Ġinstall ment
ĠSum mit
Ġsubstant ive
Ġsubstant ially
lus coni
Ġiniti ated
Ġiniti atives
ĠJordan ian
Ġconsult ation
Ġdiscl osure
Ġverd icts
Ġcopy right
Ġexamin er
ĠIm us
Ġhung ry
Ġconce pts
Ġaccus ation
Ġdetect ive
Ġsli pping
erb ai
ernand ez
Ġveto ed
Ġhal ting
Ġnut ri
Ġintegr ation
Ġquiet ly
Ġadvoc ates
Ġcounsel ing
Ġaw ake
Ġaw kward
ĠTer ror
Ġchair woman
Ġguer rilla
Ġrig ged
Ġinstruct or
ĠAy man
ĠBet ty
ĠStan ford
Ġcow ard
Ġprob able
ĠRonald inho
ĠPlay er
Ġamend ments
Ġblog s
ĠEv ans
Te levision
ĠRen ata
Mark ets
Ġaer ospace
Ġstir ring
Ġspur red
Ġrepro cessing
Ġapprec iated
ĠCla rence
Islam ic
Ġunexpected ly
ĠAlban ian
Ġcompar able
ĠKhal id
HA NNES
Ġwrap s
ĠFab io
Ġcanc elled
Ġpassion ate
Ġincent ive
Ġshell s
Ġpreced ed
Ġcommem orate
Ġcoordin ator
Ġdisagre ements
Ġcru el
ĠPeters on
Ġanaly zed
Ġassum ed
Ġskept icism
Ġarchit ects
Ġboycot ting
kat iri
Ġinterpre ted
Ġauton omous
ĠBrook lyn
ĠPyeong yang
comb at
ĠIndepend ent
Ġloot ed
Ġchart ered
ĠSlo vak
Ġchimp s
Ġsurpass ed
ĠMill ennium
ĠClass ic
Poll s
ĠMao ist
Ġhydro gen
Ġsynd rome
Ġpure ly
Ġancest ors
Ġgad get
ĠDri ft
ĠLab our
ĠInf ant
kil ometer
ĠAle jandro
ĠIR NA
ĠKum ar
Ġug ly
ĠPed ro
Mex ico
Ġment ally
Ġpean ut
Ġincon ven
Ġconscious ness
asm ussen
Ġauthen tic
Ġarchitect ure
Mur ray
ĠDad ullah
ĠForm ula
ritz l
Ġrhyth m
grow ing
ĠAu vinen
ĠRud y
Ġreminis cent
JO HANNES
Ġsabot age
Ġimmun ity
Michel le
ser uma
Ġsidel ined
Ġdys function
ĠMald ives
ĠDj okovic
Ġexcer pts
ĠTas man
Ġorient ation
ĠSaud is
ecess ary
ĠASE AN
Ġforens ic
Ġhump back
Ġcaff eine
Separ ately
ĠSreb renica
ĠDoh a
ĠDmit ry
ĠDEL HI
ĠLump ur
Ġsurg ical
ĠReve rend
Respond ing
Ġadjour ned
Ġnur se
ĠKwa Zulu
ĠDyl an
ĠRang oon
ĠRSP B
ĠParagu ay
JOHANNES BURG
0 1
1 80
8 3
A rs
B ol
B art
D eb
D ick
D ef
E r
E leven
G E
G ore
G aza
H ours
J u
J udge
K ate
K erry
L M
L ove
L ife
M D
M ary
M ass
M ike
M ilit
M ilitary
O s
P a
P ol
P ower
P owell
P Morgan
R em
R ef
S L
S ol
S chool
S ources
S addam
T H
T ER
U k
U ri
U EFA
W P
Y onhap
b r
c ore
c ue
d irect
d isc
d oping
d efin
e ast
g as
h ot
j ong
j ab
l ay
l aration
l uster
m issions
n est
n ational
n ants
o it
p y
p res
r iger
t ake
t ered
u ments
v ador
v arn
w er
w rote
z aki
Ġt ill
in ous
Ġs alt
er ates
er able
Ġw ishes
or ge
ed i
ed ge
Ġc ad
Ġc ure
Ġc ough
Ġo un
Ġo we
it aries
it iveness
Ġf ron
is i
Ġp uzz
Ġb ounced
Ġb ubble
Ġb inding
Ġb ricks
Ġin mate
al ion
al ysis
Ġh int
Ġh iring
as ia
Ġth umb
Ġre he
Ġre aches
st r
st ra
st ant
Ġl iv
Ġl ured
ĠS K
ĠS em
ĠS iber
ĠS ala
ĠS anchez
Ġon lookers
ac ies
Ġsa ves
im ming
ĠC a
ĠC owell
ec retary
us c
ĠA ra
ĠA ction
Ġst ing
Ġst aple
Ġhe ating
ĠM R
ĠM i
ĠM ul
th ansa
ĠP f
ĠB od
ĠB og
ĠB und
ĠB aker
ĠB alk
ĠB uy
ĠB aby
ĠB yeon
ĠB uilding
ĠB atman
ĠK al
ĠK ra
ĠK lein
ear ly
ĠT ri
ĠT ikrit
ri ans
ri als
est ock
ul ates
ul iffe
ĠN K
ĠN ar
ĠN ak
ĠN AS
ag ued
ist ence
ĠU p
Ġha il
Ġcom et
ĠW ie
Ġr ust
Ġr ated
Ġr ides
Ġv om
Ġv ivid
if a
if fer
ĠD aschle
ĠH il
ĠH op
ĠH oe
ĠG et
ĠG ab
ĠJ el
ĠJ ang
ĠR F
ĠR ic
ĠR ivers
ĠR andy
ast ics
ĠF ame
ĠF lying
ĠF ey
ĠF ifth
ĠF argo
Ġch unk
ĠL ie
ĠL ula
ĠL ithuan
ry lls
Ġun ite
Ġun related
Ġun eart
Ġun official
ab a
Ġse ism
Ġab domin
se ek
qu il
ust ers
ren e
ant on
Ġres on
Ġres hu
Ġres ource
Ġout right
ke e
ount ered
ff le
Ġne uro
Ġne arest
ĠSt am
ĠSt ore
ĠSt ory
Ġper ceived
ie ve
Ġme al
Ġcomp are
lo ad
Ġover dose
Ġdis qu
Ġdis asters
ĠUn it
ĠIn sp
Ġcount ered
og az
av en
Ġlast ing
aw esi
ild e
Ġsc rapped
Ġro gue
act ic
It aly
Ġmon aster
Ġmon ster
Ġday light
Ġdec orated
Ġcomm issions
ĠTh ose
ĠTh ird
He zbollah
amp ard
Ġpr one
Ġmin eral
ĠV o
ĠV ideo
Ġam ateur
Ġfl ies
are rs
oy ama
ne um
ĠSun nis
Ġimp ass
Ġimp asse
Ġwar ships
Ġcar ved
Ġcar makers
Ġcar maker
Ġbl ade
Ġsupp lier
Ġreg ards
Ġrem inder
eb a
eb ari
Ġann oy
Ġinvest ed
Ġprov isions
Ġins ure
ĠAn imal
Ġev ident
ĠSh al
ĠSh rine
Ġmed iation
Ġbel ly
Ġass urances
Ġinter act
Ġfe ud
bers pace
Ġhome owners
ling ton
Ġsl ower
Ġdep ends
ĠMar co
ĠMar itime
au x
Ġdef ine
Ġdef ied
sh ots
Ġbo asts
Ġbus iest
ĠMc K
Ġdet achment
Ġviol ate
ĠQ uds
ins pired
Ġdirect ions
Ġoper ative
Ġoper atives
vi ol
ĠAl g
ĠAl v
ator ium
ĠZ amb
ĠZ urich
pr ing
Ġposs ess
Ġnational ity
Ġdel icate
alf our
com p
Ġgrow s
ĠComm ons
Ġmen u
Ġpres ided
Ġadv ancing
At lant
ys ics
Ġhand over
Ġsw am
Ġsw earing
ĠDep ression
Ġopen er
eng ue
Ġsk ies
Ġfail ures
ĠCar la
Ġden ouncing
Ġdr illing
ĠRe ed
cil ess
Ġfinal ized
Ġed ged
ĠPe pper
St one
Ġbar rage
rup ting
Ġprocess es
Ġmat hem
Ġsing ers
12 5
Ġroad bl
Ġroad map
ĠAd minist
ĠGu inea
Ġfather s
Ġris es
ĠWar ning
ĠX anana
Ġcomput ing
let te
Ġcompet itors
ye h
work ing
Ġwal ks
Ġpen al
Ġpen et
Ġresearch ing
Ġsell s
pect ac
Ġfoc uses
oid able
Ġval uable
Ġvill a
Ġ22 6
Ġ27 0
Ġmission ary
Ġexpect ation
ĠAnd rea
Ġkidna ppings
AP A
Ġlim iting
ĠEx xon
Ġcomment ary
Ġquarter back
Ġhon oring
ĠTibet ans
Ġsuper star
Ġsuper intendent
Ġenc ountered
ĠSer gio
Ġperiod s
Ġflood waters
Ġaccess ible
ĠSw at
uf thansa
Ġren ov
Ġple ading
ĠCount ries
Ġexc ellent
Ġresol utions
Ġfem in
Ġaccount able
Sen ator
ĠBr anson
Ġ196 3
Ġ196 6
elect ions
Ġill um
BA I
NA IRO
Ġcirc ulating
Ġpun ished
Ġ28 0
ĠMil iband
Ġfr ig
Ġinflu enza
Ġrob ots
Ġcelebr ates
ĠAbd ulla
Ġlack s
Ġlack luster
Ġobs ervations
Pe ter
Ġbi ology
Ġgener ators
ĠFin land
Ġconflic ting
Ġprec ond
ĠStar bucks
Ġacknowled ges
Ġproduct ive
Ġindustrial ized
Ġcat astrophe
Ġcy berspace
Ġclean ing
ĠWin ston
Ġmotor b
Ġmotor cade
Ġnar c
ĠBel grade
ĠTs onga
Ġrequire ment
Ġarriv es
Mar adona
Ġliber ty
Ġexerc ising
Rep resent
ĠCamp aign
Ġweapon ry
Ġgrad ual
Ġeld est
Ġfix ing
Ġcler k
Ġ194 7
Ġdin osaur
Ġdefend ant
,' "
Ġdomin ate
Ġstress ing
Ġsplit ting
ĠJoong Ang
Ġroll s
Ġcoord ination
Ġmamm al
Ġdetain ing
bl ack
Ġharm ony
Ġachieve ments
bus iness
Ġaltern atives
ĠColumb us
ĠNe il
Ġspac ew
Ġqualif ier
ĠRom ans
Ġtack ling
Ġut il
ĠHel en
Ġreflect ed
Ġble eding
har mon
Ġescal ated
tr ack
Ġmanip ulating
ĠSteven s
Let ters
asc ular
Over all
UN DP
ĠSo chi
brid ge
Ġconclus ions
ĠVi ew
ĠLind sey
Ġlegit im
Ġtow ers
Ġthr illed
ema ah
Ġboss es
car at
Ġarchae ologist
Ġpilgrim age
Ġconven ience
Ġrush ing
ĠYous sif
ĠRel ief
Ġoutrage ous
Afghan istan
Ġmotiv ation
Ġconstit uted
Ġchap el
Ġcry stal
ĠSin iora
Ġadmit ting
irk head
ĠPhill ips
ĠCharl ie
writ er
ĠCle m
bro ken
Ġalt ogether
Ġupd ated
Ġforg otten
Som etimes
Ġgro cery
Ġrot ating
Ġreluct ance
Ġembarrass ing
ĠTw itter
Ġfran c
ĠNam ib
Ġmonarch y
Ġreass ure
throw ing
Ġconsul ted
Ro oney
Ste ve
Ġtoler ate
ĠSpani ards
Ġarrang ement
ĠArch ives
Ġproport ions
Ġfingerpr int
Ġlun cheon
ĠRah man
Ġcardi ac
Mil an
Ġloot ing
Ġjur ors
Ġinsist ence
Ġmedi ator
Ġcin ema
ĠCult ural
ĠMP s
ĠNap olitano
ĠHung ary
Ġchimp an
Ġcontemp orary
Ġobstac le
Rod dick
forest ation
Ġprovoc ative
count ry
Ġtoss ed
Ġthorough ly
ĠWol ong
Ġsket ch
Ġfo iled
ĠCur ious
Ġreinforce ments
ĠFut ures
Ġportr ayed
Ġaccommod ate
Rad cliffe
Ġoutlaw ed
KAR TA
Moh amed
Ġstab bed
Ġfright ened
Port ug
Ġlib rary
Ġkang aroo
ĠPrim era
ĠSerge i
ĠSul awesi
Malays ia
Prof essor
Ret ail
Vis itors
sign ificant
Clear ly
ĠTian anmen
Ġdeport ation
Ġneglig ence
Ġfax ed
Ġassemb led
Engine ers
Sim ilar
ethe less
Fort y
Leban ese
Ġfing ers
eme tery
ĠJal al
Ġconfisc ated
Tax i
Ġhover ing
ĠPun jab
ĠBra un
ĠLak shmi
Ġbloods hed
Ġtorrent ial
ĠMuham mad
pos itive
reason able
Ġsung lasses
Ġparam ilitary
Ġengulf ed
ĠTeleg raph
Surviv ors
ĠWrit ers
ĠJohannes burg
JA KARTA
Ġske leton
ĠHoff man
Ġovershad owed
Ġfutur istic
Ġdiarr hea
Uk raine
Ġliv estock
ĠBod lander
ĠNAS DAQ
Ġuneart hed
Ġabdomin al
NAIRO BI
5 50
7 4
B orn
B abel
C AN
D I
D U
D j
E mergency
E GO
F ans
G e
G ay
G olf
G irls
H am
I I
K o
L ahim
M ess
M illions
N L
N obody
O T
O bs
P ost
P ric
P lease
R udd
S ong
S ign
S oon
S YD
T urn
V ER
W il
W ild
W elcome
Z arqawi
a q
a un
b at
b od
b ecause
c lear
c amp
d ate
d ling
e leb
f ar
f ashion
f olk
g om
g ia
h in
h or
h ler
h uman
i ress
k ov
l ord
l ift
m ist
n els
o eba
p it
p ublic
s ang
t or
w ear
y ah
z ar
Ġ ËĿ
Ġ Â¡Â±
Ġt u
Ġt ub
in z
Ġs ore
Ġs ib
Ġs orts
er ver
er ations
er ner
er ative
Ġw and
Ġw ary
Ġw oke
en al
or ity
at able
Ġc ro
Ġc ake
Ġc uis
es ity
Ġf ool
Ġf arther
ar ak
is ible
Ġp or
Ġp ounding
Ġp add
Ġp icks
Ġp aved
Ġp neum
Ġb ite
Ġin ters
Ġan orexia
ou ra
Ġm ask
Ġm asc
Ġh acked
as a
as im
as ant
ic ian
ic ular
Ġd irty
Ġth igh
Ġth aw
Ġth ieves
ay lor
ay tun
ro se
st een
Ġl ied
ĠS n
ĠS it
ĠS ub
ĠS amp
ĠS aint
ĠS seruma
ut ter
ad ill
ad ors
Ġg own
Ġg lor
ur u
ur red
ac io
ac hel
im m
im at
im bo
ĠC ry
ĠC asp
ĠC ouch
ĠC ancer
ĠA U
ĠA j
ĠA ld
ĠA aron
Ġst ark
Ġst ored
Ġst int
Ġst icking
Ġhe aling
ĠM t
ĠM ant
ĠM oss
ĠM GM
ĠM ourinho
ĠM alibu
ĠP y
ĠP os
ĠP od
ĠP att
ĠP ier
ĠP ais
ĠB ash
ĠB ody
ĠB ale
ĠB apt
Ġwith held
em un
em akers
res pect
ĠT G
ĠT it
ĠT ran
ĠT ower
ĠT onight
ri ved
and i
and an
ĠN Y
ĠN im
ĠN ab
ĠN aj
ag en
ĠW ork
ĠW orks
ĠW emble
Ġv ow
Ġv ib
Ġv oy
Ġv owing
if iable
ĠD oo
ĠD iane
ĠH ard
ĠH utch
ĠG erald
ĠJ un
ĠJ et
ĠJ ok
ĠJ emaah
ĠR at
ĠR ut
ĠR et
Ġ2 20
Ġex h
Ġex empt
Ġsh rug
Ġsh irts
Ġle ve
red ict
ap enaar
Ġch in
Ġch oking
Ġsp a
Ġsp illed
ĠL ist
ĠL af
ĠL ivni
ĠL ufthansa
Ġnot able
Ġun in
ĠE isen
Ġpl ain
Ġpl ots
Ġse ver
up re
Ġrep lic
ust oms
ĠO man
ĠCh uck
Ġj ersey
Ġj elly
Ġj okes
Ġac ute
mer ing
ant ime
Ġcl ergy
ord in
Ġexp enses
Ġexp licit
ign ant
Ġnew com
Ġper ched
ie u
ie val
ous ed
Ġcomp atible
iz ards
Ġup he
Ġup hold
ters on
Ġover ly
ib a
ub arak
ip h
Ġcont ag
Ġall ocated
ue es
ang ible
rit is
ree ze
ĠIn n
Ġpart isan
In f
og en
aw ar
Ġro d
ĠY o
ĠY ug
ind orf
Ġinv ention
act ory
Ġmon ument
Ġdec ent
Ġdec ides
Ġqu artet
Ġwork place
ens ity
ov ascular
Ġso b
ĠV IP
Ġam oeba
Ġfl att
ach ts
Ġcr ashing
lin ers
lin ary
Th omas
li ver
Ġind irect
Ġwar heads
Ġrec ip
Ġfin est
Ġtak ers
Ġbl under
Ġra ging
ah i
Ġsur name
ob b
Ġend e
Ġend urance
uss ions
ook min
eb ow
ĠThe at
Ġback drop
Ġadd ict
az ed
Ġdes erved
Ġdes erted
Ġcap sized
Ġprov ing
Ġprot ects
Ġprot ocol
Ġins ult
Ġair ing
ĠSh andong
ung a
als h
Ġinf ants
Ġinf uri
Ġvis ibly
Ġhost ility
Ġhead aches
Ġref riger
Ġph ara
ron ically
Ġ20 13
Ġsecond hand
Ġsl ashed
Ġdep uties
Ġdep icting
ries man
Ġke ys
per ial
te rest
ĠAfric ans
Ġsusp ending
uch i
ather ine
Ġcontin uous
Ġdef use
Ġloc ally
Ġauthor ization
Ġauthor itarian
atch ing
ins ky
Ġtrans mitted
ĠAl most
Ġdead lines
ĠBar ney
ier ry
Ġrest ive
ator ies
ĠZ ar
ĠZ ub
pr one
Ġrul ings
Ġcapital ist
Ġneg lect
Ġob esity
ĠWh o
Ġbusiness men
Ġsum mons
ys sey
Ġexplain s
Ġpost ers
Ġur ges
Ġhom emade
Ġ12 6
Ġglo ves
ĠCD s
Ġfree zer
Ġsmall est
Ġfilm making
ession al
Ġpric ed
Ġinterview er
Ġmod e
Ġinst ability
Ġmid way
Ġfact ion
ĠBl u
Ġed ited
St art
rug man
ĠPro duct
Ġaut umn
Ġhard ship
Ġless on
Ġshot gun
Ġbill ed
gress ive
ze gu
ĠHam m
ĠHam ilton
ring ing
ĠHar per
ĠHar lem
Ġste al
Ġpolicy makers
ĠAd ri
ari ya
ĠGu inness
Ġsched ules
ĠAng lo
ĠAng lic
ĠGr ace
Ġmess aging
Ġequ ality
Ġview ing
Ġdifferent ly
Un iversity
Ġturn around
let cher
Ġcompet itions
work ers
Ġz eb
With in
raz ed
Ġbur d
Ġshoot out
arm ac
Ġblack mail
Ġtotal ing
gu ards
Ġmusic ian
Ġport ions
Ġsqu ares
Ġwat ches
ĠCl aud
ĠAnd ers
Ġsan ct
Ġlin ing
Ġel bow
ĠEm ory
ĠEm ily
Ġsuper ior
Ġenc ounters
Ġtw isted
Ġred istrib
AN U
AN EI
ĠKar im
ĠHol mes
pro v
pro of
Ġgl ow
Ġdisapp earing
Ġorig ins
Ġast on
road s
Ġdog ged
Ġtre k
Ġlaws uits
Ġple asure
ĠColomb o
Ġbuy out
ĠRich ie
Ġsurr ound
Ġbenef ited
Ġbenef ici
Ġbenef icial
Ġmurder ing
eg al
Ġdraw ings
ĠPol anski
ĠSu pp
Ġevac uees
Ġcirc les
Ġcirc ulation
Ġpun itive
ĠMal iki
Ġradio active
Ġrain fall
Ġadvis or
Ġmis conduct
Âł and
Âł to
Ġrob bed
ĠMe ghan
ĠMe isner
ĠBut ler
Ġabs or
Ġattend ants
NE Y
hib a
Ġpick et
Ġpick up
Ġfat ality
ĠBan afsha
200 7
ĠElect ronic
Ġmeasure ments
Ġrecon sider
ĠJust in
ĠJust ine
Ġdocument ed
Ar gent
Ġcat hedral
Ġnormal ization
Ġsal v
Ġcy cling
Ġclean ed
Ġclean up
ĠCommun ity
Ġconclud ing
Ġlay er
Ġdismiss al
Ind ian
ovo i
Ġmos ques
ĠQue bec
han ced
Ġclin ched
Ġtight ening
Ġcontest ants
Ġdistrib utor
Ġshr imp
Ġsettle ments
Ġey eb
Ġow ning
ĠPhilipp e
rec ord
rav ity
rav aged
Ġdepart ed
ĠSol ti
ĠBlack water
Ġpunish able
Ġwalk out
Ġtouch ing
Ġsem in
Ġenter prises
Ġchem istry
ĠDel aware
IC A
Ġfrequ ency
Ġhor ror
Ġhor rific
Ġretail er
ĠNepal ese
Ġskin ny
ĠTor re
ĠLiber ia
Ġpartners hips
Ġmeaning ful
Ġcomed ian
Ġexpress ions
ĠRob inson
Ġagree ing
ĠIr win
Ġunderw ater
Ġwid ened
Ġpump s
Ġbra kes
Ġproceed s
Ġcolon ies
fl u
Ġfeed back
lus ion
astro phic
Ġreflect ing
Ġescal ator
ĠJul ie
tr ans
Ġcease fire
ĠRepresent ative
Ġelev ated
Ġglass es
Ġdress es
Tr ade
ĠStock holm
Ġvacation ing
Ġtoug hest
Ġunn ecessary
ĠSocial ists
person al
ĠAz erbai
ĠFre ud
ĠLu iz
Ġsmugg le
Me antime
Rec ently
ĠChen g
mand u
Ġstrict ly
Ġtransl ation
Ġexperiment al
Ġsolid arity
Ġsad ness
Ġshif ts
ĠYas uh
Ġdeterior ation
Air bus
ĠSpec ies
Ġsuperv is
ĠAut o
Ġstretch ing
Ġairpl anes
Ġpir ate
Ġstir red
Ġrans acked
Ġjung les
Char les
Pre viously
Ġdiscover ing
Ġcongrat ulated
Ġgri pped
ĠLev y
Col omb
Ġho isted
ĠNich olas
sm oking
ĠDes ign
Ġconced e
Ġpsychiat rist
Ġcoordin ating
Ġdisagre ed
Ġlod ged
Ġaccel erate
anche tt
Ġmel ting
Ġbow l
Ġindefin ite
Fire fighters
ĠFisher ies
Ġlen ient
ĠStud ies
Ġinspir ing
Ġpoison ing
ĠDer by
Ġrevers ed
ĠClin ic
ĠRub in
Ġresemb l
Ġrecy cled
Ġrandom ly
ĠHold er
Ġinh al
Ġjur is
Ġrefin eries
Tra vel
itan ic
Ġgradu ated
ĠAN SA
ĠCirc uit
ĠMans our
Lead ers
ĠCast le
ĠBry ant
ĠKash mir
ĠLeg isl
Ġportr ays
Get ting
Ġling ering
Ġpoly g
Ġcompass ion
Ġsurrog ate
Ġpatri ot
Ġrebu ke
Ġdense ly
ĠPad illa
Ġdisgr aced
Ġinnov ative
Ġdimin ished
Ġgym n
ĠCost a
Ġtatt oos
Ahmad inejad
wak ening
ĠFuk uda
Ġdisband ed
Ġoversee ing
Ġfestiv ities
Ġhazard ous
ĠFly er
Ġoutsp oken
ucking ham
ĠLeh man
ĠAborig inal
Ġoccas ions
Ġharass ment
ĠHispan ic
Ġfrank ly
Ġsubpoen a
Ġcosmonaut s
Ġmirac le
ĠBuff ett
ĠHat oyama
Ġdisgu ised
ĠMand ela
ĠJoy ce
Ġscor ched
Ġdictators hip
defend ants
Ġhect ares
Ġredep loyment
Lawy ers
ĠRefuge es
Es pecially
Ob viously
Ġdormit ory
Ġmalf unction
Ġrefe ree
Ġlaund ry
Flor ida
Ġdissatisf action
ĠFloren ce
Tro ops
Ġtemb lor
Ġgau ge
ĠTos hiba
Ġcompatri ot
avil ion
Ġcoer ced
Ġskid ded
ĠInfant ry
Ars enal
Ġoun ces
ĠJel ena
ĠRF ID
Ġlegitim acy
SYD NEY
gom ery
Ġsib ling
Ġpneum onia
adill ac
ĠCasp ian
ĠWemble y
zegu et
ANEI RO
Ġbenefici aries
) âĢľ
0 3
0 6
1 30
6 1
8 1
A re
B re
B row
B ob
B ern
B rad
B aby
C ro
C rist
C arter
C oming
D own
D ean
D ays
D iana
E mp
F ore
F ran
F eb
F ears
G l
G re
G er
G ar
G ov
G rand
H ist
H icks
H RAN
I BN
J ul
K OK
K ongju
M el
M oon
M IA
M AND
N othing
P en
R ain
R eb
R ising
S w
S ir
S ub
S ens
S ept
S ales
T I
T alk
T ensions
V enezuel
W A
Z ardari
] ,
b in
b ury
b ane
d ated
d omen
e a
e ong
f ix
f inding
g ie
h umi
h ouses
i ren
i ked
i atory
j un
l it
l aden
m m
m n
m ass
n ar
p ur
p ard
q i
s aving
s burg
s inging
t all
t ical
t rick
t isa
u fficient
w all
w ich
y on
y ar
y et
µ Ã
Ġ âĢ¦
Ġt ed
Ġt ended
Ġa isle
Ġa rose
he arted
he jiang
in ning
in ting
in burgh
re ira
on ents
Ġs lo
Ġs ushi
Ġw an
Ġw ool
Ġw ished
Ġw rec
an j
an th
an ie
ed e
Ġc ement
Ġc ared
Ġo ss
Ġo live
es n
Ġf lic
Ġf ug
Ġf ences
Ġf uels
ar us
ar ts
ar osa
Ġb ent
Ġb ud
Ġb iting
Ġb rows
Ġin e
Ġin ex
Ġin ability
Ġto pple
al is
al ent
ou p
ou x
Ġd rown
Ġd urable
Ġd engue
id as
Ġth orn
Ġth rong
Ġre med
Ġre ef
Ġre eling
ro che
st ro
st ands
st ruct
ve h
Ġl ament
Ġl ashes
ĠS av
ĠS ens
ĠS eb
ĠS imp
ĠS orenstam
ut ic
Ġg aps
ur ate
ac cess
Ġsa m
Ġsa ke
un ting
un iform
ĠC elt
ĠC ode
ĠC aval
ĠC aci
ig o
ot hed
ĠA re
ĠA ce
ĠA uthorities
ĠA wakening
et ies
Ġst akes
Ġhe d
Ġhe s
Ġhe ll
Ġhe els
Ġhe iress
ĠM ain
ĠM ust
ĠM ik
el o
ow ler
ra red
ra kat
ĠP ly
ĠP erson
ĠP erry
ĠP rag
ĠP esh
ĠI c
ĠI ce
ĠI wo
ĠB P
ĠB j
ĠB ark
ĠB urn
ĠB ris
ĠB attle
ĠB rewer
ĠB alfour
ce ans
Ġat e
Ġwas ting
Ġwe ars
oun ge
em er
ĠK er
ĠK ad
ĠK amp
ĠK BS
res cent
Ġal umin
ak able
ĠT at
ĠT adic
ri or
and al
and id
and um
ĠN est
ĠN av
ĠN abi
Ġpro xy
ag i
ag asc
Ġy oga
ment o
ĠU MP
Ġha uled
Ġby stand
Ġcom ics
ĠW ag
ĠW TO
ĠW FP
ĠW alsh
Ġr ack
Ġr acy
Ġde er
Ġde af
ew oo
Ġv ague
ĠD id
ĠD avydenko
ĠH or
ĠH em
ĠH orn
ĠH unt
ĠH ope
ĠG as
ĠG ome
ĠG wan
ĠG iro
ĠG adh
ĠJ ima
ĠJ upiter
ĠJ ANEIRO
ĠR ush
ĠR eb
ĠR asmussen
ĠF ou
ĠF ritzl
ĠF letcher
Ġk icking
oc ation
ack er
ĠL ow
ĠL ower
ĠL uz
ĠL ampard
Ġun expl
ab humi
ĠE sp
Ġpl aint
Ġse ab
Ġab domen
ĠO liver
ren ched
Ġj unk
Ġafter wards
ant icip
Ġres orts
Ġexp ulsion
Ġout line
Ġint entions
Ġ( Â
ans son
ĠSt r
Ġad or
Ġad ul
Ġinc omp
ace y
iz u
ress er
Ġover head
Ġcont ext
rit ical
Ġtr unk
hed din
ish i
In side
Ġ3 30
Ġen hanced
ran i
Ġsc o
Ġro ared
Ġpre view
Ġpre ference
ĠY osh
ind epend
Ġinv isible
iss a
Ġ19 40
Ġqu e
Ġqu ota
ft ogaz
ĠTh om
con scious
vel ed
ov y
ov ia
ov ani
Ġtime ly
Ġtime frame
ĠV era
Ġam bass
Ġfl urry
are a
ach ovia
Ġbet ting
Ġind o
Ġco b
Ġrec ur
Ġunder gone
Ġcar riages
Ġbl ues
Ġbl itz
ah ua
Ġworld s
Ġplan ner
rop olis
leg es
Ġdown s
Ġdown ed
Ġrem ake
Ġrem nants
Ġann ul
Ġstat ing
gr ass
gr aded
ĠSe x
ĠSe rena
und ant
Ġdes cription
Ġprov oke
Ġbu ys
Ġins ults
ĠSh io
ug es
ug hed
Ġvis ibility
Ġhead er
Ġexpl orer
ĠBrit on
Ġinter action
Ġstr ut
Ġeff ig
Ġsm iled
Ġ20 20
Ġsecond ary
Ġsl aught
Ġdep icted
Ġdep iction
Ġdep rived
ĠMar athon
ĠMar seille
Ġgr ams
Ġstart ling
the n
sh ocked
ĠSp ort
ĠSp urs
Ġbo oth
ĠMc D
Ġsub mer
ĠAl italia
ĠAl katiri
oo ters
unt ary
ĠBar roso
ax ies
Ġrest ing
ĠAm b
do ch
Ġgood bye
ĠZ hejiang
Ġcre am
Ġinj ections
Ġmain tenance
Ġnational ist
Ġ9 11
Ġdel ta
ĠPal estine
Ġnight m
Ġob jected
Ġmen us
Ġschool children
ij i
ij ani
Ġla ughed
Ġcol leges
Ġflu ct
Ġhospital izations
estin al
Ġcut off
na issance
Ġur ine
ĠCol onel
Ġjoin s
Ġdist ingu
ĠCar lo
Ġorph ans
Ġdr ill
Ġdr um
cil iatory
Ġmod ified
for cing
ĠBl anchett
Ġenv ision
mediate ly
Ġfinal ists
Ġed ges
St rong
Ġbar ring
Ġlist ing
Ġlat ter
Ġmat ure
Ġart work
urg ents
ĠMus ab
ĠAd en
ĠAd olf
Ġdeter rent
Ġnet ted
Ġfoot pr
Ġfoot steps
Ġfig ured
Ġcred ible
Ġmag ist
ĠOr din
amb oo
Ġcompet itiveness
Ġdiv isive
Ġproblem atic
ĠPark inson
Ġcomb ating
raz ing
Ġrev ital
udd in
Ġmom s
gu ided
Ġquick er
yn ch
Ġsol ved
Ġenvironment ally
Ġlight ly
hu ahua
Ġexpect ancy
Ġty ran
Se a
Ġel usive
Sh in
ĠEm manuel
ĠKy u
Ġdeep ened
Ġdeep ening
ĠEd die
ĠEd inburgh
Ġsuper model
Ġperiod ic
hold ers
Ġfun ctions
Ġcredit ors
ĠSte in
Ġpict ured
Ġemb ro
Ġdism al
ĠAll an
Ġblood iest
Ġlif el
Ġver bal
Ġprogress ive
Ġrally ing
Ġclos et
Ġsn ack
Ġtur bul
Ġ196 1
Ġ196 9
ĠSu varn
Ġsurpr ises
reg ation
Ġcirc ulated
Ġpun ct
Ġcover t
Ġcommunic ating
Ġrain forest
ĠII I
Be ing
eck er
opp o
Ġphys i
ĠWestern ers
Ġcrack ing
Ġflo at
Ġfarm land
Ġsnow fall
Ġstra pped
Ġstra ins
ĠShin han
Ġbi ologists
Ġcoop erating
Ġice berg
Ġarm or
Ġorgan ize
ĠJe ju
ĠJe remy
Ġsleep y
Ġhy drop
ĠPhil harmon
keep ing
Ġshel led
ĠRiver a
Ġmist aken
Ġobject ives
Ġtight ly
13 5
Ġunve iling
isc rim
Ġguard ing
Ph il
Ġpull s
Ġveter inary
Ġerup t
Ġliber ties
Ġexamp les
Ġmer ciless
ĠCap ital
ĠHall oween
Ġstim ulate
Ġentertain ers
ĠBol lywood
De legates
da emun
ĠDis aster
Ġlog istics
ĠRam adi
Ġaggress ively
Ġcomfort ably
Ġperman ently
Ġath lete
Ġstret ches
Ġcongress man
Ġrein stated
ĠColumb ine
Ġlobby ist
olute ly
Ġhopef ully
Six ty
Ġhero es
ĠJul ian
Ġbrand ed
Ġwonder ing
Sc ores
ĠThat cher
Ġbound aries
ĠSal vador
Ġsup reme
ca using
will ing
Ġeat en
Ġintens ifying
Ġsole ly
Ġemphas is
Ġemphas ize
Ġconce aled
Ġliqu or
Ġrum or
Ġkiss es
Ġscore r
Op rah
ĠWind sor
Ġimag ination
Ġstrip s
Ġhij ackers
Ġder ailed
Ġadvoc ate
ĠPeru vian
Ġdecre ased
Ġaw ful
Ġmal ignant
ĠHun an
Ġspr ayed
Ġrig ging
Ġconven e
Ġprohib its
Ġdepend ence
ĠYemen i
Ġdeterior ated
ĠEv il
ĠCrist ina
aman ian
Ġconstruct ed
Ġadmit s
Ġtransform ed
ĠAlber t
Ġcounterfe it
Ġcalc ulated
Ġcalc ulate
Ġcalc ulations
Ġdownlo ads
ĠBy ung
open hag
Ġplum es
Ġbond s
othe red
Ġrepatri ated
Ġpredict ions
Ġceremon ial
Ġsponsors hip
ĠKhal af
Ġcul p
Ġdign itaries
Ġembarrass ed
Ġtrick y
Ġtelesc opes
ĠDa ewoo
Ġpermit s
Ġpreced ent
Ġassaul ts
Ġvideot aped
Ġpsychiat ric
Ġcoordin ates
Ġdisagre ement
zy k
Ġgal axies
Ġdesc end
Ġcub ic
Ġrelie ve
ĠTre vor
ĠNa ftogaz
contin ental
Med ia
RI O
Ġwrest ler
Ġfru its
Ġvalid ated
Ġconsolid ation
Ġborrow ing
Ġsla pped
ĠBrook s
ww w
storm s
ĠPlan et
Ġresemb les
avor ite
Ġasser ting
Ġmeteor ologist
Ass oci
Pat rick
Ġbat ons
Ġdies el
otten ham
Ġyield ed
ĠHold ings
ĠFour th
Ġconnect ing
Ġcardi ovascular
ĠScient ology
ĠJoh ansson
Ġjack pot
Ġcontemp l
Ġremind ed
Rod riguez
big gest
Ġdiscip linary
ĠCirc le
HS BC
Ġgad gets
ĠGang won
Ġinfring ement
ĠPolit ical
hs ud
YA NG
ĠSpring steen
ĠiPod s
Ġerect ed
ĠWat son
ĠGa ill
Ġcompos er
Ġundermin ing
Ġhomosexual ity
dri ven
Ġta pped
Ġcock pit
ĠZap eta
Ġstockp ile
Ġreop ened
ĠKay e
ĠOb amas
Init ially
Ġsustain able
TE HRAN
ĠEmp ire
Mos cow
Ġapplaud ed
Ġbulld oz
Ġpharmaceutical s
Ġsou venir
Ġger ms
ĠNash ville
ĠLug ovoi
Ins urgents
Ġparach ute
Ġparalle l
Ġphilos ophy
Ram os
Ġtren ds
educ ated
Ġreset tle
Alex ander
ĠKirk uk
ĠEver ton
Ġjog ging
Ġenab ling
Ġquarant ine
Ġreceip t
Ġcharism a
Ġfatig ue
Ġpupp y
Ġvend ors
ĠHew itt
Ġkne es
occ up
ĠLion el
Ġarth ritis
Ġappet ite
conn ected
ĠConfed eration
Neg oti
Ġwond ers
ĠMek ong
rape utic
ĠDyn asty
ĠOpp ortunity
ĠInvestig ation
ĠMcA uliffe
Phill ips
Ġhelm ets
Demonst rators
Ġeleg ant
ĠChair woman
BANG KOK
Environment al
Ġauthentic ity
Ġrehe ars
ĠBog ota
Ġreshu ffle
ĠInsp ection
ĠAlg iers
Represent atives
Ġfranc s
Ġcuis ine
Ġvoy age
Ġjelly fish
Ġuphe aval
ĠYug os
ĠMeghan i
Ġresembl ance
Feb ruary
MAND U
Sept ember
tisa ari
µÃ »
Ġslo gan
Ġbud gets
ĠSimp sons
access ible
ĠCaci oppo
ĠPrag ue
ĠBris bane
Ġalumin um
agasc ar
Ġbystand ers
ĠGadh afi
anticip ated
ĠShio zaki
Ġslaught ered
ĠOrdin aries
ĠSuvarn abhumi
ĠPhilharmon ic
openhag en
) ;
* *
, âĢľ
0 7
1 20
1 40
2 80
7 50
A li
A part
A cross
B E
B on
B as
B ae
B usiness
C r
C ount
C astro
C alling
D i
D iplom
D isc
E gypt
F I
F red
F riday
F lood
G h
G row
G onz
H ui
H CR
I d
J erry
K C
K at
K han
K ATH
M X
M o
M id
M od
N I
N in
N et
N IS
P ress
R af
R yan
R oma
S erb
S oldiers
T onight
V ill
V ict
W u
W ord
W rit
W olf
W TO
W orkers
Y oung
b un
b est
b lo
b oth
b uilding
c ry
c asters
c ibly
c riminal
d ad
d ard
d ings
d uty
d aughter
e h
e i
e han
f air
f ried
f eller
f irmed
g or
g my
h unt
j ar
j ee
j hi
l is
l ane
l ocked
l aimed
m is
m id
m atic
m aster
n t
n ia
n uclear
n ova
p ers
r um
r one
s om
s uch
s erving
t ail
u in
u ity
u ated
u ke
u ously
v ill
v ised
w ert
w aves
w alk
Â ¹
Ġt an
Ġt ut
Ġt ide
Ġt ender
Ġt igers
Ġt armac
Ġa ur
Ġa vert
he ard
in ement
Ġs izes
Ġw agon
en o
or ical
or adic
ed s
ed ay
ed ia
Ġc odes
Ġc antal
it as
it rust
Ġf old
Ġf ict
Ġf oul
Ġf oes
ar an
is ure
Ġp up
Ġp amp
Ġp atch
Ġp ier
Ġp aving
Ġp ains
Ġp sy
Ġb ik
Ġb rawl
Ġb amboo
ing e
ing ton
Ġto uted
Ġm im
Ġm ates
Ġm ish
Ġm erc
Ġm artial
Ġh orn
Ġh iat
Ġh acking
Ġh iking
as ers
as aki
Ġd ear
Ġd um
Ġd ose
Ġd uck
Ġd ental
Ġd well
Ġd rafted
id is
il in
om i
le a
le ague
le aning
ent ry
Ġth ym
Ġth riving
Ġre wards
Ġre jects
Ġn ail
Ġn ails
Ġn urt
ay ne
ro ph
st op
st age
st ick
st alled
ve t
Ġl ur
Ġl os
Ġl ashed
Ġbe verage
ĠS on
ĠS ull
ĠS oon
ĠS oph
ut tle
ol ed
ol ith
Ġon board
ur d
ac an
ac ious
Ġfor ay
Ġfor cibly
im oto
un ier
ĠC ay
ĠC ove
ĠC hes
ĠC riminal
ĠC openhagen
am en
us k
us he
ĠA S
ĠA BN
ĠA OL
et ah
Ġst ym
Ġst icks
Ġst roll
Ġhe inous
ver ick
ĠM ig
ĠM ae
ĠM eyer
el ia
ow les
ra per
th in
th let
ĠP as
ĠP ir
ĠP age
ĠP oint
ĠP ardo
ĠP LC
ld er
Ġit iner
ĠI ft
ĠB old
ĠB omb
ĠB ull
ĠB eng
ĠB oca
ĠB irkhead
ĠB uckingham
ĠK w
ĠK ap
ĠK ish
ĠK ings
ĠK ik
ĠK assouf
Ġal armed
ĠT z
ĠT on
ĠT el
ĠT ong
ĠT uck
ĠT ao
ĠT ropical
ĠT WC
ĠT ommy
op les
Ġcon qu
Ġcon gest
ri x
ri en
ri ef
est ion
est ab
and el
ul ge
ĠN ing
ĠN EC
Ġpro stitute
ag g
ag ine
ag li
ment ed
Ġha ird
Ġcom r
ĠW he
ĠW are
ĠW WF
Ġv ows
if teen
ĠD ra
ĠD ob
ĠD rew
ĠD oming
ĠD amon
ĠH P
ĠH ee
ĠJ ian
ĠR C
ĠR i
ĠR ings
ĠR aton
Ġex its
Ġsh rank
Ġle verage
ĠF ive
ĠF ayy
Ġoff ender
oc us
Ġgo d
Ġgo dd
od us
ud ent
ĠL av
ĠL anc
ĠL ords
ĠL LC
ĠL etter
Ġnot ion
Ġnot ify
Ġun t
Ġun ilateral
Ġun armed
Ġun willing
ab b
ĠE S
ĠE ight
ĠE du
ĠE wert
Ġpl ight
Ġpl enary
Ġpl agued
Ġse izing
Ġor ch
Ġab norm
Ġab ortions
se on
up h
ok k
ect or
Ġwor sh
ĠO tt
ĠO MX
ĠCh all
ĠCh ae
Ġj it
Ġj ams
Ġj oked
ge ant
Ġres id
Ġcl ad
Ġexp orter
Ġexp orted
Ġbut cher
Ġar ra
ber ger
Ġout p
Ġout ages
Ġout cry
ke feller
ĠSt allone
ie g
Ġinc iting
Ġcomp uls
Ġup hill
lo or
lo bal
lo aded
Ġdis hes
Ġdis cont
ib ol
ĠUn ity
Ġman ned
Ġman kind
ase y
Ġcan oe
Ġsc uffle
Ġro ver
Ġro vers
Ġro ds
Ġro de
Ġapp ropri
Ġapp alling
Ġapp ointing
Ġmilit iam
ĠY ard
ĠY uk
ind a
ind o
Ġmon soon
ee ing
Ġdec ept
Ġdec ried
Ġqu akes
Ġkill s
oin ing
ov i
Ġus age
ĠV isa
ĠV WP
Ġam put
Ġam assed
Ġfl ip
Ġfl av
Ġfl ared
reat ing
Ġcr iss
Ġimp ed
Ġno is
Ġbet a
Ġbet ray
Ġco ok
Ġco erc
Ġbl ess
Ġbl ows
Ġra ge
Ġra ged
ah ab
Ġsupp lement
Ġsupp lements
rat ory
âĢľ âĢ¦
way ze
Ġbr ighter
Ġbr acing
Ġter med
Ġter rif
Ġrel ate
gr ounds
ĠSe infeld
az i
az ar
Ġret ains
Ġdes irable
Ġcap ita
Ġprot e
Ġbu ff
Ġair space
ĠAn war
Ġev ict
Ġfound ations
Ġmed iate
Ġmed ieval
me ier
Ġbel ts
Ġass ignment
Ġplay off
Ġconf used
Ġconf inement
Ġref ers
Ġref lection
Ġfe athers
Ġtake off
Ġsm ash
io let
ful l
Ġdeb ating
per ate
att ack
ĠMar l
ĠMar x
Ġgr ade
oci ete
Ġ8 50
au er
au kee
Ġgu ides
to o
Ġdef lect
sh an
ĠSp ir
ĠSp encer
aim i
ĠQ in
ĠQ ian
ĠQ uran
ins lie
Ġtrans mit
Ġtrans formation
Ġgen re
ĠAl t
Ġspec ify
ax is
Ġhum id
ĠAm man
do or
ĠZ oe
ĠZ aytun
ĠZ ANU
Ġinj ected
Ġinj ection
ĠJohn s
ck le
Ġpop ulous
Ġdon keys
com pet
Ġalleg es
Ġcor on
Ġpres cribed
Ġsit com
ĠFran ces
Ġ11 2
Ġ11 4
Ġhand les
amed ics
Ġtravel er
Ġrece iver
Ġappro ves
eng ine
Ġfree ing
Ġsk ulls
Ġemer ald
Ġsex y
raw addy
ĠWeb b
ĠCar rie
Ġden ials
cl ist
cl ays
cl ips
Ġsom eday
Ġinst ances
for ward
Ġreal istic
Ġtechn icians
Ġsim pl
For ces
Ġfact o
ĠSc he
Ġmet ric
Ġglobal ization
Ġav al
Ġident ical
Ġgot ta
Ġaut obi
sc ape
Ġdisp ar
app iness
Ġsing led
Ġgun ned
Ġbreak away
Ġsuff ers
ann y
10 6
run k
run ners
ari q
ĠTr uth
Ġdeter rence
ĠGr ac
Ġemploy er
Ġground breaking
Ġanti quities
Ġpoll uted
Ġanal og
ĠX box
Ġfre ight
mar ks
Ġrad ius
que z
AT I
ĠChe on
amb a
arent ly
Ġdoc ked
Ġchar ts
Ġannounce ments
Ġcour ses
Ġcomb ines
de legate
Ġshoot s
Ġrev iving
itiz ens
Ġjournal ism
Ġmot el
ĠUN HCR
Ġtit ans
ĠCl apton
Ġsan itation
Ġheavy weight
Ġpred iction
ĠInter state
Ġrequest ing
ĠEx porting
udi os
Sh i
Ġdeep en
Ġdeep est
Ġtw enty
ald well
van ced
Ġorig inated
Ġemb r
Ġstrugg les
Ġpan icked
Ġlif toff
Ġcult ures
Ġtrou bling
ĠSm ur
ĠBur ris
11 8
ĠShe ll
ĠShe pard
Ġaud itor
Ġsure ly
Ġclos es
ĠCarol ine
Ġcontract or
Ġcirc uit
Ġsexual ity
Ġplant ing
ĠPat erson
ĠMe h
ĠMe hsud
back s
Ġreve als
Ġjump s
Ġcrack s
Ġcondem ns
Des cribing
Ġcoop erative
Other wise
ĠCub ans
Ġcommerc ials
ĠFin n
ĠÂ ¿
Ġtraffic ked
Ġhy d
Ġmeasure ment
Ġant id
Ġant itrust
âĢ¦ .
hour s
Ġpet rol
Ġcast ing
ĠOs man
Ġsurf ing
Pro v
Ġrap ing
16 0
ĠMart inez
ĠPet roleum
ĠMer rill
ĠCEO s
Ġcollect or
Ġcollect ions
Ġfair y
ha usen
Ġcontest ant
vent us
Ġey ew
Ġdelay ing
Ġuns afe
Ġmix ture
ĠBlack sburg
Mar ie
Ġfled gling
Ġsky rock
ĠGod dard
Ġcler ics
Ġtouch down
Every body
Ġwed ge
Ġconspir ing
Ġhun ted
EL S
Ġisol ate
Ġperfect ly
Ġnarrow ed
LA H
ĠTrans parency
ĠLiber ty
ĠPan amanian
ĠRam allah
ĠRam adan
Ġappoint ments
Ġflow ing
Ġsubs istence
Ġfan ned
ĠIr rawaddy
Ġcoff in
uct ed
ĠKat ie
Ġstrateg ies
ĠFrank lin
ĠNe indorf
ĠMont real
ĠMont gomery
fl ation
Ġmarg ins
Ġaccomp any
Ġ195 2
Ġ195 7
Ġpresum ably
ĠComp uter
ĠOn line
Ġwarm th
ĠJul io
Ġfit ted
Ġmaster mind
Ġmaster minded
ĠIm perial
Ġvan ished
ĠLyn don
ĠNik ol
ĠGood morning
ĠDod d
ĠDod gers
Ġconcent rate
ont ane
ont ologist
Ġhall way
Ġconservation ists
Ġnut s
Ġnut rit
Ġprospect ive
ĠKaz emi
Ġloyal ty
Ġimpe ach
new s
Ġstro kes
Ġdisag ree
Ġrac ist
Ġmal nut
ĠHun ke
Ġinstruct ions
Ġliberal ization
Ġfierce ly
Ġconven ed
ĠDo osan
ĠVen et
ĠEric sson
Ġswitch ing
Ġfulf illed
ĠLong oria
ĠYas uo
Ġconstit utes
commun ist
Mus ic
Ġbol st
Ġtranspl ants
Ġmammoth s
Eight y
Pre vious
ĠBul garia
Ġdownlo aded
Ġmemor andum
Ġcollabor ators
ĠCharl eston
ext reme
Ġcongrat ulations
Ġtablo ids
Ġgri ev
othe rapy
Ġalt ered
Ġupd ates
Ġscre ened
Ġveget able
cript ions
ĠAT P
Ġunh urt
Ġpredec essors
Ġtornado es
Ġcul min
Ġec st
Ġchat ting
Ġembarrass ment
Mad rid
Ġagg regate
ĠBrig ade
Republic ans
Ġmun itions
Wal ter
Ġflex ibility
ĠTre zeguet
Ġexha usted
Ġflaw s
Ġflaw ed
ĠStud y
Can ada
ĠDown ing
Ġacad emics
Ġdisrupt ions
Ġdepos its
Ġproport ion
Ġinvent ory
Ġinvent ories
Ġfingerpr ints
Ass istant
Ġtodd lers
ĠDem ilitarized
ĠAlger ian
Ġsquee ze
Ġsquee zed
Add ressing
BER RA
agger ing
ĠDeb y
ĠChi huahua
Ġadm ire
Ġadapt ation
Ġmedi ators
ĠBosn ia
ĠMach imura
ĠKam al
Ġgradu ates
Ġundersc ored
ĠVol vo
Ġmultim illionaire
Dis ney
Pet raeus
Ġunw anted
Ġmerch and
Richard son
Lead ing
ĠCas ino
ĠFut ure
Ġma verick
ĠEld en
Ġclar ify
Ġperpet rators
Ġindec ent
Ġindec ency
Ġswall owing
Ġrebu ilt
ĠPop ulation
Ġenthusi astic
Ġru ined
Rel ations
ĠPart ners
ĠZap atero
ĠMess i
Ġencl ave
ĠExpl orer
hum ibol
Ġdra gging
ĠMes haal
Ġupgr ades
Ġscra pping
Ġinterpret ation
Concer ns
Ġcancell ation
ĠRee ves
ĠYush chenko
Ġskysc raper
ĠValent ine
Bul garia
NS O
Sev ent
Ġcran e
imens ional
Ġwhist le
Ġunav oidable
ĠNasr allah
Ag ain
saw at
Ġail ments
ĠCher toff
ĠHend erson
Step hen
Ġpediat ric
Ġbiof uels
ĠTest ament
ĠRw anda
Ġseg ments
Ġrooft ops
Ġgent le
Ġexagger ated
Ġspaw ned
Ġenroll ment
Ug ly
Ġtread mill
Ġpessim istic
Ġmog ul
Ġnan ot
ĠSind h
ĠEb ola
Ġadolescent s
Ġinterce pted
Ġcentrif uges
Ġportfol io
Bart z
Er dogan
Milit ants
ĠSala heddin
ĠHil ary
ĠLithuan ia
ĠStam ford
Ġdisqu al
Ġroadbl ocks
Ġfemin ine
Ġfrig id
ĠClem ens
CAN BERRA
fashion ed
ĠSamp han
Ġcontag ious
Ġflatt ened
ĠAzerbai jan
Ġsupervis or
Ġjuris diction
Ġthorn y
uniform ed
ĠAce h
ĠIc ahn
Ġambass adors
Ġsubmer ged
Ġtyran ny
KATH MANDU
Raf ael
Ġcantal ou
Ġhiat us
Ġthym us
Ġgodd ess
ĠLetter man
Ġmilitiam en
Ġmalnut rition
" (
' ,
0 25
6 3
6 9
8 50
A sh
B P
B U
B ell
B ook
B road
B erry
C D
C y
C oun
C ourt
C AR
D oes
E th
E duc
E vent
F OR
F ighting
G ul
G roup
H op
K S
K id
K osovo
L S
L t
L ou
L ist
L one
L eb
L iber
M et
M otor
N as
N epal
O d
O ct
O dinga
P el
P arty
R ev
R ita
R uba
S il
S um
S usp
S pe
S udan
T ogether
W ind
W orks
W inter
Y oo
Y esterday
Y eltsin
a head
b urn
b right
c m
c in
c ity
d ar
d id
d iv
d led
d riving
d imensional
e ers
f est
f ell
f ood
f uel
f aced
f ifth
g ae
h on
h ang
h wa
h ima
i w
i pple
j umbo
k h
l att
l ived
l ords
m oving
m ilitary
n or
n umber
o ter
p ical
p aste
q sa
r ack
r ama
r ater
r ised
s ided
s pring
t as
t ank
t les
t imes
t ze
t rip
w aukee
y er
y ur
z ie
z man
Ġt ast
Ġt ee
Ġt ends
Ġa unt
he le
he ro
in ates
re ro
re asing
re cy
Ġthe or
Ġs ounding
Ġs ulf
Ġw is
Ġw et
Ġw ipe
Ġw ww
an ies
an oma
en ko
or ne
at ars
Ġc ra
Ġc her
Ġc ove
Ġc alf
Ġc elest
Ġc razy
Ġo uster
Ġo vation
Ġo ceans
Ġf ester
ar se
ar ied
is bon
Ġp its
Ġp iled
Ġb asing
Ġb udd
Ġb owed
Ġb rag
Ġb ouncing
Ġin k
Ġto x
al ks
Ġan gr
Ġm ock
Ġm ired
Ġm aid
Ġh uts
Ġh ackers
Ġh ikes
as i
as than
ic idal
Ġd u
Ġd ive
Ġd iving
Ġd ucks
id ic
om er
Ġth irst
Ġth rive
Ġre think
Ġre duces
Ġn ongo
ro id
ro ving
st at
st ad
st rip
Ġl oves
Ġl izards
Ġbe ard
Ġbe ats
Ġbe league
ĠS el
ĠS der
ĠS MS
ĠS NC
ĠS IM
ĠS aleh
ad ise
ad vant
Ġg rie
ter min
ac a
ac erb
Ġsa uc
ĠC ed
ĠC ut
ĠC rou
ĠC any
ĠC aldwell
am ian
ig ata
ot ape
us cript
ĠA B
ĠA M
ĠA v
ĠA ctors
ĠA lps
et on
et ed
Ġst raw
Ġst oked
Ġst umbled
Ġst eered
Ġst aggering
ĠM ut
ĠM ort
ĠM ous
ĠM ull
ĠM RI
ĠM ubarak
ir teen
ra ordinary
ra ught
th ia
ĠP am
ĠP ot
ĠP ew
ĠP opular
Ġwh ites
Ġwh ipped
ĠI S
ĠI WC
ĠB ast
ĠB att
ĠB ache
ĠB oulder
Ġwas ted
Ġwith stand
Ġwe pt
em ma
ĠK in
ĠK ol
ĠK iss
res a
ĠT ar
ĠT ig
ĠT reet
ĠT ern
ĠT SA
ĠT MZ
ĠT ebow
ĠT ottenham
ĠT ariq
op a
op ran
op oulos
Ġcon ciliatory
ri el
est ant
ul um
ĠN ike
ĠN arg
ĠN ever
ist as
ist ered
ist ically
ch ant
ch ief
ch orage
ĠU A
Ġha ul
Ġha voc
pp e
ĠW it
ĠW es
ĠW aiver
ĠW achovia
Ġr ug
Ġr ays
Ġr acked
Ġr ammed
ew ater
Ġv ind
ĠD R
ĠD am
ĠD era
ĠD ora
ĠD uran
ĠD iaz
ĠH ir
ĠH oy
ĠH erman
ĠG w
ĠG or
ĠG ut
ĠG ate
ĠG ong
ĠG olf
ĠJ PMorgan
ĠJ ovi
ĠR uth
ĠR ider
Ġex ams
Ġex acerb
Ġsh o
Ġsh ores
Ġsh aken
Ġsh aping
Ġle uk
ĠF ul
ĠF ink
ĠF onda
ĠF rost
red ited
um ers
um ble
um dog
ap ag
Ġoff end
oc ial
oc key
Ġch opper
out ing
Ġgo ds
Ġsp inal
Ġsp iked
end ra
ud er
ĠL an
ĠL ike
ĠL omb
ĠL akes
ĠL ane
ĠL EGO
ĠL erner
ĠL isbon
Ġsu ing
Ġnot ably
ian ne
Ġun ified
Ġun reg
Ġun cont
Ġun bel
Ġun forced
Ġun stable
ab ol
ĠE p
ĠE MI
Ġab normal
se vere
qu ite
qu ito
qu ette
Ġrep airs
Ġwor ship
ĠO f
ĠO z
ĠO ECD
Ġpe ek
ant um
Ġres isting
Ġres ervations
Ġres urgent
uc in
Ġcl ick
Ġar bit
ell an
ell ers
ber ry
ans l
ks dale
ff ield
Ġne ared
ĠSt re
ĠSt ill
ĠSt ones
ĠSt iles
ĠSt uart
ĠSt udios
so ever
Ġper v
Ġinc lusion
Ġcomp act
iz en
iz za
Ġup grade
Ġover re
Ġdis in
Ġdis reg
Ġdis advant
Ġtr im
Ġtr amp
Ġim bal
Ġman if
Ġman ages
Ġman uscript
ond e
Ġ3 80
Ġshe er
ĠY outh
ĠY ouse
ĠY az
ĠY asser
ĠY ogy
erv ical
Ġinv ade
Ġmon uments
ame ter
ĠTh abo
ĠTh ierry
con y
Ġop ting
ru ly
ss i
oll en
ĠV ic
ĠV ik
ĠV ari
Ġweek long
ets k
lin t
ne o
ne eded
ĠSun dance
Ġind iscrim
Ġwar ship
ath a
Ġcons ists
Ġra ft
Ġplan ners
ult z
ĠIs hik
led ged
ob e
Ġdown ward
Ġdown played
Ġreg imes
ĠNew man
ĠNew ton
Ġrem embers
eb ook
An imal
Ġwhat soever
Ġback p
year s
Ġrel ent
Ġrel ating
Ġserv ant
ank ham
Ġmem o
Ġlaw less
und a
Ġret ro
Ġret reated
duc ers
Ġdes ks
ick ers
Ġprot ester
Ġins ufficient
ĠAn chorage
ĠSh arp
me ga
Ġinf rared
Ġ10 2
Ġ10 4
Ġplay offs
olog ically
Ġconf ession
Ġhead line
rid den
Ġfe as
riv ation
Ġsl ave
Ġsl iding
ures mo
Ġdep rivation
Ġnum b
ĠMar io
ĠNational s
ĠNational ist
Ġbro kers
Ġdef am
Ġdef enders
sh ould
sh ield
sh ima
Ġbo ob
Ġbo asted
ĠMc Nam
Ġser geant
ĠPr ison
ĠPr inc
ĠEn ron
ins let
Ġtrans g
Ġtrans fers
Ġgen e
Ġcur rents
Ġsub t
Ġsupport ive
ĠAl ain
ĠAl ess
ĠAl onso
ĠBar adei
ĠBar ksdale
Ġent ity
Ġent ries
Ġent rep
velop ed
ger ies
ĠBe havior
ĠZ e
ĠZ ain
ĠZ heng
ĠZ vonareva
ĠZ ebari
Ġinj ect
pr us
Ġposs essing
Ġ9 7
ched uled
Ġmar ble
Ġmar chers
Ġcapital ism
com put
ĠComm ander
She ikh
ĠAs ahi
Ġcor ro
Ġforec l
Ġforec los
Ġfire fight
uck le
Ġcand y
Ġtest ifying
Ġcol oss
Ġdevelop er
pl aying
Ġpress ured
riend s
Ġmor atorium
ys ical
omin ation
ls an
Ġpost al
Ġpost ings
Ġmarket place
Ġsw ord
augh lin
Ġhom ework
ĠHe re
alif a
Ġbank ers
Ġsk ill
Ġprof iles
Ġ18 00
Ġden ounce
Ġwater way
Ġland er
Ġdr illed
Ġdr ummer
ĠRe es
cl ad
Ġpay s
Ġtrain ers
ĠChrist ina
Ġinst ruction
Ġmid field
Ġcare ers
Ġed itors
Ġcost umes
ĠSc reen
Ġmet als
ĠPe ggy
Ġ16 1
Ġ16 8
sc opic
Ġ14 5
Ġ14 8
ĠDec laration
Ġjud ged
wh aling
Ġbreak up
ze es
af ia
Ġindic ators
ĠHar rell
ann ah
akes hima
ĠAd vent
ĠAd vanced
ari at
wan iya
ĠBank ing
Ġide ological
Ġground work
ĠCo x
Ġmag ical
ĠChe ung
ĠWe i
Ġrev oked
Ġdetail ing
ĠRes ort
ĠMan ager
Ġpo orer
ĠPaul a
Ġlo oph
Ġconst antly
ĠCl ara
ĠCl iff
ĠTe vez
Ġesc ap
ĠEd mund
Ġmatch ing
Ġmatch up
Ġsuper market
Ġenc ro
Ġstory t
Ġpresent ing
ĠKar rada
Ġaccess ories
pro ductive
arks on
Ġgl ory
Ġgl owing
Ġsimilar ly
Ġcle ver
Ġcle ans
ĠVir unga
Ġbeat ings
Ġren tal
Ġren ounce
Ġemb ed
ĠAll awi
ĠDe utsche
Ġblood less
Ġlif esty
Ġsafe guard
Ġwithdraw als
ĠGeneral e
ĠEl vis
ĠKh alifa
11 7
ĠMor i
ĠMor ici
Ġfem ales
ĠShe ffield
Ġrival ry
Ġcheck up
ĠBr ady
Ġill ust
Ġsle w
Ġsle pt
ateg ic
Ġgrand pa
ey ed
Ġrepe ating
ĠChung chong
Ġsocial ist
Am bassador
Am nesty
Am azon
ĠNo el
ĠNo ble
Ġpun ched
Ġpun ching
uit o
ĠBen oit
Ġmis erable
Ġdoub ted
Ġinflu enced
Ġdi ameter
Ġcorp oration
Ġsoft en
Ġregul ate
Ġsens ational
ĠBer gen
ĠBer lusconi
Ġabs orb
Ġhar b
rap ers
Res earch
ĠDar ling
Ġcas ino
Ġbi as
Ġbi ot
Ġbi ography
Ġbi ometric
Ġbul bs
Ġrow s
ĠElect ions
Ġpract iced
Ġunf it
ĠVenezuel ans
Ġmort ality
19 90
Ġrecogn izable
coh ol
ĠPl ame
ĠGh ana
Ġacce pts
Ġcat astrophic
Ġsun light
Ġsun ny
ĠHaw kins
la ren
ĠOl iv
ĠAlex and
clus ive
En t
sein i
Ġheav iest
Ġrestrict ion
ĠBay ern
Ġspl ashed
Ex pect
ĠBas in
Ġjet liner
ĠAri el
ĠEconom ics
ĠBel arus
ĠCho ice
Ġtext ile
het es
Ġult imat
ĠLib rary
ĠYang tze
ĠSol ace
ĠSol ana
ĠPri us
Ġmuseum s
Ġbelong ings
Ġbal ked
Ġbal cony
Ġgrad uation
John son
Ġ194 4
Ġ194 8
Ġdin ing
ĠDub lin
Ġtrust ed
Ġwed dings
Ġmer it
Ġunemp loyed
aro os
ĠFer din
urb in
ĠMo qtada
Ġadvant ages
Ġstress es
ias m
tar io
ĠMur doch
ĠGar riott
ikh ar
Bl agojevich
Ġhor izon
under ing
ĠCom plex
Ġabduct ees
Ġskin ner
ĠPan mun
Ġawa it
Ġrein state
Ġunderw orld
Ġdevast ation
ĠJos hua
Ġpump ed
ĠNe uro
atin i
Ġgar nered
Ġscr ub
Ġge ared
terror ist
ĠAg re
Ġpatrol led
Ġut ter
Ġdismant lement
ĠOn ly
ĠOn tario
Ġvolcan oes
Ġescal ate
tr ue
Ġtun nels
Ġsight ing
Ġmanip ulated
Ġinstit utes
Sc orsese
Ġintention ally
Ġcompens ate
Ġwr angling
Ġlik eness
ĠSal am
ĠGhaz i
Ġsole mn
ĠWeek end
UN IT
UN ICEF
Ġconce al
Ġcig ar
Ġreject ing
Ġcha otic
uy u
bur st
ĠFre ars
Ġtermin als
Ġelim inating
ĠSil icon
Ġintegr ate
Ġintegr ated
Ġconver ting
Ġash amed
Ġbullet in
des ign
ĠMir ren
ĠMir ror
ĠTer rit
ĠLuc iano
Ġpromin ence
Mich igan
je ou
ĠAy res
Ġqual ities
Ġqual ification
Cl ashes
ĠDou g
ĠBrad ley
Ġstuff ed
Ġimplic ation
Ġgraph ics
aman lis
Ġsett ling
Ġepis odes
ĠFar is
abs olutely
Ġrepro ductive
Ġapprec iation
ĠArt icle
Ġdiagn osis
Ġtiss ues
Ġabol ished
Ġ77 7
ĠAlban ia
Ġphysic ist
Ġbes ide
ĠMore no
Mad onna
Star bucks
Ġthrill ing
ĠCr us
ĠNam daemun
Ġspan ned
Ġpsychiat ry
Comp uter
Ġtherap ist
ĠFel ipe
Ġje ans
Ġaccel erating
Ġpharm ac
Im ages
Ġdre amed
ĠDomin ique
Any one
Ġanaly ze
Econom ic
Econom ists
iy ah
ĠMong ol
Ġskept ical
Med ical
Ste ven
Ġwrest ling
Ġtoler ated
ĠTan zan
Ġunanim ous
iev able
Ġscar ce
Ġstead fast
ĠIC E
ĠRay mond
ĠRosen bl
Ġconsc ience
Ġcontroll ers
Ġhill side
Ġdolph ins
Ġlone ly
ĠDown er
ĠGil bert
Inter ior
Ġdesk top
Ġinstitution al
ĠIvan ovic
Ġchick ens
ĠEst imate
ĠEst rada
rez ovs
ĠSor iano
ĠVill arosa
Ġrefin ery
Ġfert ile
Ġanth rax
ĠMod el
ĠRoc kefeller
War ner
ĠCam illa
Ġprovoc ation
ĠAdvis ors
Ġundersc ore
fin anced
Ġrevel ations
ĠWol fe
ĠGriff ith
Ġconfron ting
Ġdiscip line
erg ies
conf idence
Ġcolumn ist
Ġpurported ly
Ġcorn ers
Ġbell s
ĠBry an
Ġdistinct ive
Fin ally
Hen ry
Ts vangirai
Ġinsul ting
Ġdynam ite
Ed wards
Ġmac hetes
Ġkang aroos
Ġtatt oo
Ġcri ppled
ĠLen o
Camp aign
Ġdwind ling
Init ial
Ġencl osure
Ġsew age
ĠKas parov
ĠKid man
Ġcann ons
Lib ya
Afric a
Afric an
Ġshrink age
Bro ken
La ren
Ġsway ing
Ġgust s
ĠMend es
ĠKuznetso va
Ġintrig uing
Ġbattlefield s
Lind say
Ġfel ony
ĠAp ache
ĠHack ett
Ġresur rect
Ġaccum ulated
Ġmisle ading
Ġmisunder standing
ĠImm igration
Gas oline
ĠSag ar
Ġforbid den
ĠHeb rew
ĠVeter ans
complete ly
Ġcandle light
ĠTurk men
Ġordin ance
Ġpedest rian
Hol lywood
Rog er
Ġgond ola
ĠStra its
Ġdece ased
Ġdelinqu ents
ĠSteel ers
Ġuncond itional
Ġmisman agement
Hur ricane
wor ked
ĠUC LA
Ġunlaw ful
ĠAndre i
ĠFilip ino
Ġfren zy
Ġinund ated
Ġconvert ible
ĠHaj j
Ġshun ned
ĠAnim als
ĠTasman ia
Pa rents
[...]
