{"<pad>":0,"<bos>":1,"<eos>":2,"<unk>":3,"<mask>":4,"!":5,"\"":6,"#":7,"$":8,"%":9,"&":10,"'":11,"(":12,")":13,"*":14,"+":15,",":16,"-":17,".":18,"/":19,"0":20,"1":21,"2":22,"3":23,"4":24,"5":25,"6":26,"7":27,"8":28,"9":29,":":30,";":31,"<":32,"=":33,">":34,"?":35,"@":36,"A":37,"B":38,"C":39,"D":40,"E":41,"F":42,"G":43,"H":44,"I":45,"J":46,"K":47,"L":48,"M":49,"N":50,"O":51,"P":52,"Q":53,"R":54,"S":55,"T":56,"U":57,"V":58,"W":59,"X":60,"Y":61,"Z":62,"[":63,"\\":64,"]":65,"^":66,"_":67,"`":68,"a":69,"b":70,"c":71,"d":72,"e":73,"f":74,"g":75,"h":76,"i":77,"j":78,"k":79,"l":80,"m":81,"n":82,"o":83,"p":84,"q":85,"r":86,"s":87,"t":88,"u":89,"v":90,"w":91,"x":92,"y":93,"z":94,"{":95,"|":96,"}":97,"~":98,"¡":99,"¢":100,"£":101,"¤":102,"¥":103,"¦":104,"§":105,"¨":106,"©":107,"ª":108,"«":109,"¬":110,"®":111,"¯":112,"°":113,"±":114,"²":115,"³":116,"´":117,"µ":118,"¶":119,"·":120,"¸":121,"¹":122,"º":123,"»":124,"¼":125,"½":126,"¾":127,"¿":128,"À":129,"Á":130,"Â":131,"Ã":132,"Ä":133,"Å":134,"Æ":135,"Ç":136,"È":137,"É":138,"Ê":139,"Ë":140,"Ì":141,"Í":142,"Î":143,"Ï":144,"Ð":145,"Ñ":146,"Ò":147,"Ó":148,"Ô":149,"Õ":150,"Ö":151,"×":152,"Ø":153,"Ù":154,"Ú":155,"Û":156,"Ü":157,"Ý":158,"Þ":159,"ß":160,"à":161,"á":162,"â":163,"ã":164,"ä":165,"å":166,"æ":167,"ç":168,"è":169,"é":170,"ê":171,"ë":172,"ì":173,"í":174,"î":175,"ï":176,"ð":177,"ñ":178,"ò":179,"ó":180,"ô":181,"õ":182,"ö":183,"÷":184,"ø":185,"ù":186,"ú":187,"û":188,"ü":189,"ý":190,"þ":191,"ÿ":192,"Ā":193,"ā":194,"Ă":195,"ă":196,"Ą":197,"ą":198,"Ć":199,"ć":200,"Ĉ":201,"ĉ":202,"Ċ":203,"ċ":204,"Č":205,"č":206,"Ď":207,"ď":208,"Đ":209,"đ":210,"Ē":211,"ē":212,"Ĕ":213,"ĕ":214,"Ė":215,"ė":216,"Ę":217,"ę":218,"Ě":219,"ě":220,"Ĝ":221,"ĝ":222,"Ğ":223,"ğ":224,"Ġ":225,"ġ":226,"Ģ":227,"ģ":228,"Ĥ":229,"ĥ":230,"Ħ":231,"ħ":232,"Ĩ":233,"ĩ":234,"Ī":235,"ī":236,"Ĭ":237,"ĭ":238,"Į":239,"į":240,"İ":241,"ı":242,"Ĳ":243,"ĳ":244,"Ĵ":245,"ĵ":246,"Ķ":247,"ķ":248,"ĸ":249,"Ĺ":250,"ĺ":251,"Ļ":252,"ļ":253,"Ľ":254,"ľ":255,"Ŀ":256,"ŀ":257,"Ł":258,"ł":259,"Ń":260,"Ġì":261,"ìĿ":262,"Ġë":263,"íķ":264,"ëĭ":265,"Ġê":266,"ëĭ¤":267,"ìĹ":268,"ê³":269,"ìĿ´":270,"Ġí":271,"ìĹĲ":272,"ëĬ":273,"ëĬĶ":274,"ê°":275,"ê³ł":276,"ìĿĺ":277,"ìĿĦ":278,"ìĦ":279,"Īëĭ¤":280,"ìŀ":281,"ĠìĿ":282,"§Ģ":283,"ë¡":284,"Ġìŀ":285,"ë¥":286,"ìł":287,"ìĿĢ":288,"íķľ":289,"íĸ":290,"íķĺ":291,"ë¡ľ":292,"ëĵ":293,"Ĥ¬":294,"ë¦":295,"ìĭ":296,"ìķ":297,"ì§Ģ":298,"ìľ":299,"ê°Ģ":300,"Ġë°":301,"êµ":302,"ìĬ":303,"ĮĢ":304,"ë¥¼":305,"¸°":306,"Ġìł":307,"Ġê²":308,"âĢ":309,"ìĦľ":310,"Ġìķ":311,"´ë":312,"íĸĪëĭ¤":313,"ë¦¬":314,"Ŀ¼":315,"ê²":316,"ìĿ¸":317,"ëĵ¤":318,"ëı":319,"ë§":320,"íķ´":321,"ëł":322,"ìĬ¤":323,"Ġë§":324,"Ġê°":325,"ëĿ¼":326,"ìĽ":327,"¶Ģ":328,"ê¸°":329,"ìļ":330,"Īĺ":331,"ëĤ":332,"ìĹĲìĦľ":333,"ìľ¼":334,"ĠìĹ":335,"ĠëĮĢ":336,"ìŀĲ":337,"êµŃ":338,"ìĤ¬":339,"ìĭľ":340,"ë°":341,"£¼":342,"ë©":343,"íĺ":344,"ĠìĿ´":345,"ìĸ":346,"·¸":347,"ìĥ":348,"Ġìĺ":349,"Ġìĭ":350,"Ġê³":351,"ëª":352,"ĠìĤ¬":353,"ĠìĦ":354,"¯¸":355,"ĠëĤ":356,"ëŁ":357,"ëĲ":358,"ë³":359,"ë¬":360,"ëıĦ":361,"Ġìľ":362,"ìŀ¥":363,"Ġë³":364,"Ġê²ĥ":365,"ìľ¼ë¡ľ":366,"ìĿ¼":367,"ìĽĲ":368,"Ġëĭ":369,"ë¶Ģ":370,"Ġ1":371,"Ġì§Ģ":372,"ìĺ":373,"ìķĦ":374,"ëŀ":375,"ê³¼":376,"ĠìĪĺ":377,"ì§":378,"Ġêµ":379,"ĠìłĦ":380,"íĻ":381,"ìĻ":382,"ĠâĢ":383,"ì¹":384,"´Ģ":385,"ĠìŀĪ":386,"ëªħ":387,"ëħ":388,"íĥ":389,"ë©°":390,"Ġëª":391,"¹Ħ":392,"âĢĿ":393,"Ġ2":394,"ëĤĺ":395,"ìĥģ":396,"Ġìĥ":397,"ìĨ":398,"Ġëı":399,"ë²":400,"¤ĳ":401,"ìłķ":402,"ê²Į":403,"ĠìŀĪëĭ¤":404,"ìĸ´":405,"ê·¸":406,"íĬ":407,"ĠâĢľ":408,"ļĮ":409,"ìĻĢ":410,"Ĩµ":411,"ëŁ¬":412,"ëĮĢ":413,"ëį":414,"ìłģ":415,"ëĵľ":416,"ì£¼":417,"Ġë¯¸":418,"¡°":419,"00":420,"ĠìķĦ":421,"Ġíķ":422,"ĠìĿ´ë":423,"íĬ¸":424,"Ġê°Ģ":425,"Ġì£¼":426,"ë§Į":427,"ê°Ħ":428,"ìłľ":429,"ĠìľĦ":430,"Ġë§Ĳ":431,"ì²":432,"Ġê¸°":433,"íķĺëĬĶ":434,"Ġìĭľ":435,"íĶ":436,"ìĪĺ":437,"Ġê²½":438,"íĦ":439,"ì°":440,"Ġë²":441,"Ġìłķ":442,"Ġê·¸":443,"Ġë¶":444,"Ġìļ":445,"Ķëĭ¤":446,"íĻĶ":447,"íķĺê³ł":448,"Ġë°Ŀ":449,"Ġë¬":450,"Ġì¤ĳ":451,"Ġíĺ":452,"ëħĦ":453,"íķł":454,"Ġë³´":455,"ĠìĿ¸":456,"ìłĦ":457,"ëĿ¼ê³ł":458,"ĠìŀĲ":459,"Ġíķľ":460,"ĠìĨ":461,"íģ":462,"ĽĦ":463,"Ġë°Ŀíĺ":464,"Ġíı":465,"ê±":466,"êµ¬":467,"ë¬¸":468,"ì¹ĺ":469,"ê¸":470,"ë³´":471,"Ġë°ľ":472,"íĦ°":473,"ĠíĻ":474,"ìĦ±":475,"ìĭł":476,"Ġìĸ":477,"íĨµ":478,"íļĮ":479,"Ġë¶Ģ":480,"Ġì§":481,"ë§Ī":482,"Ġê³µ":483,"ëĤľ":484,"ĠíĮ":485,"Ġë°ĿíĺĶëĭ¤":486,"ĠìĿ¼":487,"ëĭĪ":488,"Ġê´Ģ":489,"ĠìĬ":490,"ê³Ħ":491,"Ġì°":492,"ë¶":493,"ëĵ¤ìĿ´":494,"ìľĦ":495,"ê´Ģ":496,"ëıĻ":497,"íģ¬":498,"ìķĪ":499,"Ġê²ĥìĿ´":500,"ëĵ¤ìĿĢ":501,"ëĭ¤ê³ł":502,"íĮ":503,"Ġë§ĲíĸĪëĭ¤":504,"Ġëį":505,"Ġì¶":506,"ëł¹":507,"ìļ°":508,"ĠìĨĮ":509,"ĠíĶ":510,"ĠìķĬ":511,"ĠêµŃ":512,"Ġëĭ¤":513,"Ġë¹Ħ":514,"ë¯¸":515,"ëĭ¹":516,"íĸī":517,"ìļ©":518,"Ġì²":519,"íĸĪ":520,"ëĲľ":521,"Ġìĺ¤":522,"Ġìľł":523,"íı":524,"ë¹Ħ":525,"Ġê±":526,"ĠìĹ¬":527,"ëĭĪëĭ¤":528,"ìĹĪëĭ¤":529,"ĠìĿĺ":530,"ë¥´":531,"Ġìĥģ":532,"ĳľ":533,"ìĨĮ":534,"ë©´":535,"ĠìŀĪëĬĶ":536,"ĠëĲ":537,"íĶĦ":538,"ëĲĺ":539,"Ġì´":540,"Ġì¡°":541,"ì§Ħ":542,"ìĦł":543,"Ġì¹":544,"ëĶ":545,"íĤ":546,"Ġë¯¸êµŃ":547,"¯¼":548,"ë°Ķ":549,"Ġìłľ":550,"µľ":551,"ì¶":552,"Ġ3":553,"ĠëĤĺ":554,"Ġëĵ":555,"ìĤ":556,"ìĦ¸":557,"ìľł":558,"ì¡":559,"ĠìĹ°":560,"íĨµëł¹":561,"ëįĺ":562,"ëłĪ":563,"ë£":564,"ìĥĿ":565,"Ġíķĺ":566,"ì¡°":567,"Ġëª¨":568,"Ġíĥ":569,"íĥĢ":570,"ìļĶ":571,"Ġë§Ī":572,"ìĽĶ":573,"Ġíĸ":574,"ĠëıĻ":575,"íĳľ":576,"ĠìĦł":577,"ìľ¼ë©°":578,"Ġëħ":579,"ĠìĻ":580,"Ġìĺģ":581,"ëĦ":582,"ëł¥":583,"ìĹĲê²Į":584,"ë¬´":585,"ì½":586,"ĠìĽ":587,"íĺĦ":588,"ĠëĮĢíĨµëł¹":589,"ê±°":590,"íĤ¤":591,"ê·":592,"ĠìĺĪ":593,"ëł¤":594,"Ġê³ł":595,"ìķ¼":596,"Ġìµľ":597,"ìĺ¤":598,"êµ°":599,"íİ":600,"íĭ":601,"ì²´":602,"ë¦°":603,"ìĬµ":604,"ìķĺ":605,"ê²½":606,"¹Į":607,"ëĭ¨":608,"ìĹ¬":609,"ìĺģ":610,"ìĭĿ":611,"ìĹŃ":612,"ë°©":613,"íŀ":614,"ĳĲ":615,"ĠìľĦíķ´":616,"Âł":617,"íĽĦ":618,"Ġë°Ľ":619,"ĠìĬ¤":620,"ĠíĽĦ":621,"ê°ľ":622,"Ġë°©":623,"âĢĻ":624,"ê²©":625,"ëŀĮ":626,"ì°°":627,"ĠëĮĢíķľ":628,"ì¦":629,"ìĨį":630,"Ġì§ĢëĤľ":631,"ê³µ":632,"Ġìļ°":633,"ìŀ¬":634,"ìĭľê°Ħ":635,"Ġê°ľ":636,"ê·¸ëĬĶ":637,"Ġëĭ¹":638,"ĠìĹĨ":639,"ĠìķĮ":640,"Ġê²°":641,"ëĲĲ":642,"Ġíķ´":643,"ĠìĥĿ":644,"ë°ĺ":645,"ĠìĤ":646,"ìĹħ":647,"ĠíļĮ":648,"Ġë°Ķ":649,"ĠìĦ¸":650,"ìĭ¤":651,"ĠëıĦ":652,"ĠìĦ±":653,"ħĮ":654,"ì§Ģë§Į":655,"ì¼":656,"ìĿ´ëĭ¤":657,"Ġìŀ¥":658,"ìĺĢ":659,"Ĩł":660,"Ġì´Ŀ":661,"Ġ4":662,"Ġê¸":663,"ĠíĮĮ":664,"ë¯¼":665,"ĠëĤ¨":666,"ë¬¼":667,"ë¥¸":668,"Ġë¬´":669,"íĺ¸":670,"ĠíĨµ":671,"íı¬":672,"ìĤ°":673,"ĺĲ":674,"ê¸Ī":675,"ìŀĦ":676,"íĺĦì§Ģ":677,"¸Į":678,"ĠìłĦíĸĪëĭ¤":679,"Ġ6":680,"Ġêµ¬":681,"Ġíģ":682,"ë§Ŀ":683,"Ġë¶ģ":684,"Ġëħ¸":685,"Ġ5":686,"íķĻ":687,"ì°¨":688,"íŀĪ":689,"ìłģìĿ¸":690,"ìĬµëĭĪëĭ¤":691,"íĮĮ":692,"Ġìłķë¶Ģ":693,"Ġìĭł":694,"ê¹Į":695,"ìļ´":696,"ë¶Ħ":697,"íķĺê¸°":698,"ĠëĮĢíķ´":699,"ķĮ":700,"¶Į":701,"Ġë¶Ī":702,"ëĭ¬":703,"íĸĪëĭ¤ê³ł":704,"íĺĦì§Ģìĭľê°Ħ":705,"Ġê³Ħ":706,"ìŀĳ":707,"ì¤ĳ":708,"ìĿ´ëĿ¼ê³ł":709,"êµĲ":710,"ì¹´":711,"Ġê±°":712,"ìĹ°":713,"ë³Ģ":714,"´ëı":715,"ëĶĶ":716,"ì¸":717,"ëŀĺ":718,"ê°ģ":719,"Ġìĭ¤":720,"ĠìĹĲ":721,"Ī¬":722,"Ġë§Į":723,"ë¦¬ëĬĶ":724,"ê±´":725,"íĥĦ":726,"Ġë°ĺ":727,"ĠëĤ´":728,"ì§ģ":729,"ëĵ¤ìĿĦ":730,"200":731,"ìĿĮ":732,"ìĹĪ":733,"Ġê°Ĳ":734,"Ġìŀħ":735,"Ġê°ķ":736,"ëªħìĿ´":737,"ë¡Ŀ":738,"ĠìĤ¬ëŀĮ":739,"íĭ°":740,"ë°ľ":741,"Ġíı¬":742,"ĠëķĮ":743,"ĠëĺĲ":744,"ëª¨":745,"Ġ200":746,"ĠíĶĦ":747,"ĠíĶ¼":748,"ê¹Įì§Ģ":749,"ì¶ľ":750,"íĴ":751,"Ġì°¨":752,"ë²ķ":753,"íĹ":754,"Ġë¬¸":755,"ĠâĢĺ":756,"Ġë§¤":757,"ëĵ¤ìĿĺ":758,"ìķ½":759,"Ġìŀ¬":760,"ĠìĿ´ë²":761,"Ġê²ĥìľ¼ë¡ľ":762,"ĠìĦľ":763,"Ġê²ĥìĿ´ëĿ¼ê³ł":764,"Ġì¦":765,"Ġìĺ¬":766,"¢ħ":767,"íķĺì§Ģ":768,"ì½Ķ":769,"ĠìĿ´ë²Ī":770,"Ġê·":771,"ĠíıŃ":772,"ì¦Ī":773,"ĠëįĶ":774,"ì¡Į":775,"ë²Ī":776,"íİ¸":777,"íķľëĭ¤":778,"Ġê²ĥìĿĦ":779,"ÂłĠ":780,"ĠìļĶ":781,"ĠíĺĦ":782,"íĨł":783,"ì§Ī":784,"ĠìŀĪëĭ¤ê³ł":785,"ĠìķĪ":786,"ëł¨":787,"ê¶Į":788,"ìŀħ":789,"Ġì§Ħ":790,"ĠìĿ´ëĿ¼":791,"ĠìŀĲìĭł":792,"ĠêµĲ":793,"ëį°":794,"Ġë©":795,"ê·¼":796,"ë§¤":797,"ëŁ¬ëĤĺ":798,"ê²¬":799,"in":800,"Ġ\"":801,"ìĦ¤":802,"ĠìĿ´ëĿ¼íģ¬":803,"ìĪ":804,"Ġìŀĳ":805,"ìķĺëĭ¤":806,"íĥľ":807,"ê²°":808,"´ëıĦ":809,"ìĺĢëĭ¤":810,"Ġì¶Ķ":811,"íķ©":812,"Ġìķ½":813,"ìłģìľ¼ë¡ľ":814,"ë¡ł":815,"Ġì¶ľ":816,"Ġëĭ¬":817,"´ëł":818,"ë³¸":819,"ĠëĨ":820,"ĠíĹ":821,"ë²Ħ":822,"ëĳĲ":823,"ìĹĺ":824,"´ë¦°":825,"ĠíĻķ":826,"ĠìĻ¸":827,"Ġë¡":828,"ë¸Į":829,"ëĭ´":830,"ĠìĤ¬ë§Ŀ":831,"Ġì£¼ìŀ¥":832,"Ġíİ":833,"ë¶ĢíĦ°":834,"on":835,"ë£Į":836,"ĠìĽĲ":837,"Ġì½":838,"ĠìĬ¹":839,"íķĺê²Į":840,"ë£¨":841,"ìĹĲëĬĶ":842,"ëĲĲëĭ¤":843,"Ġ19":844,"Ġë§İ":845,"Ġëĵ±":846,"Ġë°ľìĥĿ":847,"ê·¸ëŁ¬ëĤĺ":848,"ëŀĢ":849,"Ġê²½ì°°":850,"íĶ¼":851,"ëĦ¤":852,"..":853,"ìĦĿ":854,"ìĿ¸ìĿĢ":855,"ë²ł":856,"Ġëªħ":857,"ë¥´ë":858,"ëĵł":859,"ê¸ī":860,"ìĸµ":861,"Ġ7":862,"ìĭ¬":863,"ëªħìĿĺ":864,"er":865,"íĴĪ":866,"ĠìĪ":867,"Ġíĸī":868,"an":869,"ì´":870,"Ġë²ł":871,"ë°Ķë§Ī":872,"ĻìĿĢ":873,"Ŀ½":874,"Ġë¶ģíķľ":875,"ìĭľìķĦ":876,"ìĸĳ":877,"ī´":878,"ê°Ĳ":879,"or":880,"ĠëĦ":881,"ĠëĶ":882,"Ġì¦Ŀ":883,"Ġëĭ¤ë¥¸":884,"Ġêµ°":885,"ìĸ´ë":886,"ëĤ´":887,"ìĸ¸":888,"Ġì§ĢìĹŃ":889,"ì¼Ģ":890,"ĠìĺĪìłķ":891,"Ġì¤ĳêµŃ":892,"ê¸°ë¥¼":893,"ħĮëŁ¬":894,"Ġë¬¸ìłľ":895,"ìŀ¥ìĿĢ":896,"ìĬ¨":897,"ĠëĲĺ":898,"ìĬ¹":899,"ìĤ¬ëĬĶ":900,"ëĿ½":901,"íķ¨":902,"Ġíĺ¸":903,"Ġë²Į":904,"Ġì¤":905,"±ħ":906,"ìĿ´ëĿ¼":907,"Ġ8":908,"Ġë°ľíĳľ":909,"Ġ10":910,"Ġëį°":911,"Ġë¶Ħ":912,"Ġê´Ģê³Ħ":913,"ëħĢ":914,"ë¦¬ë¥¼":915,"ë¦¬ìķĦ":916,"Ġì§ĳ":917,"Ġë¡ľ":918,"Ġt":919,"Ġë¹":920,"ĠíĪ¬":921,"Ġë¦":922,"ĠìĦ¤":923,"ĠíķľêµŃ":924,"ĠíĬ":925,"Ġë¯¼":926,"ĠëĮĢë³Ģ":927,"ëŁī":928,"ìĨ¡":929,"ëįĶ":930,"ëħ¸":931,"ĠëĿ¼":932,"¨¸":933,"ëŁ°":934,"ĠëĳĲ":935,"ëĶ°":936,"ëĵ¤ìĹĲê²Į":937,"ĠíĿ":938,"Ġëĭ¨":939,"ì»":940,"Ġë²ķ":941,"ì²Ń":942,"ì²ĺ":943,"Ġëª©":944,"ëŀĳ":945,"ĠíĥĢ":946,"ì¡±":947,"íĦ´":948,"Ġëĵ¤":949,"Ġë³´ëıĦ":950,"Ġë°°":951,"ti":952,"ĠìĥĪ":953,"Ġíķł":954,"ar":955,"Ġëª»":956,"ì¡Įëĭ¤":957,"ì¢ħ":958,"Ġ9":959,"íļ":960,"Ġë¦¬":961,"íķľíİ¸":962,"ĠìľĦíķľ":963,"Ġì°¸":964,"ë©´ìĦľ":965,"ìĹĲëĶ°":966,"Ġê¸Ī":967,"ëıħ":968,"ë¯¸êµŃ":969,"ëĭ¤ëĬĶ":970,"ì¤":971,"íĹĺ":972,"į¼":973,"ìŀĲëĬĶ":974,"ëĥ":975,"ìħ":976,"Ġê´Ģëł¨":977,"ĠìĤ´":978,"Łģ":979,"Ġì²ĺ":980,"ëĬ¥":981,"Ġ'":982,"ĠíĽĦë³´":983,"ìĪł":984,"ëĲł":985,"íĮĲ":986,"íķŃ":987,"ĠíĻĶ":988,"ĠíĨµíķ´":989,"ìłĲ":990,"ĠíĮĲ":991,"Ġìķ¼":992,"Ġìĭ¬":993,"ìŁģ":994,"ĠìĹ¬ìĦ±":995,"ĠìĺģêµŃ":996,"Ġê³¼":997,"ĠëıĻìķĪ":998,"Ġëıħ":999,"ĠìĿ´íĽĦ":1000,"íķĺë©°":1001,"Ġì¹ĺ":1002,"ĠC":1003,"ìĹĲìĦľëĬĶ":1004,"Ġìłģ":1005,"ìŀĲê°Ģ":1006,"ĠíĸĪëĭ¤":1007,"es":1008,"´ĳ":1009,"Ġë³ĳ":1010,"ĠêµŃê°Ģ":1011,"ìĤ¬ë¥¼":1012,"Ġíķµ":1013,"en":1014,"ë¦¬ê³ł":1015,"ĠíķĺëĬĶ":1016,"Ġê²Ģ":1017,"ë¦½":1018,"ìĬ¤íĬ¸":1019,"Ġíıī":1020,"Ġê²ĥìĿ´ëĭ¤":1021,"ĠìĺģíĻĶ":1022,"Ġë§İìĿĢ":1023,"Ġì²´":1024,"íļį":1025,"ĠìĦ¸ê³Ħ":1026,"ĠëĮĢíĨµëł¹ìĿĢ":1027,"ê°Ŀ":1028,"Ġíĺĳ":1029,"Ġëĸ":1030,"ĠìĿĮ":1031,"Ġìĸ¸":1032,"ê´ĢìĿĢ":1033,"ìķħ":1034,"Ġë³Ģ":1035,"Ġê°Ģìŀ¥":1036,"ì¸¡":1037,"Ġìĺ¤ë°Ķë§Ī":1038,"Ġê°ĻìĿĢ":1039,"Ġìķŀ":1040,"ìĬ¤íĥĦ":1041,"Ġìĭľìŀĳ":1042,"ë¬¸ìĹĲ":1043,"ë¦¬ê°Ģ":1044,"ìĬ¤ëĬĶ":1045,"íĸĪìľ¼ë©°":1046,"Ġë¬¼":1047,"·¨":1048,"Ġíŀ":1049,"ë©Ķ":1050,"Ġíķ©":1051,"ëĿ¼ëĬĶ":1052,"ëªħìĿĦ":1053,"ºĲ":1054,"ë¶ģ":1055,"ĲìĿĺ":1056,"ìĽĲìĿĺ":1057,"ĠëĲł":1058,"al":1059,"Ġëł":1060,"ĠìĿ´ìĥģ":1061,"Ġê³µê²©":1062,"Ġê²½ìłľ":1063,"ĠìłĢ":1064,"Ġëģ":1065,"íĻ©":1066,"ìĤ´":1067,"¸Ķ":1068,"ĠíķĦ":1069,"ìłĢ":1070,"ìĿ´íĬ¸":1071,"ĠìĤ¬ê±´":1072,"¨ìĸ´":1073,"ë³ĳ":1074,"ĠëĮĢë³ĢìĿ¸ìĿĢ":1075,"ĠA":1076,"ĠëŁ":1077,"ĠëĴ":1078,"ĠëĲľ":1079,"ĠìĤ¬ìļ©":1080,"Ġì§ģ":1081,"he":1082,"ĠíħĮëŁ¬":1083,"ĠíķŃ":1084,"íĺķ":1085,"Ġìĸ´ë":1086,"ìĽĮ":1087,"ì¶Ķ":1088,"ĠëłĪ":1089,"Ġë²Ħ":1090,"ìĺ¨":1091,"Ġëī´":1092,"ìŀĲëĵ¤ìĿĢ":1093,"ëĵ¤ê³¼":1094,"Ġíģ¬":1095,"ĠìĤ°":1096,"ëĭ¬ëŁ¬":1097,"Ġê³Ħíļį":1098,"Ġì¡":1099,"ĠíķĻ":1100,"ĠíĶ¼íķ´":1101,"ëŀľ":1102,"ĠìĿ¼ë³¸":1103,"íĻľ":1104,"ìĬ¬":1105,"âĢľ":1106,"íİĺ":1107,"ĠìĹŃ":1108,"Ġê²ĥìĿĢ":1109,"ĠìĹ°êµ¬":1110,"ÂłĠÂłĠ":1111,"ĠìŀĦ":1112,"ì§ĢëĬĶ":1113,"©´":1114,"Ġì¢":1115,"ëıĦë¡Ŀ":1116,"Ġíķľëĭ¤":1117,"Ġì´Ī":1118,"ìł¸":1119,"Ġ12":1120,"ì³":1121,"ë¥ĺ":1122,"ê»":1123,"ĠìĥĿê°ģ":1124,"Ġìµľê³ł":1125,"ë¦¼":1126,"´ëł¤":1127,"ìļ¸":1128,"Ġìĸĳ":1129,"ĠìĹ´":1130,"íį¼":1131,"000":1132,"Ġ20":1133,"Ġë³´ê³ł":1134,"ĠëĴ¤":1135,"ëĲĺëĬĶ":1136,"ìĥģìĿĦ":1137,"ë·":1138,"ì±ħ":1139,"íħ":1140,"ìĹĶ":1141,"Ġíķ¨":1142,"Ġê³ĦìĨį":1143,"ìĿ´ë²Ī":1144,"íķĺëĭ¤":1145,"ìĬ¤ëĿ¼":1146,"Ġì¡°ìĤ¬":1147,"ĠëıĮ":1148,"Ġë°ľê²¬":1149,"Ġê·¸ìĿĺ":1150,"ê²ł":1151,"ĠìĿ¸íĦ°":1152,"ë¶Ļ":1153,"Ġì½Ķ":1154,"Ġíı¬íķ¨":1155,"ĠìķĦìĿ´":1156,"Ġì£¼ìŀ¥íĸĪëĭ¤":1157,"ëŁ½":1158,"±Ħ":1159,"Ġì¹´":1160,"¿ł":1161,"ëĿ¼ìĿ´":1162,"ĠíĺĲìĿĺ":1163,"Ġê²½ê¸°":1164,"ìľ¼ëĤĺ":1165,"ìĹĪëĭ¤ê³ł":1166,"ê°ķ":1167,"ĠìŀĲìĭłìĿĺ":1168,"ĠìĦłê±°":1169,"ê»ĺ":1170,"Ġì§Ģì§Ģ":1171,"íĪ¬":1172,"§ë¶Ļ":1173,"Ġë³´ë":1174,"Ġë³´ëıĦíĸĪëĭ¤":1175,"Ġëį§ë¶Ļ":1176,"ë°°":1177,"ìłķë¶Ģ":1178,"ì¸ł":1179,"ìĬ¤ëĿ¼ìĹĺ":1180,"Ġì»":1181,"Ġê±´":1182,"íĸ¥":1183,"ìļĶìĿ¼":1184,"ĠëĬ":1185,"Ġê²½ìļ°":1186,"ëł¥ìĿĦ":1187,"ĠìķĬìķĺëĭ¤":1188,"Ġì·¨":1189,"ĠìķĦíĶĦ":1190,"Ġëį§ë¶ĻìĺĢëĭ¤":1191,"Ġì¡´":1192,"íĺĳ":1193,"ìĽĲìĿĢ":1194,"ĠíĬ¹":1195,"ë¦¬ìĬ¤":1196,"Ġ(":1197,"ìĥī":1198,"ëĮĢë¡ľ":1199,"íĥĿ":1200,"ĠìĿ´ëŀ":1201,"ëłĪìĿ´":1202,"ë¡ľìļ´":1203,"ĠìĤ¬ìĭ¤":1204,"´ë¶Ģ":1205,"ĠíĻĺ":1206,"ë¡Ģ":1207,"íĻĺ":1208,"Âł200":1209,"ëĤł":1210,"Ġ11":1211,"ë§Ĳ":1212,"ì§¸":1213,"Ġê²°ìłķ":1214,"ìŀ¥ìĿĦ":1215,"ìĩ":1216,"ë°ķ":1217,"ĠíĶĦë¡ľ":1218,"ĠìļĶêµ¬":1219,"Ġë¸Į":1220,"Ġë°ķ":1221,"le":1222,"ìŀĲëĵ¤ìĿ´":1223,"Ġíľ":1224,"ĠìĦ¤ëªħ":1225,"Ġê¹":1226,"Ĳëĭ¤":1227,"ìļķ":1228,"Ġì§ĢëıĦ":1229,"ë¥´ë©´":1230,"Ġë©Ķ":1231,"ĠíļĮëĭ´":1232,"ë¦Ħ":1233,"ìĺĪ":1234,"ëłĪìĬ¤":1235,"Ġë°ı":1236,"ë³µ":1237,"ìķł":1238,"´ëį":1239,"êµŃìĿĢ":1240,"ĠêµŃìłľ":1241,"Ġíķ¨ê»ĺ":1242,"íħĮ":1243,"Ġë³µ":1244,"ĠT":1245,"Ġëª¨ëĵł":1246,"ĠìĿ´ìľł":1247,"ì²ľ":1248,"Ġë¯¼ì£¼":1249,"Ġë°©ë¬¸":1250,"ĠíĨł":1251,"âĢ¦":1252,"ĠíĻľ":1253,"ëĦĪ":1254,"ĠìĿ¼ë¶Ģ":1255,"Ġë¹ĦëĤľ":1256,"Ġì¤Ħ":1257,"ì¤Ģ":1258,"Ġë¶Ģìĭľ":1259,"ëĭĪìķĦ":1260,"ĪĦ":1261,"ìĿ´ëĬĶ":1262,"ìĤ¬ê°Ģ":1263,"ë³´ëĭ¤":1264,"Ġê°ĢëĬ¥":1265,"ì£¼ìĿĺ":1266,"ĠS":1267,"Ġìļ´":1268,"ìĿ¸ìĿ´":1269,"íķ´ìķ¼":1270,"Ġê²°ê³¼":1271,"ĠìĭľìľĦ":1272,"ìµľ":1273,"ë¨¸":1274,"ĠëķĮë¬¸ìĹĲ":1275,"Ġíĳľ":1276,"ë°±":1277,"is":1278,"...":1279,"ëŀĳìĬ¤":1280,"ĠëĨĴ":1281,"Ġê·¸ëĬĶ":1282,"ìĽĢ":1283,"íĸĪëįĺ":1284,"íĸĪìĬµëĭĪëĭ¤":1285,"ìĸ´ëĤ":1286,"Ġíĥľ":1287,"ì§ĳ":1288,"Ġë¯¸êµ°":1289,"ëŁ¼":1290,"ìĹĲëĶ°ë¥´ë©´":1291,"ì£":1292,"ëĲĺê³ł":1293,"Ġëħ¼":1294,"Ġì¢ħ":1295,"Ġëªĩ":1296,"ìłĪ":1297,"ìĽĲíļĮ":1298,"íĤ¤ìĬ¤íĥĦ":1299,"ìĽĲìĿ´":1300,"ì§Ģë¥¼":1301,"ìĺ¬":1302,"ëıĮ":1303,"Ġê°Ħ":1304,"Ġê±¸":1305,"Ġ15":1306,"ĠìĺĪìłķìĿ´ëĭ¤":1307,"ìĭľíĤ¤":1308,"Ġê·¼":1309,"Ġë§ŀ":1310,"ĠíĺĦìŀ¬":1311,"ìĻ¸":1312,"ĠíĥĪ":1313,"ìŀĲìĿ¸":1314,"į¨":1315,"Ķ¨":1316,"Ġê²Į":1317,"Ġì§ĢìĽĲ":1318,"ĠìĪĺëıĦ":1319,"ì°©":1320,"Ġìµľê·¼":1321,"ìĬ¤íĦ°":1322,"ĠìĿ´ëŀĢ":1323,".âĢĿ":1324,"ĠíķĦìļĶ":1325,"ìºĲ":1326,"Ġìĸ´":1327,"Ġíİĺ":1328,"ìŀĪ":1329,"ĠìŀĪìľ¼ë©°":1330,"íĥĪ":1331,"¨ìĿĦ":1332,"ìĦľëĬĶ":1333,"ĠëĮĢìĦł":1334,")âĢĻ":1335,"ëĳ":1336,"at":1337,"Ġëª¨ëĳĲ":1338,"ê¸°ê°Ģ":1339,"Ġì¹ľ":1340,"ìŀħëĭĪëĭ¤":1341,"Ġì¶©":1342,"BC":1343,"ĠíĹĪ":1344,"ìŀ¥ìĿ´":1345,"ĠìĦ¤ëªħíĸĪëĭ¤":1346,"ìĹĲëıĦ":1347,"re":1348,"ì§Ģê³ł":1349,"ëĥĲ":1350,"Ġê°ĸ":1351,"ĠëŁ¬":1352,"ì§ĢëĤľ":1353,"ë²Ķ":1354,"ìį¨":1355,"Ġo":1356,"ì¦Ŀ":1357,"ĠìĦĿ":1358,"Ġê¸°ë¡Ŀ":1359,"Ġëĵľ":1360,"¸ëĭ¤":1361,"ĠìłĲ":1362,"Ġì°¾":1363,"´ëį°":1364,"ê²ĥ":1365,"Ġ30":1366,"Ġì±Ħ":1367,"Ġìĸ´ëĸ":1368,"Ġëĭ¬ëŁ¬":1369,"ĠìĿ´ìĬ¤ëĿ¼ìĹĺ":1370,"Ġì²ĺìĿĮ":1371,"ĠìŀĪìĹĪëĭ¤":1372,"Ġìłķì¹ĺ":1373,"ì¡´":1374,"íĿ":1375,"ĠìĥĪë¡ľìļ´":1376,"ëŀľëĵľ":1377,"ĠìķĬëĬĶ":1378,"NN":1379,"Ġs":1380,"Ġì¢ĭ":1381,"ê¸¸":1382,"íļĮìĿĺ":1383,"Ġìķł":1384,"Ġëĭ¹ìĭľ":1385,"Ġê·ľ":1386,"ĠìķĬìķĺ":1387,"it":1388,"´ë¦°íĦ´":1389,"ĠìķĮëł¤":1390,"ĠìĹ´ë¦°":1391,"ìĩĦ":1392,"ê´ĳ":1393,"Ġì¼":1394,"ĠìķĬìĿĦ":1395,"ê²½ì°°":1396,"Ġê°Ĳëıħ":1397,"Ġíģ°":1398,"ĠìĹĨëĭ¤":1399,"íķ©ëĭĪëĭ¤":1400,"ĠëĤ´ë":1401,"ì¹ĺë¥¼":1402,"ì´Ī":1403,"Ġëĸ¨ìĸ´":1404,"Ġëĵ¤ìĸ´":1405,"ë¹":1406,"ĠìŀĪìĬµëĭĪëĭ¤":1407,"ìķĪìĿĦ":1408,"ĠëĤĺíĥĢ":1409,"Ġìļ©":1410,"ĠìĥģíĻ©":1411,"íĶĮ":1412,"ê¸Ģ":1413,"ĠìĤ¬ìĿ´":1414,"ĠëĺĲíķľ":1415,"Ġê¸°ìŀĲ":1416,"Ġìº":1417,"ìĦ¼":1418,"Ġìĺ¨":1419,"Ġì§Ī":1420,"ĠìķĦëĭĪ":1421,"Ġíķĺê³ł":1422,"ĠíĮĶ":1423,"ĠëĤ´ëł¤":1424,"ì£Ħ":1425,"ê¸°ìĤ¬":1426,"tion":1427,"ëĤ¬":1428,"Ġë³¸":1429,"ê¸°ìĹĲ":1430,"ĠíĦ":1431,"ì¶ķ":1432,"ic":1433,"íĭĢ":1434,"ou":1435,"om":1436,"ĠëĮĢíĳľ":1437,"ì´Ŀ":1438,"ìĽĲë¬¸":1439,"Ġìĭľê°Ħ":1440,"Ġì¤Ģ":1441,"ìĪĺëĬĶ":1442,"Ġì²ł":1443,"ĠìĥĿíĻľ":1444,"ìĿ´ë©°":1445,"Ġê³³":1446,"ë¦¬ìĿĺ":1447,"ĠìŀĪìĿĦ":1448,"ĠìĨĲ":1449,"íıŃ":1450,"ëĲĺìĸ´":1451,"ëĤ¨":1452,"ĠìķĦì§ģ":1453,"ë¶Ī":1454,"ĠìĥģìĽĲìĿĺ":1455,"ì½©":1456,"Ġíķ©ìĿĺ":1457,"ª½":1458,"ë³´ê¸°":1459,"ë¶Ģë¶Ħ":1460,"£¨":1461,"ê·¸ëŀ":1462,"ê±°ëĤĺ":1463,"ĠìĪ¨":1464,"ĠëĮĢíĨµëł¹ìĿ´":1465,"ìĺģìĥģ":1466,"ì¹ľ":1467,"íĮ¨":1468,"ĠìĭĿ":1469,"ĠëĤł":1470,"íĻĶë¥¼":1471,"ĠF":1472,"Ġìļ°ì£¼":1473,"ìĬ¤ìĿĺ":1474,"ĠìĻĦ":1475,"ĠìĤ¬ê³ł":1476,"ĠìŀĪëĭ¤ëĬĶ":1477,"ĠíĻķìĿ¸":1478,"Ġìłĳ":1479,"Ġì§Ħíĸī":1480,"Ġthe":1481,"Ġì²Ń":1482,"ĠëĶĶ":1483,"Ġë²Ī":1484,"ìľµ":1485,"ìĿ´ê³ł":1486,"ĠìĿĢ":1487,"ëĲľëĭ¤":1488,"Ġof":1489,"ed":1490,"Ġ16":1491,"Ġê¶Į":1492,"ìĿ´ëĤĺ":1493,"Ġê°Ģì¡±":1494,"08":1495,"ëĬĺ":1496,"Ġì´Ŀë¦¬ëĬĶ":1497,"ìłĦìĿĦ":1498,"Ġë¹Ħíĸī":1499,"ĠíĶĦëŀĳìĬ¤":1500,"ìŀĲë¥¼":1501,"ĠìĨį":1502,"ìĬ¤ê°Ģ":1503,"Ġë°Ľê³ł":1504,"Ġë¸Ķ":1505,"ĠíıŃíĥĦ":1506,"Ġì²´íı¬":1507,"ĠëģĿ":1508,"´ëĲ":1509,"ĠìŀĪìĹĪ":1510,"ìĦ±ìĿ´":1511,"ìĻĶëĭ¤":1512,"Ġë¬´ìŀ¥":1513,"ĠM":1514,"ëĵ±":1515,"Ġë°±":1516,"ĠP":1517,"įì½©":1518,"ê³¼ìĿĺ":1519,"ĠëŁ¬ìĭľìķĦ":1520,"ĠëĮĢíķĻ":1521,"íĶ½":1522,"Ġìłķë¶ĢëĬĶ":1523,"ĠëĶ°":1524,"Ġìĸ»":1525,"´ī":1526,"ìª½":1527,"´ëĿ¼":1528,"Ġë§Įëĵ¤":1529,"ì»¤":1530,"ĠìĿ´ëĤ":1531,"ĠêµŃë¯¼":1532,"Ġë°ľíĳľíĸĪëĭ¤":1533,"Ġìŀĺ":1534,"Ġê³µê°ľ":1535,"ìĽ¨":1536,"ĠìĽĶ":1537,"ĠI":1538,"Ġìķķ":1539,"ĠìľĦì¹ĺ":1540,"Ġ18":1541,"ĠW":1542,"Ġ25":1543,"ĠíĶĮ":1544,"ĠìľłëŁ½":1545,"ë§ī":1546,"Ġë°ľìĥĿíķľ":1547,"ĠìĿ¸ëıĦ":1548,"Ġì¹¨":1549,"ìķĮ":1550,"Ġë²Ķ":1551,"ĠN":1552,"ì§ķ":1553,"íķĺë©´ìĦľ":1554,"ê·¹":1555,"ìŀĲìĿĺ":1556,"íĺ¼":1557,"ë³Ħ":1558,"ĠìĪľ":1559,"ëĺĲ":1560,"ìĿ´ìĬ¤":1561,"íıī":1562,"Ġëĭ¤ìĭľ":1563,"Ġf":1564,"ĳ¸":1565,"ê³³":1566,"Ġì²«":1567,"Ġë²łëĦ¤":1568,"Ġê´ĳ":1569,"ëıĻì°¨":1570,"íķĺìĹ¬":1571,"Ġì£¼ë¯¼":1572,"ëłĪë°ĺ":1573,"ì§ĢìĹŃ":1574,"ĠíĮ¨":1575,"ĩ´":1576,"ĺë¦¬":1577,"ìľĦìĽĲíļĮ":1578,"ìĥ¤":1579,"ĠìĿ´ìļ©":1580,"ê°ĦìĿĺ":1581,"ĠìĿ´ë¯¸":1582,"Ġì¦Ŀê°Ģ":1583,"ĠëĲĲëĭ¤":1584,"Ġë¶Ģìĥģ":1585,"ĠìĻķ":1586,"ìļ´ëį°":1587,"ĠíĮĮíĤ¤ìĬ¤íĥĦ":1588,"ê¸°ìĤ¬ë³´ê¸°":1589,"ê´":1590,"Ġë¹ł":1591,"ĠëĲľëĭ¤":1592,"Ġë¯¼ì£¼ëĭ¹":1593,"íĮĢ":1594,"ĠB":1595,"ĠëĤĻ":1596,"ing":1597,"Ġì¿ł":1598,"Ġì£¼ìļĶ":1599,"ë·°":1600,"ë¹ĦìķĦ":1601,"ĠëĤľ":1602,"Ġ13":1603,"Ġê°Ģìļ´ëį°":1604,"ëł¬":1605,"ëıĻë¬¼":1606,"ëĦ·":1607,"ìĦ±ìĿĦ":1608,"Ġì¶ķ":1609,"ĠíĦ°":1610,"ìĤ¬ìĿĺ":1611,"Ġë¯¸êµŃìĹĲìĦľ":1612,"ìĹĺëĿ¼":1613,"Ġì¼Ģ":1614,"íĨ":1615,"ĠíĻĪ":1616,"ĠìĨĮìĭĿ":1617,"ĠìĬ¹ë¦¬ë¥¼":1618,"Ġto":1619,"ìĦ¸ê³Ħ":1620,"ì²ĺëŁ¼":1621,"ìĹĲëĶ°ëĿ¼":1622,"Ġ199":1623,"íķĺë©´":1624,"Ġëĭ´":1625,"ìłķìĿĦ":1626,"Ġì¤ĳëĭ¨":1627,"ëª©":1628,"ĠìľłìĹĶ":1629,"ĠíĸĪ":1630,"Ġëī´ìļķ":1631,"íģ´":1632,"ĠìĨĮëħĢ":1633,"ë¶ģíķľ":1634,"ëģ":1635,"Ġì£":1636,"Ġë°ĺëĮĢ":1637,"ĠìĤ¬ëŀĮëĵ¤ìĿ´":1638,"ìĻĢìĿĺ":1639,"Ġì§ĢëĤľíķ´":1640,"ĠëĤ´ìļ©":1641,"ëī´":1642,"Ġa":1643,"ĠíıĲ":1644,"ĠíĶĦë¡ľê·¸ëŀ":1645,"Ġê¸°ìĥģ":1646,"Ġê·¸ë¦¬ê³ł":1647,"ëĭ¨ì²´":1648,"Ġë°©ìĨ¡":1649,"Ġìŀħê³ł":1650,"Ġìĺ¬íķ´":1651,"ĠëĦĺ":1652,"ĠíĬ¸":1653,"ĠìķĬìĿĢ":1654,"ìĪĺìĹĺëĿ¼":1655,"Ġíķ´ê²°":1656,"ëı¼":1657,"Ġê°ģ":1658,"ìĭľì¼":1659,"ĠìĺĪìĥģ":1660,"ê²¨":1661,"´ëıĻ":1662,"ìĽĲìĿĦ":1663,"Ġëĭ¹ìĦł":1664,"ìĿ¸ìĿĦ":1665,"ì½ľ":1666,"Ġ14":1667,"ë¸Ķ":1668,"ŃìĬ¨":1669,"Ġë°ĿíĺĢ":1670,"ĠìĿĺíķ´":1671,"Ġc":1672,"ìŀĶ":1673,"ĠìĿ¸íĦ°ë·°":1674,"íĮĮíĬ¸":1675,"ĠíĿ¬":1676,"Ġìĵ":1677,"íĻĶìĿĺ":1678,"ë¦´":1679,"°ëĭ¤":1680,"ĠíķŃê³µ":1681,"Ġë§ĲíķĺëĬĶ":1682,"ĠíĴ":1683,"Ġìĥģíĥľ":1684,"ëĲĲëĭ¤ê³ł":1685,"Ġíģ´ë¦°íĦ´":1686,"Ġê²½ë§¤":1687,"ë¡ľë¶ĢíĦ°":1688,"ìĶ¨":1689,"ĠìĿ¸íķ´":1690,"Ġëĭ¤ìĿĮ":1691,"ì³Ĳ":1692,"ëĤĺëĬĶ":1693,"ëĵ¤ìĹĲ":1694,"íĥĢìĿ¸":1695,"Ġì¤ĳìļĶ":1696,"Ġë³´ëĤ":1697,"Ġë²łëĦ¤ìĪĺìĹĺëĿ¼":1698,"Ġíĭ":1699,"ë¬´ìŀ¥":1700,"ê¸ĪìĿĦ":1701,"Ġë¯¸êµŃìĿĺ":1702,"ë¦¼íĶ½":1703,"íħĮëŁ¬":1704,"ĠK":1705,"ĠíĽ":1706,"Ġìĭ¤ìĭľ":1707,"ĠìĿ´ëĤł":1708,"Ġì°¨ëŁī":1709,"ì¹¨":1710,"Ġìķ¼ìĥĿ":1711,"ĠíħĮ":1712,"ìĬ¤ë¥¼":1713,"Ġë§ī":1714,"ĠíĺĲìĿĺë¡ľ":1715,"ìľ¡":1716,"Ġëħ¸ì¶ľ":1717,"ëĵľëĬĶ":1718,"Ġìłķë³´":1719,"Ġìłķë¶Ģê°Ģ":1720,"ĠìļĶì²Ń":1721,"ìĬ¬ëŀĮ":1722,"¨¼":1723,"´ë¬":1724,"ĠD":1725,"ì³¤":1726,"ĠìķĦíĮĮíĬ¸":1727,"ìħĺ":1728,"Ġë£¨":1729,"ĠìĿĺíļĮ":1730,"íķĺëł¤":1731,"êµŃìĿĺ":1732,"ĠíĻľëıĻ":1733,"Ġìĸ¸ê¸ī":1734,"Ġp":1735,"il":1736,"ìŀ¥ìĹĲìĦľ":1737,"ìĺ¤ë°Ķë§Ī":1738,"ĠíĤ":1739,"Ġë°ĽìķĦ":1740,"ĠìĿĮë°ĺ":1741,"ĠëĦ¤":1742,"ĠëıĮìķĦ":1743,"ĠìłĦë¬¸":1744,"ëª¸":1745,"ìĽĲë¬¸ê¸°ìĤ¬ë³´ê¸°":1746,"ê°ĳ":1747,"ĠìłĪ":1748,"Ġì±ħ":1749,"ĠìĦłìĪĺ":1750,"ê·ľ":1751,"ĠìķĶ":1752,"Ġíĺķ":1753,"ĠíĶ¼íķ´ìŀĲ":1754,"Ġì§Ģìłģ":1755,"ĠëıĦìĭľ":1756,"´ëĮĢ":1757,"ĠëĮĢë¶Ģë¶Ħ":1758,"ĠíĪ¬íĳľ":1759,"ĠL":1760,"Ġê¸Īìľµ":1761,"íħĶ":1762,"ĠëªħìĿĺ":1763,"Ġë°Ģ":1764,"ìĿ´ëĿ¼íģ¬":1765,"Ġì¶Ķê°Ģ":1766,"Ġê°Ļ":1767,"Ġë³ĳìĽĲ":1768,"ë°Ģ":1769,"ì¼ĢìĿ¸":1770,"ëĲĺì§Ģ":1771,"ìĹ¼":1772,"ĠU":1773,"ëĶĶìĺ¤":1774,"ëĬĶëį°":1775,"as":1776,"ĠìĹħ":1777,"ĠëĪĦ":1778,"ĠíķĺëĿ½":1779,"ê¸°ë¡ľ":1780,"ĠìŀĲëıĻì°¨":1781,"Ġìļ°ëł¤":1782,"ĠíĮĲë§¤":1783,"Ġ17":1784,"ĠìĤ¬ì§Ħ":1785,"ìľĦë¥¼":1786,"ĠìĻ¸êµĲ":1787,"Ġì´ī":1788,"ë²Īì§¸":1789,"ĠìĨĮìĨį":1790,"ĠìĹ¬ëŁ¬":1791,"Ġìŀ¡":1792,"ê¸°ëĬĶ":1793,"ĠìķĦíĶĦê°Ħ":1794,"Ġìłľê³µ":1795,"ê°ľìĽĶ":1796,"íķľëĭ¤ê³ł":1797,"ê²Ģ":1798,"ë¦¬ìĹĲ":1799,"Ġê·¸ê°Ģ":1800,"Ġë°Ľìķĺëĭ¤":1801,"Ġìĸ¼":1802,"Ġíĸ¥":1803,"Ġë°©ë²ķ":1804,"Ġê¹Ģ":1805,"ĠTV":1806,"ê°ĢëĬĶ":1807,"ìºĲìĬ¤íĦ°":1808,"ëª¸ìľ¼ë¡ľ":1809,"ro":1810,"Ġë³Ģíĺ¸":1811,"Ġë¨¸":1812,"Ġê¸°ìĥģìºĲìĬ¤íĦ°":1813,"íĻįì½©":1814,"ent":1815,"ĠíĥĪëłĪë°ĺ":1816,"km":1817,"ĠìłĦìŁģ":1818,"ĠìķĬê³ł":1819,"ĠëĤ©":1820,"Ġíķľëĭ¤ê³ł":1821,"Ġê³µíĻĶ":1822,"ĠìĹĨëĬĶ":1823,"ëıĦë¡ľ":1824,"ê²©ìĿĦ":1825,"ĠëĮĢíĨµëł¹ìĿĺ":1826,"Ġê¸ī":1827,"ìłĳ":1828,"ìŀĲë¡ľ":1829,"êµŃìĿ´":1830,"ë¶Ģìĭľ":1831,"ĠìĨĮìŀ¥":1832,"Ġin":1833,"ìĭ±":1834,"ìŀĦìĿĦ":1835,"ĠìĹĲìĦľ":1836,"ĠëĨį":1837,"íķĺì§Ģë§Į":1838,"Ġìĸ¸ë¡ł":1839,"ĠìľĦì¹ĺíķľ":1840,"´ë³":1841,"ë¬´ë¶Ģ":1842,"Ġë³´ìĿ¼":1843,"Ġê°ľë°ľ":1844,"ë·Ķ":1845,"ĠìŀĪìĸ´":1846,"Ġì£¼ì§Ģ":1847,"Ġë³´ìĹ¬":1848,"ĠìĬ¤ë¦¬":1849,"Ġì¸":1850,"Ġìłķìĥģ":1851,"ĠìĥģìĬ¹":1852,"Ġëĭ¨ì²´":1853,"´ë¬¼":1854,"ìĿ´ì§Ģ":1855,"Ġìķħ":1856,"Ġê°ķì¡°":1857,"ore":1858,"ìĿ´ìĹĪëĭ¤":1859,"ìľ¨":1860,"Ġì°¸ìĦĿ":1861,"Ġê¸°ìĽĲ":1862,"ì¼ĢëĥĲ":1863,"ation":1864,"ê¹":1865,"ëłĮ":1866,"Ġëį°ë·Ķ":1867,"Ī°":1868,"ëªħìĿĢ":1869,"ê´ĢìĿ´":1870,"ĠìĤ¬ìĭ¤ìĿĦ":1871,"ìĿµ":1872,"ĠíıŃë°ľ":1873,"ĠìĦ±ê³µ":1874,"ìĿĳ":1875,"Ġëĸł":1876,"ê°Ī":1877,"ĠìĹ¬íĸī":1878,"Ġëª¨ìĬµ":1879,"Ġì£½":1880,"ìĤ¬íĥľ":1881,"Ġë§¤ìļ°":1882,"ìĿ´ëĿ¼ë©°":1883,"ëłĪìĬ¤íĥĢìĿ¸":1884,"Ġë²Įìį¨":1885,"ĠE":1886,"ìķķ":1887,"Ġìķ¼ìĥĿëıĻë¬¼":1888,"ëį¸":1889,"ĠìĺĪìķ½":1890,"ĠìĪĺìĥģ":1891,"ĠìľĦíĹĺ":1892,"ĠíŀĲ":1893,"ëĤ¬ëĭ¤":1894,"Ġíļ":1895,"ĠìĿ´ëŁ":1896,"ìĪĺê°Ģ":1897,"ìŀ¥ìĹĲ":1898,"ìłĦìĹĲ":1899,"íĽĦë³Ģ":1900,"ë¶ĢëĬĶ":1901,"Ġ1200":1902,"ĠíıīíĻĶ":1903,"ìĹ´":1904,"Ġì½ľ":1905,"ìŀŃìĬ¨":1906,"ĠëĭŃ":1907,"íĸĪê³ł":1908,"ĠìĽĮ":1909,"ĠìĥĿìĤ°":1910,"ĠìĿ´ìĸ´":1911,"ĠëĤ¨ë¶Ģ":1912,"Ġêµ°ìĤ¬":1913,"Ġê³łìķĦ":1914,"ĠíķĻìĥĿ":1915,"íĻķ":1916,"ĠêµŃë°©":1917,"ĠìĿ´ë¥¼":1918,"Ġìĺģíĸ¥":1919,"Ġìŀ¥ê°ĳ":1920,"Ġíŀĺ":1921,"Ġë³´ìķĦ":1922,"ê²½ì°°ìĿĢ":1923,"ĠíĻĪëŁ°":1924,"ê²łëĭ¤ê³ł":1925,"ìŀĪëĬĶ":1926,"íĤ¤ëĭĪ":1927,"ëĮĢë¥¼":1928,"Ġ50":1929,"ĠìĬ¹ë¦¬":1930,"ëıĻìĺģìĥģ":1931,"Ġê¸°ìĪł":1932,"ìĿ´ìĹĲ":1933,"íļĮëĭ´":1934,"ìĸĢ":1935,"ĠìľĦíĺĳ":1936,"Ġíķĺì§Ģ":1937,"ĠìĦĿë°©":1938,"ìĭŃ":1939,"ë¦¬ì¹´":1940,"Ġ24":1941,"ì¿ł":1942,"ĠìĨĮìŀ¥íĴĪ":1943,"íĤ¬":1944,"Ġë³¼":1945,"ĠìĿ¸ìłķ":1946,"ĠíĥĦ":1947,"ĠíĹ¤":1948,"ëĵĿ":1949,"ĠìĹ°ë°©":1950,"ìĹħìĿĦ":1951,"Ġìµľê³łê°Ģ":1952,"Ġìļ°ë¦¬":1953,"Ġìĵ°":1954,"Ġê³łìķĦìĽĲ":1955,"ê¸°íĽĦë³Ģ":1956,"ìĪĺìŀĶ":1957,"Ġë³´íĺ¸":1958,"Ġì²ľ":1959,"ë¥´ëĬĶ":1960,"ë¥ł":1961,"Ġê°ľëıĦ":1962,"Ġíĺ¸ì£¼":1963,"ìĺ¨ëª¸ìľ¼ë¡ľ":1964,"de":1965,"ìĻķ":1966,"Ġë¹ĦíĤ¤ëĭĪ":1967,"th":1968,"æĪ°":1969,"ĠëĤ´ëł¤ìķ¼":1970,"CNN":1971,"Ġë°ĽìĿĢ":1972,"´ë°":1973,"ëł¥ìĿ´":1974,"Ġëį°ìĿ´":1975,"Ġê°ľëıĦêµŃ":1976,"ì£¼ë¬¸":1977,"Ġê´Ģë¦¬":1978,"ìĤ¬ìĿ¸":1979,"Ġìŀĳëł¬":1980,"ĠìĿ´ìĬ¬ëŀĮ":1981,"ìĭłìĪĺ":1982,"íĭ´":1983,"10":1984,"WBC":1985,"ëŀĺìļĶ":1986,"ìĽĲëĮĢë¡ľ":1987,"íĬ¼":1988,"ìľĦëŀĺìļĶ":1989,"ê²½ìľł":1990,"ì¶ĶìĭłìĪĺ":1991,"Ġë²łëĦ¤ìĪĺìĹĺëĿ¼æĪ°":1992,"ĠìĬ¤ë¦¬ëŁ°":1993,"Ġê¸°ìĽĲíķ©ëĭĪëĭ¤":1994,"ĠìĺĪìķ½ì£¼ë¬¸":1995,"ĠëĭŃìŀ¥":1996,"ê¸°íĽĦë³ĢíĻĶìĿĺ":1997,"ĠìĿ¸íĦ°ëĦ·":1998,"ĠìĤ¬ë¬´":1999,"íĸĪì§Ģë§Į":2000,"Ġê´Ģê³ĦìŀĲëĬĶ":2001,"Ġê±´ê°ķ":2002,"Ġìĺ¬ë¦¼íĶ½":2003,"ìĹĪëįĺ":2004,"and":2005,"ĠëıħìĿ¼":2006,"ĠìºĲ":2007,"ì§ĢìĹĲ":2008,"ë°Ľ":2009,"Ġì§ĢìłģíĸĪëĭ¤":2010,"ì¹ĺëĬĶ":2011,"ìĹĦ":2012,"ëł¸ëĭ¤":2013,"ìĹĲìĦľìĿĺ":2014,"Ġ22":2015,"ëĲĺìĹĪëĭ¤":2016,"ê¶ĮìĿĦ":2017,"Ġì¸¡":2018,"Ġ27":2019,"Ġíĭ°":2020,"Ġíĺĳìĥģ":2021,"ì¤ĳêµŃ":2022,"ĵ¨":2023,"ëĭ¹ìĿĺ":2024,"êµ°ìĿĢ":2025,"Ġìŀł":2026,"íĤ¨":2027,"Ġëħ¼ìĿĺ":2028,"Ġë³´ìĿ¸":2029,"ĠìĿ¸ê·¼":2030,"ĠìĿĺìĽĲ":2031,"ìŀĪëĭ¤":2032,"Ġìłķì±ħ":2033,"Ġê³¨":2034,"Ġê²½ê³ł":2035,"ĠìĹĨëĭ¤ê³ł":2036,"ëĳĶ":2037,"íľ":2038,"Ġ21":2039,"Ġì´Ŀë¦¬":2040,"ĠìµľìĨĮ":2041,"Ġíİ¸":2042,"Ġíľ´":2043,"ìº":2044,"Ġw":2045,"ìķĻ":2046,"¿Ĳ":2047,"ĠìĿ¸íĦ°ë·°ìĹĲìĦľ":2048,"Ġëĳ":2049,"ëĮĢìĿĺ":2050,"ĠH":2051,"ĠìĿ´ìĹĲ":2052,"ĠìĿ´ëģ":2053,"ĠìĽ¹":2054,"Ġì¤Ģë¹Ħ":2055,"ëĺĲíķľ":2056,"Ġë³´ìķĪ":2057,"ol":2058,"Ġ23":2059,"Ġê°Ģì§Ħ":2060,"ëĦĲ":2061,"Ġìĭ¶":2062,"âĢĺ":2063,"ìĿ¸íĬ¸":2064,"Ġìĸ´ëĸ¤":2065,"Ġê¸´":2066,"Ġb":2067,"ĠìĿ´ë¦Ħ":2068,"Ġê±´ë¬¼":2069,"ĠìĤ´íķ´":2070,"ìŀĲëĵ¤ìĿĦ":2071,"ê°ľìĿĺ":2072,"íĵ¨":2073,"ĠíĶĦë¡ľê·¸ëŀ¨":2074,"Ġ100":2075,"Ġìłľìŀĳ":2076,"Ġë°Ľìķĺ":2077,"Ġë²łìĿ´":2078,"Ġìļ©ìĿĺ":2079,"ìĺģêµŃ":2080,"Ġëª°":2081,"ĠìĿĢíĸī":2082,"êµ°ìĿ´":2083,"íķĺê¸°ë¡ľ":2084,"ĠìŀĪëıĦë¡Ŀ":2085,"ĠìĿ¸ì§Ī":2086,"Ġìĸ´ë¦°":2087,"Ġê´Ģíķľ":2088,"ra":2089,"´íĵ¨":2090,"Ġëŀ":2091,"´íĵ¨íĦ°":2092,"ĠìŀĪëįĺ":2093,"ìĭĿìĿĦ":2094,"íİĺìĿ¸":2095,"ë¶Ģë¥¼":2096,"Ġìĺ¤íĽĦ":2097,"ìĤ¬ìĹĲ":2098,"íķĺëĬĶëį°":2099,"Ġê³µìĭĿ":2100,"Ġê³µíķŃ":2101,"ìĿĮìĿĦ":2102,"Ġê´Ģê´ĳ":2103,"Ġì°©":2104,"ëħĢëĬĶ":2105,"ĠíĤ¤":2106,"IN":2107,"Ġëħ¸ëıĻ":2108,"íĴį":2109,"Ġì§Ģê¸Ī":2110,"ĠíĮĶëłĪìĬ¤íĥĢìĿ¸":2111,"ìĦ¸ë¥¼":2112,"ĠìĦ±ëªħ":2113,"Ġê²ĥìĹĲ":2114,"ë¬¸ìĿĦ":2115,"Ġêµ¬ì¡°":2116,"tic":2117,"ì¢":2118,"íķĦ":2119,"ìĭłìĿĢ":2120,"Ġì»¤":2121,"Âł2005":2122,"ìĭ±íĦ´":2123,"ëıĦë¥¼":2124,"ê´Ģê³Ħ":2125,"ì¸µ":2126,"ĠìķĪìłĦ":2127,"Ġì¶ľìĭł":2128,"Ġ''":2129,"ëĮĢê°Ģ":2130,"Ġì°½":2131,"Ġìľłëªħ":2132,"ĠG":2133,"ìŀ¥ìĿĺ":2134,"ì§Ģê°Ģ":2135,"ë§¹":2136,"Ġê³łìľĦ":2137,"ĠëıĦì°©":2138,"ë£Įë¥¼":2139,"ì§Ģë§ī":2140,"ìŀĲìĻĢ":2141,"Ġëħ¸ëł¥":2142,"íļĮê²¬":2143,"Ġ/":2144,"ìĦľë¥¼":2145,"ëĿ¼ìļ´":2146,"Ġì¡°ì§ģ":2147,"íĥĪë¦¬ìķĦ":2148,"19":2149,"ëĭ¤ëĵľ":2150,"´ëŁ":2151,"ìĪĺë¥¼":2152,"Ġ2006":2153,"Ġê°ĸê³ł":2154,"ĠëĤ©ì¹ĺ":2155,"Ġë°ĸ":2156,"ĠëıĦìĽĢ":2157,"Ġì´īêµ¬":2158,"ëĪĦ":2159,"ê°ĻìĿĢ":2160,"Ġê²©":2161,"ìĿ´ëĿ¼ëĬĶ":2162,"ë¦Ń":2163,"ìĤ¬ìĿ´íĬ¸":2164,"ìļ°ë¦¬ëĬĶ":2165,"íı°":2166,"ìĦłìĿĦ":2167,"ìĸ´ëĤĺ":2168,"ìĸĢë§Ī":2169,"Ġìĺ¤ëĬĶ":2170,"ĠíķĺëĤĺ":2171,"íĨ¤":2172,"ê°Ģëĵ¤ìĿĢ":2173,"Ġê·¹":2174,"us":2175,"ë¡¬":2176,"ì§Ģì§Ģ":2177,"ëĮĢíķľ":2178,"ëıĻìķĪ":2179,"Ġê¸¸":2180,"Ġë¬¸ìłľë¥¼":2181,"Ġê³µëıĻ":2182,"ĠìĬ¤íĥĢ":2183,"ëĨ":2184,"ĠíĮĢ":2185,"ĠìŀĲìľł":2186,"ĪĪ":2187,"Ġì§Ģêµ¬":2188,"ë²Į":2189,"Ġì°¨ì§Ģ":2190,"ce":2191,"Ġìĩ":2192,"ìŀ¡":2193,"êµŃìĿ¸":2194,"Ġ40":2195,"ig":2196,"°ëįĺ":2197,"ê¸´":2198,"Ġë°ľìĸ¸":2199,"ë¥Ļ":2200,"ĠR":2201,"Ġë§¥":2202,"íļĮë¥¼":2203,"Ġê±°ìĿĺ":2204,"ĠëĨĵ":2205,"ëķĮ":2206,"íķµ":2207,"ëħĲ":2208,"ê·¸ëĭ¤ëĵľ":2209,"ëħĦê°Ħ":2210,"Ġëª©íĳľ":2211,"Ġëĸ¨ìĸ´ì§Ħ":2212,"ìķĦíĶĦ":2213,"Ġìī":2214,"íı¬ëĭĪìķĦ":2215,"ĠëĬĲ":2216,"Ġê°ķì¡°íĸĪëĭ¤":2217,"Ġê²½ìŁģ":2218,"ìłĦíŀĪ":2219,"ë²łìĿ´":2220,"ìķħê´Ģ":2221,"íĸĪìľ¼ëĤĺ":2222,"Ġ&":2223,"Ġ26":2224,"Ġì¶ľìĹ°":2225,"Ġê³¼íķĻ":2226,"ëģ¼":2227,"Ġíħ":2228,"íĺĢ":2229,"ìĹħì²´":2230,"ë´ī":2231,"ìĬ¤íĥĢ":2232,"Ġê²½ì°°ìĿĢ":2233,"ĺë¦¬íı¬ëĭĪìķĦ":2234,"íķĺëĭ¤ê³ł":2235,"ìĿ¼ë³¸":2236,"ëħ¼":2237,"ĠìŀĲìĤ´":2238,"Ġë¯¸êµŃìĿ´":2239,"íĺĦìŀ¬":2240,"Ġìłķë¶ĢìĿĺ":2241,"ê°Ģì§Ģ":2242,"ĠìĹ¬ë¡ł":2243,"Ġê±°ëŀĺ":2244,"ìĭ¬ìĿĦ":2245,"Ġë°ķìĤ¬ëĬĶ":2246,"ë§ĪìĬ¤":2247,"ĠëıĻë¬¼":2248,"Ġìļ°ìĬ¹":2249,"Ġë§İìĿ´":2250,"Ġì¶©ëıĮ":2251,"Ġê¸°ìŀĲíļĮê²¬":2252,"Ġìĺ¤ìłĦ":2253,"JO":2254,"Ġë§ĪìĿ´":2255,"ĠìĻĢ":2256,"Ġm":2257,"ĠëıĪ":2258,"Ġíģ¬ë¦¬ìĬ¤":2259,"ìĹĲìĦľëıĦ":2260,"Ġíĺ¼":2261,"Ġì¡°ì§Ģ":2262,"11":2263,"íķĺëıĦë¡Ŀ":2264,"Ġê°Ģê²©":2265,"Ġìĺ¤ëĬĺ":2266,"Ġë§Īì§Ģë§ī":2267,"ì¹´ìĹĲ":2268,"Ġì°¸ìĹ¬":2269,"Ġì»´íĵ¨íĦ°":2270,"ĠìķĬëĬĶëĭ¤":2271,"Ġê·ľëª¨":2272,"Ġë¶ģë¶Ģ":2273,"íĳ¸":2274,"Ġìĭľë¯¼":2275,"Ġë²Ķì£Ħ":2276,"ìĨĲ":2277,"íŀĮ":2278,"ëĵ¤ëıĦ":2279,"Ġë¶Īë²ķ":2280,"2005":2281,"Ġìŀ¬íĮĲ":2282,"ìĿĺë¥¼":2283,"ê·ł":2284,"ĠíķĻêµĲ":2285,"50":2286,"íĩ´":2287,"ĠìĤ¬íĥľ":2288,"Ġ29":2289,"ĠìĦľìļ¸":2290,"ĠìŀĲìĭłìĿ´":2291,"Ġë¹ĦëĤľíĸĪëĭ¤":2292,"ľ»":2293,"ĠìĤ¬íļĮ":2294,"Ġê²°íĺ¼":2295,"INS":2296,"ĠìĹ°ìĦ¤":2297,"ĠíĸīëıĻ":2298,"Ġìļ´ìĺģ":2299,"ê²ĥìĿĢ":2300,"JOINS":2301,"Ġìŀĥ":2302,"Ġë°¤":2303,"íĸĪìĹĪëĭ¤":2304,"ì¡°ìĤ¬":2305,"Ġìŀ¥ê´ĢìĿĢ":2306,"Ġì°¸ê°Ģ":2307,"ur":2308,"ĠìĿ´ëĬĶ":2309,"Ġë§ĪìĿĦ":2310,"Ġëª»íĸĪëĭ¤":2311,"ê¸°ëıĦ":2312,"Ġë¶ĢìĿ¸":2313,"ëĭĪëĬĶ":2314,"Ġê²½ì°°ìĿ´":2315,"ĠëŁ°ëįĺ":2316,"12":2317,"ĠìŀĪì§Ģë§Į":2318,"Ġì²ĺìĿĮìľ¼ë¡ľ":2319,"Ġê³µíĻĶëĭ¹":2320,"ëĤĺëĿ¼":2321,"Ġê°ĲìĨĮ":2322,"et":2323,"ë²¨":2324,"Ġì¦ī":2325,"Ġê¸Īì§Ģ":2326,"ĠìĿ´ìķ¼":2327,"ĠìĪĺê°Ĳ":2328,"ĠìĿ¸ìĩĦ":2329,"ëĲĺìĹĪ":2330,"ìľ¼ë¡ľë¶ĢíĦ°":2331,"Ġë°ĿíŀĪ":2332,"ĠìķĦìĭľìķĦ":2333,"Ġìľłì§Ģ":2334,"Ġìĭ¬ê°ģ":2335,"Ġê±°ë¶Ģ":2336,"Ġë§ĮìĹĲ":2337,"ĠíĥĢìŀĦ":2338,"ìĥ¤ëĿ¼":2339,"ë³¼":2340,"Ġë°ĿíĺĶ":2341,"ìĿ´ëŀĢ":2342,"ĠíĮĲê²°":2343,"Ġì¢ĭìĿĢ":2344,"ë¹Ī":2345,"ìĤ¬ìĿ¼":2346,"Ġì¹ľêµ¬":2347,"Įë¦¬":2348,"Ġ28":2349,"ìĿ´ë¥¼":2350,"Ġê³µê¸ī":2351,"ê·Ģ":2352,"ì¼ĵ":2353,"Ġë¶Īêµ¬":2354,"ë¯¼ì£¼":2355,"ĠíĦ°íĤ¤":2356,"Ġìļ´ëıĻ":2357,"ì¹ĺê°Ģ":2358,"ê´´":2359,"íĸĪëĭ¤ëĬĶ":2360,"ìłľë¥¼":2361,"ĠìĤ¼":2362,"Ġ2005":2363,"Ġëıħíķ´":2364,"un":2365,"ìĬĪ":2366,"ìĿ´ìĻĢ":2367,"ìĤ¬íļĮ":2368,"ĠìĿ´ìĥģìĿĺ":2369,"ëŀį":2370,"ĠìĹĨìĿ´":2371,"Ġìķ½ìĨį":2372,"Ġë¯¼ê°Ħ":2373,"ĠìĽ¹ìĤ¬ìĿ´íĬ¸":2374,"Ġê¸°ìĹħ":2375,"Ġì¹´ë":2376,"Ġë¶ģíķľìĿĺ":2377,"Ġì¤ĳìļĶíķľ":2378,"ĠëĪĪ":2379,"ĠíĨµê³¼":2380,"ĠìķŀìĦľ":2381,"ì§Ģêµ¬":2382,"Ġë§¡":2383,"ëŁ´":2384,"íĽĦë³´":2385,"Ġë³´ëĤ´":2386,"Ġìķŀìľ¼ë¡ľ":2387,"ê·ľëª¨":2388,"Ġëĭ¹êµŃìĿĢ":2389,"ê°ĲìĿĦ":2390,"ì¢Į":2391,"ìĿ´ê°Ģ":2392,"ë¡¤":2393,"ĠìłĦìĹĲ":2394,"ĠíĪ¬ìŀĲ":2395,"ì³¤ëĭ¤":2396,"ĠìĦ±ëªħìĹĲìĦľ":2397,"ìĦ¤ëªħ":2398,"ì¤Ħ":2399,"el":2400,"ëĭĮ":2401,"ìĿ¸ìĿĺ":2402,"ĠìĪĺë°±":2403,"ëĵľìĿĺ":2404,"ĠêµŃê²½":2405,"Ġë°Ķê·¸ëĭ¤ëĵľ":2406,"Ġë¶ģíķľìĿ´":2407,"ìĤ¬ìĻĢ":2408,"ìĥĪ":2409,"ì¹ł":2410,"Ġë¶Ģì¡±":2411,"¨¹":2412,"ëĭĪìĬ¤íĥĦ":2413,"ĠìĨĮë¹Ħ":2414,"Ġíĺ¸íħĶ":2415,"Ġë³´ìĿ¸ëĭ¤":2416,"ec":2417,"ËĿ":2418,"ê³¨":2419,"ĠëĭĪ":2420,"Ġëıħíķ´ìĦ¤ëªħ":2421,"ì¹´ìĹĲëĭ¤":2422,"id":2423,"ĠëĮĢìĥģ":2424,"ìŀĲëĵ¤ìĿĺ":2425,"ëª¬":2426,"ĠëĤ®":2427,"ĠìĽĢ":2428,"ĠCNN":2429,"ter":2430,"ĠìĿ´ë£":2431,"ĠìĿ¼ìľ¼":2432,"Ġë¹Ī":2433,"Ġê²Ģì°°":2434,"ĩĮ":2435,"Ġì£¼ëĳĶ":2436,"ë£¹":2437,"ĠìĤ¬ëŀĮëĵ¤ìĿĢ":2438,"ĠíĻĺê²½":2439,"Ġë²łìĿ´ì§ķ":2440,"ĠìĿ´ëĵ¤":2441,"ĠíĻį":2442,"Ġfor":2443,"Ġì§Ģë°©":2444,"ëł¸":2445,"ĠìłĦë§Ŀ":2446,"íĬ¸ëĬĶ":2447,"Ġì§ķ":2448,"ĠëĤ¨ìĦ±":2449,"ĠíĹ¬":2450,"ĠíĻķìĭ¤":2451,"ìĽĲëĵ¤ìĿ´":2452,"ĠìĤ¬ë§ĿíĸĪëĭ¤":2453,"ëĬĲ":2454,"Ġêµ¬ìĦ±":2455,"Ġë©´":2456,"íħľ":2457,"80":2458,"Ġê¸°ëĮĢ":2459,"ĠìķĮê³ł":2460,"ĠíĺĦì§Ģ":2461,"ìĥ¤ëĿ¼íĶĦ":2462,"©Ķ":2463,"ë¨¼":2464,"íķľêµŃ":2465,"ì£¼ëĬĶ":2466,"SA":2467,"ê°Ģë¥¼":2468,"ëĿ¼ìĿ¸":2469,"Ġê¸°ìĨĮ":2470,"ìĿ¸ëĵ¤ìĿ´":2471,"ĠìĹŃíķł":2472,"ëħĦìĹĲ":2473,"íĤ¹":2474,"ĠíļĮìĤ¬":2475,"Ġ2008":2476,"ĠKore":2477,"ìĿĢíĸī":2478,"ìķĪìĹĲ":2479,"Ġëª¸":2480,"ĠìĽĢì§ģ":2481,"Ġìµľì´Ī":2482,"ì°¨ë¡Ģ":2483,"Ġë°±ìķħê´Ģ":2484,"Ġê¹Į":2485,"ĠìĹĦ":2486,"ë§Įëĭ¬ëŁ¬":2487,"Ġë¹Ħìļ©":2488,"ì¡Įëĭ¤ê³ł":2489,"ĠëĲĺëĬĶ":2490,"ìµľê·¼":2491,"ëŀµ":2492,"Ġê·¸ë¥¼":2493,"ĠíıŃëł¥":2494,"am":2495,"ot":2496,"res":2497,"ê°Ģê°Ģ":2498,"ĠëĿ¼ìĿ´":2499,"¬íķľ":2500,"ëŁ¬ë¦¬":2501,"Ġê²ĥìĿ´ë©°":2502,"ĠìĦ±ëªħìĿĦ":2503,"ĠìĦľë¹Ħ":2504,"İìĿĢ":2505,"ê°ĢëĭĪìĬ¤íĥĦ":2506,"ê¸°ìĿĺ":2507,"Ġë¯¸ìĤ¬ìĿ¼":2508,"¤Ħ":2509,"ìĻĦ":2510,"ĠíļĮëĭ´ìĿĦ":2511,"ëĭ¤ë¥¸":2512,"ĠëĦĪ":2513,"Ġê³µê²©ìĿĦ":2514,"ĠìłĦíĪ¬":2515,"ĠìĹ°íķ©":2516,"Ġë§¤ì¼ĢìĿ¸":2517,"Ġê·Ģ":2518,"ĠìĤ¬ë§ĿíĸĪëĭ¤ê³ł":2519,"ë§ģ":2520,"ê¸°êµ¬":2521,"Ġíķĺë£¨":2522,"ĠëĨĢ":2523,"íķĺìŀĲ":2524,"ë§İìĿĢ":2525,"Ġê°Ī":2526,"ĠìķĦëĭĪëĭ¤":2527,"Ġë§ĲìĿĦ":2528,"Ġë°ĺêµ°":2529,"ëĥĪëĭ¤":2530,"Ġë²Īì§¸":2531,"ĠíĿ¬ìĥĿ":2532,"Ģë¡ľ":2533,"ìĿ´ëŁ¬":2534,"ë§¨":2535,"ìĽĲìĹĲ":2536,"ìĽĲëĵ¤ìĿĢ":2537,"ĠìłķëıĦ":2538,"íĸĪìĿĦ":2539,"ìĦ¸ìĿĺ":2540,"ĠìĽĲë¬¸":2541,"Ġì§ģìłĳ":2542,"íĿĲ":2543,"Ġìĺģíĸ¥ìĿĦ":2544,"ìī":2545,"ëĿ¼ëıĦ":2546,"ìŀĲëĵ¤ìĹĲê²Į":2547,"ì¸¡ìĿĢ":2548,"Ġë¹Į":2549,"íĬ¸ë¥¼":2550,"Ġê²ĥìĿ´ëĿ¼ëĬĶ":2551,"ìĪľ":2552,"ĠìĽĮìĭ±íĦ´":2553,"Ġìĩ¼":2554,"Ġë¶Īêµ¬íķĺê³ł":2555,"Ġë¬¸ìłľê°Ģ":2556,"íĺ¹":2557,"Ġì¡°ì¹ĺë¥¼":2558,"ìĺĢëįĺ":2559,"íı¬ìĿ¸íĬ¸":2560,"ìĬ¤íħľ":2561,"ĠíĹĮ":2562,"Ġëª¨ìĬµìĿĦ":2563,"ĠìĨĮìľł":2564,"ĠëĶ¸":2565,"ĠíĬ¹ë³Ħ":2566,"ĠëĨĴìĿĢ":2567,"ĠìĿĺê²¬":2568,"artic":2569,"Ġê°ĢëĬ¥ìĦ±ìĿ´":2570,"Ġíį¼":2571,"ë¥´ì½Ķ":2572,"Ġìŀ¥ê´Ģ":2573,"íķĺëįĺ":2574,"ìļ±":2575,"ĠìĿ¸ìļ©":2576,"ìłĲìĿĦ":2577,"article":2578,"NA":2579,"ĬìĿĢ":2580,"ê·¸ëĵ¤ìĿĢ":2581,"Ġë¯¸ìĸĢë§Ī":2582,"Ġê¸°ê°Ħ":2583,"íı´":2584,"Ġìĭłë¬¸":2585,"ĠìĹŃìĤ¬":2586,"ĠëĬĺ":2587,"ĠìķĮëł¤ì¡Įëĭ¤":2588,"ìĹĨ":2589,"ĠìĿ¸íķľ":2590,"ì±Ħ":2591,"ĠìķĦë²Ħ":2592,"Ġê·¸ëħĢ":2593,"íŀĲ":2594,"Ġë¬´ë":2595,"Ġë°ĽìĿĦ":2596,"ĠìĤ¬ë§Ŀíķľ":2597,"Ġì§ĢëĤĺ":2598,"Ġë³ĢíĻĶ":2599,"Ġìºĺë¦¬íı¬ëĭĪìķĦ":2600,"ĠìĶ¨":2601,"Ġë´ī":2602,"ĠìĿĳ":2603,"ëĲĲìľ¼ë©°":2604,"Ġì§ĢìĹŃìĹĲìĦľ":2605,"ìĿ´ìĸ´":2606,"ìķŀ":2607,"Ġìķ¤":2608,"ìĤ¬ê´Ģ":2609,"ĠìĿ´íĥĪë¦¬ìķĦ":2610,"Ġìĥ¤":2611,"ì°¸":2612,"Ġë°ľìĤ¬":2613,"Ġê°ľìĿ¸":2614,"ì·¨":2615,"Ġh":2616,"ìĭľì½Ķ":2617,"ë¶Ģê°Ģ":2618,"ìĺ¤ëĬĶ":2619,"ħĦ":2620,"Ġë¿Ĳ":2621,"ë¦¬ëĭ¤":2622,"ëĿ¼ë©°":2623,"ê·¸ìĿĺ":2624,"ê·¸ëħĢëĬĶ":2625,"ëĮĢìĹĲ":2626,"Ġê°ķëł¥":2627,"Ġíķµë¬´":2628,"ay":2629,"íķ´ìĦľ":2630,"ì¦ĪëĬĶ":2631,"Ġëľ»":2632,"ë¦¬ìĹĲìĦľ":2633,"Ġë³Ħ":2634,"Ġë§Īëł¨":2635,"Ġì½ĺ":2636,"Ġë°ľìĥĿíĸĪëĭ¤":2637,"Ġê²ĥìŀħëĭĪëĭ¤":2638,"Ġì¤ĳìĭ¬":2639,"ìĭłìĿ´":2640,"ë¹Ħëĵľ":2641,"ĠìµľëĮĢ":2642,"Ġê°ľìµľ":2643,"Ġíİ¼":2644,"Ġë²Įìĸ´":2645,"Ġê³¼ìłķ":2646,"ìĤ¬ìłĦ":2647,"ëĮĢëĬĶ":2648,"ĠëĲĲ":2649,"Ġ60":2650,"Ġê°ķíĻĶ":2651,"ì»µ":2652,"Ġíĳ¸":2653,"ìĽĲìĹĲìĦľ":2654,"ĠìŀĪê³ł":2655,"ëĮĢíĨµëł¹":2656,"ìĭłìĿĦ":2657,"Ġë¨¹":2658,"êµ´":2659,"ëĵľë¦¬":2660,"Ġë§ĲíĸĪìĬµëĭĪëĭ¤":2661,"Ġìĸ´ëł¤":2662,"ĠëĮĢíĨµëł¹ê³¼":2663,"Ġì¶Ķìłķ":2664,"Ġëıħë¦½":2665,"ĠìłĦì²´":2666,"ìĻĶ":2667,"ĠíĮ¬":2668,"ad":2669,"Īëł¨":2670,"Ġíĩ´":2671,"ĠìĤ¬ìļ°":2672,"Ġìľłê¶Į":2673,"ĠìķĬìķĺëĭ¤ê³ł":2674,"ķìĭľì½Ķ":2675,"ê°Ķëĭ¤":2676,"ê·¸ë¦¬ê³ł":2677,"Ġì§ĢëĤľëĭ¬":2678,"ĠìĹĨìĹĪëĭ¤":2679,"íĴĪìĿĦ":2680,"The":2681,"Ġë¯":2682,"ëĵľê°Ģ":2683,"íĮĶ":2684,"âĢĻâĢĻ":2685,"ĠíļĮìĿĺ":2686,"ë²łíĬ¸":2687,"ĠíıĲìĩĦ":2688,"ê²¼":2689,"ë§¥":2690,"Ġìłľì¡°":2691,"Ġë¬¸ìłľìĹĲ":2692,"ìĭľíĤ¬":2693,"ĠìĿ¼ë°ĺ":2694,"ĠìĹ¬ìŀĲ":2695,"Ġì¶ľìłĦ":2696,"Ġì§ĢìĹŃìĹĲ":2697,"Ġê´Ģëł¨ëĲľ":2698,"Ġê³ĦíļįìĿĦ":2699,"ĥĪëĭ¤":2700,"ìĿ¸ëıĦ":2701,"ìĬ¤ìĻĢ":2702,"ìħĶ":2703,"Ġê°ĢìŀĲ":2704,"ĠìĦłê³ł":2705,"ĠìĻĶëĭ¤":2706,"ĠíĺĲìĿĺë¥¼":2707,"Ġìºł":2708,"íľĺ":2709,"ëĭµ":2710,"Ġê²ª":2711,"ìĬ¤ì¹´":2712,"ë¹Ħíĸī":2713,"ĠëĤĺëĿ¼":2714,"âĢĻ(":2715,"ĠìķĮì¹´ìĹĲëĭ¤":2716,"Ġì´Ŀë¦¬ê°Ģ":2717,"ĠìĿ´ëŁ¬íķľ":2718,"ëłĩ":2719,"íļĮìĹĲìĦľ":2720,"ĠìĦłíĥĿ":2721,"ì»´":2722,"Ġë²ĦëĿ½":2723,"ëĿ¼ìĿ´ëĤĺ":2724,"Ġê±´ìĦ¤":2725,"com":2726,"st":2727,"ë¬¼ìĿĦ":2728,"ĠìĹ´ë¦¬ëĬĶ":2729,"ìĿ´ìŀĲ":2730,"ĠìĹ°ê¸°":2731,"ìĦ¼íĬ¸":2732,"Ġíļ¨":2733,"Ġì§Ģì§Ħ":2734,"ëį´":2735,"Ġì£¼íĥĿ":2736,"ĠìĬĪ":2737,"ĠìĪĺíĸī":2738,"ĠìŀĪê²Į":2739,"),":2740,"ìłľë¡ľ":2741,"Ġë³´ëĭ¤":2742,"ĠìłľìķĪ":2743,"ĠíĥĢê³ł":2744,"íķĳ":2745,"ìłĦìĹĲìĦľ":2746,"ë°Ķëħ¼":2747,"íĹĪ":2748,"ĠíķĦìļĶíķľ":2749,"Ġëĭ´ëĭ¹":2750,"ìĭľì¼°ëĭ¤":2751,"Ġë¯¿":2752,"ìĹ°êµ¬":2753,"íķľëĭ¤ëĬĶ":2754,"Ġë³´ê³łìĦľ":2755,"ĠìĪĺì²ľ":2756,"ĠìĿĺíķĺë©´":2757,"Ġìŀħìŀ¥ìĿĦ":2758,"Ġìĺ¬ëĿ¼":2759,"ĠêµĲìĪĺëĬĶ":2760,"ĠëĤ´ëħĦ":2761,"ìĦ¼íĦ°":2762,"ìģ":2763,"íĺģ":2764,"ĠìĦłìĸ¸":2765,"Ġ2004":2766,"ĠëįĶìļ±":2767,"Ġìķ¼ëĭ¹":2768,"Ġê¸°ìŀĲíļĮê²¬ìĹĲìĦľ":2769,"Ģëĭ¤":2770,"Ġì±":2771,"ĠìłĦìĦ¸ê³Ħ":2772,"ĠìĭľëıĦ":2773,"Ġìŀ¬ê°ľ":2774,"ch":2775,"ìĿ´ëĵ¤ìĿĢ":2776,"Ġëĭ¤ìĿ´":2777,"ĠëĩĮ":2778,"ìŀĲëĵ¤":2779,"ëŀĲëĭ¤":2780,"ĠìŀĪìĹĪëĭ¤ê³ł":2781,"ìľĦìĹĲ":2782,"ë¬´ë¥¼":2783,"ìĹĪìľ¼ë©°":2784,"Ġì¦Ŀê±°":2785,"¨ë¦¬":2786,"ìĿ´ë¡ľ":2787,"íķĺê²łëĭ¤ê³ł":2788,"´ëŀ":2789,"ëħĦê¹Įì§Ģ":2790,"ĠëĤ¨ìķĦ":2791,"ĠëķĮë¬¸":2792,"Ġë¶ĦìĦĿ":2793,"»ê²Į":2794,"ì¿":2795,"ëĬĶì§Ģ":2796,"ë¡Ń":2797,"ë¡ľë¥¼":2798,"ĠìĪĺì¤Ģ":2799,"ĠìĿ´ë£¨ìĸ´":2800,"Ġand":2801,"íĥķ":2802,"Ġê²½ìĦł":2803,"ìļ°ì£¼":2804,"Ġ31":2805,"íķĻêµĲ":2806,"ìĹ°íķ©":2807,"ĶĶ":2808,"ìĽł":2809,"Ġì£¼ë³Ģ":2810,"ìĨĮë¥¼":2811,"ì¦Į":2812,"´ëĲľ":2813,"Ġë§Įëĵ¤ìĸ´":2814,"ìĶ":2815,"ìĬ¤ìĹĲ":2816,"ìĬ¤ì½Ķ":2817,"ĠíĻķë³´":2818,"ver":2819,"ì¹¸":2820,"ë§ĮìĹĲ":2821,"ĠíĸĪëĭ¤ê³ł":2822,"ìĿ¸ëĵ¤ìĿĢ":2823,"ĠìĬ¤íİĺìĿ¸":2824,"Ġê±°ì£¼":2825,"ìĸ´ëĤľ":2826,"Ġì¹¼":2827,"ìķłëĤĺ":2828,"ĠëĤ¨ìŀĲ":2829,"ìĿ¼ë¶Ģ":2830,"Ġíı´":2831,"Ġì¡°ìĤ¬ë¥¼":2832,"Ġíķ´ìĻ¸":2833,"ĠìĤ¬ëŀĮìĿ´":2834,"ĠíĻĶìŀ¬":2835,"Ġn":2836,"ëĿ¼ì§Ī":2837,"ĠìľĦìĽĲíļĮ":2838,"íĮĮíĤ¤ìĬ¤íĥĦ":2839,"ĠìĿ´ë¤Ħ":2840,"ĠìĿĺë£Į":2841,"íĶĦëĬĶ":2842,"ëĳĲê³ł":2843,"Ġë°°ìļ°":2844,"Ġì°¾ìķĦ":2845,"įìĤ¬":2846,"ìĿ´ìĬ¤ëĿ¼ìĹĺ":2847,"Ġë§¨":2848,"ĠìĿ´ê³³":2849,"ĠìķĪë³´":2850,"ë¡¬ë¹ĦìķĦ":2851,"im":2852,"ë¹Į":2853,"ĠìĹĲëĦĪ":2854,"Ġì¦Ĳ":2855,"ĠëģĮ":2856,"ë§ĮìĿ´":2857,"ĠìĭľìĦ¤":2858,"ĠìŀĲê¸Ī":2859,"ĠíĻ©":2860,"ĠëĤ¨íİ¸":2861,"op":2862,"ĠìĿ´ëı":2863,"ĠìĹ¬ê°Ŀ":2864,"ìĬ¤íģ¬":2865,"ĠìĦ¼":2866,"ìļ°ë¦¬":2867,"ĠêµĲìľ¡":2868,"ĠìĿĮìķħ":2869,"ĠíĶ¼íķ´ë¥¼":2870,"ht":2871,"Ġë´":2872,"ìłģìĿ´":2873,"íģ¼":2874,"ĠìĿĺë¯¸":2875,"ĠíļĮë³µ":2876,"Ġìĸ´ëĸ»ê²Į":2877,"30":2878,"Ġìħ":2879,"´ëĤ":2880,"ìļ´ëıĻ":2881,"ĠìķĦì¹¨":2882,"ĠìĤ¬ê±´ìĹĲ":2883,"ĠëĮĢìĦłíĽĦë³´":2884,"ĠíĽĪëł¨":2885,"Ġê¹Įì§Ģ":2886,"ĠìĿ´ëıĻ":2887,"ëĬĶëĭ¤":2888,"ĠìĤ¬ìĥģ":2889,"ìłķìĹĲ":2890,"Ġíķ´ë³":2891,"ĠëªħìĿ´":2892,"ĠìĺĪìłķìĿ´ëĿ¼ê³ł":2893,"ĠíĴĢ":2894,"Ġìłķë³´ë¥¼":2895,"Ġëĳĺ":2896,"ĠìĹĶ":2897,"ĠìłĦëĭ¬":2898,"ìłĦìĿ´":2899,"ĠìĿ¼ìĿĦ":2900,"íĹ¤":2901,"ëį°ìĿ´":2902,"ìĬ¨ìĿĢ":2903,"ĠìĿ´ìľłë¡ľ":2904,"Ġê²ĮìŀĦ":2905,"Įë¦¬ìĹĦ":2906,"ìĤ¬ê±´":2907,"ĠìĭľìĬ¤íħľ":2908,"ì°¬":2909,"ë²ĦíĬ¸":2910,"ĠíıŃíĥĦíħĮëŁ¬":2911,"ĠìĿ´ëģĮ":2912,"ëĭ¹êµŃìĿĢ":2913,"Ġë¯¸êµŃê³¼":2914,"ĠìĽ¨":2915,"ĠìĦĿìľł":2916,"ëĤĺëĭ¤":2917,"ë¦¬ëħ¸":2918,"ĠëĤ´ëł":2919,"Ġëĭµ":2920,"ë¶ĢìĿĺ":2921,"ëĵľë¡ľ":2922,"Ġì°¬":2923,"Ġìłľê¸°":2924,"ìĦ¸ëł¥":2925,"Ġíĥĳ":2926,"ĠìľĦìĽĲ":2927,"Ġë³´ìĺĢëĭ¤":2928,"ìĸµëĭ¬ëŁ¬":2929,"ĠìĭľìŀĳíĸĪëĭ¤":2930,"ëĳĺ":2931,"ĠìŀĳìĹħ":2932,"Ġíľ´ëĮĢ":2933,"20":2934,"AP":2935,"Ġìĭľìŀ¥":2936,"Ġê´Ģíķł":2937,"Ġì±ħìŀĦ":2938,"Ġ0":2939,"íķĺìĿ´":2940,"ì¼ľ":2941,"ĠíĶĦë¦¬":2942,"íĶ¼ìĸ¸":2943,"ĠìķĦíĶĦê°ĢëĭĪìĬ¤íĥĦ":2944,"ĠìĿ´ìłĦ":2945,"íĶĦíĬ¸":2946,"ë¬´íĺĦ":2947,"ìĺģíĻĶ":2948,"ĠëĺĲëĬĶ":2949,"Ġì¹ĺë£Į":2950,"ì§ĢìĿĺ":2951,"êµŃìłľ":2952,"ĠìĪĺìĪł":2953,"ìĸ´ê°Ģ":2954,"Ġíķ´ìķĪ":2955,"Ġ198":2956,"ĠìĹŃìĭľ":2957,"Ġì§ĢëıĦìŀĲ":2958,"Ġìĸ´ë¦°ìĿ´":2959,"ĠìŀĶ":2960,"íĬ¸ë¡ľ":2961,"ĠìĿ¸ê¶Į":2962,"Ġìĸµ":2963,"Ġë¬´ìĥ¤ëĿ¼íĶĦ":2964,"ĠìŀĲìĭłëĵ¤ìĿĺ":2965,"Ġìĸ¼ë§Ī":2966,"ow":2967,"Ġd":2968,"ĠìłĦíĻĶ":2969,"ì¹ĺê³ł":2970,"íĹĮ":2971,"ìĸµìĽĲ":2972,"ìĤ¬ê³ł":2973,"ëħĦëĮĢ":2974,"Ġìłľì¶ľ":2975,"Ġê°ĲìĹ¼":2976,"ĠìĤ´ê³ł":2977,"ĠìĥģìĽĲìĿĺìĽĲ":2978,"ìĶ¨ëĬĶ":2979,"ë¡ľë¦¬ëĭ¤":2980,"ìŀĲíļĮëĭ´":2981,"ìĭľëĬĶ":2982,"Ġìĭ¸":2983,"ëĦ¤ìĭľìķĦ":2984,"ĠìĤ°ìĹħ":2985,"Ġì²łìĪĺ":2986,"ê¹Ģ":2987,"ve":2988,"ĠJ":2989,"ìķ¡":2990,"ìľ¼ë©´":2991,"Ġìľ¡":2992,"ìĿ¼ìĿĦ":2993,"Ġìłľìĭľ":2994,"ĠíĥĲ":2995,"Ġë°Ķë¡ľ":2996,")'":2997,"ëªħê³¼":2998,"êµ°ìĿĺ":2999,"ĠíĸīìĤ¬":3000,"Ġê´Ģê´ĳê°Ŀ":3001,"¶ģ":3002,"Ġë§Ŀ":3003,"ëĵľë¥¼":3004,"Ġìłľìŀ¬":3005,"Ġìĭ¤ì¢ħ":3006,"ĠìķĪìĹĲ":3007,"ir":3008,"ĠìķĦëĭĮ":3009,"ëĭ¹ìĿĢ":3010,"ëĭ¨ìĿĢ":3011,"Ġíĸīìłķë¶Ģ":3012,"ĠìĽĶëĵľ":3013,"ëĵ¤ë¡ľ":3014,"ìĬ¤ë¡ľ":3015,"ìĸ¼":3016,"ĠìĪĺìļ©":3017,"Ġëįĺ":3018,"Ġíı¬íķ¨íķľ":3019,"íıŃíĥĦ":3020,"ë´":3021,"ë§ĮìĽĲ":3022,"ìĦ±ìĹĲ":3023,"Ġë¹Ħìĥģ":3024,"íķĻìĥĿ":3025,"Ġì¤ĳêµŃìĿĺ":3026,"ì§ľ":3027,"ìĪĺë¡ľ":3028,"Ġë¶Ģëª¨":3029,"Ġì§Ĳ":3030,"Ġì¡°ì¹ĺ":3031,"ìĽĶìĹĲ":3032,"ĠìĦłìłķ":3033,"íķĢ":3034,"ìĬ¤íĦ´":3035,"ĠìĿ¼ìĿ´":3036,"ĠëłĪìĿ´":3037,"¬ìĺģ":3038,"²Ħ":3039,"ĦĪ":3040,"ĠìĤ¬ìĹħ":3041,"ĠìĭľìķĦ":3042,"Ġìĭ¤íĮ¨":3043,"íĺķìĿĦ":3044,"ê²łëĭ¤ëĬĶ":3045,"ĶíĶ¼ìĸ¸":3046,"ìĿ´ëĵ¤":3047,"ìĪĺì§Ģ":3048,"Ġë¶Ģë¶Ħ":3049,"ìĨĮìĹĲìĦľ":3050,"Ġre":3051,"íĺĪ":3052,"Ġë¶ĢíĨµëł¹":3053,"Ġ2003":3054,"ĠìĨĮìĭĿíĨµ":3055,"ĠO":3056,"ĠëĽ":3057,"Ġê¸°ëħĲ":3058,"ëıĻìĿĦ":3059,"íĶĦë¡ľ":3060,"ìľłëŁ½":3061,"Ġëħ¹":3062,"ĠìŀħìĿĢ":3063,"Ġìĺ¨ëĿ¼ìĿ¸":3064,"íķĺëł¤ëĬĶ":3065,"Ġê³§":3066,"Ġì£¼ìĭĿ":3067,"Ġìļ¸":3068,"ëĭ¹íķľ":3069,"Ġëĭ¹êµŃ":3070,"ìĺĢëĭ¤ê³ł":3071,"ìķ½ìĿĦ":3072,"ĠìĥĿê°ģíķľëĭ¤":3073,"ĠíŀĪ":3074,"Ġì§ģìĽĲ":3075,"Ġìĸ´ìłľ":3076,"Ġìłķì¹ĺìłģ":3077,"ìª½ìľ¼ë¡ľ":3078,"ë§ĮìĿĦ":3079,"Ġë¶Ļ":3080,"Ġì¶ķêµ¬":3081,"ĠìĹħì²´":3082,"ĠëĦĪë¬´":3083,"ìĹĩ":3084,"ë¡¯":3085,"íĶĪ":3086,"Ġë²Ĺ":3087,"ĠìķĬëĭ¤":3088,"ĠêµŃë¬´ë¶Ģ":3089,"Ġëª¨ëį¸":3090,"ĠìŀĳíĴĪ":3091,"ut":3092,"¢°":3093,"ĠëĮĢìĭł":3094,"ì²ł":3095,"ì°½":3096,"ìĦ±ìĿĢ":3097,"ĠìĿĺìĽĲìĿĢ":3098,"ĠìķĦëĭĪëĿ¼":3099,"ë¢°":3100,"ìķĦìĿ´":3101,"ìĭ¤ìĿĦ":3102,"ĠíĻķìĤ°":3103,"Ġë©Ķìĭľ":3104,"ìī¬":3105,"ĠìłķíĻķ":3106,"Ġë¹ĦëĶĶìĺ¤":3107,"Ġë¶Īê°Ģ":3108,"ĠëĤĺíĥĢëĤ¬ëĭ¤":3109,"Ġìĭ¬ê°ģíķľ":3110,"ĠìĹŃíķłìĿĦ":3111,"ĠìĪĺìĭŃ":3112,"ëŁ¬ìĭľìķĦ":3113,"Ġì¤ĳìĿ¸":3114,"Ġë¶ĢìĥģìĿĦ":3115,"Ġì´ĿìĦł":3116,"ĠëĮĢíĶ¼":3117,"ĠëĮĢê·ľëª¨":3118,"ë©ĺ":3119,"ë°©ìĨ¡":3120,"ë²łìĬ¤":3121,"ê¾":3122,"Ġìķ¨":3123,"ĠìĤ¬ê³¼":3124,"Ġì£¼ë§Ĳ":3125,"ë°Ķë¸Į":3126,"ëĭ¨ìĿĦ":3127,"Ġìŀ¥ë©´":3128,"ĠíĨµìĭł":3129,"Ġëª©ê²©":3130,"ac":3131,"ëıĦê°Ģ":3132,"Ġê¸°ëĭ¤":3133,"Ġì´¬ìĺģ":3134,"ĠëıĻìĺģìĥģ":3135,"Ġê³łëł¤":3136,"Ġê²½ê¸°ìĹĲìĦľ":3137,"ĠëĵľëŁ¬":3138,"ëłī":3139,"ìĿ¼ìĹĲ":3140,"ĠìĪĺìŀħ":3141,"ë²½":3142,"ìĺ¤ë°Ķë§ĪëĬĶ":3143,"ìĿ¸ì§Ģ":3144,"Ġì£¼ëıĦ":3145,"Ġë¬´ê¸°":3146,"ìĹĪìĬµëĭĪëĭ¤":3147,"Ġëį°ìĿ´ë¹Ħëĵľ":3148,"ĠKorea":3149,"ë°Ķë¸ĮìĽ¨":3150,"ĠìłĦìĭľ":3151,"Ġë¹ĦíĮĲ":3152,"ĠëħĦ":3153,"ĠìĤ¬ë§Ŀíķĺê³ł":3154,"ĠëĮĢìĿĺ":3155,"Ġê°Ģì§Ģê³ł":3156,"Ġë¶ķ":3157,"Ġì¤ĳëıĻ":3158,"íĸīìĿĦ":3159,"Ġìĺ¤ë¥¸":3160,"ĠëıĦë¡ľ":3161,"Ġêµ¬íĺ¸":3162,"ĠêµĲíĨµ":3163,"ĠAP":3164,"Ġì§ĢìĽĲìĿĦ":3165,"ëī´ìļķ":3166,"ĠìĿ´ëŁ°":3167,"ĠìĹĲëĦĪì§Ģ":3168,"ap":3169,"ri":3170,"ĠìłĦíķ´":3171,"Ġíķľëĭ¤ëĬĶ":3172,"ĠíķľëĤĺëĿ¼":3173,"Ġë¶Ģìłķ":3174,"ë¥´ê³ł":3175,"ĠìŀĳìĿĢ":3176,"ĠíĨłë¡ł":3177,"ĠíĿ¬ë§Ŀ":3178,"ĠíĴį":3179,"ë¬´ìŀ¥ê´ĢìĿĢ":3180,"ë¦¬íĬ¸":3181,"êµŃê°Ģ":3182,"Ġê²½ê¸°ë¥¼":3183,"ĠíĮĮë³ĳ":3184,"Ġìķ½ìĸ´":3185,"ĠíķľêµŃìĿĺ":3186,"íĿ¬":3187,"ìĿ¼íķľ":3188,"ëªħìĹĲ":3189,"ĠìĿ¸êµ¬":3190,"íļĮìĹĲ":3191,"Ġëĭ¤ìĸĳ":3192,"Ġì§ĢëĤľì£¼":3193,"Ġê°ĲëıħìĿĢ":3194,"ĠìŀĪìĹĪëįĺ":3195,"ªħ":3196,"Ġg":3197,"ĠìĤ¬ëĬĶ":3198,"ìĸ´ë¥¼":3199,"Ġê°Ģê¹Į":3200,"ĠìłľíĴĪ":3201,"Ġê²°êµŃ":3202,"Ġë§ĮëĤĺ":3203,"Ġê°Ĳìĭľ":3204,"Ġìķ½ìĸ´íĳľ":3205,"ë¦¬ê·¸":3206,"Ġìĭľì¦Į":3207,"ìĦłê±°":3208,"Ġëĭ¹êµŃìĿ´":3209,"Ġíıīê°Ģ":3210,"ĠëĤ´ìļ©ìĿĦ":3211,"ĻìĿ´":3212,"ëŁŃ":3213,"íıĲ":3214,"ìĨĮìĹĲ":3215,"Ġë°ĺìĿĳ":3216,"Ġíı¬ê¸°":3217,"ĠëĲĺìĸ´":3218,"ìŀ¥ìľ¼ë¡ľ":3219,"ĠìķŀëĳĲê³ł":3220,"ĠìĿ´ìĥģìĿ´":3221,"ìļĶìĿ¼ìĹĲ":3222,"ĠíĬ¹íŀĪ":3223,"70":3224,"Ġë¨¼":3225,"ìĭ¸":3226,"ë¶ĢìĹĲ":3227,"ë³´ê³ł":3228,"ìķĪìĿ´":3229,"Ġë¹Ħë¡¯":3230,"Ġìļ°ë¦¬ëĬĶ":3231,"Ġíĺĳëł¥":3232,"ë¬´ìŀ¥ê´Ģ":3233,"Ġì±ĶíĶ¼ìĸ¸":3234,"FA":3235,"um":3236,"ĠìĤ¬ëĿ¼":3237,"Ġì§ĢìĨį":3238,"íģ´ë¦°íĦ´":3239,"ë³´ëĬĶ":3240,"ĠìĹĨìĿĦ":3241,"Ġ2000":3242,"Ġì¶ĶëĿ½":3243,"ĠëĽ°":3244,"ĦëĬĶ":3245,"ê³¤":3246,"ìĬ¤ìĹĲìĦľ":3247,"ìŀ¥ê´ĢìĿĢ":3248,"ĠìĪĺì¶ľ":3249,"Ġê°Ģìł¸":3250,"Ġê²½ìĺģ":3251,"Ġë¶ĢíĨł":3252,"ê²½ìłľ":3253,"Ġìĭ¬ìŀ¥":3254,"ìĽĢìĿĦ":3255,"ĠíŀĲëŁ¬ë¦¬":3256,"ìķŀìĦľ":3257,"Ġë³´ìľł":3258,"ĠíļĮìŀ¥ìĿĢ":3259,"Ġê¸Ģ":3260,"ì¹´ê³ł":3261,"ìĹĪê³ł":3262,"´ëłĪ":3263,"ĠìĻ¸êµŃìĿ¸":3264,"ĠìĦ¤ì¹ĺ":3265,"ê²łëĭ¤":3266,"ìĭľíĤ¤ëĬĶ":3267,"ĠìłĦë¬¸ê°Ģ":3268,"Ġíĭ°ë²łíĬ¸":3269,"ĠíĥĳìĬ¹":3270,"ment":3271,"ëª°":3272,"ëªĩ":3273,"Ġì§Ģë¶Ī":3274,"Ġë¯¸êµŃìĿ¸":3275,"Ġë¶ģíķľìĿĢ":3276,"Ġê´Ģê³Ħë¥¼":3277,"Ġìļ´ìłĦ":3278,"ĠìķĦë¬":3279,"ëĭ¨ìĿ´":3280,"íĴĢ":3281,"Ġë°ľíĳľíķľ":3282,"ĠëĿ¼ëĶĶìĺ¤":3283,"ĠìĤ´ìķĦ":3284,"Ġì´īêµ¬íĸĪëĭ¤":3285,"22":3286,"ì§ĢëıĦ":3287,"Ġë§Ĳíķľëĭ¤":3288,"Ġë°ĿíŀĮ":3289,"ìľłìĹĶ":3290,"ìĭľì¼ľ":3291,"ìĿ´ëĤł":3292,"ìľ¼ë¡ľìį¨":3293,"ìĥģìĿ´":3294,"Ġëı¼":3295,"Ġêµ¬ìĨį":3296,"ĠíĿĳ":3297,"TA":3298,"ëĿ¼ë§Ī":3299,"íĥģ":3300,"ëħĦìĿ´":3301,"Ġë¹Ħíķ´":3302,"ìĺ¤ëĬĺ":3303,"Ġìĭ¤íĹĺ":3304,"ĠìĿ´ë¦ĦìĿĦ":3305,"Ġê²¨":3306,"Ġê³µìĹ°":3307,"ĠìĹ¬ìłĦíŀĪ":3308,"Ġê´ĳê³ł":3309,"ĠìĿ´ìłľ":3310,"ìĺ¥":3311,"Ġê²½íĹĺ":3312,"ê³Ħë¥¼":3313,"ì¶ĺ":3314,"Ġíķĺê¸°":3315,"ì¡°ì§Ģ":3316,"Ġê°ľìĦł":3317,"Ġì½ľë¡¬ë¹ĦìķĦ":3318,"ĠíĹĮë²ķ":3319,"ê³¡":3320,"íķĺê±°ëĤĺ":3321,"ìĬ¤ëŁ¬":3322,"ĠìķĦë§Ī":3323,"ĠìĭľíĹĺ":3324,"ëħĦë¶ĢíĦ°":3325,"ĠìĨ¡":3326,"ĠëĦ£":3327,"ìĸ´ëĤ¬":3328,"Ġì§ĢìĹŃìĿĺ":3329,"ĠíĽĦë³´ê°Ģ":3330,"ĠëłĪë°Ķëħ¼":3331,"ĠìķĦíĶĦë¦¬ì¹´":3332,"ge":3333,"Ġon":3334,"íĬľ":3335,"ìĪĺìĿĺ":3336,"Ġìłķê¶Į":3337,"ĠêµŃìĺģ":3338,"Ġë§Īê°Ĳ":3339,"Ġë©ķìĭľì½Ķ":3340,"Ġíİľ":3341,"ĠìłĢì§Ģ":3342,"Ġê°ĢìŀĲì§Ģêµ¬":3343,"ìĦ°ëĭ¤":3344,"íķ´ë¥¼":3345,"Ġê·¸ë£¹":3346,"Ġì¤ĳìķĻ":3347,"Ġê´Ģíķ´":3348,"Ġìłľíķľ":3349,"ĠëıĻë§¹":3350,"Ġìµľì¢ħ":3351,"Ġë°ĽëĬĶ":3352,"ĠìĦ±ìŀ¥":3353,"Ġ500":3354,"Ġì°¨ë¡Ģ":3355,"ĠìĤ¬ë§ĿìŀĲ":3356,"ĠìĪł":3357,"Ġì¢Į":3358,"ĠLA":3359,"ĠìĭľìķĦíĮĮ":3360,"ìľĪ":3361,"ĠìłĦë°ĺ":3362,"Ġìłķìĭł":3363,"Ġê²°ìĬ¹":3364,"ìĪĻ":3365,"ers":3366,"ĠíĥĢìĿ´":3367,"Ġìłĳê·¼":3368,"įìĤ¬ìĬ¤":3369,"ë¦¬ìĬ¤íĬ¸":3370,"ìĭľìĦ¤":3371,"ëŀĦ":3372,"Ġë¯¸êµŃìĿĢ":3373,"ì½ĺ":3374,"Ġêµ¬ìłľ":3375,"Ġì·¨ìĨĮ":3376,"ĠíĶĮë¡ľë¦¬ëĭ¤":3377,"Ġê²½ê³łíĸĪëĭ¤":3378,"Ġê³µìĬµ":3379,"ëĶ©":3380,"ê²½ê¸°":3381,"2006":3382,"ist":3383,"ìĭľíĤ¤ê³ł":3384,"ate":3385,"Ġìī½":3386,"ì§Ģë¡ľ":3387,"ë¦¬ìļ°":3388,"ĠìłĦíĨµ":3389,"ìłķíķľ":3390,"ĠêµŃëĤ´":3391,"ĠìĬ¹ê°Ŀ":3392,"ĠìļĶêµ¬íĸĪëĭ¤":3393,"´ëĲĺ":3394,"ĠìķħíĻĶ":3395,"ëĭ¥":3396,"ìĿ´ì¦Ī":3397,"ë¡ľìĿ´":3398,"Ġê²ĥê³¼":3399,"ĠìĥģëĮĢ":3400,"ì§ĦìĿĢ":3401,"ĠìĹ´ì°¨":3402,"ìłķë¶ĢëĬĶ":3403,"Ġê²°ê³¼ë¥¼":3404,"ĠíĻľëıĻìĿĦ":3405,"06":3406,"ion":3407,"ìĿ´íĶĦ":3408,"ĠìĤ¬ìŀĦ":3409,"ĠìĦ¬":3410,"ĠìĹ¬ë¦Ħ":3411,"Ġê´Ģê³ĦìŀĲê°Ģ":3412,"ĠíķŃìĿĺ":3413,"ì±ħìĿĦ":3414,"Ġì¶©ë¶Ħ":3415,"ĠìĥĮ":3416,"ëĮĢíĳľ":3417,"Ġë°ľìłĦ":3418,"Ġê´Ģìĭ¬ìĿĦ":3419,"ĠìķĬìķĦ":3420,"ìļ´íĭ°":3421,"ĠìĥģíĻ©ìĿĦ":3422,"ĠëĶ°ëĿ¼":3423,"ĠíĶĦë¡ľê·¸ëŀ¨ìĿĦ":3424,"Ġë°ĿíĺĢì¡Įëĭ¤":3425,"500":3426,"IA":3427,"©°":3428,"ê³¼íķĻ":3429,"ĠìĪĺìĦĿ":3430,"íĶĦëŀĳìĬ¤":3431,"ëª»":3432,"ìĿ¼ê¹Įì§Ģ":3433,"Ġìłķëĭ¹":3434,"Ġê·¸ëŁ¬ëĤĺ":3435,"ëħĦìĿĺ":3436,"ë¥´ê²Į":3437,"ë°ĶìĿ´":3438,"ĠëıĻë£Į":3439,"ĠìĬ¤íĭ°":3440,"ĠìĬ¹ìĿ¸":3441,"ĠíĸīìľĦ":3442,"ill":3443,"ì§ĢìĹĲìĦľ":3444,"ìķĪìĿĢ":3445,"Ġëªħëł¹":3446,"¨¸ëĭĪ":3447,"Ġë°°ì¹ĺ":3448,"ìħĢ":3449,"ĠëĤľë¯¼":3450,"ìķĶ":3451,"ìĤ¬ëĵ¤ìĿ´":3452,"ì§Ĳ":3453,"ìĸ´ëĵ¤":3454,"ëĭ¹ìĭľ":3455,"ĠëıĻìĿĺ":3456,"Ġê²°ìĿĺ":3457,"ë¯¸êµŃìĿĢ":3458,"ĠìĤ¬ê±´ìĿĦ":3459,"ìĩ¼":3460,"ê²ĥìĿ´":3461,"ìĿ¸ìĿ¸":3462,"ëŀ«":3463,"ĠìĪĺê°Ģ":3464,"ĠìŀĪê¸°":3465,"ê±°ëŀĺ":3466,"Ġìĭłìļ©":3467,"ĠìĤ¬ë¬´ì´Ŀ":3468,"ëĭī":3469,"Ġê²¬":3470,"ìĿ¼ê°Ħ":3471,"ì¹´ëį°":3472,"ìłģìĿĦ":3473,"ì§ĦìĿ´":3474,"ĠíļĮìĽĲ":3475,"Ġë°ĶëŀĢ":3476,"Ġêµ¬ë§¤":3477,"Ġì§ĳíĸī":3478,"Ġê°ĻìĿ´":3479,"Ġíķµë¬´ê¸°":3480,"ľ¨":3481,"ìłĿ":3482,"ìĤ¬ë¡ľ":3483,"ìŀ¥ìĿ¸":3484,"Ġì§Ģëªħ":3485,"ê´Ģë¦¬":3486,"ĠëĤĺìĺ¨":3487,"Ġìĭłê³ł":3488,"Ġì§Ħìķķ":3489,"ĠíĿĶ":3490,"´ëŁ½":3491,"ĠìłĬìĿĢ":3492,"ìĭľíĤ¨":3493,"ìŀ¥ê³¼":3494,"ĠìŀĲì²´":3495,"ĠìĬ¬":3496,"ë¥´íĬ¸":3497,"Ġìļ°ë¦¬ê°Ģ":3498,"Ġì¶Ķì§Ħ":3499,"Ġê²Ģìĥī":3500,"Ġì¢ħêµĲ":3501,"ìĤ¬ëŀĮ":3502,"ĠìĿ´ìĪĺì§Ģ":3503,"ĠìĤ¬ëł¹":3504,"ĠìľĦë°ĺ":3505,"íİł":3506,"Ġë¬´ìĤ¬":3507,"Ġ2002":3508,"ì´ī":3509,"Ġì§ĳì¤ĳ":3510,"Ġë°ĸìĹĲ":3511,"ĠìĦ¼íĦ°":3512,"oc":3513,"ìŀĲìĿ´":3514,"Ġê³¤":3515,"ĠìĪĺëĬĶ":3516,"ìłķìĿ´":3517,"Ġê·¸ëłĩ":3518,"Ġì¤ĳìĹĲ":3519,"íļĮëĬĶ":3520,"ĠêµŃë¦½":3521,"ì¤ĳìĿ¸":3522,"2007":3523,"ĠíĿ¥":3524,"Ġì¢ĭìķĦ":3525,"ĠìķĦëĭĪëĿ¼ê³ł":3526,"ak":3527,"ìŀĲëĵ¤ê³¼":3528,"ìĿ¼ë¶ĢíĦ°":3529,"Ġê°Ģì§Ģ":3530,"ĠëĤĺìĺ¤":3531,"Ġ2007":3532,"íĹ¨":3533,"ëĥ¥":3534,"Ġíıīê·ł":3535,"Ġëĭ¬ëŁ¬ìĿĺ":3536,"ì¹´ëį°ë¯¸":3537,"ìŀī":3538,"ê¸°ê°Ħ":3539,"ìĤ¬ëĵ¤ìĿĢ":3540,"ĠìĪĺìĤ¬":3541,"Ġì·¨ìŀĦ":3542,"Ġëħ¼ìŁģ":3543,"Ġíĺ¼ëŀĢ":3544,"ë¦¬íĤ¤":3545,"ìĸ´ëıĦ":3546,"ĠìĨĮìĨ¡":3547,"ëł¤ëĬĶ":3548,"ìĤ°ìĿĦ":3549,"ĠìĤ¬ëŀĮëĵ¤ìĿĦ":3550,"ĠíķľêµŃìĿ¸":3551,"ĠìĭľìľĦë¥¼":3552,"ìĺ¬íķ´":3553,"ĠìĭĿëŁī":3554,"ĠëıĪìĿĦ":3555,"Ġë¯¼ê°ĦìĿ¸":3556,"60":3557,"ĠìłĦìĹŃ":3558,"ĠìĦłì¶ľ":3559,"ĠëķĮê¹Įì§Ģ":3560,"ĠêµĲëıĦ":3561,"ĠëĲĺê³ł":3562,"Ġì¹ĺëŁ¬":3563,"Ġëī´ìĬ¤":3564,"Âł2007":3565,"ĠíĹĪìļ©":3566,"ew":3567,"oin":3568,"Ġe":3569,"´ë§":3570,"ë¦¬ìĻĢ":3571,"ê¸°ìĻĢ":3572,"ĠëĮĢìĿĳ":3573,"Ġì§Ģíķĺ":3574,"ëªħìľ¼ë¡ľ":3575,"Ġê·¸ëĵ¤ìĿĺ":3576,"íļĮê°Ģ":3577,"Ġë¹Ħë°Ģ":3578,"Ġë°ĶìĿ´ëŁ¬":3579,"ĠíĶĦëĿ¼ìĿ´":3580,"ĠìĦľë¡ľ":3581,"ĠìĦ¤ë¦½":3582,"ĠëĮĢë³ĢìĿ¸ìĿ´":3583,"ĠìķĮëł¤ì§Ħ":3584,"ë¶ģíķľìĿĢ":3585,"ë¦¬ëħ¸ìĿ´":3586,"ë¡ľëĬĶ":3587,"ë¦¬ìŀĲ":3588,"íĻĶê°Ģ":3589,"ëĭĪìĬ¤":3590,"Ġë°Ľì§Ģ":3591,"Ġë¬´ìĹŃ":3592,"Ġê²½ì°°ìĹĲ":3593,"Ġê±¸ì³Ĳ":3594,"ĠëĮĢë¹Ħ":3595,"ëĵľìĹĲìĦľ":3596,"ĠëĮĢíĨµëł¹ìĿĦ":3597,"ĠíĻĺìĺģ":3598,"Ġë³µê·Ģ":3599,"Ġê³¼ìłķìĹĲìĦľ":3600,"oo":3601,"ĠìĿ´ìĻĢ":3602,"ĠìĤ¬ë¥´ì½Ķ":3603,"ĠìľĮë¦¬ìĹĦ":3604,"ĠìĪĺìĥī":3605,"íĬ¹":3606,"Ġê³¼ê±°":3607,"ĠëĤ´ë¬":3608,"Ġë¸Ķë¡ľ":3609,"¬ëĭ¤":3610,"ĠëĤĺíĨł":3611,"ìĦ¸ìĿ¸":3612,"Ġê°ľíĺģ":3613,"Ġë³ĳëł¥":3614,"Ġê¸°ë¡ĿíĸĪëĭ¤":3615,"ì§ĢëĭĪìķĦ":3616,"ìĽĥ":3617,"ĠìĿ¼ìĸ´ëĤĺ":3618,"ìŀĦìĬ¤":3619,"ĠìĤ¬ìĿ´ìĹĲ":3620,"ĠìĥģìĽĲìĿĺìĽĲìĿĢ":3621,"ĠëĮĢìĥģìľ¼ë¡ľ":3622,"Ġíļ¨ê³¼":3623,"ìĵ":3624,"ëĭĿ":3625,"ĠìĹĺ":3626,"ì§ĵ":3627,"ìĸ´ëĬĶ":3628,"Ġì£¼ìŀ¬":3629,"ëĲĺê¸°":3630,"ĠëıĻë¶Ģ":3631,"Ġìŀ¬ìłķ":3632,"Ġë¶Ħëªħ":3633,"Ġë°ľê²¬ëĲľ":3634,"Ġíľĺ":3635,"Ġê°ģê°ģ":3636,"¸Ĳ":3637,"ìŀĲìĹĲê²Į":3638,"ĠìĿ´ê°ĻìĿĢ":3639,"Ġê·¸ë¦°":3640,"Ġë³´ìĪĺ":3641,"ìłĦë¬¸":3642,"ìľĦìĽĲ":3643,"ë¹Ħë¥¼":3644,"ĠìĥģìĽĲ":3645,"ìĨĮìĿĺ":3646,"Ġíķ´ìķ¼":3647,"Ġë¬´ìĹĩ":3648,"ĠìłģìĿ´":3649,"ĠíĳľíĺĦ":3650,"ì§ĳíĬ¸":3651,"ĠëıĦìĽĢìĿ´":3652,"ë¦¬ì§Ģ":3653,"ĠìĤ¬ëŀĳ":3654,"êµ°ê³¼":3655,"Ġíķ´ë¦¬":3656,"Ġìłķë¶ĢìĹĲ":3657,"ĠìĦľë¶Ģ":3658,"ĠíĽĦë³´ëĬĶ":3659,"ĠëĬ¥":3660,"Ġë³Ģíĺ¸ìĤ¬ëĬĶ":3661,"ë¸Ĳ":3662,"ĠìĿµ":3663,"ĠìĤ¬íĩ´":3664,"Ġì§Ģì¼ľ":3665,"ë§ĮëªħìĿĺ":3666,"íĦ°íĤ¤":3667,"ê´ĢìĿĦ":3668,"ì§ĦìĿĦ":3669,"ĠëıĻìĦ±":3670,"Ġê³łíĨµ":3671,"ĠìľĦíķ´ìĦľëĬĶ":3672,"Ġë°Ľê²Į":3673,"ĠíĨµìłľ":3674,"ĠìĻ¸êµŃ":3675,"Ġì§Ģì§Ģë¥¼":3676,"ìĿ´ìħĺ":3677,"ë¦¬ì¦Ī":3678,"Ġìĺ®":3679,"ĠìŀĲëħĢ":3680,"Ġë§Īë¬´":3681,"Ġë¶Ħìķ¼":3682,"íĪ¬íĳľ":3683,"Ġê°Ļëĭ¤":3684,"ĠìĤ¬ìļ°ëĶĶ":3685,")/":3686,"Ġde":3687,"Ġëĥ":3688,"ë¦¬íķĢ":3689,"ĠìłĦêµŃ":3690,"Ġë¯¸ëŀĺ":3691,"ĠìĹ°ë£Į":3692,"ĠìĬ¤ë¯¸":3693,"ĠìĦ±íıŃ":3694,"Ġêµ¬ì²´":3695,"ĠíĻķìĭł":3696,"Ġìĸ´ë¨¸ëĭĪ":3697,"ìĽĮëĵľ":3698,"ìĭĿìĿ´":3699,"ĠëĮĢíķ´ìĦľëĬĶ":3700,"Ġì½Ķë¦¬ìķĦ":3701,"Ġê°ķëł¥íķľ":3702,"ìł¤":3703,"ë°ĸ":3704,"ëŀĲ":3705,"ìĥģìĿĺ":3706,"Ġìĭľíĸī":3707,"íĨµìĭłìĿĢ":3708,"Ġ80":3709,"íķŃê³µ":3710,"ĠìŀĦëªħ":3711,"ìĭľíĤ¤ê¸°":3712,"ĠìĥģìĽĲìĿĺìĽĲìĿ´":3713,"ĠëĮĢë¶Ģë¶ĦìĿĺ":3714,"Ġëĭ¤ìĸĳíķľ":3715,"ëĤĺìĿ´":3716,"ë§ĪìĿ´":3717,"Ġê³łìļ©":3718,"Ġì§ĦìĪł":3719,"Ġê²½ì°°ìĦľ":3720,"ĠìĤ¬ê±´ìĿ´":3721,"ĠìŀĦìĭľ":3722,"ĠíĶĦë¡ľìłĿ":3723,"ĠëĨĴìķĦ":3724,"Ġë°©ë²ķìĿĦ":3725,"Ġìı":3726,"ì§Ģê¸Ī":3727,"ëıĦìĿĺ":3728,"Ġë³´ì¢Į":3729,"ĠìĿ¸ë¬¼":3730,"Ġì¡°ê±´":3731,"ĠíĮĮê²¬":3732,"Ġê²ĢíĨł":3733,"ĠëıĦìĽĢìĿĦ":3734,"ëĬĦ":3735,"ìĦ¬":3736,"ì§ĢìĿ¸":3737,"ĠìķĦëĤ´":3738,"Ġë²¨":3739,"ìĭĿìĹĲ":3740,"ĠìŀħìĽĲ":3741,"ĠìĤ¬ëŀĮìĿĢ":3742,"Ġëĵ±ìĿĦ":3743,"Ġ90":3744,"ĠìłĢìŀ¥":3745,"ì¹ľêµ¬":3746,"ĠìĻĦìłĦíŀĪ":3747,"Ġë¹Ħíĸīê¸°":3748,"ìķĦíĶĦë¦¬ì¹´":3749,"ë¯¼ì£¼ëĭ¹":3750,"Ġëľ»ìĿĦ":3751,"ĠëĮĢë§Į":3752,"ìĥģìĹĲ":3753,"ĠìĿ¸ê°Ħ":3754,"ìľĦë¡ľ":3755,"íģ¬ë¡ľ":3756,"Ġìľłì£Ħ":3757,"ĠëĤĺëĬĶ":3758,"Ġì´Ŀê²©":3759,"2008":3760,"ì¡Įìľ¼ë©°":3761,"Ġë¡ľì¼ĵ":3762,"Ġíģ¬ê²Į":3763,"Ġë¸ĮëĿ¼ìļ´":3764,"ĠìłĦë¬¸ê°Ģëĵ¤ìĿĢ":3765,"Ġì¹´ë©Ķ":3766,"se":3767,"Ġìŀī":3768,"ĠëĮĢë²ķ":3769,"Ġê´Ģìĭ¬":3770,"ĠìĦłíı¬":3771,"ĠìĺĪì¸¡":3772,"ĠíĻĶìļĶìĿ¼":3773,"íį¼ìĦ¼íĬ¸":3774,"ĠìĿ´ëŀĺ":3775,"ê²Ģì°°":3776,"Ġì£¼ì§ĢìĤ¬ëĬĶ":3777,"40":3778,"ê°Ģê³ł":3779,"ĠìķĦì¹´ëį°ë¯¸":3780,"íĮħ":3781,"ë¹Ħì¹ĺ":3782,"ê³µíĻĶ":3783,"ĠìĥĿì¡´":3784,"Ġë²ĮìĺĢëĭ¤":3785,"Ġë¶ĦìŁģ":3786,"Ġëª»íķľ":3787,"ĠìļĶì²ŃíĸĪëĭ¤":3788,"ķħ":3789,"ĠìĮ":3790,"ë¦¬ë¡ľ":3791,"ĠìĹĺë¦¬":3792,"ìŀĲìĹĲ":3793,"ĠìĥģëĮĢë¡ľ":3794,"Ġì¹ĺë£Įë¥¼":3795,"Ġê·¼ì²ĺ":3796,"ĠìĿ´ëģĦëĬĶ":3797,"Ġë°ĿíŀĪì§Ģ":3798,"ĠëĮĢìĤ¬ê´Ģ":3799,"ìĭľìĹĲ":3800,"ĠìĤ¬ìĿ´íĬ¸":3801,"ëĮĢìĻĢ":3802,"ĠêµŃíļĮìĿĺ":3803,"Ġì´Ŀë¦¬ìĿĺ":3804,"íĺ¸ì£¼":3805,"Ġë²ĮìĿ´ê³ł":3806,"ĠìĿ¼ë³¸ìĿĺ":3807,"Âł2006":3808,"ĠëĦĺìĸ´":3809,"Ġë§ĪìĿ´íģ´":3810,"ĵê³ł":3811,"Ġê°ĳ":3812,"ĠëĮĢì¤ĳ":3813,"ì¹´ë":3814,"ì¶©":3815,"ĠìĹ°ê²°":3816,"Ġìµľìķħ":3817,"Ġìĺ¬ëŀĲëĭ¤":3818,"est":3819,"Ġë°ľê²¬íĸĪëĭ¤":3820,"Ġë³´ëĥĪëĭ¤":3821,"Ġê²°ìłķìĿĦ":3822,"Ġê¹¨":3823,"ĠìĿ´ëŀĢìĿĺ":3824,"Ġì§ķìĹŃ":3825,"¥Ĳ":3826,"ìķ¤":3827,"ëĲĲëįĺ":3828,"ë°ĺë©´":3829,"Ġë§Įëĵł":3830,"Ġë¬¸íĻĶ":3831,"ĠìŀĲìĭłìĿĦ":3832,"Ġëĵ±ìĿĺ":3833,"Ġë¶ģíķľìĹĲ":3834,"ĠëĳĲê³ł":3835,"Ġst":3836,"ID":3837,"Ġê´":3838,"Ġêº":3839,"ĠìĿ´ëĵ¤ìĿĢ":3840,"ĠìĪĺìĿµ":3841,"ì²Ļ":3842,"Ġì°į":3843,"Ġíķĺë©°":3844,"ëĭ¨ìĿĺ":3845,"ĠëĲĺì§Ģ":3846,"íķŃìĿĦ":3847,"ĠìĹ¬ë¡łì¡°ìĤ¬":3848,"TV":3849,"®¤":3850,"ìĬ¤íĤ¤":3851,"ìĬ¤íħĮ":3852,"ìĽħ":3853,"ëŀĻ":3854,"Ġë³´ê±´":3855,"íģ¬ëĬĶ":3856,"ë¥´ëĵľ":3857,"ĠëĤĺìĻĶëĭ¤":3858,"ìĥĿíĻľ":3859,"íı¬ì¸ł":3860,"ĠìĿ´ëĿ¼íģ¬ìĹĲìĦľ":3861,"ë²Ħê·¸":3862,"Ġë³ĳëł¥ìĿĦ":3863,"Ġíŀĺëĵ¤":3864,"TO":3865,"ia":3866,"ê°Ģë¡ľ":3867,"ìĬ¤ëŁ½":3868,"Ġë§º":3869,"ë³´ë":3870,"Ġì§Ģë°°":3871,"íĬ¸ìĿĺ":3872,"ìłľê°Ģ":3873,"íļĮìĤ¬":3874,"ÂłĊ":3875,"ÂłĠÂłĠÂłĊ":3876,"Ġì»¨":3877,"ĠëĶ°ë¥¸":3878,"ĠìĪľê°Ħ":3879,"Ġë¹łìł¸":3880,"Ġë³ĳìĽĲìĹĲ":3881,"BS":3882,"ë¦¬ê¸°":3883,"ìĭľê°Ģ":3884,"ĠìĿ´íķ´":3885,"ĠìľĪ":3886,"ìĥģìĿĢ":3887,"Ġ35":3888,"ëł¤ê³ł":3889,"Ġìłķë¶ĢìĻĢ":3890,"Ġëª»íķĺê³ł":3891,"ĠìĿ´ëŀĢìĿ´":3892,"Ġë¬´ëĦĪ":3893,"Ġì§Ģíľĺ":3894,"ìĦ±ìĿĺ":3895,"Ġëĭ¨ê³Ħ":3896,"all":3897,"ìĹĨìĿ´":3898,"ìĿ´ì¸ł":3899,"ëĿ¼ìĬ¤":3900,"ĠëĤ´ë¶Ģ":3901,"ëįľ":3902,"Ġìĭľì¹´ê³ł":3903,"Ġë²¤":3904,"ĠìĤ¬ëŀĮëĵ¤ìĿĺ":3905,"íĶ¼ìķĦ":3906,"Ġë¡ľë§Ī":3907,"ìłĲìĹĲìĦľ":3908,"ĠìĤ¬ìĭ¤ìĿ´":3909,"Ġì²ŃìĨĮ":3910,"Ġë°ĽìķĦëĵ¤":3911,"ĠìºĲëĤĺëĭ¤":3912,"Ġìľłëªħíķľ":3913,"join":3914,"Ġl":3915,"íķ´ìĻĶëĭ¤":3916,"Ġê·¸ëĵ¤ìĿ´":3917,"ĠíĻįì½©":3918,"Ġê³łê°Ŀ":3919,"ì°¨ë¥¼":3920,"ĠìŀĳìĹħìĿĦ":3921,"Ġ70":3922,"Ġíķ©ëĭĪëĭ¤":3923,"Ġê³ĦíļįìĿ´ëĭ¤":3924,"ê¸Ģëŀľëĵľ":3925,"Ġê¸´ê¸ī":3926,"ĠëĭĪì½ľ":3927,"ì¿Ħ":3928,"Ġê¼":3929,"Ġë°Ķëĭ¤":3930,"ìĿ¸ê³¼":3931,"Ġìĭ±":3932,"ĠìĤ¬íĺķ":3933,"ëıĦìĹĲ":3934,"ìĥģíĥľ":3935,"ĠìķĦëŀį":3936,"íĬ¸ë¦¬":3937,"ë¥´ë¹Ħ":3938,"Ġë¡ľë²ĦíĬ¸":3939,"ĠëĿ¼ìĿ´ìĬ¤":3940,"Ġê´Ģëł¨íķ´":3941,"Ġì²ĺë¦¬":3942,"Ġìµľê³łìĿĺ":3943,"Ġì§Īë¬¸ìĹĲ":3944,"Ġë¬´ìŀ¥ëĭ¨ì²´":3945,"ìľĦìĽĲíļĮëĬĶ":3946,"Ġê°ĢìĬ¤":3947,"Ġê¸°ê´Ģ":3948,"Ġì§Ħì¶ľ":3949,"Ġê³µê²©ìľ¼ë¡ľ":3950,"íħĲ":3951,"Ġê·¼ê±°":3952,"ĠìĥģíĻ©ìĿ´":3953,"ĠIn":3954,"ĠìĿ¸ëıĦëĦ¤ìĭľìķĦ":3955,"Ġë°ĿíĺĶìĬµëĭĪëĭ¤":3956,"PP":3957,"ĠìŀĪëĭ¤ë©°":3958,"ĠìĨĮìŀ¬":3959,"ëĲľëĭ¤ê³ł":3960,"ĠìľłìĿ¼íķľ":3961,"Ġëħ¸ì¡°":3962,"íķĺê¸°ëıĦ":3963,"Ġë§Įíģ¼":3964,"Ġê°ķíķľ":3965,"Ġìĺ¤ë°Ķë§Īê°Ģ":3966,"ë©Ķëĵľ":3967,"Ġìĸ´ëĬĲ":3968,"ĠìĤ¬ì§ĦìĿĦ":3969,"ê²¼ëĭ¤":3970,"ul":3971,"łíķľ":3972,"ëĤ©":3973,"ëĤ¸":3974,"ĠìĿ´íĭĢ":3975,"ìķĦëĭĪ":3976,"ìĭłìĿĺ":3977,"ĠìĨĮë°©":3978,"ë¥´íĥĢ":3979,"Ġë¶ģíķµ":3980,"ìĹĪì§Ģë§Į":3981,"ĠìĤ¬ëŀĮëĵ¤ìĹĲê²Į":3982,"ĠìĬ¹ë¬´":3983,"ĠìķĦì§ģê¹Įì§Ģ":3984,"ĠíĸĪëįĺ":3985,"ĠìĿ´ìķ¼ê¸°":3986,"25":3987,"ëıĪ":3988,"ĠìĭŃ":3989,"ĠìĪĺë§İìĿĢ":3990,"Ġê·¸ëĵ¤ìĿĢ":3991,"ĠìĿ¼ìŀĲ":3992,"Ġì°°":3993,"Ġì¡°ì¢ħ":3994,"ĠëĤĺë":3995,"Ġë°ĺë©´":3996,"Ġëĭ¬íķĺëĬĶ":3997,"Ġë¶Ħë¦¬":3998,"ĠëĳĶ":3999,"ĠíıŃëł¥ìĤ¬íĥľ":4000,"ĠëĤ´ëł¸ëĭ¤":4001,"ĠìłĦëŀµ":4002,"ëŁ¬ëĬĶ":4003,"Ġì£¼ìĿĺ":4004,"ĠìłķëıĦë¡ľ":4005,"ëĲĺë©´ìĦľ":4006,"Ġë°Ľìķĺëĭ¤ê³ł":4007,"em":4008,"ë§Īëĭ¤":4009,"ìĽ¨ìĸ´":4010,"ĠìłĦìŀĲ":4011,"ì£¼ìĿ¼":4012,"ĠìĿ¸ìĪĺ":4013,"ë¯¸êµ°":4014,"Ġìĺ¤ëŀĺ":4015,"ìĦ¸ê°Ģ":4016,"ĠìĦłëĳĲ":4017,"ìĹ¬ëªħìĿ´":4018,"ìĹŃìĿĦ":4019,"Ġë©¸":4020,"ë¯¸êµŃìĿĺ":4021,"Ġëĭ¬ëŁ¬ë¥¼":4022,"Ġíĸ¥íķ´":4023,"Ġì°©ë¥Ļ":4024,"ë¦¬ì¼ĢìĿ¸":4025,"Ġ1000":4026,"ĠìŀĪì§Ģ":4027,"ë§Įìķ½":4028,"Ġê¸°ì¤Ģ":4029,"Ġìĭľë¦¬ìķĦ":4030,"ĠìĨĶ":4031,"Ġëĭ¤ë¥´":4032,"Ġë¹ĦêµĲ":4033,"ĠìłľìĻ¸":4034,"íĭ±":4035,"ìĺĢìľ¼ë©°":4036,"ĠíĮĮìĹħ":4037,"ì§ģìĿĦ":4038,"Ġë§¤ëħĦ":4039,"ĠìĿ´ëĿ¼íģ¬ìĹĲ":4040,"Ġë¯¼ë³ĳ":4041,"Ġë¯¼ì£¼ì£¼ìĿĺ":4042,"Ġê°ĢëĬ¥íķľ":4043,"ĠëĪĦêµ¬":4044,"ĠíĥĢìŀĦì¦Ī":4045,"ĠëĳĺëŁ¬":4046,"ĠíĨ":4047,"ë¡ľìĬ¤":4048,"ìĬ·":4049,"ĠìĿ´ì§ĳíĬ¸":4050,"ìĨĮê°Ģ":4051,"Ġ300":4052,"Ġê³łìĨį":4053,"ìĺĢìĬµëĭĪëĭ¤":4054,"Ġìķ½ë¬¼":4055,"ìĸ´ë²Ħ":4056,"Ġì§ĳê¶Į":4057,"ì»¬":4058,"ĠìĹ¬ìĦ±ìĿ´":4059,"ĠCh":4060,"ìºĲë¡¤":4061,"Ġê·ľìłķ":4062,"Ġìĭľê°ĦìĿĦ":4063,"Ġë§īê¸°":4064,"09":4065,"EO":4066,"ì§ĢëĮĢ":4067,"ë³´ë¥¼":4068,"Ġë¶Ģê·¼":4069,"ì¶°":4070,"ĠëĤĺë¨¸":4071,"Ġì£¼ìŀ¥íķĺê³ł":4072,"ì´Į":4073,"oun":4074,"´ë°°":4075,"Ġìĭ¶ìĸ´":4076,"Ġíľ´ëĮĢíı°":4077,"ìĿ´ì§Ģë§Į":4078,"íķĺëĭ¤ëĬĶ":4079,"ê°ĢìĬ¤":4080,"Ġìĺ·":4081,"ìľ¼ë¡ľìĦľ":4082,"Ġì§Ģìĭľ":4083,"íĻĶìĹĲ":4084,"ê°ľë°ľ":4085,"Ġëħ¸ë¬´íĺĦ":4086,"íķĺì§ĢëĬĶ":4087,"ì½Ķë¦¬ìķĦ":4088,"íļ¨":4089,"Ġìĺ¤ë°Ķë§ĪëĬĶ":4090,"ĠíķŃìĥģ":4091,"Ġë¬´ìŀ¥ìĦ¸ëł¥":4092,"Ġìĸ¸ê¸īíĸĪëĭ¤":4093,"joins":4094,".\"":4095,"íķ´ì§Ħ":4096,"ìĬ¤íĭ°":4097,"ìĤ¬íķľ":4098,"Ġëıķ":4099,"Ġë¶Ģë¬¸":4100,"ĠíĽĦìĹĲ":4101,"Ġê°ķìłľ":4102,"íĭ°ëĤĺ":4103,"ë²ķìĿĦ":4104,"art":4105,"ĠëĬ¦":4106,"ĠíĥľêµŃ":4107,"ĠìķĬìķĺì§Ģë§Į":4108,"Ġìłĳì´ī":4109,"Ġìķķë°ķ":4110,"íķĺìĿ´ìĺ¤":4111,"Ġì§Ĳë°Ķë¸ĮìĽ¨":4112,"ìłł":4113,"íķľìĿĦ":4114,"ìľ¨ìĿĦ":4115,"Ġì£¼ìĿ¸":4116,"ë§ĮëªħìĿ´":4117,"Ġìĭľìĥģ":4118,"ĠìĿ¼ë¦¬ëħ¸ìĿ´":4119,"ëĭ¹ìĿ´":4120,"Ġìłľê±°":4121,"Ġëª¨ë¥¸":4122,"ĠëıĻìĽĲ":4123,"ëĦ¬":4124,"ĠìĬ¤íĬ¸":4125,"ĠíĮĮê´":4126,"ê¸Īìľµ":4127,"ĠíĺĦëĮĢ":4128,"ĠíĪ¬ìŀħ":4129,"ĠíĽĦë³´ë¥¼":4130,"Ġê²°ìłķíĸĪëĭ¤":4131,"ity":4132,"ight":4133,"EA":4134,"uc":4135,"íĸĦ":4136,"íķĺëĿ¼ê³ł":4137,"ê·¸ê°Ģ":4138,"Ġìĭľì²Ń":4139,"íĶĦë¦¬":4140,"ĠëĵĿ":4141,"ĠìĦłë°ķ":4142,"ê²½ìĿĦ":4143,"ĠìĤ¶":4144,"Ġê³Ħìķ½":4145,"ĠëĤ´ê°Ģ":4146,"Ġì¶ľë°ľ":4147,"Ġìķ¼íĽĦ":4148,"ëŀ«ëıĻìķĪ":4149,"ĠíĶĦëĿ¼ìĿ´ë¨¸":4150,"ee":4151,"²ł":4152,"ë¿Ĳ":4153,"ê°ĻìĿ´":4154,"ê¸°ì§Ģ":4155,"Ġê¸°ìĸµ":4156,"ĠíĻĢ":4157,"ìļ°ìĬ¤":4158,"Ġëĵ¯":4159,"Ġíķ´ëĭ¹":4160,"Ġìłķë¶Ģë¥¼":4161,"ĠìĦľëªħ":4162,"ĠìĤ¬ê±´ìĿĢ":4163,"ĠíħįìĤ¬ìĬ¤":4164,"ĠíĻķìĭ¤íŀĪ":4165,"Ġë¸Ķë¡ľê·¸":4166,"co":4167,"ë¯":4168,"ĠìĿ´ìĨ¡":4169,"ìķĦìĭľìķĦ":4170,"ëįķ":4171,"Ġìłķë§Ĳ":4172,"ëħĦìĿĦ":4173,"Ġëĭ¤ìļ°":4174,"Ġë¹ĦìĬ·":4175,"Ġë§Īëĵľë¦¬":4176,"Ġíģ´":4177,"Ġë¶ĪìķĪ":4178,"íķľëĭ¤ë©´":4179,"ê²°ìĿĦ":4180,"Ġì§ĢìĹŃìĿĦ":4181,"ĠëĲĺìĹĪëĭ¤":4182,"Ġê´Ģê³ĦìŀĲëĵ¤ìĿĢ":4183,"ì¸¡ìĿ´":4184,"Ġë¹ĦëĤľìĿĦ":4185,"Ġëħ¼ëŀĢ":4186,"Ġíķ©ìĿĺíĸĪëĭ¤":4187,"ĠíĻķìĿ¸íĸĪëĭ¤":4188,"ĠìĽĢì§ģìŀĦ":4189,"ìĬ¤ëŁ¬ìļ´":4190,"BI":4191,"mer":4192,"ê¸°ìĹħ":4193,"Ġê²ĥìĿ¸":4194,"ĠìĪĺëĭ¨":4195,"ëĵľìĻĢ":4196,"Ġë¬ĺ":4197,"ĠìĻľ":4198,"ĠìķĮê²Į":4199,"Ġìĭ¤ìłľ":4200,"Ġëª©ìĨĮ":4201,"ĠìĸĳêµŃ":4202,"Ġì¡´ìŀ¬":4203,"ĠìĪ¨ì§Ģê³ł":4204,"íıīìĸĳ":4205,"ìĶ©":4206,"ë°ĸìĹĲ":4207,"5000":4208,"RC":4209,"íĢ":4210,"Ġë¥":4211,"ìĿ´ê¸°":4212,"Ġê·¸ëŀĺ":4213,"Ġíķľë°ĺ":4214,"ĠìĦ¸ê¸Ī":4215,"ĠíĺĳìĥģìĿĦ":4216,"ĠìĺĪìĥģëĲľëĭ¤":4217,"Ġê·ľëª¨ìĿĺ":4218,"ĠìĦľë¹ĦìĬ¤":4219,"ĠìĿĺê²¬ìĿĦ":4220,"íķĺìĺĢëĭ¤":4221,"ĠìľĦê¸°":4222,"ì¹ĺìĿĺ":4223,"ĠìĹ¬ë¶Ģë¥¼":4224,"ĠìĿĺìĭ¬":4225,"ìĽĶë¶ĢíĦ°":4226,"Ġìµľìĭł":4227,"íİľ":4228,"Ġì¢Ģ":4229,"íĺĳíļĮ":4230,"ĠìķĶìĤ´":4231,"ë¡Ńê²Į":4232,"©ëĭĪëĭ¤":4233,"ë¦¬íĶĦ":4234,"ìĬ¤íĨł":4235,"Ġë¬»":4236,"ĠìĬµ":4237,"Ġê±±":4238,"ĠìĿĺìĤ¬":4239,"Ġë¯¸êµŃìĿĦ":4240,"Ġê³łëĵ±":4241,"ê°ľë¥¼":4242,"ĠìĥĿë¬¼":4243,"íı¬ë¥´":4244,"ì¦ĪëĭĪ":4245,"ĠìłĢíķŃ":4246,"ë§Ĳë¦¬ìķĦ":4247,"Ġë¸ĮëĿ¼ì§Ī":4248,"Ġì£¼ë¯¼ëĵ¤ìĿ´":4249,"ĠìłķìĥģíļĮëĭ´":4250,"ìľ¨ìĿ´":4251,"´ëŁ°":4252,"íıŃíĥĦíħĮëŁ¬":4253,"ĠëĤ´ë¬´ë¶Ģ":4254,"ìĿ´ëŁ°":4255,"Ġìŀĩ":4256,"ì§ĢìĻĢ":4257,"ê°ĢìĿ¸":4258,"ìĿ¸íĦ°":4259,"ëĵ¤ìĸ´":4260,"ĠëĮĢíļĮ":4261,"ìŀ¥ê´Ģ":4262,"ìĸ´ë¡ľ":4263,"ëĮĢë¶Ģë¶Ħ":4264,"Ġë§Ĳíķĺê³ł":4265,"Ġê³µê³µ":4266,"ìĨĮëĬĶ":4267,"ë°ĶëĬĶ":4268,"Ġì§ĳëĭ¨":4269,"ëŁīìĿĺ":4270,"ĠìĤ´ìĿ¸":4271,"ë°°ìļ°":4272,"Ġë¯¸êµ°ìĿ´":4273,"ì§ĢëĤľíķ´":4274,"Ġìĸ´ëĸłíķľ":4275,"Ġìĭľê°ĦìĿ´":4276,"ĠëģĿìĹĲ":4277,"Ġìŀĺëª»":4278,"ĠíĮ¨ë°°":4279,"ĠëĬĲëģ¼":4280,"Ġë©¸ì¢ħ":4281,"18":4282,"ĠY":4283,"ê³¨ìĿĦ":4284,"ëĵľìĹĲ":4285,"ìłľëĬĶ":4286,"Ġê·¸ëŁ°":4287,"êµ¬ë¥¼":4288,"ĠìĿĺìĽĲìĿ´":4289,"Ġëĵ£":4290,"Ġíķĺì§Ģë§Į":4291,"Ġë§Īìķ½":4292,"EC":4293,"nn":4294,"ìĦľë¶Ģ":4295,"Ġê°Ģì¡Įëĭ¤":4296,"ìłĦìľ¼ë¡ľ":4297,"ìľĦê°Ģ":4298,"ëĲĺìĹĪëĭ¤ê³ł":4299,"Ġíķĺë§ĪìĬ¤":4300,"ëĭ¨íķľ":4301,"ĠìĬ¤íĶ¼":4302,"Ġë°©ìķĪìĿĦ":4303,"Ġê±°ìłĪ":4304,"Ġë°ľìĥĿíĸĪëĭ¤ê³ł":4305,"ëŁīìĿĦ":4306,"Ġëª©ìĪ":4307,"Ġê²ĢìĤ¬":4308,"ëī´ìĬ¤":4309,"Ġìłķì±ħìĿĦ":4310,"ĠëĬĲëĤ":4311,"Ġíĳ¸íĭ´":4312,"ĠìĽĶëĵľì»µ":4313,"Ġë§Īë¬´ë¦¬":4314,"ìķĦëĭĪëĿ¼":4315,"ìĿ´ìłĦ":4316,"ì¹Ń":4317,"Ġë¬´ëł":4318,"ĠìŀĲìĹ°":4319,"Ġë¶ĢíĮ¨":4320,"Ġê°ľìĿĺ":4321,"íĺ¸ë¥¼":4322,"ĠíĶĮëłĪìĿ´":4323,"DA":4324,"EU":4325,"Ġê¿":4326,"ëĭ¤ë©´":4327,"ìĿ´ìĿĺ":4328,"íģ¬ëĿ¼ìĿ´ëĤĺ":4329,"ĠìĬ¤íı¬ì¸ł":4330,"ìĤ°ìĹħ":4331,"Ġíģ´ëŁ½":4332,"Ġëĵ¤ê³ł":4333,"ĠíĽĦë³´ìĹĲ":4334,"Ġê°ĦìĿĺ":4335,"ĠëĸłëĤĺ":4336,"ìºĶ":4337,"ëĭĺ":4338,"ëħģ":4339,"ìĪĺëıĦ":4340,"Ġê²ĥìĿ´ëĿ¼":4341,"ìļ°ê³ł":4342,"ĠìĿĺíĺ¹":4343,"ĠìĹ°ìĨį":4344,"ĠìĹĨìĸ´":4345,"ĠìĤŃ":4346,"Ġìŀ¥ê¸°":4347,"Ġìĭłë¢°":4348,"Ġë°ľìĥĿíķ´":4349,"Ġë¶ģíķľìĿĦ":4350,"ëŁīìĿ´":4351,"ĠíĿ¡":4352,"ê²łì§Ģë§Į":4353,"Ġëĭ¤ìĿĮëĭ¬":4354,"ĠìĤ¬ë¬´ìĭ¤":4355,"ĠìĦ±íıŃíĸī":4356,"íĽ":4357,"ë¡±":4358,"ì§ĢìĪĺëĬĶ":4359,"ëıĦìĭľ":4360,"ĠìĪĺëĭĪ":4361,"ê·¸ë£¹":4362,"ë§ĮìķĦëĭĪëĿ¼":4363,"Ġê³µìĤ°":4364,"ëıĻë¶Ģ":4365,"íĶĦëĿ¼":4366,"ë°ĶìĬ¤":4367,"ì¼Ī":4368,"Ġë³ĳìĤ¬":4369,"ĠìłĲìĿĦ":4370,"ì§ĢìĹŃìĹĲìĦľ":4371,"ìĿ´ìĹĲìķŀìĦľ":4372,"ìĽłëĭ¤":4373,"if":4374,"ê²Ĳ":4375,"Ġê°Ģì§Ī":4376,"Ġì£¼ëĬĶ":4377,"ë§ĮìĿĺ":4378,"ĠìŀĲì£¼":4379,"ĠìŀĲê¸ĪìĿĦ":4380,"Ġë¶ĢëıĻ":4381,"ĠìĿ¼ê°Ħ":4382,"ìĦ¸ë¡ľ":4383,"Ġëĵ±ë¡Ŀ":4384,"ì¼ĢìĿ¸ìĿĢ":4385,"ì²ĺëĵľ":4386,"Ġìłģìļ©":4387,"ĠìłģìłĪ":4388,"Ġì¹´ìļ´íĭ°":4389,"Ġê·¼ë¬´":4390,"ĠëĦĺëĬĶ":4391,"Ġì¦īê°ģ":4392,"Ġìĸ¼ë§ĪëĤĺ":4393,"ĠìķĦë¬´ëŁ°":4394,"01":4395,"ŃíĤ¹":4396,"ĠìĹ¬ìĻķ":4397,"ĠëĤĺìĻĢ":4398,"Ġê°ľë´ī":4399,"ĠëĤ¨ë¶ģ":4400,"ë¬¼ìĿ´":4401,"ëıħìĿ¼":4402,"ĠëģĬ":4403,"ĠëĮĢíĳľëĬĶ":4404,"ĠìĽĶìļĶìĿ¼":4405,"Ġì¼ĢìĿ´":4406,"ĠUS":4407,"Ġìļ°ëł¤ë¥¼":4408,"Ġë³´ìĹ¬ì£¼":4409,"ational":4410,"ë¥łìĿ´":4411,"ëĨį":4412,"Ġíİľìĭ¤":4413,"ìºĲë¡¤ëĿ¼ìĿ´ëĤĺ":4414,"ê¶ģ":4415,"ê¸°ê³ł":4416,"ĠëĤ¸":4417,"ìĿ¼ë¦°":4418,"Ġë³´ìĿ´ëĬĶ":4419,"ìľĦëĬĶ":4420,"ĠëĤĺê°Ģ":4421,"ĠíķĺìĽĲìĿĺ":4422,"Ġ2001":4423,"ê²°ê³¼":4424,"Ġì¶ľë§Ī":4425,"Ġì¦Ŀìĸ¸":4426,"Ġì§ĢëıĦìŀĲìĿ¸":4427,"Ġìī¬":4428,"ĠìµľìķħìĿĺ":4429,"ë¡ľìĦľ":4430,"ëĵ¤ë¡ľë¶ĢíĦ°":4431,"êµŃìĿĦ":4432,"ì£¼ìĹĲìĦľ":4433,"ĠìķĦëĵ¤":4434,"Ġë§Īíģ¬":4435,"ĠìĻĶ":4436,"ìķĺëĭ¤ê³ł":4437,"Ġë°ĶëŀĮ":4438,"ĠìĦ¸ëł¥":4439,"ìĭ¤íĹĺ":4440,"Ġìŀ¥ëĤľ":4441,"ĠëĤ¨íķľ":4442,"ĠìŀĳìĦ±":4443,"Ġ197":4444,"ìĦĿìĿĦ":4445,"Ġë³´ê³łìĦľëĬĶ":4446,"ìĺ¬ë¦¼íĶ½":4447,"ì¶ķêµ¬":4448,"Ġì¿łë°Ķ":4449,"Ġëĭ¹ìĦłìĿ¸ìĿĢ":4450,"Ġì¦īìĭľ":4451,"Ġë°ĶëŀĢëĭ¤":4452,"Ġëĥī":4453,"'s":4454,"ĠëŃ":4455,"ìĽĲìľ¼ë¡ľ":4456,"ìĸ´ìķ¼":4457,"ĠìķĦì£¼":4458,"íĬ¸ê°Ģ":4459,"íĬ¸ìĹĲìĦľ":4460,"íģ¬ë¦¬ìĬ¤":4461,"Ġì¹¸":4462,"Ġë¯¸êµŃìĹĲ":4463,"Ġíķ´êµ°":4464,"Ġëħ¸ëŀĺ":4465,"ĠëĮĢíķ´ìĦľ":4466,"ĠìĹĲëĵľ":4467,"ĠìŀħìĹĪëĭ¤":4468,"Ġíİł":4469,"ort":4470,"Ġì¡¸":4471,"Ġë°©ë¬¸íķľ":4472,"outh":4473,"Ġê³³ìĹĲ":4474,"Ġì¿łë¥´ëĵľ":4475,"íľ´":4476,"Ġëª©ìĪ¨ìĿĦ":4477,"ain":4478,"ëĿ¼ë¹ĦìķĦ":4479,"ĠìĪĺì¹ĺ":4480,"ĠìľĦìĦ±":4481,"ë¯¸ëĶĶ":4482,"ĠìķĮë¦¬":4483,"ë¶ĦìĿ´":4484,"ĠêµĲìĪĺ":4485,"Ġëĵ±ìĿ´":4486,"ëŀĢëĵľ":4487,"Ġë²ķìķĪìĿĦ":4488,"ì¤¬ëĭ¤":4489,"Ġëģ¼":4490,"ĠìĻĦíĻĶ":4491,"Ġë°ĺëĮĢíķĺëĬĶ":4492,"ìĭľì¼°":4493,"Ġëª©íĳľë¡ľ":4494,"ks":4495,"ĠëĮ":4496,"ëĭĲ":4497,"ìĿ¼ëŀľëĵľ":4498,"ĠìłĦê¹Įì§Ģ":4499,"ê·¸ê²ĥìĿĢ":4500,"Ġì£¼ìµľ":4501,"Ġë³´ìŀ¥":4502,"ĠìŀĲë£Į":4503,"íĨµìĭł":4504,"ĠìĿ¼ìĸ´ëĤľ":4505,"ëĭĪê°Ģ":4506,"ĠëıĻê²°":4507,"ĠíıŃíĴį":4508,"ĠSt":4509,"ĠìĤ¬ê³łë¡ľ":4510,"ĠíĬ¸ëŁŃ":4511,"ĠêµŃë°©ë¶Ģ":4512,"ĠíĮĲê²°ìĿĦ":4513,"Ġê·¸ëħĢìĿĺ":4514,"Ġì¹´ë©ĶëĿ¼":4515,"16":4516,"íķĺê¸¸":4517,"Ġê²ĥëıĦ":4518,"ĠìĿ¸ìĥģ":4519,"Ġìĺ¤íĶĪ":4520,"ìĦ¸ê¸°":4521,"ëª¨ëĵł":4522,"ĠíĻķëĮĢ":4523,"ary":4524,"ĠìĹ´ë¦´":4525,"Ġë°ķë¬¼":4526,"ĠíĻľìļ©":4527,"ĠíķĦìļĶê°Ģ":4528,"íĳ¸ë¥´":4529,"ĠìĹ°ìĦ¤ìĿĦ":4530,"ĠìĿ´ìķ¼ê¸°ë¥¼":4531,"´ëĤĺ":4532,"ëĴ":4533,"Ġìķī":4534,"ìĬ¤ìºĲë¡¤ëĿ¼ìĿ´ëĤĺ":4535,"ĠìŀĲì¹ĺ":4536,"Ġìĺ¤íķĺìĿ´ìĺ¤":4537,"Ġìľłë¡ľ":4538,"ĠìľłìłĦ":4539,"Ġìĥģì§ķ":4540,"ìĨĮë¡ľ":4541,"Ġì¡°ìłķ":4542,"ë°Ķë¡ľ":4543,"íĤ¤ëĬĶ":4544,"ìĭĿìľ¼ë¡ľ":4545,"Ġíķ´ìłľ":4546,"Ġ45":4547,"Ġë¶ĪëŁ¬":4548,"ë¥´ë²ł":4549,"Ġìłģìĸ´ëıĦ":4550,"ĠìĭľìŀĳëĲľ":4551,"ĠìłĢëħģ":4552,"Ġê³³ìĹĲìĦľ":4553,"Ġì¶ķíķĺ":4554,"Ġë¨¸ë¬¼":4555,"¤ëĭ¤":4556,"Ġëķħ":4557,"íķĺë§Ī":4558,"Ġì§ĢìĹ°":4559,"ĠìłĦíĺĢ":4560,"ĠìķĦë¬´":4561,"ĠìĿ¸ê¸°":4562,"ë¬¸ìĿ´":4563,"Ġëĭ¤ëĭĪ":4564,"ëĭ¹ìĿ¸":4565,"ëĲĺë©°":4566,"ĠìĺĪìĪł":4567,"Ġì´Ŀìŀ¬":4568,"Ġë¶Ħëħ¸":4569,"Ġë°ľê²¬ëĲĲëĭ¤":4570,"ëłĪìĿ´ìĭľìķĦ":4571,"Ġê·¼ë¡ľ":4572,"ith":4573,"Ġëĸ¨ìĸ´ìł¸":4574,"íĶĮë£¨":4575,"our":4576,"ĠíĴĪ":4577,"Ġë°ľìĸ¸ìĿĦ":4578,"ĠìĹ°ìĦ¤ìĹĲìĦľ":4579,"Ġìµľì´ĪìĿĺ":4580,"ace":4581,"Ĩĵ":4582,"ìĦŃ":4583,"ëıĦëĬĶ":4584,"ë§Įëªħ":4585,"Ġë§Ĳíķľ":4586,"íĦ¸":4587,"Ġë²½":4588,"ìľĦìĿĺ":4589,"ĠìłľìŀĦìĬ¤":4590,"ĠìĺĪë°©":4591,"ìŀ¬íĮĲ":4592,"ĠëıĦì¤ĳ":4593,"íĨłëĭĪ":4594,"Ġë²ķë¥ł":4595,"Ġê²½ìłľìłģ":4596,"Ġì§ģë©´":4597,"ĠìĤ¬ìĿ´íģ´":4598,"ĠìĪ¨ì§Ħ":4599,"ĠìĻķìĦ¸":4600,"Ġë³´ëĤ¸":4601,"ĠEU":4602,"ĠëĤ®ìĿĢ":4603,"Ġíķ´ë³ĳ":4604,"ĠëĤĺë¨¸ì§Ģ":4605,"cnn":4606,"os":4607,"Ġis":4608,"ìĭľìĿĺ":4609,"ĠìĿ´ëªħ":4610,"Ġê¸°íļĮë¥¼":4611,"Ġê²½ë¹Ħ":4612,"Ġê·¸ìĹĲê²Į":4613,"Ġìĺ¤ëŀ«ëıĻìķĪ":4614,"ë¥´ê¸°":4615,"Ġê³łëŀĺ":4616,"íı¬íĦ°":4617,"ĠìĿ´ëĿ¼íģ¬ìĿĺ":4618,"Ġì¤ĳêµŃìĿ´":4619,"íĥĪëłĪë°ĺ":4620,"ĠëĤĺíĥĢëĥĪëĭ¤":4621,"ĠëĮĢíĳľíĮĢ":4622,"Ġë°ĿíĺĢì§Ģì§Ģ":4623,"Ġbe":4624,"Ġê²ªê³ł":4625,"ë¹Ħíĸīê¸°":4626,"ĠìĿ´ëªħë°ķ":4627,"13":4628,"ê¿":4629,"ĠìĿ´ëĵ¤ìĿĦ":4630,"ĠìĿ´íĺ¼":4631,"íĻĢ":4632,"ëĵľë¥´":4633,"ì²¨":4634,"ĠìĹ°ë£¨":4635,"ìĹ¬ëªħìĿĺ":4636,"Ġê°ľìŀħ":4637,"Ġìĭłì²Ń":4638,"Ġë¶Īê³¼":4639,"ĠìĻ¸ë¬´ë¶Ģ":4640,"ë¥´ëĤ":4641,"Ġë¬¸ìłľë¡ľ":4642,"Âł2008":4643,"ĠìķłìĻĦ":4644,"ĠìĤ¬ê³łê°Ģ":4645,"ĠUN":4646,"Ġìĸ¼êµ´":4647,"ĠëĨĵê³ł":4648,"ë¥´ë¹ĦìķĦ":4649,"ìŀĺ":4650,"ëłĢëĭ¤":4651,"ìĬ¤íĨ¤":4652,"ĠëĮĢíĺķ":4653,"ê·¸ëŀĺ":4654,"ëĮĢíķĻ":4655,"Ġì£¼íķľ":4656,"ĠìľĦê¸°ìĹĲ":4657,"êµ°ìĿĦ":4658,"Ġë°©íĸ¥":4659,"ĠìĹĨëĭ¤ëĬĶ":4660,"ĠìķĮìķĦ":4661,"ìĹ°ë§¹":4662,"Ġìĭ¤ìĹħ":4663,"Ġë§¤ìĿ¼":4664,"Ġìĺ¤ë°Ķë§ĪìĿĺ":4665,"Ġë¬¼ì§Ī":4666,"Ġê°ĢëĬ¥ìĦ±ìĿĦ":4667,"Ġê²°ê³¼ê°Ģ":4668,"ëĳ¥":4669,"ĠìĿ´ìļ©íķ´":4670,"ê¾¸":4671,"ĠëıĻìĦ±ìķł":4672,"ĠìŀĪìĿĮìĿĦ":4673,"íģĲ":4674,"ìĦłìĹĲ":4675,"ìĺģíķľ":4676,"Ġìļ°ë¦¬ìĿĺ":4677,"ìĹ°ë°©":4678,"Ġ2009":4679,"Ġë¡ł":4680,"Ġë²Ħì§ĢëĭĪìķĦ":4681,"ĠìľĦíĹĺíķľ":4682,"ê´Ģê³Ħë¥¼":4683,"Ġë¶ķê´´":4684,"Ġë¨¼ìłĢ":4685,"up":4686,"¼Ī":4687,"ìĿ´ëĵľ":4688,"ìĹĲìĦł":4689,"ĠìĹ°ìŀ¥":4690,"ì¡°ì§ģ":4691,"Ġëª¨ìĹ¬":4692,"ìĽĶê¹Įì§Ģ":4693,"Ġê³łìĸĳ":4694,"ìķĺëįĺ":4695,"Ġê°ľìłķ":4696,"Ġìŀ¥ìķł":4697,"ĠíĮĮìĨĲ":4698,"Ġêµ¬ìŀħ":4699,"Ġëħ¸ëł¥ìĿĦ":4700,"Ġì°¨ê¸°":4701,"íĨłíį¼":4702,"Ġêµ°ìĿ¸":4703,"Ġë¦¬ë²Ħ":4704,"Ġê²ĢìĤ¬ë¥¼":4705,"ĠíļĮëĭ´ìĹĲìĦľ":4706,"ĠìĨįìĹĲ":4707,"Ġë¹łë¥¸":4708,"Ġì¼ĢëĥĲ":4709,"Ġcon":4710,"Ġì£½ìĿĮ":4711,"ìģĺ":4712,"ìģľ":4713,"Ġìķ¨ë²Ķ":4714,"15":4715,"ì¯":4716,"ê°Ķ":4717,"ìĭ¼":4718,"ê°Ģë²ł":4719,"ë¦¬íķĻ":4720,"ì²¼":4721,"Ġìĺ¤ëŀľ":4722,"íĥĢìŀĦ":4723,"ê°ľêµŃ":4724,"Ġê²°ë¡ł":4725,"ĠëıĦì¿Ħ":4726,"ë²ĦëĿ½":4727,"Ġì£¼ìŀ¥ìĿĦ":4728,"ëĤ´ê°Ģ":4729,"Ġë¹Ļ":4730,"Ġëª©ìłģ":4731,"ĠìĺģíĻĶë¥¼":4732,"ì¦ĿìĿĦ":4733,"ĠìĪ¨ì¡Įëĭ¤":4734,"ĠìĨĮìĭĿìĿĦ":4735,"ĠíķľëĤĺëĿ¼ëĭ¹":4736,"ë¦¬ìļ°ëĵľ":4737,"ª¨":4738,"Ġê¾":4739,"ĠìĿ´íĸī":4740,"ĠìĿ´ëĭ¬":4741,"ĠìĪĺìłķ":4742,"ĠìķĦê¸°":4743,"Ġì£¼ë¡ľ":4744,"Ġê¸°ë°ĺ":4745,"Ġê¸°ë³¸":4746,"Ġê¸°ëĬ¥":4747,"ĠìŀĲìĦ¸":4748,"ë³´ê°Ģ":4749,"ë³´íĺ¸":4750,"ĠìĿ¼ìļĶìĿ¼":4751,"íĸĪëĬĶëį°":4752,"ëĶķ":4753,"Ġíķĺë§Ī":4754,"ĠëıĻìĭľ":4755,"ĠíĮĮê´´":4756,"ĠìĤ¬ëŀĮëĵ¤":4757,"Ġë©°":4758,"ëĤ´ëĬĶ":4759,"Ġì§ĳìĹĲìĦľ":4760,"ì»·":4761,"ë©Ķë¥´íĬ¸":4762,"ĠíħĮëŁ¬ë¥¼":4763,"ĠìŀĦë¬´":4764,"Ġê³ĦìĨįíķ´ìĦľ":4765,"Ġëĵ¤ìĸ´ê°Ģ":4766,"ĠìłĪë°ĺ":4767,"Ġì±ħìŀĦìĿĦ":4768,"ëĲĺìĹĪìĬµëĭĪëĭ¤":4769,"ĠìĶ¨ëĬĶ":4770,"ĠíĿĳìĿ¸":4771,"Ġê±±ìłķ":4772,"Ġê°¤":4773,"ĠëĤ³":4774,"Ġë³´ìĿ´ê³ł":4775,"ë§ĪìĿ¼":4776,"ë¯¸íĦ°":4777,"Ġíķĺê²Į":4778,"ì²´ë¥¼":4779,"ë°©ìĿĦ":4780,"ì¤ĳêµŃìĿĢ":4781,"Ġì¦Ŀëªħ":4782,"ĠëĳĲëł¤":4783,"ì»¨":4784,"Ġíĥľìĸĳ":4785,"ìºł":4786,"Ġíķ´ë³Ģ":4787,"ìĿ´ê²ĥìĿĢ":4788,"ĠëĮĢì²ĺ":4789,"Ġê²ĥì²ĺëŁ¼":4790,"Ġì§Ģì¶ľ":4791,"Ġìĥī":4792,"Ġë³´ê¸°":4793,"ë¥´íģ¬":4794,"ë¥´íĹ¨":4795,"ĠìµľìłĢ":4796,"ì²´ìĬ¤íĦ°":4797,"Ġë¶ģê·¹":4798,"Ġê°ķíĥĢ":4799,"ĠìķĪìłķ":4800,"Ġì§ĳê³Ħ":4801,"ë©Ķë¦¬":4802,"Ġì§ģíĽĦ":4803,"ì¤Ģëĭ¤":4804,"Ġë¶ĢìĥģíĸĪëĭ¤ê³ł":4805,"Ġì¶ľìĭłìĿĺ":4806,"Ġì°¨ì§ĢíĸĪëĭ¤":4807,"ìķĦíĶĦê°Ħ":4808,"Ġì£¼ìĿ¸ê³µ":4809,"¹ìĿĢ":4810,"ë¥´ëıĦ":4811,"íķĺê²łëĭ¤ëĬĶ":4812,"ĠëĮĢíĻĶ":4813,"ìŀĲê¸Ī":4814,"ĠìĪĺìļĶìĿ¼":4815,"ì¹¼":4816,"ì¹Ļ":4817,"Ġê·¸ëħĢëĬĶ":4818,"ê±¸":4819,"Ġë¶ĢëĮĢ":4820,"ĠëĤ¨ìĦ±ìĿ´":4821,"Ġë°ľíĳľíķł":4822,"ĠìŀĦë¬´ë¥¼":4823,"Ġê²½ê¸°ìĹĲ":4824,"ë³µìĿĦ":4825,"Ġë§ŀìķĦ":4826,"ĠíĹĪê°Ģ":4827,"Ġpro":4828,"Ġíĺķíĥľ":4829,"Ġë¹ĦìĥģìĤ¬íĥľ":4830,"Ġë©Ķìĭľì§Ģë¥¼":4831,"ĠëĮĢìĿĺìĽĲ":4832,"Ġë¸Ķë¡ľê·¸ìĹĲ":4833,"ëľ¨":4834,"ìĿ´ìĬ¬ëŀĮ":4835,"ĠìĤ¬íķŃ":4836,"ìĸ´ìĬ¤":4837,"íĬ¸ìĹĲ":4838,"Ġì£¼ê³ł":4839,"Ġìĭľìŀ¥ìĿĢ":4840,"Ġì¤ĳìĿ´ëĭ¤":4841,"ì¹ĺë¡ľ":4842,"ìķĪë³´":4843,"ĠëĤĺë¬´":4844,"íı¬ë¥¼":4845,"Ġìĭ¤ë§Ŀ":4846,"Ġê°Ĳì¶ķ":4847,"ĠêµĲíĻ©":4848,"ìĬ¹ìĿĦ":4849,"Ġë²ķìłķ":4850,"Ġíķµìĭ¬":4851,"ĠìĤ¬ìļ©íķĺëĬĶ":4852,"ĠìĦłê±°ìļ´ëıĻ":4853,"ìĸ´ëĤł":4854,"ĠíĹĪë¦¬ì¼ĢìĿ¸":4855,"Ġê¸°ë¡ĿìĿĦ":4856,"ĠìłĲëł¹":4857,"Ġìķķëĳĺ":4858,"Ġìĭ¤ìĭľëĲľ":4859,"Ġì¶Ķê°Ģë¡ľ":4860,"Ġë³ĳìĽĲìľ¼ë¡ľ":4861,"Ġìī½ê²Į":4862,"ĠìĤ¬ë¥´ì½Ķì§Ģ":4863,"ì§Ģê²Į":4864,"ĠìĹ¼":4865,"ĠìĪĺë°ĺ":4866,"ĠìĿ´ë¯¼":4867,"êµ¬ì¡°":4868,"ĠìĿĺíķľ":4869,"íĶĦëŀĢ":4870,"Ġìļ°íģ¬ëĿ¼ìĿ´ëĤĺ":4871,"Ġë¶ĦìľĦ":4872,"Ġì²ĺë²Į":4873,"ìłĲìĹĲ":4874,"ĠìĨĲìĿĦ":4875,"ĠìĪ¨ì¡Įëĭ¤ê³ł":4876,"ĠëģĿëĤĺ":4877,"ìĽ¨ìĿ´":4878,"ĠíĮ¨ìħĺ":4879,"ĠíĸīëıĻìĿĦ":4880,"ĠìľĦìĽĲìŀ¥ìĿĢ":4881,"Ġìĸµë¥ĺ":4882,"ĠìĹ´ëł":4883,"ìłķë³´":4884,"ì£¼ë¡ľ":4885,"Ġë§Ĳë¦¬íĤ¤":4886,"ĠíĺĪ":4887,"ĠìĿ¸ìĤ¬":4888,"ĠìĿ¼ìĸ´ëĤ¬":4889,"Ġì¡°ìŀĳ":4890,"ëĶĺ":4891,"Ġ32":4892,"ìľłê°Ģ":4893,"Ġì´Ŀê²©ìĿĦ":4894,"ë¶ĦìĿĦ":4895,"Ġì§Ħìŀħ":4896,"ĠìĽĲì¡°":4897,"Ġë¹Ľ":4898,"Ġìĸ¸ìłľ":4899,"ĠìĤ¬ìļ©íķł":4900,"Ġíĳľëªħ":4901,"Ġì£¼ë¯¼ëĵ¤ìĿĢ":4902,"Ġíļį":4903,"ĠìĦľë¹ĦìĬ¤ë¥¼":4904,"íĶĦíĬ¸ìĽ¨ìĸ´":4905,"Ġì°°ìĬ¤":4906,"27":4907,"ear":4908,"įìłķ":4909,"ëĭ·":4910,"íķ´ë¦¬":4911,"ëłĽ":4912,"ìĭľíĭ°":4913,"ĠìĿ´ëĵ¤ìĿĺ":4914,"Ġê¸°êµ¬":4915,"Ġì¡°ê¸Ī":4916,"ì²´ê°Ģ":4917,"ĠìĭłìĨį":4918,"Ġë©ĭ":4919,"ĠìŀĳìłĦ":4920,"Ġì£¼ìŀ¥íķĺëĬĶ":4921,"Ġë°ľìĥĿíķł":4922,"Ġëª©ìļĶìĿ¼":4923,"ìĬ¬ëŁ¬":4924,"ĠìĥĿê°ģíķĺê³ł":4925,"ìĺĪë¥¼":4926,"Ġ150":4927,"Ġì°¸ìĦĿíķľ":4928,"199":4929,"ìĦľìļ¸":4930,"ĠëĮĢë¶ģ":4931,"ĠëĮĢíĻĶë¥¼":4932,"ìĤ¬ìĹĲìĦľ":4933,"Ġì§Ģê¸ī":4934,"ëĤĺìĿĺ":4935,"ëĤĺìĻĢ":4936,"Ġê¸°ìŀĲëĬĶ":4937,"ĠìľłëĮĢ":4938,"ĠíķĺìĿ´":4939,"Ġë°ĶìĿ´":4940,"ĠíĶ¼íĦ°":4941,"ans":4942,"ĠìĺĪìłķìĿ´ë©°":4943,"ìĬ¨ìĿ´":4944,"Ġë¦°":4945,"ĠíĽĦë³´ìĿĺ":4946,"ĠíĽĦë³´ë¡ľ":4947,"ĠìĤ°ë¶Ī":4948,"ĠìĦłê±°ìĹĲìĦľ":4949,"íĻĺìĿĦ":4950,"ĠìķłíĶĮ":4951,"ĠìĥģíĻ©ìĹĲ":4952,"ĠìķĦì§ģëıĦ":4953,"ì§ĢìĹŃìĹĲ":4954,"Ġë³ĳìĽĲìĹĲìĦľ":4955,"ĠìĹ¬íĸīìĿĦ":4956,"ë´ĩ":4957,"BA":4958,"Ģëĵľ":4959,"ê³łë¥¼":4960,"Ġëĭ´ë°°":4961,"ì£¼êµĲ":4962,"Ġê°Ģìłķ":4963,"ĠìĿ¼ìłķ":4964,"ë©´ìĿĦ":4965,"íĳľë¥¼":4966,"ĠìĬ¤íħĮ":4967,"Ġì´ĿìĿĦ":4968,"Ġìĭłì¢ħ":4969,"ë¶Ħê¸°":4970,"ëĶĶìķĦ":4971,"ine":4972,"ant":4973,"Ġì¦Ŀê¶Į":4974,"ĠìĤ´íķ":4975,"Ġíı¬íķ¨íķ´":4976,"Ġíľ©":4977,"ë¹ł":4978,"ĠëĤĺíĥĢëĤĺ":4979,"ĠëĮĢíķĻìĿĺ":4980,"ĠíķĺëĿ½íĸĪëĭ¤":4981,"ĠëŀŃíĤ¹":4982,"ign":4983,"ë²łìĿ´ëĭĪìķĦ":4984,"Ġìĩ¼íķĳ":4985,"ìĵ°":4986,"Ġìŀīê¸Ģëŀľëĵľ":4987,"kg":4988,"ìĦ¯":4989,"íķĺëĿ¼ëĬĶ":4990,"íķĺë©Ķëĵľ":4991,"ëĿ¼ìĿĺ":4992,"Ġë¬´ëĮĢ":4993,"Ġíĺģ":4994,"ĠëĮĢíĨµëł¹ìĹĲ":4995,"ê²©ìĿ´":4996,"Ġì´Ŀê¸°":4997,"Ġ400":4998,"ĠíĨµíķ©":4999,"Ġê±°ëĮĢíķľ":5000,"Ġì°¨ê´Ģ":5001,"ëĦ¤ìĿ´":5002,"ĠìĪĻ":5003,"ĠìĭľìŀĳëĲĲëĭ¤":5004,"Ġìĸ»ìĿĢ":5005,"ĠNA":5006,"Ġì£Ħ":5007,"Ġìĸ¸ë¡łìĿĢ":5008,"ĠëĲĲëĭ¤ê³ł":5009,"ĠìĤ¬ë¬´ì´Ŀìŀ¥ìĿĢ":5010,"ëĤĺìĿ´íĭ°":5011,"ab":5012,"ëĢ":5013,"Ġëī":5014,"ì§Ģë©´ìĦľ":5015,"ëĿ¼íģ¬":5016,"Ġì§ĢíĤ¤":5017,"ìķĦëª¬":5018,"ìłķì±ħ":5019,"ì°į":5020,"ê³ĦìĹĲ":5021,"íĮ¬":5022,"ë¥´ì§Ģ":5023,"ĠìŀĪëĬĶëį°":5024,"ëŀĺìĬ¤ì¹´":5025,"Ġë§ĮëĵľëĬĶ":5026,"íĭ°ìķĦ":5027,"ĠìĤ¬ë§ĿíĸĪìľ¼ë©°":5028,"Ġ196":5029,"Ġë²łì»´":5030,"ìĸ´ëĸ":5031,"Ġë¹¨ë¦¬":5032,"ĠíħĮëŁ¬ë¦¬ìĬ¤íĬ¸":5033,"ì³¤ëĭ¤ê³ł":5034,"Ġë¨¸ë¦¬":5035,"ĠíĻįë³´":5036,"íģ´ë¦°íĦ´ìĿĢ":5037,"Ġê³łìĨįëıĦë¡ľ":5038,"ĠìĭľìĥģìĭĿ":5039,"ĠìĪĺëĭĪíĮĮ":5040,"ld":5041,"Ġê¶ģ":5042,"ìĿ´ë¯¸":5043,"ìĿ¸ëĵ¤ìĿĺ":5044,"ĠìĤ¬ë¡Ģ":5045,"ëĮĢìĽĲ":5046,"ë§Įíķľ":5047,"Ġë³´íĹĺ":5048,"Ġíķľìĺģ":5049,"Ġìĸ´ëł":5050,"ê³ĦìĿĺ":5051,"Ġìĥģëĭ¹":5052,"ĠìŀĪëĬĶì§Ģ":5053,"Ġë§ĪìĿĮ":5054,"Ġë¬´ìĭľ":5055,"íĭ°ëĬĶ":5056,"Ġëĭ¬ëĿ¼":5057,"Ġë°°ëŁ´":5058,"Ġëª»íķł":5059,"Ġíıīìĸĳ":5060,"ĠìŀĦìĭł":5061,"Ġê°Ģê²©ìĿ´":5062,"Ġë¶ĢìĿ¸íĸĪëĭ¤":5063,"ìĿ´ëŁ¬íķľ":5064,"ĠìĬĪíį¼":5065,"ìĺģíķľìĤ¬ìłĦ":5066,"ĠíķľìĺģìĤ¬ìłĦ":5067,"ëĵ¤ë¦°":5068,"ĠëĮĢëĭµ":5069,"ìŀĲëıĻì°¨":5070,"êµŃë¯¼":5071,"ĠìłĦëł¥":5072,"Ġë³´ìĿ´ì§Ģ":5073,"íģ´ëĿ¼":5074,"Ġê³µêµ°":5075,"ëĲĺë©´":5076,"ìĦłìĿ´":5077,"ĠëĮĢíĨµëł¹ìĹĲê²Į":5078,"ĠìķĮëłī":5079,"ĠìĦ±íĻĶ":5080,"Ġìŀ¥ë¡Ģ":5081,"Ġìŀħìŀ¥":5082,"ĠìĽĲìŀĲë¡ľ":5083,"Ġë¬¸ìłľëĬĶ":5084,"ĠëĲĺë©´":5085,"Ġë¹ħ":5086,"ìłĲìĿ´":5087,"Ġíĳľìĭľ":5088,"Ġë¯¸êµ°ìĿĺ":5089,"Ġì§Īë³ĳ":5090,"Ġê¸°ìĪłìĿĦ":5091,"ĠìĹĦë§Ī":5092,"24":5093,"26":5094,"US":5095,"°Ķ":5096,"´ëĭ¤":5097,"ê³łíķľ":5098,"ìĿ¸ìľ¼ë¡ľ":5099,"ëłĢ":5100,"ë°Ķëĭ¤":5101,"ëŀŃ":5102,"ìĥģìľ¼ë¡ľ":5103,"Ġëĭ¤ê°Ģ":5104,"ë¹Ħê°Ģ":5105,"ëłĪìĸ´":5106,"ĠìľĦíķ´ìĦľ":5107,"ĠíĽĦë°ĺ":5108,"Ġëĭ¹íķľ":5109,"Ġë°ĶëĢ":5110,"Ġìŀ¥ìķħ":5111,"Ġë¶Īë§ĮìĿĦ":5112,"ĠëĤ´ê°ģ":5113,"ĠìŀĳëħĦ":5114,"ard":5115,"Ġì¤Ħìĸ´ëĵ¤":5116,"ĠìķĬëĬĶëĭ¤ê³ł":5117,"ĠìĥģíĻ©ìĹĲìĦľ":5118,"ice":5119,"íıīíĻĶ":5120,"íĮĢìĿĢ":5121,"Ġìĭ¤ìĭľíķľ":5122,"íĬ¼ìĿĢ":5123,"ĠìłĦë§ĿìĿ´ëĭ¤":5124,"NASA":5125,"//":5126,"14":5127,"tp":5128,"tr":5129,"īìĿĢ":5130,"ë¦¬ë©°":5131,"ê¸°ê´Ģ":5132,"ê¸°ìĪł":5133,"Ġê³¡":5134,"Ġê²ĥë³´ëĭ¤":5135,"ìĨĶ":5136,"Ġê°ĢëĬĶ":5137,"Ġê²½íĺ¸":5138,"Ġë³´ìĿ´":5139,"ìļ°ëĬĶ":5140,"ĠìĨĮê°ľ":5141,"ìĦłìĪĺ":5142,"Ġíĥģ":5143,"ë¬´ìĹŃ":5144,"ĠìĺĪë¹Ħ":5145,"ĠíĮĮìķħ":5146,"ì²ŃìĿĢ":5147,"ëıħêµĲ":5148,"ìħĢë¡ľ":5149,"ĠíĮĲìĤ¬ëĬĶ":5150,"Ġë³ĢíĻĶë¥¼":5151,"Ġì¡°ìĤ¬íķĺê³ł":5152,"ëıĮë¦¬ìŀĲ":5153,"ĠìķĮëł¤ìł¸":5154,"íĶĮëłĪìĿ´":5155,"ĠìŀĪìĹĪìľ¼ë©°":5156,"ĠìĿĺíļĮê°Ģ":5157,"Ġìķ½ìĨįíĸĪëĭ¤":5158,"://":5159,"ç¾":5160,"ĠëĮĢì¶ľ":5161,"ë°¤":5162,"ìĸĦ":5163,"ĠìĺĨ":5164,"ìĽĲìłľ":5165,"Ġê¸°ìļ¸":5166,"ĠìķĬëĭ¤ê³ł":5167,"ĠìķĬëıĦë¡Ŀ":5168,"Ġê¸įìłķ":5169,"ìļ´ëĵľ":5170,"ë¶ĦìĿĺ":5171,"ĠëĤ´ë¦°":5172,"Ġê°ķíķĺê²Į":5173,"ĠìŀĲìĭłëĵ¤ìĿ´":5174,"ëįĶëĿ¼ëıĦ":5175,"ĠìĥĪë¡ľ":5176,"ĠìĿĮìĭĿ":5177,"ĠëĮĢìĦłíĽĦë³´ìĿ¸":5178,"ĠìĪĺìĪłìĿĦ":5179,"ĠìĨĮìĭĿíĨµìĿĢ":5180,"ë¥´íĹ¨íĭ°ëĤĺ":5181,"OC":5182,"cat":5183,"ìĿ¸íķĺ":5184,"ì£¼ê°Ħ":5185,"ìłľìĹĲ":5186,"Ġê¸°íĽĦ":5187,"Ġê¸°ìŀĲê°Ģ":5188,"ĠìĨĮíĶĦíĬ¸ìĽ¨ìĸ´":5189,"ĠëĤĺìĦ°ëĭ¤":5190,"Ġë¬´ë¦":5191,"ĠíĸīìľĦë¥¼":5192,"orth":5193,"ì²ĺë¥¼":5194,"Ġê³ĦíļįìĿ´":5195,"ìłķë¶Ģê°Ģ":5196,"Ġë¸Įë¦¬":5197,"Ġë³µìļ©":5198,"Ġì²´íı¬ëĲľ":5199,"Ġêµ¬ìĦ±ëĲľ":5200,"http":5201,"Ġì°¬ìĦ±":5202,"Ġê°Ģê¹Įìļ´":5203,"Ġê·¸ëłĩê²Į":5204,"Ġë¹ĦìĬ·íķľ":5205,"29":5206,"Tot":5207,"¶Ī":5208,"Ġê½":5209,"ê°ĢìĿĺ":5210,"ĠìĿ´ë¡ľ":5211,"ĠìķĬìľ¼ë©´":5212,"ë¯¸ìĸĢë§Ī":5213,"Ġì¡°ê°ģ":5214,"ĠìĹĨìĹĪëĭ¤ê³ł":5215,"ĠíĻķìłķ":5216,"íķ¨ìľ¼ë¡ľìį¨":5217,"Ġíĺĳì¡°":5218,"ĠíķĦë¦¬íķĢ":5219,"ĠíħĮëŁ¬ë¡ľ":5220,"íĻĺìľ¼ë¡ľ":5221,"ê²ĥìĿĦ":5222,"ĠìĨįìĹĲìĦľ":5223,"ĠìĦĿë°©ìĿĦ":5224,"Ġê¸´ìŀ¥":5225,"Ġëª°ìķĦ":5226,"ìĶ¬":5227,"Ġì²ŃìĨĮëħĦ":5228,"code":5229,"Total":5230,"##":5231,"å·":5232,"ìĿ´ìĹĪëįĺ":5233,"ê°Ģì¡±":5234,"ë¦¬ì¡°":5235,"ë¦¬ìĺ¤":5236,"ë²¤":5237,"Ġê°ĢìĪĺ":5238,"Ġê¸°íĥĢ":5239,"ìľĦìĬ¤":5240,"Ġëį¸":5241,"Ġì¹´ëĿ¼":5242,"Ġ36":5243,"ĠìĹ°ëĿ½":5244,"ĠíķĺìĽĲ":5245,"Ġë°©íķ´":5246,"ìĸ¸ë¡ł":5247,"Ġë¹¼":5248,"asp":5249,"Ġì¤Ģë¹Ħê°Ģ":5250,"Ġì°©ìĪĺ":5251,"ĠëĤĺëĪ":5252,"ç¾İ":5253,"ly":5254,"¾Į":5255,"ê°Ĵ":5256,"ìŀĲëł¥":5257,"ìŀĲëĵ¤ìĹĲ":5258,"íĺĶëĭ¤":5259,"ì£¼ë¯¼":5260,"ê°Ħëĭ¤":5261,"Ġê·¸ë¦¬ìĬ¤":5262,"ìłĦìĿĺ":5263,"ĠêµŃìĻķ":5264,"ë¥´íĨł":5265,"ĠìĹĨìĬµëĭĪëĭ¤":5266,"íĺ¸ê°Ģ":5267,"Ġê°ķê²½":5268,"ë°ľìĿĦ":5269,"ëĦ¤ëĶĶ":5270,"Ġì§ĳìĿĦ":5271,"ĠìĺģêµŃìĿĺ":5272,"ess":5273,"ĠíļĮëĭ´ìĿĢ":5274,"Ġìļ´íĸī":5275,"Ġê°ĸì¶Ķ":5276,"Ġìķķëł¥ìĿĦ":5277,"ĠìĹ¬íĸīê°Ŀ":5278,"Ġwith":5279,"Ġë¶Īê°ĢëĬ¥":5280,"ê¾¼":5281,"Ġë¬´ëł¥":5282,"å·ŀ":5283,"¼ë¡ľ":5284,"Ġë½":5285,"ìĿ´íģ¬":5286,"ĠëĮĢê¸°":5287,"ĠëĮĢìĤ¬":5288,"ìŀĲê¸°":5289,"êµŃìľ¼ë¡ľ":5290,"ìĭľìĬ¤ì½Ķ":5291,"ĠìĪĺìĺģ":5292,"ìłģìĿ´ê³ł":5293,"ì£¼ë¥¼":5294,"íĬ¸ìĽĮ":5295,"íĻĶíĨµìĭłìĿĢ":5296,"ê³Ħê°Ģ":5297,"ëł¹ìĿĦ":5298,"ĠìĿĺìŀ¥ìĿĢ":5299,"Ġê³łë¬¸":5300,"ĠìĬ¤ìĬ¤ë¡ľ":5301,"ê²©ìľ¼ë¡ľ":5302,"ĠìĦ±íĸ¥":5303,"ìĤ°ìĿ´":5304,"ĠìĹĲìĿ´ì¦Ī":5305,"ĠëĤ´ìĹĲ":5306,"Ġë©Ģ":5307,"ë¸Įë¦¬":5308,"Ġê²½ì°°ê³¼":5309,"Ġë²ĮìĿ¸":5310,"ëħ¸ëıĻ":5311,"Ġì¹ĺìķĪ":5312,"Ġìłģê·¹":5313,"ĠìĤ¬ê±´ìĿĺ":5314,"ĠìļĶêµ¬ë¥¼":5315,"ĠìĿ¼ë¶ĢëĬĶ":5316,"Ġì°¾ê¸°":5317,"ĠìĪĺìĥģíĸĪëĭ¤":5318,"ĠìĤ´íķ´íķľ":5319,"Ġíģ¬ë¦¬ìĬ¤ë§ĪìĬ¤":5320,"ĠìĽ¹ìĤ¬ìĿ´íĬ¸ìĹĲ":5321,"ĠìĬ¤ë¯¸ìĬ¤":5322,"Ġêµ¬ì²´ìłģìĿ¸":5323,"Ġê¾¸":5324,"DC":5325,"qu":5326,"ëĿ¼ëĬĦ":5327,"ìĿ¼ìĿĺ":5328,"ĠìĿ´ëł":5329,"ĠìĿ¸ì¢ħ":5330,"ĠìŀĲíĥĿ":5331,"ĠêµŃíļĮ":5332,"ìĹĪìĿĦ":5333,"íĪ¬ê°Ī":5334,"ë¨¸ëĭĪ":5335,"Ġì°¨ëŁīìĿĦ":5336,"ĠìĿ¸ìłķíĸĪëĭ¤":5337,"ĠìĨĮë¹ĦìŀĲ":5338,"ress":5339,"Ġëĭ¤ìĿ´ìķłëĤĺ":5340,"Ġêº¾":5341,"ë¥´ë²łì¦Ī":5342,"\"\"":5343,"Ġë¿":5344,"ĠíĢ":5345,"íķĺëĿ¼":5346,"ìĬ¤íĶ¼":5347,"ĠìĿ´ìłĦìĹĲ":5348,"Ġì§ĢìĪĺëĬĶ":5349,"ĠìłĦê¸°":5350,"ëªħíķľ":5351,"Ġìĭľë¦¬ì¦Ī":5352,"Ġê´Ģë¦¬ëĬĶ":5353,"ê³Ħíļį":5354,"ĠìĨĮì§Ģ":5355,"ë£¬":5356,"ĠìĽĥ":5357,"ë¶ĦìĹĲ":5358,"ĠìĤ¬ëŀĮìĿĺ":5359,"ëħ¸ë¬´íĺĦ":5360,"Ġëĭ¨ì§Ģ":5361,"ĠêµŃê°ĢìĿĺ":5362,"Ġë³Ģê²½":5363,"Ġë¬¼ë¡ł":5364,"Ġì§Ģì§ĢíķĺëĬĶ":5365,"Ġë³´ë©´":5366,"ĠíķĦìļĶíķĺëĭ¤":5367,"Ġìłķì¹ĺìłģìĿ¸":5368,"ê¸ĢëĿ¼":5369,"ĠëģĿëĤľ":5370,"íķĺëł¤ê³ł":5371,"Ġë°ĽìķĦëĵ¤ìĿ´":5372,"ĠìłĦìŁģìĿĦ":5373,"Ġì²ľìĹ°":5374,"Ġë¶ĢëıĻìĤ°":5375,"ial":5376,"ëĸ":5377,"Ġr":5378,"ħ¸":5379,"ê°Ģíı¬ë¥´":5380,"Ġë°´":5381,"ĠìĤ¬ê¸°":5382,"ë¶ĢìĻĢ":5383,"ĠìķĦëŀĺ":5384,"ë§Īë¦¬":5385,"íĸīíķľ":5386,"ĠìĿĺìĤ¬ë¥¼":5387,"ì§Ħëĭ¤":5388,"Ġ37":5389,"Ġíķĺëĭ¤":5390,"ê³µíķŃ":5391,"Ġìĺ¬ëŀĲ":5392,"Ġìķ½ê°Ħ":5393,"ëĤ´ê³ł":5394,"Ġíĺ¸ìĨĮ":5395,"Ġëª»íĸĪëĭ¤ê³ł":5396,"Ġë³´ê³łìĦľë¥¼":5397,"íĻĺê²½":5398,"ĠëĵľëĿ¼ë§Ī":5399,"Ġì¢ĭì§Ģ":5400,"´ëĲĲ":5401,"ĠíĤ¹":5402,"ĠíĪ¬íĳľë¥¼":5403,"Ġë³´ìĹ¬ì£¼ëĬĶ":5404,"ĠìľĦíĺĳìĿĦ":5405,"ĠìłķíĻķíķľ":5406,"ĠíĿĶëĵ¤":5407,"ê³łëŀĺ":5408,"ë¡ľëĵľ":5409,"Ġë°ĳ":5410,"ëĿ¼ê°Ģ":5411,"ìķĦì§ģ":5412,"ìĪĺíķľ":5413,"ì¹ĺìĹĲ":5414,"ĠìĨĮë§Ĳë¦¬ìķĦ":5415,"ĠìľłíĺĪ":5416,"ëĭ¨ìĹĲ":5417,"ì¦ĺ":5418,"Ġëħ¸ë²¨":5419,"Ġë¶Īì°¸":5420,"ĠíĶ¼ëŀį":5421,"ĠìĿ´ë²ĪìĿ´":5422,"íķ¨ìĿĦ":5423,"Ġë²ķìłģ":5424,"Ġë²ķìķĪ":5425,"ìĽĮìĭ±íĦ´":5426,"Ġê³ĦíļįìĹĲ":5427,"ì´Ŀë¦¬ëĬĶ":5428,"Ġì²łíļĮ":5429,"ĠëĮĢë¶Ģë¶ĦìĿĢ":5430,"ĠíļĮìĽĲêµŃ":5431,"ì¯¤":5432,"Ġv":5433,"ê³½":5434,"ê°ĢìĹĲ":5435,"ë¦¬ìĸ¸":5436,"ìĬ¤íİĺìĿ¸":5437,"ĠëĮĢì²´":5438,"ë°į":5439,"íĺĲìĿĺ":5440,"ĠìĤ¬ê°ģ":5441,"íĬ¸ë¦Ń":5442,"Ġê°ĢëĵĿ":5443,"Ġíķľë²Ī":5444,"ìĺ¤ìĻĢ":5445,"Ġë¬´ê¸°ë¥¼":5446,"Ġìĭ¤ìłľë¡ľ":5447,"Ġë§Įì¡±":5448,"ì§Īëŀľëĵľ":5449,"Ġì¶Ķë°©":5450,"ë¸ĮëĿ¼":5451,"Ġëĵ¤ìĹĪëĭ¤":5452,"ëĥĪ":5453,"ë¥ĺìĿĺ":5454,"ĠìļĶêµ¬íķľ":5455,"ĠìļĶêµ¬íķĺëĬĶ":5456,"ĠìļĶêµ¬íķĺê³ł":5457,"Ġê°ĲëıħìĿ´":5458,"Ġë°ĢëŀĢ":5459,"Ġê´Ģë¦¬ëĵ¤ìĿĢ":5460,"ĠìµľìĨĮíķľ":5461,"ĠìŀĲìĤ´íıŃíĥĦíħĮëŁ¬":5462,"Ġìļ°ìĬ¹ìĿĦ":5463,"ìĹĨëĬĶ":5464,"Ġê¿Ī":5465,"HO":5466,"ĠìŀŃìĬ¨":5467,"íķľìĿ´":5468,"ĠëĮĢë¦¬":5469,"ĠìĿ´ìĽĥ":5470,"Ġë³´ìĦĿ":5471,"Ġíķľë¯¸":5472,"íĦ°ë¥¼":5473,"ë¹ĦìĬ¤":5474,"ê±°ë¦¬":5475,"ìĹĪìľ¼ëĤĺ":5476,"íĭ°ëª¨":5477,"ë²ķìĽĲìĿĢ":5478,"ĠìĦľìĭĿ":5479,"ĠíĺĦìŀ¥ìĹĲ":5480,"´ëłĺ":5481,"ĠìĻ¸íĻĺ":5482,"Ġíĸīìłķ":5483,"ĠìĺģíĻĶëĬĶ":5484,"ì¸¡ìĹĲ":5485,"ĠìķĦìĿ´ëĶĶ":5486,"ëĿ¼ìĿ´ìĬ¤":5487,"ĠíĥĪì¶ľ":5488,"íĿ¡":5489,"Ġë¸ĶëŀĻ":5490,"ĠíĸĪìľ¼ë©°":5491,"Ġíķ´ê²°íķĺê¸°":5492,"Ġë°©ë²ķìľ¼ë¡ľ":5493,"Ġë³´ì¢Įê´Ģ":5494,"Ġê´´":5495,"¨ìĶ¬":5496,"ëĭ¤ìļ°":5497,"ìĿ´ë°ĸìĹĲ":5498,"ìĭľìŀ¥":5499,"ìĿ¼ìĿ´":5500,"íĻį":5501,"ê°ĦìĹĲ":5502,"Ġìĭľê¸°":5503,"ĠìĭľìłĪ":5504,"Ġì¤ĳìĹĲëĬĶ":5505,"Ġíĺľ":5506,"Ġë³´ì¡°":5507,"ĠìĿ¸íķĺ":5508,"ë¯¸ë¥´":5509,"ĠìľłìĦ¸":5510,"ë¹ĦëĬĶ":5511,"ë¥´ëĭ¨":5512,"ìĨĮë³´":5513,"Ġ38":5514,"Ġìĺģìĸ´":5515,"ĠìĬ¤ì½ľ":5516,"Ġë°Ķê¾¸":5517,"ĠìĤ¬ëŀĮìĿĦ":5518,"ìĪŃ":5519,"ĠCEO":5520,"ĠìķĦìĿ´ë¥¼":5521,"Ġê²°ìłķìĿĢ":5522,"Ġìĸ»ìĹĪëĭ¤":5523,"Ġ1999":5524,"íģ´ë¦¬":5525,"ĠíĽ¨ìĶ¬":5526,"Ġìŀłìŀ¬":5527,"ĠìĿĳëĭµ":5528,"ì§ľë¦¬":5529,"ĠìĬ¤íĭ°ë¸Ĳ":5530,"Ġì¥Ĳ":5531,"ĠëĮĢìĤ¬ëĬĶ":5532,"ìĤ¬ìĿ´":5533,"ìĤ¬íļĮìĿĺ":5534,"ìŀ¥íķľ":5535,"ëĮĢìĹĲìĦľ":5536,"Ġíķ´ë":5537,"Ġì£¼ëª©":5538,"Ġìĸĺ":5539,"Ġëĵł":5540,"íĥĢëĤĺ":5541,"ĠëıĦìłĦ":5542,"Ġì¶ĶìĤ°":5543,"Ġë¹¨":5544,"Ġë¦¬ì²ĺëĵľ":5545,"ì¸¡ìĿĺ":5546,"ĠíħĮëŁ¬ê°Ģ":5547,"Ġë°©ë¬¸íķł":5548,"ë°±ë§Į":5549,"Ġì°¾ëĬĶ":5550,"ĠìĪľì°°":5551,"ĠíĹ¤ëŁ´":5552,"´ë°Ģ":5553,"Ġíİ¸ì§ĳ":5554,"ĠìºłíĶĦ":5555,"Ġë©°ì¹ł":5556,"Ġë¬´ë¦İ":5557,"Ġat":5558,"ìĿ´ëįĺ":5559,"ë¦¿":5560,"ëĿ¼ë¯¸":5561,"ĠìĿ´íķĺ":5562,"ĠìĤ¬ìĤ´":5563,"ìĿ¼ë¡ľ":5564,"ê³¼ëĬĶ":5565,"ĠìŀĪìľ¼ëĤĺ":5566,"ëĤĺê°Ģ":5567,"ĠìĿ´ë£¨":5568,"ë§Įíģ¼":5569,"Ġê¸°ëıħêµĲ":5570,"ì¹ĺì§Ģ":5571,"Ġê³µì¤ĳ":5572,"ĠêµŃë¬´ìŀ¥ê´ĢìĿĢ":5573,"Ġì¡°íķ©":5574,"Ġëª¨ìĿ¸":5575,"ì½¤":5576,"Ġíķ´ìĤ°":5577,"ĠìĦ¸ë¥´ë¹ĦìķĦ":5578,"Ġíģ´ëĿ¼":5579,"ĠìŀħìĹĪëĭ¤ê³ł":5580,"Ġì¤ĳêµŃìĿĢ":5581,"Ġê´Ģê³Ħê°Ģ":5582,"ĠíĻĶíķĻ":5583,"Ġëªĩëªĩ":5584,"ĠëĤ´ëĨĵ":5585,"Ġì§Īë¬¸":5586,"ĠFA":5587,"ê³³ìĹĲìĦľ":5588,"ĠìĿ¸íĦ°ë·°ë¥¼":5589,"ĠDNA":5590,"ĠíĺķìĦ±":5591,"Ġíŀĺëĵł":5592,"raq":5593,"íŀĲëŁ¬ë¦¬":5594,"Ġëĭ¤ìĿ´ìķĦëª¬":5595,"ĠëĤ´ëł¸":5596,"Ġë²Ĺìĸ´ëĤĺ":5597,"ĠìĨĮìĨ¡ìĿĦ":5598,"ê²Ģì°°ìĿĢ":5599,"Ġíķľë°ĺëıĦ":5600,"ìĿ¸íĦ°ëĦ·":5601,"íĶĦëŀĢìĭľìĬ¤ì½Ķ":5602,"ag":5603,"ub":5604,"¼ìĨĲ":5605,"ìĿ´ìĥģ":5606,"êµŃìĹĲ":5607,"ìĽĲìĿ¸":5608,"ĠìŀĪëĭ¤ë©´":5609,"Ġê°Ģìŀħ":5610,"ë§ĪëĬĶ":5611,"ĠìĿ¼ìĿĢ":5612,"Ġê´ĢìĹ¬":5613,"ëĲĲì§Ģë§Į":5614,"Ġíķ´ìłģ":5615,"ĠíĶĦëłĪ":5616,"ĠíĺĦìŀ¥ìĹĲìĦľ":5617,"Ġë©ľ":5618,"Ġì§ĳìĹĲ":5619,"Ġth":5620,"ĠëĿ¼ìĬ¤":5621,"ĠíĥĢê²©ìĿĦ":5622,"ĠëłĪëĵľ":5623,"Ġíı¬íķ¨ëĲĺìĸ´":5624,"ì¸łëĬĶ":5625,"Ġì¡´ì¤ĳ":5626,"ĠíļĮëĭ´ìĹĲ":5627,"íĭĢëŀľëĵľ":5628,"ĠìłĳìĨį":5629,"Ġì²ŃìĻĢ":5630,"Ġê¶Įê³ł":5631,"Ġ250":5632,"ë¶ģíķľìĿ´":5633,"Ġë°ľìĸ¸ìĿĢ":5634,"Ġê²Ģì°°ìĿĢ":5635,"ĠìĽ¨ìĬ¤íĬ¸":5636,"Ġë¶ķê´":5637,"Ġìĸ´ëłµ":5638,"cm":5639,"£Į":5640,"ĠV":5641,"ìĿ´íĥĪë¦¬ìķĦ":5642,"íķ´ì¡Įëĭ¤":5643,"ĠìĿ´ë¥´ëĬĶ":5644,"ë³´ë¶Ģ":5645,"Ġìľ¤":5646,"Ġìľ¼ë¡ľ":5647,"ëĮĢìłĦ":5648,"Ġì£¼ìĹĲìĦľ":5649,"Ġë³´ê´Ģ":5650,"êµ¬ê°Ģ":5651,"Ġê´Ģê°Ŀ":5652,"Ġëį®":5653,"ĠìľłëĤĺìĿ´íĭ°":5654,"ìĤ¼":5655,"ìĤ´ëłĺ":5656,"ĠíĽĦìĦ¸ìĿ¸":5657,"ê°ľê°Ģ":5658,"Ġë°©ìĸ´":5659,"Ġë°Ķê¿":5660,"ĠëıĦëĭ¬":5661,"Ġìŀ¥ê´ĢìĿ´":5662,"ìŀĳìĹħ":5663,"Ġìĺ¬ë©Ķë¥´íĬ¸":5664,"Ġìŀĳê°Ģ":5665,"ë¸ĮëĬĶ":5666,"ìĬ¤íĬ¸ë¦¬ìķĦ":5667,"ĠìĿĮëª¨":5668,"ĠëĲľëĭ¤ê³ł":5669,"Ġë³´ê³łíĸĪëĭ¤":5670,"Ġì¡°ìĤ¬ìĹĲìĦľ":5671,"ê·¸ëŀ¨":5672,"Ġìļ°ì£¼ë¹Ħíĸī":5673,"Ġê¶Įë¦¬ë¥¼":5674,"ìĶ¨ê°Ģ":5675,"Ġì°©ìļ©":5676,"ĠíĹ¬ê¸°":5677,"ĠíĬ¹ë³Ħíķľ":5678,"Ġê·¸ëħĢê°Ģ":5679,"íĮĶëłĪìĬ¤íĥĢìĿ¸":5680,"ĠìłľìķĪíĸĪëĭ¤":5681,"Ġíİľìĭ¤ë²łìĿ´ëĭĪìķĦ":5682,"íĶĮë£¨ìĿĺ":5683,"ëĭ·ì»´":5684,"Ġìĭłì¢ħíĶĮë£¨ìĿĺ":5685,"ĠìĤ¬ê°ģì§ĢëĮĢ":5686,"ê¼":5687,"ëĭ¤ìĭľ":5688,"ê¸°ë¬¸":5689,"íĺľ":5690,"ĠìĿ´ëĵ¤ìĿ´":5691,"ĠìłĦë©´":5692,"íĬ¸ëĦĪ":5693,"Ġìĭľìĭł":5694,"Ġì¤ĳìĿ´ëĿ¼ê³ł":5695,"ëħĦìĹĲëĬĶ":5696,"ë§Īë¥´":5697,"ê´Ģëł¨":5698,"ëıĻìĿ´":5699,"ĠìĹ°ì£¼":5700,"Ġëª¨ìĸĳ":5701,"ĠìĬ¤ì½Ķ":5702,"ĠíļĮìĤ¬ìĿ¸":5703,"Ġë¬´ê°Ģë²ł":5704,"Ġê±°ì§ĵ":5705,"ĠìĹĲëıĦ":5706,"ê±´ìĿĦ":5707,"Ġë¬¸ìĿĦ":5708,"ì¦Īë³¼":5709,"Ġë¡ľë´ĩ":5710,"ĠíħĮëŁ¬ë²Ķ":5711,"Âł2009":5712,"ĠíļĮëĭ´ìĿ´":5713,"ìª½ìĹĲ":5714,"ĠìĺĪìĥģíĸĪëĭ¤":5715,"Ġë°ĸìĹĲìĦľ":5716,"Ġë¯¿ê³ł":5717,"ĠëķĮë¬¸ìĿ´ëĭ¤":5718,"Ġë¹Ħë¡¯íķľ":5719,"Ġë°ķë¬¼ê´Ģ":5720,"ĠíļįëĵĿ":5721,"Ġë½ĳ":5722,"over":5723,"íķľêµŃìĿĢ":5724,"Ġìķ¡":5725,"ìĽ°":5726,"ĠìľĮ":5727,"ìŀ¥ëĲľ":5728,"íĥĲ":5729,"ìĥģìĹĲìĦľ":5730,"Ġë³´ëĬĶ":5731,"Ġë¹ĦìŀĲ":5732,"Ġì²¼":5733,"Ġìĺ¤ë¸Į":5734,"Ġì¹Ń":5735,"ĠìĺģíĨł":5736,"ìĺģìĥģìĿĦ":5737,"íŀĺ":5738,"Ġë°ĶëĿ¼":5739,"ĠìĦ±ê³¼":5740,"ì¤ĳìķĻ":5741,"ëĶĶìĹĲ":5742,"ë¸ĮëĿ¼ì§Ī":5743,"ong":5744,"Ġìĭ¬íķľ":5745,"Ġíķµìĭ¤íĹĺ":5746,"ĠíĺĳìĿĺ":5747,"Ġíķ©ë¥ĺ":5748,"ĠìĿ´ìĥģìĿĦ":5749,"Ġì´Īê¸°":5750,"Ġë°ľê²¬íĸĪëĭ¤ê³ł":5751,"Ġê¹Ĭ":5752,"Ġê°ĢëĬ¥ìĦ±":5753,"Ġê²ĮìĿ´ì¸ł":5754,"Ġëĸ¨ìĸ´ì¡Įëĭ¤":5755,"ĠìºĦ":5756,"Ġ1998":5757,"Ġê¹Ģìłķ":5758,"ĠìľĦíĹĺìĿ´":5759,"ĠíķĻìĥĿëĵ¤ìĿ´":5760,"Ġê³µìĭĿìłģìľ¼ë¡ľ":5761,"Ġëıħë¦½ìĿĦ":5762,"ĠëģĮìĸ´":5763,"Ġë§Ŀëªħ":5764,"ìłĦë¬¸ê°Ģëĵ¤ìĿĢ":5765,"02":5766,"ëĭ¤ìĿ´":5767,"ë¥Ń":5768,"ëĵ¯":5769,"ë¦´ëĿ¼":5770,"ê°Ģìŀ¥":5771,"ìĤ¬ë¥´ì½Ķ":5772,"ĠìĪĺì§ĳ":5773,"Ġìĭľíĭ°":5774,"ĠìŀĲë¦¬ë¥¼":5775,"Ġì¹ł":5776,"ìĽĶëĵľ":5777,"ĠíļĮìŀ¥ìĿ´":5778,"ĠíĨµìĭłìĿĢ":5779,"êµĲëıĦ":5780,"Ġìĭ¤íĸī":5781,"Ġë§Įíķľ":5782,"Ġì°¨ë²łìĬ¤":5783,"Ġìĺ¬ëł¸ëĭ¤":5784,"ĠìĽĲìľł":5785,"ë£¨ìĤ´ëłĺ":5786,"ance":5787,"ë¯¸êµŃê³¼":5788,"end":5789,"Ġìĭľìŀĳíķľ":5790,"ĠìĹ°êµ¬ë¥¼":5791,"ĠìĥĿê°ģìĿĦ":5792,"ĠìķĬìķĺìľ¼ë©°":5793,"Ġìĺ¨ëĤľ":5794,"ĠìĻĦìłĦ":5795,"Ġë§Įëĵ¤ìĹĪëĭ¤":5796,"Ġê³µê°ľíĸĪëĭ¤":5797,"Ġëĭ´ê¸´":5798,"ĠëĦ¤íĬ¸ìĽĮ":5799,"Ġì£¼ì§ĢìĤ¬":5800,"Ġì£¼ì§ĢìĤ¬ê°Ģ":5801,"resid":5802,"ĠìĹŃìĤ¬ìĥģ":5803,"Ġì½ĺìĦľ":5804,"Ġìħ°":5805,"ĠíĥĲìĤ¬":5806,"Ġë°ĺìĿĳìĿĦ":5807,"Ġê´Ģìĭ¬ìĿ´":5808,"ìĬ¤ëŁ½ê²Į":5809,"ë©Ķë¦¬ì¹¸":5810,"ll":5811,"ëĵŃ":5812,"ìĬ´":5813,"ìĭľìľĦ":5814,"ìľ¼ë¡ľëĬĶ":5815,"ìĽĲê³¼":5816,"ĠìłĦê°ľ":5817,"ëĤĺë¯¸":5818,"Ġê°ĢíĥĿ":5819,"ĠìĿ¸ëĶĶ":5820,"ëĿ¼ê³łìĺĪ":5821,"ë¯¸êµ°ìĿĢ":5822,"ĠìĹ¬ê¸°":5823,"ìĦ¸ì¸ł":5824,"Ġëª¨ë¥´":5825,"ìĹĲê²ĮëĬĶ":5826,"ëĲĲê³ł":5827,"ê±´ìĿĺ":5828,"ì¦Īê°Ģ":5829,"ëĭ´ìĿĦ":5830,"ĠíĮĲëĭ¨":5831,"ìłĢëĬĶ":5832,"ĠìĤ¬ê±´ê³¼":5833,"Ġíģ¬ë¡ľ":5834,"Ġê±¸ìĸ´":5835,"ëĤ¬ëĭ¤ê³ł":5836,"ĠìĥĿíĻľìĿĦ":5837,"Ġê³³ìľ¼ë¡ľ":5838,"Ġìļ°ëł¤ê°Ģ":5839,"Ġíļ¡":5840,"Ġìļ©ìĿĺìŀĲ":5841,"23":5842,"pp":5843,"ss":5844,"ŁìķĦ":5845,"íķ´ì§Ī":5846,"ëĿ¼ìĹĲìĦľ":5847,"Ġëª¬":5848,"ì£¼ìĹĲ":5849,"ì£¼ê°Ģ":5850,"Ġê·¸ìĻĢ":5851,"Ġì¤ĳìŀ¬":5852,"ĠìĨĮìļĶ":5853,"ĠìĨĮíĥķ":5854,"Ġìľłë¦¬":5855,"ìĦłìĿĺ":5856,"ĠìłľìķĪìĿĦ":5857,"Ġë§Īì¹ĺ":5858,"ë¬´ìĥ¤ëĿ¼íĶĦ":5859,"ĠíļĮìĤ¬ìĿĺ":5860,"ĠìĦ±ìĿ¸":5861,"ì¼°ëĭ¤":5862,"Ġ44":5863,"íı¬ëĵľ":5864,"Ġíģ´ëłĪ":5865,"Ġíı¬ë¥´":5866,"Ġëĭ¬ë¦¬":5867,"ĠìĻ¸ê³½":5868,"Ġê²½ì°°ê´Ģ":5869,"ĠëªħìĿĢ":5870,"ĠìķĦìĿ´ëĵ¤ìĿĦ":5871,"ĠìĦłê±°ë¥¼":5872,"Ġë¸Įë£¨":5873,"ĠíĥľíĴį":5874,"ĠìłĲìłĲ":5875,"ìĭŃìŀĲ":5876,"ìºĺë¦¬íı¬ëĭĪìķĦ":5877,"Ġíķµë¬´ê¸°ë¥¼":5878,"Ġë²Įìĸ´ì§Ħ":5879,"ìĿ¸ëıĦëĦ¤ìĭľìķĦ":5880,"Ġëĭµë³Ģ":5881,"Ġìŀ¥ë©´ìĿĦ":5882,"ĠìĬ¤íĭ°ë¸Į":5883,"Ġë¦¬ë²ĦíĴĢ":5884,"Ġë®¤":5885,"ëĭ¤ìĿĮ":5886,"ìĭľê°ģ":5887,"ĠìĿ´ìĤ¬":5888,"Ġì§Ģëª©":5889,"ĠìłĦíĻĶë¥¼":5890,"ĠìĿ´ë©Ķ":5891,"Ġì£¼ê°Ħ":5892,"ìłľëıĦ":5893,"Ġë§Ĳíķ´":5894,"ìĪĺìĤ¬":5895,"íļĮìĤ¬ìĿ¸":5896,"íĶĦëłĪ":5897,"ĠëĤĺìĿ´":5898,"ĠëĤĺìģľ":5899,"ĠíķĺìĽĮëĵľ":5900,"Ġíķ´ê³ł":5901,"Ġë°Ķë¥´":5902,"ĠëıĦìĻĢ":5903,"Ġ42":5904,"ì°¨ê°Ģ":5905,"Ġìĭłê²½":5906,"Ġë¶Īë¦¬ëĬĶ":5907,"ĠëĤ´ìłķ":5908,"2009":5909,"ë°ľìľł":5910,"Ġë§¤ëĵ¤ë¦°":5911,"ë¸ĮëĿ¼ìļ´":5912,"Ġê²½ì°°ìĿĺ":5913,"ëŀĳì¹´":5914,"ĠìłģìĿĢ":5915,"Ġë¬¼ë¦¬":5916,"ĠìĤ¬ê±´ìľ¼ë¡ľ":5917,"ë¥ĺë¥¼":5918,"Ġì¡°ìĤ¬ìĹĲ":5919,"Ġì·¨íķł":5920,"Ġë©ĶìĿ´":5921,"Ġë§ŀìĦľ":5922,"ĠìķłíĭĢ":5923,"ìĽ¨ëį´":5924,"Ġìĸ¸ê¸īíķĺì§Ģ":5925,"Ġëª¨ìĬµìĿ´":5926,"ĠìĿĺìĽĲëĵ¤ìĿĢ":5927,"ëķĮë¬¸ìĹĲ":5928,"meric":5929,"ìĸ´ëĸ¤":5930,"ies":5931,"Ġ##":5932,"ë§ĮìĿĢ":5933,"Ġë³´íĨµ":5934,"Ġê´Ģë¦¬ê°Ģ":5935,"íĸĪê¸°":5936,"ĠìĥģìĹħ":5937,"ìľłë¡ľ":5938,"ĠìĹ°ê´Ģ":5939,"ê²©íķľ":5940,"Ġìļ°ëĿ¼ëĬĦ":5941,"Ġë°ĶëĿ¼ê³ł":5942,"ìĭ¤ìĹĲ":5943,"ìĭ¤ìĹĲìĦľ":5944,"ĠìĦ±ìłģ":5945,"ĠíĮĮë¦¬":5946,"Ġë°ĺë°ľ":5947,"Ġìŀħìĸĳ":5948,"Ġì¶Ķì¸¡":5949,"ons":5950,"Ġë°ľíĳľëĲľ":5951,"ĠíĪ¬ìĸ´":5952,"ĠëĮĢë³ĢìĿ¸ìĿ¸":5953,"ĠíĿī":5954,"ĠíĻĶìŀ¥":5955,"Ġê³µê²©ìĿ´":5956,"ë³ĳìĿĦ":5957,"ëĭ¬ëŁ¬ìĹĲ":5958,"Ġë³µìłľ":5959,"ĠíİĺìĿ¼ë¦°":5960,"Ġì°¾ê³ł":5961,"Ġ1997":5962,"ĠëĤ´ìļ©ìĿ´":5963,"ĠëĦ¤ëįľ":5964,"Ġëĭ¨ì²´ëĬĶ":5965,"Ġì´Ŀë¦¬ìĻĢ":5966,"Ġìĭ¶ëĭ¤":5967,"ĠìĤ¼ìĦ±":5968,"Ġì´ĿìĦłìĹĲìĦľ":5969,"´ë§Ī":5970,"ĠíĨ°":5971,"17":5972,"EFA":5973,"od":5974,"ĠìĿ´ë¥¸":5975,"ëıĦë¥´":5976,"ìĿ¼ìĿĢ":5977,"ìĿ¼ê°ĦìĿĺ":5978,"ĠìĪĺìļĶ":5979,"ìłľìŀ¬":5980,"ìķĪìłĦ":5981,"ĠìķĬì§Ģë§Į":5982,"ĠêµŃë¬´":5983,"Ġë§Īë¥´":5984,"Ġê¸Ģë¡ľ":5985,"ĠíĮĮíĥĢ":5986,"Ġê±°ëĴ":5987,"Ġì¶Ķìłģ":5988,"ĠìĽĲíķĺëĬĶ":5989,"ìĬ¨ìĿĺ":5990,"Ġë¹ļ":5991,"Ġê´Ģëł¨ìĿ´":5992,"Ġë¬¼ëŁ¬":5993,"ë©Ķë¦¬ì¹´":5994,"Âł20080":5995,"ì£½":5996,"ĠíĹĪëĿ½":5997,"ĠìķĮëł¤ì§Ģì§Ģ":5998,"ĠíĬ¸ë¦¬":5999,"ĠìĿĺíļĮìĹĲ":6000,"ĠëĮĢë¶Ģë¶ĦìĿ´":6001,"ĠKorean":6002,"ĠìĹ¬ìŀĲì¹ľêµ¬":6003,"Ġì§Ģì§Ħìľ¼ë¡ľ":6004,"Ġë´Ħ":6005,"LA":6006,"ff":6007,"ue":6008,"ĠëĮĢëĭ¤":6009,"ĠìĿ´ìŀ¬":6010,"ĠìĿ´ìĿµ":6011,"ëĮĢì¤ĳ":6012,"ëį©":6013,"Ġë§ĲëłĪìĿ´ìĭľìķĦ":6014,"Ġê·¸ëłĪ":6015,"ë§ĪìĿĺ":6016,"ĠìĨĮìĦ¤":6017,"ĠìĦłë¬¼":6018,"ì½§":6019,"ê¸ĪìĿ´":6020,"Ġëĭ¬ìĦ±":6021,"Ġ194":6022,"íĶ¼íķ´":6023,"íķ¨ìĹĲëĶ°ëĿ¼":6024,"ĠëĮĢë³ĢìĿ¸":6025,"Ġëĭ¨ìĪľ":6026,"Ġëª»íķĺëĬĶ":6027,"ĠìĺģêµŃìĹĲìĦľ":6028,"Ġê³ĦíļįìĿĢ":6029,"Ġ2010":6030,"Ġê³ĦìĨįëĲĺê³ł":6031,"ĠëıĮëł¤":6032,"Ġì½Ķë¯¸ëĶĶ":6033,"Ġê²ĮìŀĦìĿĦ":6034,"Ġì¼ĢëĦ¤ëĶĶ":6035,"ĠíĺĳìĥģìĿ´":6036,"Ġë°ĸìľ¼ë¡ľ":6037,"ĠìĪĺì²ľëªħìĿĺ":6038,"Ġê²½ìĦłìĹĲìĦľ":6039,"Ġì¶©ë¶Ħíķľ":6040,"ood":6041,"ĠìĮį":6042,"ĠìķīìķĦ":6043,"28":6044,"ost":6045,"Ġan":6046,"Įë¥Ń":6047,"Ġê³¨ìĿĦ":6048,"ĠìĤ¬ë²ķ":6049,"ëĮĢíļĮ":6050,"ĠìľĦê¸°ë¥¼":6051,"Ġê¸°ì¡´":6052,"Ġìĭľìŀ¥ìĹĲìĦľ":6053,"ĠìĿ¸ìĭĿ":6054,"ĠëĤĺëĪĦ":6055,"Ġëª¨ìĬ¤íģ¬":6056,"ĠëıĻìĺģìĥģìĿĦ":6057,"ëĦ¨":6058,"êµ°ìĹĲ":6059,"ë¦°ëĭ¤":6060,"ĠìĦ¸ìĽĮ":6061,"ì°¨ë¡ľ":6062,"ëĶĶëĬĶ":6063,"ĠíıŃëĿ½":6064,"Ġ\"\"":6065,"ĠìŀĳëıĻ":6066,"Ġë¡Ŀ":6067,"ĠëªħíĻķ":6068,"ì¼ĢìĿ´":6069,"ĠíĿĲ":6070,"Ġë¦¬ì½ľ":6071,"ìħī":6072,"íĮĲìĿĦ":6073,"Ġíķ©ë²ķ":6074,"Ġê±¸ë¦´":6075,"Ġì§ĦíĸīëĲľ":6076,"Ġì²´íı¬ëĲĲëĭ¤":6077,"Ġì¹¨íķ´":6078,"ĠBBC":6079,"ĠíıĲê¸°":6080,"Ġpl":6081,"Ġìłľê³µíķĺëĬĶ":6082,"Ġë³Ģíĺ¸ìĤ¬":6083,"Ġê³µíĻĶëĭ¹ìĿĺ":6084,"ĠëıĦì°©íĸĪëĭ¤":6085,"ìĹħì²´ìĿ¸":6086,"ĠíĥĢìŀĦì¦ĪëĬĶ":6087,"Ġìĸ´ëł¤ìļ´":6088,"Ġê±°ì£¼íķĺëĬĶ":6089,"ëĿ¼ê³łìĺĪë¹Ħì¹ĺ":6090,"05":6091,"ie":6092,"pl":6093,"±Ģ":6094,"íķ´ë³":6095,"ìĤ¬ì¶Ķ":6096,"ĠìĤ¬ëĥ¥":6097,"ìĸ´ì§Ħ":6098,"ëĵľëĭĪ":6099,"ĠìķĦë¶Ģ":6100,"ìłĦìŁģ":6101,"ĠêµŃë¬´ìŀ¥ê´Ģ":6102,"ëĲĺìŀĲ":6103,"ìĦłìĿĢ":6104,"ĠìĬ¤íĤ¤":6105,"Ġìļ°ìĦł":6106,"ĠìĹĨìľ¼ë©°":6107,"ĠíļĮê²¬":6108,"Ġ48":6109,"Ġêµ¬ê¸Ī":6110,"Ġë§ĮëĤľ":6111,"ì¡Įëįĺ":6112,"are":6113,"Ġìķ¼ê¸°":6114,"enc":6115,"ence":6116,"ìĬ¤íĬ¸ë¡ľ":6117,"Ġê²½ìłľìĹĲ":6118,"ĠìĤ¬ìļ©íķľ":6119,"Ġìĸ´ëĶĶ":6120,"ĠSouth":6121,"ĠíķĦìļĶíķĺëĭ¤ê³ł":6122,"ì§ĢëĤľì£¼":6123,"ĠIraq":6124,"ĠíĸĪì§Ģë§Į":6125,"Ġíķ´ê²°ìĿĦ":6126,"ë²Īì§¸ë¡ľ":6127,"Ġëħ¼ìĿĺíķł":6128,"Ġìµľì´Īë¡ľ":6129,"ĠìķĦë²Ħì§Ģ":6130,"ëĮĢíĨµëł¹ìĿĢ":6131,"Ġìĸ´ëł¤ìĽĢìĿĦ":6132,"Ġëªħëł¹ìĿĦ":6133,"Ġìĺ®ê²¨":6134,"ĠìĮĵ":6135,"Ġëª¨ë¥¸ëĭ¤":6136,"ĠíĿ¡ìĹ°":6137,"Ġë©ĭì§Ħ":6138,"31":6139,"In":6140,"ĺĳ":6141,"ľëĵľ":6142,"ì§ĢìĪĺ":6143,"ë¦¬ê²Į":6144,"ëĤ´ë":6145,"ìľ¼ë©´ìĦľ":6146,"ìĭľë¥¼":6147,"ĠìĦŃ":6148,"ë¶ĢíĨł":6149,"íĬ¸ëĿ¼":6150,"Ġë§Ĳíķ©ëĭĪëĭ¤":6151,"ĠìŀĲë¦¬":6152,"Ġê³µìľł":6153,"ìļ°ë¦¬ê°Ģ":6154,"ĠìĨĮíĸī":6155,"Ġìĺ¤ìĤ¬":6156,"ì²´ìĿĺ":6157,"Ġë°Ľê¸°":6158,"ĠíĽĦìŀĦ":6159,"Ġëĭ¹íĸĪëĭ¤":6160,"ĠìķĮëŀĺìĬ¤ì¹´":6161,"Ġìŀ¥ì°©":6162,"ĠëĤ¨ìŀĲê°Ģ":6163,"ĠìĦľíķľ":6164,"Ġì§Ħìłķ":6165,"ĠêµĲì²´":6166,"Ġë©Ī":6167,"ëĭ´ëĭ¹":6168,"Ġë¶ģíķľê³¼":6169,"Ġë²ķìĽĲ":6170,"Ġì²´ê²°":6171,"Ġê²½ìłľê°Ģ":6172,"ĠëĴ·":6173,"Ġíģ¬ë£¨":6174,"ìł¸ìķ¼":6175,"Ġë³´ë³":6176,"ê¸Ģë¡ľ":6177,"Ġë¹łë¥´ê²Į":6178,"íĨ¨":6179,"ĠíķŃê³µìĤ¬":6180,"ĠíħĮìĿ´íĶĦ":6181,"ë¶ĢìĭľëĬĶ":6182,"ìĿ´ì§Ģë¦¬ìķĦ":6183,"Ġìŀłìĭľ":6184,"ìĥĪë¡ľìļ´":6185,"Ġì¶ĶìłķëĲĺëĬĶ":6186,"Ġìłľìŀ¬ë¥¼":6187,"Ġëħ¹ìĿĮ":6188,"Ġê°ĳìŀĲê¸°":6189,"ë¯Ģë¡ľ":6190,"ĠìłģìłĪíķľ":6191,"íĪ":6192,"ìĿ¼ë¦¬":6193,"ĠìĪĺíį¼":6194,"Ġë¯¸ìĭľ":6195,"ĠìķĦë¥´íĹ¨íĭ°ëĤĺ":6196,"Ġê²½ê³Ħ":6197,"Ġê·¸ì¤ĳ":6198,"íķĺê³łìŀĲ":6199,"Ġì¤ĳëıħ":6200,"Ġì§§":6201,"Ġê´ĢëŀĮ":6202,"Ġê²ĥìĿ´ê³ł":6203,"ĠìľłìĤ¬íķľ":6204,"ĠìĹ¬íķĻìĥĿ":6205,"ĠëĤĺìķĦ":6206,"Ġë§Īë¦¬":6207,"ĠëıĻë°ĺ":6208,"ì½¸":6209,"ĠìĺĪìĤ°":6210,"ĠìĬ¤íĥ":6211,"ĠíļĮìĿĺë¥¼":6212,"Ġìŀ¥ìĿĦ":6213,"Ġë§ĮëĤł":6214,"Ġë°ĺìłķë¶Ģ":6215,"Ġê°Ĳíĸī":6216,"Ġê°ķìļĶ":6217,"ĠíıŃìļ°":6218,"ĠìļĶë¥´ëĭ¨":6219,"ì§ĪìĿĦ":6220,"ëį°íĥĢ":6221,"ĠëĿ¼ê³ł":6222,"ĠíĿĺ":6223,"ĠìĹ¬ìĦ±ìĿĺ":6224,"ĠìĹ¬ìĦ±ìĿĢ":6225,"Ġì²´ëĭĪ":6226,"Ġì·¨ìŀ¬":6227,"ĠìĿ´ìĬ¤ëĿ¼ìĹĺìĿĺ":6228,"Ġì²ĺìĿĮìĿ´ëĭ¤":6229,"ĠìĭĿíĴĪ":6230,"ë¬´ìŀ¥ê´ĢìĿ´":6231,"Ġíĸ¥íĽĦ":6232,"Ġê³¨íĶĦ":6233,"Ġíģ¬ë¦¬ìĬ¤íĨłíį¼":6234,"ĠìĤ¬íĥľê°Ģ":6235,"Ġê¸°ëĮĢíķĺê³ł":6236,"ĠìĽĲë¬¸ê¸°ìĤ¬ë³´ê¸°":6237,"Ġë¬´ìĤ¬ì½¸":6238,"ìĤ¬ì¶ĶìĦ¸ì¸ł":6239,"21":6240,"age":6241,"og":6242,"ud":6243,"Ġëļ":6244,"ìĿ´ìłľ":6245,"ìĿ´ìĹĪëĭ¤ê³ł":6246,"ê³łíķĻ":6247,"ĠëĮĢëŁī":6248,"êµŃìłģ":6249,"êµŃìŀ¥ìĿĢ":6250,"ĠìĤ¬ì°°":6251,"ìłķìĿĢ":6252,"ìĸ´ìĿĺ":6253,"ê·¸ëŁ¬":6254,"ìłľìĿĺ":6255,"ĠìĭľìĭłìĿĦ":6256,"Ġê·¸ëĵ¤ìĿĦ":6257,"Ġê·¸ê²ĥìĿĢ":6258,"íĻĶëĬĶ":6259,"ĠìŀĲê¸°":6260,"ë³´ëĭ¤ëĬĶ":6261,"íĨµìĥģ":6262,"Ġê²ĥìĿ´ëĿ¼ë©°":6263,"Ġ39":6264,"ëĭ¬ìĿĦ":6265,"ëĭ¬ëĿ¼ê³ł":6266,"êµĲíĻ©":6267,"ë§¤ìļ°":6268,"ë¥´ë©°":6269,"Ġì¤ĳêµŃìĹĲ":6270,"ĠìĦ¤ëĵĿ":6271,"ĠìķĦìĿ´ëĵ¤ìĿ´":6272,"Ġì±ĦíĥĿ":6273,"Ġëĭ¬ëŁ¬ìĹĲ":6274,"ê²½ì°°ìĿ´":6275,"Ġë¯¼ì£¼ëĭ¹ìĿĺ":6276,"ĠëĨįì¶ķ":6277,"Ġì¸¡ê·¼":6278,"Ġì¡°ì§ĢìķĦ":6279,"ĠìĹĦì²Ń":6280,"Ġë´¤":6281,"Ġìľ¡êµ°":6282,"ĠìĹĺë¦¬ìŀĲ":6283,"07":6284,"RB":6285,"ib":6286,"ëĭ¤ê°Ģ":6287,"ì§Ģê¸°":6288,"ëĤ¼":6289,"ĠìĪĺìĤ¬ë¥¼":6290,"Ġêµ´":6291,"íĻĶë¡ľ":6292,"ëħĦê³¼":6293,"êµ¬ìĿĺ":6294,"Ġë°ľêµ´":6295,"ĠìĿ¼íĻĺìľ¼ë¡ľ":6296,"ĠìĨĮíĻĺ":6297,"ìļ©ìĿĦ":6298,"Ġìľłëł¥":6299,"ĠìĿĺíķĻ":6300,"ĠëĤĺë¥¼":6301,"ĠëĤĺìĺ¬":6302,"Ġíķĺë©´":6303,"Ġë§Īì¹´":6304,"Ġìĺģë³Ģ":6305,"ì½ķ":6306,"íĭ¸":6307,"ĠëıĦìŀħ":6308,"Ġìŀ¥ìĭĿ":6309,"ĠíĮĮìĤ°":6310,"ĠíĮĮíĬ¸ëĦĪ":6311,"Ġìĭ¤ë¬´":6312,"Ġë§¤ê°ģ":6313,"ĠìŀĳìłĦìĿĦ":6314,"Ġë¡¤":6315,"Ġ1980":6316,"Ġëª©ìłģìľ¼ë¡ľ":6317,"Ġì¹ĺëªħ":6318,"Ġì´ĪëĮĢ":6319,"ĠìĥĿê°ģíķĺëĬĶ":6320,"Ġì¹´íİĺ":6321,"ĠíĬ¹íĮĮ":6322,"ĠìĿ´ìľłëĬĶ":6323,"ìĸ´ëĤ´":6324,"Ġê±¸ì¹ľ":6325,"Ġë§ŀìĿ´":6326,"ĠìĭĿëĭ¹":6327,"ĠFTA":6328,"ĠìŀĪìĹĪê³ł":6329,"ĠìľłëŁ½ìĹ°íķ©":6330,"ĠíķŃê³µê¸°":6331,"ĠëıĮìķĦê°Ģ":6332,"Ġëħ¸ëł¥íķĺê³ł":6333,"ĠìĤ¬íĥľë¥¼":6334,"Ġë§¨ì²´ìĬ¤íĦ°":6335,"ĠëĭµíĸĪëĭ¤":6336,"ĠëĵľëŁ¬ëĤ¬ëĭ¤":6337,"ë¦¬ì¡°ëĤĺ":6338,"%,":6339,"GA":6340,"IC":6341,"rom":6342,"ëľ»":6343,"ìĬ¤ë¦¬ê·¸":6344,"ë¶ĢìĹĲìĦľ":6345,"ìĥģíĻ©":6346,"Ġìĥĺ":6347,"ìłķì¹ĺ":6348,"ëĵľìĭľ":6349,"ìĪĺìĿ¸":6350,"Ġê·¸ë¦¼":6351,"ĠìĿ¸ê³µ":6352,"ìłĦìĿĢ":6353,"Ġë°ľê°Ħ":6354,"íģ¬ê°Ģ":6355,"Ġìĺ¤ìĹ¼":6356,"ĠìľłëĭĪ":6357,"ĠìĹ¬ê²¨":6358,"ĠìĿĺíļĮìĿĺ":6359,"ĠëĤĺìĦľ":6360,"ĠëĤĺê°Ī":6361,"Ġë§Īìĭľ":6362,"ĠìĦłë³´":6363,"Ġê°ľë§ī":6364,"Ġ43":6365,"Ġìŀ¬ë°°":6366,"Ġìĺ¬ë¦°":6367,"ĠíıŃíĸī":6368,"ê¶ĮìĹĲ":6369,"ĠìĤ¬ë§ĿìŀĲê°Ģ":6370,"Ġì½©":6371,"ĠëĲĺê¸°":6372,"ĠíĻĶìĦ±":6373,"ĠíĻĶìĤ°":6374,"ìłĲìľ¼ë¡ľ":6375,"ĠìĺģíĻĶìĿĺ":6376,"Ġê³µê²©ìĹĲ":6377,"ĠíķĻìĤ´":6378,"ĠìĦłê±°ìºł":6379,"iss":6380,"Ġê°ĸê²Į":6381,"ĠíĦ¸":6382,"ĠìĨĮìĭĿìĿ´":6383,"ĠíĽ¼ìĨĲ":6384,"ê°ľìĽĶê°Ħ":6385,"Ġëħ¼ìĿĺë¥¼":6386,"Ġì»¤íĶ¼":6387,"Ġë¡łìĬ¤íĥĢ":6388,"ĠíĺľíĥĿ":6389,"resident":6390,"FP":6391,"ì§Ģìĸ´":6392,"ĠìłĦëĭ¹":6393,"Ġê°Ģë¥´":6394,"Ġì£¼ìĦĿ":6395,"ëħĦê°ĦìĿĺ":6396,"Ġì¡°ì¹ĺê°Ģ":6397,"ìĦ¸íı¬":6398,"ëłĪë°Ķëħ¼":6399,"íĽĦëĵľ":6400,"ĠìĬ¤íĮĮ":6401,"ĠìĥĿê¸´":6402,"Ġêµ¬ê¸Ģ":6403,"Ġë¶ĪìĿĦ":6404,"Ġê³Ħìķ½ìĿĦ":6405,"Ġê±°ëĵŃ":6406,"ĠëĤ´ë¦´":6407,"ìĿĮìĹĲëıĦ":6408,"Ġë¬¸ìĦľ":6409,"Ġê·ł":6410,"ĠìķĪìĹĲìĦľ":6411,"ë¥´ë°Ķ":6412,"ì´¨":6413,"Ġë²łë¥¼":6414,"ĠëĶľ":6415,"Ġì¤ĳêµŃê³¼":6416,"Ġëĭ¨ìĨį":6417,"Ġíķłë¦¬ìļ°ëĵľ":6418,"ìĽĮì¦Ī":6419,"ĠìĿ¼ë³¸ìĿ´":6420,"Ġë³µìŀ¡":6421,"ĠëĤ´ìļ©ìĿĺ":6422,"ĠíĽĮë¥Ń":6423,"ĠìĹħë¬´":6424,"Ġìĸ¸ë¡łìĿ´":6425,"ìľ¨ìĿĢ":6426,"ê¹¨":6427,"ĠíħĶ":6428,"Ġê±°ëŀĺë¥¼":6429,"Ġê¸°ìŀĲíļĮê²¬ìĿĦ":6430,"Ġë°ĿíŀĪê³ł":6431,"ĶĶìķĦ":6432,"ĠíĴĢëł¤":6433,"ë³´ê³łìĦľëĬĶ":6434,"Ġê²¨ìļ¸":6435,"ìŀĲìĿ´ëĦĪ":6436,"ìĥĿíĻľìĿĦ":6437,"Ġë°ĶëĢĮ":6438,"ep":6439,"ì·":6440,"ìĬĲ":6441,"ìĿ¸ìĹĲ":6442,"ëĿ¼ëį´":6443,"ĠëĮĢíķŃ":6444,"ì§Ŀ":6445,"ê·¸ëŁ°":6446,"ĠìķĦë²ł":6447,"Ġì£¼ê°Ģ":6448,"ĠìĭľìĿ¸":6449,"Ġìłķê¸°":6450,"Ġë¶īìĿĢ":6451,"ĠìŀĲêµŃ":6452,"Ġë¶Ģê³¼":6453,"ë¯¸ìĸ´":6454,"Ġìľłì¹ĺ":6455,"íĶĦìĿĺ":6456,"ĠëĤĺìĺ¤ëĬĶ":6457,"ë£¸":6458,"ĠíĥĿ":6459,"ĠìĬ¤íĶĦ":6460,"ĠíĮĮíĭ°":6461,"íĺĦì§Ģìĭľê°ģ":6462,"ìŀĳìĹħìĿĦ":6463,"Ġìŀ¬ë¯¸":6464,"Ġëĵ±ìŀ¥":6465,"Ġ75":6466,"Ġíĸīë³µ":6467,"ĠCIA":6468,"ĠCBS":6469,"ĠíķµìĭľìĦ¤":6470,"ĠìĦ¸ê³ĦëĮĢìłĦ":6471,"ĠíĬ¹ìłķ":6472,"ĠìĿ´ìľłë¥¼":6473,"ìŀĪìĹĪëĭ¤":6474,"ë¶Īìĸ´":6475,"ĠìĻĦë²½":6476,"Ġë¸ĶëłĪìĸ´":6477,"´ëĲĲëĭ¤":6478,"ĠëĦ¤íĮĶ":6479,"ĠíĶĦë¡ľê·¸ëŀ¨ìĹĲ":6480,"Ġê¸¸ìĿĦ":6481,"Ġê³¼íķĻìŀĲëĵ¤ìĿĢ":6482,"Ġìļ´ìĺģíķĺëĬĶ":6483,"ìĿ´ëŀĢìĿĢ":6484,"Ġë¹Ħìļ©ìĿ´":6485,"Ġë¬´ë£Į":6486,"Ġê°ķëł¥íŀĪ":6487,"ĠìĭľìĦ¤ìĿĦ":6488,"ĠìĹ¬ê°Ŀê¸°":6489,"ĠíĽĪëł¨ìĿĦ":6490,"ack":6491,"Ġì¶©ë¶ĦíŀĪ":6492,"ĠìĤ¬ëł¹ê´Ģ":6493,"ĠìĿ´ëłĩ":6494,"ire":6495,"ure":6496,"¶¤":6497,"ëĮ":6498,"ì¾Į":6499,"ĠìĿ½":6500,"ìľĮë¦¬ìĹĦ":6501,"ëĿ¼ëĶĶ":6502,"ĠëĮĢëĭ¨íķľ":6503,"ĠìĿ´ìĬ¬":6504,"ëª½":6505,"Ġì§Ģìłķ":6506,"ìķĦë§Ī":6507,"ìĻĢìĿ´":6508,"ĠìķĦë¦Ħ":6509,"ìĪĺìĹĲ":6510,"Ġë¶ĢìĹ¬":6511,"íģ¬ë¥¼":6512,"Ġë¹ĦìĦľ":6513,"Ġ34":6514,"ì°¨ëĵľ":6515,"Ġë°ĺëĵľìĭľ":6516,"Ġìŀ¬ìĤ°":6517,"Ġì¶ľìĭľ":6518,"Ġì¶ľíĮĲ":6519,"Ġë²ķìĽĲìĿĢ":6520,"Ġëª»íķĺê²Į":6521,"Ġê²Ģê±°":6522,"ĠíĻĺìŀĲ":6523,"Ġê²°ìłķìĹĲ":6524,"Ġê¹ĬìĿĢ":6525,"ĠìĿ¼ë¶Ģë¥¼":6526,"Ġìļ´ìĨ¡":6527,"ì£ł":6528,"ëĥĲëĬĶ":6529,"ë²Ķì£Ħ":6530,"ì¡´ìĬ¤":6531,"Ġê¶Įëł¥":6532,"ê³³ìĹĲ":6533,"Ġë¶ĢìĥģíĸĪëĭ¤":6534,"Ġì¿łëį°íĥĢ":6535,"Ġag":6536,"Ġíģ´ë¦°íĦ´ìĿĢ":6537,"Ġë°ĽìķĦìķ¼":6538,"Ġì¤Ģë¹Ħë¥¼":6539,"ĠíķĺëĤĺìĿĺ":6540,"und":6541,"ect":6542,"Ġì¦Ŀê±°ë¥¼":6543,"ĠíĻĶìŀ¬ê°Ģ":6544,"ĠìłķíĻķíŀĪ":6545,"ĠëĬ¥ëł¥ìĿĦ":6546,"ĠìĪĺìĿµìĿĦ":6547,"ĠìĬ¹ë¬´ìĽĲ":6548,"ĠìĿ¼ìŀĲë¦¬ë¥¼":6549,"Ġê³łëĵ±íķĻêµĲ":6550,"100":6551,"Ch":6552,"Kore":6553,"PA":6554,"UN":6555,"ob":6556,"Ġle":6557,"Ġìķĵê³ł":6558,"ĠëĮĢì±ħ":6559,"ĠìĤ¬ìŀ¥ìĿĢ":6560,"ĠìĪĺìĨ¡":6561,"ìłķìĥģ":6562,"Ġê°Ģë¡ľ":6563,"Ġê°Ģìĺ¥":6564,"ì°¾":6565,"ĠìŀĲìĿ´":6566,"Ġíı´ëŀ":6567,"ìĭłíĻĶíĨµìĭłìĿĢ":6568,"Ġë¶ĢìĤ¬":6569,"ìľĦê¸°":6570,"Ġëĭ¤íģĲ":6571,"ĠìĥģìĿĦ":6572,"ĠëĲ©ëĭĪëĭ¤":6573,"ĠëĤĺìĿ´íĬ¸":6574,"Ġë§Īíĭ´":6575,"Ġê³łëĮĢ":6576,"ĠíĽĦìĽĲ":6577,"Ġë°©ì¹¨":6578,"Ġìļ°ìļ¸":6579,"ĠëĤ¨ìĿĢ":6580,"ĠíĨµì¹ĺ":6581,"Ġë§¤ì¼Ģ":6582,"Ġìŀ¬ê²Ģ":6583,"ĠìĿ´ëĿ¼íģ¬ë¥¼":6584,"one":6585,"Ġë¡ľë¹Ħ":6586,"Ġë°°ì¶ľ":6587,"ĠêµŃê°Ģë¥¼":6588,"ìĬ¤íĬ¸ëĿ¼":6589,"Ġíĺĳë°ķ":6590,"ë©ĶìĿ´":6591,"Ġê²½ìłľíķĻ":6592,"ëĭ¬ëŁ¬ë¥¼":6593,"Ġë°©ë¬¸íĸĪëĭ¤":6594,"ĠëĮĢíķĻêµĲ":6595,"Ġì¦Ŀê°Ģíķĺê³ł":6596,"ëģĦ":6597,"ĠíıĲì§Ģ":6598,"ĠìĻ¸êµĲë¶Ģ":6599,"ĠìĦ±ê³µíĸĪëĭ¤":6600,"Ġì½ľë¡ľ":6601,"ĠíĹ¤ì¦Īë³¼":6602,"Ġì¸¡ìłķ":6603,"ĠìŀĥìĿĢ":6604,"ëł¸ëĭ¤ê³ł":6605,"Ġê¸°ëĭ¤ë¦¬ê³ł":6606,"apan":6607,"Ġìŀ¥ëĤľê°Ĳ":6608,"ĠìĤ¬ìĿ´íģ´ë¡ł":6609,"03":6610,"ë®¤":6611,"íķĺìĺĢ":6612,"ìķĻìĿĢ":6613,"ì§Ģë¥´":6614,"ìĬ¤íĮĮ":6615,"ìĬ¤íĭ´":6616,"ĠìĿ´ê²ĥìĿ´":6617,"ĠìĤ¬ëĵľë¥´":6618,"ĠìĦ¹":6619,"ê·¸ëłĩ":6620,"Ġê°Ģì¹ĺê°Ģ":6621,"ĠìľĦìķĪ":6622,"Ġê¸°ìģĺ":6623,"Ġë¬µ":6624,"ĠìŀĲìĽĲ":6625,"Ġê´Ģì°°":6626,"Ġê±´ë":6627,"Ġìĥģê³µ":6628,"Ġì¡°ìĦ±":6629,"Ġíķĺëįĺ":6630,"ìĭ¤ìĿ´":6631,"ĠíĨµíĻĶ":6632,"Ġ600":6633,"ë¶Ħê°Ħ":6634,"Ġë§¤ìŀ¥":6635,"ĠìĦľë°©":6636,"ë²ĪìĿĺ":6637,"ĠêµĲì°©":6638,"Ġì¦Ŀìĭľ":6639,"Ġì§ĢìĹŃìľ¼ë¡ľ":6640,"Ġëª©ë¡Ŀ":6641,"Ġë¦¬ë¹ĦìķĦ":6642,"Ġíķ©ëıĻ":6643,"ëĿ¼ìĿ´ìĸ¸":6644,"Ġê°ĢëĬ¥ìĦ±ìĹĲ":6645,"ĠíĺĦìŀ¬ìĿĺ":6646,"ì§ĢëĤľëĭ¬":6647,"Ġì§Īë¬¸ìĿĦ":6648,"ĠìĨĲìĥģ":6649,"ë¶ģíķľìĿĺ":6650,"ĠíĭĢ":6651,"ĠìłĪëĮĢ":6652,"ĠìĥģìĬ¹íĸĪëĭ¤":6653,"ìķĦíĶĦê°ĢëĭĪìĬ¤íĥĦ":6654,"Ġë¹Ħìļ©ìĿĦ":6655,"Ġê·ĢêµŃ":6656,"Ġë³ĢíĻĶê°Ģ":6657,"Ġë´īìĩĦ":6658,"Ġê³µìĹ°ìĿĦ":6659,"ì§Ĳë°Ķë¸ĮìĽ¨":6660,"Ġê³łíĨµìĿĦ":6661,"ë³´ëĶĶìķĦ":6662,"ê¸ĢëĿ¼ëį°":6663,"Ġíı¬ë¥´íĪ¬ê°Ī":6664,"37":6665,"ìĬ¤ëĭ¥":6666,"ĠëĮĢê°Ģë¡ľ":6667,"ë©ľ":6668,"Ġê²ĥìĿ¸ì§Ģ":6669,"ĠìłĦëĤł":6670,"ì£¼ê³ł":6671,"Ġë§Ĳê¹Įì§Ģ":6672,"Ġë¬¶":6673,"ĠìŀĲë£Įë¥¼":6674,"ë¶ķ":6675,"Ġëĭ¤ë£¨":6676,"Ġì²Ļ":6677,"ĠìĿĺìŀ¥":6678,"ë¥´ìĿĺ":6679,"ĠìĥģíĴĪ":6680,"ìĤ´ëĲľ":6681,"Ġëª¨ìĥī":6682,"Ġê³łì¡°":6683,"Ġë°©ìĺģ":6684,"êµĲìľ¡":6685,"Ġìŀħì¦Ŀ":6686,"ĠêµĲíĻĺ":6687,"ina":6688,"ĠìĻ¸ë¬´":6689,"ĠìĪ«":6690,"ĠëĦĵ":6691,"Ġë¯¼ì¡±":6692,"ĠìĥĪëģ¼":6693,"Ġì²´ì¤ĳ":6694,"Ġíŀī":6695,"ĠìĤ°íĥĢ":6696,"ĠíĨłìļĶìĿ¼":6697,"Ġëª¨ëĳĲê°Ģ":6698,"ĠëĶĶìŀĲìĿ¸":6699,"íĮĢìĿ´":6700,"Ġ1990":6701,"ëģĶ":6702,"Ġìĺ¬íķ´ìĿĺ":6703,"Ġë³´ëĤ¼":6704,"ations":6705,"Ġë³´ìĿ¸ëĭ¤ê³ł":6706,"Ġë³´ëĤ´ëĬĶ":6707,"ĠìĿ¼ìľ¼íĤ¤":6708,"ĠìĭľìĬ¤íħľìĿĦ":6709,"íĶĦë¡ľê·¸ëŀ¨":6710,"Ġì¹ĺëŁ¬ì§Ħ":6711,"Ġëĭ¤ë¥´íĳ¸ë¥´":6712,"ĠìĿ¼ë¦¬ëħ¸ìĿ´ì£¼":6713,"ĠìĤ¶ìĿĦ":6714,"ìĿ´íĽĦ":6715,"íķľêµŃìĿĺ":6716,"ëł´":6717,"ìŀĲìĿ´ìŀĲ":6718,"Ġìĺ¥":6719,"ìķĦë²Ħ":6720,"ĠìĪĺë¥¼":6721,"ëĤĺìļ°":6722,"ĠìĭľìĤ¬":6723,"Ġìĭľìŀ¥ìĹĲ":6724,"ĠìŀĲê·¹":6725,"ĠìĨĮìŀ¥ìĿĢ":6726,"ĠíķĺëĬĺ":6727,"Ġë§Īì¹ĺê³ł":6728,"ĠìĦłë°ľ":6729,"ĠìĬ¤íĬľ":6730,"ĠíĮĮìĺĪ":6731,"Ġ51":6732,"ĠìĭłìĽĲìĿĦ":6733,"ì§ģìŀĲ":6734,"ĠíĶ¼ëĤľ":6735,"ĠëįĶë¶Īìĸ´":6736,"ê¶ĮìĿ´":6737,"Ġëĭ¬ëł¤":6738,"Ġë°ľìĥĿíĸĪìľ¼ë©°":6739,"ëĦ¤ìĬ¤":6740,"anc":6741,"Ġê´Ģê³ĦìŀĲëĵ¤ìĿ´":6742,"Ġë¯¼ê°Ĳ":6743,"Ġëĵ¤ìĹ¬":6744,"Ġìłģíķ©":6745,"íİĺìĿ´ì§Ģ":6746,"Ġíĥľíıīìĸĳ":6747,"Ġë§ŀì¶°":6748,"ĠëĮĢìĦłìĹĲìĦľ":6749,"ĠìĿ´ìĬ¤ëĿ¼ìĹĺìĿ´":6750,"ĠìĿ´ìĬ¤ëĿ¼ìĹĺê³¼":6751,"ĠëĶĶì§Ģ":6752,"ĠëĶĶìŀĲìĿ´ëĦĪ":6753,"ĠìŀĪìĹĪì§Ģë§Į":6754,"Ġìĸ»ê¸°":6755,"Ġì¦Ŀê°ĢíĸĪëĭ¤":6756,"Ġë¹łì§Ħ":6757,"Ġëĭ¹ìĦłìĿ¸ìĿĺ":6758,"Ġìĸ¼ìĿĮ":6759,"Ġìĸ¸ë¡łìĹĲ":6760,"Ġìĵ°ëŁ¬":6761,"ë²łìĿ´ê±°":6762,"Ġìŀ¬íĮĲìĿĦ":6763,"ell":6764,"Ġì±ħìŀĦìĿ´":6765,"ĠìŀĶíķ´":6766,"Ġê°Ģê¹ĮìĿ´":6767,"ê³¼íķĻìŀĲëĵ¤ìĿĢ":6768,"Ġìĺ·ìĿĦ":6769,"overn":6770,"Ġê¹ĢìłķìĿ¼":6771,"oy":6772,"Ġì«":6773,"ĠëĿ":6774,"Ġë¼Ī":6775,"ëĬĶì§ĢëĬĶ":6776,"ìĦ°":6777,"ĠìķĻ":6778,"ë©¸":6779,"ĠìĿ´ì£¼":6780,"ìĿ¼ëŁ¬":6781,"ìķĦëĬĶ":6782,"íĥĳ":6783,"ê·¸ëĵ¤ìĿ´":6784,"ĠìķĦìĿ¼ëŀľëĵľ":6785,"Ġê°Ģê²©ìĿĦ":6786,"íĻĶëĲľ":6787,"ĠìŀĲë³¸":6788,"ĠìŀĲë¦¬ìĹĲìĦľ":6789,"íĦ°ëĬĶ":6790,"Ġê³µìŀ¥":6791,"Ġê³µë¬´":6792,"ëł¹ìĿĢ":6793,"Ġìĺ¤ìĬ¤íĬ¸ë¦¬ìķĦ":6794,"Ġê±·":6795,"ë¥´ëĭ¤":6796,"ìĦłìĹĲìĦľ":6797,"ìĦłìĸ¸":6798,"ë°ĶëĿ¼":6799,"ĠìĹĨì§Ģë§Į":6800,"ì¼Ħ":6801,"íĺ¸ëĬĶ":6802,"ĠíĨµíķľ":6803,"Ġêµ¬ëĭ¨":6804,"Ġìŀ¬íĻľ":6805,"ĠêµĲíļĮ":6806,"Ġë©¤":6807,"Ġì¶Ķêµ¬":6808,"ĠíķľêµŃê³¼":6809,"ëĶ°ëĿ¼":6810,"Ġë°°ìĭ¬":6811,"Ġë¦¬ê·¸":6812,"ë¯¸êµŃìĿ´":6813,"ĠíĸĪëĭ¤ëĬĶ":6814,"Ġë²ĦìĬ¤":6815,"ëĵ¤ê³¼ìĿĺ":6816,"ĠìĤ°ìķħ":6817,"ĠíĶ¼íķ´ê°Ģ":6818,"ìĬ¬ë¦¼":6819,"ĠìĥĿê°ģìĿ´":6820,"ĠëĴ¤ìĹĲ":6821,"ĠìķĦìĿ´ìĿĺ":6822,"ĠìĦłê±°ìĹĲ":6823,"Ġê±´ì¶ķ":6824,"Ġ(=":6825,"ĠìĭľìľĦëĮĢ":6826,"Ġsh":6827,"íļĮìĿĺìĹĲìĦľ":6828,"ë¹Ļ":6829,"ĠMS":6830,"ĠNorth":6831,"ëª©ê²©":6832,"Ġìļ°ëł¤íķĺê³ł":6833,"Ġë³´ìĹ¬ì¤¬ëĭ¤":6834,"ê¹Ŀ":6835,"ìĹ´íķľ":6836,"Ġíľ´ìłĦ":6837,"Ġìļ´ëıĻìĿĦ":6838,"Ġê³µìĬµìľ¼ë¡ľ":6839,"Ġíģ´ë¦¬":6840,"Ġëĭ¤ëĭĪìĹĺ":6841,"66":6842,"ry":6843,"ì¥Ĳ":6844,"íķľë²Ī":6845,"ì§Ģë©°":6846,"ìľ¤":6847,"ëłĲ":6848,"ìĤ¬ìļ°":6849,"ëªħëıĦ":6850,"Ġê¸°íļĮ":6851,"Ġíĺ¹ìĿĢ":6852,"Ġë³´ì§Ģ":6853,"Ġë°ľë³ĳ":6854,"ë§Īë¦¬ê°Ģ":6855,"ĠìĿ¼íķĺëĬĶ":6856,"ëĭĪìĿĺ":6857,"Ġìĺ¤íĨł":6858,"Ġì¡°ê¸°":6859,"Ġ33":6860,"Ġê³łëĵł":6861,"ĠíļĮìĤ¬ê°Ģ":6862,"Ġë¶ĪëĬ¥":6863,"Ġê°Ĳê¸Ī":6864,"ëª¨ë¦¬":6865,"Ġì¶ľëıĻ":6866,"Ġì¶ľìĦĿ":6867,"ĠìĬ¹ìĿ¸ìĿĦ":6868,"ang":6869,"ĠëĲĺì°¾":6870,"íķ¨ìĿ´":6871,"Ġì§ĳìľ¼ë¡ľ":6872,"ĠìŀĦê¸°":6873,"Ġì½ĶìĨĮë³´":6874,"Ġë°©ë¬¸ìĿĦ":6875,"Ġê²°ê³¼ìĹĲ":6876,"Ġê²°ê³¼ëĬĶ":6877,"ĠìĭľìľĦìĹĲ":6878,"ĠìĭľìľĦëĮĢê°Ģ":6879,"Ġìµľê·¼ìĿĺ":6880,"ĠíİĺëįĶ":6881,"Ġê¸°ë¡Ŀíķľ":6882,"Ġê·ľìłľ":6883,"its":6884,"íĭĢëŁ¬":6885,"omm":6886,"ĠFBI":6887,"Ġì²Ńë¬¸":6888,"ĠìĿĢíĩ´":6889,"ĠëĶ°ëľ»":6890,"Ġì£¼ë¯¼ëĵ¤ìĹĲê²Į":6891,"ild":6892,"ase":6893,"ĠìłĦìŁģìĹĲ":6894,"Ġê¸īìĨį":6895,"ĠíŀĺìĿĦ":6896,"Ġwill":6897,"Ġê³µíķŃìĹĲìĦľ":6898,"Ġìķ½ìĨįìĿĦ":6899,"tern":6900,"Ġë¿Ĳë§ĮìķĦëĭĪëĿ¼":6901,"ĠìĦłìĸ¸íĸĪëĭ¤":6902,"ì°¬ê°Ģì§Ģ":6903,"ĠìĥĮíĶĦëŀĢìĭľìĬ¤ì½Ķ":6904,"Ġíľĺë°ľìľł":6905,"Ġìĭ±ê°Ģíı¬ë¥´":6906,"ĠNASA":6907,"ĠìĬ¤ì½ľìĦ¸":6908,"Ġë³´ë³µ":6909,"Ġë£":6910,"ë¡ľìĿĺ":6911,"ë¡ľìĭľ":6912,"ì§ĢìŀĲ":6913,"ìĦľìĹĲ":6914,"´ëª¨":6915,"ë¦¬ëĤĺ":6916,"ìľ¼ëł¤":6917,"êµŃë°©":6918,"ĠìĿ´ìĤ°":6919,"ë³´ëıĦ":6920,"ìķĦìķ¼":6921,"ê·¸ëħĢ":6922,"ĠìķĦê¸°ë¥¼":6923,"ĠìķĦë°ĶìĬ¤":6924,"ĠìľĦì¡°":6925,"Ġì¤ĳìĪľ":6926,"íĦ°ë¦¬":6927,"ĠìĿ¼ìłķìĿĦ":6928,"ê´ĢìĹĲ":6929,"ĠìĨĮìĪĺ":6930,"Ġë¹ĦíĭĢ":6931,"Ġíķ´ìĸĳ":6932,"Ġê±°ëĳĲ":6933,"ìĹ°ê¸Ī":6934,"Ġë°ĺêµ°ìĿ´":6935,"Ġê°ķëıĦ":6936,"Ġíı¬ê²½":6937,"Ġì°¨ë¥¼":6938,"ë§¤ì¼ĢìĿ¸ìĿĢ":6939,"Ġë²Įê¸ĪìĿĦ":6940,"ĠíķľêµŃìĿĢ":6941,"ĠìĿ´íĽĦë¡ľ":6942,"ĠìĺģíĻĶìłľ":6943,"ìķħê´ĢìĿĢ":6944,"Ġíģ¬ëĿ¼ìĿ´":6945,"Ġê³ĦíļįìĿ´ëĿ¼ê³ł":6946,"ĠìĿ¼ë³¸ìĿĢ":6947,"lec":6948,"led":6949,"ĠìĿ¼ë¶Ģê°Ģ":6950,"ĠìĭľìľĦê°Ģ":6951,"Ġìļ©ëĤ©":6952,"ĠìĿĢìĭł":6953,"ĠNBC":6954,"ĠëĤ´ìļ©ìĿĢ":6955,"Ġë£¨ìĿ´ìĬ¤":6956,"ĠíŀĲëŁ¬":6957,"Ġì»¤íĶĮ":6958,"Ġë§¡ìĿĢ":6959,"Ġë´īìĤ¬":6960,"ĠìĿ´ê³³ìĹĲìĦľ":6961,"Ġìĭ¸ìĽĢ":6962,"ĠìķĦë¬´ëıĦ":6963,"Ġë¶Ģê·¼ìĹĲìĦľ":6964,"Ġì¼ĢìĿ´ë¸Ķ":6965,"ĠìĿ´ìŀ¬ë¯¼":6966,"53":6967,"AS":6968,"FBI":6969,"KK":6970,"ex":6971,"ëĭ¤ëĭĪ":6972,"ìĹĲë§Į":6973,"ê°ĢìĹĲìĦľ":6974,"ìĬ¤ëŁ°":6975,"ĠëĤŃ":6976,"ëªħìĹĲê²Į":6977,"Ġì£¼ë¬¸":6978,"ìĭłë¬¸":6979,"ìľĦìĿ¸":6980,"Ġëĭ¤ì³¤ëĭ¤ê³ł":6981,"ĠìĹ¬ë¶ĢëĬĶ":6982,"ĠìĿĺì¡´":6983,"ĠëĤĺëĭ¬":6984,"ì¡°íķ©":6985,"ìĹ¬ë¡ł":6986,"ĠìĭłìŀĦ":6987,"Ġë¶Īíİ¸":6988,"Ġê±°ë¦¬":6989,"ĠìŀħêµŃ":6990,"ĠíĶĦëłĪìĬ¤":6991,"ì½Ķìĺ¬":6992,"ĠìĿ´ë²Īì£¼":6993,"ì¡Įê³ł":6994,"ì¡ĮìĬµëĭĪëĭ¤":6995,"ĠìĻ¸ë¬´ìŀ¥ê´ĢìĿĢ":6996,"Ġë°ľìĥĿíķĺëĬĶ":6997,"Ġì¦ĿìĭľëĬĶ":6998,"ìĸ´ë³":6999,"ĠíĮĲìĤ¬":7000,"ĠìĹ¬ìĦ±ìĿĦ":7001,"ĠêµŃê°Ģê°Ģ":7002,"Ġëī´ì§Īëŀľëĵľ":7003,"íİĺìĿ¸ìĿĦ":7004,"ĠìĥĿê°ģíĸĪëĭ¤":7005,"ì¤Ģë¹Ħ":7006,"Ġê·¼ë³¸":7007,"Ġì°¾ìĿĦ":7008,"ĠëĤłìĶ¨":7009,"Ġì²´íı¬íĸĪëĭ¤":7010,"ĠíĬ¸ëłĪ":7011,"Ġíķ´ê²°íķł":7012,"ĠìĥģíĥľìĹĲ":7013,"ĠëĪĦêµ°":7014,"ĠìĬ¹ë¦¬íķľ":7015,"old":7016,"Ġê²©ëł¬":7017,"Ġê·¹ë³µ":7018,"Ġìĩł":7019,"ĠìĹ¬ë¡łì¡°":7020,"ĠìĪĺë°±ë§Į":7021,"Ġë°Ķê·¸ëĭ¤ëĵľìĹĲìĦľ":7022,"Ġíĺ¸íħĶìĹĲìĦľ":7023,"ĠìĿ¼ìľ¼íĤ¨":7024,"ĠëĨĢëĿ¼":7025,"Ġìľłê¶ĮìŀĲ":7026,"Ġì§Ģì§ĦìĿ´":7027,"Ġë³´ê³łìĦľìĹĲìĦľ":7028,"ĠíıŃíĥĦíħĮëŁ¬ê°Ģ":7029,"Ġì±ĶíĶ¼ìĸ¸ìĬ¤ë¦¬ê·¸":7030,"ë§ĪìĿ´íģ´":7031,"ĠëĮĢë²ķìĽĲ":7032,"Ġëª¨ìĬ¤íģ¬ë°Ķ":7033,"ĠìĹĺë¦¬ìŀĲë²łìĬ¤":7034,"ëĩ":7035,"ìĦľìĿĺ":7036,"Ġê°ĩ":7037,"ĠìĿ´ìĸĳ":7038,"ë¶Ģìĸĳ":7039,"ìĻĢëĬĶ":7040,"Ġìĭľê°ģ":7041,"Ġìĭľìŀ¥ìĿ´":7042,"Ġê·¸ëıĻìķĪ":7043,"ë¯¸ëĭĪ":7044,"íĸĪëĬĶì§Ģ":7045,"Ġìĥģê´Ģ":7046,"Ġìĥģëĭ¹íķľ":7047,"ìľłì§Ģ":7048,"ĠìĹ°ìĺĪ":7049,"Ġë§Īì°¬ê°Ģì§Ģ":7050,"ĠìĺĪë£¨ìĤ´ëłĺ":7051,"ì²´ìĹĲ":7052,"Ġë°©ì§Ģ":7053,"Ġìŀ¥ìĨĮ":7054,"Ġ49":7055,"ĠëĤ¨ìķĦíĶĦë¦¬ì¹´":7056,"Ġêµ¬ì¶ľ":7057,"Ġë¶ģë¯¸":7058,"Ġëħ¸ìĺĪ":7059,"ëĶĶìĽĢ":7060,"Ġë§¤ì¶ĺ":7061,"ĠìĦľë¸Į":7062,"ĠëªħìĺĪ":7063,"Ġëªħë°±":7064,"ë¥´ëį":7065,"ê°Ĳëıħ":7066,"orld":7067,"Ġêµ°ë¶Ģ":7068,"ëĤ´ê¸°":7069,"Ġì¤ĳêµŃìĹĲìĦľ":7070,"Ġê²½ìłľë¥¼":7071,"ĠìłĢì§Ī":7072,"Ġì½Ķì»¤":7073,"Ġì¡´ìĬ¤":7074,"ĠìĤ¬ìĭ¤ìĥģ":7075,"íħĮëĦ¤":7076,"Ġë³µêµ¬":7077,"Ġìļ´íķŃ":7078,"ë°±ìķħê´Ģ":7079,"Ġíĥľìĸ´ëĤľ":7080,"Ġì§ĦíĸīëĲĺê³ł":7081,"Ġê¶Įëł¥ìĿĦ":7082,"ĠëŁ¬ìĭľìķĦìĿĺ":7083,"Ġíģ´ë¦°íĦ´ìĿ´":7084,"ĠíıŃë°ľë¡ľ":7085,"Ġëŀľ":7086,"ë´īìĨ¡":7087,"Ġê±°ë¶ĢíĸĪëĭ¤":7088,"ê´´íķľ":7089,"ĠêµŃê²½ìĿĦ":7090,"ĠíĿ¬ìĥĿìŀĲ":7091,"´ëŀľëĵľ":7092,"Ġíıīê°ĢíĸĪëĭ¤":7093,"íĬľë¸Į":7094,"Ġë§Īê°ĲíĸĪëĭ¤":7095,"ĠìıŁìķĦ":7096,"ĠëĵĿíĳľ":7097,"´ë§Īíģ¬":7098,"'(":7099,"75":7100,"IV":7101,"OR":7102,"ian":7103,"ëĭ¤ìļ´":7104,"ĠìŀĬ":7105,"ì§ĢìĽĲ":7106,"Ġê°Ĵ":7107,"ê¸°ìĹĲìĦľ":7108,"ìĭľíĶ¼":7109,"ĠìĿ´ë¡ł":7110,"ìĺ¹":7111,"ëĤĺë§Ī":7112,"ìłķê±°":7113,"íĬ¸ëĤ¨":7114,"Ġì£¼ìĹ°":7115,"ĠìľĦìĹĲ":7116,"ì²¸":7117,"Ġê¸°ìĤ¬":7118,"ìĪĺë¡Ŀ":7119,"Ġê·¸ë¦¬":7120,"Ġì¤ĳì§Ģ":7121,"ëħĦë§ĮìĹĲ":7122,"ĠìŀĲìĦł":7123,"ìĦ±ê³¼":7124,"ë§Īíģ¬":7125,"ĠìĨĮëħĦ":7126,"ìĦ¸ëł¥ìĿ´":7127,"ëłĪìĬ¤íĬ¸":7128,"íĥĢìĿ´":7129,"ĠìĺģìĹħ":7130,"Ġê³łë¦½":7131,"Ġê³łíĸ¥":7132,"ëĭ¨ìĹĲìĦľ":7133,"ìĺģêµŃìĿĺ":7134,"Ġë°©ìķĪ":7135,"ëĲĲìĿĦ":7136,"ĠëıĦë§Ŀ":7137,"Ġì´Ŀìŀ¥ìĿĢ":7138,"Ġë¬´ì£Ħ":7139,"Ġ55":7140,"ì¤ĳíķľ":7141,"Ġë§¤ëĭĪ":7142,"ì¦ĪìĿĺ":7143,"Ġì¶ľìĤ°":7144,"ĠìĽĲìĪŃ":7145,"Ġë°ľìĥĿíķĺì§Ģ":7146,"ors":7147,"Ġì¦Ŀê°ķ":7148,"Ġë¬¸ìłľìĿĺ":7149,"ĠíĿ°":7150,"Ġë³´ëıĦë¥¼":7151,"Ġë°°ìłľ":7152,"ark":7153,"Ġë¦¬ì¡°":7154,"ĠìĿĮì£¼":7155,"ë©ĶìĿ´ëĭ¤":7156,"ĠëłĪìķĮ":7157,"ĠíĺĲìĿĺìĹĲ":7158,"ĠëĤłìķĦ":7159,"Ġë¸ĶëĿ¼ê³łìĺĪë¹Ħì¹ĺ":7160,"ĠíıŃíĥĦìĿ´":7161,"ĠêµŃë¯¼ëĵ¤ìĿĢ":7162,"Ġì¤ĳìļĶíķĺëĭ¤":7163,"ĠìĿĺíļĮìĹĲìĦľ":7164,"Ġê°Ļëĭ¤ê³ł":7165,"Ġì°¸ìĦĿíĸĪëĭ¤":7166,"ĠíŀĲíĬ¼":7167,"ĠìĬ¹ë¦¬íĸĪëĭ¤":7168,"Ġìĵ°ëĤĺë¯¸":7169,"Ġë³´íĺ¸íķĺê¸°":7170,"ë¥łìĿĢ":7171,"ĠíħĲ":7172,"Ġê°Ģê²©ìĿĢ":7173,"ĠìĽ¹ìĤ¬ìĿ´íĬ¸ë¥¼":7174,"ìķŀìľ¼ë¡ľ":7175,"Ġë§¨ìľł":7176,"ĠìħĢ":7177,"Ġìĭ¤íĮ¨íĸĪëĭ¤":7178,"Ġêµ¬ìłľê¸Īìľµ":7179,"Ġë¶ĦëªħíŀĪ":7180,"Ġìĺ¤ëŀĺëĲľ":7181,"ĠìĹ°ë£¨ëĲľ":7182,"ĠíħĶëłĪ":7183,"Ġëĭ¤íģĲë©ĺ":7184,"ves":7185,"íķľëĤĺëĿ¼":7186,"ìĿ¸ëĵ¤ìĿĦ":7187,"Ġê°Ķëĭ¤":7188,"ê¸°ìŀĲ":7189,"ê¸°ë¡Ŀ":7190,"ĠìĤ¬ìĽĲ":7191,"Ġê°ĢëŁī":7192,"Ġì£¼ì°¨":7193,"Ġê¸°ì§Ģ":7194,"Ġìĭľê¸°ìĹĲ":7195,"Ġìĭľìŀ¥ìĿĺ":7196,"ĠìĭľëĵľëĭĪ":7197,"Ġê·¸ìĹĲ":7198,"Ġê·¸ëŁ¬":7199,"Ġê³µìłķ":7200,"Ġë§ĲíĸĪëĭ¤ê³ł":7201,"ĠìĥģìłĲ":7202,"ë°ĶíĤ¤":7203,"ĠìĹ°ê·¹":7204,"ì¡°ìĽĲ":7205,"ìĽĶìĿĺ":7206,"Ġê³łë°ľ":7207,"Ġê³łê³łíķĻ":7208,"Ġê²°ìĦł":7209,"Ġíķ´ìĦľ":7210,"ìĺĢì§Ģë§Į":7211,"íķĺê¸°ë¥¼":7212,"Ġê±°ì³Ĳ":7213,"ë³ĢìĿ¸ìĿĢ":7214,"íĥĦìĿĦ":7215,"íĭ°ìĬ¤":7216,"ĠíĶĦëŀĳ":7217,"íĥľêµŃ":7218,"ëĦ¤ìŀĲ":7219,"Ġì§ĢìĹŃìĿĢ":7220,"ëŁ°ëįĺ":7221,"Ġë²ķìĿĦ":7222,"Ġë²ķìĽĲìĹĲ":7223,"ĠíıīíĻĶë¥¼":7224,"Ġìĭľìŀĳíķł":7225,"íİĺìĿ´ìĬ¤":7226,"Ġë°ľê²¬ëĲĲëĭ¤ê³ł":7227,"ĠíĺĲìĿĺê°Ģ":7228,"Ġì§ĢëıĦìŀĲëĵ¤ìĿĢ":7229,"ĠêµŃìłľìłģ":7230,"Ġê°Ħì£¼":7231,"Ġì¼Ħ":7232,"íĮ¨ë¥¼":7233,"ìĻĶëĭ¤ê³ł":7234,"ìľĦìĽĲíļĮìĿĺ":7235,"ìľĦìĽĲíļĮê°Ģ":7236,"ëłĮìĬ¤":7237,"ĠìĪĺìĥģíķľ":7238,"ĠêµŃë°©ìŀ¥ê´ĢìĿĢ":7239,"ë°Ľê³ł":7240,"Ġë§ĪìĿ´íģ¬ë¡ľ":7241,"Ġë²łìĿ´ì§ķìĹĲìĦľ":7242,"ĠëħĦê°Ħ":7243,"oci":7244,"Ġë¬ĺìĤ¬":7245,"ĠìĤŃìłľ":7246,"ë¥´ëĤľ":7247,"ĠìķłìĻĦê²¬":7248,"ĠìĿ´ëłĩê²Į":7249,"SC":7250,"Ġres":7251,"Ġëĺĳ":7252,"Ġê¶¤":7253,"íķĺìĹĲ":7254,"ìĦľê°Ģ":7255,"ìĦľìĸĳ":7256,"ìĿ¸ê¶Į":7257,"Ġê°±":7258,"Ġê°Ŀ":7259,"ĠìĿ´ì¤ĳ":7260,"íĬ¸ëłĪìĿ´":7261,"Ġê°ĢìĬ´":7262,"ĠìľĦë¡ľ":7263,"Ġê¸°ëıĦ":7264,"Ġê¸°ë¶Ģ":7265,"ĠìĭľëĤ´":7266,"Ġê·¸ê²ĥìĿ´":7267,"Ġìļķ":7268,"íĨµìłľ":7269,"Ġê´Ģì¸¡":7270,"ê´Ģê´ĳ":7271,"Ġë¯¸êµŃê³¼ìĿĺ":7272,"Ġ3000":7273,"ë£©":7274,"Ġëª¨ê¸°ì§Ģ":7275,"íĳľê°Ģ":7276,"Ġê°ľë°©":7277,"ëĲĲìľ¼ëĤĺ":7278,"Ġì´Ŀë¦¬ë¥¼":7279,"Ġ46":7280,"ë¬¼ìĹĲ":7281,"Ġë¬´ìĦł":7282,"Ġ64":7283,"Ġê³ĦìĹ´":7284,"Ġìĺ¬ëł¤":7285,"ĠìķĪìłĦìĿĦ":7286,"ĠìĿ´ëĿ¼íģ¬ìłĦ":7287,"Ġìŀĳìļ©":7288,"Ġêµ°ì¤ĳ":7289,"ìĪłìĿĦ":7290,"Ġê³¼ìłķìĿĦ":7291,"Ġê²ĢìĤ¬ëĬĶ":7292,"Ġì¹´ë¥´":7293,"Ġì¤Ħê¸°":7294,"Ġì²łìłĢ":7295,"Ġê³³ìĿĦ":7296,"Ġì§ĦíĸīëĲĺëĬĶ":7297,"Ġìĸ»ìĿĦ":7298,"íĨ°":7299,"ëĭ¨ì²´ëĬĶ":7300,"ëĭ¨ì²´ê°Ģ":7301,"ĠìķĪìłĦíķľ":7302,"Ġê·¹ëĭ¨":7303,"ĠíĻįìĪĺ":7304,"Ġíİ¼ì³Ĳ":7305,"ĠíļĮìĿĺìĹĲìĦľ":7306,"Ġë§Įëĵ¤ìĸ´ì§Ħ":7307,"Ġì£¼ìĭĿìĭľ":7308,"Ġë³´ìľłíķĺê³ł":7309,"Ġê²¨ëĥ¥":7310,"ì·Ħ":7311,"47":7312,"ip":7313,"land":7314,"¥ìĿĦ":7315,"ìĿ´ëĵ¤ìĿĺ":7316,"ê°Ģëĵ¤ìĿ´":7317,"Ġë§¹":7318,"ëĿ¼ìļ°":7319,"Ġìĺ¹":7320,"ìĿ¼ê³¼":7321,"ëŀ¨":7322,"ĠìłĦíĸĪìĬµëĭĪëĭ¤":7323,"ìĥģê³¼":7324,"ëĵľëĿ¼":7325,"ì£¼ì§Ģ":7326,"Ġë§Ĳíķĺë©°":7327,"ĠìĿ¸ìĥĿ":7328,"Ġê³µëª¨":7329,"ĠìĿĺìĤ¬ê°Ģ":7330,"ìĨĮíķľ":7331,"íĶĦë¡¬":7332,"íĶĦìħĶ":7333,"Ġì¡°ë¥ĺ":7334,"ĠëĤĺìĿĢ":7335,"ĠìĹ°íĸī":7336,"ëłĪëĤĺ":7337,"íĥĢëĬĶ":7338,"ëł¥ìĹĲ":7339,"ìĹ¬ìĦ±":7340,"ëĲĲìĹĪëĭ¤":7341,"ĠìĦ¸ê¸ĪìĿĦ":7342,"Ġë¶ģëıĻë¶Ģ":7343,"Ġìŀ¬ê±´":7344,"ĠìŀĲìĭłìĿĢ":7345,"ê²°ìĬ¹":7346,"Ġì£¼ìŀ¥íķľ":7347,"Ġë²łíĬ¸ëĤ¨":7348,"ĠìĺģíĻĶìĹĲ":7349,"ĠìķŀìĹĲ":7350,"ĠAC":7351,"Ġì´Īëŀĺ":7352,"Ġ2012":7353,"Ġê±¸ëł¤":7354,"ĠìĿ´ëŀĢìĹĲ":7355,"ë²ĶìľĦ":7356,"ĠìĹ´ë¦°ìļ°ë¦¬":7357,"ë¹Ľ":7358,"Ġê³µê°ľìłģìľ¼ë¡ľ":7359,"Ġ1994":7360,"Ġê°ģë£Į":7361,"Ġìĵ´":7362,"ĠìĥģíĥľìĿ´ëĭ¤":7363,"Ġë§īìĿĦ":7364,"ast":7365,"Ġê¸īëĵ±":7366,"ĠìľĦíĹĺìĹĲ":7367,"´ë°Ķ":7368,"ĠìºĲë¦Ń":7369,"Ġì¸¡ìĿĢ":7370,"Ġë°Ľìķĺìľ¼ë©°":7371,"Ġëª°ëł¤":7372,"ëĨĢ":7373,"Ġê³¼íķĻìŀĲëĵ¤ìĿ´":7374,"íĳ¸íĭ´":7375,"ĠíĻķìĭ¤íķľ":7376,"ìĻĶëįĺ":7377,"ime":7378,"Ġíľ´ëĮĢìłĦ":7379,"Ġë¹ĦíĮĲíĸĪëĭ¤":7380,"ĠíĥĢìĿ´íĭĢ":7381,"ĠìłĦìĹŃìĹĲ":7382,"Ġë°ĶìĿ´ëŁ¬ìĬ¤":7383,"ĠìĿ´ìĻĢê°ĻìĿĢ":7384,"ëĮĢë¶Ģë¶ĦìĿĺ":7385,"36":7386,"ric":7387,"ëĩĮ":7388,"Ġ`":7389,"Ħ¤":7390,"Ġì³":7391,"ì§Ģë°©":7392,"íķ´ì¤Ħ":7393,"ëĿ¼ëį¸":7394,"ë°´":7395,"ë©į":7396,"ĠìĪĺìĿĺ":7397,"ĠìĪĺë¹Ħ":7398,"ĠìłĦìĤ¬":7399,"ëŁ¬ìĬ¤":7400,"ì£¼ëħĦ":7401,"ĠìŀĲìĤ°":7402,"Ġë¶Ģìĸĳ":7403,"Ġê³µìĿĦ":7404,"ìľĦíķ´":7405,"ê´ĢìĿĺ":7406,"Ġìľłë°ľ":7407,"Ġìĥģíĺ¸":7408,"Ġì¡°ìĦł":7409,"Ġë§Īì³¤ëĭ¤":7410,"íĤ¤íį¼":7411,"ĠìĺĪìĦł":7412,"Ġìµľìļ°":7413,"ìĹ¬ëŁ¬":7414,"Ġìĭ¤ì§Ī":7415,"Ġë§Įìķ½":7416,"Ġê°Ĳì§Ģ":7417,"Ġê°ķíĴį":7418,"ĠíĶ¼ê³ł":7419,"ĠíĶ¼ëĿ¼ë¯¸":7420,"Ġì£¼ìŀ¥ìĹĲ":7421,"ork":7422,"Ġë²ķìĽĲìĿ´":7423,"ìħ°":7424,"Ġê²Ģë¬¸":7425,"ĠëłĪìĿ´ìĬ¤":7426,"ĠìĹ°êµ¬ëĬĶ":7427,"ĠíĥľëıĦë¥¼":7428,"ĠìłĲì°¨":7429,"ëĲĺìĸ´ìķ¼":7430,"ĠíıŃíĥĦìĿĦ":7431,"´ëĲł":7432,"ĠìĿ´ëĤ´":7433,"Ġ130":7434,"ĠíĸĪìĬµëĭĪëĭ¤":7435,"ĠìĨĮëħĢìĿĺ":7436,"ĠEn":7437,"Ġë³´ìķĪê´ĢìĿĢ":7438,"´ëŁ¬":7439,"Ġë°ľìĸ¸ìĹĲ":7440,"Ġì°¸ìĹ¬íķľ":7441,"Ġìĭľë¯¼ëĵ¤ìĿ´":7442,"Ġë¹Īê³¤":7443,"ama":7444,"Ġìĭłë¬¸ìĿĢ":7445,"ĠíĿ¥ë¯¸":7446,"Ġê·¼ì²ĺìĹĲìĦľ":7447,"ĠìĦłëĳĲë¥¼":7448,"ĠëĬ¦ê²Į":7449,"ĠìķĮëłīìĤ°":7450,"Ġê±°ëĴĢëĭ¤":7451,"Ġë²łë¥¼ë¦°":7452,"ail":7453,"iz":7454,"Ĥ´":7455,"íķĺê²łëĭ¤":7456,"ë¡ľê°Ģ":7457,"ëĵĢ":7458,"ì§Ģì»¬":7459,"ĠëĮĢê²°":7460,"ĠëĮĢë¥Ļ":7461,"ĠëĮĢíļĮìĹĲìĦľ":7462,"ìŀĲìľł":7463,"Ġì§Ģì§Ī":7464,"ëĤĺì§Ģë¥´":7465,"íĬ¸ìĻĢ":7466,"Ġê·¸ëĮĢë¡ľ":7467,"Ġë¶Ģëĭ´":7468,"Ġë¶Ģì±Ħ":7469,"ë§Īë¦¬ìĿĺ":7470,"ìļ©ìľ¼ë¡ľ":7471,"Ġìľłì¶ľ":7472,"Ġìĥģë°ĺ":7473,"ĠìłľëĮĢë¡ľ":7474,"ĠëĤĺìĹĲê²Į":7475,"ì¡°ì°¨":7476,"Ġëª¨íķĺë©Ķëĵľ":7477,"Ġë§ĪíĿĲ":7478,"ì½°":7479,"ĠìĬ¤ìºĶ":7480,"Ġë°©ìĭĿìľ¼ë¡ľ":7481,"Ġë°Ķëĭ¥":7482,"Ġìĭłì²´":7483,"2000":7484,"ĠìĬ¹ëł¤":7485,"Ġë§İëĭ¤":7486,"Ġ800":7487,"Ġê´Ģê³ĦìŀĲ":7488,"Ġë¡ľìĿ´":7489,"Ġë¡ľìĬ¤":7490,"ĠìłĢëĬĶ":7491,"ìĤ´ìĿĺ":7492,"ĠíķĦë¦½":7493,"ĠAI":7494,"ĠëĲľëĭ¤ëĬĶ":7495,"ĠëłĪìĬ¤íĨł":7496,"Ġë¸Įëŀľëĵľ":7497,"Ġì§ĢëıĦìŀĲê°Ģ":7498,"ĠíĨłëĭĪ":7499,"ĠëĨĴëĭ¤":7500,"Ġë¯¸êµ°ìĿĦ":7501,"ĠíĺĦìŀ¬ê¹Įì§Ģ":7502,"Ġê°ĸì¶ĺ":7503,"ĠëĤ´ëĤ´":7504,"Ġê¸°ìŀĲëĵ¤ìĹĲê²Į":7505,"Ġíķ©ìĿĺë¥¼":7506,"ĠìĿ´ë¯¸ì§Ģë¥¼":7507,"Ġì°¨ëŁīìĿ´":7508,"ĠìĿĺíļĮëĬĶ":7509,"Ġì£½ìĿĢ":7510,"ìĤ¬íĥľê°Ģ":7511,"ĠíĥĦíķµ":7512,"Ġì²ľì£¼êµĲ":7513,"ĠëĤ©ì¹ĺëĲľ":7514,"ĠìĬ¤íĥĢëĶĶìĽĢ":7515,"ĠìŀĲìľłë¥¼":7516,"Ġëª©íĳľë¥¼":7517,"Ġì¶ľìĹ°íķľ":7518,"Ġë§Īì§Ģë§īìľ¼ë¡ľ":7519,"ìĤ¬íļĮëĬĶ":7520,"Ġìķ¼ëĭ¹ìĿ¸":7521,"Ġì¦Ŀê±°ê°Ģ":7522,"ĠíıŃíĥĦíħĮëŁ¬ë¡ľ":7523,"Ġê²Ģìĥīìĸ´ê°Ģ":7524,"ĠìĤ¬ëł¹ê´ĢìĿĢ":7525,"ê³µíĻĶêµŃ":7526,"íĽĪ":7527,"ĠëĳĲëł¤ìĽĮ":7528,"Ġíľ©ìĭ¸":7529,"Ġë°°ëŁ´ëĭ¹":7530,"ìĿ¸íķĺìļ°":7531,"ĠëĦ¤ëįľëŀĢëĵľ":7532,"ĠìĹĦì²ŃëĤľ":7533,"87":7534,"¨ëĭ¤":7535,"ï¼":7536,"ĥĪ":7537,"ê³°":7538,"ìĹĲëĵľ":7539,"ìĿĺíļĮ":7540,"ë¦¬ë²Ħ":7541,"Ġë§Ľ":7542,"ë©ķìĭľì½Ķ":7543,"ìłķëıĦ":7544,"ĠìķĦëıĻ":7545,"Ġê°Ģì¹ĺ":7546,"Ġì¤ĳëĮĢíķľ":7547,"Ġë³´ìĥģ":7548,"Ġë¶Ģë¶Ģ":7549,"Ġëįķ":7550,"ĠìĨĮë§¤":7551,"Ġë¹Ħê³µ":7552,"ìļ©ìĿĺ":7553,"ë¹Ħë¡ľ":7554,"ĠìĿĺìķ½":7555,"ë°Ķë¦¬":7556,"ĠëĤĺìĿĺ":7557,"ĠìĹ°ìĩĦ":7558,"ëłĪìĿ¸":7559,"ìĥĿë¬¼":7560,"ì¡°ì¹ĺë¥¼":7561,"ĠìķĮì½Ķìĺ¬":7562,"Ġíķ´ìĪĺ":7563,"ĠìĥĿëªħ":7564,"ìĭ¤ìĿĢ":7565,"Ġì°¨ìĿ´ê°Ģ":7566,"Ġì¶Ķëª¨":7567,"ĠìĽĲìĿ¸ìĿĦ":7568,"ĠìĺĪìłķëĲľ":7569,"ĠíķľêµŃìĿ´":7570,"Ġëª»íķ´":7571,"Ġë¦¬íŀĪ":7572,"íĮĲìĿ´":7573,"Ġëıħìŀ¬":7574,"ìłĢìŀ¥ëĲľ":7575,"ĠìĹ°êµ¬ìĹĲ":7576,"ĠíĬ¹ì§ķ":7577,"Ġê°ĢëĬ¥ìĦ±ìĿĢ":7578,"ĠíĳľíĸĪëĭ¤":7579,"Ġëħ¼íıī":7580,"Ġíİĺë¥´ë²łì¦Ī":7581,"Ġëĵ¤ìĸ´ê°Ķëĭ¤":7582,"Ġì§ĪíĻĺ":7583,"Ġíķ©ìĿĺíĸĪëĭ¤ê³ł":7584,"Ġë¹Ħíĸīê¸°ë¥¼":7585,"ëĵ±ìĿĦ":7586,"ĠêµŃë¯¼ëĵ¤ìĿĺ":7587,"Ġì¹¨ìŀħ":7588,"ĠìĪľë°©":7589,"Ġê´ĳìĤ°":7590,"Ġë¶Ģìĥģìľ¼ë¡ľ":7591,"Ġëĭ¹ìĦłìĿ¸ìĿ´":7592,"Ġch":7593,"Ġìĥģíĥľë¡ľ":7594,"Ġìĥģíĥľê°Ģ":7595,"ĠìĦłìĪĺê°Ģ":7596,"Ġìŀ¡ê³ł":7597,"Ġê¸īì¦Ŀ":7598,"íĻķìĭ¤":7599,"ë¥łìĿĦ":7600,"ĠìĿ¸ê·¼ìĹĲ":7601,"Ġê³¨íĤ¤íį¼":7602,"Ġì¶©ëıĮìĿ´":7603,"ĠìŀĥìĹĪëĭ¤":7604,"Ġëª¸ìĿĦ":7605,"Ġìķ¤ëĵľ":7606,"ĠìĿ¼ë°ĺìłģìľ¼ë¡ľ":7607,"ĠìĿĺë¯¸íķľëĭ¤":7608,"ake":7609,"ĠìĬ¤íĶ¼ìĸ´":7610,"ìĭľì¼°ëĭ¤ê³ł":7611,"ĠìŀĲìĦ¸íķľ":7612,"Ġì²ŃìĻĢëĮĢ":7613,"ĠìºĦë³´ëĶĶìķĦ":7614,"ìķĻìĿĢíĸī":7615,"ĠëĶĶì§ĢíĦ¸":7616,"ĠëłĪìĬ¤íĨłëŀĳ":7617,"AC":7618,"port":7619,"Ġ:":7620,"ë¡ľë²ĦíĬ¸":7621,"ìķĹ":7622,"ëłĺ":7623,"ìĽĲìŀĲëł¥":7624,"ĠìłĦë¶ĢíĦ°":7625,"Ġë§ĲëĿ¼":7626,"Ġìĭľëĭ¬":7627,"ëħĦìĹĲìĦľ":7628,"íĦ°ê°Ģ":7629,"ĠìĿ¼ì°į":7630,"ëĭĪìĸ´":7631,"Ġê´Ģì¤ĳ":7632,"ëĭ¹êµŃìĿ´":7633,"ëĲĺìĹĪëįĺ":7634,"ëĶľ":7635,"Ġíķĺë©´ìĦľ":7636,"ĠìĺģìĽħ":7637,"ìĺ¤íĶĪ":7638,"ìĹ¬íĸī":7639,"ê¸Īìľ¼ë¡ľ":7640,"íŀĪëł¤":7641,"Ġê±°ë¦¬ìĹĲ":7642,"ëĶĶëĦ¤ìŀĲ":7643,"ĠìĤ¬ëŀĮìĹĲê²Į":7644,"ĠíĺĦìĭ¤":7645,"ĠíĺĦìŀ¥ìĿĦ":7646,"ê²°êµŃ":7647,"ĠíĹ¨ë¦¬":7648,"ìĦĿìĿ´":7649,"ĠëĿ¼ìĿ´íĬ¸":7650,"Ġë°°ê²½":7651,"Ġê¸ĪìļĶìĿ¼":7652,"Ġëĸ¨":7653,"Ġë¬¼ìĹĲ":7654,"Ġíķ©ë³ĳ":7655,"Ġê³µê²©ìĿĢ":7656,"ĠABC":7657,"Ġ120":7658,"ĠëĴ¤ë¥¼":7659,"ĠëıĮíĮĮ":7660,"ëĤłëĳĲ":7661,"Ġì¶©ê²©":7662,"Ġìĺ¨ëª¸ìľ¼ë¡ľ":7663,"Ġì²Ńêµ¬":7664,"Ġê°Ģì¡±ìĿ´":7665,"Ġë§Įëĵ¤ê³ł":7666,"ì»¤ëĬĶ":7667,"Ġë°©ìĨ¡ìĿĢ":7668,"Ġìĵ¸":7669,"ĠëıĦìĭľìĹĲìĦľ":7670,"ĠìĻ¸êµĲíĨµìĥģ":7671,"Ġì´īì§Ħ":7672,"oll":7673,"Ġë§ĪìĿ´íģ¬":7674,"ë¹ĪëĿ¼ëį´":7675,"Ġë§¡ê³ł":7676,"ĠìĿĳê¸ī":7677,"Ġì½ĺëıĮë¦¬ìŀĲ":7678,"ĠëĤ¨ìķĦê³µ":7679,"ĠìłĢì§Ģë¥¸":7680,"Ġex":7681,"Ġêº¼":7682,"ë¿Ĳë§ĮìķĦëĭĪëĿ¼":7683,"Ġì°¨ê´Ģë³´ëĬĶ":7684,"Ġëĭ¬ëĿ¼ìĿ´ëĿ¼":7685,"íĶĮëłĪìĿ´ìħĺ":7686,"ĠìĿ¸ëĶĶìķłëĤĺ":7687,"ìĿ´ëĵ¤ìĿ´":7688,"ê³łê¸°":7689,"íķľì§Ģ":7690,"ë¡ľë¯¸íĦ°":7691,"ê°ĢìŀĲ":7692,"ìĤ¬ë§Ŀ":7693,"ĠìĿ´ìĭĿ":7694,"ĠìłĦìļ©":7695,"ĠìłĦì§ģ":7696,"ìłģìĿ´ëĭ¤":7697,"Ġê°Ģìĥģ":7698,"Ġê°ĢëĤľ":7699,"ì²«":7700,"Ġê¸°ë°Ģ":7701,"Ġê·¸ë£¨":7702,"Ġì¤ĳê°Ħ":7703,"ĠìĿ¸ë¥ĺ":7704,"ĠìŀĲë¬¸":7705,"ë³´ìķĪ":7706,"ìĦ±ìŀ¥":7707,"ë§Īë¦¬ë¥¼":7708,"ê³ĦëĬĶ":7709,"ĠìĨĮì§ĳ":7710,"ĠìķĬê¸°":7711,"ĠìķĬê²Į":7712,"Ġë¹Ħíķµ":7713,"ëĭ¹ê³¼":7714,"ìĨĮìĨį":7715,"ë°Ķë¥´":7716,"ìĦ¸ìĹĲ":7717,"íĥĢìĿĺ":7718,"íĥĢë¯¼":7719,"Ġê³łìĨĮ":7720,"ĠìĬ¤íģ¬":7721,"ĠìĬ¤ìĽ¨ëį´":7722,"ëĶĶìĬ¤":7723,"ëĶĶìĸ´":7724,"Ġê°ĲìĤ¬":7725,"ì¦ĪíĶĦë¡¬":7726,"Ġì§Ħìĺģ":7727,"Ġì¶ľìŀħ":7728,"ë¥´ëħ¸":7729,"ëĤ´ì§Ģ":7730,"ens":7731,"ìĬ¤íĬ¸ë¦¬íĬ¸":7732,"Ġë¬¼ìĿĦ":7733,"ĠìĤ°ë¦¼":7734,"ë§ĲìĿĦ":7735,"Ġë¹ĦëĤľíķĺê³ł":7736,"Ġë§ŀì¶Ķ":7737,"ath":7738,"Ġì²łëıĦ":7739,"Ġì²´íı¬íĸĪëĭ¤ê³ł":7740,"ĠPC":7741,"ĠëĮĢíķĻìĥĿ":7742,"ĠêµŃë¯¼ëĵ¤ìĿ´":7743,"ĠIA":7744,"Ġëĭ¤ìĭľíķľë²Ī":7745,"Ġì¦Ŀê°ĢíĸĪëĭ¤ê³ł":7746,"Ġë¶ĢìĥģìŀĲ":7747,"ĠíĮĮíĤ¤ìĬ¤íĥĦìĿĺ":7748,"ĠíĬ¸ëłĪìĿ´":7749,"ê²¨ì§Ħ":7750,"Ġì°¨ëŁīìĹĲ":7751,"ĠìłĪì°¨":7752,"ĠìĻ¸êµĲìłģ":7753,"Ġë³Ģíĺ¸ìĤ¬ê°Ģ":7754,"ĠëĨįë¯¼":7755,"´ë³´":7756,"ĠìŀĪìĸ´ìĦľ":7757,"ìĿ´ëŀĢìĿ´":7758,"Ġìºĺë¦¬íı¬ëĭĪìķĦì£¼":7759,"Ġì§Ģíķĺì²ł":7760,"Ġê¼Ń":7761,"Ġê·¼ê±°ë¡ľ":7762,"Ġëħ¼ëŀĢìĿ´":7763,"ê·¸ëŀĺìĦľ":7764,"Ġë¹Ļíķĺ":7765,"Ġë¹ĦìĥģìĤ¬íĥľë¥¼":7766,"ĠìķķëĳĺëĿ¼":7767,"ĠìĦ±íĻĶë´īìĨ¡":7768,"Ġíĥģìĭł":7769,"ĠëĿ¼ìĬ¤ë²łìĿ´ê±°":7770,"ĠìĦŃì·¨":7771,"Ġë§Īì¹´ìĺ¤":7772,"overnment":7773,"45":7774,"48":7775,"BM":7776,"aw":7777,"ide":7778,"Ġì¿":7779,"ë¦´ëŀľëĵľ":7780,"Ġê²¸":7781,"ĠìĹĳ":7782,"ĠìĹ´ëĮĢ":7783,"ìĭľë¦¬ì¦Ī":7784,"ĠìĿ´ê°ĻìĿ´":7785,"ë¬ĺ":7786,"ĠìłĦìĿ¸":7787,"ĠìłĦìĹ¼":7788,"ìłģìĿ´ë©°":7789,"Ġë¯¸ìĪł":7790,"Ġë¯¸ì¹ł":7791,"ĠìĿ´ë¸Į":7792,"Ġë¶Ģë¶Ģê°Ģ":7793,"íģ¬ëĿ¼ìĿ´":7794,"ĠìĨĮíĺķ":7795,"ĠìĨĮëĵĿ":7796,"ë©´ìĹĲ":7797,"íĶĦê°Ģ":7798,"Ġìłľëª©":7799,"ê±°ìļ´":7800,"ìķĺìľ¼ë©°":7801,"ìĭĿìĹĲìĦľ":7802,"Ġë°©ì½ķ":7803,"Ġê°ľì²´":7804,"Ġëĭ¹ìĭłìĿ´":7805,"Ġì´ĿìĦłìĿĦ":7806,"Ġêµ¬ì¶ķ":7807,"Ġ53":7808,"ì¹´ë¥´íĥĢ":7809,"ĠìĤ¬ëŀĮëĵ¤ê³¼":7810,"Ġíı¬ëŁ¼":7811,"Ġìŀ¬ë¬´ë¶Ģ":7812,"Ġì£¼ìŀ¥íķĺë©°":7813,"ëĲĲëĭ¤ëĬĶ":7814,"ê°ĲìĿ´":7815,"Ġë°ľíĳľë¥¼":7816,"ĠíķľêµŃìĹĲ":7817,"Ġë°°íĽĦ":7818,"ĠíĻĶë¬¼":7819,"Ġê³¼ê²©":7820,"Ġê²ĢìĿĢ":7821,"ê°Ŀëĵ¤ìĿĢ":7822,"ĠíŀĮ":7823,"ë©Ķë¥´":7824,"ĠìĤ¬ìļ©íķ´":7825,"ĠìĤ¬ìļ©ëĲł":7826,"ĠìĸĳìĦ±":7827,"ĠìķĦìĿ´ìĺ¤ìĻĢ":7828,"Ġê²½ê¸°ë¶Ģìĸĳ":7829,"Ġê²Įìŀ¬":7830,"ĠìķķìĪĺ":7831,"Ġì´īë°ľ":7832,"Ġë°©ë²ķìĿ´":7833,"Ġìĵ°ëłĪ":7834,"Ġìłľìŀĳíķľ":7835,"íķĦëĵľ":7836,"ìĤ¬íļĮê°Ģ":7837,"Ġìłľì¡°ìĹħì²´":7838,"ìħĶëĦĲ":7839,"ĠíĻĶìŀ¬ë¡ľ":7840,"ĠìľĦìĽĲíļĮëĬĶ":7841,"´ëĤ´":7842,"ĠíĶĦë¦¬ë¯¸ìĸ´":7843,"Ġë¶Ļìŀ¡":7844,"ìĤ¬ëŀĮëĵ¤ìĿ´":7845,"ìĽħìĤ°":7846,"ĠëĳĺëŁ¬ìĭ¸":7847,"íĢ´":7848,"Ġíļ¡ëł¹":7849,"Ġë°Ķë¥´ìħĢë¡ľ":7850,"ëĿ¼ëĶĶë¯¸ë¥´":7851,"Ġì½ľë¡ľëĿ¼ëıĦ":7852,"ê¸ĢëĿ¼ëį°ìĭľ":7853,"ĠìĿ´ìĤ°íĻĶ":7854,"ëĿ¼ëį¸íĶ¼ìķĦ":7855,"35":7856,"GM":7857,"ON":7858,"ft":7859,"iti":7860,"oh":7861,"ë»":7862,"Ġk":7863,"ìĿ´ê³³":7864,"´ë²Ħ":7865,"ê²Ķ":7866,"ëıĦìĹĲìĦľ":7867,"ëıĦìļ°":7868,"Ġì§Ģìĥģ":7869,"ìķĦëĿ¼ë¹ĦìķĦ":7870,"ê·¸ë¦°":7871,"ĠìłķêµĲ":7872,"Ġì¤ĳë¶Ģ":7873,"Ġë³´ìŀī":7874,"ë§Īë¹ĪëĿ¼ëį´":7875,"Ġê³µê°Ħ":7876,"ë¹ĦìĻĢ":7877,"Ġì¡°ì¹ĺëĬĶ":7878,"ìĤŃ":7879,"ìĦ¸ìĿ´":7880,"ĠìĺĪìłĦ":7881,"ê³µê²©":7882,"Ġëĭ¹êµŃìĿĺ":7883,"ĠìķĮë©ĶìĿ´ëĭ¤":7884,"ĠíļĮìŀ¥":7885,"ì¤ĳìĹĲ":7886,"ê°ģìĿĦ":7887,"ĠìĹĲëĬĶ":7888,"ĠìŀħìĿĦ":7889,"ë°ľìłĦ":7890,"inis":7891,"Ġ1970":7892,"íĴĪìĿ´":7893,"ĠìĺĪìłķìĿ¸":7894,"ĠìĺĪìłķìŀħëĭĪëĭ¤":7895,"Ġë¬¸ìłľìĻĢ":7896,"Ġê´Ģê³ĦìĹĲ":7897,"Ġë²ķìķĪìĿ´":7898,"ì²ĺìĿĮ":7899,"Ġê¸ĪìĹ°":7900,"ìħĭ":7901,"ìħľ":7902,"Ġê³¼ëıĦ":7903,"ĠìĿĮìĭĿìĿĦ":7904,"ĠíķŃêµ¬":7905,"íĻľëıĻìĿĦ":7906,"Ġìĸĳìľ¡":7907,"Ġì¡°ìĤ¬íķľ":7908,"Ġì¡°ìĤ¬ê°Ģ":7909,"ĠëıĮìŀħ":7910,"ì¸łë¥¼":7911,"Ġì§ĢëıĦìŀĲëĵ¤ìĿ´":7912,"ìķłíĭĢ":7913,"ĠSh":7914,"ìĻ¸êµĲ":7915,"íĿ¥":7916,"Ġì¼Ī":7917,"ë¹Ĺ":7918,"ĠìķĦëĭĪë©´":7919,"out":7920,"ĠìĨĲìĭ¤ìĿĦ":7921,"Ġê°Ģì¡±ìĿĦ":7922,"Ġê°Ģì¡±ìĿĢ":7923,"ĠìķķëıĦ":7924,"ĠíĶĮë£¨":7925,"Ġì¶ķìłľ":7926,"Ġac":7927,"ì½ľë¡¬ë¹ĦìķĦ":7928,"Ġë¨¸ë¦¬ë¥¼":7929,"íĻķìĿ¸":7930,"Ġê³µíķŃìĹĲ":7931,"Ġëħ¸ëıĻìŀĲ":7932,"ush":7933,"ĠíĮĢìĿ´":7934,"ĠìķĬëĬĶëĭ¤ë©´":7935,"ĠëŁ°ëįĺìĹĲìĦľ":7936,"Ġì¹´ë¶Ī":7937,"Ġë¹Īë¯¼":7938,"ĠëĿ¼ìĿ´ë²Į":7939,"ìļ°ì£¼êµŃ":7940,"Ġíĸīìłķë¶Ģê°Ģ":7941,"ĠìķĦë§ĪëıĦ":7942,"ĠìĥģëĮĢë°©":7943,"ĠìĪĺìĦĿëĮĢíĳľ":7944,"Ġê²°ìĿĺìķĪìĿĦ":7945,"ĠìĥĿë¬¼íķĻ":7946,"Ġë¨¸ë¬¼ê³ł":7947,"ĠìĻķìĦ¸ìŀĲ":7948,"Ġê²°ë¡łìĿĦ":7949,"Ġê¸įìłķìłģìĿ¸":7950,"ëģĦëŁ¬":7951,"ëĩ¨":7952,"MS":7953,"ë¤Ħ":7954,"ìŀł":7955,"´ëªħ":7956,"ëĿ¼íĨ¤":7957,"ê¸°ìĥģ":7958,"ìĥĮ":7959,"ë¶ĢíĻľ":7960,"ĠìĭľìĨį":7961,"Ġìłķì°©":7962,"Ġë³´ê²Į":7963,"ë³´íĹĺ":7964,"ë³´ìŀ¥ìĿ´":7965,"Ġë¶ĢëĶ":7966,"Ġë¶Ģë¶ĢëĬĶ":7967,"ĠìĨĮë¦¬":7968,"ĠìłľìĿ´":7969,"ì¡°ë¥¼":7970,"ĠìĻ¼":7971,"ìķ¼íĽĦ":7972,"ìĭĿìĿĺ":7973,"Ġìļ°ë¦¬ë¥¼":7974,"ĠìĦ±ê´Ģê³Ħë¥¼":7975,"Ġíģ´ëŀ":7976,"Ġëħ¸ìĬ¤ìºĲë¡¤ëĿ¼ìĿ´ëĤĺ":7977,"ì°¨ë³Ħ":7978,"Ġë°ĺìĺģ":7979,"Ġìŀ¬ëĤľ":7980,"ì½Ķë§¥":7981,"ì¦Īë¥¼":7982,"ĠìŀĲìĭłìĹĲê²Į":7983,"ìĦ¤ìĿĦ":7984,"Ġì¶ľìĥĿ":7985,"Ġì¶ľëĳĲ":7986,"ë²Ħì§ĢëĭĪìķĦ":7987,"ont":7988,"Ġë²ĮìĹ¬":7989,"ëįĶëĬĶ":7990,"Ġê²Ģì¦Ŀ":7991,"ĠìĦ¸ê³Ħìłģìľ¼ë¡ľ":7992,"ĠíķŃìĨĮ":7993,"íĻľëıĻ":7994,"ì±ħìŀĦ":7995,"íħįìĤ¬ìĬ¤":7996,"Ġê³ĦìĨįëĲĺëĬĶ":7997,"ìłķë¶ĢìĿĺ":7998,"Ġë©Ķë¥´":7999,"ĠíļĮëĭ´ìĿĺ":8000,"Ġê°ĲëıħìĿĺ":8001,"ë¹ħ":8002,"ĠìºĶ":8003,"Ġê°Ģì¡±ê³¼":8004,"ìĽ¨ìĿ´íĬ¸":8005,"Ġì¦Ŀê°Ģíķľ":8006,"ĠíĽĶ":8007,"ĠíħĮìĬ¤íĬ¸":8008,"ìŀĪëĭ¤ê³ł":8009,"ĠìķĪìłĦíķĺê²Į":8010,"ĠíķĺëĤĺìĿ¸":8011,"ëĨĪ":8012,"Ġì°¨ì§Ģíķĺê³ł":8013,"ë²łìĿ´ì§ķ":8014,"Ġì¶©ëıĮë¡ľ":8015,"ĠìĤ¬íļĮìłģ":8016,"ĠìĪĺë°±ëªħìĿĺ":8017,"ĠìĽĢì§ģìŀĦìĿĦ":8018,"ĠìĹŃìĤ¬ìłģ":8019,"Ġíİ¼ì³¤ëĭ¤":8020,"ìĹ°êµ¬ì§ĦìĿĢ":8021,"Ġìłľê¸°íĸĪëĭ¤":8022,"Ġìĭ¤ì¢ħëĲľ":8023,"ìĸ¼ë¦¬":8024,"ë´¤ëĭ¤":8025,"ĠëĽ°ìĸ´":8026,"Ġê¸ĢìĿĦ":8027,"ĠìĪłìĿĦ":8028,"IAEA":8029,"ĠíĿ¥ë¶Ħ":8030,"ĠëĳĺëŁ¬ìĭ¼":8031,"Ġì¦īê°ģìłģìĿ¸":8032,"Ġì¡¸ìĹħ":8033,"íĥĢëĤĺëª¨":8034,"ĠFARC":8035,"ĠíĺľíĥĿìĿĦ":8036,"Ġì«ĵ":8037,"Ġë©¤ë²Ħ":8038,"04":8039,"AN":8040,"ive":8041,"ĠX":8042,"ĠëĥĪëĭ¤":8043,"ìĿ´íķľ":8044,"ìĭľìĬ¤íħľ":8045,"ĠìĤ¬ìĹħìĿĦ":8046,"ĠëĤ¼":8047,"ëĲ©ëĭĪëĭ¤":8048,"Ġëĭī":8049,"ìķĦìĿ¼ëŀľëĵľ":8050,"ĠìłĦíĻĺ":8051,"ĠìķĦìĬ¤":8052,"ĠìķĦë°Ķ":8053,"ĠìĿ¸ëªħ":8054,"ĠìĿ¼ìłľ":8055,"ĠìĿ¼ìĿ´ëĭ¤":8056,"ĠêµŃìłķ":8057,"ĠêµŃìŀ¥ìĿĢ":8058,"Ġë¹Ħê·¹":8059,"ëĭ¹êµŃ":8060,"ë¹ĦìĿĺ":8061,"ë¹Ħìĥģ":8062,"ĠëĤĺìĬ¤ëĭ¥":8063,"Ġê²°ì½Ķ":8064,"ĠíļĮìĤ¬ëĬĶ":8065,"ì¼°":8066,"ê¸Īì§Ģ":8067,"Ġ56":8068,"íĮĮë¡ľ":8069,"êµĲíĨµ":8070,"ì¹´ìļ´íĭ°":8071,"ëŀĺëĵľ":8072,"Ġìĭ¤ë¦°":8073,"ë²ķìĽĲ":8074,"Ġë§İìķĦ":8075,"íĶ¼íĬ¸":8076,"ë²łëĭĪìķĦ":8077,"ĠëªħìĿĦ":8078,"Ġê¸Īë¦¬":8079,"ĠìĿ¼ë³¸ìĹĲìĦľ":8080,"Ġì´Īë°ĺ":8081,"Ġê²½ê¸°ê°Ģ":8082,"Ġì§Ģì§ĢìŀĲëĵ¤ìĿĢ":8083,"íĺĳìłķ":8084,"ëłĪìĿ´íģ¬":8085,"ìķłë¯¸":8086,"Ġë¯¼ì£¼íĻĶ":8087,"ëĦĪëĬĶ":8088,"ĠSp":8089,"Ġíĳľë¥¼":8090,"Ġíĳľì¤Ģ":8091,"Ġì¢ħíķ©":8092,"ĠìĿ´ëŀĢìĿĢ":8093,"Ġìĸ´ê¹¨":8094,"ĠìķĬìķĺëįĺ":8095,"ĠëĤłì§ľ":8096,"Ġoff":8097,"ĠêµŃë¯¼ëĵ¤ìĹĲê²Į":8098,"ĠìľłëŁ½ìĿĺ":8099,"Ġì²«ë²Īì§¸":8100,"Ġìĭ¤ìĭľëĲĺëĬĶ":8101,"ĠëĦ¤ë°Ķëĭ¤":8102,"ass":8103,"ĠíıŃë°ľìĿ´":8104,"ĠìĦ±ê³µìĿĦ":8105,"Ġìłķì±ħìĹĲ":8106,"Ġìļ©ìĿĺìŀĲê°Ģ":8107,"ì¢ĭ":8108,"ëĿ¼ìļ´ëĵľ":8109,"ĠëĨĵìĹ¬":8110,"Ġê·ľëª¨ê°Ģ":8111,"ĠëĪĪìĹĲ":8112,"Ġë¯¸ìĤ¬ìĿ¼ìĿĦ":8113,"ĠìłķëıĦìĿĺ":8114,"ĠìĹŃìĤ¬ìłģìĿ¸":8115,"ĠìĤ¬ìļ°ìĬ¤":8116,"ĠìĹ¬ê°Ŀê¸°ê°Ģ":8117,"ëį°ìĿ´ë¹Ħëĵľ":8118,"Ġëĭ¹êµŃìĹĲ":8119,"Ġìŀ¥ë©´ìĿ´":8120,"ĠìĿ¸êµ¬ê°Ģ":8121,"ìĵ¸":8122,"Ġë°ĽìķĦëĵ¤ìĿ¼":8123,"Ġì¡°ì¢ħìĤ¬":8124,"ĠìĿĺíĺ¹ìĿĦ":8125,"ì²¨ëĭ¨":8126,"ìŀĺëłĪìĬ¤":8127,"Ġì§§ìĿĢ":8128,"ĠìĥĺíĶĮ":8129,"Ġìĺ¹íĺ¸":8130,".)":8131,"400":8132,"7000":8133,"90":8134,"av":8135,"º¼":8136,"êº¼":8137,"Ġhe":8138,"íķ´ëıĦ":8139,"ì§ĢìĪĺê°Ģ":8140,"ĠëĮĢì¹ĺ":8141,"ĠëĮĢë¦½":8142,"ìŀĲë£Į":8143,"ìĽĲëĵ¤ìĿĺ":8144,"Ġëĭ¥":8145,"ë¶Ģë¡ľ":8146,"ë²ħ":8147,"ìĸ´ìŀ¥":8148,"Ġê°ĢíĸĪëĭ¤":8149,"Ġë§Ĳíķł":8150,"Ġê¸°íļĮê°Ģ":8151,"Ġìłķíķ´":8152,"ĠíķľëķĮ":8153,"ë§Īê°Ģ":8154,"ë§ĪìŀĲ":8155,"ĠìĿ¼ìĹĲ":8156,"Ġëĭ¤êµŃìłģ":8157,"ĠìĿĺë¬´":8158,"ìĨĮìĻĢ":8159,"ìĦ¸ëĬĶ":8160,"ë£°":8161,"Ġíĥ±":8162,"íĥĢë¥´":8163,"Ġìĺģìĸĳ":8164,"ìĭĿìĿĢ":8165,"Ġë°Ľìľ¼ë©°":8166,"Ġíķ´ìŀĦ":8167,"ĠìĦ¸íı¬":8168,"ĠëĤ¨ëıĻ":8169,"ë§ĿìĿĦ":8170,"Ġë¶ģëıĻ":8171,"ĠëĺĲëĭ¤ìĭľ":8172,"ë²ķìĿĢ":8173,"ĠíıŃê²©":8174,"ëł¨ìĿĺ":8175,"ĠìĽĲì¹Ļ":8176,"Ġ700":8177,"eral":8178,"Ġì¤ĳêµŃìĿĦ":8179,"Ġë¶Ħë¥ĺ":8180,"Ġì§ĳíļĮë¥¼":8181,"Ġë¡ľëĵľ":8182,"ĠëĿ¼íĮĮ":8183,"Ġê´Ģëł¨íķľ":8184,"Ġìĭ¬ë¦¬":8185,"Ġìĭ¬ìĤ¬":8186,"ĠìłģëĮĢ":8187,"Ġë°ľê²¬íķľ":8188,"ĠìķĦìĿ´íı°":8189,"ĠìĤ¬ìĭ¤ìĿĢ":8190,"lear":8191,"Ġë³µë¬´":8192,"Ġê·¼ìľ¡":8193,"ê¸Ģëī´ìĬ¤":8194,"Ġë¸Ķë£¨":8195,"Ġê³µê°ľëĲľ":8196,"ê³³ìĿĦ":8197,"Ġìłľê³µíķł":8198,"´ë°©":8199,"ĠëıħìĿ¼ìĿĺ":8200,"Ġëŀĺ":8201,"ê´Ģê³ĦìŀĲëĬĶ":8202,"ëĨĵ":8203,"Ġì»´íĵ¨íĦ°ë¥¼":8204,"ĠìĤ¬íĥľìĹĲ":8205,"ëĲĺìĹĪìľ¼ë©°":8206,"Ġë°ĿíĺĶì§Ģë§Į":8207,"Ġë§¡ìķĺëĭ¤":8208,"ĠìĽĮìĭ±íĦ´ìĹĲìĦľ":8209,"Ġë´īìĨ¡":8210,"Ġìĥ¤ë¦¬íĶĦ":8211,"ays":8212,"ìĻĶìľ¼ë©°":8213,"Ġê²½íĹĺìĿ´":8214,"ĠëıĻë§¹êµŃ":8215,"Ġíĺ¼ëŀĢìĿĦ":8216,"Ġì§ĦìĪłíĸĪëĭ¤":8217,"Ġëĵ£ê³ł":8218,"ëĶĶìĹĲìĿ´ê³ł":8219,"ĠíĽĮë¥Ńíķľ":8220,"WHO":8221,"ah":8222,"Ġ~":8223,"ĠíĤ¬":8224,"ëĿ¼ìĹĲ":8225,"ê¸°ëĿ¼ìĿ´":8226,"ìĤ¬ë¬´":8227,"ìĭľìĺ¤":8228,"ĠìĿ´ìłģ":8229,"ĠìĤ¬ë§ī":8230,"ìķĦë²ł":8231,"ëªħìĿ¸":8232,"ĠìķĦëĬĶ":8233,"Ġíķ´ëıĦ":8234,"Ġê°Ģëĭ´":8235,"ë§ĮìĿ¼":8236,"ìłľìĿ´":8237,"Ġê¸°ê°ģ":8238,"ìĪĺìĻĢ":8239,"Ġë¬´ëį":8240,"íģ´ëŁ½":8241,"êµ¬ê¸Ģ":8242,"ë¬¸ìĹĲìĦľ":8243,"ĠìĿ¼ìĸ´ëĤł":8244,"Ġë¹Ħíıī":8245,"Ġìĥģìĥģ":8246,"Ġìĥģìĺģ":8247,"íĶĦë¥¼":8248,"Ġì¡°ìļ©":8249,"Ġë¯¸êµŃìľ¼ë¡ľ":8250,"ĠëĵĢ":8251,"íĥĢìĺ¤":8252,"ê·Ħ":8253,"Ġìµľë£¨":8254,"ĠìĦ¸ìļ°":8255,"Ġë¬´ê²Į":8256,"Ġ65":8257,"Ġë¶ģìª½":8258,"Ġëħ¸ìĬ¤":8259,"ìŀĳìłĦìĿĦ":8260,"Ġê±°ë¦¬ë¥¼":8261,"ì§ģìĹĲ":8262,"Ġì°¨ëĭ¨":8263,"Ġë§¤ì¼ĢìĿ¸ìĿĢ":8264,"ĠíıŃíĮĮ":8265,"ë§¤ì¼ĢìĿ¸":8266,"ë£ĮíĴĪ":8267,"Ġëĵ±ìĹĲ":8268,"ord":8269,"Ġë³´ëıĦìĹĲëĶ°ë¥´ë©´":8270,"tit":8271,"Ġëª»íķĺëıĦë¡Ŀ":8272,"ĠíĽĦë³´ìĿ¸":8273,"ĠêµŃê°Ģëĵ¤ìĿ´":8274,"Ġë¬¼ìĿ´":8275,"Ġì§ģìĽĲìĿ´":8276,"Ġì´ĪìłĲìĿĦ":8277,"Ġíı¬íķ¨ëı¼":8278,"Ġê²°ìłķíķł":8279,"ĠêµŃìłľê³µíķŃ":8280,"Ġì§ĢìĽĲíķĺëĬĶ":8281,"Ġì§ĢìĽĲíķĺê³ł":8282,"Ġíİĺë£¨":8283,"ĠìķłëĭĪ":8284,"ome":8285,"ĠíĶĦëŀĳìĬ¤ìĿĺ":8286,"ĠìŀĪìĹĪìľ¼ëĤĺ":8287,"Ġëĭ´ê²¨":8288,"Ġë°©ìĨ¡ìĿĦ":8289,"ĠíķĺëĿ½íķľ":8290,"Ġë°©ë²ķìĿĢ":8291,"Ġìĵ°ì´¨":8292,"ĠìĿ¸íĦ°ëĦ·ìĿĦ":8293,"Ġê³µìĭĿìłģìĿ¸":8294,"ĠìĦľìļ¸ìĹĲìĦľ":8295,"Ġìļ´ìĺģíķĺê³ł":8296,"ĠëĮĢìĥģìĿ´":8297,"íĺ¹íķľ":8298,"íı´ë¦¬":8299,"ĠìĿ´ë£¨ìĸ´ì¡Įëĭ¤":8300,"ĠêµĲìľ¡ìĿĦ":8301,"ĠêµĲíĨµìĤ¬ê³ł":8302,"ĠíĿ¬ë§ĿìĿĦ":8303,"ĠìĨ¡íĻĺ":8304,"ìĤ¬ëŀĮëĵ¤ìĿĢ":8305,"ĠëĤĺìĺ¤ì§Ģ":8306,"PPP":8307,"Ġìķķë°ķìĿĦ":8308,"íĸĦíĶĦìħĶ":8309,"Ġë§Īëĵľë¦¬ëĵľ":8310,"ĠìĬ¤ì½ĶíĭĢëŀľëĵľ":8311,"ĠìĻĦìłĦíķľ":8312,"ĠìķłíĭĢëŀľ":8313,"Ġì½©ê³ł":8314,"Ġê²°ìĦłíĪ¬íĳľ":8315,"ĠIAEA":8316,"inister":8317,"32":8318,"46":8319,"ĠìĮĢ":8320,"Ġìª½":8321,"ĠëĤ¬":8322,"ìĦľìĹĲìĦľ":8323,"ëĿ¼ë¥¼":8324,"ìĭľëĮĢ":8325,"ĠìĤ¬ìľ¡":8326,"ĠìłĦìĦ¤":8327,"ë²³":8328,"ĠìķĦëĵ¤ìĿ´":8329,"Ġë§ĲìĹĲ":8330,"íĻĶíķľ":8331,"íĻĶìĻĢ":8332,"ĠìĿ¸íĶĮëłĪìĿ´ìħĺ":8333,"ì¹ĺê²Į":8334,"ë³´ê±´":8335,"Ġì§ĵ":8336,"ëĭ¹ìĹĲìĦľ":8337,"Ġì²¨":8338,"ë©´ìĹĲìĦľ":8339,"ì¡¸":8340,"ĠìĹ°ì¶ľ":8341,"Ġë§Īì¹ľ":8342,"ìķ¼ëĬĶ":8343,"Ġê°ľìĭľ":8344,"ĠìĹĨê²Į":8345,"ĠíļĮìŀ¥ìĿĺ":8346,"ĠëĤ¨ë¶ģíķľ":8347,"ĠëĤ¨ëıĻë¶Ģ":8348,"íĺ¸ìĿĺ":8349,"Ġë¶ģìĦľë¶Ģ":8350,"Ġ58":8351,"Ġë¶Īì¾Į":8352,"ĠìĹĲìĸ´":8353,"ê±´ìĿ´":8354,"ê±´ìĿĢ":8355,"Ġë°ĺë°ķ":8356,"ĠìĿ´ëĿ¼íģ¬ìĻĢ":8357,"ĠíĹĲ":8358,"ĠìĪ²":8359,"ank":8360,"ĠëĶķ":8361,"Ġë°ľíĳľíķĺê³ł":8362,"ĠëĳĲë°ĶìĿ´":8363,"ì»´íĵ¨íĦ°":8364,"ëĥī":8365,"Ġìłģë°ľ":8366,"Ġì¢ģ":8367,"Ġì´Īì²Ń":8368,"ë¦ĦìĿĦ":8369,"ĠêµŃìłľìĤ¬íļĮìĿĺ":8370,"Ġê²°ê³¼ë¡ľ":8371,"Ġë¯¸êµ°ìĿĢ":8372,"Ġê±¸ë¦°":8373,"ìŀĪëįĺ":8374,"Ġì°¾ìĿĢ":8375,"ĠìĿ´ìĬ¤ëĿ¼ìĹĺìĹĲ":8376,"ĠìĨĲìĹĲ":8377,"ëĤ¨ë¯¸":8378,"Ġê°Ģì¡±ëĵ¤ìĿ´":8379,"ĠIOC":8380,"Ġì¹¨ëª°":8381,"íĮĢìĿĦ":8382,"íģ´ë¡ľ":8383,"Ġìĥģíĥľë¥¼":8384,"ĠìļĶì²ŃìĿĦ":8385,"ĠíĪ¬íĳľìĹĲìĦľ":8386,"Ġê¸īëĿ½":8387,"ĠìŀĪìĸ´ìķ¼":8388,"Ġëĭ¨ì²´ê°Ģ":8389,"Ġìĺģíĸ¥ëł¥ìĿĦ":8390,"ĠìľĦíĺĳìĿ´":8391,"ë°Ľìķĺëĭ¤":8392,"Ġëħ¼ìĿĺíķĺê¸°":8393,"Ġíľ´ê°Ģë¥¼":8394,"ĠìĿĢíĸīìĹĲ":8395,"ĠìĿ¸ì§Īë¡ľ":8396,"Ġì§Ģê¸ĪìĿĢ":8397,"ë´īìĤ¬":8398,"ĠëĪĪìĿ´":8399,"ĠCNNê³¼ìĿĺ":8400,"ĠëĤ¨ìĦ±ìĿĢ":8401,"ĠìĿ´ê³³ìĹĲ":8402,"ĠJapan":8403,"ews":8404,"Ġê°ľíĺģìĿĦ":8405,"ĠìĤ¬ìļ°ëĶĶìķĦëĿ¼ë¹ĦìķĦ":8406,"ound":8407,"uclear":8408,"eek":8409,"Ġìŀĺëª»ëĲľ":8410,"ĠëŃĦ":8411,"Ġë¿Į":8412,"ĠìĻ¸íĻĺìĿĢíĸī":8413,"ĠìĬ¤íĥł":8414,"33":8415,"56":8416,"6000":8417,"EW":8418,"TS":8419,"pe":8420,"íķľìĿĢ":8421,"ĠìĿ´ë¥Ļ":8422,"ĠìĤ¬ìłĦ":8423,"ë³´ëĿ¼":8424,"ëĤĺë¬´":8425,"ĠìĿ´ë³":8426,"Ġì£¼ìĹĪëĭ¤":8427,"ì²©":8428,"Ġê²½íĸ¥":8429,"Ġê·¸ëŀľëĵľ":8430,"Ġê·¸ê²ĥìĿĦ":8431,"íķłì§Ģ":8432,"ĠìĿ¸ê¸°ë¥¼":8433,"ĠìŀĲìłľ":8434,"ì¹ĺë©°":8435,"ĠìĿ¼ìĭľ":8436,"Ġê´Ģìĺģ":8437,"ìķĪìĹĲìĦľ":8438,"ëĭ¹íĸĪëĭ¤":8439,"ĠìĿĺìĽĲìĿĺ":8440,"ë°Ķê·¸ëĭ¤ëĵľ":8441,"Ġìµľì²¨ëĭ¨":8442,"Ġë°©ìĤ¬":8443,"Ġëĭ¹íĻ©":8444,"Ġ47":8445,"Ġ4000":8446,"ĠëĤ¨ìĦľë¶Ģ":8447,"Ġêµ¬ë©į":8448,"Ġë¶ģìª½ìľ¼ë¡ľ":8449,"êµĲë¥¼":8450,"ìĿĮìķħ":8451,"Ġì°¨ë³Ħ":8452,"ĠìķĪíĥĢ":8453,"ë²łëłĪìĬ¤íĬ¸":8454,"erv":8455,"Ġë²ĮìĿ´ëĬĶ":8456,"ëįĶìĬ¤":8457,"ĠíĻĶëł¤":8458,"Ġìĭ¬ì§Ģìĸ´":8459,"Ġê³¼ë°ĺ":8460,"Ġìĺ¤ë°Ķë§ĪìĹĲ":8461,"Ġì½Ķëģ¼":8462,"ë³µìĦł":8463,"ĠíĨłë§ĪìĬ¤":8464,"ĠíĻľì£¼ë¡ľ":8465,"Ġë¶ĢìĭľìĿĺ":8466,"ĠëĨĴìĿ´":8467,"Ġ1500":8468,"Ġê²Įìĭľ":8469,"ĠìłĲê±°":8470,"ĠìķĬëĬĶëĭ¤ëĬĶ":8471,"Ġê·ľìłķìĿĦ":8472,"ĠìķĬìķĺê³ł":8473,"Ġìĺ¨ìĭ¤":8474,"Ġê³³ìĿ´ëĭ¤":8475,"ĠëĶĶìĬ¤":8476,"Ġì¹¨ì²´":8477,"Ġfrom":8478,"ĠíĮ¨íĬ¸ë¦Ń":8479,"ĠëĤľìĤ¬":8480,"Ġê°ľë°ľìĿĦ":8481,"ìľ¨ë¡ľ":8482,"ĠíĥĦìķķ":8483,"ĠHIV":8484,"íķĦë¦¬íķĢ":8485,"ĠìŀĲìľłë¬´ìĹŃ":8486,"ĠíħįìĤ¬":8487,"ëĲĺìĹĪê³ł":8488,"ĠëĤ®ì¶Ķ":8489,"ëĵľë¦¬ê²Į":8490,"ĠìĤ¬ìļ°ìĬ¤ìºĲë¡¤ëĿ¼ìĿ´ëĤĺ":8491,"ĠìĪĺì¤Ģìľ¼ë¡ľ":8492,"ĠíĴĢìĸ´":8493,"ĠìŀĳìĹħìĹĲ":8494,"Ġì±ĶíĶ¼ìĸ¸ìĭŃ":8495,"Ġë¬´ìĤ¬íŀĪ":8496,"Ġëıķê¸°":8497,"Ġë¥´":8498,"Ġê³łìĸĳìĿ´":8499,"ĠíĢ¸":8500,"ĠìĮįëĳ¥":8501,"Ġë°°ìĭ¬ìĽĲ":8502,"Ġë¶ĢëĶª":8503,"BO":8504,"CI":8505,"Ķë¸Ķ":8506,"íĸĪëĭ¤ë©°":8507,"ë¦¬ëĵľ":8508,"ìĿ¸ìĪĺ":8509,"íķ´ìĺ¨":8510,"ìĭľì¹´ê³ł":8511,"ĠìĺĲ":8512,"ìŀ¥ê´ĢìĿ´":8513,"Ġë³¸ëĭ¤":8514,"ìĿ¼íķĺê²Į":8515,"ëªħìĹĲìĦľ":8516,"ë²¼":8517,"ëĮĢë³ĢìĿ¸ìĿĢ":8518,"Ġê°Ģíķ´":8519,"Ġê°Ģê²Į":8520,"Ġì£¼ìĹĲ":8521,"ë§Įìŀ¥":8522,"ĠìĭľëĿ¼íģ¬":8523,"ĠìŀĲë¦¬ìĹĲ":8524,"ê±´ë¶Ģ":8525,"ìĦ±íĻĶ":8526,"Ġë°ĿíĺĶëĭ¤ê³ł":8527,"ëĭĪìĹĲ":8528,"Ġê²ĥìĿ´ìĹĪëĭ¤":8529,"Ġëĭ¤ë¦¬":8530,"Ġìĺ¤íŀĪëł¤":8531,"ë¹ĦìĹĲ":8532,"Ġìĥģëĭ¹ìĿĺ":8533,"ìĨĮíĶĦíĬ¸":8534,"Ġì¡°ìĸ¸":8535,"Ġë¯¸êµŃìĿ¸ëĵ¤ìĿ´":8536,"ìĦ¸ìĻĢ":8537,"Ġëª¨ëŀĺ":8538,"ĠëıĻìĿ¼íķľ":8539,"ëĭ¨íŀĪ":8540,"ĠìĬ¤ìľĦìĬ¤":8541,"Ġê°ľíĹĮ":8542,"ĠìĹĨê³ł":8543,"ë¯¼ì¡±":8544,"ë¬¼ìĿĺ":8545,"Ġëħ¸ë¥´":8546,"íĮĮìļ´ëĵľ":8547,"ĠìĭłëıĦ":8548,"ëĭ¬ëĿ¼":8549,"ì¹´ë¥´":8550,"Ġê±°ëĮĢ":8551,"ĠìĹĲìĸ´ë²Ħ":8552,"ì§ģìĹĲìĦľ":8553,"ĠìŀħìĪĺ":8554,"Ġìŀ¬ìŀĦ":8555,"ĠìĦľìĸĳ":8556,"ì§ĪìĿ´":8557,"íĥľíıīìĸĳ":8558,"Ġì¦Ŀìĭľê°Ģ":8559,"ĠëĲĺëıĮ":8560,"ĠìĥĪë²½":8561,"Ġê¸Īë©Ķ":8562,"ĠìĹ¬ìĦ±ê³¼":8563,"Ġì¹ĺìĹ´íķľ":8564,"ese":8565,"ĠìĦ¸ê³ĦìĿĺ":8566,"ĠìĿĮìĦ±":8567,"ë©ĶìĿ´íĬ¸":8568,"ĠíķĦëĿ¼ëį¸íĶ¼ìķĦ":8569,"ìłĢì§Ģ":8570,"Ġì¹´ìĬ¤íĬ¸ë¡ľ":8571,"ĠíĬ¹ìĪĺ":8572,"ì£¼ìĿĺìŀĲ":8573,"Ġì§ĢìĽĲíķł":8574,"ĠëĤĺíĥĢëĤľ":8575,"Ġë³¸ë¶Ģ":8576,"ous":8577,"ĠìĤ¬ê³łë¥¼":8578,"ìĽ¨ìĬ¤íĬ¸":8579,"Ġì¶ķìĨĮ":8580,"Ġëĭ´ìĿĢ":8581,"Ġì¤ĳëĭ¨íķł":8582,"Ġëī´ìļķìĹĲìĦľ":8583,"Ġìĥģíĥľëĭ¤":8584,"Ġì±ħìĿĦ":8585,"ĠëĪĦê°Ģ":8586,"kmìĿĺ":8587,"Ġë³´ìĹ¬ì¤Ģëĭ¤":8588,"ĠìĦ±ê³µìłģìľ¼ë¡ľ":8589,"ĠìĬ¹ë¦¬ë¡ľ":8590,"ĠìĬ¹ë¦¬íķł":8591,"ĠìĹ°ë°©ì¤Ģë¹Ħ":8592,"ë°ĽìĿĦ":8593,"ĠìĿ¸ì§ĪìĿĦ":8594,"igh":8595,"ĠìĿ¼ìľ¼íĤ¬":8596,"ĠíĻįìĪĺë¡ľ":8597,"Ġíķĺë£¨ìĹĲ":8598,"Ġìŀ¥ê´ĢìĿĺ":8599,"Ġë³Ħëĭ¤ë¥¸":8600,"ĠëĤĺëĿ¼ìĿĺ":8601,"ĠìłĦìĦ¸ê³Ħìłģìľ¼ë¡ľ":8602,"Ġê°ĲìĹ¼ëĲľ":8603,"ĠìĨĮìĭĿíĨµìĿ´":8604,"Ġë¶Īê°ĢíĶ¼":8605,"ëĿ¼ë§Īë°Ķ":8606,"ëĭīìĬ¤":8607,"´ë§Į":8608,"ĠìĿµëªħìĿĺ":8609,"ĠêµŃíļĮìĿĺìĽĲ":8610,"Ġë°ĽìķĦëĵ¤ìĹ¬":8611,"ì¶ķêµ¬ìĹ°ë§¹":8612,"ĠíĳľëªħíĸĪëĭ¤":8613,"Ġì²ľìĹ°ê°ĢìĬ¤":8614,"Ġë®¤ì§Ģì»¬":8615,"merican":8616,"Ġê·¸ëŁ¬íķľ":8617,"39":8618,"BBC":8619,"Th":8620,"Ĳë¦¬":8621,"ìĿ´ì»¤":8622,"ìĽ¬":8623,"ìĤ¬íķŃ":8624,"ìĭľìĻĢ":8625,"ĠìĿ´ëĵĿ":8626,"Ġìĭ«":8627,"Ġê³°":8628,"ìĽĲëĵ¤ìĿĦ":8629,"ĠìĪĺë¦½":8630,"ìłģìĿ´ëĿ¼ê³ł":8631,"Ġë¯¸ì¹ĺëĬĶ":8632,"íĬ¸ë¶ģ":8633,"Ġê°Ģì¦ĪëĭĪ":8634,"Ġê¸°ìĹ¬":8635,"Ġê¸°ìĺ¨":8636,"ĠìłķìĿĺ":8637,"Ġìłķì°°":8638,"ë¬¸íķĻ":8639,"íĨµìĿĢ":8640,"ëıĻë§¹":8641,"íģ¬ìĿĺ":8642,"ĠìķĬê²łëĭ¤ê³ł":8643,"ë¹Ħë¡Ŀ":8644,"ì§Ħê³¼":8645,"ì§ĦíĥĢìĺ¤":8646,"ĠìĹ°ê¸°ë¥¼":8647,"ë£¡":8648,"Ġë§ĪìĿĮìĿĦ":8649,"Ġê³łìķĪ":8650,"ĠìµľëĮĢìĿĺ":8651,"ìĺ¤ê³ł":8652,"ëĭ¨ìĸ´ìŀ¥":8653,"ĠìĬ¤ìľĦ":8654,"Ġë°ĶìĬ¤ëĿ¼":8655,"ĠìĦ¸ëł¥ìĿ´":8656,"ë¬¼ë¡ł":8657,"Ġë¬´ìĬ¬ë¦¼":8658,"ĠíĨµìĭłìĿ´":8659,"Ġë¶Īê¸¸":8660,"Ġìĭ¤ìĪĺë¥¼":8661,"Ġë§¤ëĭ¬":8662,"íİ¸ìĿ´":8663,"ĠìŀĲìĭłê³¼":8664,"ë²Ħë¦¬":8665,"ĠíİŃ":8666,"Ġë°ľìĥĿíķĺê³ł":8667,"ìĭ¬ìĿ´":8668,"orn":8669,"ĠìĺĪìłķìĿ´ìĹĪëĭ¤":8670,"ĠíĪ¬ìŁģ":8671,"ì¢ħìĿĺ":8672,"ĠìĹ¬ìĦ±ëĵ¤ìĿ´":8673,"Ġíĺĳìłķ":8674,"ĠìĿ¼ë³¸ìĹĲ":8675,"Ġê³ĦìĨįëĲł":8676,"Ġì¡°ìĤ¬ìĹĲëĶ°ë¥´ë©´":8677,"ìĩł":8678,"Ġë¹ĦëĤľíķĺëĬĶ":8679,"Ġíĥľìļ´":8680,"ìĺ¬ë¦¬ìĸ¸":8681,"ĠìĿ´ëŀĢê³¼":8682,"Ġì¶©ê²©ìĿĦ":8683,"Ġover":8684,"Ġìķłë¦¬ì¡°ëĤĺ":8685,"ĠëĤ´ë³":8686,"ĠíĻķìĿ¸íķł":8687,"ĠëĶĶì¦ĪëĭĪ":8688,"ĠìĨįëıĦë¡ľ":8689,"ĠëĮĢíķĻìĹĲìĦľ":8690,"ĠëĶ°ëıĮ":8691,"Ġë§Įëĵ¤ê¸°":8692,"Ġ1996":8693,"Ġas":8694,"Ġìĸ¸ê¸īìĿĦ":8695,"ĠìłĪì°¨ë¥¼":8696,"ĠìĨĮìĨįìĿĺ":8697,"ìłĳíķľ":8698,"ì¿łë°Ķ":8699,"Ġìĵ°ê³ł":8700,"Ġê´Ģë¦¬ëĵ¤ìĿ´":8701,"Ġê±´ê°ķìĿ´":8702,"Ġìĭ¬ê°ģíķĺê²Į":8703,"econ":8704,"ëª¬íĬ¸":8705,"íı´ë¦¬ìĬ¤":8706,"ĠìºłíİĺìĿ¸ìĿĦ":8707,"Ġíļ¨ìľ¨":8708,"ĠíĥĲíĹĺ":8709,"Ġë¶ĢíĨµëł¹ìĿĢ":8710,"Ġëª¨ëį¸ìĿĦ":8711,"ĠìĪłì§ĳ":8712,"íİłëĵľ":8713,"ĠëĭĪì½ľëĿ¼":8714,"Ġë³´ìĹ¬ì£¼ê³ł":8715,"ĠìŀĲì¹ĺìłķë¶Ģ":8716,"Ġê°ĸì¶Ķê³ł":8717,"Ġì¹łëłĪ":8718,"Âł200806":8719,"ency":8720,"Ġë¯¸ìĭľìĭľíĶ¼":8721,"Ġë¹ĦìĦľìĭ¤":8722,"Ġìŀ¬ê²ĢíĨł":8723,"ĠìĿ´ìĤ°íĻĶíĥĦ":8724,"1000":8725,"59":8726,"MF":8727,"VD":8728,"eg":8729,"©ìĸ´":8730,"ëľ":8731,"ìĭľìĹĲìĦľ":8732,"Ġê²ĥìŀĦìĿĦ":8733,"ìķĦëħ¸":8734,"ìĻĪ":8735,"Ġë¯¸ìĦ±":8736,"ĠìķĦë©Ķë¦¬ì¹´":8737,"Ġê°Ģì¹ĺë¥¼":8738,"Ġê°Ģë²¼":8739,"Ġì£¼ìĿĺë¥¼":8740,"ĠìľĦëĮĢíķľ":8741,"Ġë§ĲìĿ´":8742,"Ġìļ´ëªħ":8743,"ìłĦìĦ¸ê³Ħ":8744,"Ġíķľíİ¸":8745,"ĠìĿ¼ì£¼ìĿ¼":8746,"Ġê´ĢíĥĢëĤĺëª¨":8747,"ìľĦì¸ł":8748,"ìķĪìĿĺ":8749,"ĠìĨĮê·ľëª¨":8750,"ë¯¸ëĵľ":8751,"Ġìĺ¤ì¼Ģ":8752,"Ġìľłê°Ĳ":8753,"ĠìłľíĬ¸":8754,"ĠëĤĺìĿ´ê°Ģ":8755,"ĠëĤĺìĿ´ì§Ģë¦¬ìķĦ":8756,"ĠíĸĦ":8757,"ĠëıĻíĭ°ëª¨":8758,"ëł¤ì§Ħ":8759,"ìĹŃìĹĲ":8760,"Ġëĭ¹ë¶Ģ":8761,"ĠìķĮë°Ķ":8762,"Ġë°ĶëĿ¼ëĬĶ":8763,"ĠìĦ±ê²©":8764,"ĠìĦ±ì¶Ķ":8765,"Ġ52":8766,"Ġ54":8767,"Ġìĭłë°ľ":8768,"ì¤ĳêµŃìĿĺ":8769,"Ġë°ĺë³µ":8770,"ëª¨ëĳĲ":8771,"ì¦ĪìĻĢ":8772,"ĠìķĪìłķìĿĦ":8773,"Ġì§ĦíĻĶ":8774,"Ġë¡¬":8775,"ë¸Įë¥¼":8776,"ê¸īìĿĦ":8777,"ĠìĪĢ":8778,"Ġêµ°ìĿĢ":8779,"Ġíĺ¸ëĤĺìļ°":8780,"Ġë²Įê¸Ī":8781,"Ġë¡ľìłĢ":8782,"ĠíĪ¬ìŀĲê°Ģ":8783,"ĠëĿ¼ëį´":8784,"Ġë°°ê°Ģ":8785,"Ġë¦¬ëĵľ":8786,"ĠíĽĦë³´ìĻĢ":8787,"íĮĲìĹĲ":8788,"ìłĲìĿĢ":8789,"Ġë³ĳëł¥ìĿ´":8790,"ë¦½ëĭĪëĭ¤":8791,"ĠìĦ¸ê³Ħìłģ":8792,"Ġìĺ¤ë°Ķë§Īë¥¼":8793,"ĠAT":8794,"ĠìĤ¬ìļ©íķĺì§Ģ":8795,"ĠìŀĦê¸Ī":8796,"Ġë³´ëĥĪ":8797,"Ġë°©ë¬¸íķĺëĬĶ":8798,"Ġì¢ħë¥ĺìĿĺ":8799,"ì°©ë¥Ļ":8800,"ite":8801,"ical":8802,"ĠìĥģìĽĲìĿĺìĽĲìĿĺ":8803,"Ġíķ©ìĿĺíķľ":8804,"Ġë¹Ħíĸīê¸°ê°Ģ":8805,"ĠëģĿëĤł":8806,"Ġìĸ»ê³ł":8807,"Ġ2500":8808,"íıīê·ł":8809,"ĠìĿ´ìļ©íķĺëĬĶ":8810,"ĠìĿ´ìļ©íķł":8811,"ĠìĻķìŀĲê°Ģ":8812,"ĠíĬ¸ëĿ¼":8813,"Ġëĭ¤ìĿĮëĤł":8814,"Ġì°¸ìĦĿíķł":8815,"ĠëĸłëĤ¬ëĭ¤":8816,"Ġê±´ê°ķìĹĲ":8817,"Ġê³¨ëĵľ":8818,"ëĦĲëĵľ":8819,"Ġëª°ê³ł":8820,"Ġë§ĪìĿĦìĹĲìĦľ":8821,"Ġìľłì§Ģíķĺê³ł":8822,"Ġë²Īì§¸ë¡ľ":8823,"ĠìĨĮìľłíķĺê³ł":8824,"Ġhis":8825,"Ġìĸ´ëł¤ìĽĢ":8826,"Ġnuclear":8827,"ĠìłľìĭľíĸĪëĭ¤":8828,"ĠìĪĺìŀħìĿĦ":8829,"Ġì£¼ëıĦíķľ":8830,"ĠíĥĳìĬ¹ê°Ŀ":8831,"Ġê²½ì°°ìĦľìŀ¥ìĿĢ":8832,"ëĿ¼ìĬ¤íĭ±":8833,"ĠíĮ¨ë°°ë¥¼":8834,"Ġê³µìĤ°ëĭ¹":8835,"Ġê¸°ëĬ¥ìĿĦ":8836,"Ġë²ķìłķìĹĲìĦľ":8837,"ìĽĲìŀĲëł¥ê¸°êµ¬":8838,"ëĶĶëĦ¤ìŀĲëĵľ":8839,"''":8840,"52":8841,"St":8842,"ª¬":8843,"ë¤":8844,"ĠËĿ":8845,"Ġìį¼":8846,"ìĿ´ê°ĻìĿĢ":8847,"ê°ĢìĻĢ":8848,"ê²ģ":8849,"ìĿ¸ëĵ¤ìĹĲê²Į":8850,"Ġë§ģ":8851,"ìĤ¬ìĹħ":8852,"ĠìĺĽ":8853,"ĠìĤ¬ëĭ´":8854,"ĠìĪĺë¦¬":8855,"ĠìĪĺìĹ¬":8856,"ĠìłĦë³µ":8857,"ì¹´ëĿ¼":8858,"ê²ĮìĿ´ì¸ł":8859,"ĠìķĦìĽħìĤ°":8860,"Ġê°ĢìĿĦ":8861,"Ġê°ĢìĨį":8862,"ë§Įìľ¼ë¡ľ":8863,"ĠìĭľìĭłìĿ´":8864,"Ġë³´ìĬ¤íĦ´":8865,"ë¬¸ìłľ":8866,"Ġë°ľíı¬":8867,"íĨµìĿĦ":8868,"ê´ĢìĹĲìĦľ":8869,"ëıĻìĦ±":8870,"íģ¬ìĩ¼":8871,"Ġëĭ¤ë£¬":8872,"ĠìĹ¬ìĤ¬ëĬĶ":8873,"Ġìĥģìĸ´":8874,"ìĦ¸ëĮĢ":8875,"ìľłëĬĶ":8876,"ìļĶíķľ":8877,"Ġë§Īë¹Ħ":8878,"Ġë§Īë¦¬ìķĦ":8879,"Ġë§ĪëĿ¼íĨ¤":8880,"ĠëıĻìĥĿ":8881,"ì½¥":8882,"Ġê³łê¸ī":8883,"ê²½ìĹĲ":8884,"ìĹŃìĹĲìĦľ":8885,"ĠíĽĦìĦ¸":8886,"ĠìĦ¸ë¶Ģ":8887,"ĠëıĦë¡ľë¥¼":8888,"ĠíĨµê³Ħ":8889,"ìŀĦìĿ´":8890,"Ġ57":8891,"ĠìĭłíĻĶ":8892,"ìĹ°íŀĪ":8893,"ê±´ê°ķ":8894,"Ġê°Ĳìĺ¥":8895,"Ġëĭ¬ë¦¬ê³ł":8896,"ĠìĻ¸ê³Ħ":8897,"Ġì£¼ìŀ¥íķľëĭ¤":8898,"Ġ88":8899,"Ġë¦¬ì°¨ëĵľ":8900,"Ġì²´ì½Ķ":8901,"Ġìĺ¤ë°Ķë§ĪìĻĢ":8902,"Ġë¬¼ëŁ¬ëĤĺ":8903,"ĠìĹ°êµ¬ìĹĲìĦľ":8904,"ĠìĹ°êµ¬ì§ĦìĿĢ":8905,"ĠìĸĳìĿĺ":8906,"ĠìĹ´ê³ł":8907,"ĠìĹ´ìĸ´":8908,"ê²łìĬµëĭĪëĭ¤":8909,"ĠìķĦìĿ´ê°Ģ":8910,"Ġì§ĢëıĦìŀĲëĬĶ":8911,"ìķłíĶĮ":8912,"Ġë³µìĹŃ":8913,"Ġì¤Ħë¦¬ìķĦ":8914,"Ġì¢ħë£Į":8915,"ìŀĪìľ¼ë©°":8916,"ree":8917,"ret":8918,"reat":8919,"ĠëŁ¬ëĭĿ":8920,"Ġëĭ¬ëŁ¬ê°Ģ":8921,"ĠìĭĿë£ĮíĴĪ":8922,"Ġì²´íı¬ëĲĲëĭ¤ê³ł":8923,"Ġë¬´ìŀ¥ê´´íķľ":8924,"ĠìĪľë¡Ģ":8925,"Ġê´ĳë²ĶìľĦ":8926,"ĠìĻķìĭ¤":8927,"Ġ1993":8928,"ĠíĸĪìĹĪëĭ¤":8929,"ĠíĸĪìľ¼ëĤĺ":8930,"ĠëıĮìķĦìĺ¤":8931,"ĠUn":8932,"ĠìĹħê³Ħ":8933,"ĠTVëĬĶ":8934,"ĠìĬ¤ë¦¬ëŀĳì¹´":8935,"Ġëĭ¨ì²´ìĿĺ":8936,"ìĤ¬íĥľë¥¼":8937,"ĠêµŃë°©ë¶Ģê°Ģ":8938,"Ġê±´ê°ķíķľ":8939,"ë°ĽìĿĢ":8940,"ĠìĿ¸ê·¼ìĹĲìĦľ":8941,"ĠìĿ´ë¦ĦìĿ´":8942,"Ġì¶ľìĭłìĿ¸":8943,"Ġì°½ì¶ľ":8944,"Ġíĺ¼ìŀĲ":8945,"ĠíķĻêµĲìĹĲ":8946,"Ġê²Ģì°°ìĿ´":8947,"ĠìĽĲë¬¸ê¸°ìĤ¬":8948,"ĠìĿ¸ìļ©íķ´":8949,"ĠëĬĺìĸ´ëĤĺ":8950,"Ġì´¬ìĺģíķľ":8951,"Ġê³µìĬµìĿĦ":8952,"ë¡ľìĿ´ëĵľ":8953,"Ġíļ¨ê³¼ê°Ģ":8954,"ê³µíĻĶëĭ¹":8955,"Ġê°ĳìŀĳ":8956,"ĠìĬ¤íĬ¸ëłĪìĬ¤":8957,"ĠëĬĲëĤĦ":8958,"ife":8959,"ĠëĤ¸ìĭľ":8960,"íķ´ë¦¬íı¬íĦ°":8961,"Ġìĸĺê¸°":8962,"Ġë¹¨ê°Ħ":8963,"Ġëĭ¤ìĿ´ìķĦëª¬ëĵľ":8964,"íĪ¼":8965,"ĠìĿ´ìĬ¬ëĿ¼ë§Īë°Ķ":8966,"Ġê¸°ìģĺëĭ¤":8967,"Ķë¸Ķëįĺ":8968,"',":8969,"ES":8970,"ai":8971,"ey":8972,"rou":8973,"ven":8974,"ëļ":8975,"ì±":8976,"ìĿ´ìĿµ":8977,"ìĹĲë¯¸":8978,"ĠìĿ´ìŀĲ":8979,"ìĿ¼ìľ¼":8980,"Ġëĭ«":8981,"ìķĦë©Ķë¦¬ì¹¸":8982,"ìłľíĴĪ":8983,"ĠìĭľëĮĢ":8984,"ĠìŀĲëıĻ":8985,"ĠìŀĲëŀĳ":8986,"Ġë°ľíľĺ":8987,"ë§Īë¥¼":8988,"ĠìĿ¼ìĿ´ëĿ¼ê³ł":8989,"ëĭĪìĻĢ":8990,"ìľĦìĹĲìĦľ":8991,"ĠìľłíĬľë¸Į":8992,"Ġìĥģë¥Ļ":8993,"ìĦ¸íķľ":8994,"ĠíķĺìĹĲ":8995,"Ġëª¨ëĭĪ":8996,"Ġë§ĪìĬ¤íĦ°":8997,"ĠìĦłìłľ":8998,"ĠìĦłíĺ¸":8999,"ë¬´ëĵľ":9000,"ê²½ê¸°ë¥¼":9001,"ĠíļĮìĤ¬ë¥¼":9002,"ĠìĦ¸ìĿ¸íĬ¸":9003,"ìĭ¤ë¡ľ":9004,"ìĺĢê³ł":9005,"ĠëĤ¨ê²¨":9006,"íĺ¸ìĹĲ":9007,"Ġëħ¸ëĮĢíĨµëł¹":9008,"Ġ59":9009,"íĮĮëĿ¼":9010,"Ġìĭłì¡°":9011,"Ġìĭłì¤ĳ":9012,"ìĹ°íķľ":9013,"ĠìĹĲë²łëłĪìĬ¤íĬ¸":9014,"Ġìŀħë²ķ":9015,"íĭ°ê°Ģ":9016,"Ġíı¬ì°©":9017,"ĠíĶĦëŀŃ":9018,"íĹ¬":9019,"ì½ĶëĬĶ":9020,"íĨłìĿĺ":9021,"íĨłëĬĦ":9022,"Ġì§Ħìłķíķľ":9023,"ëį°ìĬ¤":9024,"ind":9025,"íķ©ìĿĺ":9026,"Ġëĭ¬ë¦°":9027,"ĠìĻ¸ë¶Ģ":9028,"ĠìĽĲìŀĲ":9029,"íĶ¼ìĬ¤":9030,"Ġ7000":9031,"ĠíĸīìľĦìĹĲ":9032,"Ġì§ĢìĹŃìĹĲìĦľëĬĶ":9033,"ìĬ¨ê³¼":9034,"ĠëĲĺë©°":9035,"ĠëĲĺê¸¸":9036,"Ġíĺ¸ëŀĳ":9037,"ĠíķľêµŃìĹĲìĦľ":9038,"Ġëĭ¨ëıħ":9039,"tive":9040,"Ġì²ĺíķľ":9041,"Ġì²ĺíķ´":9042,"Ġìĭ¬ë¦¬íķĻ":9043,"ĠìĺģêµŃìĿ¸":9044,"ĠCent":9045,"ĠìłģìĭŃìŀĲ":9046,"ĠìĦ¸ê³ĦìłģìĿ¸":9047,"ĠíħĮëŁ¬ìĹĲ":9048,"íİĺìĿ´":9049,"Ġì¹´ë¥¼":9050,"ĠìĤ¬ìĭ¤ìĹĲ":9051,"ë§ĲëĿ¼":9052,"ĠThe":9053,"Ġì±ĦëĦĲ":9054,"ĠëĤĺíĥĢëĤ´ëĬĶ":9055,"ĠìĥģíĻ©ìĿĢ":9056,"ĠìĻĦë£Į":9057,"Ġì¹¨ê³µ":9058,"Ġê´ĳë¶Ģ":9059,"Ġì¦Ŀê°Ģíķł":9060,"ĠëĤĻê´Ģ":9061,"Ġì¿łíį¼":9062,"Ġíĸ¥ìĥģ":9063,"´ë³µ":9064,"Ġëĭ¨ì²´ìĿ¸":9065,"ìĿ´ì§ĢìķłëĤĺ":9066,"Ġêµ°ìĤ¬ìłģ":9067,"ĠíķĻìĥĿëĵ¤ìĿĢ":9068,"Ġê³¨ëĵł":9069,"Ġê¸¸ìĿ´":9070,"Ġëª©íĳľëĬĶ":9071,"ĠìĻĢìĿ´":9072,"ĠëĪĪìĿĦ":9073,"ĠëĤ¨ìŀĲì¹ľêµ¬":9074,"ĠìĿ´ëģĮê³ł":9075,"ĠìŀĳìĹħìĿ´":9076,"ĠëĮĢìĿĺìĽĲìĿĦ":9077,"Ġìĭ¬ìŀ¥ë§Ī":9078,"ĠìłĦë¬¸ê°Ģëĵ¤ìĿ´":9079,"Ġê²½íĹĺìĿĦ":9080,"Ġì¢ĮìłĪ":9081,"ĠëĤľë¯¼ì´Į":9082,"Ġì¢ĭìķĦíķĺëĬĶ":9083,"Ġë¯¼ë³ĳëĮĢ":9084,"arty":9085,"ĠíĶĦëĿ¼ìĿ´ë¨¸ë¦¬":9086,"ĠYOR":9087,"Ġë¶ĪëŁ¬ìĿ¼ìľ¼":9088,"Ġíĺģëªħ":9089,"Ġìĥģëĭ¹íŀĪ":9090,"ĠìĦ±íĸ¥ìĿĺ":9091,"Ġíĺ¸ìĨĮíĸĪëĭ¤":9092,"Ġìļ°ìļ¸ì¦Ŀ":9093,"Ġê±´ëĦĪ":9094,"Ġê°ĩíĺĢ":9095,"ĠYORK":9096,"IOC":9097,"PC":9098,"lic":9099,"to":9100,"ë¨¹":9101,"´ë¨¼":9102,"ë¬´ëĤĺ":9103,"ëıĦìĻĢ":9104,"Ġì§ĢìłĲìĹĲìĦľ":9105,"ĠìĪĺë°°":9106,"ì¹¨ìĿĦ":9107,"ëĤĺë¥¼":9108,"ëĤĺìĹĲìĦľ":9109,"ì£¼íķľ":9110,"ì£¼íĥĿ":9111,"Ġê·¸ëĵ¤":9112,"êµ¬ìĹĲ":9113,"íĨµíķ©":9114,"Ġë¶Ģì´Ŀ":9115,"Ġëĭ¤ìļ´":9116,"Ġëĭ¤ë¦¬ë¥¼":9117,"Ġëĭ¤ìĦ¯":9118,"Ġë¹Ħì¹ĺ":9119,"ëĭ¹ìĿĦ":9120,"ìļ©ìĿ´":9121,"íĸĪìĿĮìĿĦ":9122,"Ġìłľì¹ĺê³ł":9123,"ìĦ¸ìĹĲìĦľ":9124,"ì²´ìłľ":9125,"Ġë°©ì¶ľ":9126,"ĠìķĮëł¸ëĭ¤":9127,"ĠìĥĿëªħìĿĦ":9128,"ë¬¼ë¡ľ":9129,"Ġë¶ĪìĹĲ":9130,"Ġë¶ĪíĻ©":9131,"Ġê³Ħì¢Į":9132,"Ġë§ĮëĤ¬ëĭ¤":9133,"íĭ°ìĺ¤":9134,"Ġíı¬ìĿ¸íĬ¸":9135,"ĠíĶĦë¦°":9136,"ĠíıŃìĦ¤":9137,"ĠìŀĳíĴĪìĿĦ":9138,"ĠìĻ¸ë¬´ìŀ¥ê´Ģ":9139,"ĠìĽĲì£¼ë¯¼":9140,"Ġëĵ±ìľ¼ë¡ľ":9141,"ĠíĸīìĤ¬ë¥¼":9142,"Ġë²łìĬ¤íĬ¸":9143,"Ġëį°ìĹĲ":9144,"ëħ¸ìĬ¤":9145,"ëħ¸ì¡°":9146,"Ġë²ķë¬´ë¶Ģ":9147,"Ġíķłë¨¸ëĭĪ":9148,"Ġë¦¬ëįĶ":9149,"ì¤¬":9150,"Ġê³µê²©íķľ":9151,"ë³ĳìĽĲ":9152,"Ġíı¬íķ¨ëĲĲëĭ¤":9153,"Ġì¹´íĬ¸ë¦¬":9154,"íĺĳëł¥":9155,"ë§Ĳë¦¬íĤ¤":9156,"´ëį¸":9157,"ì²ľë§Į":9158,"Ġë°©ë¬¸ê°Ŀ":9159,"ì£¼ìĿĺìłģ":9160,"Ġì¢ħê²°":9161,"Ġê°ĦìĹĲ":9162,"Ġê°ĸëĬĶ":9163,"ĠìķĦëĭĪìĹĪëĭ¤":9164,"Ġë°±ìĿ¸":9165,"Ġìĸ»ìĸ´":9166,"ĠìĻķìŀĲìĿĺ":9167,"íĨ¡":9168,"ĠìĨĮìĭĿìĿĢ":9169,"Ġ1995":9170,"Ġë°ĿíĺĢì§Ħ":9171,"ĠìĥģíĥľìĹĲìĦľ":9172,"ĠìĥģìĬ¹íķľ":9173,"oreign":9174,"ĠëĤ¨ë¶ĢìĹĲìĦľ":9175,"ĠëıĦì°©íķľ":9176,"Ġê²°íĺ¼ìĿĦ":9177,"ĠìĪĺê°ĲìŀĲ":9178,"ĠíĹ¬ê¸°ê°Ģ":9179,"Ġë¹ĮëĶ©":9180,"ĠìķĮì¹´ìĹĲëĭ¤ìĻĢ":9181,"Ġì¦Ĳê¸°":9182,"ĠìĤ¬ìĥģìŀĲ":9183,"Ġíķ´ìķĪìĹĲìĦľ":9184,"Ġìĺ¤ë¥¸ìª½":9185,"Ġë°ĶëŀĢëĭ¤ê³ł":9186,"Ġëħ¼ìŁģìĿĦ":9187,"ĠìĿ¼ìĸ´ëĤĺëĬĶ":9188,"Ġë¹łìł¸ëĤĺ":9189,"Ġê¼¬":9190,"ëĦ¬ëĿ¼":9191,"ĠìĬµê²©":9192,"ĠìŀĩëĬĶ":9193,"Ġì´Ŀìŀ¬ëĬĶ":9194,"íĨłëĭĪìĺ¤":9195,"Ġë°©íĸ¥ìľ¼ë¡ľ":9196,"Ġì²ĺë²ĮìĿĦ":9197,"ternational":9198,"Ġê²©ëł¬íķľ":9199,"ì½°ëıĦë¥´":9200,"ĠìĬ¤íĥĢëĶĶìĽĢìĹĲìĦľ":9201,"ĠìĻ¸êµĲíĨµìĥģë¶Ģ":9202,"ĠìĻ¼ìª½":9203,"54":9204,"IFA":9205,"UEFA":9206,"ave":9207,"bama":9208,"iv":9209,"ition":9210,"me":9211,"sh":9212,"ution":9213,"Ġìį¨":9214,"Ġì§Ģë¶ķ":9215,"Ġêµī":9216,"Ġì£¼ì£¼":9217,"Ġì£¼ë¦½":9218,"ìłľëĦ¤":9219,"ĠìĭľìĹĲ":9220,"Ġìłķê¶ĮìĿĦ":9221,"ĠìĿ¸ê°ĦìĿĺ":9222,"Ġë¶Ģìłģ":9223,"Ġë¶Ģíĥģ":9224,"Ġê³µíı¬":9225,"Ġê³µìķ½":9226,"ĠìĿ¼ìĥģ":9227,"ëĭĪê¹Į":9228,"Ġëį´ë§Īíģ¬":9229,"ĠìķĬê¸°ë¡ľ":9230,"ì§Ħìľ¼ë¡ľ":9231,"ì§Ħìķķ":9232,"Ġíķĺê±°ëĤĺ":9233,"íĥĢë¥¼":9234,"ìĭľê°ĦìĿĦ":9235,"Ġê°ľìŀ¥":9236,"ĠëĤ¨íķĻìĥĿ":9237,"Ġëħ¸ìĿ¸":9238,"Ġëħ¸ëł¥ìĿ´":9239,"Ġìłķë¶ĢìĹĲìĦľ":9240,"ë¶Ħë§ĮìĹĲ":9241,"ì¹´íĬ¸":9242,"Ġìŀ¬ì§ģ":9243,"íĨłëĬĶ":9244,"ĠìĽĲìĿ¸ìĿ´":9245,"Ġ73":9246,"Ġíĸīì§Ħ":9247,"Ġë²łëĤĺì§Ģë¥´":9248,"Ġêµ°ìĿ´":9249,"Ġíĺ¸íĿ¡":9250,"Ġë°ľíĳľëĲĲëĭ¤":9251,"Ġì°¸ëª¨":9252,"Ġê¸Īìķ¡":9253,"Ġì²ĺë°©":9254,"ĠíĻĶìĿ´íĬ¸":9255,"Ġì¹ĺë§¤":9256,"ĠêµŃê°Ģë¡ľ":9257,"ĠêµŃê°Ģëĵ¤ìĿĢ":9258,"ĠìĺģíĻĶê°Ģ":9259,"ĠíĺĳíļĮ":9260,"ĠìķŀëĳĶ":9261,"ĠìĤ¬ìļ©íķĺê³ł":9262,"Ġì§ģìłĦ":9263,"Ġì§ģìĹħ":9264,"Ġíı¬íķ¨ëĲľ":9265,"Ġë©ĶëĶĶ":9266,"Ġë¹ĦëĤľíķĺë©°":9267,"Ġì¤ĦìĿ¼":9268,"Ġì¤Ħìĸ´":9269,"ĠìĭľìľĦëĮĢëĬĶ":9270,"Ġì¢ħì¢ħ":9271,"Ġê²Įë¦´ëĿ¼":9272,")âĢĻ,":9273,"ĠìŀĪìĹĪëĭ¤ëĬĶ":9274,"íļĮìĿĺë¥¼":9275,"ouse":9276,"íıŃë°ľ":9277,"Ġìļ°ì£¼ìĦł":9278,"ëĲľëĭ¤ë©´":9279,"ìķĮì¹´ìĹĲëĭ¤":9280,"ê´Ħ":9281,"Ġì¶ķì¶ľ":9282,"Ġìĭ¤ìĭľíķł":9283,"ĠìķĶì»·":9284,"Ġë³Ģíĺ¸ìĤ¬ìĿ¸":9285,"ĠëĸłëĤľ":9286,"ĠëĤ¨ë¶ĢìĹĲ":9287,"ĠíĺĳìĥģìĹĲ":9288,"olog":9289,"ĠìķĪìłĦë³´ìŀ¥ìĿ´":9290,"ĠíķĺëĤĺë¡ľ":9291,"Ġë§ĪìĿ´ìķłë¯¸":9292,"Ġì°¸ìĹ¬íķł":9293,"Ġë°ĿíĺĶìľ¼ë©°":9294,"Ġì£¼ëĳĶíķĺê³ł":9295,"ĠëĤ¨ìĦ±ìĿĺ":9296,"ëĬĲëĥĲ":9297,"ĠëĨĢëĿ¼ìļ´":9298,"ĠìĿĺê²¬ìĿ´":9299,"ĠíĮ¬ëĵ¤ìĿĢ":9300,"ĠìĿĮìķħìĿĦ":9301,"ĠìĿ´ëģĮìĸ´":9302,"Ġë¶Ģëª¨ê°Ģ":9303,"Ġìłķìĭłìłģ":9304,"Ġê²°ìĬ¹ìłĦìĹĲìĦľ":9305,"ìŀīê¸Ģëŀľëĵľ":9306,"íĬ¹íŀĪ":9307,"ĠìłľìĻ¸íķľ":9308,"Ġíķ´ëĭ¹íķĺëĬĶ":9309,"ĠìłĢíķŃìĦ¸ëł¥":9310,"ĠìĹ´ëł¸ëĭ¤":9311,"ìĸ¸ë¡łìĿĢ":9312,"ĠìŀĲíĥĿìĹĲìĦľ":9313,"Ġë³µìŀ¡íķľ":9314,"ĠìĻĦë²½íķľ":9315,"Ġíı´ëŀĢ":9316,"Ġë¯¼ê°Ĳíķľ":9317,"Ġì¹´ë¥´ìŀĲìĿ´":9318,"Ġë¦¬íŀĪíĦ°":9319,"4000":9320,"600":9321,"79":9322,"IS":9323,"mb":9324,"ph":9325,"ts":9326,"ĠìĶ":9327,"´ë©´":9328,"ìĬ¤íħĶ":9329,"êµŃìĹĲìĦľ":9330,"ĠìĤ¬íķŃìĿĦ":9331,"ĠìĪĺë©´":9332,"ìĻĵ":9333,"ĠìķĦíĿĲ":9334,"ìłľë¦¬":9335,"ìłľìŀĳ":9336,"ĠìľĦìĥĿ":9337,"Ġíĺ¹":9338,"ĠìĿ¸ë¯¼":9339,"Ġë¶ĢìĦľ":9340,"Ġë¶ĢìĨį":9341,"ĠíĮĿ":9342,"ĠìĿ¼ì¶ķ":9343,"ê´Ģëĵ¤ìĿĢ":9344,"ĠìķĬìľ¼ë©°":9345,"íĸīìľĦ":9346,"ë¹Ħíķľ":9347,"ĠìĹ¬ë¶ĢìĹĲ":9348,"ĠìĿĺë¬¸ìĿĦ":9349,"ĠìłľíĴĪìĿĦ":9350,"ìľłê°Ģê°Ģ":9351,"ĠìĹ°ê³Ħ":9352,"ìĥĿìĤ°":9353,"ì¡°íķľ":9354,"ì¡°ìłķ":9355,"Ġëª¨ë¥´ëĬĶ":9356,"ë¦°ìĿĢ":9357,"ê²½ìĿĢ":9358,"ê²½ìĺģ":9359,"ĠìĬ¤íĦ´":9360,"ê²©íŀĪ":9361,"ë°ĺê¸°ë¬¸":9362,"ĠíĮĮìĹħìĿĦ":9363,"Ġëħ¸íĬ¸ë¶ģ":9364,"ì°¨ëŁī":9365,"ĠëķĮëĬĶ":9366,"ĠëĺĲëĭ¤ë¥¸":9367,"Ġì°¨ëĵľ":9368,"ë§¤ë§¤":9369,"ĠíĹ¨":9370,"Ġë²ķìķĪìĿĢ":9371,"Ġ95":9372,"ĠìĦ¸ê³ĦìĿĢíĸī":9373,"ë³ĳìĿ´":9374,"ì±ħìĿ´":9375,"Ġì§Ģì§ĢìŀĲëĵ¤ìĿ´":9376,"íĸ¥ìĿĦ":9377,"ìĥīìĿĦ":9378,"ĠíĻĺíĺ¸":9379,"ĠìļĶêµ¬íĸĪëĭ¤ê³ł":9380,"Ġë°ķíĥĪ":9381,"ĠíĨłíģ¬ìĩ¼":9382,"ĠíĻľìķ½":9383,"íķ´ìķ¼ë§Į":9384,"Ġë§ŀëĬĶ":9385,"Ġsp":9386,"itt":9387,"Ġê³³ìĿĢ":9388,"ĠìĥģìĽĲìĿĺìĽĲìĿĦ":9389,"Ġê°Ģì¡±ìĿĺ":9390,"ĠìĽĶìļĶìĿ¼ìĹĲ":9391,"Ġìķķëł¥":9392,"ĠíĶĮëŀĺ":9393,"Ġ1991":9394,"ĠíĻľëıĻìĹĲ":9395,"ĠíĪ¬íĳľìĹĲ":9396,"Ġìŀ¡ìķĦ":9397,"Ġë°©ë²ķìĹĲ":9398,"Ġëĸłìĺ¤":9399,"Ġëĸłìĺ¬":9400,"ĠìľĦíĹĺìĿĦ":9401,"ĠêµŃë°©ìŀ¥ê´Ģ":9402,"ĠìĿ¸íĦ°ëĦ·ìĹĲ":9403,"Ġê±´ë¬¼ìĿ´":9404,"Ġë°ĺêµ°ìĿĺ":9405,"ìī½":9406,"Ġê±°ì£¼íķĺê³ł":9407,"ĠìľĦìĽĲìŀ¥ìĿ´":9408,"Ġë¶Ģë¶ĦìĿĦ":9409,"Ġë¶ĢìłķìłģìĿ¸":9410,"Ġê¸Ģëŀĺ":9411,"Ġê´ĳê³łë¥¼":9412,"Ġìłķê¶ĮìĿ´":9413,"Ġë¯¸ëŀĺìĹĲ":9414,"ĠíĶĦë¡ľìłĿíĬ¸":9415,"Ġì¡°ê±´ìľ¼ë¡ľ":9416,"ì¹´ëĿ½":9417,"ĠìĹ¬ë¡łì¡°ìĤ¬ìĹĲìĦľ":9418,"Ġë¹ħíĨł":9419,"Ġëª¨ìĸĳìĿĺ":9420,"ĠëĦ¤íĬ¸ìĽĮíģ¬":9421,"Ġìĺ¤ìĤ¬ë§Īë¹ĪëĿ¼ëį´":9422,"ĠìķĦë¦Ħëĭ¤ìļ´":9423,"Ġë§¤ì¼ĢìĿ¸ìĿ´":9424,"´ëª¨ëĦ¬ëĿ¼":9425,"Ġë§¤ëĭĪìłĢ":9426,"ĠíİŃê·Ħ":9427,"ĠíĬ¸ëĿ¼ë³¼":9428,"ris":9429,"ĠìŀŃ":9430,"íķĺë¥´":9431,"ìķ¨":9432,"Ġìķµ":9433,"ìĬ¤ì¿ł":9434,"ê¸°ê¸Ī":9435,"ĠëĮĢëĮĢ":9436,"ìĤ¬ìĭ¤":9437,"ë¶Ģëª¨":9438,"ĠìĪĺìĤ¬ê´Ģ":9439,"ëĮĢìĽĲëĵ¤ìĿ´":9440,"ĠìķĦëĵ¤ìĿĦ":9441,"Ġê°Ģì§ľ":9442,"Ġì£¼ê¸°":9443,"Ġê¸°ê³Ħ":9444,"Ġë³´ìĿ´ë©°":9445,"íģ´ëłĪ":9446,"Ġíı°":9447,"íĦ°ìĬ¤":9448,"ëĭĪì½ľ":9449,"Ġë¹ĦíĥĢë¯¼":9450,"ĠìľłëıĦ":9451,"Ġìľłíĸī":9452,"ĠìĿĺë¢°":9453,"Ġì¡°ìłĪ":9454,"ĠìĹ°ê¸Ī":9455,"Ġë§ĪìĤ¬":9456,"ĠìĦłìŀĦ":9457,"ê±°ìĬ¨":9458,"ì²´ë¡ľ":9459,"Ġëĭ¹ìĭł":9460,"Ġë°ĶëĤĺ":9461,"ĠëıĦì²Ń":9462,"ĠìĦ±ìŀ¥ìĿĦ":9463,"Ġìŀ¥ëł¤":9464,"Ġìŀ¥êµ°ìĿĢ":9465,"Ġ41":9466,"ĠíĮĮëĿ¼":9467,"ĠëĤ¨ìĦ±ìĿĦ":9468,"ë¬¼ìĿĢ":9469,"Ġ61":9470,"ì°¨ëĬĶ":9471,"Ġìĭłë¶Ħ":9472,"Ġìĭłê·ľ":9473,"Ġë¶ĪíĻķìĭ¤":9474,"ìŀĳìłĦ":9475,"ì¤ĳíķ´":9476,"ì¹´ëĵľ":9477,"ĠëĤ´ê³ł":9478,"Ġíı¬ìĬ¤íĬ¸":9479,"ëª¨ìĬ¤":9480,"ĠíĶĦëĿ¼":9481,"ĠíĶ¼ì¸ł":9482,"ê¹Įì§ĢëĬĶ":9483,"ĠìļĶìĽĲ":9484,"Ġìķ½íĥĪ":9485,"ëŀĢìĿĦ":9486,"ìĦĿìĹĲ":9487,"ë²łëį°":9488,"Ġ77":9489,"ìĭ¬íķľ":9490,"ĠìĪ¨ìĿĦ":9491,"Ġíĺ¸ìĦ¸":9492,"ëŁ°ìĬ¤":9493,"Ġë³´ëıĦê°Ģ":9494,"íĮĲê²°ìĿĦ":9495,"ĠëıĻìķĪìĿĺ":9496,"ĠìĺģíĻĶë°°ìļ°":9497,"Ġìĸ´ëĳĲ":9498,"ĠìĹ°êµ¬ìĨĮ":9499,"ê»´":9500,"Ġê³ĦìĨįëĲľ":9501,"Ġì§Ģì§Ģíķĺê³ł":9502,"Ġì·¨íķľ":9503,"ë¦ĦìĿ´":9504,"ĠíĨłëĦ¤ìĿ´":9505,"ĠìłĲê²Ģ":9506,"Ġëĵ¤ìĸ´ê°Ħ":9507,"ĠëĤ´ëł¤ì§Ħ":9508,"Ġë³¸ê²©":9509,"Ġì²łìĪĺë¥¼":9510,"ĠíĶĮëĿ¼ìĬ¤íĭ±":9511,"Ġì¹¨ëŀµ":9512,"ì§ĢìĹŃìĿĦ":9513,"ĠìĻķìŀĲëĬĶ":9514,"Ġë¹łì§Ī":9515,"Ġë¯¼ì£¼ëĭ¹ìĿ´":9516,"ĠìĨĮìĭĿìĹĲ":9517,"Ġ1992":9518,"ëĭ¨ì²´ìĿ¸":9519,"ĠDVD":9520,"Ġíĺķìłľ":9521,"ĠëıĦìĭľìĿĺ":9522,"ĠëıĦìĭľìĿ¸":9523,"ash":9524,"ĠìĤ¬ì§ĦìĿ´":9525,"Ġìĸ¸ë¡łìĿĺ":9526,"ĠìĥĿìĤ°ìĿĦ":9527,"ĠíĥĦìĥĿ":9528,"Ġìļ°ë¦¬ìĹĲê²Į":9529,"Ġìļ°ë¦¬ëĤĺëĿ¼":9530,"Ġëį°ìĿ´íĦ°":9531,"ĠìĿĢíĸīìĿĺ":9532,"ĠìĿ¸ì§Īëĵ¤ìĿĦ":9533,"ĠëıĦì°©íķł":9534,"ĠëĤ®ìķĦ":9535,"Ġì§ķíĽĦ":9536,"ĠëĿ¼ìĿ´ìĸ¸":9537,"Ġì§ģìłĳìłģìĿ¸":9538,"ĠëĲĲìľ¼ë©°":9539,"Ġìľłê¶ĮìŀĲëĵ¤ìĿ´":9540,"ĠíĻ©ê¸Ī":9541,"ĠìĥģìĽĲìĿĺìĽĲê³¼":9542,"Ġíĸīìłķë¶ĢìĿĺ":9543,"ĠìĤ¬ê³¼ë¥¼":9544,"ĠëĵľëŁ¬ëĥĪëĭ¤":9545,"íĴĢìĿ´":9546,"ì½ĺëıĮë¦¬ìŀĲ":9547,"Ġì·¨ìĨĮíĸĪëĭ¤":9548,"ĠìłĦíĨµìłģìĿ¸":9549,"Ġìĭłê³łë¥¼":9550,"ĠêµŃë¦½ê³µ":9551,"ìľĦìĽĲìŀ¥ìĿĢ":9552,"ĠìľĪëıĦìļ°":9553,"Ġë¹ĦêµĲìłģ":9554,"Ġì§ĢìĭľíĸĪëĭ¤":9555,"Ġê²ĥìĿ¸ê°Ģ":9556,"Ġíľ©ìĵ¸":9557,"´ëĲĲëĭ¤ê³ł":9558,"Ġê°ĢíĥĿìĹ°ê¸Ī":9559,"ssoci":9560,"ëĶ°ëĿ¼ìĦľ":9561,"ĠëŃĦë°ĶìĿ´":9562,"Ġë¯¸ìĦ±ëħĦ":9563,"58":9564,"800":9565,"ML":9566,"ci":9567,"duc":9568,"gh":9569,"ëĪĪ":9570,"ĠÂłĠÂłĠ":9571,"ĺìĸ´":9572,"Ġë±Ģ":9573,"ë¡ľë¡ľ":9574,"íķ´ì§Ģê³ł":9575,"ëıĦìĥģ":9576,"ìķĦìĿĺ":9577,"Ġêµ³":9578,"ìĸ´ë¦°":9579,"ê·¸ë¡ľ":9580,"Ġë¯¸ìĬ¤":9581,"Ġì£¼ìĸ´":9582,"Ġì£¼ìľł":9583,"Ġê¸°ê¸Ī":9584,"ĠìĭľëĤĺ":9585,"Ġìĭľìŀ¥ìĿĦ":9586,"ì°®":9587,"ëħĦìłĦ":9588,"ê±´ë¬¼":9589,"ì¹ĺìĻĢ":9590,"Ġë°ľíĸī":9591,"Ġë¶ĢíĻľ":9592,"Ġê´Ģë£Į":9593,"íĸīìľĦë¥¼":9594,"ĠìľłìĿ¸":9595,"ĠìĹ¬ì§Ģê°Ģ":9596,"ĠìĿĺë¬¸":9597,"ìĨĮë¹Ħ":9598,"ëĲĺê±°ëĤĺ":9599,"ĠëĤĺìĦł":9600,"ĠíķĺìŀĲ":9601,"ì¡°ìĦł":9602,"Ġë§ĪëıĪ":9603,"ìĽĶìĹĲëĬĶ":9604,"ĠëıĻê³Ħ":9605,"ì¦ī":9606,"Ġê°ľë¥¼":9607,"Ġëĭ¹ìĤ¬":9608,"Ġëĭ¹ìĭłìĿĺ":9609,"ĠìķĮì§Ģ":9610,"ĠìĦ¸íĥģ":9611,"ĠëĤ¨ìŀĲëĬĶ":9612,"ĠëĤ¨ê·¹":9613,"Ġ5000":9614,"íĮĮìļ¸":9615,"Ġë§¤ìĤ¬ì¶ĶìĦ¸ì¸ł":9616,"Ġìŀ¬ë²Į":9617,"ĠìĦľìŀ¥ìĿĢ":9618,"íİ¸ìĿĺ":9619,"ìŀħìĸ´":9620,"Ġì§ĦìłĦ":9621,"ĠêµĲìĦŃ":9622,"Ġìķ½íĻĶ":9623,"ĠìĽĲíķĺê³ł":9624,"Ġëį°ëł¤":9625,"Ġtal":9626,"Ġëª©ìĤ¬ëĬĶ":9627,"Ġë¦¬ìĺ¤":9628,"Ġê²½ìłľìĿĺ":9629,"ìĬ¬ë¦¬":9630,"ĠìĥĿê°ģíķĺì§Ģ":9631,"Ġíķ¨ìľł":9632,"ĠìķĦìĿ´ëĵ¤ìĿĺ":9633,"Ġê²½ê¸°ì¹¨":9634,"ê°ķìłĦìĹĲìĦľ":9635,"Ġì»µ":9636,"ìĥīìĿĺ":9637,"Ġìµľê·¼ìĹĲ":9638,"ìºĲëĤĺëĭ¤":9639,"ates":9640,"ĠìķĬìķĺìľ¼ëĤĺ":9641,"ĠìķĦëĭĪì§Ģë§Į":9642,"ĠëĮĢíĳľê°Ģ":9643,"Ġì¤Ģê²°ìĬ¹":9644,"Ġì²łêµ°":9645,"Ġ160":9646,"ĠíĮ¨ëĦĲ":9647,"Ġë°©ìĨ¡ìĹĲ":9648,"ilit":9649,"ĠìĦłìĪĺë¡ľ":9650,"ê²ĢìĤ¬":9651,"ĠíıīíĻĶìľłì§Ģ":9652,"ĠêµŃë°©ë¶ĢëĬĶ":9653,"Ġíŀĺìŀħìĸ´":9654,"Ġìĺ¬ë¦¼íĶ½ìĿĦ":9655,"ĠHe":9656,"Ġìĭ¶ì§Ģ":9657,"Ġë°Ľìķĺëįĺ":9658,"Ġìļ©ìĿĺìŀĲë¡ľ":9659,"ĠìľłëªħìĿ¸":9660,"Ġê³łìľĦê´Ģ":9661,"Ġê²½ìŁģìĿĦ":9662,"ĠìĻĢìĿ¸íķĺìļ°":9663,"Ġë¶ģë¶ĢìĹĲ":9664,"Ġìŀ¬íĮĲìĿ´":9665,"ĠíĸīëıĻìĹĲ":9666,"ĠCNNìĿĺ":9667,"Ġë°±ìķħê´ĢìĹĲìĦľ":9668,"Ġê·ĢíĻĺ":9669,"Ġê°ľìĿ¸ìłģìĿ¸":9670,"Ġì¶ĶìłķëĲľëĭ¤":9671,"ĠíĮ¬ëĵ¤ìĿ´":9672,"ĠìĦłê³łíĸĪëĭ¤":9673,"ĠìºłíİĺìĿ¸":9674,"Ġë³´ê³łìĦľìĹĲëĶ°ë¥´ë©´":9675,"ĠëĮĢìĦłíĽĦë³´ë¡ľ":9676,"íĬ¸ë¡ľìĿ´íĬ¸":9677,"own":9678,"ĠíĴįë¶Ģ":9679,"Ġgovernment":9680,"ìľłìĹĶìĿĢ":9681,"ĠìłĦë°ĺìłģìĿ¸":9682,"Ġê·¸ëłĩì§Ģ":9683,"Ġëħ¼ìŁģìĿ´":9684,"ĠêµĲëıĦìĨĮìĹĲ":9685,"Ġë¬´ìĹĩë³´ëĭ¤":9686,"ĠìĦłíı¬íĸĪëĭ¤":9687,"ìĥģíĥľìĹĲ":9688,"ĠíĮĮê´´ëĲĺ":9689,"Ġëħ¸ëŀĺë¥¼":9690,"ĠìĹĲëĵľìĽĮì¦Ī":9691,"Ġë¶ĦìľĦê¸°ë¥¼":9692,"ĠìĽĲìŀĲë¡ľë¥¼":9693,"Ġìłģê·¹ìłģìľ¼ë¡ľ":9694,"íĺĲìĿĺë¡ľ":9695,"íĨ¨ë¦Ń":9696,"Ġì¹ĺëªħìłģìĿ¸":9697,"300":9698,"FL":9699,"FRB":9700,"eop":9701,"ov":9702,"¤¾":9703,"§Ī":9704,"¹ìĬ¤":9705,"Â·":9706,"ç¤¾":9707,"ĶìĿĦ":9708,"Ġëľ¨":9709,"ìĹĳ":9710,"Ġë°¥":9711,"ìĬ¤ìľĦìĬ¤":9712,"ëĿ¼ëĵľ":9713,"ĠëĮĢë¡ľ":9714,"ĠëĮĢì±ħìĿĦ":9715,"ìŀĲê¸ĪìĿĦ":9716,"ìĤ¬ëł¹":9717,"ìĭľë¡ľ":9718,"ĠìĿ´ê²ĥìĿĢ":9719,"ĠìĿ´ìĬĪ":9720,"ìĿ¼ìĹĲëĬĶ":9721,"ìķĦê°Ģ":9722,"ê²ĮìŀĦ":9723,"ê·¸ë¦¬ìĬ¤":9724,"ì£¼ëħĦìĿĦ":9725,"Ġê°Ģê³ł":9726,"ìĪĺê°Ĳ":9727,"Ġìłķë¦¬":9728,"Ġìłķê±°":9729,"Ġê·¸ê²ĥ":9730,"Ġë³´ê¸ī":9731,"ĠìŀĲëŀĳìĬ¤":9732,"Ġë°ľë§¤":9733,"íĨµìĭłìĿ´":9734,"Ġë¶ĢëŁ¬":9735,"Ġë¶Ģìľł":9736,"ĠìĿ¼íķĺê³ł":9737,"ëĭĪíĭ°":9738,"ëĵ¤ìĿ´ëĭ¤":9739,"ê´ĢìĿ¸":9740,"Ġê²ĥìĿ´ê¸°":9741,"ĠìĨĮìľĦ":9742,"Ġìľłê°Ģ":9743,"ĠìĿĺëıĦ":9744,"Ġìĥģì²ĺë¥¼":9745,"ëĲĺê¸¸":9746,"Ġë¯¸êµŃì¸¡":9747,"ë°Ķìĺ¤":9748,"ìľłìĿĺ":9749,"Ġëª¨ìĿĺ":9750,"íĺĦëĮĢ":9751,"ĠëĮĢíĨµëł¹ìľ¼ë¡ľ":9752,"ì²´ëĬĶ":9753,"ìķĺì§Ģë§Į":9754,"ĠìĬ¤ì¹´":9755,"Ġëĭ¹íĸĪëĭ¤ê³ł":9756,"Ġë°Ķíĥķ":9757,"íĮĮê°Ģ":9758,"Ġìĭ¤íĺĦ":9759,"Ġë°ĺê¸°ë¬¸":9760,"Ġê°ĲìĤ¬ìĿĺ":9761,"Ġê°ĲìłķìĿĦ":9762,"íĭ°ìĭľ":9763,"Ġíı¬íĦ°":9764,"Ġì°¨ìĿ´ë¡ľ":9765,"ë²ķìĿ´":9766,"Ġë§¤ì¶ľ":9767,"ĠìĽĲìĿ¸":9768,"ĠìĽĲì¹ĺ":9769,"Ġ1960":9770,"Ġê²½ì°°ì²Ń":9771,"ë¥´ëª¬":9772,"ĠíĸīìĤ¬ìĹĲ":9773,"ĠíĪ¬ìŀĲë¥¼":9774,"Ġë²ķìĽĲìĹĲìĦľ":9775,"ì¢ħìĿĦ":9776,"Ġë¬¼ê³ł":9777,"Ġëī´ìĺ¬ë¦¬ìĸ¸":9778,"ĠìĿ¼ë³¸ìĿ¸":9779,"ĠìĹŃìŀĦ":9780,"ĠìĹ°êµ¬ìĨĮìĿĺ":9781,"ĠìĹ´ìĭ¬":9782,"Ġì¡°ìĤ¬íķł":9783,"ĠëıĮê³łëŀĺ":9784,"Ġì½Ķì¹´":9785,"ëĿ¼ìĿ´ë¸Į":9786,"Ġì§Ģì§ĢìŀĲ":9787,"íĪ¬ìŀĲ":9788,"Ġì¡´ìĬ¨":9789,"Ġê¹ĥ":9790,"ĠìĭľìľĦëĬĶ":9791,"Ġê²ĮìĿ´":9792,"ĠíķĦìļĶë¡ľ":9793,"ĠíİĺìĿ´ìĬ¤":9794,"ĠíİĺìĿ´ì§Ģ":9795,"Ġíİĺë¥´ëĤľ":9796,"Ġëĵ¤ìĸ´ê°Ī":9797,"ĠìķĦëĭĪëĿ¼ëĬĶ":9798,"Ġë³¸íĨł":9799,"Ġì¤ĢìĪĺ":9800,"ĠìĨĲëĭĺ":9801,"ĠìĻĦìĦ±":9802,"Ġë²ĪìĿĺ":9803,"Ġìĸ»ê²Į":9804,"Ġê³µê°ľëĲĲëĭ¤":9805,"ĠìľĦì¹ĺíķĺê³ł":9806,"ĠìľłëŁ½ìĹĲìĦľ":9807,"ĠìĿ´ìļ©íķľ":9808,"ĠíĻĪíİĺìĿ´ì§Ģ":9809,"ĠíĸĪê³ł":9810,"Ġab":9811,"ëı¼ìķ¼":9812,"Ġìĸ¸ê¸īíķĺë©°":9813,"ĠìĦłìĪĺëĵ¤ìĿ´":9814,"Ġê¸Īìľµìłľìŀ¬":9815,"Ġì£½ìĿĮìĿĦ":9816,"ĠíıīíĻĶìĻĢ":9817,"ĠìľĦíĺĳíķĺê³ł":9818,"Ġë³´íĺ¸ë¥¼":9819,"ĠìºĲë¡¤":9820,"Ġê³łìľĦê¸ī":9821,"ust":9822,"ĠíĮĢìĿĺ":9823,"ĠíĮĢìĿĦ":9824,"Ġì§Ģêµ¬ìĹĲ":9825,"ìĿ¼ë³¸ìĿĺ":9826,"ê³¨ë¡ľ":9827,"ĠìłĦë§ĿíĸĪëĭ¤":9828,"Ġê¸°ìĨĮëĲĲëĭ¤":9829,"ĠëĶ¸ìĿ´":9830,"ĠìķĦë²Ħì§Ģê°Ģ":9831,"Ġê·¸ëħĢë¥¼":9832,"ìĻĶìĬµëĭĪëĭ¤":9833,"ĠìĪĺíĸīíķł":9834,"ìĿ´ë¡ľìį¨":9835,"ĠìħĶ":9836,"Ġìłľìĭľíķľ":9837,"ĠíĻķìĤ°ëĲĺê³ł":9838,"Ġê³łëł¤íķĺê³ł":9839,"Ġìī½ì§Ģ":9840,"Ġê³¤ìŀĺëłĪìĬ¤":9841,"ĠìŀĲëħĢë¥¼":9842,"ìł¤ëłĪìĬ¤":9843,"Ġì¢ĢëįĶ":9844,"ĠìĭłìĨįíŀĪ":9845,"ĠìĤ´íķ´ëĲľ":9846,"ĠìĭľìĥģìĭĿìĹĲìĦľ":9847,"Ġvis":9848,"ĠìľłëĤĺìĿ´íĭ°ëĵľ":9849,"ëĭ¤ìĿ´ìķłëĤĺ":9850,"Ġìłģíķ©íķľ":9851,"íĭ°ìĺ¤íĶ¼ìķĦ":9852,"?âĢĿ":9853,"National":9854,"NEW":9855,"PGA":9856,"ach":9857,"Ġun":9858,"Ġë®":9859,"ê³łëĵł":9860,"ìĿĺë£Į":9861,"ë¥ľ":9862,"ì§Ģëĭ¤":9863,"ìĬ¤ë¯¸":9864,"ĠìĤ¬ìĦ¤":9865,"ëĲ¨":9866,"ĠìĪĺì¹ĺëĬĶ":9867,"ĠìłĦë²Ķ":9868,"ëĵľíı°":9869,"ĠìķĦë¹ł":9870,"ĠìķĦíħĮëĦ¤":9871,"Ġíķ¸":9872,"ĠìĿ´ë°":9873,"Ġê¸°ì°¨":9874,"ĠìĭľëĵľìĿĺ":9875,"Ġìłķì§Ģ":9876,"íļĮìĤ¬ëĬĶ":9877,"Ġëĭ¤ëĭĪëĬĶ":9878,"Ġëĭ¤ì³¤ëĭ¤":9879,"Ġëĭ¤ìľĪ":9880,"Ġìľłê¸°":9881,"ĠìľłìĤ¬":9882,"ĠìľłìĿ¼íķĺê²Į":9883,"ĠìĿĺìŀ¥ìĿ´":9884,"ë¥´ê°Ģ":9885,"ĠìĥģíķĺìĿ´":9886,"ìĨĮìĭĿ":9887,"ìĨĮë°©":9888,"ìĨĮë§Ĳë¦¬ìķĦ":9889,"Ġì¡°ìĤ¬ëĬĶ":9890,"ì§ĦìĿĺ":9891,"ëĶ¸":9892,"ë°ĶìĹĲ":9893,"Ġìłľìķķ":9894,"ĠëĤĺìĦ¤":9895,"ìĦ¸íĬ¸":9896,"Ġë§Īì¼Ģ":9897,"ĠìĦłìłĦ":9898,"ĠìµľìĦłìĿĦ":9899,"ìĺ¤ê°Ģ":9900,"ìķĺìĿĦ":9901,"ìķĺìĬµëĭĪëĭ¤":9902,"ìĹ¬ê¸°":9903,"Ġë°©ìľĦ":9904,"Ġëĭ¹ìĭłìĿĢ":9905,"ĠìķĮë¦¬ëĬĶ":9906,"ĠìĥĿë°©ìĨ¡":9907,"ĠìĤ´ëª¨ëĦ¬ëĿ¼":9908,"ĠíļĮê³Ħ":9909,"ĠíĨµìĿ¼ë¶Ģ":9910,"Ġ66":9911,"Ġë¶ģìĦľ":9912,"íķĻê³¼":9913,"ë¶Ħìķ¼":9914,"ë¶Ħê»ĺ":9915,"ì¹´ëĬĶ":9916,"ìĹ°ìĿĦ":9917,"íĭ°ë²łíĬ¸":9918,"Ġíı¬ëĵľ":9919,"ë²ķìĹĲ":9920,"Ġë§¤ë¨¸":9921,"Ġì§Ħìĭ¤":9922,"ĠìĽĲìĿ¸ìĿĢ":9923,"Ġì§ĢìĹŃìĿ¸":9924,"±ħíģ¬":9925,"ìĨ¡ìĻĦ":9926,"ĠíĻĶíķ©":9927,"Ġëĸ¼":9928,"ë©ĶìĿ´ìħĺ":9929,"ĠìĤ°ë§¥":9930,"íİĺìĿ¼ë¦°":9931,"Ġíı¬íķ¨íķĺìĹ¬":9932,"ĠìķĦìĿ´ëĵ¤ìĿĢ":9933,"ë§ĲëłĪìĿ´ìĭľìķĦ":9934,"Ġê²°ìłķíĸĪëĭ¤ê³ł":9935,"ĠìļĶêµ¬íķĺë©°":9936,"ìļķìĿĦ":9937,"ĠíĥĪëĿ½":9938,"ĠíĥĪë¶ģ":9939,"ĠíĹĪì»¤":9940,"ĠëĵľëĬĶ":9941,"Ġì±Ħì·¨":9942,"íĶĮë¡ľë¦¬ëĭ¤":9943,"oul":9944,"Ġíķ©ìĿĺìĹĲ":9945,"ĠìĭĿë¯¼":9946,"ĠìĤ¬ê³łëĬĶ":9947,"ĠìŀĪìĹĪìĬµëĭĪëĭ¤":9948,"Ġì¼ĢìĿ´íĬ¸":9949,"Ġì¤ĳëĭ¨íĸĪëĭ¤":9950,"Ġë§īëĮĢíķľ":9951,"ĠíĻľëıĻìĿ´":9952,"Ġë°Ģëł¤":9953,"ìĿ´ëĿ¼íģ¬ëĬĶ":9954,"Ġìŀ¡íĺĢ":9955,"ĠìķĦíĶĦê°ĦìĹĲìĦľ":9956,"ĠëĸłëĤł":9957,"Ġì½ľë¦°":9958,"ĠìĿĺìĽĲëĵ¤ìĿ´":9959,"Ġê±´ë¬¼ìĿĦ":9960,"Ġì¶ľìĹ°íĸĪëĭ¤":9961,"ìĿ¼ë³¸ìĿĢ":9962,"Ġë§ĪìĿĦìĿĦ":9963,"Ġë©´ëĭ´":9964,"ë¨¼ìĿĢ":9965,"ë¨¼íĬ¸":9966,"Ġë¹Ħìļ©ìĿĢ":9967,"ĠëĶ¸ìĿĦ":9968,"Ġë¨¹ëĬĶ":9969,"Ġíĩ´ìĽĲ":9970,"ìŀĲëĵ¤ë¡ľë¶ĢíĦ°":9971,"ĠëķĮë¬¸ìĿ´ëĿ¼ê³ł":9972,"Ġë¶ĦìĦĿíĸĪëĭ¤":9973,"Ġì¦Ĳê¸¸":9974,"APìĿĺ":9975,"ĠìķĦíĶĦê°ĢëĭĪìĬ¤íĥĦìĹĲìĦľ":9976,"Ġìłľì¶ľíķľ":9977,"Ġë§ĿìĽĲ":9978,"Ġë¶ĻìĹ¬":9979,"ute":9980,"ĠíĹĮë²ķìŀ¬íĮĲ":9981,"ìĿ´ì¦Īë¯¸":9982,"Ġíļ¨ê³¼ë¥¼":9983,"Ġìıĺ":9984,"ĠíıŃëł¥ìĤ¬íĥľê°Ģ":9985,"Ġëª¨ë¥¸ëĭ¤ê³ł":9986,"Ġëĭ¤ìļ°ì¡´ìĬ¤":9987,"Ġëª©ìĨĮë¦¬ë¥¼":9988,"ĠìłķìĥģíļĮëĭ´ìĿĦ":9989,"ĠëģĬìŀĦ":9990,"Ġíİłë¡ľìĭľ":9991,"ĠëĮĦ":9992,"íķĺë§Īëĵľ":9993,"Ġë¸Įë¦¬íķĳ":9994,"ëĸ¼":9995,"Ġê´´íķľ":9996,"ĠìŀĲë¦¬ìŀ¡":9997,"Ġìľłëł¥íķľ":9998,"Korea":9999,"ĠìŀĲìĽĲë´īìĤ¬":10000,"ê·¸ëħĢìĿĺ":10001,"Ġê·¸ë£¨ì§Ģ":10002,"ĠíĶĦë¦¬ë¯¸ìĸ´ë¦¬ê·¸":10003,"ìĨ¡ìĻĦìĺģ":10004,"PEC":10005,"man":10006,"ton":10007,"ãģ":10008,"Ġë»":10009,"ê³łê°Ģ":10010,"íķľê¸Ģëī´ìĬ¤":10011,"ìķĬ":10012,"Ġê²ģ":10013,"ë¦¬ì½Ķ":10014,"ë¦¬ë¸Į":10015,"ëĵ¤ìĿ¸":10016,"ëĿ¼íı¬":10017,"êµŃìĺģ":10018,"ĠìĤ¬ìłĪ":10019,"ìķĦìĸĦ":10020,"ĠìĪĺíķĺ":10021,"ĠìłĦíķĺê³ł":10022,"ëĮĢìĭł":10023,"ĠíķĢ":10024,"íĬ¸ë§¨":10025,"Ġê°Ģì£½":10026,"Ġê°ĢëģĶ":10027,"ë§ĮëħĦ":10028,"ìĪĺì¹ĺ":10029,"ĠìłķìłĦ":10030,"Ġì¤ĳìĿ´ëįĺ":10031,"ëħĦìľ¼ë¡ľ":10032,"Ġë³´ìŀħëĭĪëĭ¤":10033,"ìĦ±ìĹĲìĦľ":10034,"ìĦ±ê·¼":10035,"íĨµìĿ´":10036,"Ġë¶ĢìĤ°":10037,"Ġê³µìĽĲ":10038,"ĠìĿ¼ì¹ĺ":10039,"Ġì¶¤":10040,"Ġì²©":10041,"ĠìľłíĨµ":10042,"ĠìĹ¬ê¶Į":10043,"ĠìĹ¬ìĦ¯":10044,"ìĦ¸íĶĦ":10045,"ìľłë¥¼":10046,"íĥĢëĭ¤":10047,"ìĹĲê²ĮëıĦ":10048,"ëĭ¨ê³Ħ":10049,"ĠìĬ¤íĨł":10050,"ê°ľë¡ľ":10051,"Ġê°ľíİ¸":10052,"Ġëĭ¹íķ´":10053,"ĠìĦ¸ëł¥ìĿĦ":10054,"ĠëıĦëĤľ":10055,"Ġì´ĿìĥģìĿĦ":10056,"Ġë¬´ìŀĲ":10057,"Ġë¬´ê³łíķľ":10058,"ĠíĨµìĥģ":10059,"Ġ69":10060,"ëĶĶìĿĺ":10061,"Ġë°ĺëıĦ":10062,"ĠëĤ´ì§Ģ":10063,"ĠëĤ´ìłĦ":10064,"Ġë§¤ë§¤":10065,"ĠìĦľìĦľ":10066,"ĠìĦľìĭłìĿĦ":10067,"ì¡Įì§Ģë§Į":10068,"ĠíĺĦìŀ¥":10069,"ë²Ħëĵľ":10070,"Ġì½°":10071,"ë²łì»´":10072,"ê°Ĳìĭľ":10073,"Ġêµ°ëĮĢ":10074,"ìĸ´ëĦ":10075,"ĠëĲĺíĴĢìĿ´":10076,"ìĬ¹íĿ¬":10077,"ĠíĪ¬ë¥´":10078,"ĠìĦ¤ë¬¸":10079,"Ġìĭ¬ë¬¸":10080,"Ġëıħê°Ĳ":10081,"ĠêµŃê°ĢìĹĲ":10082,"Ġìĭľìŀĳìľ¼ë¡ľ":10083,"ĠìłĢëł´":10084,"Ġì§ģìĽĲëĵ¤ìĿ´":10085,"ĠëłĪìĺ¤":10086,"Ġë³´ê³łë¥¼":10087,"Ġê²½ê¸°ìŀ¥":10088,"ĠíĻĺìŀĲê°Ģ":10089,"ëĤłëĵľ":10090,"ĠëĨĴëĭ¤ê³ł":10091,"Ġê°Ħë¶Ģ":10092,"Ġê°Ħëĭ¨íķľ":10093,"ĠíĹĪê°Ģë¥¼":10094,"ëŀľëĵľëĬĶ":10095,"íļĮìĿĺìĹĲ":10096,"ĠëĤĺíĥĢëĤ¬":10097,"ĠìĥģíĻ©ìĿ´ëĭ¤":10098,"ĠíĻķìĿ¸íķĺê¸°":10099,"ĠíĻķìĿ¸ëĲĲëĭ¤":10100,"Ġê¶Įë¦¬ê°Ģ":10101,"ì§ĢìĹŃìĿĺ":10102,"ĠëĦĺê²¨":10103,"Ġ140":10104,"Ġcl":10105,"Ġìĭ¤ìĭľíĸĪëĭ¤":10106,"ĠíħĮëĦ¤":10107,"ĠìķĶíĺ¸":10108,"ĠíĺķìĤ¬":10109,"ĠìĤ¬ì§ĦìĿĢ":10110,"ĠëĨįìĹħ":10111,"Ġì°¸ìĦĿíķĺì§Ģ":10112,"ìĤ¬íĥľë¡ľ":10113,"ĠíıīíĻĶìłģ":10114,"Ġìĵ°ëĬĶ":10115,"ë°ĽëĬĶ":10116,"Ġì¤Ģë¹Ħíķĺê³ł":10117,"ĠìĿ´ë¦Ħìľ¼ë¡ľ":10118,"ING":10119,"ĠìŀĲìľłë¡Ńê²Į":10120,"Ġê¸°ìĹħìĿĺ":10121,"ĠìķŀìĦľê³ł":10122,"ĠCNNíķľê¸Ģëī´ìĬ¤":10123,"ëł¸ìľ¼ë©°":10124,"Ġëª¸ìĹĲ":10125,"Ġë§¤ì¼ĢìĿ¸ìĿĺ":10126,"Ġíİ¼ì¹ľ":10127,"ĠíļĮìĿĺìĹĲ":10128,"ê²¼ëĭ¤ê³ł":10129,"ì¿¨":10130,"Ġnot":10131,"ĠìĿ´ë¤Ħì¡Įëĭ¤":10132,"ĠëĤ¨íİ¸ìĿ¸":10133,"Ġìĸµìłľ":10134,"Ġdis":10135,"Ġê´Ģê´ĳê°Ŀëĵ¤ìĿ´":10136,"Ġëįĺì§Ħ":10137,"Ġêµ¬íĺ¸ë¥¼":10138,"ĠìłĦíķ´ì¡Įëĭ¤":10139,"ĠíķľëĤĺëĿ¼ëĭ¹ìĿĺ":10140,"ìĦłê±°ìĹĲìĦľ":10141,"FARC":10142,"Ġìĭ¤íĹĺìĿĦ":10143,"Ġì¡°ê±´ìĿĦ":10144,"ĠìĺĪì¸¡íĸĪëĭ¤":10145,"Ġë³´ëĥĪëĭ¤ê³ł":10146,"ĠìĿ¼ìŀĲë¦¬":10147,"ĠëĬĲëĤĮ":10148,"Ġê·¼ë¡ľìŀĲ":10149,"ĠíĺķíĥľìĿĺ":10150,"ĠìĿ¼ìĸ´ëĤ¬ëĭ¤":10151,"ìĵ°ê³ł":10152,"Ġëī´ëį¸":10153,"Ġë¨¸ë¦¬ì¹´ëĿ½":10154,"íģ´ëĿ¼íĺ¸":10155,"ĠëĤ´ëł¸ëĭ¤ê³ł":10156,"Ġë©Īì¶Ķ":10157,"Ġì¡°ì§ĢìķĦì£¼":10158,"Ġë¶ĪëĬ¥íĻĶ":10159,"ĠíİĺëįĶëŁ¬":10160,"Ġíģ¬ëĿ¼ìĿ´ìĬ¬ëŁ¬":10161,"ĠìķłëĭĪë©ĶìĿ´ìħĺ":10162,"Ġê°Ģë²¼ìļ´":10163,"34":10164,"380":10165,"ade":10166,"ê½":10167,"ì©":10168,"Ġare":10169,"ë¡ľìļ°":10170,"ì§Ģëħ¸":10171,"ìĦľì¹ĺ":10172,"´ë£¨":10173,"ë¦¬ìĸ´":10174,"ìĿ¸ìĹĲê²Į":10175,"ëĿ¼ë¦¬":10176,"ëĿ¼ìĻĢ":10177,"ìľ¼ëł¤ê³ł":10178,"ĠëĮĢíļĮë¥¼":10179,"ìĭľë¦¬ìķĦ":10180,"ĠìľĶë¸Ķëįĺ":10181,"ë¶Ģìĥģ":10182,"ë¶Ģë¥´íģ¬":10183,"Ġì§Ģê³ł":10184,"ìķĦë¥¼":10185,"ê³¼ê±°":10186,"ĠìĪĺìĹħ":10187,"ëĤĺìĹĲ":10188,"ìłķë§Ĳ":10189,"ê²ĮëıĦ":10190,"ì£¼ìļĶ":10191,"ĠìķĦëĭ":10192,"ĠìķĦìĭľ":10193,"ĠìķĦë¥´ë":10194,"ĠìķĦë©Ķë¦¬ì¹¸":10195,"Ġê¸°ë¶ĦìĿ´":10196,"Ġê·¸ë§Į":10197,"Ġë¶Ĳ":10198,"Ġì¤ĳìĿ´ìĹĪëĭ¤":10199,"Ġê³µë£¡":10200,"ĠìĿ¼ëł¨ìĿĺ":10201,"ëĭĪìĸ¸":10202,"ëł¹ìĿ´":10203,"ĠìĨĮë¦¬ë¥¼":10204,"ĠêµŃíĨł":10205,"Ġìĺ¤ë§Ī":10206,"ë¹Ħì¹ĺëĬĶ":10207,"Ġìłľìķ½":10208,"ĠìĹ°ê°Ħ":10209,"ĠìĹ°ë¡Ģ":10210,"ëłĪëĵľ":10211,"ĠíķĺìĹ¬":10212,"ĠíķĺëĤĺëĬĶ":10213,"ê±°ë¥¼":10214,"íİĢ":10215,"ìķĺê³ł":10216,"ëĭ¨ê³¼":10217,"Ġë°©ê¸ĢëĿ¼ëį°ìĭľ":10218,"Ġíķ´ìĨĮ":10219,"ĠíļĮëıĻ":10220,"Ġë¬´ìĬ¨":10221,"Ġë¶ĪìĿ´":10222,"ì¹´ë¥¼":10223,"ĠìĹĲìĬ¤":10224,"ĠëĤ´ë¦¬ëĬĶ":10225,"2004":10226,"Ġê°ķìłľë¡ľ":10227,"íĭ°ìĹĲ":10228,"ĠíıŃìĬ¤":10229,"ì¡ĮìĿĦ":10230,"ĠìķĪìľ¼ë¡ľ":10231,"Ġì§Ħì§Ģ":10232,"ĠìĽĲëŀĺ":10233,"ĠìĽĲìŀĲëł¥":10234,"ë²łëĦ¤":10235,"Ġì§ĢìĹŃìĿ´":10236,"Ġíĺ¸ëĤłëĳĲ":10237,"ëŁīìĿĢ":10238,"Ġë²ķìķĪìĹĲ":10239,"ĠíĮĲëĭ¤":10240,"ĠêµŃê°ĢìĹĲìĦľ":10241,"ĠìĹŃìĤ¬ë¥¼":10242,"ĠìĹ°êµ¬ê°Ģ":10243,"ĠìŀĦëĮĢ":10244,"Ġì»¬":10245,"Ġë°ķìĤ¬":10246,"ìĺĪë¹Ħ":10247,"Ġë°©ë¬¸íķ´":10248,"ĠíĻľë°ľ":10249,"ì£¼ìĿĺë¥¼":10250,"ë°±ìķħê´ĢìĿĢ":10251,"Ġì¢ħìĭĿ":10252,"ìĭľíĤ¤ë©°":10253,"ĠìĪĺëıĦìĿ¸":10254,"ĠíĹĪëĵľ":10255,"ĠíĦ±":10256,"ĠëĮĢíĳľëĭ¨ìĿĢ":10257,"ĠêµŃë¯¼ìĿĺ":10258,"ìķĮëĿ¼":10259,"ĠíĦ°ëĦĲ":10260,"Ġê²½ë§¤ìĹĲ":10261,"ì³¤ìľ¼ë©°":10262,"ĠëıĮìķĦìĻĢ":10263,"ĠìķĶìĭľ":10264,"Ġìłľê³µíķľ":10265,"Ġíĸ¥íķĺëĬĶ":10266,"ĠíĥĦëıĦ":10267,"íĬ¼ìĿĺ":10268,"ëħĲìĿĦ":10269,"ĠíĥĢìŀĦìĬ¤":10270,"ë¯¼ì£¼ëĭ¹ìĿĺ":10271,"Ġë³´ëĤ´ê³ł":10272,"ecret":10273,"ì°¨ë¡ĢìĹĲ":10274,"Ġë¿ĲìĿ´ëĭ¤":10275,"Ġì¶ľìłĦíķł":10276,"ĠìķĮì¹´ìĹĲëĭ¤ìĿĺ":10277,"íĺģëªħ":10278,"ĠëĤ¨ìķĦìŀĪëĬĶ":10279,"ĠìĿ´ë£¨ìĸ´ì§Ħ":10280,"ĠìĿ´ë¤Ħì§Ħ":10281,"Ġ1989":10282,"Ġìłľì¶ľíĸĪëĭ¤":10283,"Ġë¶Īê°Ģë¦¬ìķĦ":10284,"ĠìĤ´ìķĦëĤ¨":10285,"Ġëı¼ì§Ģ":10286,"ìĸ´ëĤ¬ëĭ¤":10287,"ĠìĥĮëĶĶìĹĲìĿ´ê³ł":10288,"ĠìłĦìĹŃìĹĲìĦľ":10289,"ĠëĨĴìķĦì§Ģê³ł":10290,"Ġê²ĢíĨłíķĺê³ł":10291,"ĠìĤ¬ìĿ´íĬ¸ë¥¼":10292,"Ġì°įìĿĢ":10293,"Ġë¬»ëĬĶ":10294,"ĠëĬĲëģ¼ëĬĶ":10295,"íĶĦëĿ¼ìŀĦ":10296,"Ġì¹´ë©ĶëĿ¼ë¥¼":10297,"Ġë²½ëıĮ":10298,"ë¸Įë¦¬ëĵľ":10299,"ĠìĿ´ìĿµìĿĦ":10300,"ĠíıŃìļ°ë¡ľ":10301,"Ġíķ´ìĪĺë©´":10302,"Ġìķ¤ëĵľë¥ĺ":10303,"ĠìĬ¤íģ¬ë¦°":10304,"ĠíĶĮë£¨íĨłëĬĦ":10305,"ì¢ĭìĿĢ":10306,"ĠíĻĶëł¤íķľ":10307,"3000":10308,"FC":10309,"PS":10310,"South":10311,"ix":10312,"Ġj":10313,"ĻëĭĪëĭ¤":10314,"íķ´ë":10315,"íķ´ê°Ģ":10316,"ëĤ´ë¬":10317,"ìĤ¬íķŃìĿĦ":10318,"ìĭľì¦Į":10319,"ĠìĿ´ê¸Ģ":10320,"ë¬µ":10321,"ë¬´ëĮĢ":10322,"ĠìŀĪìĿĢ":10323,"ê·¸ëĵ¤ìĿĺ":10324,"ì£¼ë¦¬":10325,"ì£¼ìłĦ":10326,"Ġë¯¸ìĭľê°Ħ":10327,"ĠìķĦëĿ¼ë¹ĦìķĦ":10328,"Ġê¸°ìĪĻ":10329,"Ġê²½ìĦłìĿĦ":10330,"Ġìłķíķľ":10331,"Ġìłķë³´ë¶Ģ":10332,"Ġë³´ì¡´":10333,"ĠìĿ¸ìĤ¬ë¥¼":10334,"ìłĦëŀµ":10335,"ĠìŀĲíĸī":10336,"ë¬¸íĻĶ":10337,"Ġë°ľë°ľ":10338,"Ġë¶Ģê²Ģ":10339,"Ġê³µíĮĲ":10340,"ĠíĮ½":10341,"ë¯¸êµ°ìĿ´":10342,"íĸīìĿ´":10343,"Ġìľłìłģ":10344,"Ġì¡°ìĭ¬":10345,"íĥĢìĹĲìĦľ":10346,"ĠëıĻì°¸":10347,"ëł¥ìĿĢ":10348,"ìĹĲê²ĮìĦľ":10349,"íĤ¤ë¡ľ":10350,"ê²½ê¸°ìĹĲ":10351,"ê³µê¸ī":10352,"ĠìķĮëĿ¼":10353,"Ġê²°ìĭ¬":10354,"ĠíĮĮíģ¬":10355,"ĠíĮĮíĮĮëĿ¼":10356,"Ġë¬´ìĬ¹":10357,"íı¬íĬ¸":10358,"Ġ62":10359,"ìĹ°ìĦ¤":10360,"ĠìĹĲì½°ëıĦë¥´":10361,"Ġë§ĮëĤ¬":10362,"ĠëĤ´ëĭ¤":10363,"ì§ģíķľ":10364,"ê¶ĮìĦ±ê·¼":10365,"ìŀħìĿĦ":10366,"ĠêµĲìĤ¬":10367,"ĠêµĲìĻ¸":10368,"ëĦ¤íĮĶ":10369,"ë²łë¥´íĨł":10370,"ĠëĦĲë¦¬":10371,"Ġíĺ¸ì£¼ìĿĺ":10372,"Ġë°ľíĳľíĸĪìĬµëĭĪëĭ¤":10373,"ĠíķľêµŃìĿĦ":10374,"Ġëĭ¨íĸī":10375,"Ġë³´ëıĦìĹĲ":10376,"Ġì°¸ìłĦ":10377,"ìħ¸":10378,"ĠìĺģêµŃêµ°":10379,"ĠíķµíĶĦë¡ľê·¸ëŀ¨":10380,"ìĬ¤íĬ¸ëĬĶ":10381,"Ġì²´ê³Ħ":10382,"ĠìĭľìŀĳíĸĪëĭ¤ê³ł":10383,"ĠAr":10384,"ĠìĤ¬ìļ©íĸĪëĭ¤":10385,"Ġê³Ħíļįíķĺê³ł":10386,"ĠìĸĳêµŃìĿĺ":10387,"Ġë°ľê²¬ëĲĺì§Ģ":10388,"Ġë°ķìĬ¤":10389,"Ġê°ĢëĬ¥íķĺëĭ¤":10390,"ĠëĨĴê²Į":10391,"Ġì¢ħíĮĮ":10392,"ìłĪíķľ":10393,"Ġë§ŀê³ł":10394,"ìºĲìĬ¬":10395,"ĠëĮĢìĦłìĹĲ":10396,"Ġì¹ľì²Ļ":10397,"Ġìłķì¹ĺìłģìľ¼ë¡ľ":10398,"íĿĻ":10399,"ĠìĭĿìĿ´":10400,"Ġë¹ĦíĸīìĿĦ":10401,"Ġë¬´ìŀ¥ëĮĢìĽĲ":10402,"ëĵ±íķĻêµĲ":10403,"Ġê³µê°ľíķľ":10404,"ìķĮëłī":10405,"Ġì£¼ìļĶíķľ":10406,"íĨ±":10407,"ĠìľłìĹĶìĿĺ":10408,"ëģĹ":10409,"ĠìļĶì²Ńíķł":10410,"ĠëıĮìķĦê°Ī":10411,"ĠìĹ¬ëŁ¬ë²Ī":10412,"ìĿµëªħìĿĺ":10413,"ĠìĦ±ê³µíķľ":10414,"ìķķëĳĺ":10415,"ĠíķĻìĥĿëĵ¤ìĹĲê²Į":10416,"Ġê¸°ìĪłìĿ´":10417,"ĠíĥĦê´ĳ":10418,"Ġíĺ¸ì£¼ìĹĲìĦľ":10419,"rac":10420,"Ġê³µíķŃìĿĦ":10421,"ĠGM":10422,"íĨ¤ìĿĺ":10423,"Ġì¶ľìĹ°íķ´":10424,"Ġê°ĲìĨĮíĸĪëĭ¤ê³ł":10425,"ĠìĿ¼ìľ¼ì¼°ëĭ¤":10426,"ëł¸ê³ł":10427,"Ġê¸°ëĮĢíķľëĭ¤":10428,"Ġê¸°ìĨĮëĲľ":10429,"Ġë°ľìĤ¬íķľ":10430,"Ġê°ľìĿ¸ìłģìľ¼ë¡ľ":10431,"Ġìĸ´ë¦°ìĿ´ëĵ¤ìĿ´":10432,"ìŀĲíļĮëĭ´ìĹĲ":10433,"Ġëįĺìł¸":10434,"ë´Ĳ":10435,"Ġì¡°ì¹ĺë¡ľ":10436,"ĠìĦłìłķëĲĲëĭ¤":10437,"ĠëĮĢíĶ¼íĸĪëĭ¤":10438,"ĠìĤ¬ê³¼íĸĪëĭ¤":10439,"ê±°ëŀĺìĨĮ":10440,"ĠìĿ´ìĻĢê°ĻìĿ´":10441,"ĠëĤ´ë¬´":10442,"Ġë¬´ìĹĩìĿĦ":10443,"Ġë²¨ê¸°ìĹĲ":10444,"ĠìĹĺë¦¬ë²łìĿ´":10445,"ĠíĥĢìŀĦì¦Īê°Ģ":10446,"ìĬ¤íĭ°ë¸Į":10447,"Ġìķ¼íĽĦìĿĺ":10448,"ĠëĬĲëģ¼ê³ł":10449,"ĠíĴĪëª©":10450,"ë¥´ëĤĺ":10451,"ĠëıĻìĦ±ìķłìŀĲ":10452,"ëĶķíĨł":10453,"ĠìĹ´ëł¸":10454,"ìĺĪë¥¼ëĵ¤ìĸ´":10455,"Ġë³´ìĿ´ì½§":10456,"ĠìĺĨìĹĲ":10457,"Ġë¹¼ìķĹ":10458,"Ġë©Ģë¦¬":10459,"Ġë°Ķê¿Ģ":10460,"Ġagain":10461,"Ġê·¹ëĭ¨ì£¼ìĿĺ":10462,"Ġìµľìļ°ìĦł":10463,"ĠíŀĮëĳĲ":10464,"Ġíģ´ëŀĺ":10465,"ĠìĹĲìĸ´ë²ĦìĬ¤":10466,"ìĹĲë¯¸ë¦¬íĬ¸":10467,"49":10468,"ER":10469,"HC":10470,"eet":10471,"ik":10472,"ëĭ¤ëŀĢ":10473,"ëĿ¼ë°Ķ":10474,"ê¸°ê¸°":10475,"ĠëĮĢìĦľìĸĳ":10476,"ìŀĲìĽĲ":10477,"ìŀĲìĹ°":10478,"ìŀĲìĺĢëįĺ":10479,"êµŃëĵ¤ìĿĢ":10480,"ìĤ¬ì§Ħ":10481,"íĺĶ":10482,"ĠìĿ´ìĬ¤íĬ¸":10483,"ĠìĤ¬ìŀĦìĿĦ":10484,"ĠìĤ¬íĺķìĿĦ":10485,"ë¬´ëĿ¼":10486,"ĠìĪĺë¥ĺ":10487,"ëĤĺê²Į":10488,"ìłķìĿĺ":10489,"ì£¼ìĿ¸":10490,"ì£¼ìĻĢ":10491,"Ġë¯¸ë¦¬":10492,"ĠìľĦìĬ¤":10493,"Ġê¸°ìĤ¬ë¥¼":10494,"Ġìłķë°Ģ":10495,"Ġê·¸ëłĪìĿ´":10496,"Ġì¤ĳìĿĺ":10497,"Ġì¤ĳìĿ´ë©°":10498,"ìłĦêµŃ":10499,"ĠìŀĲë°ľ":10500,"ĠìŀĲì¹´ë¥´íĥĢ":10501,"ĠìĨĮëł¨":10502,"íĸīíŀĪ":10503,"Ġìĺ¤ë¦¬":10504,"Ġìĺ¤ëĶ©":10505,"ĠìĹ¬ëĭ¹ìĿ¸":10506,"ĠìĥģìľĦ":10507,"Ġì¡°ìķ½":10508,"ĠëĤĺìĿ´ë¡ľ":10509,"Ġëª¨ê¸Ī":10510,"Ġëª¨ì§ĳ":10511,"ĠëıĻëĤ¨":10512,"ĠìĦłìĿĦ":10513,"Ġë°ĽëĬĶëĭ¤":10514,"Ġëĭ¹ì´Ī":10515,"Ġëĭ¹ì²¨":10516,"ĠìĦ±ì§ģìŀĲ":10517,"Ġì´ĿìĹĲ":10518,"ĠíĮĮìĿ´":10519,"ĠíĮĮìĿ´íĶĦ":10520,"ĠíĮĮëĤĺë§Ī":10521,"íķĻìŀĲ":10522,"ì°¨ìłĦìĹĲìĦľ":10523,"íĮĮìĿ¸":10524,"Ġìĭłíĺ¸":10525,"ìĹ°ë£Į":10526,"Ġìĭ¤ëł¤":10527,"Ġë°ĺëĮĢë¡ľ":10528,"ĠìŀħìĪĺíķľ":10529,"Ġíı¬ë¥´ëħ¸":10530,"ê²°íĺ¼":10531,"Ġëĭ¬ê°Ħ":10532,"ë³¸ë¶Ģ":10533,"ë¸ĮëłĪ":10534,"ĠìĽĲìłķ":10535,"ĠìĽĲíķľëĭ¤":10536,"ëŀĢìĿ´":10537,"ìĭ¬ìĿĺ":10538,"Ġë²ķë¬´":10539,"ĠíĻĶìļĶìĿ¼ìĹĲ":10540,"ĠìĿ´íĽĦìĹĲ":10541,"Ġì¹ĺë¥¼":10542,"ĠComm":10543,"ĠêµŃê°Ģëĵ¤ìĿĺ":10544,"Ġíķµê°ľë°ľ":10545,"ìĬ¤íĬ¸ë¡±":10546,"ĠìĦ¸ê³Ħë¥¼":10547,"ĠìĿĮë£Į":10548,"Ġë¬¼íĴĪ":10549,"ĠAssoci":10550,"ì¶Ķê°Ģ":10551,"Ġëī´íĸĦíĶĦìħĶ":10552,"Ġíģ¬ëłĪìĿ´":10553,"Ġíģ¬ê¸°ìĿĺ":10554,"ëĭ¬ëŁ¬ë¡ľ":10555,"Ġì¹´ëĵľ":10556,"Ġì§Ģì§Ģìľ¨ìĿ´":10557,"Ġì§Ģì§ĢìĦłìĸ¸":10558,"ë¡Ģë¥¼":10559,"ëłĪìĬ¤íĥĢ":10560,"Ġë°©ë¬¸ìĿĢ":10561,"ish":10562,"ìĭľíĤ¤ëł¤ëĬĶ":10563,"ìŀĪìĿĦ":10564,"ĠëĶĶìĬ¤íģ¬":10565,"Ġê¶Įì´Ŀ":10566,"ĠëģĿëĤ¬ëĭ¤":10567,"ĠëŁ¬ìĭľìķĦëĬĶ":10568,"ì»¤ìĬ¤":10569,"Ġë²ĶìĿ¸ìĿ´":10570,"Ġì£¼ë¯¼ëĵ¤ìĿĺ":10571,"ĠëĤĻíĥľ":10572,"Ġì¼Ģë¹Ī":10573,"ĠìĺĪìĥģíķĺê³ł":10574,"Ġíģ´ë¦°íĦ´ìĹĲ":10575,"ĠíħĮìĿ´":10576,"ĠìĹħë¬´ë¥¼":10577,"ros":10578,"roop":10579,"ìĹ´ìĿĦ":10580,"ĠíķĻìĥĿìĿ´":10581,"Ġê±´ë¬¼ìĹĲ":10582,"Ġë°Ľìķĺê³ł":10583,"Ġì»¤ë®¤":10584,"Ġì¡°ì§ģìĿĺ":10585,"ĠëıĻë¬¼ìĿĦ":10586,"Ġmilit":10587,"Ġê°Ģê²©ìĹĲ":10588,"Ġìķ½ìĨįíķľ":10589,"ĠíĨµê³¼ìĭľì¼°ëĭ¤":10590,"ĠìĹĦê²©íķľ":10591,"ĠëĿ¼ìĿ´ë¸Į":10592,"ĠìĨĮìľłíķľ":10593,"ĠìķĦë²Ħì§ĢìĿ¸":10594,"Ġë³ĢíĻĶìĹĲ":10595,"Ġë²Įìĸ´ì¡Įëĭ¤":10596,"Ġê³¼ìłķìĹĲ":10597,"Ġì¶Ķìłķíķĺê³ł":10598,"Ġì¶ľìłĦíķĺì§Ģ":10599,"íĹĪê°Ģ":10600,"Ġëĭ´ëĭ¹ìŀĲëĬĶ":10601,"ĠìĪĺì¤ĢìĿĺ":10602,"ìĿ´ìĬ¤ëĿ¼ìĹĺìĿĢ":10603,"ë¹Įë¦¬":10604,"ĠëĤ¨íİ¸ìĿ´":10605,"Ġë´Ĳ":10606,"Ġíĸīìłķë¶ĢëĬĶ":10607,"ĠëłĪìĿ´ê±´":10608,"ĠíĥĳìĬ¹íķľ":10609,"ì½ĺìĭł":10610,"Ġê²°ìĿĺìķĪ":10611,"ook":10612,"Ġìŀ¬ìłķìłģ":10613,"Ġë³´ì¢Įê´ĢìĿĢ":10614,"ĠëĵĿìłĲ":10615,"ĠìĦľëªħíĸĪëĭ¤":10616,"ĠìĽĢì§ģìŀĦìĿĢ":10617,"ĠìĿ¼ê°Ħì§Ģ":10618,"Ġì¦Ŀìĸ¸ìĿĦ":10619,"íģ¬ë¦¬ìĬ¤íĨłíį¼":10620,"Ġíķĺë§ĪìĬ¤ê°Ģ":10621,"Ġê°ĢëĬ¥ìĦ±ëıĦ":10622,"ìĤ¬ë¥´ì½Ķì§ĢëĬĶ":10623,"ĠìĿ´ë©ĶìĿ¼ìĿĦ":10624,"Ġê·¸ëłĪëĤĺëĭ¤":10625,"Ġplan":10626,"Ġlead":10627,"ĠìĬ¤íĬľëĶĶìĺ¤":10628,"ĠìºĲë¦ŃíĦ°":10629,"ĠìķĮëłīìĤ°ëįĶ":10630,"Ġë§ĪíĿĲëĶĶ":10631,"Ġë¬´ëį¤":10632,"ĠëŁ¬ëĭĿë©ĶìĿ´íĬ¸":10633,"Ġtalks":10634,"ĠìķĦëĭĻëĭĪëĭ¤":10635,"51":10636,"57":10637,"An":10638,"ef":10639,"ren":10640,"vel":10641,"âĸ":10642,"Ġç¾İ":10643,"ìĹ´ë¦°":10644,"ìĿ´ëªħ":10645,"íķĺë£¨":10646,"ĠìĹī":10647,"êµŃëĵ¤ìĿ´":10648,"ìĭľë¯¼":10649,"ĠìĿ´ëĵ¤ìĹĲê²Į":10650,"Ġì§ĢìłĲ":10651,"ìķĦëŀį":10652,"ĠìłĦê²©":10653,"ìłķëĲľ":10654,"ëĮĢíļĮìĹĲìĦľ":10655,"ìłģìĿĢ":10656,"Ġê°Ģì¤ĳ":10657,"Ġê°Ģê¹Ŀ":10658,"ĠìľĦì¹ĺë¥¼":10659,"ĠìľĦíķĺìĹ¬":10660,"Ġê¸°ë»":10661,"Ġì¤ĳìĹĲìĦľ":10662,"Ġì¤ĳëĤ¨ë¯¸":10663,"Ġë³´ì¦Ŀ":10664,"ĠìŀĲê²©ìĿ´":10665,"íģ´ë¦°":10666,"ë¬¸ìłľë¥¼":10667,"Ġê³µëĮĢ":10668,"ìļ°ê¸°":10669,"ĠìĥģìĿĺ":10670,"ë©´ìľ¼ë¡ľ":10671,"ëĲĺê¸°ëıĦ":10672,"íĤ¥ìĿĦ":10673,"ëłĪìĬ¤ëĬĶ":10674,"Ġìĺģêµ¬":10675,"ë°©ìĹĲ":10676,"Ġë°©ë¬¸ìĹĲ":10677,"ìĹħê³Ħ":10678,"ĠëıĦíķĳ":10679,"Ġ63":10680,"Ġê³ĦìĤ°":10681,"Ġê±°ë¡ł":10682,"ĠìĹĲìĿ´":10683,"ê±´ìĦ¤":10684,"ĠëĤ´ìĿĺ":10685,"ìĹĪê¸°":10686,"Ġë§¤ëıĦ":10687,"íİ¸ìĹĲ":10688,"ĠìļĶë¦¬":10689,"ĠíĺĦê¸Ī":10690,"Ġì§ĦìłĦìĿĦ":10691,"ë³¸ìĿĦ":10692,"ĠìĽĲíķĺì§Ģ":10693,"Ġêµ°ìĿ¸ëĵ¤ìĿ´":10694,"ëĤ´ìĹĲìĦľ":10695,"Ġë¬¸ìłľëĵ¤ìĿĦ":10696,"Ġë°ľíĳľëĬĶ":10697,"Ġëį°ë¦¬ê³ł":10698,"Ġë¶ĦëŁīìĿĺ":10699,"Ġëª©ìłģìĿĦ":10700,"Ġëª»íĸĪëįĺ":10701,"Ġìĭ¬ìĿĺ":10702,"Ġìĭ¬íķĺê²Į":10703,"ĠìķŀìĦ°ëĭ¤":10704,"Ġê³µê²©íķĺëĬĶ":10705,"ĠëģĶ":10706,"ĠAd":10707,"ĠìĤ¬ìļ©ëĲľ":10708,"ĠíķŃìĥĿ":10709,"ĠìĤ°ì±ħ":10710,"Ġì´ĪìĹĲ":10711,"Ġìĸĳê³¤":10712,"Ġì½ĶëĦĪ":10713,"Ġê²½ê¸°ëĬĶ":10714,"ĠìķĬìķĺëĭ¤ëĬĶ":10715,"Ġë¸ĮëĿ¼":10716,"ĠíĨłë¡ľ":10717,"ë°±ìĿĦ":10718,"Ġë§ŀìĿĢ":10719,"ê²ĥëıĦ":10720,"Ġëĵ¤ìĸ´ê°ĢëĬĶ":10721,"ĠìķĦëĭĪë©°":10722,"ict":10723,"Ġê³³ìĿĺ":10724,"Ġë¸Ķë¡Ŀ":10725,"ĠPKK":10726,"Ġëĭ´ê³ł":10727,"Ġë§īìķĦ":10728,"Ġë£¨ìĿ´ì§ĢìķłëĤĺ":10729,"ĠìĿĺíļĮë¥¼":10730,"Ġë°ĽìķĦìĻĶëĭ¤":10731,"ĠìĦłìĪĺëĵ¤ìĿĢ":10732,"ìĿ´ëĿ¼íģ¬ìĹĲìĦľ":10733,"ĠUEFA":10734,"Ġìŀ¡ì§Ģ":10735,"Ġê¹ĢëĮĢì¤ĳ":10736,"íĤ¬ë¡ľë¯¸íĦ°":10737,"Ġíĭ°ìħĶ":10738,"ĠíĤ¤ë°ĶíĤ¤":10739,"Ġì¶ľìĭłìľ¼ë¡ľ":10740,"Ġì°½ìĦ¤":10741,"ìŀ¡ì§Ģ":10742,"Ġì°¸ìĹ¬íķĺëĬĶ":10743,"Ġê¸Īì§ĢíķĺëĬĶ":10744,"Ġë°ĿíŀĪë©°":10745,"ĠìłĦíĪ¬ê¸°":10746,"ĠìĶ¨ê°Ģ":10747,"Ġë¿ĲìĿ´ëĿ¼ê³ł":10748,"Ġë¨¹ê³ł":10749,"ĠìłĦì²´ê°Ģ":10750,"Ġë¯¿ìĿĦ":10751,"Ġë³´ê³łìĦľìĹĲ":10752,"Ġë³´ê³łìĦľê°Ģ":10753,"irst":10754,"ĠêµŃë¬´ë¶ĢëĬĶ":10755,"Ġë¹ĦëĶĶìĺ¤ë¥¼":10756,"ĠëĦ£ìĹĪëĭ¤":10757,"ê²½ê¸°ìĹĲìĦľ":10758,"ĠíķŃìĿĺíķĺëĬĶ":10759,"ĠíĸīìľĦëĬĶ":10760,"Ġì¢ħêµĲìłģ":10761,"ock":10762,"ĠíĿ¥íĸī":10763,"Ġì¹ĺëŁ¬ì§ĢëĬĶ":10764,"íĬ¹ë³Ħ":10765,"ĠëĤĺíĨłêµ°":10766,"ĠìĤ¬íĩ´ë¥¼":10767,"ĠChina":10768,"ĠíĶĦëĿ¼ìĿ´ë¨¸ë¦¬ìĹĲìĦľ":10769,"Ġê±°ìłĪíĸĪëĭ¤":10770,"Ġíķ´ë³ĳëĮĢ":10771,"Ġìĸ¼êµ´ìĿĦ":10772,"Ġë°©íĸ¥ìĿĦ":10773,"Ġìŀ¥ìķħíķľ":10774,"Ġì¶ĶìĤ°íĸĪëĭ¤":10775,"Ġìľ¤ë¦¬":10776,"ê¼Īëĭ¤":10777,"ìłľëıĦìĿ´":10778,"Ġë§ĪìĿ´íģ¬ë¡ľìĨĮíĶĦíĬ¸":10779,"ĠìĿ´ëĤ´ìĹĲ":10780,"Ġë¡ľìĿ´íĦ°":10781,"ĠìĹ´ìĭ¬íŀĪ":10782,"ìĿ´ëªħë°ķ":10783,"&#":10784,"8000":10785,"American":10786,"for":10787,"min":10788,"Ġar":10789,"Ġup":10790,"ľì°®":10791,"ìĹĲíĽĦëĵľ":10792,"ëĬĶê°Ģ":10793,"âĢ¢":10794,"´ë©°":10795,"ë¦¬ì²ĺëĵľ":10796,"ìĿ¸ëĭ¤":10797,"ê¸°ë¶Ģ":10798,"Ġìĺ³":10799,"ĠìĤ¬ìĥĿíĻľ":10800,"Ġê²ĥìĿ¼":10801,"ìĿ¼ë¦¬ëħ¸ìĿ´":10802,"Ġì§ĢëĬĶ":10803,"ìĺ·":10804,"ìĸ´ìļĶ":10805,"Ġë¯¸ëĶĶìĸ´":10806,"Ġê°ĢëŁīìĿĺ":10807,"Ġê°Ģì¦ĪíĶĦë¡¬":10808,"Ġì£¼ê±°":10809,"Ġì£¼ìĭĿìĿĦ":10810,"ë§ĮìĹ¬":10811,"Ġê¸°ì¦Ŀ":10812,"ĠìĭľìĿ¼":10813,"Ġì¤ĳíĥľ":10814,"Ġë¶Ģë¥´":10815,"Ġê³µìłķíķľ":10816,"Ġìĺ¤ìĬ¤":10817,"ĠìľłìĤ°":10818,"ìĹĪëĭ¤ëĬĶ":10819,"ë¥´ìĹĲìĦľ":10820,"Ġìĥģì²ĺ":10821,"ë°Ķê°Ģ":10822,"Ġìłľë¦¬":10823,"Ġëª¨ìķĦ":10824,"Ġëª¨ìŀĦ":10825,"Ġëª¨ìļķ":10826,"íĥĢê°Ģ":10827,"íĥĢìĻĢ":10828,"ĠìĦłìĽĲ":10829,"Ġìĺģìĥģ":10830,"Ġìĺģê°ĲìĿĦ":10831,"ĠìĺĪë°°":10832,"íİĻ":10833,"ìĹŃìĤ¬":10834,"ĠíĽĦì§Ģ":10835,"Ġê°ľìĽĶ":10836,"ĠìķĮëłĪ":10837,"ĠìĥĿíĥľ":10838,"ĠìĦ¸ìĨį":10839,"Ġê¸´ë°Ģ":10840,"ĠíĮĮë¦¬ìĹĲìĦľ":10841,"ĠëĤ¨ìļ©":10842,"ĠëĤ¨ìŀĲë¥¼":10843,"ë¬¼ìĿ¸":10844,"íı¬ìľĦì¸ł":10845,"Ġ68":10846,"Ġê°Ĳìłķ":10847,"ĠìŀħìĹĪìľ¼ë©°":10848,"ĠíıŃëł¥ìĿĦ":10849,"ì¡Įìľ¼ëĤĺ":10850,"ĠíĺĦìĥģìĿ´":10851,"ĠìķĪìłĦìĹĲ":10852,"ĠêµĲìłĦ":10853,"ĠìĿ´ëĿ¼íģ¬ëĬĶ":10854,"Ġìķ½íĺ¼":10855,"ĠìĤ¬ë§ĿìŀĲë¥¼":10856,"ìĦĿìĿĢ":10857,"Ġ76":10858,"ĠìĪ¨ìĸ´":10859,"Ġêµ°ìĿĺ":10860,"ĠìĺĪìłķìĿ´":10861,"ìĿ´ëĿ¼ë©´":10862,"ĠíĪ¬ëªħ":10863,"Ġë°°íı¬":10864,"Ġê¸Īë¦¬ë¥¼":10865,"ĠëıħìŀĲ":10866,"ê°Ŀëĵ¤ìĿ´":10867,"Ġëī´ìłĢì§Ģ":10868,"Ġíģ¬ë¦¬":10869,"ĠìĹ°êµ¬ìĽĲìĿĢ":10870,"Ġê³ĦìĨįíķĺê³ł":10871,"Ġê²°ìłķìĿ´":10872,"ĠìĿ´ìľłê°Ģ":10873,"Ġë¯¸êµ°ê³¼":10874,"Ġì°¾ì§Ģ":10875,"ĠëĤ´ëł¤ì¡Įëĭ¤":10876,"íıŃëł¥":10877,"ĠìĪ¨ì¡Įìľ¼ë©°":10878,"ĠMD":10879,"ĠëŁ¬ìĭľìķĦê°Ģ":10880,"Ġê³µê°ľíķĺì§Ģ":10881,"íıīê°Ģ":10882,"Ġì£¼ë¯¼ëĵ¤ìĿĦ":10883,"Ġì¿łìĽ¨ìĿ´íĬ¸":10884,"ĠëĤ´ìļ©ìĹĲ":10885,"Ġë°©ìĨ¡ìĹĲìĦľ":10886,"ĠëĦĺê²Į":10887,"Ġëĭ¹ìĦłìŀĲëĬĶ":10888,"Ġë°ĿíĺĢëĥĪëĭ¤":10889,"ìĶ¨ìĿĺ":10890,"Ġëĭ¤ìĿĮì£¼":10891,"ĠëıĮìķĦëĭ¤":10892,"ĠìŀĲëıĻì°¨ë¥¼":10893,"ĠíĮĲë§¤íķł":10894,"ĠìķĦíĶĦê°ĦìĹĲ":10895,"Ġê°ľë°ľìĹĲ":10896,"Ġê°ľë°ľíķľ":10897,"Ġì¸ł":10898,"ëłĮì§Ģ":10899,"ìĻķë³µìĦł":10900,"Ġëŀĺë¦¬":10901,"ê´Ģê³Ħê°Ģ":10902,"Ġì¡°ì§ģìĿĦ":10903,"198":10904,"Ġì°¨ì§ĢíķĺëĬĶ":10905,"ĠëĬĲê»´":10906,"Ġë²Ķì£Ħë¥¼":10907,"ĠíķĻêµĲìĹĲìĦľ":10908,"Ġìŀĥìĸ´ë²Ħ":10909,"Ġë¶ĢìĿ¸íķĺê³ł":10910,"Ġê³µê¸īìĿĦ":10911,"Ġë¶Ģì¡±íķľ":10912,"Ġíĺ¸íħĶìĹĲ":10913,"ĠìĿ¼ìľ¼ì¼°":10914,"ĠëĤ¨ìĦ±ê³¼":10915,"ĠëĿ¼ìĿ´íĶĦ":10916,"ĠëĦĪë¬´ëĤĺ":10917,"ĠëĨĢìĿ´":10918,"ĠíĬ¹ë³ĦíŀĪ":10919,"ĠìķĦë²Ħì§ĢëĬĶ":10920,"Ġìĥ¤ëĿ¼íı¬":10921,"Ġíĩ´ìŀĦ":10922,"ĠìĪĺì²ľëªħìĿ´":10923,"Ġì¦Ĳê¸°ëĬĶ":10924,"ĠìĽĶëĵľìĭľë¦¬ì¦Ī":10925,"Ġë¶Ģë¶ĦìĿ´":10926,"Ġìķ¨ëŁ°":10927,"ĠëıĻìĺģìĥģìĿ´":10928,"uman":10929,"Ġê°Ģìł¸ìĺ¬":10930,"ĠìķĦë§Īì¡´":10931,"ĠëıĻìĿĺíĸĪëĭ¤":10932,"Ġëĭ¤ë¥´ëĭ¤":10933,"ĠíĶĮëłĪìĿ´ë¥¼":10934,"ĠìķłìĻĦëıĻë¬¼":10935,"Ġíķĺë§ĪìĬ¤ìĿĺ":10936,"Ġprot":10937,"Ġë©ĶìĿ´ìłĢ":10938,"ĠëªħíĻķíŀĪ":10939,"Ġë¶ĢìĤ¬ìŀ¥ìĿĢ":10940,"ĠìłĢì§ĪëłĢ":10941,"íķľëĤĺëĿ¼ëĭ¹":10942,"ĠíĥĢìĿ´íĭĢìĿĦ":10943,"ĠìĿ´ë¸ĮëĿ¼":10944,"Ġìĵ°ëłĪê¸°":10945,"ĠShow":10946,"ìĸ¼ë¦¬íĭ°":10947,"Ġê´ĳë²ĶìľĦíķľ":10948,"ĠíĶĦëŀŃíģ¬":10949,"ìłľëĦ¤ê±°":10950,"41":10951,"FO":10952,"WC":10953,"con":10954,"eoul":10955,"mm":10956,"ru":10957,"§Į":10958,"ãİ":10959,"ëŃ":10960,"ìį":10961,"íĪ°":10962,"Ġits":10963,"ìĹĲëĦĪ":10964,"ê³łìĿĺ":10965,"ê³łìĹĲìĦľ":10966,"ë¡ľìĹĲ":10967,"ë¡ľíĶ¼":10968,"ê°Ģê²©":10969,"ë¦¬ë¹ĦìķĦ":10970,"ĠìĹ´ëł¤":10971,"ìĭľíķĺê³ł":10972,"ìĿ¼ë°ĺ":10973,"Ġì§Ģì¤ĳíķ´":10974,"ĠìłĦìĹĲëĬĶ":10975,"ĠìłĦëł¥ìĿĦ":10976,"ëªħìĿ´ëĿ¼ê³ł":10977,"ìĸ´ìĤ¬ìłĦ":10978,"Ġë¯¸ëĵľ":10979,"Ġë¯¸ëĭĪ":10980,"Ġê°Ģíķľ":10981,"Ġì£¼ê°ĢëĬĶ":10982,"Ġìĭľê³¨":10983,"íĻĶëĲĺê³ł":10984,"Ġë³´ìĬ¤":10985,"ĠìŀĲìłĦ":10986,"ĠìŀĲê²©ìĿĦ":10987,"ì¹ĺìĿ¸":10988,"ë³´ìŀ¥":10989,"Ġë¶ĢëĮĢë¥¼":10990,"Ġë¶Ģë¶ĢìĿĺ":10991,"ëĭĪìķ¼":10992,"ëıĻìĥĿ":10993,"ĠìľłìĺĪ":10994,"ë¹ĦëĦ¨":10995,"Ġìĥģëĭ´":10996,"íĶĦìĹĲ":10997,"Ġì¡°ì§Ĳ":10998,"ĠíķĺëıĦë¡Ŀ":10999,"ì¡°ê°ģ":11000,"Ġíĸĩ":11001,"ê±°ë¦¬ëĬĶ":11002,"ìĹ¬ìŀĲ":11003,"ĠìĬ¤íĨ¤":11004,"ĠíĽĦìĨ¡":11005,"ìĹħìŀĲ":11006,"ĠìĦ¸ëĮĢë¥¼":11007,"Ġì´Ŀê¸°ë¥¼":11008,"ì°¨ë²łìĬ¤":11009,"Ġìĭłíĺ¸ë¥¼":11010,"ë¶Ħíķľ":11011,"ĠìĹĲë¦Ń":11012,"Ġë§ĮíĻĶ":11013,"Ġë§Įë£Į":11014,"íĭ°ì¹¸":11015,"ĠëķĮë§Īëĭ¤":11016,"ĠíĶ¼íķĺê¸°":11017,"Ġì°¨ìĿ´":11018,"Ġì°¨ê°Ģ":11019,"Ġë§¤ëł¥":11020,"Ġë§¤ìŀħ":11021,"ĠìķĪëĤ´":11022,"ê·¼íĺľ":11023,"Ġëĭ¬ìķĦ":11024,"ĠìĤ¬ë§ĿìŀĲëĬĶ":11025,"Ġíĸīëł¬":11026,"ìĸ´ëĿ¼":11027,"Ġíĺ¸ìĨ¡":11028,"Ġì§ĳíķĦ":11029,"Ġë²ķìĽĲìĿĺ":11030,"Ġëª»íķľëĭ¤":11031,"Ġê¸ĪìĨį":11032,"ĠìĺģêµŃê³¼":11033,"Ġì¹ĺìĨ":11034,"ĠêµŃê°ĢìķĪë³´":11035,"Ġíĺĳìķ½":11036,"Ġë¬¼ê±´":11037,"ĠìłĢíĥĿ":11038,"ë³ĳìľ¼ë¡ľ":11039,"ĠíħĮëŁ¬ëĬĶ":11040,"ĠíħĮëŁ¬ì¡°ì§ģ":11041,"ĠìĤ°íķĺ":11042,"ëĭ¬ëŁ¬ê¹Įì§Ģ":11043,"ĠìĿ¼ë³¸ìĿĦ":11044,"ĠìĥĿê°ģíķľëĭ¤ê³ł":11045,"ë¦¼ìĿĦ":11046,"Ġìĸĳì¸¡":11047,"Ġìĸĳìª½":11048,"ĠìĹ´ìĹĪëĭ¤":11049,"ĠëĴ¤ìĹĲìĦľ":11050,"Ġê³ĦìĨįíķł":11051,"ĠìķĦìĿ´ëĵ¤":11052,"Ġì§Ģì§Ģíķľëĭ¤ê³ł":11053,"ë°°ìĭ¬":11054,"Ġê²°ìłķìłģìĿ¸":11055,"Ġë°ķìĤ¬ê°Ģ":11056,"ĠTh":11057,"ĠìĭľìľĦëĮĢë¥¼":11058,"Ġíĳľê²°":11059,"Ġê°ĦìĦŃ":11060,"ê¸¸ìĿĦ":11061,"ĠëĮĢíĳľíķĺëĬĶ":11062,"Ġê³³ìĿ´":11063,"ĠìŀĪìĿĦì§Ģ":11064,"ëĤ¨ë¶ģ":11065,"ĠìĥģìĽĲìĿĺìĽĲìĹĲ":11066,"Ġê°Ģì¡±ëĵ¤ìĿĢ":11067,"Ġê°Ģì¡±ëĵ¤ê³¼":11068,"Ġë¸ĶëĿ¼ëĶĶë¯¸ë¥´":11069,"Ġì¦Ŀê°ĢíķĺëĬĶ":11070,"ĠëĲľëĭ¤ë©´":11071,"Ġë°ĺëĮĢíķĺê³ł":11072,"ĠíħĮëĭĪìĬ¤":11073,"Ġìĸ¸ê¸īíķľ":11074,"ìĿ´ëĿ¼íģ¬ìĿĺ":11075,"Ġíĸ¥íķľ":11076,"rol":11077,"Ġë¨¸ë¦¬ìĹĲ":11078,"Ġê³µíĻĶêµŃ":11079,"ĠìĥģìĬ¹íĸĪìĬµëĭĪëĭ¤":11080,"ìĿµëªħìĿĦ":11081,"ĠíıīíĻĶíĺĳ":11082,"ĠìºĲë¦¬":11083,"Ġê²½ê³łë¥¼":11084,"Ġê¸´ìŀ¥ìĿĦ":11085,"Ġby":11086,"Ġì»¤ëĭ¤ëŀĢ":11087,"ìŀĲìĻĢíŀĪ":11088,"ĠRes":11089,"Ġì°¸ìĹ¬íķĺì§Ģ":11090,"Ġê·ľëª¨ë¥¼":11091,"Ġë¶Īë²ķìľ¼ë¡ľ":11092,"Ġìŀ¬íĮĲìĹĲìĦľ":11093,"ĠëŁ°ëįĺìĹĲ":11094,"Ġê±°ë¶Ģê¶ĮìĿĦ":11095,"ìĤ¬íļĮìĹĲ":11096,"ĠëĨĢëŀĦ":11097,"Ġìŀ¥ê´Ģê³¼":11098,"ĠìķĦë²Ħì§ĢìĿĺ":11099,"Ġê°ľìµľëĲĺëĬĶ":11100,"ĠìĻĶëĭ¤ê³ł":11101,"ĠëĤĺëĿ¼ë¥¼":11102,"Ġì¹¼ë¦¬":11103,"Ġnew":11104,"Ġë´¤ëĭ¤":11105,"ìĸµëĭ¬ëŁ¬ìĿĺ":11106,"ĠëłĪìĿ´ìłĢ":11107,"Ġì¤ĳëıĻíıīíĻĶ":11108,"istan":11109,"Ġê²¬íķ´ë¥¼":11110,"ìĭľíĤ¨ëĭ¤":11111,"ĠêµĲëıĦìĨĮ":11112,"Ġë¯¸ëŀĺë¥¼":11113,"ĠíĻķìĭłíĸĪëĭ¤":11114,"ĠíĻķìĭłíķľëĭ¤":11115,"Ġìľłì£Ħë¥¼":11116,"Ġê¹¨ëģĹ":11117,"Ġë¯¼ì£¼ì£¼ìĿĺë¥¼":11118,"ĠìĿĺìĭ¬ëĲĺëĬĶ":11119,"íİľìĭ¤":11120,"Ġíİľìĭ¤ë²łëĭĪìķĦ":11121,"ĠíķĺìĽĲìĿĺìĽĲ":11122,"ĠìĪĺì¹ĺëĭ¤":11123,"Ġëª¨ìĹ¬ëĵ¤":11124,"ĠìŀĲìĦ¸íŀĪ":11125,"ĠìĹ¼ëł¤":11126,"ĠíķĺìĿ´ë¸Įë¦¬ëĵľ":11127,"Ġë²łì»´ìĿĢ":11128,"Ġêº¾ê³ł":11129,"ĠìĦ±ê³¼ë¥¼":11130,"Ġíķµìĭ¤íĹĺìĿĦ":11131,"ëĵ¯ìĿ´":11132,"ìĤ¬ë¥´ì½Ķì§Ģ":11133,"ĠíļĮê²¬ìĹĲìĦľ":11134,"Ġëļ«":11135,"ĠëĶľëŁ¬":11136,"Ġìłķê¸°ìłģìľ¼ë¡ľ":11137,"ĠìĦ¹ìĭľ":11138,"ĠëĿĦ":11139,"ëª©ê²©ìŀĲëĵ¤ìĿĢ":11140,"ì·Ħëĭ¤":11141,"Ġì³Ĳ":11142,"ĠEng":11143,"ĠìĿ¼ìłľíŀĪ":11144,"38":11145,"HS":11146,"UC":11147,"VS":11148,"WF":11149,"ber":11150,"²ķ":11151,"ê¶":11152,"íķľêµŃìĿ¸":11153,"Ġë°Ł":11154,"ìĿ¸ê°Ģ":11155,"íķ´ì£¼":11156,"ìĬ¤ë§Ī":11157,"ìĬ¤íĥĢìĿ¸":11158,"ìľ¼ë¯Ģë¡ľ":11159,"ĠëĮĢìļ°":11160,"ëıĦì¿Ħ":11161,"ìŀ¥ìķł":11162,"ë¶ĢìĿ¸":11163,"ĠìĪĺìĤ¬ìĹĲ":11164,"ĠìłĦíĮĮ":11165,"ëĤĺíĨł":11166,"ìĸ´ìĻĢ":11167,"ìĸ´ì§Ī":11168,"ìłģìĿĺ":11169,"ëĵľëŁ¬":11170,"ĠìķĦëĤľ":11171,"ë§Įê°Ħ":11172,"Ġê¸°ìķĦ":11173,"ĠìĭľìłĲ":11174,"ĠìĿ¸ìĥģìĿĦ":11175,"Ġë¶Ģê²°":11176,"íģ¬ëĿ¼":11177,"íģ¬ëłĪ":11178,"ĠìķĬìĬµëĭĪëĭ¤":11179,"Ġëĭ¤ìĪĺ":11180,"Ġë¹Ħê°Ģ":11181,"ë¯¸ëĬĶ":11182,"íĸĪìĹĪëĭ¤ê³ł":11183,"ĠìĿĺì§Ģë¥¼":11184,"ĠìĿĺìĽĲìĿĦ":11185,"ĠëĤĺê°ĢëĬĶ":11186,"ĠìĹ°ê¸°ê°Ģ":11187,"ĠìĦłê´Ģ":11188,"ĠìĽ°":11189,"ĠìĺĪë©ĺ":11190,"Ġê³łìŀ¥":11191,"êµ°ìĤ¬":11192,"ìĹ¬ìķ¼":11193,"ë°©ìĿ´":11194,"ìŀ¬ê°Ģ":11195,"ìŀ¬ë¥¼":11196,"ĠìĹĨìķł":11197,"Ġíķ´ìĥģ":11198,"Ġíķ´ìłĢ":11199,"Ġíķ´ìķĪìĹĲ":11200,"ĠíļĮìĤ¬ìĹĲ":11201,"ĠìĦ¸ìļ´":11202,"ĠìĦ¸ìĽłëĭ¤":11203,"ĠëıĦìļ¸":11204,"Ġìŀ¥ë²½":11205,"ĠëĤ¨ìª½":11206,"ĠëĤ¨ìª½ìľ¼ë¡ľ":11207,"Ġë¬´ìĨĮìĨį":11208,"Ġêµ¬ë¥ĺ":11209,"íŀĪëĬĶ":11210,"íĮĮë¦¬":11211,"Ġë¶ĪêµĲ":11212,"ìŀĳê°Ģ":11213,"ìĹ°ìĥģìĿĦ":11214,"ë³ĢíĻĶ":11215,"Ġë§ĮëĬ¥":11216,"Ġë°ĺëĵ±":11217,"ĠëĤ´ë¦¬ê³ł":11218,"ìĿĮìĿ´":11219,"Ġê°ķì§ĦìĿ´":11220,"ĠíĶ¼íķł":11221,"ê¹Įì§ĢëıĦ":11222,"Ġì°¨ê´ĢìĿĢ":11223,"ĠíıŃëıĻ":11224,"Ġì§ĦìłĦìĿ´":11225,"Ġ72":11226,"ory":11227,"ëĿ½ìĿĦ":11228,"Ġë²ķìłģìľ¼ë¡ľ":11229,"ëıħíķľ":11230,"ì¤ĺ":11231,"ĠíĻĶê°Ģ":11232,"ĠìĺģêµŃìĹĲ":11233,"Ġì¹ĺë¥¸":11234,"ĠíķĺëĬĶëį°":11235,"Ġíıīê°Ģë¥¼":11236,"Ġì²´ë¥ĺ":11237,"ë©ĶìĿ¼":11238,"ë¶ģíķµ":11239,"íĺķìłģìĿ¸":11240,"ìĽĮíĦ°":11241,"ĠíķĻëĮĢ":11242,"ĠìĹ°êµ¬ìĿĺ":11243,"ĠëıĮìĿĦ":11244,"Ġë°ľê²¬ëĲĺìĹĪëĭ¤":11245,"Ġì§ĢëıĦìŀĲë¡ľ":11246,"ëłĪìĬ¤íħĮ":11247,"ĠêµŃìłľìļ°ì£¼":11248,"Ġë³µíķ©":11249,"Ġì¤ĦìĿĦ":11250,"Ġë¶ĢìĭľëĬĶ":11251,"ìłĪìĿĦ":11252,"ìĺ¬ë¡ľ":11253,"íĿĶ":11254,"ĠìķĬìķĺìĬµëĭĪëĭ¤":11255,"ited":11256,"Ġê°ĲëıħìĿĦ":11257,"ĠíĻķìĿ¸ëĲĺì§Ģ":11258,"ĠìĨįëıĦë¥¼":11259,"ì»¤ë²Ħë¦¬":11260,"ĠêµŃë¯¼íĪ¬íĳľ":11261,"ĠìľĦì¹ĺíķ´":11262,"ĠíĶĮëĿ¼":11263,"ĠìĿ¸ëıĦìĿĺ":11264,"ĠìĿ¸ëıĦë¶Ħ":11265,"Ġì¤ĳëĭ¨ìĿĦ":11266,"ĠíķŃê³µìļ°ì£¼êµŃ":11267,"íķĺëł¤ëįĺ":11268,"ĠíĻľëıĻíķĺê³ł":11269,"ĠíĪ¬íĳľê°Ģ":11270,"ĠìĻ¸êµĲê´Ģ":11271,"ĠìĹ¬ëŁ¬ë¶Ħ":11272,"ĠìłĦìŁģìĿ´":11273,"Ġê¸īìĬµ":11274,"ĠìľĦíĺĳìĹĲ":11275,"ther":11276,"´ë°ľ":11277,"ë°ĽìķĦ":11278,"Ġíľ´ê°Ģ":11279,"Ġìĭ¶ìĿĢ":11280,"Ġë°Ľìķĺì§Ģë§Į":11281,"Ġìļ©ìĿĺìŀĲë¥¼":11282,"ëķĮê¹Įì§Ģ":11283,"Ġìļ°ìĬ¹íķľ":11284,"Ġê²°íĺ¼ìĭĿìĿĦ":11285,"ĠëŁ°ëįĺìĿĺ":11286,"ëĲĺìĹĪì§Ģë§Į":11287,"Ġìķŀìľ¼ë¡ľëıĦ":11288,"ĠìĿ¼ìľ¼íĤ¤ëĬĶ":11289,"ìĿĢíĸīìĿĢ":11290,"ë§Įëĭ¬ëŁ¬ë¥¼":11291,"ĠìłķëıĦê°Ģ":11292,"ĠëĶ¸ìĿĺ":11293,"ĠìĿĳìĽĲ":11294,"Ġíĳ¸ìĹĲ":11295,"ê°Ķëĭ¤ê³ł":11296,"ìĹ°êµ¬ìĨĮ":11297,"Ġìĺ¬ëĿ¼ê°Ģ":11298,"ĠìĿ´ë¤Ħì§Ī":11299,"ĠìķĪë³´ë¥¼":11300,"ĠìŀĲê¸ĪìĿ´":11301,"ìĤ¬ê±´ìĿ´":11302,"ìĤ¬ê±´ìĿĦ":11303,"ĠíŀĪíĭĢëŁ¬":11304,"ĠìĪĺìĭŃëªħìĿ´":11305,"ĠìĤ¬ëĿ¼ì§Ħ":11306,"Ġê°ĢìŀĲì§Ģêµ¬ìĹĲ":11307,"ĠìĬ¹ìĿ¸íĸĪëĭ¤":11308,"Ġì¹ĺëŁ¬ì§Ī":11309,"ĠìľĮë¦¬ìĹĦìĬ¤ëĬĶ":11310,"ĠìĿ¼ìĸ´ëĤĺê³ł":11311,"Ġíķ´ë¦¬íı¬íĦ°":11312,"ĠíĶĦë¡ľìłĿíĬ¸ë¥¼":11313,"Ġìľłì£ĦíĮĲê²°ìĿĦ":11314,"Ġê´ľì°®":11315,"Ġìĭľì¹´ê³łìĹĲìĦľ":11316,"Ġë¶Ħë¦¬ì£¼ìĿĺ":11317,"ĠìłĦëŀµìĿĦ":11318,"Ġë¥´ë":11319,"ĠëĤ´ë¬´ë¶ĢëĬĶ":11320,"Ġë¬´ëłµ":11321,"íĽĪëł¨":11322,"Ġì§ģë©´íķľ":11323,"ì»¨ëĵľ":11324,"ĠìľłëĮĢìĿ¸":11325,"ĠìĪĻë°ķ":11326,"Ġë§ĪìĿĮìĿ´":11327,"ĠìŀĲìĤ´íıŃíĥĦíħĮëŁ¬ê°Ģ":11328,"ĠìķĦìĿ´ëĶĶìĸ´ë¥¼":11329,"Ġatt":11330,"Ġê¹ĬìĿ´":11331,"êµĲíĻ©ìĿĢ":11332,"ë¥´ëįĺ":11333,"Ġë¹Ħê³µìĭĿ":11334,"Ġë©Ķë¥´ì¼Ī":11335,"ĠëıĻíĭ°ëª¨ë¥´":11336,"Ġë§Īì¼ĢíĮħ":11337,"ĠíħĮëĦ¤ìĭľ":11338,"ĠëģĶì°į":11339,"AR":11340,"AëĬĶ":11341,"stit":11342,"wo":11343,"ìĮ":11344,"Ġå":11345,"ìĹĲìĿ´ì»¤":11346,"ëĬĶì§ĢìĹĲ":11347,"íķĺë§ĪìĬ¤":11348,"ë¡ľëª¬":11349,"ë¦¬ì¼Ģ":11350,"íķ´ìĹĲ":11351,"íķ´ëĭ¬ëĿ¼ê³ł":11352,"ĠìĹł":11353,"ìŀĲìĬ¤":11354,"ĠìĿ´ìłķ":11355,"Ġìľµ":11356,"ìĿ¼ìŀĲ":11357,"ìĿ¼ë³´":11358,"ë¶Ģì¡±":11359,"Ġì§ĢíıĲ":11360,"ĠìłĦëħĦ":11361,"ĠìŀĪê±°ëĤĺ":11362,"ëĮĢíķĻêµĲ":11363,"ĠìķĦëĭ´":11364,"ĠìķĦíĭĢ":11365,"Ġì£¼ë¥ĺ":11366,"Ġê¸°íļį":11367,"Ġê¸°ì§Ģë¥¼":11368,"Ġì¤ĳëıĦ":11369,"ĠìĿ¸íĺķ":11370,"íģ°":11371,"Ġíı´ëĿ¼":11372,"ë¬¸ìĿĢ":11373,"Ġë°ľëĭ¬":11374,"ĠìĿ¼ê³ł":11375,"íĮį":11376,"Ġëįľ":11377,"Ġë¹ĦìķĦ":11378,"ëĭ¹ìĹĲ":11379,"ëĭ¹ìĭł":11380,"Ġìľłìļ©":11381,"ĠìľłìĦ¸ë¥¼":11382,"ìĦłíķľ":11383,"ë°ĶìĿĺ":11384,"ë°ĶìĿ¼":11385,"ĠëĤĺë¹ł":11386,"ìľłê°ĢëĬĶ":11387,"ĠìĹ°ë§Ĳ":11388,"Ġëª¨ìĪł":11389,"íĥĢìļ´":11390,"Ġë§Īì°°":11391,"ëĦĮ":11392,"ëł¥ê³¼":11393,"Ġê³łìĪĺ":11394,"Ġê³łë¦´ëĿ¼":11395,"ìĹŃìľ¼ë¡ľ":11396,"ê°ľìĹĲ":11397,"Ġìļ°íİ¸":11398,"ìĭľê°ĦìĿ´":11399,"ĠìĥĿê²¨":11400,"Ġìŀ¥êµĲ":11401,"ì°¨ìĿ´":11402,"ë¶Ħê²½":11403,"Ġë¶Īë§Į":11404,"ëĭ¬ëĿ¼ëĬĶ":11405,"Ġìĭ¤ìĪĺ":11406,"ìĹĪëĬĶì§Ģ":11407,"Ġê°ķê°Ħ":11408,"Ġê°ķíĸī":11409,"Ġíı¬ë¡ľ":11410,"Ġíı¬íĬ¸":11411,"ëª¨ë¡ľ":11412,"Ġìŀ¬ë¬´":11413,"ĠìĦľìĭł":11414,"Ġìĺ¬ë¦¬ëĬĶ":11415,"ĠìļĶíķľ":11416,"ĠìķĪëĵľ":11417,"ê¶ĮìĿĺ":11418,"ê¶ĮìĿĢ":11419,"Ġì¶Ķì²ľ":11420,"ĠíĻķìŀ¥":11421,"ĠìĻ¸ì³¤ëĭ¤":11422,"ĠíİĢ":11423,"ëĦ¤ìĨĮ":11424,"ìĦĿìĿĺ":11425,"ìĦĿìľł":11426,"ìĭ¬ìŀ¥":11427,"ere":11428,"íĴĪìĹĲ":11429,"Ġíĸīì§ĦìĿĦ":11430,"ĠëĲĺìĹĪëĭ¤ê³ł":11431,"Ġê´Ģê³ĦìŀĲìĿĺ":11432,"Ġì§ĳíļĮìĹĲ":11433,"Ġtroop":11434,"ëĵ¤ìĹĲê²ĮëĬĶ":11435,"Ġëĵ¤ë©°":11436,"ars":11437,"Ġëª»íĸĪì§Ģë§Į":11438,"Ġë¦¬ìĸ¼ë¦¬íĭ°":11439,"ë¯¸êµŃìĹĲìĦľ":11440,"ĠCl":11441,"Ġë³ĳìĤ¬ëĵ¤ìĿ´":11442,"ĠêµŃê°ĢìĿ¸":11443,"ĠìĤ¬ìļ©ëĲĺëĬĶ":11444,"Ġì§ģìĽĲëĵ¤ìĿĢ":11445,"ĠëłĪëħ¼":11446,"Ġë²Ħë§Ī":11447,"ĠìĿ¼ë³¸ê³¼":11448,"Ġìĸĳë³´":11449,"ĠìĸĳêµŃìĿ´":11450,"Ġê²½ìļ°ê°Ģ":11451,"Ġì·¨íķĺê³ł":11452,"Ġì·¨ê¸ī":11453,"Ġë¸Įë¡ľ":11454,"Ġê¹Ķ":11455,"´ëįĺ":11456,"ĠêµŃìłľìłģìĿ¸":11457,"ĠêµŃìłľìĽĲìŀĲëł¥ê¸°êµ¬":11458,"ì²ľìŀ¬":11459,"ìµľì´Ī":11460,"Ġíĥľìļ°ê³ł":11461,"ëŁ¼ë¹ĦìķĦ":11462,"Ġê°Ħíĺ¸":11463,"ĠíĺĦìŀ¬ëĬĶ":11464,"ĠíİĺìĿ´":11465,"Ġíİĺíį¼":11466,"íĥĪë¦°":11467,"Ġëª¨ëĳĲìĹĲê²Į":11468,"Ġì¹ľíĻĺê²½":11469,"ë²Ķíķľ":11470,"Ġëĭ¬ëŁ¬ë¡ľ":11471,"Ġìłķì¹ĺìĿ¸":11472,"Ġëĵ¤ìĸ´ìĺ¨":11473,"Ġë³¸ë¶Ģë¥¼":11474,"ĠìłĳìĪĺ":11475,"Ġì§ĦíĸīëĲł":11476,"ĠëģĿê¹Įì§Ģ":11477,"Ġë¬´ìŀ¥ìĦ¸ëł¥ìĿ´":11478,"ĠMinister":11479,"Ġì²«ëĤł":11480,"ì§ĢìĹŃìĿ¸":11481,"ìľĦìĽĲíļĮìĹĲ":11482,"ings":11483,"ëĭ¨ì²´ìĿĺ":11484,"ĠíķŃê³µìĿĢ":11485,"ĠìĥģíĥľëĿ¼ê³ł":11486,"Ġë£¨ìĿ´":11487,"ĠíĤ¨":11488,"ĠëıĮìķĦìĺ¬":11489,"ĠëĪĦë¦¬":11490,"ĠTVë¥¼":11491,"row":11492,"Ġë³´ìĹ¬ì¤Ģ":11493,"Ġëį°ìĿ´ë¹Ĺ":11494,"ë°Ľì¹¨":11495,"Ġíİ¸ì§Ģë¥¼":11496,"Ġê¸´ìŀ¥ìĿ´":11497,"ĠíĶĦë¡ľê·¸ëŀ¨ìĿ´":11498,"ĠíĶĦë¡ľê·¸ëŀ¨ìĿĢ":11499,"Ġìļ©ìĿĺìŀĲëĵ¤ìĿĦ":11500,"Ġìĸ´ë¦°ìĿ´ë¥¼":11501,"Ġëħ¸ëł¥íķł":11502,"ĠëĤ©ì¹ĺíķľ":11503,"ĠëĤ©ì¹ĺë²Ķ":11504,"Ġì°¨ì§Ģíķľ":11505,"Ġíħľ":11506,"Ġê±°ëŀĺëĲĲëĭ¤":11507,"ĠëıĪìĿ´":11508,"ĠíĸīëıĻìĿ´":11509,"Ġì°¸ê°Ģíķľ":11510,"ĠìĪĺê°ĲëĲľ":11511,"ĠìķĦìĭľìķĦìĿĺ":11512,"ĠíĮĲê²°ìĿ´":11513,"ĠíĻĺê²½ìĹĲ":11514,"ĠìłĦíĪ¬ë¥¼":11515,"Ġìķ¤ëįĶ":11516,"Ġhas":11517,"Ġë²Įìĸ´ì§Ģê³ł":11518,"Ġê°ķíĻĶíķł":11519,"Ġë¶ĦìĦĿê°Ģëĵ¤ìĿĢ":11520,"ĠìľĦìĽĲíļĮìĿĺ":11521,"Ġ1986":11522,"ìĸ¼ë§Ī":11523,"ĠìĪĺìļ©íķł":11524,"Ġê¸°ëĭ¤ëł¤":11525,"Ġë³´ìľłíķľ":11526,"ĠìłĦë¬¸ê°ĢìĿ¸":11527,"ìĺ¤ëĬĺëĤł":11528,"ĠìķĬìķĦëıĦ":11529,"ĠìĦ¼íĦ°ìĿĺ":11530,"Ġë³´ìĪĺì£¼ìĿĺ":11531,"Ġë§Īë¬´ëĵľ":11532,"Ġë¶Ħìķ¼ìĹĲ":11533,"Ġêµ¬ì²´ìłģ":11534,"Ġë¶ĦìŁģìĿĦ":11535,"Ġì§ķìĹŃíĺķìĿĦ":11536,"Ġì»¨íį¼":11537,"ĠìłľìĻ¸íķĺê³ł":11538,"Ġë¬´ìŀ¥ìĦ¸ëł¥ìĿĺ":11539,"ĠìĻľê³¡":11540,"Ġìī¬ìļ´":11541,"Ġì£¼íķľë¯¸êµ°":11542,"Ġì£½ìĿĮìĹĲ":11543,"ê°Ķìľ¼ë©°":11544,"ĠìĪĺë°ĺìĿĢ":11545,"earch":11546,"able":11547,"ĠìĤ¬ë¡Ģê°Ģ":11548,"Ġê½ĥ":11549,"ĠìĹ°ëĿ½ìĿĦ":11550,"ëĸ¨ìĸ´":11551,"ublic":11552,"ìĽĶëĵľì»µ":11553,"Ġê¸Ģë¡ľë²Į":11554,"ëĤ´ë©°":11555,"ĠíħĮìĿ´íĶĦë¥¼":11556,"Ġëªħë°±íķľ":11557,"ĠAIG":11558,"ê°ĢìŀĲì§Ģêµ¬":11559,"Ġìĵ°ì´¨ìĦ±":11560,"Ġëĭ¹ë¶ĢíĸĪëĭ¤":11561,"Ġë¹ħíĨłë¦¬ìķĦ":11562,"íģ´ëĿ¼íĺ¸ë§Ī":11563,"ê½ĥ":11564,"ëĤ´ë¬´ë¶Ģ":11565,"ĠAssociation":11566,"ĠEngland":11567,"64":11568,"67":11569,"CIA":11570,"cl":11571,"iver":11572,"my":11573,"ë±Ģ":11574,"Ġy":11575,"ĺëĭ¤":11576,"ìĦ¹ìĬ¤":11577,"ë¥´ëł":11578,"ì§Ģìļ°":11579,"ìĦľë¹ĦìĬ¤":11580,"ë¦¬íĶĦëĬĶ":11581,"ìĿ¸ë¯¼":11582,"íķ´ìĦľëĬĶ":11583,"ëłģ":11584,"ĠëĮĢìłĦ":11585,"êµŃë¦½":11586,"ìĭľìĬ¤":11587,"ìĭľìŀ¥ìĹĲìĦľ":11588,"ê·¸ëĿ¼":11589,"ê·¸ì¤ĳ":11590,"Ġíķ´ë°©":11591,"Ġê°ĢëıĻ":11592,"ìłľìŀĦìĬ¤":11593,"ìĪĺìĪł":11594,"Ġê²½ê³Ħë¥¼":11595,"Ġì¤ĳìķĻìĿĢíĸī":11596,"Ġë³´ëĭ¤ëĬĶ":11597,"Ġë³´ê±´ë¶Ģ":11598,"ĠìĿ¸ê¸°ê°Ģ":11599,"íļĮìŀ¥ìĿĢ":11600,"Ġì§ľ":11601,"ìľĦìĦ±":11602,"ê´Ģê³¼":11603,"íģ¬ë¦¬íĬ¸":11604,"ìļ°ëĵľ":11605,"ìļ°ìĦĿ":11606,"ĠìĨĮëħĦìĿ´":11607,"ĠìķĬê²łëĭ¤ëĬĶ":11608,"ë¯¸ë¥¼":11609,"Ġìĺ¤ìĬ¤ì¹´":11610,"ĠìĿĺìĤ¬ëĵ¤ìĿĢ":11611,"ìĨĮìĭľìĹĲ":11612,"Ġìłľìłķ":11613,"Ġíķĺëĵľ":11614,"ĠíķĺìĻĢìĿ´":11615,"ì¡°ìķ½":11616,"Ġëª¨ìķĺëĭ¤":11617,"ĠëıĻë¶ģ":11618,"Ġìĺģìŀ¥":11619,"ëł¥ìĿĺ":11620,"ë¬´ê¸°":11621,"Ġê³łìĿĺ":11622,"ĠíĽĦì§ĦíĥĢìĺ¤":11623,"ê°ľìĿ¸":11624,"ê³µê²©ìĿĦ":11625,"Ġëĭ¹ìĿĺ":11626,"Ġê²°íķ©":11627,"Ġìŀ¥ë¹Ħ":11628,"ĠíĨµë³´":11629,"ĠìĭłìĿĺ":11630,"Ġê±°ì¹ľ":11631,"Ġê±°ë¦¬ìĹĲìĦľ":11632,"´ëı¼":11633,"ëĶĶìĸ¸":11634,"Ġìĭ¤ìĪĺë¡ľ":11635,"ĠìĹĲíĽĦëĵľ":11636,"Ġíı¬íļį":11637,"ĠíĶ¼íĬ¸":11638,"Ġì°¨ìĿ´ë¥¼":11639,"Ġë¬¸ìĦľë¥¼":11640,"Ġìĺ¬ë¦¬ê³ł":11641,"ĠìļĶìĥĪ":11642,"Ġì§Ħë³´":11643,"ĠìŀĲìĭłìĹĲ":11644,"ĠêµĲìłĦìĿĦ":11645,"Ġìŀĳê³¡":11646,"Ġëĭ¬ëĿ¼ê³ł":11647,"Ġë¡±":11648,"ĠìĤ¬ë§ĿíķĺëĬĶ":11649,"ìĦĿë°©":11650,"Ġ74":11651,"Ġ78":11652,"ĠíĸīìĦ±":11653,"ê°ĲìĿĢ":11654,"org":11655,"ëĤ´ìĹĲ":11656,"Ġë¡ľëĵľë¦¬ê²Į":11657,"ĠëĿ¼íĺ¸":11658,"ĠìĥĪë¡Ńê²Į":11659,"Ġë¦¬ìļ°":11660,"Ġë¦¬ë¸Į":11661,"Ġê´Ģëł¨íķĺìĹ¬":11662,"Ġìķ¼êµ¬":11663,"ĠêµŃê°Ģë¹Ħìĥģ":11664,"ĠìĺģíĻĶìĹĲìĦľ":11665,"Ġíĺĳëł¥ìĿĦ":11666,"Ġìĸ¸ëįķ":11667,"ĠìĭľìŀĳëĲł":11668,"Ġê³µê²©íķł":11669,"ìłĢëĦĲ":11670,"ĠíħĮëŁ¬ì§ĢìĽĲ":11671,"ĠìŀĦìĥģ":11672,"ê»ı":11673,"Ġìµľê³łì¹ĺë¥¼":11674,"Ġìµľê³łê²½ìĺģ":11675,"ĠìĸĳíĤ¤":11676,"ĠìĦłê±°ê´Ģë¦¬":11677,"Ġì§Ģì§ĢìŀĲëĵ¤ìĹĲê²Į":11678,"ĠíĬ¹ìĿ´íķľ":11679,"Ġë¸ĮëĿ¼ìĿ´ìĸ¸":11680,"íħĮë¦¬ìķĦ":11681,"íħĮëĭĪìĬ¤":11682,"ì²ľìĸµ":11683,"ise":11684,"ĠëĨĴìĿ´ìĿĺ":11685,"Ġì¢ħìĤ¬":11686,"ìĭľíĤ¤ì§Ģ":11687,"ĠìĿ´ëŀĢìĿĦ":11688,"Ġout":11689,"ĠìłĲìľł":11690,"ĠìĿ´ìĬ¤ëĿ¼ìĹĺìĿĢ":11691,"Ġê°Ĳëıħìĥģ":11692,"Ġëĸ¨ìĸ´ì§Ī":11693,"Ġëĵ¤ìĸ´ìĻĢ":11694,"ëĤ¨ë¶ģíķľ":11695,"ĠFRB":11696,"ĠMBC":11697,"ëĵ±ìĿ´":11698,"ĠPro":11699,"ĠPPP":11700,"ĠìľłëŁ½ê³¼":11701,"ĠìĿ¸ëıĦì£¼ìĿĺìłģ":11702,"ĠNBA":11703,"Ġë²łëĦ¤ëĶķíĨł":11704,"Ġì¼Ģë¦¬":11705,"Ġëī´ìļķìĿĺ":11706,"Ġëī´ìļķì£¼":11707,"ĠëıĦìĭľë¡ľ":11708,"Ġìłľê³µíķĺê³ł":11709,"ë¬´ë¶ĢëĬĶ":11710,"Ġëĭ¨ì²´ë¥¼":11711,"ĠEx":11712,"ĠìĿ´ìĸ´ì§Ī":11713,"ĠìĿ¸ìłķíķĺì§Ģ":11714,"Ġíİ¸ìķĪ":11715,"ĠìĿ´ë¦ĦìĿĺ":11716,"ĠíĶĦë¡ľê·¸ëŀ¨ìĿĺ":11717,"Ġìļ©ìĿĺìŀĲëĬĶ":11718,"Ġì°½ì¡°":11719,"ĠëıĻë¬¼ìĽĲ":11720,"Ġìľłì§Ģíķł":11721,"Ġê¸°ìĹħëĵ¤ìĿ´":11722,"Ġê¸°ìĨĮíĸĪëĭ¤":11723,"ë§Įëĭ¬ëŁ¬ìĿĺ":11724,"Ġê°ĪëĿ¼":11725,"ĠìłĦì²´ìĹĲ":11726,"ĠìĦłíĥĿíķł":11727,"íĹĪë¦¬ì¼ĢìĿ¸":11728,"ĠëĤ¨ìķĦìŀĪëĭ¤":11729,"Ġíı´ë¦¬":11730,"ĠìĿĺë¯¸ê°Ģ":11731,"ìĤ¬ê±´ìĹĲ":11732,"ìĸµëĭ¬ëŁ¬ë¥¼":11733,"Ġìĭ¤íĮ¨íķľ":11734,"ĠíŀĪíĬ¸":11735,"Ġì§ĢìĨįìłģìľ¼ë¡ľ":11736,"Ġê²½ìĺģì§Ħ":11737,"ĠìĿ´ìłľëĬĶ":11738,"ĠìĨ¡ê¸Ī":11739,"ĠíĶĮë¡ľë¦¬ëĭ¤ì£¼":11740,"illion":11741,"Ġê²Ģìĥīìĸ´":11742,"ĠêµĲëıĦìĨĮìĹĲìĦľ":11743,"Ġë³µê·Ģíķł":11744,"Ġë¶Ħìķ¼ìĹĲìĦľ":11745,"ĠìłĦêµŃìłģìľ¼ë¡ľ":11746,"Ġìĸ´ë¨¸ëĭĪìĻĢ":11747,"ì§Ģê¸ĪìĿĢ":11748,"ĠíĮĮìĹħìĹĲ":11749,"Ġìĭ¶ìĸ´íķľëĭ¤":11750,"Ġìłĳì´īìĿĦ":11751,"ĠíĮĮê´´ëĲł":11752,"ĠìĽĢì§ģìŀĦìĿ´":11753,"ĠìĹ¬ìĻķìĿĺ":11754,"Ġë¶Ħëħ¸ë¥¼":11755,"Ġê°¤ëŁ°":11756,"Ġë¶ģê·¹ê³°":11757,"ĠNATO":11758,"ĠìķĮëłīìĬ¤":11759,"Ġê½¤":11760,"ĠëĤĺëĪł":11761,"ĠíĶ¼ëŀįëĲľ":11762,"Ġê¶Įê³łíĸĪëĭ¤":11763,"Ġìļ°ì£¼ë¹ĦíĸīìĤ¬":11764,"Âł200809":11765,"Ġëĭ¨ìĪľíķľ":11766,"ĠëĴ·ë°Ľì¹¨":11767,"Ġë¡¤ë§ģ":11768,"ĠìĬ¤íĶĦë§ģ":11769,"ĠíħĶëłĪë¹Ħ":11770,"ĠëłĪìĿ´ìĬ¤ë¥¼":11771,"Ġê°ĢëĤľíķľ":11772,"Ġê¸Īë©Ķëĭ¬ìĿĦ":11773,"ĠìĹ°ë°©ì¤Ģë¹ĦìłľëıĦìĿ´":11774,"eople":11775,"ĠìľĦìĬ¤ì½ĺìĭł":11776,"Ġê¸°ë»Ĳ":11777,"ĠêµŃìłľìļ°ì£¼ìłķê±°":11778,"76":11779,"EX":11780,"NP":11781,"President":11782,"Sp":11783,"TI":11784,"aid":11785,"air":11786,"ration":11787,"the":11788,"Â´":11789,"ãĢ":11790,"ëİ":11791,"Ġë·":11792,"ìĹł":11793,"ìĿ´ëĵł":11794,"íķĺëŁ¬":11795,"ìķī":11796,"ëĵ¤ë³´ëĭ¤":11797,"ìĹĲìĦľë¶ĢíĦ°":11798,"ĠëĮĢê¸°ìĹħ":11799,"ĠëĮĢì£¼êµĲ":11800,"ìŀĲì§Ģ":11801,"ĠìĿ´ìĻ¸":11802,"ìŀ¥ì¹ĺ":11803,"ìĿ¼ìĹĲìĦľ":11804,"Ġì§ĢìĪĺê°Ģ":11805,"ìķĦíĭ°ìķĦ":11806,"ê³¼ìłķ":11807,"ĠìĪĺëĿ½":11808,"ĠìĪĺì»·":11809,"Ġêµ¿":11810,"ĠìłĦë¶Ģ":11811,"ëĮĢìĽĲëĵ¤ìĿĢ":11812,"ëį¤":11813,"Ġì£¼ìĿ¸ìĿ´":11814,"ë§ĮëªħìĹĲ":11815,"ĠìľĦê¸°ê°Ģ":11816,"Ġë§Ĳë¡ľ":11817,"Ġê¸°ì¡°":11818,"Ġê¸°ëĮĢë¥¼":11819,"ĠìĭľíĮĲ":11820,"ìĪĺì¤Ģ":11821,"Ġìłķìľł":11822,"Ġì¤ĳë°ĺ":11823,"íķłë§Įíķľ":11824,"ìłĦìĦł":11825,"Ġë°ľëł¹":11826,"Ġë°ľê¸ī":11827,"ë§Īì§Ģë§ī":11828,"Ġê³µíķĻ":11829,"Ġê´ĢìłĲìĹĲìĦľ":11830,"Ġëĭ¤ìĨĮ":11831,"íĸīìłķ":11832,"ëĲľëĭ¤ëĬĶ":11833,"Ġìĺ¤ë¥¼":11834,"ĠìĹ¬ìĤ¬ê°Ģ":11835,"íĶĦëŀĳ":11836,"Ġì¡°ìĬ¹íĿ¬":11837,"ìľłê¶Į":11838,"íĥĢìĬ¤":11839,"Ġë§ĪìĿ´ìĬ¤":11840,"ë¬´ê²Į":11841,"Ġê³łìĿ´ì¦Īë¯¸":11842,"ìĬµìĿĦ":11843,"ê²½ìĿ´":11844,"Ġë°©ì¹ĺ":11845,"Ġìļ°ê°Ħëĭ¤":11846,"Ġê°ľìĦ¤":11847,"Ġê°ľìĦłìĿĦ":11848,"Ġëĭ¹ìĿ¼":11849,"Ġë°Ķíķĺë§Ī":11850,"ĠëıĦëįķ":11851,"Ġìŀ¥ìĨĮìĹĲìĦľ":11852,"Ġìŀ¥ë¹Ħë¥¼":11853,"ĠëĤ¨ìŀĲìĿĺ":11854,"Ġë¬´íģ¬":11855,"Ġêµ¬ê²½":11856,"íĮĮìĿ´":11857,"íĮĮìĿĺ":11858,"ĠìĭłìĤ¬":11859,"ìŀĳìľ¼ë¡ľ":11860,"ìŀĳëħĦ":11861,"Ġë°ĺìłĦ":11862,"ĠëĤ´ëĬĶ":11863,"ĠëĤ´ë¦¬":11864,"ĠìĤ¬ëŀĮê³¼":11865,"Ġíı¬ì¸ł":11866,"ĠíĶ¼ë¶Ģ":11867,"ĠíĶ¼ìĭł":11868,"Ġìŀ¬ë¬´ìŀ¥ê´ĢìĿĢ":11869,"Ġìŀ¬ë¬´ìŀ¥ê´Ģ":11870,"ëį°ë²Ħ":11871,"ĠíĹĺ":11872,"ë²Ħê·¸ëĬĶ":11873,"ëĦ¤ëįľ":11874,"ë²łë¦¬":11875,"ì²ŃìĿ´":11876,"ì²ĺë¦¬":11877,"Ġë³´ëıĦíķľ":11878,"Ġì°¸ë°°":11879,"ëĬ¥íķľ":11880,"ĠíĻĶìĹ¼":11881,"Ġìĭ¬ë¬¸ìĿĦ":11882,"ĠêµŃê°Ģëĵ¤ìĹĲ":11883,"enti":11884,"ĠìķŀìĦł":11885,"ìĬ¤íĥĦë¶Ī":11886,"Ġë¬¼ê°Ģ":11887,"Ġê³µê²©íĸĪëĭ¤":11888,"Ġê²½ìłľìĦ±ìŀ¥":11889,"ĠìĤ¬ìļ©ìĿĦ":11890,"Ġíķľëĭ¤ë©´":11891,"íį¼ëĵľ":11892,"ĠíĬ¹ìĤ¬ëĬĶ":11893,"Ġë°ķê²©":11894,"Ġë³µìĽĲ":11895,"Ġì¤ĦìĿ´ê³ł":11896,"Ġì¤ĦìĿ´ê¸°":11897,"ìĭľíĤ¤ëł¤":11898,"ìĭľíĤ¤ëĬĶëį°":11899,"ĠíķĦìļĶíķł":11900,"ĠíķĦìļĶìĦ±ìĿĦ":11901,"ĠìĹĨëĭ¤ë©°":11902,"Ġê¸°ìŀĲìĿĺ":11903,"Ġë³¸ëĵľ":11904,"ĠíĻķìĿ¸íķĺê³ł":11905,"ĠíĻķìĿ¸íĸĪëĭ¤ê³ł":11906,"ĠëĶĶíĬ¸ë¡ľìĿ´íĬ¸":11907,"Ġë²ĪìĹŃ":11908,"Ġê°Ģì¡±ìĹĲê²Į":11909,"Ġë¸Ķë¦¬":11910,"Ġê´ĳìŀ¥":11911,"ĠíĸĪìĿĦ":11912,"Ġê°ģêµŃ":11913,"Ġcom":11914,"Ġíĭ¸":11915,"ĠìļĶì²Ńíķľ":11916,"ìħĺìĿĦ":11917,"ĠìłĪëıĦ":11918,"ĠìłĪìķ½":11919,"ĠíĮĲë§¤ë¥¼":11920,"Ġê¸īê²©íŀĪ":11921,"ëłĮìĿĢ":11922,"ĠíıīíĻĶìłģìĿ¸":11923,"ĠìĿ´ìĸ´ì¡Įëĭ¤":11924,"ĠëĤ¨ë¶ĢìĿĺ":11925,"Ġíĺ¸ì£¼ìĺ¤íĶĪ":11926,"Ġì¸¡ìĿ´":11927,"ĠìĿ´ìĹĲìķŀìĦľ":11928,"Ġìļ©ìĿĺìŀĲìĿĺ":11929,"Ġì°©ì·¨":11930,"Ġë§¥ìºĶ":11931,"Ġë²Ķì£ĦìĹĲ":11932,"ĠìĤ¬íļĮìĹĲ":11933,"Ġê±°ë¶Ģíķľ":11934,"Ġë°ĿíĺĶìľ¼ëĤĺ":11935,"ĠíĮĲê²°ìĹĲ":11936,"ë¯¼ì£¼ëĭ¹ìĿĢ":11937,"ung":11938,"ĠìĪĺë°±ëªħìĿ´":11939,"ëł¸ëįĺ":11940,"ĠíĹ¬ë¦¬":11941,"amp":11942,"NATO":11943,"ĠìķĮì¹´ìĹĲëĭ¤ê°Ģ":11944,"ìĦ¼íĦ°ëĬĶ":11945,"ìĽłëĭ¤ê³ł":11946,"ĠìĤ¬ìĥģìŀĲê°Ģ":11947,"ĠìłĦëĭ¬íĸĪëĭ¤":11948,"ĠìĽ¨ìĿ¸":11949,"Ġ1987":11950,"Ġê³łëł¤íķ´":11951,"ëªĩëªĩ":11952,"ĠëĶ°ëĿ¼ìĦľ":11953,"Ġelec":11954,"ĠìĿ¼ìĸ´ëĤĺì§Ģ":11955,"ìľĦìĽĲìŀ¥":11956,"ĠìķĦì¹´ëį°ë¯¸ìĥģ":11957,"Ġë°Ķëĭ¤ë¡ľ":11958,"ìĥģíĥľë¥¼":11959,"ĠíıŃëł¥ìĤ¬íĥľë¡ľ":11960,"Ġê¸°ì¤Ģê¸Ī":11961,"ĠëĪĦêµ¬ëıĦ":11962,"Ġë¶ĪìķĪíķľ":11963,"ĠìĤŃê°Ĳ":11964,"Ġê³µìĤ°ì£¼ìĿĺ":11965,"ourn":11966,"Ġê¸°ë°ĺìĿĦ":11967,"Ġíĺķíĥľë¡ľ":11968,"Ġë¹ĽìĿĦ":11969,"ĠìĤ°ë¶ĪìĿ´":11970,"Ġëĭ´ë°°ë¥¼":11971,"Ġëī´ë":11972,"ĠíĹ¤ëŁ´ëĵľëĬĶ":11973,"Ġê±°ì§ĵë§ĲìĿĦ":11974,"ìĭľìľĦëĮĢëĬĶ":11975,"Ġëª¨ë¥´ì§Ģë§Į":11976,"Ġíģ´ëłĪìĿ´":11977,"ìĪĺìĤ¬êµŃ":11978,"ĠëĮĢëĭ¤ìĪĺ":11979,"Ġëĭ¨ìĪľíŀĪ":11980,"ĠìĭľìĿ¸íĸĪëĭ¤":11981,"Ġìĥģê³µìĹĲìĦľ":11982,"ĠìĻ¸ë¬´ìĦ±":11983,"ìĸ´ë³´":11984,"Ġë¬´ì£Ħë¥¼":11985,"ĠíĿ°ìĥī":11986,"Ġì¤Ħê¸°ìĦ¸íı¬":11987,"Ġê²¨ëĥ¥íķľ":11988,"ë°´ëĵľ":11989,"ĠëĭīìĬ¨":11990,"ëĥīíĤ¤":11991,"Ġì¹´ë¥¼ë¡ľìĬ¤":11992,"ecretary":11993,"ĠìĹĺë¦¬ë²łìĿ´íĦ°":11994,"ëłĪìĬ¤íħĮë¡¤":11995,"44":11996,"65":11997,"FDA":11998,"MA":11999,"NL":12000,"New":12001,"ele":12002,"ox":12003,"ool":12004,"¥ê±°":12005,"Ġ-":12006,"íķĺìŀĲëĬĶ":12007,"ì§Ģë©´":12008,"ë¦¬íķľ":12009,"ìĬ¤íı¬":12010,"ìĬ¤ì½ľ":12011,"ëĿ¼ë©´":12012,"ëĤ´ëł¤":12013,"ĠëĮĢëŀµ":12014,"ìŀĲë¥´":12015,"ìĭľê¹Įì§Ģ":12016,"ĠìĿ´ë¥´ëł":12017,"ĠìĤ¬íļĮìĿĺ":12018,"Ġëĭ·":12019,"ë¶ĢëĮĢ":12020,"ĠìĪĺìĤ¬ê°Ģ":12021,"ĠìŀĪê¸°ë¥¼":12022,"Ġëª½":12023,"ìĥģìĹħ":12024,"ìĸ´ì¡Įëĭ¤":12025,"ê·¸ëłĪ":12026,"ëĮĢì±ħ":12027,"ì£¼ìĿ¼ìĹĲ":12028,"Ġë¯¸ìħĢ":12029,"ë§ĮëªħìĿĦ":12030,"ë§Įê°ľìĿĺ":12031,"ĠìľĦì¶ķ":12032,"ĠìĭľìĭłìĿĢ":12033,"ĠìłķìĭĿ":12034,"íĻĶëĲł":12035,"ëħĦíĺķìĿĦ":12036,"Ġë³´ìĥģìĿĦ":12037,"Ġë³´ìĺĢëĭ¤ê³ł":12038,"ĠìŀĲêµŃìĿĺ":12039,"Ġíķľëĭ¬":12040,"ĠìĸĢ":12041,"Ġë¶Ģë¥´ëĬĶ":12042,"Ġì§Ŀ":12043,"ĠìĿ¼íķł":12044,"ĠìĬĽ":12045,"ìļ°ë©°":12046,"ĠìĨĮìĭ¤":12047,"Ġëĭ¤ëħ":12048,"Ġìľłíķ´":12049,"íı¼":12050,"ë¹ĦìķĪ":12051,"ĠìĹ¬ë¶Ģ":12052,"Ġì¡°ìŀ¥":12053,"Ġë¯¸êµŃìĿ¸ëĵ¤ìĿĢ":12054,"ĠìłľìĿ¼":12055,"ĠëĤĺìĦ°":12056,"ìĦ¸ì§ĢëĬĶ":12057,"ĠíķĺëįĶëĿ¼ëıĦ":12058,"ì¡°ê±´":12059,"Ġëª¨íĦ°":12060,"ĠìĺģìĽĲ":12061,"Ġìĺģê´ĳ":12062,"ì²´ëĭĪëĬĶ":12063,"Ġë°©ìĭĿìĿĦ":12064,"ĠìĹĨìĹĪëįĺ":12065,"ĠìĥĿìĦ±":12066,"ĠëıĦìĤ´":12067,"ĠìĦ±ì§ģ":12068,"Ġìŀ¥ê¸°ê°Ħ":12069,"ìĺĢìľ¼ëĤĺ":12070,"ĠíĮĮë°Ķë¡ľ":12071,"ê¸ĪìĿĢ":12072,"Ġ67":12073,"Ġìłķë¶Ģêµ°ìĿ´":12074,"Ġìĭłë°ľìĿĦ":12075,"ê¹ĮìļĶ":12076,"ë¶ĦìĦĿ":12077,"ì¤ĳìĿ´ëĭ¤":12078,"Ġë°ĺíĻĺ":12079,"Ġê°ĲëŁī":12080,"Ġíı¬ìľł":12081,"ëª¨ë¥¼":12082,"ĠíĶ¼ìķĦëħ¸":12083,"Ġìŀ¬ëĬ¥":12084,"Ġì§Ħìĥģ":12085,"Ġìķ½ê°ĦìĿĺ":12086,"ĠíİĦ":12087,"ĠìĬ¹ìłĲ":12088,"Ġ1950":12089,"Ġëªħëĭ¨ìĹĲìĦľ":12090,"Ġë¶ģíķľê³¼ìĿĺ":12091,"Ġíĺ¸ë¥´ëª¬":12092,"Ġë²ĮìĿ´":12093,"Ġì¤¬":12094,"Ġ86":12095,"Ġë¡ľë§¨":12096,"ĠíķľêµŃêµ°":12097,"ĠíĥĢê³Ħ":12098,"ĠíĥĢë°Ģ":12099,"Ġíķłì§Ģ":12100,"ì¢ħìĿ´":12101,"Ġì²ĺíĺķ":12102,"ĠìłģìĿĳ":12103,"ĠíĺĳìłķìĿĦ":12104,"Ġë¬¼ê±´ìĿĦ":12105,"ĠíķĦìĪĺ":12106,"ĠAc":12107,"ĠëŁ¼":12108,"íİĺëįĶ":12109,"ĠìŀĦê¸°ê°Ģ":12110,"ë¥ĺê°Ģ":12111,"ĠìķĦìĿ´ëıĮ":12112,"ĠìĦłê±°ê°Ģ":12113,"Ġì·¨íķĺì§Ģ":12114,"Ġì§ĢëıĦìŀĲëĵ¤ìĿĦ":12115,"Ġë©Ķëĵľ":12116,"ĠíĨłëĮĢë¡ľ":12117,"ĠìĭľìľĦë¡ľ":12118,"ĠëĮĢìĦłì£¼":12119,"ĠìĿ´ìĬ¤ëĿ¼ìĹĺìĿĦ":12120,"Ġì¢ĭëĭ¤":12121,"ìĦ¼ìĿĢ":12122,"ĠìķĦëĭĪê³ł":12123,"ĠìĨĲìĭ¤":12124,"ĠìĨĲìĥģìĿĦ":12125,"ĠëĤłìĿ´":12126,"ĠìĤ¬ê³łìĿĺ":12127,"ĠíĻķìĿ¸íķĺëĬĶ":12128,"Ġë²Īíĺ¸":12129,"Ġê°Ģì¡±ëĵ¤ìĹĲê²Į":12130,"ĠíĶĦëŀĳìĬ¤ìĹĲìĦľ":12131,"ĠëģĿëĤĺëĬĶ":12132,"Ġìĸ»ì§Ģ":12133,"Ġ180":12134,"Ġì¹¨ìĪĺ":12135,"Ġì¹¨ë¬µ":12136,"íıīìĿĦ":12137,"Ġë¶ĢìĥģìŀĲê°Ģ":12138,"Ġì¿łì¦Ī":12139,"ĠìĺĪìĥģëĲĺê³ł":12140,"Ġìĭ¤ìĭľëĲł":12141,"Ġë£¨ìķĦìĸĦ":12142,"ĠëıĮìķĦìĺ¨":12143,"ĠëıĦìĭľë¥¼":12144,"Ġìļ°ëł¤íķĺëĬĶ":12145,"Ġìŀ¡ìĿĢ":12146,"ĠíĥĪëłĪë°ĺìĿ´":12147,"ĠìĪĺìĥģìŀĲìĿ¸":12148,"ìĹ´ìĹĲ":12149,"ĠìĥĿìĤ°íķĺëĬĶ":12150,"Ġë³´íĺ¸íķĺê³ł":12151,"´ë°ĺ":12152,"Ġëħ¼ìĿĺíĸĪëĭ¤":12153,"Ġìĭ¶ëĭ¤ê³ł":12154,"ĠìłľìŀĳëĲľ":12155,"ĠíĤ¤ìĬ¤":12156,"íķĦëįĶ":12157,"ì¸µìĿ´":12158,"ì¸µìĹĲ":12159,"Ġìľłëªħíķĺëĭ¤":12160,"ustr":12161,"ĠëĬĲê¼Īëĭ¤":12162,"Ġíģ¬ë¦¬ìĬ¤íĭ°":12163,"Ġì°¸ìĹ¬íĸĪëĭ¤":12164,"Ġìŀ¬íĮĲìĹĲ":12165,"Ġë°¤ìĥĪ":12166,"Ġë¶ĢìĿ¸ìĿ¸":12167,"Ġê³µê¸īìĿ´":12168,"ĠíĦ°íĤ¤ìĿĺ":12169,"ìĬĪíį¼":12170,"ĠìĽ¹ìĤ¬ìĿ´íĬ¸ëĬĶ":12171,"Ġì§ķê³Ħ":12172,"ĠíļĮìĤ¬ëĵ¤ìĿ´":12173,"Ġëª¸ê°Ĵ":12174,"ĠìĽĮìĭ±íĦ´ìĿĺ":12175,"Ġíį¼ê±°ìĬ¨":12176,"Ġê¸°ê°ĦìĹĲ":12177,"ì±Ħê°Ģ":12178,"Ġê°ķíĻĶíķĺê³ł":12179,"Ġìŀ¬ê°ľíķł":12180,"Ġëĳĺì§¸":12181,"ĠìĹĶíĦ°":12182,"ìĤ¬ê³łê°Ģ":12183,"ìŀĲíļĮëĭ´ìĿ´":12184,"ĠíĸīìĤ¬ìĹĲìĦľ":12185,"ëŁ¬ìĭľìķĦëĬĶ":12186,"Ġêµ¬íĺ¸ë¬¼":12187,"ĠíķľëĤĺëĿ¼ëĭ¹ìĿĢ":12188,"ĠìĿ¸êµ¬ìĿĺ":12189,"Ġìĭľì¦ĮìĿĦ":12190,"ĠìĤ¬ëĿ¼ì¡Įëĭ¤":12191,"ìĭľì¼ľìķ¼":12192,"ìĪĻíķľ":12193,"ĠìĬ¬ë¡ľ":12194,"ĠëĮĢë¹Ħíķ´":12195,"Ġê¸°ì¤ĢìĿĦ":12196,"Ġìĭłë¢°ë¥¼":12197,"ĠìķĦë¬´ê²ĥëıĦ":12198,"ĠìĻ¸ë¬´ë¶ĢëĬĶ":12199,"Ġcont":12200,"ë¥´ëıĦê°Ħ":12201,"ĠìĭłìĨįíķľ":12202,"ĠìĬĪíį¼ë³¼":12203,"ĠëĤĺëĪ´ëĭ¤":12204,"Ġë¿Įë¦¬":12205,"Ġë°Ķê¿Ķ":12206,"ìŀĳìĹħìĿ´":12207,"Ġëª¨ë¥´ê²łëĭ¤":12208,"ĠìĦľíķľìĹĲ":12209,"ĠíĿĺëŁ¬":12210,"Ġë¬´ìĤ¬ì½¸ëĿ¼":12211,"Ġëļľ":12212,"ission":12213,"ĠíŀīìĬ¤ìĿĺ":12214,"Ġìŀ¬íĻľìļ©":12215,"Ġìļ©ëĤ©íķĺì§Ģ":12216,"ìĹ¬ë¡łì¡°ìĤ¬":12217,"Ġìĥģê´ĢìĹĨìĿ´":12218,"ĠìĦľë¸ĮíĶĦëĿ¼ìŀĦ":12219,"Ġì²łìłĢíŀĪ":12220,"ĠëĿ¼ìĿ´ë²ĮìĿ¸":12221,"ĠìĺĲì¹ľ":12222,"Ġìĺ¤ì¼ĢìĬ¤íĬ¸ëĿ¼":12223,"ĠìķĮë°ĶëĭĪìķĦ":12224,"Ġìĸ´ëĳĲìļ´":12225,"Ġmilitary":12226,"Ġì¹ĺìĨŁ":12227,"ĠíĹ¬ë¦¬ì½¥":12228,"¥ê±°ë£¨":12229,"IT":12230,"be":12231,"ho":12232,"¡ìĿĢ":12233,"ë¿":12234,"Ġ.":12235,"ĦìĥĪ":12236,"īį":12237,"į°":12238,"ĠìŁģ":12239,"ëĭĽ":12240,"ë¦¬íŀĪ":12241,"ë¦¬ìĬ¤ëĬĶ":12242,"ë§ŀ":12243,"ìĬ¤íĶĦ":12244,"ìĬ¤íİłëĵľ":12245,"ëĿ¼ë¡ľ":12246,"ëĿ¼ëħ¸":12247,"ĠëĮĢíħĮëŁ¬":12248,"ĠëĮĢíļĮìĹĲ":12249,"ìŀĲìĭłìĿĺ":12250,"ĠìĪĺì¡±":12251,"ĠìĪĺìļĶìĿ¼ìĹĲ":12252,"ĠìłĦíķ©ëĭĪëĭ¤":12253,"ìĻľ":12254,"ëĤĺìĿ´ì§Ģë¦¬ìķĦ":12255,"ìĸ´ëĬĲ":12256,"ëĮĢìĦł":12257,"ì£¼ê¸°":12258,"Ġë¯¸ëģĦëŁ¬":12259,"ĠìķĦì§Ģ":12260,"ĠìķĦëĤĺ":12261,"ĠìķĦì¹¸":12262,"Ġê°Ģêµ¬":12263,"Ġì£¼ê°Ģê°Ģ":12264,"Ġë§ĲëĿ¼ê³ł":12265,"Ġê¸°ë¶Ħ":12266,"Ġê¸°ìģ":12267,"ĠìĭľíĤ¤":12268,"ìĪĺëĭ¨":12269,"Ġê·¸ëĵ¤ìĹĲê²Į":12270,"íĻĶíķĺëĬĶ":12271,"ëħĦëıĻìķĪ":12272,"ĠìŀĲìĤ¬":12273,"ĠìŀĲìĤ°ìĿĦ":12274,"êµ¬ìĹĲìĦľ":12275,"ì¹ĺê¸°":12276,"Ġë°ľëłĪ":12277,"Ġë¶Ģìŀĳ":12278,"Ġë¶Ģì²ĺ":12279,"ìļ°ë¦¬ìĿĺ":12280,"ĠìĨĮëĭĪ":12281,"ĠìķĬê²łëĭ¤":12282,"Ġëĭ¤ì§Ĳ":12283,"Ġë¹Ħìľł":12284,"ë¯¸íķľ":12285,"Ġìľłíļ¨":12286,"ĠìĿĺìĤ¬ëĬĶ":12287,"ĠìĿĺë¬´ë¥¼":12288,"íĶĦìĥ¤":12289,"Ġì¡°íķŃ":12290,"ìĦłê³¼":12291,"Ġì¹©":12292,"ë°Ķë¥¼":12293,"ë°ĶíĿĲ":12294,"ĠìłľëıĦ":12295,"ì¡°ìĤ¬ë¥¼":12296,"Ġëª¨íĹĺ":12297,"íĥĢì£¼":12298,"ĠëıĻêµ´":12299,"Ġê³łë¯¼":12300,"ìķ¼ëĭ¹ìĿ¸":12301,"ìĺ¤íĶĦ":12302,"Ġê°ľê°Ģ":12303,"Ġíķ´íĤ¹":12304,"ĠíļĮìĪĺ":12305,"ĠëĤ¨ìĦľ":12306,"íĺ¸ìĦ¸":12307,"ĠíĨµê·¼":12308,"Ġêµ¬ê°Ħ":12309,"Ġêµ¬íĺķ":12310,"ĠíģĲ":12311,"Ġìĭłì²ľ":12312,"Ġë¶Īìĸ´":12313,"Ġë¶ĪëłĢëĭ¤":12314,"ì¹´íĶĦë¦¬":12315,"Ġê±°ë¦¬ë¡ľ":12316,"Ġìĭ¤ìĸ´":12317,"Ġìĭ¤ìłģ":12318,"Ġë°ĺê²½":12319,"Ġë°ĺêµ°ìĿĢ":12320,"ĠëĤ´ë¡ľ":12321,"ĠëĤ´ìĦ¸":12322,"íĭ°ìĿĺ":12323,"Ġíı¬ìľĦ":12324,"ë²ķìĿĺ":12325,"Ġë¬¸ìŀĲ":12326,"ĠìĦľíķľìĿĦ":12327,"ì¦ĪëĭĪìĬ¤":12328,"ĠíĺĦìĥģ":12329,"ĠêµĲìłĦìĿ´":12330,"ëį°ìĿ¼":12331,"ë¡łìĿĢ":12332,"ë¸Įê°Ģ":12333,"Ġì£¼ìŀ¥ìĿ´":12334,"ë²łë¥´":12335,"ìĸĳìĿ´":12336,"Ġêµ°ê³¼":12337,"ëĤ´ìħĶëĦĲ":12338,"ĠëĲĺìĹĪìĬµëĭĪëĭ¤":12339,"Ġë²ĮìĿ¼":12340,"Ġë²ĮìĺĢëĭ¤ê³ł":12341,"Ġê´Ģê³ĦìŀĲëĵ¤ê³¼":12342,"ì²ŃìĻĢ":12343,"ĠìĤ´ìĿ´":12344,"ĠìĺģêµŃìľ¼ë¡ľ":12345,"ĠCD":12346,"ĠêµŃê°ĢëĬĶ":12347,"ĠìĿĮëŀĢ":12348,"ë©ĶìĿ¸":12349,"ĠëģĪ":12350,"ìĿ´íĬ¸ëĬĶ":12351,"Ġëī´ìĬ¤ìĿĺ":12352,"ĠìĤ°ìĨĮ":12353,"ìĬ¬ëŁ¬ëĬĶ":12354,"ĠìĹ°êµ¬ê²°ê³¼":12355,"ĠìŀĦê¸°ë¥¼":12356,"Ġìµľê³łìľĦ":12357,"ĠìĸĳìŀĲ":12358,"Ġê²½ê¸°ìĿĺ":12359,"Ġì¡´ê²½":12360,"ĠíĻĺìŀĲìĿĺ":12361,"ĠìļĶêµ¬ìĹĲ":12362,"Ġë¸Įë¡ľëĵľ":12363,"Ġì§ĢëıĦë¶ĢëĬĶ":12364,"´ëįĶ":12365,"Ġì¤ĦìĿ´ëĬĶ":12366,"ë¨¸ìĬ¤":12367,"ĠëĨĴìĿ´ê³ł":12368,"ëıĮíĶĦ":12369,"Ġì§ĢìĽĲíķľ":12370,"red":12371,"Ġê¸°ë¡Ŀíķĺë©°":12372,"ĠëĵľëłĪìĬ¤":12373,"Ġëĵ¤ìĸ´ìĺ¤":12374,"Ġìļ©ìĿ¸":12375,"ĠíĮĶëłĪìĬ¤íĥĢ":12376,"ì£Ħë¡ľ":12377,"Ġë³¸ìĦłìĹĲìĦľ":12378,"ĠìĨĲíķ´ë¥¼":12379,"Ġì²ŃëħĦ":12380,"Ġì²Ńì¤ĳ":12381,"Ġê¶Įë¦¬":12382,"ĠìŀĪìĹĪìĿĦ":12383,"Ġë¬´ìŀ¥íķľ":12384,"ĠêµŃë¯¼ìĿĦ":12385,"ĠNational":12386,"ĠìĻķìŀĲ":12387,"ĠBl":12388,"Ġì¤ĳëĭ¨íķĺê³ł":12389,"ĠìľłìĹĶìĿ´":12390,"íģ´ë¦¬íĶĦ":12391,"Ġíģ´ë¦°íĦ´ìĿĺ":12392,"Ġì¤ĳìļĶíķĺëĭ¤ê³ł":12393,"Ġì°¨ëŁīìĿĢ":12394,"Ġpol":12395,"ìĺ¤ë°Ķë§Īê°Ģ":12396,"ĠìĦłìĪĺëĵ¤ìĿĺ":12397,"ĠLe":12398,"ë°Ģë¦¬":12399,"Ġ170":12400,"ê¹Ķ":12401,"ĠìĽĮíĦ°":12402,"ĠìĿ¸ìłķíķł":12403,"Ġë³´íĺ¸íķĺëĬĶ":12404,"Ġì²ľë¬¸íķĻ":12405,"Ġëį°ìĿ´ë¹ĦìĬ¤":12406,"ĠìŀłìĪĺ":12407,"Ġì´Ŀë¦¬ìĹĲê²Į":12408,"ìºĦ":12409,"Ġëª°ëŀĺ":12410,"ĠìĿ¸ì§Īëĵ¤ìĿ´":12411,"Ġëħ¸ëł¥ìĿĺ":12412,"ëĪĦìĹĺ":12413,"ĠíķĺëĤĺìĿ´ëĭ¤":12414,"Ġê³µëıĻìľ¼ë¡ľ":12415,"Ġë§¥ëıĦ":12416,"ĠìĻĢìĿ¸":12417,"Ġê²°íĺ¼íķľ":12418,"Ġë°ĿíĺĶìĹĪëĭ¤":12419,"Ġì¹ľêµ¬ê°Ģ":12420,"ì¼ĵìĿĦ":12421,"Ġìļ´ëıĻê°Ģ":12422,"ech":12423,"Ġì§Ģë°©ìĿĺ":12424,"ĠìĹ°íķ©êµ°":12425,"ë§¨ì²´ìĬ¤íĦ°":12426,"íı´ìĿĢ":12427,"ĠëĬĺìĸ´ëĤł":12428,"ĠìĶ¨ìĿĺ":12429,"Ġë§Īëł¨íķł":12430,"Ġì½ĺíħĲ":12431,"Ġì¤ĳìĭ¬ìĹĲ":12432,"ë²łíĬ¸ëĤ¨":12433,"Ġë¯¿ëĬĶ":12434,"ĠìłĦìĦ¸ê³ĦìĹĲ":12435,"Ġìŀ¬ê°ľëĲł":12436,"ĠìĿ´ê³³ìĿĦ":12437,"ĠëģĮê³ł":12438,"ĠìĹ¬ê°Ŀê¸°ëĬĶ":12439,"ìĸ´ê°Ģê³ł":12440,"ĠìĥģìĽĲìĿĺìĽĲìĿ¸":12441,"Ġì¡°ì¹ĺìĹĲ":12442,"Ġë¶ĢíĨµëł¹ìĿ´":12443,"ĠìŀĳíĴĪìĿĢ":12444,"ĠëıĻìĺģìĥģìĹĲìĦľ":12445,"ĠëıĦë¡ľìĹĲìĦľ":12446,"ĠíĴįëł¥":12447,"Ġê²¨ìļ°":12448,"ĠìłĦë°ĺìłģìľ¼ë¡ľ":12449,"ëĮĢíĳľíĮĢ":12450,"Ġì¢ĭìķĦíķľëĭ¤":12451,"ĠëĤĺìĺ¤ê³ł":12452,"Ġë¹Ħë°Ģë¦¬ìĹĲ":12453,"ĠìľĮë¦¬ìĹĦìĬ¤":12454,"Ġë¶ĦìŁģìĿ´":12455,"ĠìĿ´íķ´íķł":12456,"ìĬ¤íĭ°ë¸Ĳ":12457,"ĠìĦłë°ķìĿ´":12458,"ĠìĤ¶ìĿĺ":12459,"Ġëª©ìĨĮë¦¬":12460,"Ġë°ĶëŀĮìĿ´":12461,"ĠìŀĳìĦ±íķľ":12462,"Ġì¿łë¥´ëĵľì¡±":12463,"Ġìĺ¤íķĺìĿ´ìĺ¤ì£¼":12464,"íĶĮë£¨ìĹĶ":12465,"Ġìķ¨ë²ĶìĿĦ":12466,"ĠíĺĪìķ¡":12467,"Ġì§ĢíĤ¤ê³ł":12468,"ĠíĳľìĭľíĸĪëĭ¤":12469,"Ġì°©ìĪĺíĸĪëĭ¤":12470,"Ġë°ĽìķĦëĵ¤ìĿ´ì§Ģ":12471,"ìĽĮìĭ±íĦ´ìĹĲìĦľ":12472,"ëĥĪìľ¼ë©°":12473,"Ġíķ´ëªħ":12474,"Ġì£¼ëª©ìĿĦ":12475,"Ġì¹Ńì°¬":12476,"Ġëĭµë³ĢìĿĦ":12477,"ĠìķłíĭĢëŀĢ":12478,"merica":12479,"Ġë¬´ìĤ¬ì½¸ëĿ¼ìĹĲìĦľ":12480,"ëĮĦ":12481,"Ġìĺ¤íĨłë°Ķ":12482,"ĠìĿĢìĭłì²ĺ":12483,"ĠìĽĲìĪŃìĿ´":12484,"Ġëĭ¤íģĲë©ĺíĦ°ë¦¬":12485,"Ġëįķë¶ĦìĹĲ":12486,"ĠìĿĺìķ½íĴĪ":12487,"Ġexp":12488,"ĠìĹ´ëĮĢìĦ±":12489,"Ġì¼Īë¦¬":12490,"ĠìĥĺíĶĮìĿĦ":12491,"econom":12492,"ĠìĭľëĤĺë¦¬ìĺ¤":12493,"42":12494,"AE":12495,"My":12496,"Obama":12497,"az":12498,"gency":12499,"ms":12500,"ty":12501,"ª©":12502,"ë®":12503,"ë¼Ī":12504,"Ġen":12505,"ĮíĹ¨":12506,"ìĿ´ë©´":12507,"ê°¤":12508,"ê³łëĬĶ":12509,"ìĿĺìĽĲ":12510,"íķľë¯¸":12511,"ë¡ľë§Ī":12512,"ì§Ģê¸°ëıĦ":12513,"ì§ĢìĪĺëıĦ":12514,"ê°ĢëĶĶ":12515,"ìĦľëıĦ":12516,"ìĬ¤ë¦¬":12517,"Ġê°Ķ":12518,"ìĽ¹":12519,"ëĤ¨ìĿĦ":12520,"ìľ¼ëł¤ëĬĶ":12521,"ĠëĮĢíıŃ":12522,"ìĤ¬ìłĪ":12523,"ĠìĿ´ë¥´ê¸°":12524,"ĠìĤ¬ìĿ¸":12525,"ĠìĤ¬ìłģìĿ¸":12526,"ìŀ¥ì¹ĺë¥¼":12527,"ìĿ¼ìĿ¸":12528,"ĠìĪĺìĪĺ":12529,"ĠìĪĺìĹħìĿĦ":12530,"ĠìłĦìĨ¡":12531,"ê·¸ìĻĢ":12532,"ëĮĢê¸°":12533,"ìłģìĭŃìŀĲ":12534,"ĠìķĦëĭĲ":12535,"Ġê°Ģëįĺ":12536,"Ġê°Ģê²°":12537,"ĠìľĦìĽĲìĿĢ":12538,"ìĪĺì¶ľ":12539,"ì°Į":12540,"ĠìĿ¸ìĭł":12541,"ĠìĿ¸ìĭĿìĿĦ":12542,"êµ¬ì¡°ìĤ¬":12543,"ìĦ±íķľ":12544,"Ġë¶Ģìĭ¤":12545,"Ġê³µìĤ¬":12546,"ĠíĮľ":12547,"ĠìĿ¼ë¡ľ":12548,"ëĭĪíį¼":12549,"ĠìĨĮìķĦ":12550,"ĠìĨĮì´Ŀ":12551,"ĠêµŃíļĮìĹĲ":12552,"ĠêµŃë¬´ìŀ¥ê´ĢìĿ´":12553,"Ġëĭ¤ë¦¬ê°Ģ":12554,"Ġìĺ¤ëłĮì§Ģ":12555,"ĠìľłìĪĺ":12556,"ĠìľłëŀĮ":12557,"Ġìľłìĸ¸":12558,"Ġìľłê°ĲìĿĦ":12559,"ĠìĿĺìĭĿ":12560,"ìĨĮìĭľ":12561,"ìĨĮëĵĿ":12562,"ëĲĺì§Ģë§Į":12563,"Ġì¡°ëªħ":12564,"ìĦłìľ¼ë¡ľ":12565,"ĠìłľëĦ¤":12566,"ìĦ¸ë¥´ë¹ĦìķĦ":12567,"ĠìĹ°ìŀĦ":12568,"ĠìĹ°ë£Įë¥¼":12569,"ĠíķĺìĻĢ":12570,"ĠíķĺìĤ°":12571,"ì¡°ì¹ĺ":12572,"ì¡°ìĤ¬ìĹĲ":12573,"Ġëª¨ìľ¼":12574,"ìĽĶê³¼":12575,"ĠìĦłì§Ħ":12576,"ĠìĺĪìĸ¸":12577,"Ġê³łìĸ´":12578,"ìĺ¤ìĹ¼":12579,"ìĭľê°ĦìĹĲ":12580,"Ġíķ´ê°Ģ":12581,"Ġíķ´ìĻĶëĭ¤":12582,"ìĭ¤ìłľë¡ľ":12583,"ĠëıĦìĭ¬":12584,"Ġìŀ¥ì¹ĺë¥¼":12585,"ĠëĤ¨ê²¼ëĭ¤":12586,"Ġë¬´ìĤ°":12587,"Ġë¬´íļ¨":12588,"íĮĮìĹħ":12589,"ĠìĭłìĽĲìĿ´":12590,"êµĲìĿĺ":12591,"ĠìĹĲíĭ°ìĺ¤íĶ¼ìķĦ":12592,"Ġë°ĺì²´ìłľ":12593,"ĠëĤ´ê²Į":12594,"ìĹĪëĬĶëį°":12595,"Ġê°ĲìĤ¬ë¥¼":12596,"Ġìŀħìĸ´":12597,"Ġìŀħëł¥":12598,"íĭ°ë¥¼":12599,"ë°ľìĿĺ":12600,"Ġíı¬ìŀ¥":12601,"Ġì°¨ìĹĲ":12602,"Ġë§¤ëª°":12603,"ĠíıŃë¡ľ":12604,"ĠìļĶìĿ¸":12605,"ĠêµĲê³¼":12606,"ĠêµĲìĪĺê°Ģ":12607,"ëį°ìŀĲ":12608,"Ġì¶ľìŀ¥":12609,"ë²ĦìĬ¤":12610,"Ġì£¼ìŀ¥íĸĪì§Ģë§Į":12611,"ĠìĽĲíĻĶ":12612,"ë²łìĬ¤ëĬĶ":12613,"Ġëªħìľ¼ë¡ľ":12614,"Ġ71":12615,"ern":12616,"Ġë²łìĸ´":12617,"ìĸĳìĿĺ":12618,"Ġêµ°íķ¨":12619,"ĠìĺĪìłķëĲĺìĸ´":12620,"Ġíĺ¸ìłĦ":12621,"ìĿ´ëĿ¼ëıĦ":12622,"Ġ82":12623,"Ġ85":12624,"Ġë°ľíĳľìĹĲ":12625,"Ġì§ĳë¬´":12626,"ĠëĳĲë²Īì§¸":12627,"Ġë²ķìłķìĹĲ":12628,"ì²ŃìĿĺ":12629,"ĠíĥĢìĿ´ìĸ´":12630,"ĠíĽĦë³´ìĹĲê²Į":12631,"ĠíĻĶíķ´":12632,"ĠíĮĲëĭ¨ìĿĦ":12633,"ĠëıħëıĦ":12634,"ĠìĭľìŀĳëĲĺëĬĶ":12635,"Ġë¬¼ìĹĪëĭ¤":12636,"Ġë¬¼ë¦¬íķĻ":12637,"alth":12638,"ìĤ´ìĿ¸":12639,"ĠAf":12640,"ĠíħĮëŁ¬ìĿĺ":12641,"ĠíħĮëŁ¬ìĻĢìĿĺ":12642,"ĠíħĮëŁ¬ëĭ¨ì²´":12643,"íĺķìĹĲ":12644,"íİĺë¥´ë²łì¦Ī":12645,"ĠìĹŃìĦ¤":12646,"ĠìĹŃìĤ¬ìĿĺ":12647,"Ġì´Īê³ł":12648,"ĠëĴ¤ì§ĳ":12649,"ëŁ½ê²Į":12650,"Ġì¹´íĦ°":12651,"Ġì§Ģì§Ģìľ¨ìĿĦ":12652,"Ġì·¨íĸĪëĭ¤":12653,"íĺĳìłķìĿĦ":12654,"Ġë¸Įëŀĺëĵľ":12655,"ë¥´ë©´ìĦľ":12656,"ĠíĻľìĦ±íĻĶ":12657,"ë¨¸ëĬĶ":12658,"Ġì§ĢìĽĲíķĺê¸°":12659,"Ġì¹ľìĦł":12660,"Ġëĵľë¬¼":12661,"íĿĳ":12662,"ì´Ŀìŀ¥":12663,"ëĤ¨ìķĦíĶĦë¦¬ì¹´":12664,"ĠëĶĶì¹´íĶĦë¦¬":12665,"ì»¤ê°Ģ":12666,"ĠêµŃë¯¼ëĵ¤ìĿĦ":12667,"ĠìĽĶìĬ¤íĬ¸ë¦¬íĬ¸":12668,"ĠIs":12669,"ĠNK":12670,"ê³³ìĿĺ":12671,"Ġì£¼ë¯¼ìĿĢ":12672,"Ġê°ģì¢ħ":12673,"ĠìĺĪìĥģë³´ëĭ¤":12674,"ĠíħĮìĿ¼ëŁ¬":12675,"ĠìłĪê°Ĳ":12676,"Ġë°Ģë¦¼":12677,"ĠëĪĦë¥´ê³ł":12678,"ĠìłĦìŁģìĹĲìĦľ":12679,"Ġê°ľë°ľëıĦìĥģ":12680,"Ġì£¼ì§ĢìĤ¬ìĿĺ":12681,"ĠíŀĺìĿ´":12682,"ĠìŀłìĿĦ":12683,"Ġíİ¸ì§Ģ":12684,"Ġwar":12685,"Ġë³´ìķĪê´Ģ":12686,"ĠìŀĲìĤ´ìĿĦ":12687,"Ġê±°ëŀĺê°Ģ":12688,"ĠìĻĢìĦľ":12689,"Ġìĺ¤ëĬĺëĤł":12690,"Ġì°¸ê°Ģíķł":12691,"ìĥ¤ëĿ¼íı¬":12692,"ĠëĪĪë¬¼ìĿĦ":12693,"ecur":12694,"ĠíĻĺê²½ìĿĦ":12695,"ëł¸ìĬµëĭĪëĭ¤":12696,"Ġë©´ìĹĲìĦľ":12697,"Ġë©´ìłľ":12698,"Ġë°±ìķħê´ĢìĹĲ":12699,"ĠëĶ¸ìĿ¸":12700,"ëĮĢíĨµëł¹ìĿ´":12701,"ĠíĮ¬ëĵ¤ìĹĲê²Į":12702,"ĠìłľìķĪíķľ":12703,"Ġë¯¿ëĬĶëĭ¤":12704,"ĠëķĮë¬¸ìŀħëĭĪëĭ¤":12705,"ìĽłëįĺ":12706,"Ġë§¨íķ´":12707,"ĠìĭľìĦ¤ìĹĲ":12708,"Ġì±ħìŀĦìŀĲìĿ¸":12709,"ìŀĲíļĮëĭ´ìĹĲìĦľ":12710,"ĠíĸīìĤ¬íķł":12711,"irl":12712,"Ġë¶Ģë¶ĦìĿĢ":12713,"Ġë¶ĢíĨµëł¹ìĿĺ":12714,"Ġíĺĳëł¥íķł":12715,"ĠìĦłì¶ľëĲľ":12716,"ĠìĤ¬ëŀĳíķĺëĬĶ":12717,"ì¹´ë©Ķ":12718,"ìĬ¤ëŁ½ëĭ¤":12719,"Ġë§ºìĿĢ":12720,"Ġê¼½":12721,"ĠìĨĶì§ģ":12722,"ights":12723,"íĸĦìĿĢ":12724,"Ġëª©ìĨĮë¦¬ë¡ľ":12725,"ìĬ¤íĨłëĭĪìķĦ":12726,"Ġê³µê³µìŀ¥":12727,"Ġì¦Ŀìĸ¸íĸĪëĭ¤":12728,"Ġìŀ¥ëĤľê°ĲìĿĦ":12729,"ĠëĮĵ":12730,"ĠíĻľìļ©íķł":12731,"ĠìľłìłĦìŀĲ":12732,"ourt":12733,"Ġëª©ìłģìĿĢ":12734,"Ġê¸°ë°ĺìľ¼ë¡ľ":12735,"Ġê°ķíĥĢíķľ":12736,"Ġë¶ĦìľĦê¸°":12737,"Ġíĺģìĭł":12738,"ĠìĨĮê°ľíĸĪëĭ¤":12739,"ĠìĿ´ë¡ľìį¨":12740,"ĠìľłìĦ¸ìĹĲìĦľ":12741,"ĠCEOëĬĶ":12742,"ief":12743,"ĠëıĻë°ĺíķľ":12744,"Korean":12745,"ìĤ¬ìļ°ëĶĶ":12746,"êµŃë°©ë¶ĢëĬĶ":12747,"ĠíŀĲëŁ¬ë¦¬ê°Ģ":12748,"ĠëĪĦêµ°ê°Ģê°Ģ":12749,"Ġë¦¬ì¡°íĬ¸":12750,"Ġì¼ĦíĦ°íĤ¤":12751,"ĠëĳĺëŁ¬ìĭ¸ê³ł":12752,"Ġìĭ«ìĸ´":12753,"ĠCenter":12754,"ë²łì»´ìĿĢ":12755,"ĠìĭĿìĿ´ìļĶ":12756,"ĠìĹ´ëł¸ëįĺ":12757,"Ġagainst":12758,"ĠìĿ´ë¸ĮëĿ¼íŀĺ":12759,"ĠíħĮëŁ¬ì§ĢìĽĲêµŃ":12760,"Ġë©Ķëĵľë²łëį°":12761,"61":12762,"95":12763,"DP":12764,"GH":12765,"NC":12766,"NBC":12767,"UV":12768,"Un":12769,"der":12770,"io":12771,"ok":12772,"ran":12773,"rans":12774,"ward":12775,"Ģëĭ¤ê³ł":12776,"ìĿ´ìĹĲëĶ°ëĿ¼":12777,"íķĺìĺĢìľ¼ë©°":12778,"ê°Ģë¦¬":12779,"Ġìķĵ":12780,"ìĿ¸ì¹ĺ":12781,"ìĿ¸ì§Ī":12782,"ëĵ¤ìĹĲìĦľ":12783,"íķ´ì£¼ëĬĶ":12784,"ê¸°ìłģìĿ¸":12785,"ĠëĮĢê°Ģ":12786,"ĠëĮĢìĤ¬ê°Ģ":12787,"ìŀĲíĤ¤":12788,"ìĭľê²½":12789,"ĠìĿ´ë¡Ģ":12790,"ĠìĿ´ìĬ¤íĥĦë¶Ī":12791,"Ġìĺµ":12792,"ĠìĤ¬ìĽĲìĿĦ":12793,"ĠëĤ«":12794,"Ġì§ĢëĤ¸":12795,"ĠìĪĺì¹ĺë¥¼":12796,"ĠìłĦìŀĦ":12797,"ìĻģ":12798,"ìĥģìĬ¹":12799,"ìłķìľ¼ë¡ľ":12800,"ìłķVS":12801,"ìłģìĿ´ìĹĪëĭ¤":12802,"ĠìķĦëĵ¤ìĿĺ":12803,"Ġê°ĢìĦľ":12804,"Ġê°ĢëĿ¼":12805,"Ġê°Ģê¸°":12806,"Ġì£¼ì¹ĺìĿĺ":12807,"ìłľìĿ¸":12808,"íķĺëĬĶì§Ģ":12809,"ĠìĭľëıĦë¥¼":12810,"ìĪĺì²ľ":12811,"ìĪĺìĪłìĿĦ":12812,"ĠìłķíĨµ":12813,"Ġìłķë³´ê¸°":12814,"Ġìłķê·ľ":12815,"Ġìļ´ë°ĺ":12816,"Ġì¤ĳìĥģìĿĦ":12817,"ëħĦì§¸":12818,"ĠìĿ¸ëł¥":12819,"ĠìĿ¸ëĤ´":12820,"ìłĦìĿ¸":12821,"êµ¬ë¡ľ":12822,"ë¬¸ìłľê°Ģ":12823,"Ġë¶Ģë¥¸":12824,"Ġê³µê¸°":12825,"ëĭĪë¥¼":12826,"Ġê´ĢìłĪ":12827,"Ġëį´ë²Ħ":12828,"ĠìĨĮíĻĶ":12829,"Ġëĭ¤ëħĢ":12830,"ëĭ¹ìĭłìĿĢ":12831,"Ġìĺ¤ê³ł":12832,"Ġìĺ¤ë¥´":12833,"Ġìľłë¬¼":12834,"ĠìĥģíĮĮìļ¸":12835,"Ġì´Ľ":12836,"Ġì¡°ë§Įê°Ħ":12837,"Ġ350":12838,"ìĦ¸ëł¥ìĿĦ":12839,"ĠìĹ°ëł¹":12840,"ĠìĹ°ë¦½":12841,"Ġëª¨ë¦¬":12842,"Ġíĥĵ":12843,"íĥĢë¡ľ":12844,"Ġë§ĪëĿ¼ëıĦ":12845,"ĠëıĻìľłëŁ½":12846,"íĳľëĬĶ":12847,"íĺĦìłķVS":12848,"ìķ¼ë§Į":12849,"ĠìµľìĦłìĿĺ":12850,"ìĭĿëŁī":12851,"ê³µìłķ":12852,"Ġê²°íķ¨":12853,"Ġê²°ìĭ¬ìĿĦ":12854,"Ġíķ´ì²´":12855,"ĠìĦ¸íĬ¸":12856,"ĠìĦ¸ë¹Ħ":12857,"ĠìĦ¸ê·ł":12858,"ĠëıĦìļĶ":12859,"ĠëıĦëĶĶ":12860,"Ġìŀ¥ì¹ĺ":12861,"Ġìŀ¥ìĨĮë¡ľ":12862,"Ġì´Ŀë¦¬ìĹĲ":12863,"ĠíĮĮìļ´ëĵľ":12864,"íı¬ë¡ľ":12865,"Ġêµ¬íķł":12866,"Ġêµ¬íķĺê¸°":12867,"Ġíģ´ë¦°":12868,"Ġëħ¸ëįĺ":12869,"Ġìĭłë¬¸ìĹĲ":12870,"Ġìĭ¤ì§ģ":12871,"Ġë§ĮëĤ¨":12872,"ĠìĤ¬ëŀĮëĵ¤ìĹĲ":12873,"ĠìĤ¬ëŀĮëĵ¤ëıĦ":12874,"íĭ°ëĵľ":12875,"Ġíı¬ê´Ħ":12876,"ĠìĿ´ë²ł":12877,"ì½ĶíĬ¸":12878,"ĠíĺĦëĮĢìĿĺ":12879,"ĠìķĪëĤĺ":12880,"Ġì§Ħëĭ¨ìĿĦ":12881,"ino":12882,"ĠìĿ´ëĿ¼íģ¬ë¡ľ":12883,"ĠìĿ´ëĿ¼íģ¬ëĤ´":12884,"Ġì¶Ķì¶ľ":12885,"ë¡łìĿĦ":12886,"ëĳĲëĬĶ":12887,"ëĳĲë¥¼":12888,"Ġì£¼ìŀ¥ìĿĢ":12889,"ĠìĽĲìŀ¥ìĿĢ":12890,"ĠìĬ¹ìļ©":12891,"íĶ¼ëĭĪìĸ¸":12892,"ĠëªħìĹĲ":12893,"Ġëªħëĭ¨ìĹĲ":12894,"ĠíĸīìĤ¬ëĬĶ":12895,"ĠíĸīìĤ¬ê°Ģ":12896,"ìĸĳêµŃ":12897,"Ġì¦ĿìĭľìĿĺ":12898,"ìĸ´ëľ¨":12899,"Ġì§ĢìĹŃìĿ´ëĭ¤":12900,"ĠëĲĺë©´ìĦľ":12901,"Ġëį°ìĿ¼ë¦¬":12902,"Ġì§ĳíļĮ":12903,"Ġtra":12904,"ĠíĬĢ":12905,"Ġëª©ìłģìĿ´":12906,"Ġëª©ìļĶìĿ¼ìĹĲ":12907,"ĠíĥĢíĺĳ":12908,"Ġë°°íĦ°":12909,"Ġëª»íķĺë©´":12910,"Ġ900":12911,"ëıħë¦½":12912,"ĠíĻĶìĥģìĿĦ":12913,"ĠêµŃê°Ģìłķë³´":12914,"Ġìķŀëĭ¹":12915,"ĠìĿ´ìĥģíķľ":12916,"ĠìłĢëĦĲ":12917,"ĠìłĢíĿ¬":12918,"ìĿ´íĬ¸ë¥¼":12919,"ĠAS":12920,"Ġíģ¬ëĭ¤":12921,"Ġíģ¬ê³ł":12922,"Ġê³ĦíļįìĿĺ":12923,"ĠìĹŃìłĦ":12924,"ĠìŀĦë°ķ":12925,"Ġì¡°ìĤ¬íķĺê¸°":12926,"ĠíĶĦë¡ľëĵĢ":12927,"Ġë°ķíħĮë¦¬ìķĦ":12928,"Ġë¹ĦëĤľíķľ":12929,"Ġì¤Ħë¦¬":12930,"ìµľì§Ģìļ°":12931,"ìĽĢìĿ´":12932,"ëıĮìĿ´":12933,"Ġë§ŀìķĺëĭ¤":12934,"Ġê²Įë¦¬":12935,"Ġì§ĢìĽĲìĹĲ":12936,"ìŀĪê³ł":12937,"Ġëª¨ëĳĲë¥¼":12938,"ĠëĵľëĿ¼ìĿ´":12939,"¸ëĭ¤íķĺë¥´":12940,"ĠìłĲíĶĦ":12941,"Ġì°¾ìķĺëĭ¤":12942,"ĠìĤ¬ìĿ´ë²Ħ":12943,"ick":12944,"Ġìĭľê°ĦìĹĲ":12945,"ĠëĶĶìĹĲ":12946,"ĠìĿĢíķĺ":12947,"Ġë¹Ħíĸīê¸°ìĹĲ":12948,"ĠìŀĪìĹĪê¸°":12949,"ëĵ±íķľ":12950,"ĠëĶ°ë¥¼":12951,"Ġì¹¨íĪ¬":12952,"ĠìĿ´ìļ©íķĺê³ł":12953,"ĠíĮĮíĤ¤ìĬ¤íĥĦìĹĲ":12954,"ĠíĦ°ëľ¨":12955,"Ġëī´ìļķíĥĢìŀĦ":12956,"ĠíĬ¸ë¡ľíĶ¼":12957,"ëı¼ìŀĪëĭ¤":12958,"ë¸Ķëŀľëĵľ":12959,"ë¸ĶëłĪìĸ´":12960,"Ġì¤ĳìļĶìĦ±ìĿĦ":12961,"Ġìłķë³´ê°Ģ":12962,"ĠìļĶì²ŃíķĺëĬĶ":12963,"Ġìĸ¸ê¸īìĿĢ":12964,"ìĺ¤ë°Ķë§ĪìĿĺ":12965,"ĠíķĺëĿ½íĸĪìĬµëĭĪëĭ¤":12966,"ĠíķĺëĿ½ìĦ¸ë¥¼":12967,"Ġìłľê³µíĸĪëĭ¤":12968,"kmë¥¼":12969,"Ġë³´ìĹ¬ì¤Ħ":12970,"ĠìĥģìĬ¹ìĦ¸ë¥¼":12971,"ĠìĿ¸ìłķíķľ":12972,"ĠìĤ¬ë¬´ìĭ¤ìĿĦ":12973,"ĠëıħìĿ¼ìĿ¸":12974,"ëĲĺìĹĪëĭ¤ëĬĶ":12975,"Ġìłķì±ħìĿ´":12976,"Ġì´Ŀë¦¬ë¡ľ":12977,"Ġíľ´ìĬ¤íĦ´":12978,"Ġëħ¸ëıĻìŀĲëĵ¤ìĿ´":12979,"Ġì°½ë¦½":12980,"Ġì°½ê¸°ëĿ¼ìĿ´":12981,"Ġëħ¸ëł¥ìĹĲ":12982,"Ġë°ĸìĿĺ":12983,"ĠíķĺëĤĺê°Ģ":12984,"Ġê²½ìŁģìŀĲìĿ¸":12985,"Ġë¶ģë¶ĢìĹĲìĦľ":12986,"urn":12987,"ety":12988,"Ġìľłì§ĢíķĺëĬĶ":12989,"ĠìĽ¹ìĤ¬ìĿ´íĬ¸ìĹĲìĦľ":12990,"ĠìĿ¼ìľ¼ì¼ľ":12991,"ĠíĹ¬ê¸°ë¥¼":12992,"Ġë©´ìĹŃ":12993,"íŀĲíĬ¼ìĿĢ":12994,"Ġìľłê¶ĮìŀĲëĵ¤ìĿĢ":12995,"ĠíļĮìĿĺê°Ģ":12996,"Ġê²ªìĹĪëĭ¤":12997,"ìĦ¼íĦ°ìĹĲìĦľ":12998,"ë¡Ńê³ł":12999,"íĥķì¿ł":13000,"ĠíĻķë³´íķł":13001,"Ġë°°ìļ°ìĿ¸":13002,"ĠìĿĺë¯¸ë¥¼":13003,"Ġ1982":13004,"Ġ1988":13005,"Ġìłľì¶ľíķł":13006,"Ġë©Ķìĭľì§Ģ":13007,"ìī¬ëĬĶ":13008,"Ġë¶ĢíĨłìĿĺ":13009,"Ġê·¸ë£¹ìĿĺ":13010,"´ëĲĺê³ł":13011,"ĠìĬ¬íĶ":13012,"ĠëĬ¥ëł¥ìĿ´":13013,"Ġë¯¸ëŀĺìĿĺ":13014,"ĠìŀħìĽĲíĸĪëĭ¤":13015,"ĠëĮĢë²ķìĽĲìĿĢ":13016,"ìķ¤ìł¤ëłĪìĬ¤":13017,"TON":13018,"ĠíħįìĤ¬ìĬ¤ì£¼":13019,"ĠëĬĲëĤĢëĭ¤":13020,"ëĮĢíķĻìĿĺ":13021,"ĠìŀĦë¬´ëĬĶ":13022,"ĠìµľìłĢì¹ĺë¥¼":13023,"Ġì§ĢíĤ¤ê¸°":13024,"Ġìŀ¥ë¡ĢìĭĿìĹĲ":13025,"Ġë°´ëĵľ":13026,"íģ´ë¦¬íĶĦëĬĶ":13027,"Ġë¶ķê´´ëĲľ":13028,"Ġìĸ´ëĶĶìĦľ":13029,"ĠìļĶë¥´ëĭ¨ê°ķ":13030,"ĠíĥĿìĭľ":13031,"ìľĮë¦¬ìĹĦìĬ¤ëĬĶ":13032,"ĠíĹ¤ì¦Īë³¼ëĿ¼":13033,"ASH":13034,"ê¸°ë¡ĿìĿĦ":13035,"ĠìĹ´ë¦°ìļ°ë¦¬ëĭ¹":13036,"Ġíľ´ëĮĢìłĦíĻĶ":13037,"Ġì²¨ëĭ¨":13038,"Ġê²½íĸ¥ìĿ´":13039,"Ġì½Ķëģ¼ë¦¬":13040,"Ġëħ¸ë¥´ìĽ¨ìĿ´":13041,"ĠëĲĺëıĮìķĦ":13042,"ĠìĿ´ëĵĿìĿĦ":13043,"roup":13044,"Ġê¸ĢëŀĺìĬ¤":13045,"ĠëĮĢëĮĢìłģìĿ¸":13046,"ĠëıĻê³Ħìĺ¬ë¦¼íĶ½":13047,"ĠíĴįë¶Ģíķľ":13048,"Ġì²©ë³´":13049,"Ġë¬´ìĬ¹ë¶Ģë¥¼":13050,"ĠìĪĺë¥ĺíĥĦ":13051,"Ġì§Ģì§ĢìĦłìĸ¸ìĿĦ":13052,"ìĹ´ë¦°ìļ°ë¦¬":13053,"ĠìĹīëį©":13054,"ëŃĦ":13055,"ĠìĹ°ë°©ì¤Ģë¹ĦìłľëıĦìĿ´ìĤ¬íļĮ":13056,"íĺĦìłķVSìµľì§Ģìļ°":13057,"91":13058,"AT":13059,"AX":13060,"DS":13061,"MP":13062,"North":13063,
[...]
